{
  "version": "1.0",
  "truncation": null,
  "padding": null,
  "added_tokens": [
    {
      "id": 0,
      "content": "<unk>",
      "single_word": false,
      "lstrip": false,
      "rstrip": false,
      "normalized": false,
      "special": true
    },
    {
      "id": 1,
      "content": "<s>",
      "single_word": false,
      "lstrip": false,
      "rstrip": false,
      "normalized": false,
      "special": true
    },
    {
      "id": 2,
      "content": "</s>",
      "single_word": false,
      "lstrip": false,
      "rstrip": false,
      "normalized": false,
      "special": true
    },
    {
      "id": 3,
      "content": "<pad>",
      "single_word": false,
      "lstrip": false,
      "rstrip": false,
      "normalized": false,
      "special": true
    },
    {
      "id": 4,
      "content": "<mask>",
      "single_word": false,
      "lstrip": false,
      "rstrip": false,
      "normalized": false,
      "special": true
    }
  ],
  "normalizer": {
    "type": "Sequence",
    "normalizers": [
      {
        "type": "Prepend",
        "prepend": " "
      },
      {
        "type": "NFKC"
      },
      {
        "type": "Replace",
        "pattern": {
          "Regex": "\\n"
        },
        "content": "\n "
      },
      {
        "type": "Replace",
        "pattern": {
          "Regex": " *\\n"
        },
        "content": "\n"
      }
    ]
  },
  "pre_tokenizer": {
    "type": "Sequence",
    "pretokenizers": [
      {
        "type": "Split",
        "pattern": {
          "Regex": "[^\\r\\n\\p{L}\\p{N}]?[\\p{Lu}\\p{Lt}\\p{Lm}\\p{Lo}\\p{M}]*[\\p{Ll}\\p{Lm}\\p{Lo}\\p{M}]+|[^\\r\\n\\p{L}\\p{N}]?[\\p{Lu}\\p{Lt}\\p{Lm}\\p{Lo}\\p{M}]+[\\p{Ll}\\p{Lm}\\p{Lo}\\p{M}]*|\\p{N}| ?[^\\s\\p{L}\\p{N}]+[\\r\\n/]*|\\s*[\\r\\n]+|\\s+(?!\\S)|\\s+"
        },
        "behavior": "Isolated",
        "invert": false
      },
      {
        "type": "ByteLevel",
        "add_prefix_space": false,
        "trim_offsets": true,
        "use_regex": false
      },
      {
        "type": "Split",
        "pattern": {
          "Regex": ".{1,24}"
        },
        "behavior": "Isolated",
        "invert": false
      }
    ]
  },
  "post_processor": {
    "type": "TemplateProcessing",
    "single": [
      {
        "SpecialToken": {
          "id": "<s>",
          "type_id": 0
        }
      },
      {
        "Sequence": {
          "id": "A",
          "type_id": 0
        }
      },
      {
        "SpecialToken": {
          "id": "</s>",
          "type_id": 0
        }
      }
    ],
    "pair": [
      {
        "SpecialToken": {
          "id": "<s>",
          "type_id": 0
        }
      },
      {
        "Sequence": {
          "id": "A",
          "type_id": 0
        }
      },
      {
        "SpecialToken": {
          "id": "</s>",
          "type_id": 0
        }
      },
      {
        "SpecialToken": {
          "id": "<s>",
          "type_id": 0
        }
      },
      {
        "Sequence": {
          "id": "B",
          "type_id": 0
        }
      },
      {
        "SpecialToken": {
          "id": "</s>",
          "type_id": 0
        }
      }
    ],
    "special_tokens": {
      "</s>": {
        "id": "</s>",
        "ids": [
          2
        ],
        "tokens": [
          "</s>"
        ]
      },
      "<s>": {
        "id": "<s>",
        "ids": [
          1
        ],
        "tokens": [
          "<s>"
        ]
      }
    }
  },
  "decoder": {
    "type": "Sequence",
    "decoders": [
      {
        "type": "ByteLevel",
        "add_prefix_space": true,
        "trim_offsets": true,
        "use_regex": true
      },
      {
        "type": "Strip",
        "content": " ",
        "start": 1,
        "stop": 0
      },
      {
        "type": "Replace",
        "pattern": {
          "String": "\n "
        },
        "content": "\n"
      }
    ]
  },
  "model": {
    "type": "BPE",
    "dropout": null,
    "unk_token": "<unk>",
    "continuing_subword_prefix": null,
    "end_of_word_suffix": null,
    "fuse_unk": false,
    "byte_fallback": false,
    "ignore_merges": false,
    "vocab": {
      "<unk>": 0,
      "<s>": 1,
      "</s>": 2,
      "<pad>": 3,
      "<mask>": 4,
      "!": 5,
      "\"": 6,
      "#": 7,
      "$": 8,
      "%": 9,
      "&": 10,
      "'": 11,
      "(": 12,
      ")": 13,
      "*": 14,
      "+": 15,
      ",": 16,
      "-": 17,
      ".": 18,
      "/": 19,
      "0": 20,
      "1": 21,
      "2": 22,
      "3": 23,
      "4": 24,
      "5": 25,
      "6": 26,
      "7": 27,
      "8": 28,
      "9": 29,
      ":": 30,
      ";": 31,
      "<": 32,
      "=": 33,
      ">": 34,
      "?": 35,
      "@": 36,
      "A": 37,
      "B": 38,
      "C": 39,
      "D": 40,
      "E": 41,
      "F": 42,
      "G": 43,
      "H": 44,
      "I": 45,
      "J": 46,
      "K": 47,
      "L": 48,
      "M": 49,
      "N": 50,
      "O": 51,
      "P": 52,
      "Q": 53,
      "R": 54,
      "S": 55,
      "T": 56,
      "U": 57,
      "V": 58,
      "W": 59,
      "X": 60,
      "Y": 61,
      "Z": 62,
      "[": 63,
      "\\": 64,
      "]": 65,
      "^": 66,
      "_": 67,
      "`": 68,
      "a": 69,
      "b": 70,
      "c": 71,
      "d": 72,
      "e": 73,
      "f": 74,
      "g": 75,
      "h": 76,
      "i": 77,
      "j": 78,
      "k": 79,
      "l": 80,
      "m": 81,
      "n": 82,
      "o": 83,
      "p": 84,
      "q": 85,
      "r": 86,
      "s": 87,
      "t": 88,
      "u": 89,
      "v": 90,
      "w": 91,
      "x": 92,
      "y": 93,
      "z": 94,
      "{": 95,
      "|": 96,
      "}": 97,
      "~": 98,
      "¡": 99,
      "¢": 100,
      "£": 101,
      "¤": 102,
      "¥": 103,
      "¦": 104,
      "§": 105,
      "¨": 106,
      "©": 107,
      "ª": 108,
      "«": 109,
      "¬": 110,
      "®": 111,
      "¯": 112,
      "°": 113,
      "±": 114,
      "²": 115,
      "³": 116,
      "´": 117,
      "µ": 118,
      "¶": 119,
      "·": 120,
      "¸": 121,
      "¹": 122,
      "º": 123,
      "»": 124,
      "¼": 125,
      "½": 126,
      "¾": 127,
      "¿": 128,
      "Â": 129,
      "Ã": 130,
      "Ä": 131,
      "Å": 132,
      "Æ": 133,
      "Ç": 134,
      "È": 135,
      "É": 136,
      "Ê": 137,
      "Ë": 138,
      "Î": 139,
      "×": 140,
      "Ù": 141,
      "à": 142,
      "á": 143,
      "â": 144,
      "ã": 145,
      "å": 146,
      "é": 147,
      "ê": 148,
      "ï": 149,
      "ð": 150,
      "Ġ": 151,
      "ġ": 152,
      "Ģ": 153,
      "ģ": 154,
      "Ĥ": 155,
      "ĥ": 156,
      "Ħ": 157,
      "ħ": 158,
      "Ĩ": 159,
      "ĩ": 160,
      "Ī": 161,
      "ī": 162,
      "Ĭ": 163,
      "ĭ": 164,
      "Į": 165,
      "į": 166,
      "İ": 167,
      "ı": 168,
      "Ĳ": 169,
      "ĳ": 170,
      "Ĵ": 171,
      "ĵ": 172,
      "Ķ": 173,
      "ķ": 174,
      "ĸ": 175,
      "Ĺ": 176,
      "ĺ": 177,
      "Ļ": 178,
      "ļ": 179,
      "Ľ": 180,
      "ľ": 181,
      "Ŀ": 182,
      "ŀ": 183,
      "Ł": 184,
      "ł": 185,
      "Ń": 186,
      "Ġt": 187,
      "he": 188,
      "Ġa": 189,
      "in": 190,
      "Ġw": 191,
      "Ġthe": 192,
      "Ġs": 193,
      "re": 194,
      "ou": 195,
      "Ġ*": 196,
      "Ġo": 197,
      "ha": 198,
      "er": 199,
      "nd": 200,
      "Ġb": 201,
      "it": 202,
      "is": 203,
      "Ġc": 204,
      "Ġm": 205,
      "on": 206,
      "Ġd": 207,
      "Ġf": 208,
      "ing": 209,
      "Ġy": 210,
      "Ġto": 211,
      "ĠI": 212,
      "ed": 213,
      "ll": 214,
      "or": 215,
      "an": 216,
      "en": 217,
      "es": 218,
      "Ġp": 219,
      "Ġand": 220,
      "Ġyou": 221,
      "hat": 222,
      "Ġl": 223,
      "ar": 224,
      "Ġg": 225,
      "Ġof": 226,
      "HI": 227,
      "CHI": 228,
      "Ġn": 229,
      "Ġin": 230,
      "as": 231,
      "at": 232,
      "OT": 233,
      "MOT": 234,
      "om": 235,
      "Ġhe": 236,
      "Ġh": 237,
      "ow": 238,
      "le": 239,
      "ot": 240,
      "Ġha": 241,
      "Ġit": 242,
      "ic": 243,
      "'s": 244,
      "et": 245,
      "Ġon": 246,
      "ay": 247,
      "ve": 248,
      "Ġth": 249,
      "Ġthat": 250,
      "us": 251,
      "ĠT": 252,
      "id": 253,
      "gh": 254,
      "Ġbe": 255,
      "al": 256,
      "Ġe": 257,
      "ĠS": 258,
      "ld": 259,
      "ĠA": 260,
      "Ġwas": 261,
      "Ġis": 262,
      "ut": 263,
      "Ġwe": 264,
      "Ġre": 265,
      "ĠM": 266,
      "im": 267,
      "ac": 268,
      "ver": 269,
      "ent": 270,
      "oo": 271,
      "Ġ=": 272,
      "ion": 273,
      "ad": 274,
      "Ġfor": 275,
      "ir": 276,
      "ke": 277,
      "ly": 278,
      "ri": 279,
      "..": 280,
      "Ġst": 281,
      "Ġu": 282,
      "Ġ[": 283,
      "se": 284,
      "ĠC": 285,
      "'t": 286,
      "am": 287,
      "ĠW": 288,
      "ght": 289,
      "ĠH": 290,
      "Ġdo": 291,
      "st": 292,
      "ro": 293,
      "ĠB": 294,
      "ith": 295,
      "out": 296,
      "Ġwh": 297,
      "her": 298,
      "Ġk": 299,
      "Ġme": 300,
      "Ġwith": 301,
      "Ġ\"": 302,
      "Ġan": 303,
      "Ġwhat": 304,
      "ur": 305,
      "ĠThe": 306,
      "Ġas": 307,
      "all": 308,
      "Ġse": 309,
      "Ġat": 310,
      "ome": 311,
      "ch": 312,
      "ter": 313,
      "ea": 314,
      "Ġli": 315,
      "ce": 316,
      "ill": 317,
      "ould": 318,
      "Ġnot": 319,
      "Ġthis": 320,
      "Ġgo": 321,
      "il": 322,
      "Ġhave": 323,
      "ĠD": 324,
      "ĠP": 325,
      "Ġher": 326,
      "AT": 327,
      "ĠY": 328,
      "Ġhis": 329,
      "ct": 330,
      "ra": 331,
      "ĠN": 332,
      "xx": 333,
      "Ġkn": 334,
      "if": 335,
      "FAT": 336,
      "Ġno": 337,
      "ust": 338,
      "un": 339,
      "Ġthey": 340,
      "Ġone": 341,
      "ant": 342,
      "Ġare": 343,
      "Ġshe": 344,
      "Ġ-": 345,
      "Ġwhe": 346,
      "ĠR": 347,
      "Ġso": 348,
      "ore": 349,
      "ĠO": 350,
      "...": 351,
      "pp": 352,
      "ĠG": 353,
      "rom": 354,
      "Ġcan": 355,
      "Ġne": 356,
      "ĠF": 357,
      "Ġknow": 358,
      "Ġup": 359,
      "Ġmy": 360,
      "ĠL": 361,
      "Ġhad": 362,
      "Ġj": 363,
      "ell": 364,
      "and": 365,
      "ge": 366,
      "Ġall": 367,
      "Ġde": 368,
      "ĠE": 369,
      "Ġdon": 370,
      "um": 371,
      "op": 372,
      "ie": 373,
      "Ġthere": 374,
      "ook": 375,
      "ain": 376,
      "our": 377,
      "Ġsa": 378,
      "ul": 379,
      "red": 380,
      "th": 381,
      "Ġbut": 382,
      "Ġr": 383,
      "Ġyour": 384,
      "Ġal": 385,
      "Ġfrom": 386,
      "ĠJ": 387,
      "ol": 388,
      "eah": 389,
      "ation": 390,
      "ry": 391,
      "ack": 392,
      "Ġdid": 393,
      "art": 394,
      "Ġhim": 395,
      "Ġsh": 396,
      "âĢ": 397,
      "Ġlike": 398,
      "ight": 399,
      "ood": 400,
      "ĠHe": 401,
      "Ġout": 402,
      "Ġab": 403,
      "ab": 404,
      "Ġpl": 405,
      "ĠIt": 406,
      "est": 407,
      "ess": 408,
      "os": 409,
      "ig": 410,
      "ake": 411,
      "ers": 412,
      "el": 413,
      "em": 414,
      "Ġsu": 415,
      "Ġby": 416,
      "han": 417,
      "very": 418,
      "ist": 419,
      "Ġwere": 420,
      "ound": 421,
      "ong": 422,
      "qu": 423,
      "Ġwho": 424,
      "Ġor": 425,
      "Ġget": 426,
      "hi": 427,
      "itt": 428,
      "right": 429,
      "ame": 430,
      "res": 431,
      "ink": 432,
      "'re": 433,
      "nt": 434,
      "ck": 435,
      "'m": 436,
      "one": 437,
      "ind": 438,
      "Ġthem": 439,
      "ard": 440,
      "Ġwor": 441,
      "Ġcom": 442,
      "Ġsp": 443,
      "ast": 444,
      "ive": 445,
      "Ġv": 446,
      "Ġyeah": 447,
      "na": 448,
      "Ġsome": 449,
      "ate": 450,
      "Ġsaid": 451,
      "Ġcon": 452,
      "ber": 453,
      "Ġhere": 454,
      "ĠYou": 455,
      "use": 456,
      "Ġsee": 457,
      "Ġabout": 458,
      "Ġwould": 459,
      "ep": 460,
      "own": 461,
      "ally": 462,
      "xxx": 463,
      "Ġxxx": 464,
      "ak": 465,
      "Ġex": 466,
      "ough": 467,
      "Ġjust": 468,
      "Ġtw": 469,
      "Ġwant": 470,
      "fe": 471,
      "ice": 472,
      "ear": 473,
      "Ġ(": 474,
      "au": 475,
      "other": 476,
      "Ġlook": 477,
      "Ġwhen": 478,
      "Ġman": 479,
      "ap": 480,
      "Ġif": 481,
      "Ġany": 482,
      "Ġthink": 483,
      "od": 484,
      "Ġright": 485,
      "ime": 486,
      "ich": 487,
      "ag": 488,
      "ick": 489,
      "ort": 490,
      "Ġnow": 491,
      "ĠK": 492,
      "kay": 493,
      "ous": 494,
      "'ll": 495,
      "Ġoh": 496,
      "hing": 497,
      "ide": 498,
      "ittle": 499,
      "Ġwill": 500,
      "ven": 501,
      "ther": 502,
      "Ġint": 503,
      "Ġpro": 504,
      "Ġsay": 505,
      "Ġgot": 506,
      "ine": 507,
      "ĠU": 508,
      "Ġus": 509,
      "].": 510,
      "ies": 511,
      "Ġlittle": 512,
      "ity": 513,
      "Ġtheir": 514,
      "ost": 515,
      "Ġar": 516,
      "Ġthen": 517,
      "ca": 518,
      "Ġcl": 519,
      "Ġwhere": 520,
      "Ġhow": 521,
      "Ġag": 522,
      "AR": 523,
      "ĠAnd": 524,
      "Ġtwo": 525,
      "IN": 526,
      "int": 527,
      "ite": 528,
      "Ġtoo": 529,
      "way": 530,
      "Ġmore": 531,
      "Ġtime": 532,
      "Ġwhich": 533,
      "Ġcould": 534,
      "Ġpe": 535,
      "Ġbeen": 536,
      "Ġgood": 537,
      "ace": 538,
      "lf": 539,
      ".\"": 540,
      "Ġro": 541,
      "ree": 542,
      "Ġhas": 543,
      "Ġback": 544,
      "Ġdown": 545,
      "Ġput": 546,
      "Ġokay": 547,
      "Ġover": 548,
      "ond": 549,
      "end": 550,
      "reat": 551,
      "Ġvery": 552,
      "ose": 553,
      "ish": 554,
      "--": 555,
      "Ġother": 556,
      "Ġtr": 557,
      "Ġ'": 558,
      "Ġgoing": 559,
      "ove": 560,
      "oy": 561,
      "ure": 562,
      "Ġoff": 563,
      "Ġaf": 564,
      "ment": 565,
      "MAR": 566,
      "ud": 567,
      "hed": 568,
      "Ġbl": 569,
      "ĠSt": 570,
      "cause": 571,
      "ian": 572,
      "ved": 573,
      "Ġqu": 574,
      "ft": 575,
      "ark": 576,
      "Ġle": 577,
      "Ġfe": 578,
      "ĠIn": 579,
      "ings": 580,
      "ople": 581,
      "alk": 582,
      "ase": 583,
      "ĠShe": 584,
      "are": 585,
      "Ġwell": 586,
      "augh": 587,
      "ia": 588,
      "Ġcome": 589,
      "ue": 590,
      "Ġlet": 591,
      "Ġthan": 592,
      "Ġinto": 593,
      "urn": 594,
      ",\"": 595,
      "pe": 596,
      "orn": 597,
      "ty": 598,
      "ĠâĢ": 599,
      "ĠWhat": 600,
      "Ġbr": 601,
      "ary": 602,
      "ass": 603,
      "Ġpeople": 604,
      "ater": 605,
      "omet": 606,
      "irst": 607,
      "age": 608,
      "ĠTh": 609,
      "Ġplay": 610,
      "ving": 611,
      "ĠWe": 612,
      "Ġen": 613,
      "ade": 614,
      "Ġdis": 615,
      "INV": 616,
      "ought": 617,
      "Ġmake": 618,
      "ble": 619,
      "oll": 620,
      "'ve": 621,
      "onna": 622,
      "ount": 623,
      "ci": 624,
      "ire": 625,
      "pt": 626,
      "Ġday": 627,
      "ord": 628,
      "pl": 629,
      "Ġcall": 630,
      "ĠV": 631,
      "Ġgonna": 632,
      "Ġun": 633,
      "Ġway": 634,
      "Ġagain": 635,
      "Ġer": 636,
      "Ġwork": 637,
      "Ġafter": 638,
      "Ġtell": 639,
      "Ġsomet": 640,
      "iss": 641,
      "Ġgr": 642,
      "Ġthr": 643,
      "Ġfirst": 644,
      "ff": 645,
      "Ġ%": 646,
      "wn": 647,
      "ves": 648,
      "ng": 649,
      "Ġam": 650,
      "Ġdoes": 651,
      "ĠBut": 652,
      "Ġpart": 653,
      "ran": 654,
      "my": 655,
      "Ġtake": 656,
      "ather": 657,
      "RO": 658,
      "self": 659,
      "ne": 660,
      "Ġhu": 661,
      "ĠNo": 662,
      "Ġmean": 663,
      "laugh": 664,
      "Ġevery": 665,
      "ach": 666,
      "ated": 667,
      "IS": 668,
      "mer": 669,
      "per": 670,
      "old": 671,
      "Ġpr": 672,
      "Ġwr": 673,
      "Ġbet": 674,
      "Ġyear": 675,
      "fore": 676,
      "ps": 677,
      "so": 678,
      "Ġonly": 679,
      "able": 680,
      "ool": 681,
      "ub": 682,
      "Ġpre": 683,
      "Ġrem": 684,
      "Ġfl": 685,
      "ren": 686,
      "Ġour": 687,
      "Ġwhy": 688,
      "Ġbecause": 689,
      "ile": 690,
      "ouse": 691,
      "act": 692,
      "cc": 693,
      "les": 694,
      "Ġgu": 695,
      "Ġcha": 696,
      "ock": 697,
      "ions": 698,
      "nder": 699,
      "uch": 700,
      "Ġshould": 701,
      "Ġneed": 702,
      "ress": 703,
      "oss": 704,
      "ru": 705,
      "ull": 706,
      "iz": 707,
      "ĠSo": 708,
      "ew": 709,
      "Ġad": 710,
      "day": 711,
      "Ġhapp": 712,
      "Ġcomp": 713,
      "Ġdidn": 714,
      "Ġmade": 715,
      "Ġcar": 716,
      "Ġthese": 717,
      "laughs": 718,
      "Ġte": 719,
      "Ġch": 720,
      "Ġsomething": 721,
      "SIS": 722,
      "ĠThey": 723,
      "we": 724,
      "ady": 725,
      "oc": 726,
      "Ġim": 727,
      "hen": 728,
      "ory": 729,
      "Ġthrough": 730,
      "hy": 731,
      "og": 732,
      "Ġlong": 733,
      "Ġapp": 734,
      "ict": 735,
      "ied": 736,
      "Ġhand": 737,
      "thing": 738,
      "Ġmuch": 739,
      "ĠThat": 740,
      "man": 741,
      "irl": 742,
      "Ġsha": 743,
      "Ġthree": 744,
      "Ġchi": 745,
      "Ġbefore": 746,
      "ĠUn": 747,
      "Ġsc": 748,
      "Ġtalk": 749,
      "av": 750,
      "cl": 751,
      "ĠMr": 752,
      "ang": 753,
      "BRO": 754,
      "be": 755,
      "ĠOh": 756,
      "ix": 757,
      "Ġwan": 758,
      "ence": 759,
      "yes": 760,
      "Ġchild": 761,
      "Ġeat": 762,
      "ise": 763,
      "Ġbig": 764,
      "ting": 765,
      "add": 766,
      "Ġwent": 767,
      "ĠMom": 768,
      "âĢĻ": 769,
      "Ġreally": 770,
      "Ġuh": 771,
      "Ġper": 772,
      "Ġboy": 773,
      "Ġnever": 774,
      "Ġgreat": 775,
      "Ġunder": 776,
      "ign": 777,
      "zz": 778,
      "Ġsm": 779,
      "ĠYeah": 780,
      "Ġyes": 781,
      "Ġmay": 782,
      "Ġold": 783,
      "ĠâĢľ": 784,
      "ĠThis": 785,
      "Ġpo": 786,
      "ip": 787,
      "Ġeven": 788,
      "Ġaway": 789,
      "Ġke": 790,
      "Ġalso": 791,
      "Ġmo": 792,
      "Ġcame": 793,
      "Ġstill": 794,
      "ody": 795,
      "ks": 796,
      "up": 797,
      "Ġgirl": 798,
      "ĠChi": 799,
      "ful": 800,
      "ward": 801,
      "ited": 802,
      "ons": 803,
      "Ġact": 804,
      "'d": 805,
      "Ġbu": 806,
      "ect": 807,
      "ates": 808,
      "Ġnew": 809,
      "Ġcont": 810,
      "atch": 811,
      "Ġser": 812,
      "gg": 813,
      "ĠCh": 814,
      "Ġres": 815,
      "Ġthose": 816,
      "Ġhel": 817,
      "Ġwanna": 818,
      "ors": 819,
      "ath": 820,
      "land": 821,
      "ĠWell": 822,
      "Ġhome": 823,
      "Ġturn": 824,
      "iv": 825,
      "Ġask": 826,
      "Ġthought": 827,
      "Ġum": 828,
      "Ġlea": 829,
      "ans": 830,
      "ance": 831,
      "ily": 832,
      "Ġlast": 833,
      "ï¿": 834,
      "Ġanother": 835,
      "ried": 836,
      "?\"": 837,
      "get": 838,
      "Ġstart": 839,
      "uck": 840,
      "hes": 841,
      "Ġthing": 842,
      "ious": 843,
      "ï¿½": 844,
      "Ġname": 845,
      "Ġmust": 846,
      "Ġsec": 847,
      "igh": 848,
      "Ġra": 849,
      "ened": 850,
      "Ġmany": 851,
      "riend": 852,
      "ob": 853,
      "Ġbel": 854,
      "Ġhouse": 855,
      "ens": 856,
      "Ġgive": 857,
      "chool": 858,
      "Ġbook": 859,
      "Ġwa": 860,
      "Ġcr": 861,
      "UR": 862,
      "Ġsl": 863,
      "Ġmother": 864,
      "ĠThere": 865,
      "ert": 866,
      "ung": 867,
      "oth": 868,
      "ember": 869,
      "Ġhead": 870,
      "ĠMar": 871,
      ".]": 872,
      "ail": 873,
      "Ġthings": 874,
      "Ġown": 875,
      "Ġbo": 876,
      "Ġrec": 877,
      "air": 878,
      "Ġdoing": 879,
      "Ġco": 880,
      "Ġfind": 881,
      "aby": 882,
      "Ġtry": 883,
      "Ġits": 884,
      "Ġnum": 885,
      "te": 886,
      "Ġwhile": 887,
      "Ġfour": 888,
      "ny": 889,
      "Ġhelp": 890,
      "xt": 891,
      "als": 892,
      "Ġnight": 893,
      "ys": 894,
      "Ġple": 895,
      "here": 896,
      "Ġatt": 897,
      "ina": 898,
      "side": 899,
      "Ġshow": 900,
      "ince": 901,
      "ult": 902,
      "ical": 903,
      "Ġyears": 904,
      "Ġend": 905,
      "orm": 906,
      "Ġdes": 907,
      "ars": 908,
      "Ġmom": 909,
      "ild": 910,
      "oney": 911,
      "âĢĿ": 912,
      "ah": 913,
      "Ġfriend": 914,
      "Ġchan": 915,
      "Ġkind": 916,
      "Ġwon": 917,
      "ĠAl": 918,
      "Ġsuch": 919,
      "ĠAs": 920,
      "rd": 921,
      "hm": 922,
      "ces": 923,
      "aking": 924,
      "Ġcomm": 925,
      "Ġfound": 926,
      "Ġlove": 927,
      "Ġcalled": 928,
      "Ġche": 929,
      "vers": 930,
      "Ġtra": 931,
      "Ġel": 932,
      "Ġfin": 933,
      "Ġmost": 934,
      "Ġmight": 935,
      "Ġread": 936,
      "URS": 937,
      "ident": 938,
      "Ġop": 939,
      "ĠHow": 940,
      "Ġbeing": 941,
      "ever": 942,
      "ction": 943,
      "ition": 944,
      "led": 945,
      "Ġhuh": 946,
      "Ġcount": 947,
      "Ġplace": 948,
      "ave": 949,
      "Ġroom": 950,
      "Ġaround": 951,
      "Ġpres": 952,
      "Ġgl": 953,
      "ations": 954,
      "body": 955,
      "Ġmin": 956,
      "aw": 957,
      "Ġfeel": 958,
      "akes": 959,
      "Ġdif": 960,
      "Ġschool": 961,
      "ĠIs": 962,
      "ĠBe": 963,
      "ĠBr": 964,
      "Ġbetter": 965,
      "mp": 966,
      "rent": 967,
      "Ġwater": 968,
      "Ġdone": 969,
      "Ġbeg": 970,
      "Ġcare": 971,
      "port": 972,
      "ced": 973,
      "Ġind": 974,
      "Ġsure": 975,
      "ways": 976,
      "Ġsupp": 977,
      "ĠMommy": 978,
      "ont": 979,
      "amp": 980,
      "Ġfather": 981,
      "oh": 982,
      "ĠIf": 983,
      "Ġear": 984,
      "Ġnumber": 985,
      "ec": 986,
      "ER": 987,
      "ning": 988,
      "ually": 989,
      "Ġsil": 990,
      "Ġfive": 991,
      "Ġlife": 992,
      "Ġword": 993,
      "Ġbec": 994,
      "ĠYes": 995,
      "ute": 996,
      "Ġkeep": 997,
      "Ġmen": 998,
      "ere": 999,
      "Ġnext": 1000,
      "ream": 1001,
      "Ġsame": 1002,
      "vent": 1003,
      "ott": 1004,
      "Ġset": 1005,
      "Ġanything": 1006,
      "Ġsw": 1007,
      "Ġbaby": 1008,
      "Ġtold": 1009,
      "vel": 1010,
      "ican": 1011,
      "ump": 1012,
      "Ġelse": 1013,
      "Ġcour": 1014,
      "Ġever": 1015,
      "Ġtook": 1016,
      "Ġsing": 1017,
      "Ġret": 1018,
      "uring": 1019,
      "ug": 1020,
      "li": 1021,
      "ĠOn": 1022,
      "row": 1023,
      "ĠMark": 1024,
      "imes": 1025,
      "Ġunt": 1026,
      "Ġwait": 1027,
      "Ġele": 1028,
      "ee": 1029,
      "ros": 1030,
      "oot": 1031,
      "Ġmon": 1032,
      "ished": 1033,
      "ling": 1034,
      "ĠAn": 1035,
      "ts": 1036,
      "Ġwom": 1037,
      "Ġlot": 1038,
      "Ġalways": 1039,
      "Ġmhm": 1040,
      "ĠDo": 1041,
      "Ġsaw": 1042,
      "Ġfam": 1043,
      "Ġbre": 1044,
      "ness": 1045,
      "Ġob": 1046,
      "Ġpie": 1047,
      "mber": 1048,
      "Ġleft": 1049,
      "ĠAll": 1050,
      "ĠUnited": 1051,
      "ird": 1052,
      "Ġacc": 1053,
      "Ġpret": 1054,
      "Ġpol": 1055,
      "Ġnice": 1056,
      "Ġac": 1057,
      "Ġbelie": 1058,
      "ins": 1059,
      "Ġseem": 1060,
      "Ġ.": 1061,
      "tern": 1062,
      "Ġmag": 1063,
      "ister": 1064,
      "uh": 1065,
      "ĠAmer": 1066,
      "Ġdoesn": 1067,
      "cle": 1068,
      "ial": 1069,
      "ational": 1070,
      "ms": 1071,
      "Ġent": 1072,
      "Ġcle": 1073,
      "Ġfar": 1074,
      "Ġsix": 1075,
      "ĠAt": 1076,
      "Ġbus": 1077,
      "Ġused": 1078,
      "ollow": 1079,
      "Ġdr": 1080,
      "oun": 1081,
      "Ġuntil": 1082,
      "Ġworld": 1083,
      "Ġreal": 1084,
      "Ġrun": 1085,
      "ĠKing": 1086,
      "orry": 1087,
      "pect": 1088,
      "Ġsit": 1089,
      "pped": 1090,
      "outh": 1091,
      "ween": 1092,
      "!\"": 1093,
      "du": 1094,
      "Ġwee": 1095,
      "Ġwar": 1096,
      "Ġpers": 1097,
      "Ġdog": 1098,
      "Ġupon": 1099,
      "ounds": 1100,
      "ower": 1101,
      "Ġreg": 1102,
      "ner": 1103,
      "mb": 1104,
      "Ġfun": 1105,
      "Ġhold": 1106,
      "ĠWh": 1107,
      "ĠTH": 1108,
      "Ġuse": 1109,
      "Ġblack": 1110,
      "ĠNew": 1111,
      "ĠRe": 1112,
      "ĠAr": 1113,
      "Ġph": 1114,
      "Ġdiffe": 1115,
      "ndred": 1116,
      "ĠAf": 1117,
      "Ġstay": 1118,
      "Ġyet": 1119,
      "aught": 1120,
      "ger": 1121,
      "Ġyoung": 1122,
      "ĠCha": 1123,
      "Ġboth": 1124,
      "ets": 1125,
      "Ġgre": 1126,
      "AN": 1127,
      "Ġgi": 1128,
      "Ġhundred": 1129,
      "Ġpass": 1130,
      "ret": 1131,
      "Ġmoney": 1132,
      "Ġsur": 1133,
      "Ġmar": 1134,
      "gr": 1135,
      "Ġnothing": 1136,
      "ible": 1137,
      "Ġrel": 1138,
      "ĠEng": 1139,
      "ellow": 1140,
      "the": 1141,
      "Ġgra": 1142,
      "Ġbetween": 1143,
      "Ġwatch": 1144,
      "Ġremember": 1145,
      "ures": 1146,
      "gether": 1147,
      "Ġstand": 1148,
      "Ġthough": 1149,
      "ye": 1150,
      "Ġhard": 1151,
      "Ġtogether": 1152,
      "Ġplease": 1153,
      "Ġchar": 1154,
      "az": 1155,
      "ĠDe": 1156,
      "ope": 1157,
      "oon": 1158,
      "Ġstick": 1159,
      "ject": 1160,
      "ired": 1161,
      "ered": 1162,
      "ries": 1163,
      "oup": 1164,
      "orning": 1165,
      "usic": 1166,
      "Ġcons": 1167,
      "Ġdist": 1168,
      "Ġsmall": 1169,
      "Ġcol": 1170,
      "ph": 1171,
      "Ġca": 1172,
      "leep": 1173,
      "Ġonce": 1174,
      "Ġsecond": 1175,
      "Ġknown": 1176,
      "Ġhimself": 1177,
      "ES": 1178,
      "cy": 1179,
      "Ġdat": 1180,
      "Ġeyes": 1181,
      "ents": 1182,
      "Ġdoor": 1183,
      "ĠWhy": 1184,
      "Ġchildren": 1185,
      "Ġenough": 1186,
      "Ġmat": 1187,
      "Ġpoint": 1188,
      "Ġopen": 1189,
      "ĠFran": 1190,
      "ib": 1191,
      "oud": 1192,
      "Ġwalk": 1193,
      "ased": 1194,
      "ross": 1195,
      "ched": 1196,
      "ĠMiss": 1197,
      "CO": 1198,
      "Ġbest": 1199,
      "Ġsays": 1200,
      "ged": 1201,
      "Ġpick": 1202,
      "Ġagainst": 1203,
      "eak": 1204,
      "Ġside": 1205,
      "ĠMy": 1206,
      "rist": 1207,
      "io": 1208,
      "Ġmorning": 1209,
      "Ġwithout": 1210,
      "ĠNow": 1211,
      "Ġfall": 1212,
      "Ġhear": 1213,
      "Ġsilver": 1214,
      "Ġhappened": 1215,
      "ĠWhen": 1216,
      "ĠFor": 1217,
      "ubl": 1218,
      "Ġmil": 1219,
      "ton": 1220,
      "Ġbad": 1221,
      "Ġlight": 1222,
      "Ġhigh": 1223,
      "Ġbed": 1224,
      "ĠDon": 1225,
      "Ġinst": 1226,
      "ters": 1227,
      "Ġfollow": 1228,
      "Ġball": 1229,
      "Ġdied": 1230,
      "ating": 1231,
      "Ġfew": 1232,
      "ĠAd": 1233,
      "Ġcourse": 1234,
      "ĠCan": 1235,
      "LD": 1236,
      "fta": 1237,
      "The": 1238,
      "oice": 1239,
      "ĠZ": 1240,
      "Ġhafta": 1241,
      "Ġface": 1242,
      "Ġter": 1243,
      "Ġquite": 1244,
      "ĠStates": 1245,
      "Ġinv": 1246,
      "Ġalright": 1247,
      "Ġisn": 1248,
      "Ġdisc": 1249,
      "ĠThen": 1250,
      "Ġnear": 1251,
      "ta": 1252,
      "less": 1253,
      "ener": 1254,
      "Ġeach": 1255,
      "EL": 1256,
      "Ġasked": 1257,
      "uff": 1258,
      "ork": 1259,
      "Ġrest": 1260,
      "Ġbit": 1261,
      "\".": 1262,
      "ĠSp": 1263,
      "ĠOkay": 1264,
      "ank": 1265,
      "Ġkill": 1266,
      "Ġleave": 1267,
      "aut": 1268,
      "Ġlist": 1269,
      "Ġmet": 1270,
      "ics": 1271,
      "ertain": 1272,
      "ffe": 1273,
      "iet": 1274,
      "Ġhur": 1275,
      "Ġdec": 1276,
      "Ġdifferent": 1277,
      "ale": 1278,
      "Ġ_": 1279,
      "cial": 1280,
      "Ġsince": 1281,
      "Ġtop": 1282,
      "Ġmind": 1283,
      "oint": 1284,
      "ined": 1285,
      "ohn": 1286,
      "orth": 1287,
      "Ġhm": 1288,
      "ï¿½ï¿½": 1289,
      "Ġperson": 1290,
      "Ġheart": 1291,
      "cha": 1292,
      "ĠJan": 1293,
      "raw": 1294,
      "Ġtoday": 1295,
      "rib": 1296,
      "Ġlater": 1297,
      "Ġstud": 1298,
      "clud": 1299,
      "Ġcoming": 1300,
      "),": 1301,
      "form": 1302,
      "Ġbro": 1303,
      "Ġfr": 1304,
      "Ġseen": 1305,
      "med": 1306,
      "Ġdri": 1307,
      "uss": 1308,
      "addy": 1309,
      "Ġwanted": 1310,
      "Ġstr": 1311,
      "Ġbase": 1312,
      "Ġstop": 1313,
      "une": 1314,
      "ĠMrs": 1315,
      "Ġknew": 1316,
      "ĠâĢĵ": 1317,
      "Ġsk": 1318,
      "Ġhung": 1319,
      "ular": 1320,
      "ctor": 1321,
      "vie": 1322,
      "Ġsorry": 1323,
      "Ġdep": 1324,
      "Ġheard": 1325,
      "ĠInd": 1326,
      "ier": 1327,
      "Ġeverything": 1328,
      "ĠCl": 1329,
      "enty": 1330,
      "ĠAmerican": 1331,
      "Ġsub": 1332,
      "Ġstory": 1333,
      "Ġimp": 1334,
      "its": 1335,
      "hip": 1336,
      "Ġhands": 1337,
      "Ġeight": 1338,
      "Ġair": 1339,
      "Ġtable": 1340,
      "ason": 1341,
      "Ġhaving": 1342,
      "ĠJust": 1343,
      "ING": 1344,
      "Ġcap": 1345,
      "Ġlooking": 1346,
      "Ġpretty": 1347,
      "cted": 1348,
      "most": 1349,
      "aper": 1350,
      "ĠNot": 1351,
      "osed": 1352,
      "Ġwind": 1353,
      "Ġfamily": 1354,
      "Ġmagn": 1355,
      "Ġthank": 1356,
      "-s": 1357,
      "Ġalong": 1358,
      "Ġreturn": 1359,
      "Ġcat": 1360,
      "Ġfood": 1361,
      "cept": 1362,
      "Ġdoll": 1363,
      "Ġass": 1364,
      "any": 1365,
      "ĠThan": 1366,
      "ĠJohn": 1367,
      "ames": 1368,
      "ĠChrist": 1369,
      "Ġhat": 1370,
      "ife": 1371,
      "idd": 1372,
      "Ġcity": 1373,
      "Ġwhole": 1374,
      "Ġbelieve": 1375,
      "Ġlooked": 1376,
      "Ġfire": 1377,
      "Ġdays": 1378,
      "ĠRoss": 1379,
      "Ġsleep": 1380,
      "vern": 1381,
      "stand": 1382,
      "Ġsong": 1383,
      "Ġtown": 1384,
      "Ġate": 1385,
      "Ġsoon": 1386,
      "ision": 1387,
      "oor": 1388,
      "ĠMay": 1389,
      "Ġgave": 1390,
      "Ġmove": 1391,
      "Ġshall": 1392,
      "me": 1393,
      "Ġsent": 1394,
      "Ġgetting": 1395,
      "aint": 1396,
      "und": 1397,
      "ual": 1398,
      "ently": 1399,
      "aster": 1400,
      "ĠHey": 1401,
      "ably": 1402,
      "tle": 1403,
      "ned": 1404,
      "Ġgirls": 1405,
      "Ġhalf": 1406,
      "ines": 1407,
      "der": 1408,
      "uth": 1409,
      "Ġwrite": 1410,
      "Ġpict": 1411,
      "Ġred": 1412,
      "Ġtalking": 1413,
      "Ġposs": 1414,
      "Ġwasn": 1415,
      "ape": 1416,
      "sel": 1417,
      "Ġadd": 1418,
      "Ġbeaut": 1419,
      "ĠGod": 1420,
      "Ġsn": 1421,
      "onder": 1422,
      "ok": 1423,
      "Ġbring": 1424,
      ").": 1425,
      "Ġmeet": 1426,
      "Ġlar": 1427,
      "eng": 1428,
      "OU": 1429,
      "Ġmaybe": 1430,
      "Ġsy": 1431,
      "Ġrep": 1432,
      "ific": 1433,
      "Ġgoes": 1434,
      "elt": 1435,
      "Ġborn": 1436,
      "ĠPr": 1437,
      "ĠEd": 1438,
      "ready": 1439,
      "ities": 1440,
      "aj": 1441,
      "Ġsign": 1442,
      "ully": 1443,
      "Ġref": 1444,
      "Ġanim": 1445,
      "ĠSc": 1446,
      "ĠTHE": 1447,
      "ex": 1448,
      "Ġaw": 1449,
      "ĠSar": 1450,
      "rew": 1451,
      "ĠEr": 1452,
      "ash": 1453,
      "Ġround": 1454,
      "iness": 1455,
      "ote": 1456,
      "ĠLet": 1457,
      "huh": 1458,
      "zzz": 1459,
      "Ġstarted": 1460,
      "Ġzzz": 1461,
      "ither": 1462,
      "Ġinc": 1463,
      "Ġquest": 1464,
      "ney": 1465,
      "Ġplan": 1466,
      "lish": 1467,
      "cer": 1468,
      "Ġdire": 1469,
      "Ġhour": 1470,
      "Ġhor": 1471,
      "Ġalready": 1472,
      "Ġvoice": 1473,
      "ĠHis": 1474,
      "ows": 1475,
      "Ġmaking": 1476,
      "ative": 1477,
      "Ġbrother": 1478,
      "ĠCom": 1479,
      "Ġage": 1480,
      "Ġans": 1481,
      "Ġlead": 1482,
      "Ġready": 1483,
      "Ġcountry": 1484,
      "Ġduring": 1485,
      "br": 1486,
      "Ġcent": 1487,
      "ĠTo": 1488,
      "ustr": 1489,
      "ĠAfter": 1490,
      "Ġfif": 1491,
      "ained": 1492,
      "Ġhungry": 1493,
      "orrow": 1494,
      "ĠCome": 1495,
      "Ġdrink": 1496,
      "ised": 1497,
      "Ġgone": 1498,
      "ike": 1499,
      "Ġexc": 1500,
      "ield": 1501,
      "Ġloc": 1502,
      "Ġkid": 1503,
      "ĠGo": 1504,
      "Ġland": 1505,
      "ining": 1506,
      "Ġlo": 1507,
      "Ġerm": 1508,
      "Ġson": 1509,
      "Ġpiece": 1510,
      "eter": 1511,
      "ey": 1512,
      "ivers": 1513,
      "ense": 1514,
      "Ġinclud": 1515,
      "ately": 1516,
      "Ġpop": 1517,
      "ster": 1518,
      "Ġfriends": 1519,
      "Ġcertain": 1520,
      "Ġlive": 1521,
      "Ġsound": 1522,
      "Ġconf": 1523,
      "pr": 1524,
      "ison": 1525,
      "Ġhot": 1526,
      "Ġbuild": 1527,
      "aken": 1528,
      "\",": 1529,
      "Ġmoment": 1530,
      "ues": 1531,
      "aces": 1532,
      "LO": 1533,
      "Ġcut": 1534,
      "Ġalmost": 1535,
      "Ġbegan": 1536,
      "Ġdear": 1537,
      "ene": 1538,
      "Ġbreak": 1539,
      "Ġprom": 1540,
      "Ġsaying": 1541,
      "Ġbecame": 1542,
      "ury": 1543,
      "-b": 1544,
      "Ġmiss": 1545,
      "âĢĻs": 1546,
      "dd": 1547,
      "Ġhum": 1548,
      "ĠPh": 1549,
      "Ġtre": 1550,
      "Ġwoman": 1551,
      "ured": 1552,
      "isit": 1553,
      "Ġid": 1554,
      "Ġfight": 1555,
      "aid": 1556,
      "ĠGer": 1557,
      "Ġwrong": 1558,
      "Ġexp": 1559,
      "Ġfoot": 1560,
      "cess": 1561,
      "iful": 1562,
      "ball": 1563,
      "Ġcoll": 1564,
      "ital": 1565,
      "Ġwonder": 1566,
      "Ġri": 1567,
      "Ġhey": 1568,
      "Ġext": 1569,
      "Ġtri": 1570,
      "Ġlaugh": 1571,
      "Ġdeath": 1572,
      "Ġmeans": 1573,
      "wer": 1574,
      "ants": 1575,
      "Ġunderstand": 1576,
      "eed": 1577,
      "Ġeas": 1578,
      "cil": 1579,
      "Ġtrying": 1580,
      "COL": 1581,
      "Ã©": 1582,
      "ush": 1583,
      "Ġwhite": 1584,
      "ists": 1585,
      "Ġparty": 1586,
      "/H": 1587,
      "Ġwin": 1588,
      "ax": 1589,
      "eth": 1590,
      "Ġtwenty": 1591,
      "ution": 1592,
      "ided": 1593,
      "ized": 1594,
      "Ġspeak": 1595,
      "Ġfore": 1596,
      "Ġpaper": 1597,
      "Ġyellow": 1598,
      "Ġpen": 1599,
      "ĠHer": 1600,
      "oke": 1601,
      "app": 1602,
      "Ġactually": 1603,
      "Ġfact": 1604,
      "unt": 1605,
      "ared": 1606,
      "Ġgame": 1607,
      "to": 1608,
      "Ġclose": 1609,
      "wards": 1610,
      "ages": 1611,
      "ches": 1612,
      "Ġstre": 1613,
      "ony": 1614,
      "rop": 1615,
      "UN": 1616,
      "Ġlooks": 1617,
      "erest": 1618,
      "Ġweek": 1619,
      "Ġdel": 1620,
      "urs": 1621,
      "Ġsun": 1622,
      "Ġsim": 1623,
      "ĠFl": 1624,
      "ten": 1625,
      "Ġten": 1626,
      "ple": 1627,
      "olog": 1628,
      "Ġmonth": 1629,
      "eb": 1630,
      "EN": 1631,
      "ĠQ": 1632,
      "Ġwouldn": 1633,
      "Ġfull": 1634,
      "Ġlost": 1635,
      "ĠCount": 1636,
      "Ġrecord": 1637,
      "Ġteam": 1638,
      "ĠAre": 1639,
      "aul": 1640,
      "Ġdin": 1641,
      "Ġsort": 1642,
      "oes": 1643,
      "Ġturned": 1644,
      "ĠSarah": 1645,
      "Ġpubl": 1646,
      "Ġplaying": 1647,
      "Ġbrought": 1648,
      "ober": 1649,
      "ĠOne": 1650,
      "ON": 1651,
      "Ġi": 1652,
      "Ġfro": 1653,
      "Ġmm": 1654,
      "Ġfine": 1655,
      "Ġbeautiful": 1656,
      "Ġbeh": 1657,
      "ead": 1658,
      "ole": 1659,
      "Ġocc": 1660,
      "Ġwords": 1661,
      "Ġboys": 1662,
      "Ġphone": 1663,
      "ĠEnglish": 1664,
      "used": 1665,
      "ĠMot": 1666,
      "Ġbox": 1667,
      "ring": 1668,
      "Ġlear": 1669,
      "ouch": 1670,
      "Ġfelt": 1671,
      "ief": 1672,
      "ept": 1673,
      "Ġguess": 1674,
      "Ġidea": 1675,
      "You": 1676,
      "Ġinter": 1677,
      "ĠWill": 1678,
      "ĠCar": 1679,
      "Ġable": 1680,
      "fully": 1681,
      "Ġblue": 1682,
      "ĠBl": 1683,
      "Ġcontin": 1684,
      "Ġgener": 1685,
      "Ġproble": 1686,
      "Ġtele": 1687,
      "Ġtimes": 1688,
      "Ġguys": 1689,
      "sh": 1690,
      "by": 1691,
      "gin": 1692,
      "Ġtaken": 1693,
      "ouble": 1694,
      "Ġrock": 1695,
      "Ġinterest": 1696,
      "gan": 1697,
      "ĠAdam": 1698,
      "Ġguy": 1699,
      "Ġpay": 1700,
      "Ġstuff": 1701,
      "ĠLook": 1702,
      "unch": 1703,
      "Ġbar": 1704,
      "Ġpri": 1705,
      "airs": 1706,
      "Ġsister": 1707,
      "Ġwand": 1708,
      "ĠDid": 1709,
      "Ġprodu": 1710,
      "Ġmusic": 1711,
      "Ġegg": 1712,
      "ments": 1713,
      "Ġpoor": 1714,
      "son": 1715,
      "though": 1716,
      "ying": 1717,
      "Ġmatter": 1718,
      "Ġcur": 1719,
      "Ġtrans": 1720,
      "Ġbear": 1721,
      "AI": 1722,
      "oe": 1723,
      "Ġhappy": 1724,
      "Ġart": 1725,
      "Ġmed": 1726,
      "Ġdress": 1727,
      "ĠWho": 1728,
      "Ġbehind": 1729,
      "Ġherself": 1730,
      "Ġpresent": 1731,
      "Ġcomes": 1732,
      "Ġfell": 1733,
      "Ġleg": 1734,
      "Ġuhhuh": 1735,
      "room": 1736,
      "Ġoffic": 1737,
      "no": 1738,
      "ery": 1739,
      "bably": 1740,
      "Ġcir": 1741,
      "irth": 1742,
      "Ġsomeone": 1743,
      "olly": 1744,
      "amed": 1745,
      "Ġgreen": 1746,
      "ming": 1747,
      "ĠPer": 1748,
      "GLO": 1749,
      "ze": 1750,
      "utes": 1751,
      "Ġking": 1752,
      "Ġclear": 1753,
      "Ġsat": 1754,
      "Ġrather": 1755,
      "Ġplayed": 1756,
      "wh": 1757,
      "ize": 1758,
      "iting": 1759,
      "ĠWhere": 1760,
      "Ġgovern": 1761,
      "Ġrece": 1762,
      "Ġjob": 1763,
      "lease": 1764,
      "Ġmark": 1765,
      "Ġquick": 1766,
      "Ġshort": 1767,
      "ĠAp": 1768,
      "Ġlaw": 1769,
      "ÃŃ": 1770,
      "Ġhope": 1771,
      "Ġmagnet": 1772,
      "ises": 1773,
      "Ġev": 1774,
      "umb": 1775,
      "tain": 1776,
      "Ġem": 1777,
      "ama": 1778,
      ".âĢĿ": 1779,
      "ipp": 1780,
      "uc": 1781,
      "NA": 1782,
      "ĠWith": 1783,
      "Ġwood": 1784,
      "Ġfront": 1785,
      "âĢĶ": 1786,
      "Ġpolit": 1787,
      "Ġletter": 1788,
      "Ġwithin": 1789,
      "ats": 1790,
      "not": 1791,
      "ached": 1792,
      "ention": 1793,
      "Ġfloor": 1794,
      "ica": 1795,
      "Ġes": 1796,
      "key": 1797,
      "oub": 1798,
      "where": 1799,
      "itting": 1800,
      "Ġ#": 1801,
      "ĠFr": 1802,
      "selves": 1803,
      "MEL": 1804,
      "Ġins": 1805,
      "rench": 1806,
      "Ġseemed": 1807,
      "ĠSh": 1808,
      "Ġchair": 1809,
      "Ġcreat": 1810,
      "Ġcup": 1811,
      "ides": 1812,
      "iter": 1813,
      "Ġmilk": 1814,
      "haps": 1815,
      "Ġhair": 1816,
      "ĠBrit": 1817,
      "ese": 1818,
      "Ġless": 1819,
      "Ġpounds": 1820,
      "ians": 1821,
      "ik": 1822,
      "Ġinside": 1823,
      "ator": 1824,
      "rying": 1825,
      "Ġseven": 1826,
      "Ġmyself": 1827,
      "ĠThank": 1828,
      "ousand": 1829,
      "uly": 1830,
      "Ġwomen": 1831,
      "Ġbra": 1832,
      "Ġminute": 1833,
      "Ġsoft": 1834,
      "ted": 1835,
      "Ġpower": 1836,
      "ati": 1837,
      "Oh": 1838,
      "ma": 1839,
      "ĠRight": 1840,
      "Ġmakes": 1841,
      "Ġstate": 1842,
      "Ġwants": 1843,
      "Ġmovie": 1844,
      "Ġbird": 1845,
      "ears": 1846,
      "ĠGe": 1847,
      "ald": 1848,
      "Ġoutside": 1849,
      "uary": 1850,
      "Ġserv": 1851,
      "Ġed": 1852,
      "Ġsal": 1853,
      "ider": 1854,
      "ĠWor": 1855,
      "ĠPro": 1856,
      "ĠCon": 1857,
      "Ġprov": 1858,
      "icha": 1859,
      "Ġmine": 1860,
      "Ġago": 1861,
      "Ġhappen": 1862,
      "bum": 1863,
      "Ġgotta": 1864,
      "Ġlarge": 1865,
      "head": 1866,
      "Ġdead": 1867,
      "eptember": 1868,
      "ham": 1869,
      "read": 1870,
      "ford": 1871,
      "Ġconst": 1872,
      "Ġsqu": 1873,
      "Ġswe": 1874,
      "atur": 1875,
      "ots": 1876,
      "ĠMan": 1877,
      "Ġquestion": 1878,
      "Ġlay": 1879,
      "Ġstrong": 1880,
      "iversity": 1881,
      "Ġthousand": 1882,
      "rest": 1883,
      "Ġbirth": 1884,
      "Ġexpl": 1885,
      "men": 1886,
      "ĠMin": 1887,
      "Ġpar": 1888,
      "Ġcolor": 1889,
      "ĠGerman": 1890,
      "Ġcouldn": 1891,
      "erv": 1892,
      "ĠPaul": 1893,
      "Ġste": 1894,
      "Ġbusiness": 1895,
      "fect": 1896,
      "ism": 1897,
      "com": 1898,
      "ĠCounty": 1899,
      "ane": 1900,
      "icip": 1901,
      ",âĢĿ": 1902,
      "ĠSeptember": 1903,
      "morrow": 1904,
      "ĠBro": 1905,
      "aim": 1906,
      "Ġtaking": 1907,
      "ived": 1908,
      "Ġform": 1909,
      "Ġprobably": 1910,
      "Ġadv": 1911,
      "nina": 1912,
      "Ġminutes": 1913,
      "Ġhon": 1914,
      "ety": 1915,
      "Ġarea": 1916,
      "Ġroad": 1917,
      "Ġdark": 1918,
      "Ġran": 1919,
      "Ġpull": 1920,
      "It": 1921,
      "ĠFrance": 1922,
      "ones": 1923,
      "Ġgrand": 1924,
      "ĠPar": 1925,
      "irty": 1926,
      "Ġpicture": 1927,
      "itc": 1928,
      "Ġbott": 1929,
      "ĠGood": 1930,
      "Ġcomple": 1931,
      "Ġlived": 1932,
      "ask": 1933,
      "-f": 1934,
      "pill": 1935,
      "Ġcook": 1936,
      "ains": 1937,
      "Ġothers": 1938,
      "uro": 1939,
      "ĠLe": 1940,
      "Ġlady": 1941,
      "Ġyep": 1942,
      "Ġacross": 1943,
      "els": 1944,
      "Ġdeal": 1945,
      "Ġtrue": 1946,
      "OR": 1947,
      "----": 1948,
      "range": 1949,
      "Ġgiven": 1950,
      "uts": 1951,
      "ĠEx": 1952,
      "empt": 1953,
      "aughter": 1954,
      "ices": 1955,
      "Ġheld": 1956,
      "Ġalone": 1957,
      "ĠPhil": 1958,
      "ĠSome": 1959,
      "Ġprot": 1960,
      "Ġimport": 1961,
      "iously": 1962,
      "Ġfrog": 1963,
      "Ġ,": 1964,
      "ĠJanuary": 1965,
      "Ġdepart": 1966,
      "Ġsir": 1967,
      "eared": 1968,
      "Ġcase": 1969,
      "aterpill": 1970,
      "een": 1971,
      "Ġalbum": 1972,
      "Ġbody": 1973,
      "ards": 1974,
      "arent": 1975,
      "ĠAb": 1976,
      "aced": 1977,
      "ĠGu": 1978,
      "Ġfeet": 1979,
      "ril": 1980,
      "Ġhist": 1981,
      "ĠDaddy": 1982,
      "Ġhorse": 1983,
      "ĠYork": 1984,
      "Ġfig": 1985,
      "Ġlisten": 1986,
      "Ġchange": 1987,
      "Ġpos": 1988,
      "Ġpur": 1989,
      "che": 1990,
      "Ġsum": 1991,
      "Ġprof": 1992,
      "ox": 1993,
      "iam": 1994,
      "Ġleng": 1995,
      "Ġdream": 1996,
      "Ġoften": 1997,
      "Ġforg": 1998,
      "angu": 1999,
      "Ġfair": 2000,
      "Ġhaven": 2001,
      "alth": 2002,
      "la": 2003,
      "Ġdraw": 2004,
      "Ġdem": 2005,
      "Ġbat": 2006,
      "ĠBen": 2007,
      "Ġamong": 2008,
      "rie": 2009,
      "ĠYour": 2010,
      "Ġyup": 2011,
      "Ġwish": 2012,
      "âĢĻt": 2013,
      "ature": 2014,
      "Ġmill": 2015,
      "kes": 2016,
      "Ġtrain": 2017,
      "Ġfifty": 2018,
      "ĠWorld": 2019,
      "Ġlate": 2020,
      "Ġliving": 2021,
      "Ġbutter": 2022,
      "ement": 2023,
      "Ġones": 2024,
      "Ġevent": 2025,
      "ĠOr": 2026,
      "Ġclass": 2027,
      "ĠHar": 2028,
      "Ġworking": 2029,
      "ĠSha": 2030,
      "Ġleast": 2031,
      "IC": 2032,
      "ĠFrench": 2033,
      "overed": 2034,
      "ls": 2035,
      "ĠDav": 2036,
      "gy": 2037,
      "nes": 2038,
      "Ġcond": 2039,
      "Ġpu": 2040,
      "ĠYOU": 2041,
      "Ġopp": 2042,
      "CHILD": 2043,
      "ley": 2044,
      "ugust": 2045,
      "cing": 2046,
      "Ġfav": 2047,
      "-t": 2048,
      "arch": 2049,
      "Ġyourself": 2050,
      "ĠMarch": 2051,
      "Ġbegin": 2052,
      "Ġnews": 2053,
      "ament": 2054,
      "Ġarri": 2055,
      "aterpillar": 2056,
      "rian": 2057,
      "ilt": 2058,
      "Ġquiet": 2059,
      "Ġfunny": 2060,
      "Ġnamed": 2061,
      "bit": 2062,
      "Ġvisit": 2063,
      "fort": 2064,
      "rence": 2065,
      "Ġest": 2066,
      "Ġjo": 2067,
      "Ġill": 2068,
      "Ġpast": 2069,
      "rs": 2070,
      "Ġcold": 2071,
      "Ġcamp": 2072,
      "ering": 2073,
      "Ġtree": 2074,
      "osp": 2075,
      "Ġgroup": 2076,
      "Ġeither": 2077,
      "mother": 2078,
      "Ġwife": 2079,
      "ional": 2080,
      "Ġsever": 2081,
      "Ġsingle": 2082,
      "Ġwear": 2083,
      "ĠWar": 2084,
      "Ġfree": 2085,
      "point": 2086,
      "Ġcor": 2087,
      "aur": 2088,
      "Ġsold": 2089,
      "GAI": 2090,
      "ĠSw": 2091,
      "Ġgrow": 2092,
      "ility": 2093,
      "Ġattack": 2094,
      "-c": 2095,
      "rap": 2096,
      "Ġbecome": 2097,
      "de": 2098,
      "Ġallow": 2099,
      "Ġlangu": 2100,
      "Ġjump": 2101,
      "Ġresp": 2102,
      "ĠAm": 2103,
      "Ġexpect": 2104,
      "Ġtape": 2105,
      "Chi": 2106,
      "AL": 2107,
      "Ġtried": 2108,
      "ically": 2109,
      "Ġhurt": 2110,
      ".cha": 2111,
      "/CHILD": 2112,
      "_NA": 2113,
      "Ġreason": 2114,
      "Ġchildes": 2115,
      "/CHILDES": 2116,
      "Ġwall": 2117,
      "lo": 2118,
      "stem": 2119,
      "Ġbuy": 2120,
      "Ġline": 2121,
      "ĠEuro": 2122,
      "ĠBecause": 2123,
      "ĠAugust": 2124,
      "ges": 2125,
      "Ġeng": 2126,
      "Ġobject": 2127,
      "ĠGr": 2128,
      "Ġblock": 2129,
      "Ġmer": 2130,
      "iver": 2131,
      "but": 2132,
      "Ġsea": 2133,
      "Ġearly": 2134,
      "Ġz": 2135,
      "Ġrele": 2136,
      "ĠApril": 2137,
      "Ġreport": 2138,
      "gue": 2139,
      "Ġstru": 2140,
      "Ġadm": 2141,
      "Ġtea": 2142,
      "GR": 2143,
      "imb": 2144,
      "iddle": 2145,
      "Ġseveral": 2146,
      "Ġpassed": 2147,
      "Ġrepl": 2148,
      "more": 2149,
      "Ġcompany": 2150,
      "ĠPl": 2151,
      "fic": 2152,
      "ern": 2153,
      "Ġmoon": 2154,
      "Ġanimals": 2155,
      "mas": 2156,
      "ĠRuss": 2157,
      "Ġmess": 2158,
      "ctober": 2159,
      "Ġap": 2160,
      "ken": 2161,
      "ula": 2162,
      "ĠTw": 2163,
      "iding": 2164,
      "ĠPres": 2165,
      "ĠTr": 2166,
      "ĠDr": 2167,
      "Ġorder": 2168,
      "Ġsend": 2169,
      "Ġsometimes": 2170,
      "Ġmember": 2171,
      "Ġann": 2172,
      "itten": 2173,
      "Ġnine": 2174,
      "dden": 2175,
      "ler": 2176,
      "rict": 2177,
      "Ġteac": 2178,
      "ĠPe": 2179,
      "ĠChar": 2180,
      "ued": 2181,
      "ĠUniversity": 2182,
      "fl": 2183,
      "for": 2184,
      "Ġdro": 2185,
      "ĠBar": 2186,
      "Ġwhether": 2187,
      "vision": 2188,
      "Ġice": 2189,
      "Ġexper": 2190,
      "Ġkids": 2191,
      "iny": 2192,
      "Ġanswer": 2193,
      "ĠGeor": 2194,
      "Ġappro": 2195,
      "Ġâ": 2196,
      "ajor": 2197,
      "ising": 2198,
      "Ġclean": 2199,
      "Ġgovernment": 2200,
      "Ġstra": 2201,
      "Ġcompet": 2202,
      "ĠHere": 2203,
      "RE": 2204,
      "cient": 2205,
      "Ġrequ": 2206,
      "ĠJe": 2207,
      "-p": 2208,
      "velop": 2209,
      "ality": 2210,
      "ĠEngland": 2211,
      "What": 2212,
      "Ġspe": 2213,
      "Ġsudden": 2214,
      "Ġ?": 2215,
      "Ġtoys": 2216,
      "ĠMe": 2217,
      "Ġstar": 2218,
      "Ġfing": 2219,
      "Ġtomorrow": 2220,
      "Ġlives": 2221,
      "urch": 2222,
      "ĠOctober": 2223,
      "hile": 2224,
      "Ġfix": 2225,
      "Ġhi": 2226,
      "Ġbooks": 2227,
      "ĠAN": 2228,
      "Ġdra": 2229,
      "Ġtill": 2230,
      "Ġnoise": 2231,
      "born": 2232,
      "ara": 2233,
      "ĠEvery": 2234,
      "Ġmis": 2235,
      "co": 2236,
      "Ļª": 2237,
      "Ġgold": 2238,
      "Ġeating": 2239,
      "Ġty": 2240,
      "ĠPlease": 2241,
      "ĠNe": 2242,
      "Ġfast": 2243,
      "Ġimportant": 2244,
      "Ġfly": 2245,
      "Ġpublic": 2246,
      "Ġdad": 2247,
      "ĠâĻª": 2248,
      "AS": 2249,
      "Ġfinished": 2250,
      "ffee": 2251,
      "Ġhit": 2252,
      "ended": 2253,
      "Ġmonths": 2254,
      "Ġwindow": 2255,
      "Ġbirthday": 2256,
      "Ġfil": 2257,
      "Ġfish": 2258,
      "Ġgod": 2259,
      "ĠDavid": 2260,
      "Ġloud": 2261,
      "ĠBritish": 2262,
      "entle": 2263,
      "Ġband": 2264,
      "Ġmod": 2265,
      "Ġhors": 2266,
      "Ġkilled": 2267,
      "Ġground": 2268,
      "ĠComm": 2269,
      "dom": 2270,
      "ked": 2271,
      "itty": 2272,
      "Ġthemselves": 2273,
      "Ġcaterpillar": 2274,
      "iron": 2275,
      "Ġcheck": 2276,
      "ĠMm": 2277,
      "ĠMother": 2278,
      "Ġstore": 2279,
      "Ġcorn": 2280,
      "ĠRep": 2281,
      "Ġpot": 2282,
      "gram": 2283,
      "Ġfollowing": 2284,
      "Ġgets": 2285,
      "icks": 2286,
      "Ġstood": 2287,
      "ĠMarky": 2288,
      "Ġmur": 2289,
      "ĠEurope": 2290,
      "Ġworked": 2291,
      "ccess": 2292,
      "Ġglad": 2293,
      "itchen": 2294,
      "Ġeye": 2295,
      "Ġton": 2296,
      "rand": 2297,
      "Ġspec": 2298,
      "Ġmain": 2299,
      "Ġtrouble": 2300,
      "Ġserved": 2301,
      "Ġbag": 2302,
      "Ġnational": 2303,
      "Ġah": 2304,
      "ories": 2305,
      "Ġthinking": 2306,
      "ĠTO": 2307,
      "Yes": 2308,
      "ays": 2309,
      "ĠAlthough": 2310,
      "ĠBy": 2311,
      "Ġsystem": 2312,
      "Ġkitchen": 2313,
      "Ġkept": 2314,
      "Ġorgan": 2315,
      "then": 2316,
      "Ġproblem": 2317,
      "Ġmot": 2318,
      "ĠOf": 2319,
      "ĠItal": 2320,
      "Ġsomebody": 2321,
      "oman": 2322,
      "Ġinstead": 2323,
      "Ġtouch": 2324,
      "ED": 2325,
      "Ġtoy": 2326,
      "Ġhuman": 2327,
      "band": 2328,
      "Ġmouth": 2329,
      "rigin": 2330,
      "Ġvill": 2331,
      "Ġcoffee": 2332,
      "mpions": 2333,
      "dy": 2334,
      "anger": 2335,
      "Ġcried": 2336,
      "ĠCol": 2337,
      "Ġya": 2338,
      "ĠSir": 2339,
      "Ġchance": 2340,
      "raid": 2341,
      "ager": 2342,
      "Ġsca": 2343,
      "idge": 2344,
      "AUN": 2345,
      "Ġdef": 2346,
      "mbers": 2347,
      "joy": 2348,
      "ĠChristmas": 2349,
      "Ġdinner": 2350,
      "Ġdaddy": 2351,
      "Ġdaughter": 2352,
      "And": 2353,
      "Ġhell": 2354,
      "Ġsweet": 2355,
      "ium": 2356,
      "pping": 2357,
      "asure": 2358,
      "ĠCap": 2359,
      "Ġdeep": 2360,
      "ĠEar": 2361,
      "Ġreleased": 2362,
      "Ġnin": 2363,
      "owers": 2364,
      "Ġvar": 2365,
      "Ġsurpr": 2366,
      "ĠFrom": 2367,
      "ai": 2368,
      "Ġarm": 2369,
      "ging": 2370,
      "ored": 2371,
      "Ġwhose": 2372,
      "irt": 2373,
      "âĢĵ": 2374,
      "Ġstep": 2375,
      "ĠEl": 2376,
      "uthor": 2377,
      "ĠCity": 2378,
      "illy": 2379,
      "Ġentire": 2380,
      "Ġhar": 2381,
      "Ġwhis": 2382,
      "Ġfail": 2383,
      "bs": 2384,
      "ĠMary": 2385,
      "Ġseries": 2386,
      "'.": 2387,
      "Ġsupport": 2388,
      "Ġstreet": 2389,
      "let": 2390,
      "Ġperhaps": 2391,
      "phan": 2392,
      "Ġtreat": 2393,
      "Ġmist": 2394,
      "Ġsitting": 2395,
      "ana": 2396,
      "Ġinform": 2397,
      "ude": 2398,
      "No": 2399,
      "unity": 2400,
      "Ġforget": 2401,
      "bo": 2402,
      "eal": 2403,
      "Ġclot": 2404,
      "Ġhours": 2405,
      "laughing": 2406,
      "Ġlonger": 2407,
      "ract": 2408,
      "Ġow": 2409,
      "Ġcross": 2410,
      "Ġevening": 2411,
      "ushed": 2412,
      "Ġabove": 2413,
      "Ġslow": 2414,
      "Ġbath": 2415,
      "fer": 2416,
      "Ġhoney": 2417,
      "Ġmarried": 2418,
      "ric": 2419,
      "ĠPart": 2420,
      "Ġreached": 2421,
      "Ġexact": 2422,
      "Ġblood": 2423,
      "Ġafraid": 2424,
      "teen": 2425,
      "Ġanyone": 2426,
      "Ġgoin": 2427,
      "Ġheav": 2428,
      "ĠNational": 2429,
      "sing": 2430,
      "Ġpartic": 2431,
      "Ġstanding": 2432,
      "Ġmount": 2433,
      "Ġcast": 2434,
      "Ġmommy": 2435,
      "ior": 2436,
      "music": 2437,
      "Ġroll": 2438,
      "ressed": 2439,
      "Ġcharac": 2440,
      "Ġgentle": 2441,
      "Ġspecial": 2442,
      "Ġpain": 2443,
      "Ġgun": 2444,
      "Ġrunning": 2445,
      "Ġfa": 2446,
      "ĠJuly": 2447,
      "Ġabs": 2448,
      "Ġaren": 2449,
      "Ġeasy": 2450,
      "]?": 2451,
      "SL": 2452,
      "Ġcake": 2453,
      "ĠWas": 2454,
      "ceed": 2455,
      "Ġdefe": 2456,
      "Ġring": 2457,
      "ĠSe": 2458,
      "ode": 2459,
      "ĠPresident": 2460,
      "resent": 2461,
      "ĠTe": 2462,
      "que": 2463,
      "Ġdevelop": 2464,
      "Ġbow": 2465,
      "Ġsafe": 2466,
      "ĠThese": 2467,
      "ondon": 2468,
      "Ġthrow": 2469,
      "Ġcand": 2470,
      "gar": 2471,
      "ouncil": 2472,
      "Ġreceived": 2473,
      "-w": 2474,
      "raz": 2475,
      "ov": 2476,
      "Ġfur": 2477,
      "Ġoper": 2478,
      "oof": 2479,
      "ET": 2480,
      "-d": 2481,
      "Ġprison": 2482,
      "Ġoffice": 2483,
      "Ġeverybody": 2484,
      "Ġhang": 2485,
      "ĠSis": 2486,
      "Ġdoctor": 2487,
      "Ġpage": 2488,
      "ĠDad": 2489,
      "ĠLondon": 2490,
      "Ġdet": 2491,
      "ĠIN": 2492,
      "Ġknows": 2493,
      "Ġenjoy": 2494,
      "Ġeveryone": 2495,
      "Ġ...": 2496,
      "Ġseems": 2497,
      "Ġreturned": 2498,
      "Ġtonight": 2499,
      "over": 2500,
      "points": 2501,
      "Ġmoved": 2502,
      "Ġcontro": 2503,
      "yl": 2504,
      "Ġahead": 2505,
      "cember": 2506,
      "ruary": 2507,
      "ebruary": 2508,
      "rey": 2509,
      "ovember": 2510,
      "cent": 2511,
      "Ġthird": 2512,
      "Ġhowever": 2513,
      "idence": 2514,
      "ror": 2515,
      "itch": 2516,
      "ĠTom": 2517,
      "Ġmembers": 2518,
      "Ġwhom": 2519,
      "ĠCal": 2520,
      "urg": 2521,
      "ĠJack": 2522,
      "Ġcost": 2523,
      "Ġfear": 2524,
      "ĠHouse": 2525,
      "Ġvict": 2526,
      "ĠHowever": 2527,
      "Ġfle": 2528,
      "usband": 2529,
      "Ġsuccess": 2530,
      "ĠSouth": 2531,
      "ĠEm": 2532,
      "ĠâĢĺ": 2533,
      "'S": 2534,
      "Ġda": 2535,
      "Ġboat": 2536,
      "Ġmillion": 2537,
      "essie": 2538,
      "ency": 2539,
      "Ġorigin": 2540,
      "Ġdoub": 2541,
      "Ġhop": 2542,
      "ĠGreat": 2543,
      "unk": 2544,
      "Ġformer": 2545,
      "ounced": 2546,
      "Ġsounds": 2547,
      "Ġcoup": 2548,
      "Ġspace": 2549,
      "We": 2550,
      "come": 2551,
      "ĠDor": 2552,
      "par": 2553,
      "ello": 2554,
      "ospital": 2555,
      "Ġride": 2556,
      "Ġweeks": 2557,
      "Ġcirc": 2558,
      "Ġclos": 2559,
      "Ġglass": 2560,
      "astic": 2561,
      "Ġhistory": 2562,
      "ait": 2563,
      "Ġcomplete": 2564,
      "ĠSec": 2565,
      "emy": 2566,
      "ĠX": 2567,
      "Ġlow": 2568,
      "sc": 2569,
      "ogn": 2570,
      "ral": 2571,
      "Ġperfect": 2572,
      "/HV": 2573,
      "/HSL": 2574,
      "/HSLLD": 2575,
      "Ġtrees": 2576,
      "Ġve": 2577,
      "Ġbuilt": 2578,
      "Ġposition": 2579,
      "Ġsto": 2580,
      "Ġval": 2581,
      "Ġbuilding": 2582,
      "Ġstri": 2583,
      "Ġknock": 2584,
      "Ġtruck": 2585,
      "Ġswim": 2586,
      "Ġpossible": 2587,
      "enn": 2588,
      "Ġcause": 2589,
      "ron": 2590,
      "pper": 2591,
      "Ġav": 2592,
      "Ġdi": 2593,
      "con": 2594,
      "Ġwrote": 2595,
      "Ġdest": 2596,
      "Ġthirty": 2597,
      "Ġattempt": 2598,
      "rat": 2599,
      "ĠFebruary": 2600,
      "ĠJune": 2601,
      "ĠSu": 2602,
      "Ġmeant": 2603,
      "Ġyours": 2604,
      "Ġtem": 2605,
      "ĠAg": 2606,
      "ĠDecember": 2607,
      "Ġdiv": 2608,
      "Ġpark": 2609,
      "ĠSant": 2610,
      "ĠNovember": 2611,
      "lt": 2612,
      "you": 2613,
      "ĠChe": 2614,
      "Ġdiffic": 2615,
      "Ġhusband": 2616,
      "Ġparticular": 2617,
      "But": 2618,
      "Ġjour": 2619,
      "Ġpresident": 2620,
      "Ġarms": 2621,
      "Ġsave": 2622,
      "ĠNorth": 2623,
      "hold": 2624,
      "Ġru": 2625,
      "ctions": 2626,
      "Ġnoises": 2627,
      "Ġcannot": 2628,
      "ĠSund": 2629,
      "ĠEve": 2630,
      "Ġtelling": 2631,
      "phone": 2632,
      ",--": 2633,
      "ording": 2634,
      "Ġwarm": 2635,
      "Ġappeared": 2636,
      "Ġsnow": 2637,
      "Ġtest": 2638,
      "Ġcool": 2639,
      "Ġincluding": 2640,
      "iew": 2641,
      "Ġord": 2642,
      "Ġdanger": 2643,
      "aged": 2644,
      "Ġwaiting": 2645,
      "ĠAh": 2646,
      "Ġtelevision": 2647,
      "Ġsand": 2648,
      "ĠEdna": 2649,
      "reed": 2650,
      "Ġprogram": 2651,
      "ician": 2652,
      "Ġprop": 2653,
      "ffic": 2654,
      "iled": 2655,
      "Ġregard": 2656,
      "Ġfeeling": 2657,
      "Ġcertainly": 2658,
      "Ġesc": 2659,
      "Ġparent": 2660,
      "Ġusing": 2661,
      "thened": 2662,
      "-l": 2663,
      "amb": 2664,
      "Ġprofess": 2665,
      "Ġwritten": 2666,
      "Ġsick": 2667,
      "Ġlunch": 2668,
      "Ġequ": 2669,
      "ĠUh": 2670,
      "ground": 2671,
      "Ġwhatever": 2672,
      "fly": 2673,
      "Ġteacher": 2674,
      "ange": 2675,
      "Ġfootball": 2676,
      "Ġled": 2677,
      "Ġtakes": 2678,
      "ĠGeorge": 2679,
      "Ġbes": 2680,
      "Ġtoward": 2681,
      "Ġdesign": 2682,
      "Ġlad": 2683,
      "Ġsuper": 2684,
      "Ġgeneral": 2685,
      "ww": 2686,
      "Ġbreat": 2687,
      "Ġanymore": 2688,
      "Ġ!": 2689,
      "ĠDan": 2690,
      "Ġmiddle": 2691,
      "stairs": 2692,
      "-m": 2693,
      "Ġpost": 2694,
      "oose": 2695,
      "terday": 2696,
      "ĠUrs": 2697,
      "Ġsecret": 2698,
      "Ġdue": 2699,
      "Ġdisapp": 2700,
      "att": 2701,
      "ops": 2702,
      "Ġriver": 2703,
      "Well": 2704,
      "Ġspell": 2705,
      "Ġpolice": 2706,
      "ĠCanad": 2707,
      "Ġcre": 2708,
      "estern": 2709,
      "Ġclub": 2710,
      "Ġindeed": 2711,
      "unicip": 2712,
      "Ġexactly": 2713,
      "Ġcry": 2714,
      "Ġprotect": 2715,
      ".'": 2716,
      "Ġfit": 2717,
      "oop": 2718,
      "ĠGet": 2719,
      "ĠLord": 2720,
      "Ġwriting": 2721,
      "Ġstraight": 2722,
      "ĠLea": 2723,
      "Ġdev": 2724,
      "Ġforward": 2725,
      "Ġlanguage": 2726,
      "llustr": 2727,
      "Ġappear": 2728,
      "ĠWest": 2729,
      "Ġfinish": 2730,
      "ternational": 2731,
      "Ġdecided": 2732,
      "ustral": 2733,
      "itted": 2734,
      "Ġbroke": 2735,
      "Ġcal": 2736,
      "Ġgard": 2737,
      "iday": 2738,
      "IT": 2739,
      "hern": 2740,
      "ĠHave": 2741,
      "Ġexcept": 2742,
      "Ġlevel": 2743,
      "Ġcouple": 2744,
      "Ġbelong": 2745,
      "Ġpuzz": 2746,
      "ĠMa": 2747,
      "Ġauthor": 2748,
      "Ġrecogn": 2749,
      "Ġtired": 2750,
      "ination": 2751,
      "ified": 2752,
      "Ġview": 2753,
      "Ġwild": 2754,
      "Ġkiss": 2755,
      "Ġplaces": 2756,
      "Ġiss": 2757,
      "Ġarmy": 2758,
      "Ġfellow": 2759,
      "Ġclothes": 2760,
      "Ġlengthened": 2761,
      "Ġju": 2762,
      "hin": 2763,
      "noon": 2764,
      "rit": 2765,
      "Ġfill": 2766,
      "ulation": 2767,
      "Ġfavor": 2768,
      "Ġsus": 2769,
      "Ġnorth": 2770,
      "ances": 2771,
      "olved": 2772,
      "Ġpieces": 2773,
      "Ġbright": 2774,
      "ivid": 2775,
      "Ġelephan": 2776,
      "Ġcaught": 2777,
      "ĠAustral": 2778,
      "Ġcommon": 2779,
      "Ġhorses": 2780,
      "AY": 2781,
      "Ġcream": 2782,
      "Ġmatch": 2783,
      "Ġcurrent": 2784,
      "TER": 2785,
      "oul": 2786,
      "hire": 2787,
      "ishing": 2788,
      "icy": 2789,
      "Ġyesterday": 2790,
      "Ġfigure": 2791,
      "ĠAld": 2792,
      "ĠSunday": 2793,
      "iers": 2794,
      "Ġworks": 2795,
      "Ġafternoon": 2796,
      "Ġquickly": 2797,
      "Ġcars": 2798,
      "Ġpoints": 2799,
      "Ġdrive": 2800,
      "Ġlab": 2801,
      "Ġbur": 2802,
      "mo": 2803,
      "uri": 2804,
      "Ġtit": 2805,
      "ilver": 2806,
      "Ġtruth": 2807,
      "Ġpract": 2808,
      "ĠPol": 2809,
      "Ġdere": 2810,
      "Ġrul": 2811,
      "Ġholding": 2812,
      "ĠAny": 2813,
      "Ġself": 2814,
      "ĠMaybe": 2815,
      "ID": 2816,
      "Ġsuppose": 2817,
      "Ġearth": 2818,
      "Ġconsider": 2819,
      "ĠEX": 2820,
      "Ġsouth": 2821,
      "ggest": 2822,
      "ffect": 2823,
      "Ġbroken": 2824,
      "Ġhig": 2825,
      "OM": 2826,
      "ĠWhile": 2827,
      "-g": 2828,
      "Ġfield": 2829,
      "ply": 2830,
      "Ġce": 2831,
      "Ġsell": 2832,
      "Ġusually": 2833,
      "ighb": 2834,
      "Ġla": 2835,
      "Ġremain": 2836,
      "sequ": 2837,
      "Ġpencil": 2838,
      "ĠParty": 2839,
      "Ġemp": 2840,
      "ĠSee": 2841,
      "Ġhospital": 2842,
      "Ġsuggest": 2843,
      "Ġvide": 2844,
      "Ġleaving": 2845,
      "Ġang": 2846,
      "Ġputting": 2847,
      "Ġcover": 2848,
      "Ġpictures": 2849,
      "Ã¡": 2850,
      "ĠWilliam": 2851,
      "Ġsoftly": 2852,
      "aser": 2853,
      "Ġcareer": 2854,
      "iod": 2855,
      "iced": 2856,
      "ĠIndian": 2857,
      "rible": 2858,
      "igg": 2859,
      "Ġimag": 2860,
      "Ġcheese": 2861,
      "lands": 2862,
      "Ġleaf": 2863,
      "lin": 2864,
      "por": 2865,
      "Ġmunicip": 2866,
      "Ġluck": 2867,
      "ĠBessie": 2868,
      "Ġproper": 2869,
      "Ġprin": 2870,
      "view": 2871,
      "LE": 2872,
      "ploy": 2873,
      "Ġneeds": 2874,
      "ology": 2875,
      "Ġlearn": 2876,
      "ichard": 2877,
      "Ġcatch": 2878,
      "viously": 2879,
      "ĠMer": 2880,
      "Ġfinal": 2881,
      "Ġheavy": 2882,
      "ives": 2883,
      "Ġmajor": 2884,
      "Ġapple": 2885,
      "Ġestab": 2886,
      "ien": 2887,
      "oura": 2888,
      "Ġfort": 2889,
      "val": 2890,
      "Ġhast": 2891,
      "ĠGl": 2892,
      "ĠEle": 2893,
      "Ġvillage": 2894,
      "Ġhole": 2895,
      "kin": 2896,
      "yn": 2897,
      "ĠSm": 2898,
      "Ġuncle": 2899,
      "ĠAND": 2900,
      "Ġtur": 2901,
      "ĠKe": 2902,
      "Ġchanged": 2903,
      "Ġsupposed": 2904,
      "Ġpretend": 2905,
      "Ġaccept": 2906,
      "medi": 2907,
      "Ġenc": 2908,
      "Ġdoubt": 2909,
      "Ġdan": 2910,
      "Ġlaughing": 2911,
      "Ġship": 2912,
      "Ġopened": 2913,
      "king": 2914,
      "amer": 2915,
      "ĠNet": 2916,
      "Ġsol": 2917,
      "Ġdiscuss": 2918,
      "ĠThanks": 2919,
      "Ġsummer": 2920,
      "Ġdepartment": 2921,
      "Ġcareful": 2922,
      "Ġgrew": 2923,
      "Ġchick": 2924,
      "Ġdecl": 2925,
      "llustration": 2926,
      "ris": 2927,
      "Ġnor": 2928,
      "acy": 2929,
      "Ġban": 2930,
      "Ġstrange": 2931,
      "ĠWal": 2932,
      "ift": 2933,
      "Ġnose": 2934,
      "Ġpat": 2935,
      "iger": 2936,
      "ĠRichard": 2937,
      "play": 2938,
      "Ġpossess": 2939,
      "fast": 2940,
      "mon": 2941,
      "Ġmaster": 2942,
      "ĠCH": 2943,
      "Ġworth": 2944,
      "ience": 2945,
      "ĠSince": 2946,
      "Ġrad": 2947,
      "Ġresult": 2948,
      "Ġfollowed": 2949,
      "Illustration": 2950,
      "US": 2951,
      "Ġhous": 2952,
      "ĠHen": 2953,
      "reen": 2954,
      "lex": 2955,
      "Ġgen": 2956,
      "Ġmeeting": 2957,
      "Ġtot": 2958,
      "Ġspir": 2959,
      "Ġstopped": 2960,
      "uture": 2961,
      "Ġgiving": 2962,
      "ĠLike": 2963,
      "night": 2964,
      "Ġforty": 2965,
      "iol": 2966,
      "Ġ)": 2967,
      "ization": 2968,
      "ĠAnge": 2969,
      "Ġstation": 2970,
      "nce": 2971,
      "ï¿½ï¿½ï¿½ï¿½": 2972,
      "cell": 2973,
      "Ġshot": 2974,
      "Ġnearly": 2975,
      "ege": 2976,
      "Ġeffect": 2977,
      "Ġsitu": 2978,
      "Ġsuddenly": 2979,
      "Ġut": 2980,
      "ills": 2981,
      "Ġneighb": 2982,
      "Ġanyway": 2983,
      "Ġrepresent": 2984,
      "ĠQue": 2985,
      "LL": 2986,
      "ray": 2987,
      "Ġconcer": 2988,
      "Ġobs": 2989,
      "Ġcharacter": 2990,
      "Ġspend": 2991,
      "ips": 2992,
      "Ġpack": 2993,
      "ĠOK": 2994,
      "Ġdistrict": 2995,
      "Ġparents": 2996,
      "Ġburn": 2997,
      "Ġliked": 2998,
      "Ġshoot": 2999,
      "Ġletters": 3000,
      "Ġtiny": 3001,
      "Ġain": 3002,
      "olution": 3003,
      "aug": 3004,
      "ient": 3005,
      "Ġwww": 3006,
      "itions": 3007,
      "cially": 3008,
      "ĠAfr": 3009,
      "ĠBaby": 3010,
      "Ġeighty": 3011,
      "Ġfurther": 3012,
      ",'": 3013,
      "Ġsight": 3014,
      "ases": 3015,
      "uke": 3016,
      "rill": 3017,
      "Ġclaim": 3018,
      "ĠTed": 3019,
      "ĠDuring": 3020,
      "Ġrain": 3021,
      "Ġseat": 3022,
      "nel": 3023,
      "Ġseason": 3024,
      "ĠEven": 3025,
      "Ġdifficult": 3026,
      "Ġsense": 3027,
      "omb": 3028,
      "Ġapart": 3029,
      "Ġ]": 3030,
      "Ġstat": 3031,
      "Ġanybody": 3032,
      "bb": 3033,
      "Ġinvest": 3034,
      "Ġï¿½": 3035,
      "ĠPeter": 3036,
      "He": 3037,
      "othy": 3038,
      "ĠHello": 3039,
      "iling": 3040,
      "Ġhappens": 3041,
      "ĠCaptain": 3042,
      "Ġbeat": 3043,
      "olute": 3044,
      "Ġtail": 3045,
      "ĠHi": 3046,
      "Ġreading": 3047,
      "Ġcollect": 3048,
      "-h": 3049,
      "Ġremained": 3050,
      "ĠSanta": 3051,
      "Ġtrust": 3052,
      "Ġpaint": 3053,
      "Ġhealth": 3054,
      "Ġbread": 3055,
      "MA": 3056,
      "cher": 3057,
      "str": 3058,
      "now": 3059,
      "acing": 3060,
      "ĠDes": 3061,
      "Ġcow": 3062,
      "resh": 3063,
      "Ġactiv": 3064,
      "Ġforest": 3065,
      "Ġeduc": 3066,
      "Ġfeat": 3067,
      "Ġindivid": 3068,
      "II": 3069,
      "Ġoffe": 3070,
      "antly": 3071,
      "ĠOx": 3072,
      "vin": 3073,
      "raft": 3074,
      "Ġmoving": 3075,
      "Ġcommand": 3076,
      "Ġpriv": 3077,
      "Ġhello": 3078,
      "gest": 3079,
      "ĠSy": 3080,
      "ĠCent": 3081,
      "That": 3082,
      "field": 3083,
      "ĠHa": 3084,
      "ĠJeff": 3085,
      "Ġbeginning": 3086,
      "Ġrese": 3087,
      "ĠNina": 3088,
      "ĠGree": 3089,
      "Ġservice": 3090,
      "ĠGermany": 3091,
      "board": 3092,
      "Ġtast": 3093,
      "Ġpress": 3094,
      "order": 3095,
      "Ġcompan": 3096,
      "Ġsevent": 3097,
      "ĠNor": 3098,
      "Ġquar": 3099,
      "what": 3100,
      "riage": 3101,
      "Ġperiod": 3102,
      "GH": 3103,
      "ĠOF": 3104,
      "ample": 3105,
      "Ġwat": 3106,
      "chn": 3107,
      "Ġexcl": 3108,
      "tered": 3109,
      "Ġhol": 3110,
      "Ġwonderful": 3111,
      "GRA": 3112,
      "ĠIT": 3113,
      "ĠBo": 3114,
      "Ġbrown": 3115,
      "ission": 3116,
      "Ġremark": 3117,
      "Ġdelight": 3118,
      "Ġarrived": 3119,
      "Ġreplied": 3120,
      "lymp": 3121,
      "Ġfuture": 3122,
      "iff": 3123,
      "Ġworry": 3124,
      "Ġimmedi": 3125,
      "Ġjuice": 3126,
      "Ġjud": 3127,
      "Ġsugar": 3128,
      "ĠPark": 3129,
      "apan": 3130,
      "Ġflowers": 3131,
      "Ġcarried": 3132,
      "Ġsupper": 3133,
      "ĠChampions": 3134,
      "Ġgarden": 3135,
      "wered": 3136,
      "Ġfinally": 3137,
      "ially": 3138,
      "Ġdie": 3139,
      "asp": 3140,
      "ĠOlymp": 3141,
      "ume": 3142,
      "Ġshoes": 3143,
      "ests": 3144,
      "OW": 3145,
      "Ġlose": 3146,
      "Ġnobody": 3147,
      "rug": 3148,
      "well": 3149,
      "Ġcreated": 3150,
      "Ġtowards": 3151,
      "Ġdogg": 3152,
      "Ġforgot": 3153,
      "uty": 3154,
      "that": 3155,
      "Ġmention": 3156,
      "ums": 3157,
      "Ġboard": 3158,
      "ira": 3159,
      "ruction": 3160,
      "like": 3161,
      "silver": 3162,
      "ĠBear": 3163,
      "epend": 3164,
      "ROG": 3165,
      "Ġlocal": 3166,
      "ocol": 3167,
      "Ġstarts": 3168,
      "irm": 3169,
      "Ġneck": 3170,
      "Ġvol": 3171,
      "ĠTwo": 3172,
      "ius": 3173,
      "-C": 3174,
      "ĠCo": 3175,
      "Ġseeing": 3176,
      "Ġbene": 3177,
      "Ġanswered": 3178,
      "Ġplate": 3179,
      "Ġshar": 3180,
      "ĠDorothy": 3181,
      "AP": 3182,
      "ades": 3183,
      "eder": 3184,
      "ĠAunt": 3185,
      "ĠAmerica": 3186,
      "chan": 3187,
      "soci": 3188,
      "ille": 3189,
      "CH": 3190,
      "bl": 3191,
      "Ġchurch": 3192,
      "min": 3193,
      "go": 3194,
      "Ġcompl": 3195,
      "Ġregion": 3196,
      "Ġcircle": 3197,
      "ires": 3198,
      "ĠÃ": 3199,
      "worth": 3200,
      "ument": 3201,
      "ĠTur": 3202,
      "ĠJane": 3203,
      "ky": 3204,
      "EX": 3205,
      "RIC": 3206,
      "Ġport": 3207,
      "Ġcorner": 3208,
      "ĠMc": 3209,
      "ĠRed": 3210,
      "ti": 3211,
      "Ġtap": 3212,
      "ĠTex": 3213,
      "ichael": 3214,
      "ĠJo": 3215,
      "Ġlovely": 3216,
      "aturday": 3217,
      "Ġvarious": 3218,
      "Ġdance": 3219,
      "ĠSorry": 3220,
      "ĠJapan": 3221,
      "pers": 3222,
      "Ġfilm": 3223,
      "ourt": 3224,
      "Ġclimb": 3225,
      "Ġtrack": 3226,
      "Ġsimply": 3227,
      "Ġought": 3228,
      "uted": 3229,
      "har": 3230,
      "Ġreach": 3231,
      "ously": 3232,
      "ache": 3233,
      "Ġep": 3234,
      "Ġshout": 3235,
      "Ġcard": 3236,
      "Ġmad": 3237,
      "Ġscared": 3238,
      "Ġcop": 3239,
      "Ġgames": 3240,
      "Ġphot": 3241,
      "ino": 3242,
      "Ġcomb": 3243,
      "liament": 3244,
      "ites": 3245,
      "ĠRoman": 3246,
      "ĠKingdom": 3247,
      "yer": 3248,
      "Ġhall": 3249,
      "Ġanimal": 3250,
      "Ġbreakfast": 3251,
      "rely": 3252,
      "Ġfinger": 3253,
      "Ġvideo": 3254,
      "AM": 3255,
      "ĠWH": 3256,
      "iforn": 3257,
      "Ġincre": 3258,
      "Ġonto": 3259,
      "zer": 3260,
      "ĠSaturday": 3261,
      "Ġcomfort": 3262,
      "Ġbusy": 3263,
      "Ġloved": 3264,
      "hys": 3265,
      "Ġaccom": 3266,
      "Ġrace": 3267,
      "Ġcrit": 3268,
      "Ġrelig": 3269,
      "Ġsubject": 3270,
      "ĠOxford": 3271,
      "Ġitself": 3272,
      "ĠCr": 3273,
      "work": 3274,
      "Ġorange": 3275,
      "Ġdirect": 3276,
      "ĠMinister": 3277,
      "Ġblocks": 3278,
      "VE": 3279,
      "Ġdiscovered": 3280,
      "ifornia": 3281,
      "ĠFraser": 3282,
      "Ġgar": 3283,
      "ĠFirst": 3284,
      "Ġcourt": 3285,
      "Ġsixty": 3286,
      "ĠFin": 3287,
      "ĠSchool": 3288,
      "ĠPeople": 3289,
      "ĠChan": 3290,
      "Ġnames": 3291,
      "ĠLou": 3292,
      "Ġfan": 3293,
      "puts": 3294,
      "ĠSan": 3295,
      "Ġlie": 3296,
      "isted": 3297,
      "Ġsinging": 3298,
      "Ġaccount": 3299,
      "ĠQu": 3300,
      "Ġallowed": 3301,
      "Ġnina": 3302,
      "Ġcalling": 3303,
      "sy": 3304,
      "Ġlift": 3305,
      "Ġbottom": 3306,
      "iment": 3307,
      "Ġchocol": 3308,
      "itary": 3309,
      "ĠRob": 3310,
      "Ġwatching": 3311,
      "Ġ$": 3312,
      "rect": 3313,
      "Ġlock": 3314,
      "ĠRepubl": 3315,
      "Ġspoke": 3316,
      "ĠItaly": 3317,
      "Ġmid": 3318,
      "ĠMichael": 3319,
      "Ġinformation": 3320,
      "Ġcrying": 3321,
      "ĠCalifornia": 3322,
      "hood": 3323,
      "makes": 3324,
      "Ġbank": 3325,
      "Ġrole": 3326,
      "Ġshare": 3327,
      "Ġbell": 3328,
      "Ġmiles": 3329,
      "Ġdeter": 3330,
      "Ġwel": 3331,
      "ummy": 3332,
      "Ġanx": 3333,
      "urse": 3334,
      "Ġbelieved": 3335,
      "Ġdinos": 3336,
      "AD": 3337,
      "ĠAust": 3338,
      "Ġperform": 3339,
      "reet": 3340,
      "Ġnatur": 3341,
      "ference": 3342,
      "Ġcapital": 3343,
      "Ġpolitician": 3344,
      "ĠQueen": 3345,
      "Ġtour": 3346,
      "Ġbas": 3347,
      "gged": 3348,
      "Ġbottle": 3349,
      "Ġtall": 3350,
      "Ġsad": 3351,
      "Ġcommune": 3352,
      "rodu": 3353,
      "ĠState": 3354,
      "Ġthanks": 3355,
      "ograp": 3356,
      "Ġquestions": 3357,
      "Ġoccas": 3358,
      "Ġproblems": 3359,
      "Ġfre": 3360,
      "ĠEn": 3361,
      "Ġattention": 3362,
      "Ġlegs": 3363,
      "ption": 3364,
      "ubb": 3365,
      "oops": 3366,
      "Ġcarry": 3367,
      "Ġmix": 3368,
      "omen": 3369,
      "Ġbye": 3370,
      "Ġcontrol": 3371,
      "yy": 3372,
      "Ġcoc": 3373,
      "Ġvers": 3374,
      "itched": 3375,
      "Ġpopulation": 3376,
      "af": 3377,
      "look": 3378,
      "Ġhost": 3379,
      "uses": 3380,
      "Ġforce": 3381,
      "ĠFlore": 3382,
      "Ġpolitical": 3383,
      "how": 3384,
      "pered": 3385,
      "cience": 3386,
      "Ġcentury": 3387,
      "ĠErm": 3388,
      "ĠTexas": 3389,
      "Ġasking": 3390,
      "Ġ&": 3391,
      "ĠJer": 3392,
      "Ġrespect": 3393,
      "Ġemploy": 3394,
      "nie": 3395,
      "ĠTake": 3396,
      "Ġconne": 3397,
      "Ġpuzzle": 3398,
      "Ġident": 3399,
      "Ġgrass": 3400,
      "Ġwalked": 3401,
      "ĠCouncil": 3402,
      "Ġchocolate": 3403,
      "âĢĺ": 3404,
      "Ġpush": 3405,
      "Ġbackground": 3406,
      "Ġbigger": 3407,
      "Ġobjects": 3408,
      "ĠUrsula": 3409,
      "round": 3410,
      "pecially": 3411,
      "Ġaccident": 3412,
      "ĠWhite": 3413,
      "cture": 3414,
      "Ġbattle": 3415,
      "ĠRussian": 3416,
      "mond": 3417,
      "ĠTony": 3418,
      "ĠAlex": 3419,
      "Ġlikely": 3420,
      "Ġwide": 3421,
      "utch": 3422,
      "ĠMad": 3423,
      "Ġviol": 3424,
      "Ġcaused": 3425,
      "Home": 3426,
      "]!": 3427,
      "ĠVisit": 3428,
      "Ġdesc": 3429,
      "rag": 3430,
      "Ġalive": 3431,
      "Ġcapt": 3432,
      "CK": 3433,
      "wood": 3434,
      "udd": 3435,
      "Ġproud": 3436,
      "Ġbased": 3437,
      "imate": 3438,
      "Ġstage": 3439,
      "sey": 3440,
      "Ġpeace": 3441,
      "Ġprep": 3442,
      "Ġcontinued": 3443,
      "ĠMart": 3444,
      "urity": 3445,
      "ĠList": 3446,
      "apa": 3447,
      "Ġstars": 3448,
      "ĠCor": 3449,
      "Ġmem": 3450,
      "Ġspoon": 3451,
      "Ġputs": 3452,
      "ĠCrom": 3453,
      "ils": 3454,
      "Ġcloud": 3455,
      "Ġfresh": 3456,
      "Ġtor": 3457,
      "ico": 3458,
      "ĠSomet": 3459,
      "Ġlocated": 3460,
      "asket": 3461,
      "ĠFather": 3462,
      "Ġsomewhere": 3463,
      "picks": 3464,
      "Ġdrop": 3465,
      "ĠMon": 3466,
      "Ġnecess": 3467,
      "Ġspent": 3468,
      "ĠReg": 3469,
      "Th": 3470,
      "Ġinit": 3471,
      "Ġeff": 3472,
      "Ġelection": 3473,
      "aff": 3474,
      "ĠAct": 3475,
      "Ġfeed": 3476,
      "Ġyyy": 3477,
      "Ġshut": 3478,
      "ivil": 3479,
      "Ġpromise": 3480,
      "Ġoccur": 3481,
      "Ġrose": 3482,
      "ĠBlack": 3483,
      "Ġbutterfly": 3484,
      "Ġengine": 3485,
      "Why": 3486,
      "Ġstuck": 3487,
      "Ġbecom": 3488,
      "ek": 3489,
      "het": 3490,
      "Ġmach": 3491,
      "asant": 3492,
      "ĠColl": 3493,
      "ĠâĢľâĢĺ": 3494,
      "Ġchicken": 3495,
      "FA": 3496,
      "ĠTell": 3497,
      "?âĢĿ": 3498,
      "Ġbeach": 3499,
      "Ġkitty": 3500,
      "ĠGrand": 3501,
      "Ġexample": 3502,
      "umph": 3503,
      "raph": 3504,
      "aud": 3505,
      "Ġparts": 3506,
      "Ġflat": 3507,
      "Ġsticks": 3508,
      "ences": 3509,
      "stit": 3510,
      "ural": 3511,
      "AK": 3512,
      "Ġwow": 3513,
      "erved": 3514,
      "ĠRiver": 3515,
      "ĠLittle": 3516,
      ".S": 3517,
      "ria": 3518,
      "ĠHung": 3519,
      "ĠUncle": 3520,
      "Ġslice": 3521,
      "Ġhelped": 3522,
      "ĠIndia": 3523,
      "ĠGovern": 3524,
      "Ġjourney": 3525,
      "Ġplastic": 3526,
      "Ġlearned": 3527,
      "Ġeggs": 3528,
      "Ġrepe": 3529,
      "Ġimmediately": 3530,
      "bers": 3531,
      "Ġbought": 3532,
      "Ġaff": 3533,
      "ause": 3534,
      "owd": 3535,
      "Ġthou": 3536,
      "omin": 3537,
      "roy": 3538,
      "ĠLady": 3539,
      "Ġjoy": 3540,
      "Ġvis": 3541,
      "Ġhate": 3542,
      "Ġnone": 3543,
      "Ġearli": 3544,
      "ĠEuropean": 3545,
      "ĠFlorence": 3546,
      "ĠWould": 3547,
      "orts": 3548,
      "Ġentered": 3549,
      "Ġstudy": 3550,
      "ĠJim": 3551,
      "Ġcher": 3552,
      "Ġconvers": 3553,
      "unny": 3554,
      "Ġprocess": 3555,
      "Ġsna": 3556,
      "Ġduck": 3557,
      "ida": 3558,
      "Ġsky": 3559,
      "Ġvan": 3560,
      "ĠWait": 3561,
      "ĠEast": 3562,
      "ĠMarc": 3563,
      "Ġjoined": 3564,
      "ĠEXP": 3565,
      "Ġho": 3566,
      "ĠMond": 3567,
      "Ġfarm": 3568,
      "Ġassist": 3569,
      "yond": 3570,
      "ĠCourt": 3571,
      "Ġrefer": 3572,
      "Ġstraw": 3573,
      "Ġcharge": 3574,
      "COU": 3575,
      "ĠPat": 3576,
      "Ġelect": 3577,
      "Ġoffered": 3578,
      "Ġpati": 3579,
      "ĠBet": 3580,
      "ilar": 3581,
      "Ġleaves": 3582,
      "Ġmunicipality": 3583,
      "eg": 3584,
      "rel": 3585,
      "ĠMic": 3586,
      "Ġplaced": 3587,
      "Ġchief": 3588,
      "Ġwalking": 3589,
      "Ġslowly": 3590,
      "ĠVery": 3591,
      "Ġneeded": 3592,
      "viron": 3593,
      "reme": 3594,
      "ĠCup": 3595,
      "RI": 3596,
      "ĠMag": 3597,
      "ĠUS": 3598,
      "ords": 3599,
      "Ġcountries": 3600,
      "oken": 3601,
      "itive": 3602,
      "ĠSum": 3603,
      "ĠAcc": 3604,
      "Ġblank": 3605,
      "Ġturning": 3606,
      "ashed": 3607,
      "ĠBel": 3608,
      "Ġpossib": 3609,
      "Ġsignific": 3610,
      "Ġmass": 3611,
      "ston": 3612,
      "ander": 3613,
      "Ġspot": 3614,
      "Ġsleeping": 3615,
      "iving": 3616,
      "Ġshowed": 3617,
      "Ġbirds": 3618,
      "Ġdropped": 3619,
      "Ġforth": 3620,
      "chie": 3621,
      "ppy": 3622,
      "ĠHenry": 3623,
      "erve": 3624,
      "rab": 3625,
      "Ġweren": 3626,
      "Ġkey": 3627,
      "Ġextra": 3628,
      "Ġsoldiers": 3629,
      "oring": 3630,
      "ustom": 3631,
      "ĠSte": 3632,
      "Ġplayer": 3633,
      "Ġflew": 3634,
      "Ġdeterm": 3635,
      "Ġears": 3636,
      "ĠSam": 3637,
      "ĠPort": 3638,
      "cious": 3639,
      "ression": 3640,
      "ns": 3641,
      "Ġmus": 3642,
      "Ġpock": 3643,
      "Ġvo": 3644,
      "Ġrelations": 3645,
      "Ġpopular": 3646,
      "ĠAustralia": 3647,
      "Ġbrie": 3648,
      "Ġwit": 3649,
      "ĠCla": 3650,
      "conom": 3651,
      "ya": 3652,
      "Ġmeat": 3653,
      "Ġenemy": 3654,
      "ĠSpan": 3655,
      "Ġleader": 3656,
      "ĠCanada": 3657,
      "ration": 3658,
      "Ġcell": 3659,
      "Ġcous": 3660,
      "ANN": 3661,
      "oved": 3662,
      "Ġclock": 3663,
      "Ġdisp": 3664,
      "Ġlots": 3665,
      "Ġcompletely": 3666,
      "uel": 3667,
      "ĠMed": 3668,
      "Ġshouldn": 3669,
      "Ġindust": 3670,
      "Ġairpl": 3671,
      "ĠON": 3672,
      "ĠJames": 3673,
      "using": 3674,
      "Ġweap": 3675,
      "roat": 3676,
      "Ġimm": 3677,
      "-A": 3678,
      "Ġpath": 3679,
      "Ġinfl": 3680,
      "lect": 3681,
      "Ġsearch": 3682,
      "ĠPal": 3683,
      "ĠRober": 3684,
      "Ġsuff": 3685,
      "Ġblow": 3686,
      "Ġgrad": 3687,
      "Ġstayed": 3688,
      "Ġrespons": 3689,
      "EW": 3690,
      "ners": 3691,
      "imin": 3692,
      "pite": 3693,
      "isf": 3694,
      "Ġsex": 3695,
      "Ġsurprise": 3696,
      "nded": 3697,
      "Ġhy": 3698,
      "ids": 3699,
      "ĠHist": 3700,
      "Ġaddition": 3701,
      "yle": 3702,
      "ĠFriday": 3703,
      "pes": 3704,
      "Ġfem": 3705,
      "osta": 3706,
      "ĠStop": 3707,
      "Ġtitle": 3708,
      "Ġexec": 3709,
      "Ġproject": 3710,
      "ĠUp": 3711,
      "Ġstudio": 3712,
      "Ġestabl": 3713,
      "vironment": 3714,
      "GMA": 3715,
      "NG": 3716,
      "HIS": 3717,
      "Ġtower": 3718,
      "oyal": 3719,
      "Ġsituation": 3720,
      "Ġpal": 3721,
      "ĠStreet": 3722,
      "nic": 3723,
      "Ġdam": 3724,
      "Ġfamil": 3725,
      "Ġterm": 3726,
      "Ġmagnets": 3727,
      "Ġmarket": 3728,
      "Ġcru": 3729,
      "ĠHan": 3730,
      "light": 3731,
      "Ġtype": 3732,
      "ĠRam": 3733,
      "Ġslight": 3734,
      "aimed": 3735,
      "ĠLeague": 3736,
      "Ġcoun": 3737,
      "Ġrich": 3738,
      "Ġdogs": 3739,
      "ĠCromer": 3740,
      "Ġhero": 3741,
      "olutely": 3742,
      "lor": 3743,
      "mat": 3744,
      "anor": 3745,
      "Ġlim": 3746,
      "esta": 3747,
      "Ġterrible": 3748,
      "Ġstories": 3749,
      "singing": 3750,
      "Ġund": 3751,
      "Ġfighting": 3752,
      "Ġangry": 3753,
      "ĠAnt": 3754,
      "ĠThom": 3755,
      "aded": 3756,
      "iance": 3757,
      "Ġespecially": 3758,
      "Ġemb": 3759,
      "Ġwash": 3760,
      "ĠMama": 3761,
      "icked": 3762,
      "Ġaction": 3763,
      "-y": 3764,
      "ĠJew": 3765,
      "Ġtravel": 3766,
      "ĠBefore": 3767,
      "Ġinj": 3768,
      "ĠDem": 3769,
      "ĠOur": 3770,
      "Ġpray": 3771,
      "She": 3772,
      "set": 3773,
      "ĠBob": 3774,
      "Ġsepar": 3775,
      "Ġhouses": 3776,
      "Ġver": 3777,
      "Ġpaid": 3778,
      "ĠMor": 3779,
      "clock": 3780,
      "Ross": 3781,
      "hab": 3782,
      "Ġcommun": 3783,
      "aughed": 3784,
      "UT": 3785,
      "Ġsle": 3786,
      "Ġdar": 3787,
      "olf": 3788,
      "Ġbran": 3789,
      "Ġtechn": 3790,
      "of": 3791,
      "Ġpun": 3792,
      "icle": 3793,
      "Ġthreat": 3794,
      "Ġbeyond": 3795,
      "Ġwasher": 3796,
      "Ġstone": 3797,
      "Ġexam": 3798,
      "ĠFrank": 3799,
      "Ġfright": 3800,
      "Ġlaughed": 3801,
      "ods": 3802,
      "Ġclosed": 3803,
      "Ġphys": 3804,
      "Ġur": 3805,
      "ĠHall": 3806,
      "ĠLu": 3807,
      "Ġoffer": 3808,
      "ĠReally": 3809,
      "va": 3810,
      "Ġtiger": 3811,
      "elve": 3812,
      "Ġconside": 3813,
      "Ġconsidered": 3814,
      "ses": 3815,
      "Ã¼": 3816,
      "ergy": 3817,
      "Ġcab": 3818,
      "Ġdry": 3819,
      "Ġbroad": 3820,
      "rael": 3821,
      "ffie": 3822,
      "Ġaut": 3823,
      "ĠSer": 3824,
      "ĠBrian": 3825,
      "Ġspread": 3826,
      "ples": 3827,
      "Ġofficer": 3828,
      "Ġninety": 3829,
      "Ġbab": 3830,
      "acks": 3831,
      "ival": 3832,
      "Ġinteresting": 3833,
      "off": 3834,
      "Ġinf": 3835,
      "ĠMil": 3836,
      "ĠDolly": 3837,
      "Ġworse": 3838,
      "Ġexcuse": 3839,
      "ĠHam": 3840,
      "ĠIre": 3841,
      "ĠHigh": 3842,
      "Ġnope": 3843,
      "ĠLaw": 3844,
      "Ġdirected": 3845,
      "Ġjoin": 3846,
      "'T": 3847,
      "Ġisland": 3848,
      "cast": 3849,
      "Ġbite": 3850,
      "Ġpan": 3851,
      "erson": 3852,
      "Ġspring": 3853,
      "Ġcomput": 3854,
      "eneral": 3855,
      "Ġdressed": 3856,
      "Ġfavorite": 3857,
      "Ġspirit": 3858,
      "Ġsocial": 3859,
      "ki": 3860,
      "ĠLot": 3861,
      "OO": 3862,
      "Ġyell": 3863,
      "van": 3864,
      "Ġupstairs": 3865,
      "Ġcrowd": 3866,
      "Ġdistance": 3867,
      "Ġepis": 3868,
      "Ġpleasure": 3869,
      "aft": 3870,
      "ĠSal": 3871,
      "ĠEffie": 3872,
      "Ġalthough": 3873,
      "Ġteeth": 3874,
      "Ġtalked": 3875,
      "'?": 3876,
      "Ġbeha": 3877,
      "Ġrev": 3878,
      "ĠPri": 3879,
      "Ġrid": 3880,
      "ĠHel": 3881,
      "Ġshows": 3882,
      "--------": 3883,
      "cuse": 3884,
      "Ġdate": 3885,
      "Ġfat": 3886,
      "Ġlying": 3887,
      "Ġ[?": 3888,
      "ulf": 3889,
      "Ġelephant": 3890,
      "Ġmir": 3891,
      "oted": 3892,
      "Ġrap": 3893,
      "Ġwelcome": 3894,
      "Ġcos": 3895,
      "aker": 3896,
      "Ġfalls": 3897,
      "ĠMonday": 3898,
      "Ġairplane": 3899,
      "Don": 3900,
      "mm": 3901,
      "Ġrights": 3902,
      "izz": 3903,
      "ĠBeck": 3904,
      "line": 3905,
      "sp": 3906,
      "Ġiron": 3907,
      "vey": 3908,
      "ĠAnn": 3909,
      "Ġaddress": 3910,
      "Ġspeaking": 3911,
      "Ġevidence": 3912,
      "inct": 3913,
      "Ġguard": 3914,
      "Ġscr": 3915,
      "lend": 3916,
      "Ġowl": 3917,
      "Ġtelephone": 3918,
      "Ġpurp": 3919,
      "Ġserious": 3920,
      "ĠScot": 3921,
      "ĠRobert": 3922,
      "ĠMel": 3923,
      "Ġris": 3924,
      "Ġdollars": 3925,
      "Ġbreath": 3926,
      "ĠRod": 3927,
      "Ġadded": 3928,
      "sequently": 3929,
      "BR": 3930,
      "ĠNesta": 3931,
      "ables": 3932,
      "bre": 3933,
      "Ġhide": 3934,
      "Ġfingers": 3935,
      "Ġvictim": 3936,
      "father": 3937,
      "nal": 3938,
      "Ġdeg": 3939,
      "ĠVer": 3940,
      "ensive": 3941,
      "Ġbrave": 3942,
      "Ġscar": 3943,
      "atives": 3944,
      "Ġnorm": 3945,
      "Ġmanage": 3946,
      "Ġways": 3947,
      "ledge": 3948,
      "-day": 3949,
      "Ġ(\"": 3950,
      "Ġfamous": 3951,
      "Ġhurry": 3952,
      "ĠParis": 3953,
      "iar": 3954,
      "Ġgaz": 3955,
      "Ġinn": 3956,
      "Ġmurder": 3957,
      "Ġgall": 3958,
      "ĠHE": 3959,
      "Ġlaughs": 3960,
      "Ġhigher": 3961,
      "'clock": 3962,
      "Ġscient": 3963,
      "St": 3964,
      "she": 3965,
      "Ġtick": 3966,
      "Ġbasket": 3967,
      "ĠII": 3968,
      "Ġeager": 3969,
      "ĠBE": 3970,
      "Ġmountain": 3971,
      "ĠMex": 3972,
      "Ġstom": 3973,
      "ĠBer": 3974,
      "Ġsole": 3975,
      "Ġprim": 3976,
      "rupt": 3977,
      "ĠNothing": 3978,
      "Ġinclude": 3979,
      "Ġsmile": 3980,
      "Ġraised": 3981,
      "ĠMass": 3982,
      "Ġmanner": 3983,
      "Ġuhuh": 3984,
      "Ġfalling": 3985,
      "Ġballs": 3986,
      "Ġopport": 3987,
      "ĠCharles": 3988,
      "\")": 3989,
      "osing": 3990,
      "ails": 3991,
      "Ġide": 3992,
      "ooper": 3993,
      "ĠParliament": 3994,
      "ss": 3995,
      "isc": 3996,
      "Ġgas": 3997,
      "ĠMany": 3998,
      "bles": 3999,
      "usion": 4000,
      "ify": 4001,
      "Ġscream": 4002,
      "Ġcondu": 4003,
      "met": 4004,
      "ERE": 4005,
      "There": 4006,
      "asing": 4007,
      "ĠRos": 4008,
      "Ġamount": 4009,
      "Ġbelow": 4010,
      "Ġsimilar": 4011,
      "ĠSch": 4012,
      "whis": 4013,
      "Ġswimming": 4014,
      "Ġpet": 4015,
      "ami": 4016,
      "Ġaged": 4017,
      "izing": 4018,
      "ville": 4019,
      "inary": 4020,
      "Ġlikes": 4021,
      "ĠGold": 4022,
      "ĠIsrael": 4023,
      "ĠTHAT": 4024,
      "Ġprofessional": 4025,
      "Ġlines": 4026,
      "ĠJoe": 4027,
      "Ġlength": 4028,
      "Ġquietly": 4029,
      "SS": 4030,
      "Ġspoken": 4031,
      "apers": 4032,
      "Ġindepend": 4033,
      "Ġspecific": 4034,
      "ĠMal": 4035,
      "ĠDar": 4036,
      "Ġexist": 4037,
      "Ġplays": 4038,
      "ĠMarg": 4039,
      ",âĢĻ": 4040,
      "oons": 4041,
      "hered": 4042,
      "ĠMike": 4043,
      "ĠDutch": 4044,
      "Ġmessage": 4045,
      "ourage": 4046,
      "Ġdinosaur": 4047,
      "Ġtears": 4048,
      "aining": 4049,
      "Ġpicked": 4050,
      "Ġfilled": 4051,
      "Ġestablished": 4052,
      "lam": 4053,
      "ups": 4054,
      "Ġden": 4055,
      "Ġnar": 4056,
      "ĠBert": 4057,
      "ĠRo": 4058,
      "Ġtwelve": 4059,
      "Ġstarting": 4060,
      "Ġmagic": 4061,
      "Ġsharp": 4062,
      "HE": 4063,
      "ipped": 4064,
      "ĠMOT": 4065,
      "Ġdrug": 4066,
      "Ġfool": 4067,
      "Ġnature": 4068,
      "Ġeast": 4069,
      "Ġthinks": 4070,
      "Ġprivate": 4071,
      "Ġbound": 4072,
      "ĠAc": 4073,
      "Ġwinter": 4074,
      "ĠSmith": 4075,
      "itude": 4076,
      "ours": 4077,
      "Ġchim": 4078,
      "Ġrab": 4079,
      "Ġmilitary": 4080,
      "Ġparticularly": 4081,
      "Ġnatural": 4082,
      "Ġbeside": 4083,
      "kn": 4084,
      "ĠMost": 4085,
      "ashion": 4086,
      "Ġaward": 4087,
      "ĠJes": 4088,
      "hington": 4089,
      "Ġearlier": 4090,
      "pan": 4091,
      "wich": 4092,
      "Ġpair": 4093,
      "Ġarrest": 4094,
      "ointed": 4095,
      "Ġconversation": 4096,
      "-in": 4097,
      "arm": 4098,
      "ĠST": 4099,
      "ĠPet": 4100,
      "Ġneg": 4101,
      "bert": 4102,
      "Ġsatisf": 4103,
      "Ġeducation": 4104,
      "ĠAccording": 4105,
      "oid": 4106,
      "ushing": 4107,
      "Ġcrack": 4108,
      "Ġtend": 4109,
      "Ġfund": 4110,
      "ĠRec": 4111,
      "Ġended": 4112,
      "Ġsett": 4113,
      "razy": 4114,
      "ipe": 4115,
      "rer": 4116,
      "Ġfoc": 4117,
      "ĠBat": 4118,
      "ruit": 4119,
      "ĠOnly": 4120,
      "Ġinvolved": 4121,
      "Ã¶": 4122,
      "Ġdriving": 4123,
      "ĠCould": 4124,
      "iles": 4125,
      "ĠRes": 4126,
      "Ġwoods": 4127,
      "Ġpocket": 4128,
      "Ġintrodu": 4129,
      "Ġmetal": 4130,
      "ĠChristian": 4131,
      "ĠEliz": 4132,
      ".âĢĻ": 4133,
      "Ġtrad": 4134,
      "ĠWashington": 4135,
      "Ġhun": 4136,
      "lebr": 4137,
      "hips": 4138,
      "Ġspeed": 4139,
      "Ġdestroy": 4140,
      "Ġrule": 4141,
      "Ġemer": 4142,
      "aching": 4143,
      "ila": 4144,
      "host": 4145,
      "wise": 4146,
      "Ġtaught": 4147,
      "Ġbill": 4148,
      "Ġnon": 4149,
      "Ġdeli": 4150,
      "aps": 4151,
      "ĠLouis": 4152,
      "icated": 4153,
      "ĠBill": 4154,
      "antic": 4155,
      "Ġstrawber": 4156,
      "burg": 4157,
      "Ġpink": 4158,
      "Ġinqu": 4159,
      "icious": 4160,
      "Ġturns": 4161,
      "Ġdifference": 4162,
      "Ġcocoon": 4163,
      "-M": 4164,
      "has": 4165,
      "Ġdrew": 4166,
      "ĠCong": 4167,
      "aine": 4168,
      "Ġamaz": 4169,
      "otten": 4170,
      "Ġskin": 4171,
      "Ġexperience": 4172,
      "cul": 4173,
      "Ġwag": 4174,
      "Ġcult": 4175,
      "ĠMac": 4176,
      "oughs": 4177,
      "Ġproceed": 4178,
      "action": 4179,
      "Ġmeaning": 4180,
      "Ġsettle": 4181,
      "ĠThomas": 4182,
      "oups": 4183,
      "ĠBoy": 4184,
      "ĠPen": 4185,
      "ĠGeneral": 4186,
      "ĠLat": 4187,
      "Ġannounced": 4188,
      "How": 4189,
      "aled": 4190,
      "ĠMore": 4191,
      "tering": 4192,
      "Ġneither": 4193,
      "Ġmovement": 4194,
      "Ġfaith": 4195,
      "bon": 4196,
      "Ġachie": 4197,
      "ĠWomen": 4198,
      "ĠUnion": 4199,
      "Ġsurv": 4200,
      "ĠFred": 4201,
      "ighs": 4202,
      "Ġleading": 4203,
      "Ġsens": 4204,
      "Ġinternational": 4205,
      "ĠSen": 4206,
      "Ġasleep": 4207,
      "ĠJul": 4208,
      "ively": 4209,
      "Ġcorrect": 4210,
      "Ġstrugg": 4211,
      "Ġwet": 4212,
      "Ġcivil": 4213,
      "ĠDep": 4214,
      "ĠEll": 4215,
      "Ġens": 4216,
      "ciety": 4217,
      "Ġmonkey": 4218,
      "Ġexpected": 4219,
      "holds": 4220,
      "Ġrabbit": 4221,
      "Ġwise": 4222,
      "ĠDO": 4223,
      "Ġvote": 4224,
      "Ġcommunity": 4225,
      "Ġsimple": 4226,
      "Ġlawyer": 4227,
      "Ġinvestig": 4228,
      "rem": 4229,
      "Ġthroat": 4230,
      "Ġprevent": 4231,
      "ocrat": 4232,
      "Ġpotat": 4233,
      "Ġcastle": 4234,
      "ĠEleanor": 4235,
      "itor": 4236,
      "ems": 4237,
      "ĠDoes": 4238,
      "Ġmissing": 4239,
      "ka": 4240,
      "Ġwheel": 4241,
      "ights": 4242,
      "uals": 4243,
      "zen": 4244,
      "Ġcovered": 4245,
      "Ġthrew": 4246,
      "Ġsposta": 4247,
      "Ġchoice": 4248,
      "Ġshad": 4249,
      "Ġolder": 4250,
      "Ġmult": 4251,
      "Ġpin": 4252,
      "Ġpill": 4253,
      "ĠOnce": 4254,
      "onounced": 4255,
      "Ġstairs": 4256,
      "ĠKitty": 4257,
      "Ġnumbers": 4258,
      "Ġwearing": 4259,
      "Ġdoggie": 4260,
      "imately": 4261,
      "Ġsoul": 4262,
      "cean": 4263,
      "abel": 4264,
      "Ġtraining": 4265,
      "Ġimpro": 4266,
      "ĠMarcia": 4267,
      "ators": 4268,
      "Ġhuge": 4269,
      "Ġacqu": 4270,
      "Ġtaste": 4271,
      "ales": 4272,
      "ĠHumph": 4273,
      "Ġnotice": 4274,
      "Ġoccup": 4275,
      "mel": 4276,
      "Ġbud": 4277,
      "Ġsail": 4278,
      "Ġdise": 4279,
      "ossible": 4280,
      "Ġsinger": 4281,
      "ĠPrince": 4282,
      "rain": 4283,
      "Ġplant": 4284,
      "vious": 4285,
      "Ġeconom": 4286,
      "Ġterms": 4287,
      "Ġexcited": 4288,
      "Ġhonor": 4289,
      "gigg": 4290,
      "Ġnut": 4291,
      "rif": 4292,
      "cks": 4293,
      "Ġperm": 4294,
      "Ġhonest": 4295,
      "Ġoccasion": 4296,
      "Ġmouse": 4297,
      "Ġpushed": 4298,
      "vere": 4299,
      "eech": 4300,
      "Ġpublished": 4301,
      "ography": 4302,
      "Ġcute": 4303,
      "urb": 4304,
      "abeth": 4305,
      "aret": 4306,
      "Ġladies": 4307,
      "Ġareas": 4308,
      "Ġgives": 4309,
      "Ġtotal": 4310,
      "sha": 4311,
      "asons": 4312,
      "ĠWed": 4313,
      "outhern": 4314,
      "Ġshop": 4315,
      "Ġagreed": 4316,
      "Ġcounty": 4317,
      "Ġstreng": 4318,
      "Ġexclaimed": 4319,
      "ĠHumphrey": 4320,
      "agn": 4321,
      "My": 4322,
      "lected": 4323,
      "ĠSure": 4324,
      "ĠHug": 4325,
      "ĠTheir": 4326,
      "ĠLab": 4327,
      "Ġoppos": 4328,
      "gen": 4329,
      "Ġknife": 4330,
      "ĠJose": 4331,
      "ĠChurch": 4332,
      "ĠScott": 4333,
      "Ġmotor": 4334,
      "Ġwhispered": 4335,
      "Ġgroups": 4336,
      "Ġhistor": 4337,
      "ĠSummer": 4338,
      "Ġwest": 4339,
      "Ġstro": 4340,
      "Ġdebut": 4341,
      "ois": 4342,
      "Ã³": 4343,
      "Ġmater": 4344,
      "anced": 4345,
      "ursday": 4346,
      "Ġclearly": 4347,
      "ĠOlympics": 4348,
      "ĠRepublic": 4349,
      "Ġbull": 4350,
      "Ġtruly": 4351,
      "Ġshowing": 4352,
      "Ġcelebr": 4353,
      "inite": 4354,
      "Ġpic": 4355,
      "bered": 4356,
      "Ġdecision": 4357,
      "Ġpersonal": 4358,
      "Ġgentleman": 4359,
      "Ġoriginal": 4360,
      "LY": 4361,
      "hest": 4362,
      "Ġreve": 4363,
      "ĠME": 4364,
      "Ġstock": 4365,
      "Ġanywhere": 4366,
      "Ġenvironment": 4367,
      "Ġunless": 4368,
      "Ġrecorder": 4369,
      "ĠRussia": 4370,
      "Ġflying": 4371,
      "Ġescape": 4372,
      "Ġcrazy": 4373,
      "ĠAir": 4374,
      "ĠMo": 4375,
      "Ġavail": 4376,
      "Then": 4377,
      "ials": 4378,
      "Ġcalls": 4379,
      "nesday": 4380,
      "Ġdread": 4381,
      "Ġsuit": 4382,
      "ĠThursday": 4383,
      "Ġdancing": 4384,
      "GHT": 4385,
      "ĠHistory": 4386,
      "Ġsize": 4387,
      "arian": 4388,
      "ĠTV": 4389,
      "Ġstran": 4390,
      "Ġplain": 4391,
      "Ġsour": 4392,
      "Ġcere": 4393,
      "Ġdig": 4394,
      "Ġnap": 4395,
      "Ġstruck": 4396,
      "pir": 4397,
      "Ġlaid": 4398,
      "Ġmissed": 4399,
      "Ġtone": 4400,
      "eds": 4401,
      "asc": 4402,
      "Ġremem": 4403,
      "Ġcollege": 4404,
      "ĠAbout": 4405,
      "Ġfault": 4406,
      "Ġdevelopment": 4407,
      "Ġmachine": 4408,
      "hel": 4409,
      "Ġmaint": 4410,
      "ari": 4411,
      "ĠAward": 4412,
      "Ġappl": 4413,
      "Ġdirector": 4414,
      "Ġinterested": 4415,
      "Ġdeclared": 4416,
      "Ġseventy": 4417,
      "under": 4418,
      "AU": 4419,
      "gu": 4420,
      "reys": 4421,
      "Ġcamer": 4422,
      "vert": 4423,
      "eless": 4424,
      "Ġmanaged": 4425,
      "ĠListen": 4426,
      "Ġnecessary": 4427,
      "Ġinflu": 4428,
      "reg": 4429,
      "onse": 4430,
      "Ġagree": 4431,
      "Ġsquare": 4432,
      "vi": 4433,
      "Ġaud": 4434,
      "atic": 4435,
      "ĠBraz": 4436,
      "Ġunc": 4437,
      "Ġpleased": 4438,
      "Ġninet": 4439,
      "Ġlap": 4440,
      "icate": 4441,
      "ĠGive": 4442,
      "Ġhasn": 4443,
      "Ġcolors": 4444,
      "Ġlocation": 4445,
      "Ġhappening": 4446,
      ",I": 4447,
      "inc": 4448,
      "Ġpool": 4449,
      "ication": 4450,
      "ĠRose": 4451,
      "idden": 4452,
      "uesday": 4453,
      "Ġsusp": 4454,
      "Ġwatched": 4455,
      "ho": 4456,
      "ĠDis": 4457,
      "elle": 4458,
      "anda": 4459,
      "olt": 4460,
      "Ġholds": 4461,
      "ĠZeal": 4462,
      "ĠAldred": 4463,
      "ĠCHI": 4464,
      "Ġdeb": 4465,
      "ittee": 4466,
      "Ġlargest": 4467,
      "ees": 4468,
      "Ġstated": 4469,
      "rance": 4470,
      "Ġfounded": 4471,
      "Ġcontinue": 4472,
      "time": 4473,
      "Ġnurse": 4474,
      "vell": 4475,
      "ĠCamp": 4476,
      "ĠRome": 4477,
      "Ġusual": 4478,
      "Ġbridge": 4479,
      "ĠWhich": 4480,
      "Ġsentence": 4481,
      "Ġproduced": 4482,
      "gypt": 4483,
      "erous": 4484,
      "ential": 4485,
      "ĠWE": 4486,
      "Ġtherefore": 4487,
      "Ġstudents": 4488,
      "Ġzoo": 4489,
      "Ġcousin": 4490,
      "ĠWednesday": 4491,
      "Ġwound": 4492,
      "Ġbal": 4493,
      "itan": 4494,
      "ĠDa": 4495,
      "ĠThree": 4496,
      "Ġsongs": 4497,
      "ĠExcuse": 4498,
      "Ġgods": 4499,
      "ĠCHAP": 4500,
      "boy": 4501,
      "itation": 4502,
      "ads": 4503,
      "ellig": 4504,
      "Ġgrown": 4505,
      "Ġfourth": 4506,
      "Ġcheer": 4507,
      "Ġlistening": 4508,
      "Ġfirm": 4509,
      "ĠWood": 4510,
      "ĠLa": 4511,
      "Ġregular": 4512,
      "They": 4513,
      "Ġproduct": 4514,
      "onstr": 4515,
      "Ġloss": 4516,
      "ĠOver": 4517,
      "Ġsmell": 4518,
      "ĠCHAPTER": 4519,
      "!'": 4520,
      "Ġpurs": 4521,
      "Ġlat": 4522,
      "etts": 4523,
      "ĠPapa": 4524,
      "orthern": 4525,
      "ograph": 4526,
      "Ġheads": 4527,
      "Ġdemand": 4528,
      "ĠSecret": 4529,
      "ĠSuper": 4530,
      "ĠZealand": 4531,
      "ped": 4532,
      "Ġgate": 4533,
      "Ġhom": 4534,
      "Ġeld": 4535,
      "ĠFollow": 4536,
      "Ġrow": 4537,
      "ĠIts": 4538,
      "Ġturtle": 4539,
      "ĠTuesday": 4540,
      "ĠOld": 4541,
      "Ġwhoa": 4542,
      "Ġremains": 4543,
      "Ġcoat": 4544,
      "ĠArmy": 4545,
      "ĠSpain": 4546,
      "Ġprepared": 4547,
      "ique": 4548,
      "hand": 4549,
      "ĠGar": 4550,
      "ago": 4551,
      "Ġappre": 4552,
      "Ġimpossible": 4553,
      "ĠEric": 4554,
      "Ġcloser": 4555,
      "/M": 4556,
      "aign": 4557,
      "Ġdey": 4558,
      "achus": 4559,
      "Ġscene": 4560,
      "gress": 4561,
      "Ġnote": 4562,
      "ĠNever": 4563,
      "Ġrough": 4564,
      "Ġsuspect": 4565,
      "Ġstorm": 4566,
      "ĠBan": 4567,
      "Ġhadn": 4568,
      "Ġpurpose": 4569,
      "Ġchimney": 4570,
      "ĠBrazil": 4571,
      "vies": 4572,
      "Ġtar": 4573,
      "ishes": 4574,
      "ĠMont": 4575,
      "Ġevents": 4576,
      "Ġcart": 4577,
      "Ġthus": 4578,
      "ella": 4579,
      "ĠInternational": 4580,
      "Ġmurd": 4581,
      "Ġempty": 4582,
      "sociation": 4583,
      "ĠScotland": 4584,
      "-st": 4585,
      "den": 4586,
      "Ġdouble": 4587,
      "Ġdirty": 4588,
      "Ġspl": 4589,
      "lie": 4590,
      "Ġhill": 4591,
      "Ġweather": 4592,
      "Ġspeech": 4593,
      "cip": 4594,
      "Ġafterwards": 4595,
      "ĠFranc": 4596,
      "Ġartist": 4597,
      "ĠEarth": 4598,
      "Ġresearch": 4599,
      "pet": 4600,
      "Ġcott": 4601,
      "achusetts": 4602,
      "Ġtax": 4603,
      "ĠTri": 4604,
      "ching": 4605,
      "Now": 4606,
      "yr": 4607,
      "ota": 4608,
      "enth": 4609,
      "Ġant": 4610,
      "ĠEmp": 4611,
      "Ġlanguages": 4612,
      "ĠItalian": 4613,
      "ĠMassachusetts": 4614,
      "Ġduty": 4615,
      "ĠCat": 4616,
      "ĠCast": 4617,
      "alley": 4618,
      "Ġdangerous": 4619,
      "giggles": 4620,
      "ĠMet": 4621,
      "Ġneat": 4622,
      "uckles": 4623,
      "Ġaware": 4624,
      "Ġquarter": 4625,
      "bury": 4626,
      "iant": 4627,
      "Ġtou": 4628,
      "aches": 4629,
      "ĠOp": 4630,
      "Ġmovies": 4631,
      "Ġbeauty": 4632,
      "Ġbrothers": 4633,
      "Ġfrequ": 4634,
      "IR": 4635,
      "KEN": 4636,
      "Ġcontact": 4637,
      "Ġdrinking": 4638,
      "Ġtemper": 4639,
      "Ġregarding": 4640,
      "ĠJeffreys": 4641,
      "Ġrapid": 4642,
      "ja": 4643,
      "ĠSand": 4644,
      "ĠWil": 4645,
      "Ġmerely": 4646,
      "ĠDuke": 4647,
      "olic": 4648,
      "Ġvac": 4649,
      "rans": 4650,
      "Ġfailed": 4651,
      "Ġcomputer": 4652,
      "Ġepisode": 4653,
      "Ġsoup": 4654,
      "orough": 4655,
      "Ġpour": 4656,
      "ĠApp": 4657,
      "Ġsmart": 4658,
      "Ġmistake": 4659,
      "Ġcherry": 4660,
      "-S": 4661,
      "cise": 4662,
      "ĠCare": 4663,
      "ĠCons": 4664,
      "Ġdoc": 4665,
      "ELL": 4666,
      "Ġincluded": 4667,
      "ĠChampionship": 4668,
      "ĠSpanish": 4669,
      "just": 4670,
      "oms": 4671,
      "--\"": 4672,
      "Ġbless": 4673,
      "Ġparticip": 4674,
      "Ġrocket": 4675,
      "ĠElizabeth": 4676,
      "Ġpicnic": 4677,
      "Ġyouth": 4678,
      "Ġnation": 4679,
      "ĠMat": 4680,
      "Ġserve": 4681,
      "ĠBrown": 4682,
      "mpion": 4683,
      "Ġkeeping": 4684,
      "Ġtrip": 4685,
      "Ġbrain": 4686,
      "Ġimagine": 4687,
      "ĠAfrican": 4688,
      "Ġ..": 4689,
      "Ġoil": 4690,
      "Ġfol": 4691,
      "Ġtwice": 4692,
      "Ġelected": 4693,
      "Ġspecies": 4694,
      "-room": 4695,
      "ship": 4696,
      "Ġcustom": 4697,
      "ĠDel": 4698,
      "ĠDist": 4699,
      "ĠFore": 4700,
      "Ġworried": 4701,
      "Ġpromised": 4702,
      "Ġmentioned": 4703,
      "Ġnet": 4704,
      "Ġshirt": 4705,
      "Ġ()": 4706,
      "Ġteach": 4707,
      "ANT": 4708,
      "ĠPerhaps": 4709,
      "oly": 4710,
      "elly": 4711,
      "owned": 4712,
      "Ġpercent": 4713,
      "Ġopin": 4714,
      "Ġcalm": 4715,
      "Ġradio": 4716,
      "ini": 4717,
      "arily": 4718,
      "Ġforced": 4719,
      "Ġlibr": 4720,
      "Ġsaved": 4721,
      "Ġperfor": 4722,
      "Ġdolly": 4723,
      "Ġconstruction": 4724,
      "!âĢĿ": 4725,
      "Ġmeal": 4726,
      "Ġshore": 4727,
      "Ġpicks": 4728,
      "cellent": 4729,
      "Ġdisease": 4730,
      "AB": 4731,
      "ĠÂ": 4732,
      "rig": 4733,
      "ĠGreen": 4734,
      "Ġadult": 4735,
      "Ġgreatest": 4736,
      "Ġsilence": 4737,
      "Ġhotel": 4738,
      "Ġcandy": 4739,
      "ocratic": 4740,
      "Ġsac": 4741,
      "ĠAye": 4742,
      "ĠMaster": 4743,
      "Ġstates": 4744,
      "ĠDi": 4745,
      "Ġawful": 4746,
      "Ġabsolutely": 4747,
      "Ġwitness": 4748,
      "wr": 4749,
      "Ã¨": 4750,
      "Ġliter": 4751,
      "ĠSus": 4752,
      "Ġattend": 4753,
      "-song": 4754,
      "Ġcompetition": 4755,
      "ĠSing": 4756,
      "ĠEgypt": 4757,
      "Ġcoach": 4758,
      "Ġearn": 4759,
      "ĠMolly": 4760,
      "Ġroof": 4761,
      "ĠJud": 4762,
      "Ġperfectly": 4763,
      "moves": 4764,
      "ĠNether": 4765,
      "ĠClaus": 4766,
      "Ġopportunity": 4767,
      "can": 4768,
      "Ġcouch": 4769,
      "Ġlack": 4770,
      "Ġlower": 4771,
      "Ġforces": 4772,
      "ĠHot": 4773,
      "umber": 4774,
      "Ġcarefully": 4775,
      "Ġconstit": 4776,
      "lig": 4777,
      "Ġtong": 4778,
      "Ġwilling": 4779,
      "Ġcarrying": 4780,
      "Ġgreater": 4781,
      "Ġpulled": 4782,
      "takes": 4783,
      "Ġwake": 4784,
      "ĠBur": 4785,
      "Ġexplain": 4786,
      "ĠJean": 4787,
      "HING": 4788,
      "Ġsecurity": 4789,
      "Ġjudge": 4790,
      "mont": 4791,
      "rid": 4792,
      "ux": 4793,
      "iring": 4794,
      "ĠRock": 4795,
      "Ġchampions": 4796,
      "Ġcoast": 4797,
      "Ġruns": 4798,
      "Ġwooden": 4799,
      "Ġfavour": 4800,
      "Ġsteps": 4801,
      "Ġindividuals": 4802,
      "Ġfemale": 4803,
      "uce": 4804,
      "Ġess": 4805,
      "inist": 4806,
      "Ġcouncil": 4807,
      "Ġreb": 4808,
      "ĠFox": 4809,
      "Ġchall": 4810,
      "ĠBrad": 4811,
      "Ġmonster": 4812,
      "Ġdirection": 4813,
      "Ġofficial": 4814,
      "Ġsandwich": 4815,
      "Ġbrief": 4816,
      "ĠNetherlands": 4817,
      "Ġstret": 4818,
      "Ġlips": 4819,
      "ĠOther": 4820,
      "inese": 4821,
      "Ġpractice": 4822,
      "Ġavailable": 4823,
      "Ġformed": 4824,
      "ĠCath": 4825,
      "Ġknowledge": 4826,
      "Ġshown": 4827,
      "Ġvir": 4828,
      "ensus": 4829,
      "Ġcurrently": 4830,
      "Ġsignificant": 4831,
      "If": 4832,
      "hum": 4833,
      "Ġfruit": 4834,
      "ĠIS": 4835,
      "Ġthick": 4836,
      "Ġweak": 4837,
      "ĠWind": 4838,
      "Ġnoticed": 4839,
      "oph": 4840,
      "Ġplenty": 4841,
      "Ġpleasant": 4842,
      "Ġwalks": 4843,
      "Ġstudied": 4844,
      "Ġfigures": 4845,
      "Ġblanket": 4846,
      "-B": 4847,
      "bout": 4848,
      "eer": 4849,
      "Ġir": 4850,
      "edd": 4851,
      "ĠCO": 4852,
      "Ġsaf": 4853,
      "Ġrub": 4854,
      "odes": 4855,
      "Ġenergy": 4856,
      "ĠIreland": 4857,
      ".,": 4858,
      "viet": 4859,
      "oured": 4860,
      "ĠMabel": 4861,
      "Ġentirely": 4862,
      "Ġbathroom": 4863,
      "Ġprincess": 4864,
      "ĠHugo": 4865,
      "ĠFrancis": 4866,
      "aries": 4867,
      "ĠSaint": 4868,
      "ilities": 4869,
      "Ġrising": 4870,
      "Ġnumerous": 4871,
      "Ġmut": 4872,
      "ications": 4873,
      "ĠMus": 4874,
      "ript": 4875,
      "sec": 4876,
      "Ġjack": 4877,
      "ĠChief": 4878,
      "Ġcenter": 4879,
      "ĠBritain": 4880,
      "Ġprovide": 4881,
      "Ġresponse": 4882,
      "ault": 4883,
      "jo": 4884,
      "ening": 4885,
      "Ġcrime": 4886,
      "ribed": 4887,
      "Ġeasily": 4888,
      "ĠSim": 4889,
      "Ġaccording": 4890,
      "lim": 4891,
      "ĠFire": 4892,
      "Ġdishes": 4893,
      "Ġflower": 4894,
      "Ġserving": 4895,
      "oking": 4896,
      "Ġsurprised": 4897,
      "Ġbowl": 4898,
      "Ġoccurred": 4899,
      "Ġpossibly": 4900,
      "Ġstream": 4901,
      "Ġaffe": 4902,
      "ĠSoviet": 4903,
      "Ġhardly": 4904,
      "ĠZara": 4905,
      "idding": 4906,
      "uk": 4907,
      "ĠMajor": 4908,
      "Ġthroughout": 4909,
      "Ġhandle": 4910,
      "Ġrail": 4911,
      "Ġsword": 4912,
      "Ġrequest": 4913,
      "Ġfixed": 4914,
      "ĠGreek": 4915,
      "Ġnineteen": 4916,
      "Ġbare": 4917,
      "ita": 4918,
      "Ġtow": 4919,
      "Ġmotion": 4920,
      "Ġcaptain": 4921,
      "Ġwindows": 4922,
      "Ġloudly": 4923,
      "isy": 4924,
      "eta": 4925,
      "ademy": 4926,
      "ĠHur": 4927,
      "ĠDay": 4928,
      "ĠRem": 4929,
      "Ġcancer": 4930,
      "elled": 4931,
      "Ġtrick": 4932,
      "peror": 4933,
      "Ġtrial": 4934,
      "Ġlion": 4935,
      "ĠMur": 4936,
      "inda": 4937,
      "Ġdistrib": 4938,
      "Ġfifteen": 4939,
      "ederal": 4940,
      "ĠJesus": 4941,
      "Ġcred": 4942,
      "Ġmic": 4943,
      "Ġdoin": 4944,
      "ĠUm": 4945,
      "oma": 4946,
      "icine": 4947,
      "Ġdecide": 4948,
      "Ġjumped": 4949,
      "Ġharm": 4950,
      "Ġthee": 4951,
      "ĠTer": 4952,
      "Ġsuc": 4953,
      "Ġprice": 4954,
      "Ġextreme": 4955,
      "Ġtransport": 4956,
      "ĠAfrica": 4957,
      "Do": 4958,
      "gent": 4959,
      "mes": 4960,
      "was": 4961,
      "Ġfac": 4962,
      "ĠCam": 4963,
      "ĠOut": 4964,
      "Ġplans": 4965,
      "ĠRobin": 4966,
      "essel": 4967,
      "ĠJos": 4968,
      "Ġcontract": 4969,
      "ĠIslam": 4970,
      "corder": 4971,
      "house": 4972,
      "itzer": 4973,
      "Ġham": 4974,
      "Ġmarriage": 4975,
      "Ġcontinues": 4976,
      "Ġsucceed": 4977,
      "owed": 4978,
      "semb": 4979,
      "Ġdism": 4980,
      "Ġattract": 4981,
      "Ġleaders": 4982,
      "Ġstrength": 4983,
      "-e": 4984,
      "Ġcuri": 4985,
      "Ġfashion": 4986,
      "ĠCle": 4987,
      "iction": 4988,
      "ĠMaria": 4989,
      "Ġobviously": 4990,
      "Ġcamera": 4991,
      "ĠEmpire": 4992,
      "Ġtrib": 4993,
      "Ġweight": 4994,
      "ading": 4995,
      "Ġboots": 4996,
      "Ġign": 4997,
      "Ġï¿½ï¿½ï¿½ï¿½": 4998,
      "Ġnovel": 4999,
      "Ġactor": 5000,
      "Ġnewsp": 5001,
      "Ġcampaign": 5002,
      "Ġgentlemen": 5003,
      "Ġmemory": 5004,
      "CE": 5005,
      "aven": 5006,
      "mit": 5007,
      "Ġfought": 5008,
      "ĠIran": 5009,
      "Ġqueen": 5010,
      "Ġofficers": 5011,
      "Ġfancy": 5012,
      "nods": 5013,
      "ala": 5014,
      "ĠHum": 5015,
      "ĠChina": 5016,
      "ĠGuy": 5017,
      "Ġanxious": 5018,
      "Ġstomach": 5019,
      "bur": 5020,
      "ona": 5021,
      "Ġfold": 5022,
      "Ġlog": 5023,
      "Ġnurs": 5024,
      "Ġredu": 5025,
      "ĠCont": 5026,
      "ends": 5027,
      "Ġchoose": 5028,
      "Ġgrave": 5029,
      "bye": 5030,
      "Ġsch": 5031,
      "Ġscience": 5032,
      "inger": 5033,
      "ĠFour": 5034,
      "Ġtells": 5035,
      "rank": 5036,
      "Ġadvent": 5037,
      "do": 5038,
      "aked": 5039,
      "Ġtrade": 5040,
      "Ġopening": 5041,
      "Is": 5042,
      "coughs": 5043,
      "ker": 5044,
      "etch": 5045,
      "umed": 5046,
      "ession": 5047,
      "istan": 5048,
      "Ġvessel": 5049,
      "Ġconv": 5050,
      "Ġarrow": 5051,
      "Ġbecoming": 5052,
      "Ġsettled": 5053,
      "Ġstrawberries": 5054,
      "ĠIsland": 5055,
      "Ġcompeted": 5056,
      "Ġlucky": 5057,
      "Ġbump": 5058,
      "ĠTown": 5059,
      "ste": 5060,
      "ĠBu": 5061,
      "cely": 5062,
      "ava": 5063,
      "Ġswing": 5064,
      "Ġfrogs": 5065,
      "enny": 5066,
      "rees": 5067,
      "Ġdesce": 5068,
      "Ġenter": 5069,
      "Ġinterview": 5070,
      "ĠProv": 5071,
      "ĠFollowing": 5072,
      "mar": 5073,
      "Ġtight": 5074,
      "Ġrelease": 5075,
      "esty": 5076,
      "useum": 5077,
      "ĠVir": 5078,
      "Ġgiant": 5079,
      "ification": 5080,
      "Ġrequired": 5081,
      "Ġissue": 5082,
      "ST": 5083,
      "_,": 5084,
      "Ġdying": 5085,
      "omm": 5086,
      "Ġrate": 5087,
      "Ġrecall": 5088,
      "ij": 5089,
      "uit": 5090,
      "Ġbang": 5091,
      "ruct": 5092,
      "Ġplane": 5093,
      "Ġcircus": 5094,
      "Ġwha": 5095,
      "erg": 5096,
      "ĠLove": 5097,
      "Ġmeth": 5098,
      "ENT": 5099,
      "icycle": 5100,
      "gn": 5101,
      "tin": 5102,
      "icles": 5103,
      "ĠRel": 5104,
      "ĠFOR": 5105,
      "ferent": 5106,
      "Ġwilln": 5107,
      "Ġmatters": 5108,
      "Ġalongside": 5109,
      "Ġperforman": 5110,
      "-up": 5111,
      "ĠGot": 5112,
      "Ġwriter": 5113,
      "Ġremind": 5114,
      "Ġtext": 5115,
      "Ġwaited": 5116,
      "Ġsmaller": 5117,
      "Ġdemonstr": 5118,
      "Ġgrowing": 5119,
      "ĠJoseph": 5120,
      "Ġtongue": 5121,
      "Ġsafety": 5122,
      "Ġtv": 5123,
      "Ġsides": 5124,
      "orks": 5125,
      "Ġgro": 5126,
      "otion": 5127,
      "Ġarch": 5128,
      "iana": 5129,
      "ildred": 5130,
      "ological": 5131,
      "Ġcondition": 5132,
      "ĠCongress": 5133,
      "**": 5134,
      "fit": 5135,
      "asy": 5136,
      "ĠRoyal": 5137,
      "ĠGO": 5138,
      "Ġfeels": 5139,
      "ĠPercy": 5140,
      "-year": 5141,
      "Ġappreci": 5142,
      "ez": 5143,
      "ware": 5144,
      "Ġwished": 5145,
      "outs": 5146,
      "Ġnoble": 5147,
      "Ġlights": 5148,
      "Ġgolden": 5149,
      "Ġmodel": 5150,
      "Ġmodern": 5151,
      "BC": 5152,
      "craft": 5153,
      "mn": 5154,
      "ĠHol": 5155,
      "Ġunion": 5156,
      "Ġscary": 5157,
      "ilda": 5158,
      "Ġchem": 5159,
      "Ġeleven": 5160,
      "Ġsurround": 5161,
      "iety": 5162,
      "Ġdriver": 5163,
      "Ġteams": 5164,
      "Ġobserved": 5165,
      "Ġdarling": 5166,
      "IGHT": 5167,
      "uf": 5168,
      "vis": 5169,
      "Ġble": 5170,
      "ĠBig": 5171,
      "ÃŃs": 5172,
      "fortun": 5173,
      "ĠAngela": 5174,
      "-n": 5175,
      "ĠIr": 5176,
      "edy": 5177,
      "ĠBas": 5178,
      "umps": 5179,
      "Ġconc": 5180,
      "Ġdownstairs": 5181,
      "ĠThose": 5182,
      "Ġremoved": 5183,
      "Ġchannel": 5184,
      "ĠPrin": 5185,
      "cake": 5186,
      "Ġtheory": 5187,
      "Ġsen": 5188,
      "Ġcam": 5189,
      "illa": 5190,
      "ĠFar": 5191,
      "ĠLife": 5192,
      "ĠJake": 5193,
      "ĠJenn": 5194,
      "Ġplat": 5195,
      "Ġ(;": 5196,
      "ĠUnder": 5197,
      "anges": 5198,
      "Ġcentre": 5199,
      "Ġrepeated": 5200,
      "Ġfurn": 5201,
      "ĠPope": 5202,
      "Ġvot": 5203,
      "Ġprint": 5204,
      "Ġchanges": 5205,
      "Ġdrawing": 5206,
      "Ġutter": 5207,
      "Ġnerv": 5208,
      "ĠHapp": 5209,
      "ĠNat": 5210,
      "Ġknowing": 5211,
      "place": 5212,
      "Ġglo": 5213,
      "ĠScr": 5214,
      "known": 5215,
      "Ġsite": 5216,
      "Ġge": 5217,
      "Ġbutton": 5218,
      "Ġcontent": 5219,
      "Ġfallen": 5220,
      "UST": 5221,
      "ĠTim": 5222,
      "ĠMildred": 5223,
      "rial": 5224,
      "eaks": 5225,
      "eping": 5226,
      "ĠChinese": 5227,
      "Ġseconds": 5228,
      "Ġstring": 5229,
      "Ġconcerned": 5230,
      "Ġfeatures": 5231,
      "Ġtask": 5232,
      "ĠNO": 5233,
      "ĠKat": 5234,
      "iano": 5235,
      "Ġphil": 5236,
      "\"]": 5237,
      "aves": 5238,
      "eks": 5239,
      "Ġcy": 5240,
      "Ġcourage": 5241,
      "Ġpitched": 5242,
      "utions": 5243,
      "Ġrise": 5244,
      "Ġrode": 5245,
      "Ġmoves": 5246,
      "Ġterror": 5247,
      "Ġorders": 5248,
      "Ġcruel": 5249,
      "kel": 5250,
      "Ġmel": 5251,
      "Ġplants": 5252,
      "ishment": 5253,
      "ĠDoctor": 5254,
      "Ġpurple": 5255,
      "Ġhanging": 5256,
      "Ġvictory": 5257,
      "Ġcircum": 5258,
      "CT": 5259,
      "with": 5260,
      "ĠMount": 5261,
      "Ġsection": 5262,
      "Ġconqu": 5263,
      "Ġgrant": 5264,
      "Ġsecure": 5265,
      "Ġhelping": 5266,
      "Ġreceive": 5267,
      "Ġburst": 5268,
      "Ġgradu": 5269,
      "Ġrom": 5270,
      "ouri": 5271,
      "Ġmail": 5272,
      "ĠMos": 5273,
      "Ġcarriage": 5274,
      "Ġprovided": 5275,
      "Ġmerry": 5276,
      "Ġordered": 5277,
      "Ġindividual": 5278,
      "Ġversion": 5279,
      "In": 5280,
      "nament": 5281,
      "oug": 5282,
      "roll": 5283,
      "Ġrob": 5284,
      "igned": 5285,
      "ĠPrime": 5286,
      "ĠPlay": 5287,
      "Ġelephants": 5288,
      "Ġrelationship": 5289,
      "itzerland": 5290,
      "-L": 5291,
      "?]": 5292,
      "face": 5293,
      "Ġye": 5294,
      "Ġwheels": 5295,
      "ĠFe": 5296,
      "ooks": 5297,
      "ĠStill": 5298,
      "Ġadop": 5299,
      "Ġpowerful": 5300,
      "ĠWalter": 5301,
      "Ġeffort": 5302,
      "aring": 5303,
      "Ġwaste": 5304,
      "ĠLos": 5305,
      "oston": 5306,
      "Ġblind": 5307,
      "Ġqual": 5308,
      "Ġourselves": 5309,
      "Ġpresence": 5310,
      "Ġfrightened": 5311,
      "ĠSecretary": 5312,
      "So": 5313,
      "Ġaim": 5314,
      "ĠServ": 5315,
      "olars": 5316,
      "Ġplums": 5317,
      "Ġshape": 5318,
      "Ġhelmet": 5319,
      "ension": 5320,
      "Ġyounger": 5321,
      "ï¿½ï¿½ï¿½": 5322,
      "ĠSwitzerland": 5323,
      "Ġneighbor": 5324,
      "Ġfaces": 5325,
      "kend": 5326,
      "ĠBest": 5327,
      "Ġcontrib": 5328,
      "Ġforever": 5329,
      "Ġwalls": 5330,
      "Ġclouds": 5331,
      "-night": 5332,
      "IM": 5333,
      "enced": 5334,
      "ĠLi": 5335,
      "Ġshoe": 5336,
      "ishop": 5337,
      "ĠFlor": 5338,
      "Ġsisters": 5339,
      "Ġsoldier": 5340,
      "ĠJapanese": 5341,
      "talk": 5342,
      "aning": 5343,
      "Ġsaus": 5344,
      "ĠThr": 5345,
      "Ġsomethin": 5346,
      "pering": 5347,
      "Ġprefer": 5348,
      "Ġflag": 5349,
      "Ġhighest": 5350,
      "Ġdegree": 5351,
      "uan": 5352,
      "ĠTod": 5353,
      "hens": 5354,
      "Ġnormal": 5355,
      "Ġideas": 5356,
      "EA": 5357,
      "ule": 5358,
      "ĠScient": 5359,
      "ĠMY": 5360,
      "ĠPan": 5361,
      "Ġrings": 5362,
      "Ġshoulder": 5363,
      "Ġsecured": 5364,
      "Ġbringing": 5365,
      "Ġrocks": 5366,
      "Ġsouthw": 5367,
      "ancial": 5368,
      "Ġpa": 5369,
      "Ġlies": 5370,
      "ĠFil": 5371,
      "Ġfinding": 5372,
      "Ġpassing": 5373,
      "Ġappearance": 5374,
      "Ġreligion": 5375,
      "Ġalt": 5376,
      "Ġshock": 5377,
      "ĠChris": 5378,
      "Ġkinds": 5379,
      "initely": 5380,
      "-T": 5381,
      "Ġghost": 5382,
      "Ġsomewhat": 5383,
      "Ġflight": 5384,
      "erecorder": 5385,
      "Ġbedroom": 5386,
      "Ġbike": 5387,
      "ĠWestern": 5388,
      "eman": 5389,
      "Ġappears": 5390,
      "Ġschools": 5391,
      "gie": 5392,
      "Ġma": 5393,
      "atory": 5394,
      "Ġheat": 5395,
      "stood": 5396,
      "Ġgoal": 5397,
      "ĠPers": 5398,
      "ĠRom": 5399,
      "ĠFort": 5400,
      "berg": 5401,
      "Ġbegins": 5402,
      "-time": 5403,
      "ĠSwed": 5404,
      "ae": 5405,
      "sighs": 5406,
      "Ġcant": 5407,
      "ĠSun": 5408,
      "ability": 5409,
      "Ġexcellent": 5410,
      "Ġkiller": 5411,
      "Ġeasier": 5412,
      "Ġmedical": 5413,
      "Ġforgotten": 5414,
      "Ġbeneath": 5415,
      "kins": 5416,
      "sm": 5417,
      "heart": 5418,
      "onia": 5419,
      "Ġnea": 5420,
      "riff": 5421,
      "aming": 5422,
      "ĠHon": 5423,
      "ĠDen": 5424,
      "Ġrout": 5425,
      "Ġalp": 5426,
      "urns": 5427,
      "ructed": 5428,
      "Ġrules": 5429,
      "Ġdirectly": 5430,
      "fess": 5431,
      "pa": 5432,
      "Ġboss": 5433,
      "Ġfond": 5434,
      "Ġpages": 5435,
      "Ġpapers": 5436,
      "Ġweird": 5437,
      "odies": 5438,
      "Ġchest": 5439,
      "Ġcreate": 5440,
      "Ġdish": 5441,
      "Ġloll": 5442,
      "Ġnuts": 5443,
      "Ġsociety": 5444,
      "Ġarran": 5445,
      "Ġminister": 5446,
      "ĠArt": 5447,
      "Ġcentral": 5448,
      "Ġlegal": 5449,
      "Ġdeparted": 5450,
      "ĠWHAT": 5451,
      "Ġtarget": 5452,
      "vy": 5453,
      "Ġpig": 5454,
      "Ġgift": 5455,
      "Ġpros": 5456,
      "Ġuses": 5457,
      "places": 5458,
      "Ġdrag": 5459,
      "ĠAlexander": 5460,
      "ĠCollege": 5461,
      "Ġocean": 5462,
      "ero": 5463,
      "nding": 5464,
      "ĠMill": 5465,
      "Ġspin": 5466,
      "rences": 5467,
      "Ġpresents": 5468,
      "Ġkeeps": 5469,
      "Ġpolicy": 5470,
      "ĠComp": 5471,
      "Ġfifth": 5472,
      "Ġreported": 5473,
      "melon": 5474,
      "rant": 5475,
      "uries": 5476,
      "Ġted": 5477,
      "Ġwings": 5478,
      "Ġnic": 5479,
      "Ġintern": 5480,
      "ĠRy": 5481,
      "ĠRay": 5482,
      "iel": 5483,
      "Ġships": 5484,
      "ĠStan": 5485,
      "ĠDonald": 5486,
      "Ġexcit": 5487,
      "ĠGerald": 5488,
      "Ġveh": 5489,
      "ĠGovernment": 5490,
      "Ġfamilies": 5491,
      "Ġnarrow": 5492,
      "don": 5493,
      "ĠBRO": 5494,
      "ĠKent": 5495,
      "Ġmountains": 5496,
      "Ġpound": 5497,
      "Ġinvent": 5498,
      "Ġheaven": 5499,
      "alent": 5500,
      "ĠHold": 5501,
      "Ġoranges": 5502,
      "Ġconce": 5503,
      "Ġagre": 5504,
      "ĠAssociation": 5505,
      "Ġprior": 5506,
      "ippi": 5507,
      "Ġservices": 5508,
      "Ġbi": 5509,
      "ĠBoston": 5510,
      "ura": 5511,
      "ĠFC": 5512,
      "Ġjun": 5513,
      "abb": 5514,
      "Ġinvol": 5515,
      "Ġhurried": 5516,
      "ĠEdward": 5517,
      "ĠBarb": 5518,
      "ĠBecky": 5519,
      "Ġwore": 5520,
      "Ġwrest": 5521,
      "Ġmale": 5522,
      "ĠArab": 5523,
      "utive": 5524,
      "ĠMummy": 5525,
      "chuckles": 5526,
      "Ġliber": 5527,
      "Ġopinion": 5528,
      "Ġtries": 5529,
      "hal": 5530,
      "oned": 5531,
      "Ġpred": 5532,
      "arah": 5533,
      "ĠTHIS": 5534,
      "uten": 5535,
      "Ġroy": 5536,
      "Ġflo": 5537,
      "ocal": 5538,
      "Ġadminist": 5539,
      "ĠSecond": 5540,
      "Ġcabin": 5541,
      "Ġshadow": 5542,
      "Ġremembered": 5543,
      "OUR": 5544,
      "cho": 5545,
      "Ġriding": 5546,
      "Ġowned": 5547,
      "Ġpickle": 5548,
      "Ġedge": 5549,
      "Ġresponsible": 5550,
      "Ġrisk": 5551,
      "?'": 5552,
      "ĠTra": 5553,
      "Ġstir": 5554,
      "ĠLee": 5555,
      "Ġsake": 5556,
      "arts": 5557,
      "Ġstreets": 5558,
      "aura": 5559,
      "Ġlollip": 5560,
      "ĠPolly": 5561,
      "Ġjoke": 5562,
      "Ġuseta": 5563,
      "Ġhearing": 5564,
      "Ġmedal": 5565,
      "ĠSometimes": 5566,
      "Ġbabies": 5567,
      "Ġcong": 5568,
      "ooge": 5569,
      "ĠWAS": 5570,
      "Ġrushed": 5571,
      "Ġwatermelon": 5572,
      "gery": 5573,
      "Ġmatches": 5574,
      "Ġcandid": 5575,
      "SI": 5576,
      "Ġpears": 5577,
      "astern": 5578,
      "Ġthin": 5579,
      "ĠTrans": 5580,
      "ĠWhe": 5581,
      "ĠNaz": 5582,
      "ĠFair": 5583,
      "ola": 5584,
      "Ġarrange": 5585,
      "ĠVan": 5586,
      "Ġuhoh": 5587,
      "Ġsilent": 5588,
      "Ġbarn": 5589,
      "Ġsalt": 5590,
      "Ġcompanies": 5591,
      "Ġreligious": 5592,
      "ĠMexico": 5593,
      "ĠCatholic": 5594,
      "All": 5595,
      "VER": 5596,
      "ĠNick": 5597,
      "ĠRon": 5598,
      "ĠGi": 5599,
      "Ġshr": 5600,
      "estival": 5601,
      "ĠUN": 5602,
      "Ġdisplay": 5603,
      "bey": 5604,
      "Ġsmiled": 5605,
      "Ġtraffic": 5606,
      "Ġlaws": 5607,
      "Ġexperien": 5608,
      "ĠCanadian": 5609,
      "ĠAngeles": 5610,
      "ĠDistrict": 5611,
      "Ġrib": 5612,
      "enge": 5613,
      "ĠCall": 5614,
      "ube": 5615,
      "Ġthoughts": 5616,
      "ĠMississ": 5617,
      "Ġplanned": 5618,
      "Ġdrawn": 5619,
      "ĠAustria": 5620,
      "Ġvoices": 5621,
      "ĠWall": 5622,
      "ĠHu": 5623,
      "ĠBye": 5624,
      "cel": 5625,
      "Ġmanager": 5626,
      "Ġarg": 5627,
      "ocks": 5628,
      "Ġpoet": 5629,
      "Ġprisoners": 5630,
      "ĠSomething": 5631,
      "Come": 5632,
      "Mark": 5633,
      "hoe": 5634,
      "Ġwond": 5635,
      "ĠHA": 5636,
      "Ġsmoke": 5637,
      "ĠCarol": 5638,
      "ĠEverything": 5639,
      "ĠEarl": 5640,
      "This": 5641,
      "ĠAcademy": 5642,
      "iation": 5643,
      "rison": 5644,
      "Ġbomb": 5645,
      "isions": 5646,
      "ĠIra": 5647,
      "Ġthy": 5648,
      "Ġancient": 5649,
      "Ġactive": 5650,
      "Ġbug": 5651,
      "Ġsteal": 5652,
      "Ġrecognized": 5653,
      "Ġdare": 5654,
      "Ġlord": 5655,
      "Ġtroub": 5656,
      "Ġprevious": 5657,
      "Ġweekend": 5658,
      "Ġdreams": 5659,
      "Ġapprox": 5660,
      "Ġdeveloped": 5661,
      "ban": 5662,
      "Ġcups": 5663,
      "Ġnest": 5664,
      "ushes": 5665,
      "ĠSay": 5666,
      "Ġfork": 5667,
      "ĠWin": 5668,
      "ĠBund": 5669,
      "asty": 5670,
      "Ġfeelings": 5671,
      "Ġexpress": 5672,
      "ĠDemocratic": 5673,
      "Ġindependent": 5674,
      "ĠMississippi": 5675,
      "bel": 5676,
      "da": 5677,
      "Ġcities": 5678,
      "lla": 5679,
      "ĠSea": 5680,
      "iece": 5681,
      "Ġintended": 5682,
      "Ġtalks": 5683,
      "Ġgenerally": 5684,
      "Ġenjoyed": 5685,
      "Ġvalue": 5686,
      "ĠAgnes": 5687,
      "Ġteddy": 5688,
      "Ġaunt": 5689,
      "ĠHor": 5690,
      "Ġdeck": 5691,
      "Ġsurely": 5692,
      "Ġlarger": 5693,
      "Ġwondering": 5694,
      "Ġnervous": 5695,
      "ĠScrooge": 5696,
      "Ġfence": 5697,
      "ether": 5698,
      "ending": 5699,
      "Ġmostly": 5700,
      "Ġmarry": 5701,
      "pronounced": 5702,
      "Ġcreature": 5703,
      "Ġrespond": 5704,
      "Ġsausage": 5705,
      "bour": 5706,
      "ĠHI": 5707,
      "Ġcases": 5708,
      "Ġmud": 5709,
      "ĠCooper": 5710,
      "amin": 5711,
      "ols": 5712,
      "Ġexer": 5713,
      "Ġgoodness": 5714,
      "Ġpartner": 5715,
      "Ġretired": 5716,
      "ibility": 5717,
      "Ġforeign": 5718,
      "Ġcomfortable": 5719,
      "Ġbother": 5720,
      "ĠJon": 5721,
      "ateg": 5722,
      "ĠMissouri": 5723,
      "Ġloves": 5724,
      "Ġdarkness": 5725,
      "Ġglasses": 5726,
      "Ġyard": 5727,
      "Ġgira": 5728,
      "ĠWay": 5729,
      "stances": 5730,
      "Ġexchan": 5731,
      "arently": 5732,
      "OME": 5733,
      "ĠWilliams": 5734,
      "Ġlollipop": 5735,
      "ĠShi": 5736,
      "ĠMhm": 5737,
      "ada": 5738,
      "ĠFine": 5739,
      "Ġaccess": 5740,
      "Ġveget": 5741,
      "-ha": 5742,
      "Not": 5743,
      "Ġreview": 5744,
      "ĠMaj": 5745,
      "Ġupset": 5746,
      "ĠLo": 5747,
      "Ġdesire": 5748,
      "Ġevident": 5749,
      "ĠScientists": 5750,
      "MAL": 5751,
      "dam": 5752,
      "ĠSol": 5753,
      "ado": 5754,
      "ĠWow": 5755,
      "ĠHome": 5756,
      "AND": 5757,
      "Ġdiscover": 5758,
      "Ġsnake": 5759,
      "Ġmedicine": 5760,
      "Ġsuccessful": 5761,
      "Ġinnoc": 5762,
      "vest": 5763,
      "itz": 5764,
      "Ġcad": 5765,
      "Ġfal": 5766,
      "Ġnu": 5767,
      "ĠJac": 5768,
      "Ġsho": 5769,
      "Ġuns": 5770,
      "Ġpreviously": 5771,
      "Ġstands": 5772,
      "ĠKeep": 5773,
      "Ġholes": 5774,
      "Ġexcitement": 5775,
      "ram": 5776,
      "Ġmor": 5777,
      "Ġrice": 5778,
      "osen": 5779,
      "ĠStar": 5780,
      "Ġpolic": 5781,
      "Ġentertain": 5782,
      "Ġconditions": 5783,
      "Ġpotatoes": 5784,
      "wo": 5785,
      "Ġgrie": 5786,
      "Ġdoct": 5787,
      "ĠLaura": 5788,
      "Ġintellig": 5789,
      "Ġstaying": 5790,
      "Ġprotest": 5791,
      "sych": 5792,
      "ĠActually": 5793,
      "athered": 5794,
      "ĠMax": 5795,
      "ĠRh": 5796,
      "ĠOff": 5797,
      "ardon": 5798,
      "Ġworst": 5799,
      "Ġpean": 5800,
      "Ġunable": 5801,
      "Ġrefused": 5802,
      "Ġgrandfather": 5803,
      "Ġcritic": 5804,
      "Ġopposite": 5805,
      "ĠMuslim": 5806,
      "tries": 5807,
      "ĠSpe": 5808,
      "Ġstyle": 5809,
      "ĠWel": 5810,
      "Ġkm": 5811,
      "oles": 5812,
      "clear": 5813,
      "ĠScar": 5814,
      "Ġbuildings": 5815,
      "Ġwinning": 5816,
      "ĠProfess": 5817,
      "Ġjournal": 5818,
      "Ġdisappeared": 5819,
      "ĠAuntie": 5820,
      "EP": 5821,
      "Ġcrew": 5822,
      "Ġcards": 5823,
      "ingu": 5824,
      "Ġpra": 5825,
      "Ġpony": 5826,
      "ĠYear": 5827,
      "Ġmyster": 5828,
      "uments": 5829,
      "Ġcontr": 5830,
      "ucky": 5831,
      "Ġdolls": 5832,
      "ĠDespite": 5833,
      "Ġcopy": 5834,
      "Ġindustry": 5835,
      "Ġlibrary": 5836,
      "las": 5837,
      "ĠTy": 5838,
      "Ġdose": 5839,
      "Ġeverywhere": 5840,
      "Ġneedta": 5841,
      "Ġstructure": 5842,
      "Ġorganization": 5843,
      "Ġroyal": 5844,
      "PE": 5845,
      "gas": 5846,
      "Ġtear": 5847,
      "Ġbunny": 5848,
      "itiz": 5849,
      "Ġmam": 5850,
      "Ġder": 5851,
      "Ġgather": 5852,
      "Ġwhenever": 5853,
      "Ġprogress": 5854,
      "avis": 5855,
      "Ġresc": 5856,
      "Ġterrit": 5857,
      "Ġsigned": 5858,
      "Ġsalami": 5859,
      "ĠHappy": 5860,
      "ef": 5861,
      "mark": 5862,
      "Ġfier": 5863,
      "ĠSur": 5864,
      "Ġshell": 5865,
      "ĠLI": 5866,
      "Ġsuffe": 5867,
      "ucking": 5868,
      "Ġowner": 5869,
      "ĠAnother": 5870,
      "Ġhearts": 5871,
      "Ġplanet": 5872,
      "Ġplanning": 5873,
      "Ġconfl": 5874,
      "Ġevil": 5875,
      "ĠNext": 5876,
      "Ġescap": 5877,
      "Ġdetermined": 5878,
      "Ġweapon": 5879,
      "cies": 5880,
      "fall": 5881,
      "there": 5882,
      "uz": 5883,
      "itar": 5884,
      "Ġnative": 5885,
      "ĠBre": 5886,
      "chief": 5887,
      "ĠOk": 5888,
      "opher": 5889,
      "hib": 5890,
      "Ġprove": 5891,
      "ĠUk": 5892,
      "ĠMarie": 5893,
      "Ġkingdom": 5894,
      "Ġlessons": 5895,
      "Ġadvice": 5896,
      "Ġet": 5897,
      "ulous": 5898,
      "Ġunf": 5899,
      "ansas": 5900,
      "Ġinvited": 5901,
      "Ġsalad": 5902,
      "Ġdrove": 5903,
      "Ġweapons": 5904,
      "Ġsilly": 5905,
      "onel": 5906,
      "illed": 5907,
      "aki": 5908,
      "Ġgrey": 5909,
      "Ġmarked": 5910,
      "Ġproperty": 5911,
      "Ġperformed": 5912,
      "ĠLatin": 5913,
      "Ġmaid": 5914,
      "Ġrank": 5915,
      "Ġblame": 5916,
      "Ġproduction": 5917,
      "ĠEarly": 5918,
      "habet": 5919,
      "-morrow": 5920,
      "ugg": 5921,
      "Ġwedd": 5922,
      "Ġdun": 5923,
      "Ġkick": 5924,
      "quar": 5925,
      "ĠAndrew": 5926,
      "ĠInstit": 5927,
      "Ġamb": 5928,
      "Ġprepar": 5929,
      "Ġrecently": 5930,
      "Ġmagaz": 5931,
      "Ġincludes": 5932,
      "Ġprompt": 5933,
      "ervation": 5934,
      "Ġeventually": 5935,
      "iverse": 5936,
      "Ġtreated": 5937,
      "Ġguns": 5938,
      "Ġavoid": 5939,
      "Ġscarcely": 5940,
      "ĠLabour": 5941,
      "ĠVirgin": 5942,
      "Ġperformance": 5943,
      "oria": 5944,
      "arr": 5945,
      "Ġgained": 5946,
      "ĠAEW": 5947,
      "acon": 5948,
      "ental": 5949,
      "Ġshoulders": 5950,
      "Ġrealized": 5951,
      "Ġrealize": 5952,
      "Ġstrike": 5953,
      "Ġpatient": 5954,
      "Ġwagon": 5955,
      "nam": 5956,
      "ĠSqu": 5957,
      "acher": 5958,
      "uns": 5959,
      "Ġvent": 5960,
      "ĠKore": 5961,
      "Ġleague": 5962,
      "Ġthousands": 5963,
      "Ġcookie": 5964,
      "Ġpurcha": 5965,
      "Ġfrequently": 5966,
      "sings": 5967,
      "Ġbone": 5968,
      "ancy": 5969,
      "ashing": 5970,
      "Ġwealth": 5971,
      "ĠEst": 5972,
      "Ġscore": 5973,
      "ĠCentral": 5974,
      "Ġpalace": 5975,
      "Ġpillow": 5976,
      "ena": 5977,
      "Ġlake": 5978,
      "ĠBru": 5979,
      "ĠNice": 5980,
      "Ġgrace": 5981,
      "Ġcompos": 5982,
      "Ġhandsome": 5983,
      "Ġincident": 5984,
      "Ġservant": 5985,
      "Ġdetect": 5986,
      "reedom": 5987,
      "Ġslightly": 5988,
      "Ġtouched": 5989,
      "inal": 5990,
      "Ġchat": 5991,
      "Ġpale": 5992,
      "Ġgoodbye": 5993,
      "Ġchosen": 5994,
      "Ġdespite": 5995,
      "Ġfriendly": 5996,
      "Ġfinancial": 5997,
      "otted": 5998,
      "ĠHarry": 5999,
      "Ġfailure": 6000,
      "Ġelder": 6001,
      "Ġtie": 6002,
      "Ġfaster": 6003,
      "ĠTre": 6004,
      "road": 6005,
      "ĠBoth": 6006,
      "andy": 6007,
      "artment": 6008,
      "Ġcloth": 6009,
      "Ġadvert": 6010,
      "Ġacting": 6011,
      "ugs": 6012,
      "Ġissues": 6013,
      "Ġtradition": 6014,
      "draw": 6015,
      "low": 6016,
      "ĠTen": 6017,
      "ador": 6018,
      "ĠBea": 6019,
      "Ġsplend": 6020,
      "ĠKim": 6021,
      "Ġscrew": 6022,
      "ĠJohnson": 6023,
      "ropri": 6024,
      "Ġsorts": 6025,
      "Ġtransfer": 6026,
      "Ġrequire": 6027,
      "Ġtotally": 6028,
      "Ġshooting": 6029,
      "ĠMargaret": 6030,
      "ĠSusan": 6031,
      "back": 6032,
      "zo": 6033,
      "ĠHal": 6034,
      "Ġdoors": 6035,
      "ĠGirl": 6036,
      "Ġactress": 6037,
      "Ġpreschool": 6038,
      "Ġdrum": 6039,
      "Ġcollection": 6040,
      "ragon": 6041,
      "ĠMartin": 6042,
      "Ġmaterial": 6043,
      "-de": 6044,
      "Ġgathered": 6045,
      "ette": 6046,
      "ĠPict": 6047,
      "thur": 6048,
      "Ġsched": 6049,
      "ĠIsn": 6050,
      "ounce": 6051,
      "Ġpossessed": 6052,
      "Ġremarked": 6053,
      "Ġmirror": 6054,
      "Ġsuffered": 6055,
      "ĠBal": 6056,
      "ĠEv": 6057,
      "ĠStep": 6058,
      "Ġdesert": 6059,
      "Ġoblig": 6060,
      "Ġkilling": 6061,
      "Ġlearning": 6062,
      "Ġhoping": 6063,
      "Ġburning": 6064,
      "ĠIrish": 6065,
      "-H": 6066,
      "rick": 6067,
      "Ġcensus": 6068,
      "ĠWent": 6069,
      "ĠHy": 6070,
      "ĠSocial": 6071,
      "Ġapolog": 6072,
      "Ġapproach": 6073,
      "Ġhasta": 6074,
      "ĠTurk": 6075,
      "Ġfully": 6076,
      "Ġhiding": 6077,
      "irlf": 6078,
      "keep": 6079,
      "ĠYet": 6080,
      "Ġconcent": 6081,
      "Ġexpression": 6082,
      "Ġrange": 6083,
      "Ġapartment": 6084,
      "Ġtaperecorder": 6085,
      "-P": 6086,
      "ION": 6087,
      "pret": 6088,
      "while": 6089,
      "Ġlem": 6090,
      "ata": 6091,
      "ett": 6092,
      "ĠSO": 6093,
      "ĠSix": 6094,
      "ĠMir": 6095,
      "ĠMavis": 6096,
      "ĠBack": 6097,
      "Ġaside": 6098,
      "they": 6099,
      "ĠShould": 6100,
      "ĠAustrian": 6101,
      "Ġsettlement": 6102,
      "ĠFlorida": 6103,
      "Ġconflict": 6104,
      "pass": 6105,
      "Ġaver": 6106,
      "ima": 6107,
      "ĠDiv": 6108,
      "Ġchoo": 6109,
      "Ġmedia": 6110,
      "Ġgrandmother": 6111,
      "Ġtournament": 6112,
      "Ġbranches": 6113,
      "sed": 6114,
      "Ġsink": 6115,
      "Ġsorrow": 6116,
      "iture": 6117,
      "Ġfired": 6118,
      "Ġstaff": 6119,
      "Ġhadta": 6120,
      "this": 6121,
      "Ġconclud": 6122,
      "ĠStud": 6123,
      "Ġunderstood": 6124,
      "Ġboats": 6125,
      "Ġdesk": 6126,
      "Ġtun": 6127,
      "ĠMaine": 6128,
      "urt": 6129,
      "ĠLater": 6130,
      "Ġwaves": 6131,
      "Ġslipp": 6132,
      "Ġhorsie": 6133,
      "ĠMickey": 6134,
      "bled": 6135,
      "gt": 6136,
      "Ġlosing": 6137,
      "ĠTor": 6138,
      "ĠCher": 6139,
      "Ġafford": 6140,
      "Ġappointed": 6141,
      "Ġcrown": 6142,
      "Ġcats": 6143,
      "Ġfairly": 6144,
      "ĠSHE": 6145,
      "Ġrear": 6146,
      "ĠKar": 6147,
      "ogether": 6148,
      "Ġcausing": 6149,
      "ĠGovernor": 6150,
      "irlfriend": 6151,
      "Good": 6152,
      "Mother": 6153,
      "Sarah": 6154,
      "Ġpause": 6155,
      "Ġnorthern": 6156,
      "ĠTime": 6157,
      "Ġnotes": 6158,
      "ĠNic": 6159,
      "ague": 6160,
      "ĠThink": 6161,
      "Ġdesper": 6162,
      "ĠAlright": 6163,
      "ĠAsian": 6164,
      "Ġballoon": 6165,
      "ĠColumb": 6166,
      "Ġcharacters": 6167,
      "ĠEmperor": 6168,
      "Ġfields": 6169,
      "Ġpressure": 6170,
      "HER": 6171,
      "aun": 6172,
      "Ġsings": 6173,
      "encer": 6174,
      "Ġpil": 6175,
      "Ġloose": 6176,
      "Ġapples": 6177,
      "ailed": 6178,
      "Ġteaching": 6179,
      "Ġfortune": 6180,
      "-F": 6181,
      "Ġwine": 6182,
      "Ġtooth": 6183,
      "uties": 6184,
      "see": 6185,
      "ĠRog": 6186,
      "Ġroles": 6187,
      "Ġraise": 6188,
      "Ġrecording": 6189,
      "Ġmispronounced": 6190,
      "Ġtyp": 6191,
      "ĠMerle": 6192,
      "Ġmixed": 6193,
      "ĠPortug": 6194,
      "Ġbodies": 6195,
      "ĠCos": 6196,
      "ĠBra": 6197,
      "ĠPut": 6198,
      "Ġthrone": 6199,
      "clears": 6200,
      "Ġdelay": 6201,
      "Ġphilos": 6202,
      "Ġlink": 6203,
      "rol": 6204,
      "Ġanti": 6205,
      "ĠPo": 6206,
      "Ġcomment": 6207,
      "Ġcris": 6208,
      "engers": 6209,
      "ĠAustralian": 6210,
      "ĠRodger": 6211,
      "-G": 6212,
      "tape": 6213,
      "Ġbunch": 6214,
      "ĠSIS": 6215,
      "Ġmeas": 6216,
      "ĠDoug": 6217,
      "ĠRad": 6218,
      "Ġupside": 6219,
      "Ġsomehow": 6220,
      "Ġclimate": 6221,
      "ARD": 6222,
      "Ġslide": 6223,
      "Ġbreaking": 6224,
      "Ġuseful": 6225,
      "Ġtowns": 6226,
      "ĠCharlie": 6227,
      "Ġarrested": 6228,
      "Ġpit": 6229,
      "Ġpor": 6230,
      "ĠEs": 6231,
      "Ġability": 6232,
      "istic": 6233,
      "istry": 6234,
      "Ġproved": 6235,
      "icted": 6236,
      "ropol": 6237,
      "Ġrecorded": 6238,
      "Ġcupcake": 6239,
      "Ġdefeated": 6240,
      "Ġdaily": 6241,
      "Ġauthority": 6242,
      "SE": 6243,
      "car": 6244,
      "iest": 6245,
      "Ġwra": 6246,
      "oni": 6247,
      "Ġsheep": 6248,
      "ĠFI": 6249,
      "avar": 6250,
      "Ġcookies": 6251,
      "ĠGroup": 6252,
      "Ġresults": 6253,
      "Ġbecomes": 6254,
      "Ġadditional": 6255,
      "Ġdestroyed": 6256,
      "Ġamazing": 6257,
      "Ġalphabet": 6258,
      "Ġaid": 6259,
      "Ġhunt": 6260,
      "icide": 6261,
      "Ġeh": 6262,
      "ĠHea": 6263,
      "ĠBay": 6264,
      "Ġchap": 6265,
      "Ġchose": 6266,
      "Ġsetting": 6267,
      "ĠJohnny": 6268,
      "ĠEveryone": 6269,
      "Ġunclear": 6270,
      "Ġfocus": 6271,
      "Ġcottage": 6272,
      "ĠProvince": 6273,
      "FF": 6274,
      "Ġwhining": 6275,
      "Ġkidding": 6276,
      "ĠNOT": 6277,
      "ĠYoung": 6278,
      "Ġclown": 6279,
      "Ġcray": 6280,
      "Ġbitter": 6281,
      "Ġefforts": 6282,
      "Ġcircumstances": 6283,
      "Ġwedding": 6284,
      "case": 6285,
      "ĠLake": 6286,
      "emic": 6287,
      "ĠRev": 6288,
      "Ġlistened": 6289,
      "Ġdelicious": 6290,
      "Ġadvance": 6291,
      "Ġdesigned": 6292,
      "tr": 6293,
      "Ġ/": 6294,
      "Ġbicycle": 6295,
      "Ġreign": 6296,
      "ĠBa": 6297,
      "Ġselected": 6298,
      "ulty": 6299,
      "Ġaband": 6300,
      "ĠVict": 6301,
      "Ġrelated": 6302,
      "Ġdefend": 6303,
      "Ġdocument": 6304,
      "-I": 6305,
      "iner": 6306,
      "isher": 6307,
      "ĠSong": 6308,
      "acha": 6309,
      "ĠWork": 6310,
      "tery": 6311,
      "ĠGers": 6312,
      "ĠLong": 6313,
      "Ġfeather": 6314,
      "ĠArthur": 6315,
      "okes": 6316,
      "whispers": 6317,
      "ĠRecords": 6318,
      "Ġrat": 6319,
      "pton": 6320,
      "Ġuniversity": 6321,
      "Ġends": 6322,
      "Ġpenny": 6323,
      "Ġpositive": 6324,
      "Ġmiser": 6325,
      "Ġdescribed": 6326,
      "ĠToday": 6327,
      "tt": 6328,
      "heast": 6329,
      "Ġmort": 6330,
      "Ġnuh": 6331,
      "usted": 6332,
      "ĠLand": 6333,
      "Ġbiggest": 6334,
      "iple": 6335,
      "ĠAtl": 6336,
      "Ġdistinct": 6337,
      "ĠGeorg": 6338,
      "Ġcompanion": 6339,
      "Ġrapidly": 6340,
      "\"?": 6341,
      "goes": 6342,
      "Ġsought": 6343,
      "Ġpity": 6344,
      "Ġlone": 6345,
      "owing": 6346,
      "Ġrefe": 6347,
      "essert": 6348,
      "angle": 6349,
      "Ġfourteen": 6350,
      "ontin": 6351,
      "Ġconduct": 6352,
      "ĠCastle": 6353,
      "phe": 6354,
      "wers": 6355,
      "Ġtim": 6356,
      "Ġsons": 6357,
      "lying": 6358,
      "Ġdozen": 6359,
      "ĠBull": 6360,
      "Ġsuffic": 6361,
      "Ġtroops": 6362,
      "Ġsche": 6363,
      "Ġdese": 6364,
      "Ġmission": 6365,
      "Ġcreatures": 6366,
      "Ġfairy": 6367,
      "Ġestablish": 6368,
      "ILL": 6369,
      "Ġdessert": 6370,
      "stead": 6371,
      "ooking": 6372,
      "Ġsports": 6373,
      "ĠAmeric": 6374,
      "whining": 6375,
      "Ġadvant": 6376,
      "Ġdefinitely": 6377,
      "Ġknocked": 6378,
      "Ġsuggested": 6379,
      "ĠDisney": 6380,
      "-and": 6381,
      "ĠIll": 6382,
      "Ġforms": 6383,
      "ĠDire": 6384,
      "Ġshel": 6385,
      "Ġpregn": 6386,
      "ĠIraq": 6387,
      "-le": 6388,
      "-huh": 6389,
      "Tilda": 6390,
      "Ġsang": 6391,
      "acle": 6392,
      "Ġpride": 6393,
      "angar": 6394,
      "Ġpresently": 6395,
      "Ġbelief": 6396,
      "Ġfunction": 6397,
      "Ġpicking": 6398,
      "bridge": 6399,
      "Ġbesides": 6400,
      "Ġselling": 6401,
      "Ġmajority": 6402,
      "Ġtender": 6403,
      "die": 6404,
      "Ġwestern": 6405,
      "Ġcitiz": 6406,
      "ĠBes": 6407,
      "ĠBad": 6408,
      "ĠLast": 6409,
      "ĠUK": 6410,
      "rane": 6411,
      "Ġcrash": 6412,
      "Ġannoy": 6413,
      "Ġmainly": 6414,
      "ĠTommy": 6415,
      "ITH": 6416,
      "Ġseparate": 6417,
      "Ġdrugs": 6418,
      "Ġyo": 6419,
      "Ġpure": 6420,
      "Ġpile": 6421,
      "Ġpiano": 6422,
      "ĠHill": 6423,
      "ilty": 6424,
      "unts": 6425,
      "ĠEaster": 6426,
      "Ġrug": 6427,
      "Ġchew": 6428,
      "ĠAtt": 6429,
      "Ġsurface": 6430,
      "Ġcapable": 6431,
      "Ġincrease": 6432,
      "Ġapproximately": 6433,
      "Nina": 6434,
      "Ġcone": 6435,
      "Ġpsych": 6436,
      "Ġhabit": 6437,
      "ĠSE": 6438,
      "ĠHad": 6439,
      "Ġglance": 6440,
      "ointment": 6441,
      "Ġsymp": 6442,
      "Ġexciting": 6443,
      "Ġtreasure": 6444,
      "Ġproposed": 6445,
      "Ġcowboy": 6446,
      "Ġlocked": 6447,
      "cope": 6448,
      "ga": 6449,
      "Ġwid": 6450,
      "Ġgain": 6451,
      "Ġnomin": 6452,
      "urance": 6453,
      "Ġjew": 6454,
      "Ġspect": 6455,
      "Ġimpl": 6456,
      "Ġshame": 6457,
      "Ġdesp": 6458,
      "Ġexplained": 6459,
      "Ġformula": 6460,
      "Ġremaining": 6461,
      "ĠHungry": 6462,
      "Ġmicro": 6463,
      "ev": 6464,
      "ige": 6465,
      "last": 6466,
      "uing": 6467,
      "Ġbones": 6468,
      "Ġmap": 6469,
      "ani": 6470,
      "ĠMen": 6471,
      "ĠFoot": 6472,
      "ĠEach": 6473,
      "ulting": 6474,
      "Ġvast": 6475,
      "Ġotherwise": 6476,
      "angers": 6477,
      "ggy": 6478,
      "thel": 6479,
      "Ġpainting": 6480,
      "IA": 6481,
      "ds": 6482,
      "Ġbold": 6483,
      "Ġdump": 6484,
      "Ġpipe": 6485,
      "Ġgirlfriend": 6486,
      "ĠWild": 6487,
      "stone": 6488,
      "Ġshared": 6489,
      "Ġsmiling": 6490,
      "ĠChild": 6491,
      "Ġburied": 6492,
      "Ġpupp": 6493,
      "ĠUpon": 6494,
      "Ġrubber": 6495,
      "Ġplatform": 6496,
      "Ġsouthwestern": 6497,
      "'la": 6498,
      "ios": 6499,
      "sit": 6500,
      "ingly": 6501,
      "omed": 6502,
      "Ġhorn": 6503,
      "Ġwhoops": 6504,
      "Ġassoci": 6505,
      "ĠNik": 6506,
      "ĠGal": 6507,
      "Ġshook": 6508,
      "Ġplus": 6509,
      "Ġpeas": 6510,
      "Ġpoison": 6511,
      "looks": 6512,
      "Ġawarded": 6513,
      "Ġborder": 6514,
      "ĠHuh": 6515,
      "ĠOl": 6516,
      "ulk": 6517,
      "Ġrac": 6518,
      "Ġchain": 6519,
      "Ġseriously": 6520,
      "Ġfinds": 6521,
      "Ġrooms": 6522,
      "Ġrelief": 6523,
      "Ġsymb": 6524,
      "Ġengaged": 6525,
      "Ġcounter": 6526,
      "Ġhomes": 6527,
      "ili": 6528,
      "ĠRa": 6529,
      "Ġparties": 6530,
      "Ġpersu": 6531,
      "Ġpaying": 6532,
      "Ġadmit": 6533,
      "ĠTrump": 6534,
      "Ġslept": 6535,
      "Ġprimary": 6536,
      "Ġodd": 6537,
      "Ġbon": 6538,
      "Ġrent": 6539,
      "Ġseats": 6540,
      "ĠNana": 6541,
      "ĠEthel": 6542,
      "ĠJun": 6543,
      "ĠJung": 6544,
      "Ġvalley": 6545,
      "ĠKN": 6546,
      "Ġearned": 6547,
      "Ġreality": 6548,
      "Ġmeters": 6549,
      "Ġstudies": 6550,
      "Ġsales": 6551,
      "Ġstepped": 6552,
      "Ġprofessor": 6553,
      "ĠHaving": 6554,
      "Ġcredit": 6555,
      "Ġextremely": 6556,
      "ping": 6557,
      "some": 6558,
      "ua": 6559,
      "Ã¦": 6560,
      "Ġhidden": 6561,
      "Ġbeer": 6562,
      "ĠRE": 6563,
      "Ġplates": 6564,
      "icket": 6565,
      "ĠNobody": 6566,
      "Ġminor": 6567,
      "iamond": 6568,
      "Ġillustr": 6569,
      "Ġoriginally": 6570,
      "Ġdivided": 6571,
      "utenant": 6572,
      "'am": 6573,
      "gers": 6574,
      "mouth": 6575,
      "war": 6576,
      "Ġfaint": 6577,
      "ĠAri": 6578,
      "stant": 6579,
      "ulations": 6580,
      "Ġactions": 6581,
      "Ġresident": 6582,
      "Ġresolved": 6583,
      "Ġinstit": 6584,
      "asped": 6585,
      "ĠDepartment": 6586,
      "Ġsplendid": 6587,
      "UCK": 6588,
      "Ġast": 6589,
      "hamed": 6590,
      "ĠIm": 6591,
      "Ġpants": 6592,
      "Ġgy": 6593,
      "ĠArgent": 6594,
      "Ġprize": 6595,
      "Ġpulling": 6596,
      "ĠSwiss": 6597,
      "Ġdiscussion": 6598,
      "Ġpainted": 6599,
      "Ġaccompan": 6600,
      "Ġsnap": 6601,
      "Ġfamiliar": 6602,
      "Ġgiraffe": 6603,
      "ĠInstitute": 6604,
      "ĠBruce": 6605,
      "bor": 6606,
      "friend": 6607,
      "nan": 6608,
      "umes": 6609,
      "Ġrang": 6610,
      "Ġaltern": 6611,
      "Ġspare": 6612,
      "ateful": 6613,
      "gging": 6614,
      "Ġcooking": 6615,
      "chester": 6616,
      "Ġbelongs": 6617,
      "Ġkissed": 6618,
      "Ġbranch": 6619,
      "Ġnewspaper": 6620,
      "ooth": 6621,
      "Ġsigh": 6622,
      "Ġnib": 6623,
      "lection": 6624,
      "ĠAk": 6625,
      "Ġreasons": 6626,
      "ĠHaw": 6627,
      "ĠOoh": 6628,
      "ĠLy": 6629,
      "ĠHealth": 6630,
      "Ġthrown": 6631,
      "Ġoldest": 6632,
      "Ġresour": 6633,
      "Ġelev": 6634,
      "Ġconsist": 6635,
      "Ġairport": 6636,
      "ĠProt": 6637,
      "Ġchecked": 6638,
      "Ġsafely": 6639,
      "ĠINV": 6640,
      "Ġattempted": 6641,
      "Ġshouted": 6642,
      "stein": 6643,
      "ĠPrincess": 6644,
      "angaroo": 6645,
      ".C": 6646,
      "cles": 6647,
      "elling": 6648,
      "hank": 6649,
      "Ġquit": 6650,
      "Ġchampion": 6651,
      "Ġmighty": 6652,
      "aws": 6653,
      "ĠIndians": 6654,
      "Ġpriest": 6655,
      "ĠDidn": 6656,
      "umbling": 6657,
      "Ġbrand": 6658,
      "ĠTeam": 6659,
      "Ġdivor": 6660,
      "Ġstranger": 6661,
      "Ġinfluence": 6662,
      "Ġvirus": 6663,
      "Ġjacket": 6664,
      "ĠAT": 6665,
      "ĠMusic": 6666,
      "ĠMiddle": 6667,
      "Ġult": 6668,
      "ĠEdu": 6669,
      "olar": 6670,
      "onsense": 6671,
      "Ġmoments": 6672,
      "ĠArch": 6673,
      "Ġinterrupt": 6674,
      "ĠSomeone": 6675,
      "Ġforgive": 6676,
      "Ġpropos": 6677,
      "Ġlifted": 6678,
      "Ġagreement": 6679,
      ",you": 6680,
      "overy": 6681,
      "Ġaston": 6682,
      "inn": 6683,
      "ĠAwards": 6684,
      "Ġren": 6685,
      "Ġstove": 6686,
      "Ġug": 6687,
      "Ġsav": 6688,
      "Ġrush": 6689,
      "Ġguests": 6690,
      "Ġchase": 6691,
      "Ġresist": 6692,
      "ĠBrother": 6693,
      "Ġbegun": 6694,
      "Ġdisturb": 6695,
      "Ġimpact": 6696,
      "Ġcutting": 6697,
      "ĠShar": 6698,
      "looking": 6699,
      "Ġassistant": 6700,
      "ĠSenate": 6701,
      "Ġsource": 6702,
      "ĠCareer": 6703,
      "Ġappreciate": 6704,
      "Let": 6705,
      "walk": 6706,
      "Ġboo": 6707,
      "isa": 6708,
      "ĠRO": 6709,
      "Ġspark": 6710,
      "Ġplayers": 6711,
      "Ġguilty": 6712,
      "ocr": 6713,
      "Ġdrama": 6714,
      "Ġbadly": 6715,
      "Ġholiday": 6716,
      "Ġarranged": 6717,
      "ĠAlf": 6718,
      "sters": 6719,
      "Ġunfortun": 6720,
      "Ġstudent": 6721,
      "Ġjobs": 6722,
      "Ġdelighted": 6723,
      "Ġcereal": 6724,
      "ĠRemember": 6725,
      "ĠHAVE": 6726,
      "'...": 6727,
      "rot": 6728,
      "za": 6729,
      "Ġgay": 6730,
      "ĠSuch": 6731,
      "Ġcommer": 6732,
      "Ġshake": 6733,
      "Ġboom": 6734,
      "Ġrecomm": 6735,
      "ĠAnne": 6736,
      "Ġdriven": 6737,
      "ception": 6738,
      "-bye": 6739,
      "umbled": 6740,
      "Ġattacked": 6741,
      "izza": 6742,
      "Ġbuddy": 6743,
      "ĠWentworth": 6744,
      "RA": 6745,
      "Where": 6746,
      "works": 6747,
      "ĠSwe": 6748,
      "ĠPre": 6749,
      "Ġattended": 6750,
      "ÃŃt": 6751,
      "Ġpackage": 6752,
      "Ġachieve": 6753,
      "Ġconcert": 6754,
      "cries": 6755,
      "Ġsouthern": 6756,
      "Ġpump": 6757,
      "Ġitems": 6758,
      "ĠALL": 6759,
      "ĠMake": 6760,
      "ĠWater": 6761,
      "ĠBilly": 6762,
      "alled": 6763,
      "Ġseek": 6764,
      "eps": 6765,
      "ĠWhatever": 6766,
      "Ġtransl": 6767,
      "Ġmunicipal": 6768,
      "bbed": 6769,
      "Ġhunting": 6770,
      "ĠMajesty": 6771,
      "Ġinnocent": 6772,
      "erves": 6773,
      "Ġdough": 6774,
      "Ġbeast": 6775,
      "ĠAng": 6776,
      "ription": 6777,
      "ĠBud": 6778,
      "Ġmere": 6779,
      "ells": 6780,
      "andra": 6781,
      "abor": 6782,
      "Ġcheeks": 6783,
      "ERS": 6784,
      "Ġinstant": 6785,
      "Ġcompleted": 6786,
      "Ġaccepted": 6787,
      "Ġsuffering": 6788,
      "ĠProfessor": 6789,
      "Ġnuhhuh": 6790,
      "WE": 6791,
      "fle": 6792,
      "lies": 6793,
      "orge": 6794,
      "Ġthorough": 6795,
      "ĠSub": 6796,
      "Ġrecent": 6797,
      "Ġclever": 6798,
      "Ġhighly": 6799,
      "ĠClub": 6800,
      "OUT": 6801,
      "Ġconfess": 6802,
      "Ġprovince": 6803,
      "Ġcosts": 6804,
      "Ġaverage": 6805,
      "dro": 6806,
      "Ġfart": 6807,
      "ĠInt": 6808,
      "ano": 6809,
      "Ġmeasure": 6810,
      "ĠFive": 6811,
      "ĠUE": 6812,
      "ĠâĢĻ": 6813,
      "Ġhug": 6814,
      "izes": 6815,
      "Ġhappiness": 6816,
      "Ġscreen": 6817,
      "Ġrestaur": 6818,
      "Ġmultiple": 6819,
      "ropriate": 6820,
      "Ġlonely": 6821,
      "book": 6822,
      "Ġlob": 6823,
      "amily": 6824,
      "ĠWITH": 6825,
      "Ġange": 6826,
      "Ġanger": 6827,
      "eable": 6828,
      "ĠLar": 6829,
      "Ġcho": 6830,
      "Ġsciss": 6831,
      "Ġswear": 6832,
      "Ġgovernor": 6833,
      "Ġcrossed": 6834,
      "ĠTele": 6835,
      "Ġcloset": 6836,
      "writer": 6837,
      "-se": 6838,
      "{\\": 6839,
      "hem": 6840,
      "Ġdust": 6841,
      "Ġlic": 6842,
      "Ġstack": 6843,
      "umn": 6844,
      "elia": 6845,
      "Ġconference": 6846,
      "ĠAsh": 6847,
      "Ġpolitics": 6848,
      "Ġrecognize": 6849,
      "Ġelectric": 6850,
      "ĠMeliss": 6851,
      "Ġchampionship": 6852,
      "Ġtough": 6853,
      "Ġgently": 6854,
      "Ġthrill": 6855,
      "Ġsees": 6856,
      "...?": 6857,
      "ques": 6858,
      "Ġconcl": 6859,
      "Ġclay": 6860,
      "Ġwarning": 6861,
      "Ġsubsequently": 6862,
      "Ġprogramme": 6863,
      "ĠRamsey": 6864,
      "Ġoccupied": 6865,
      "Ġpeanut": 6866,
      "Ġopt": 6867,
      "Ġnail": 6868,
      "Ġdiss": 6869,
      "Ġwrit": 6870,
      "Ġcriter": 6871,
      "Ġaccompl": 6872,
      "Ġacquaint": 6873,
      "Ġfalse": 6874,
      "put": 6875,
      "aly": 6876,
      "ĠHoney": 6877,
      "ĠLuc": 6878,
      "Ġswall": 6879,
      "ĠPhilip": 6880,
      "Ġdeeply": 6881,
      "Ġdetails": 6882,
      "ĠPolice": 6883,
      "Ġburned": 6884,
      "ĠJewish": 6885,
      "ĠBertha": 6886,
      "rate": 6887,
      "orb": 6888,
      "Ġpant": 6889,
      "rier": 6890,
      "ĠYOUR": 6891,
      "Ġracing": 6892,
      "Ġspo": 6893,
      "Ġspr": 6894,
      "ĠKen": 6895,
      "Ġbrush": 6896,
      "Ġguitar": 6897,
      "Ġchart": 6898,
      "Ġclosely": 6899,
      "Ġdefeat": 6900,
      "Ġrepresented": 6901,
      "Ġstatement": 6902,
      "ĠVermont": 6903,
      "lings": 6904,
      "Ġfreedom": 6905,
      "Ġbeans": 6906,
      "ĠSk": 6907,
      "rog": 6908,
      "ĠBon": 6909,
      "ulate": 6910,
      "apt": 6911,
      "Ġproof": 6912,
      "âĢĻm": 6913,
      "Ġsits": 6914,
      "Ġarrival": 6915,
      "Ġillness": 6916,
      "Ġfleet": 6917,
      "Ġproperly": 6918,
      "Ġphotograph": 6919,
      "Ġimprove": 6920,
      "Ġx": 6921,
      "Ġtire": 6922,
      "Ġcode": 6923,
      "Ġded": 6924,
      "Ġstones": 6925,
      "rose": 6926,
      "urd": 6927,
      "ĠLie": 6928,
      "Ġguest": 6929,
      "Ġeats": 6930,
      "Ġattached": 6931,
      "ĠArmen": 6932,
      "playing": 6933,
      "ĠRoad": 6934,
      "Ġsympat": 6935,
      "Who": 6936,
      "shire": 6937,
      "Ġtale": 6938,
      "esh": 6939,
      "ĠSil": 6940,
      "stra": 6941,
      "raham": 6942,
      "Ġvain": 6943,
      "icking": 6944,
      "ĠStand": 6945,
      "Ġeaten": 6946,
      "Ġswift": 6947,
      "Ġaircraft": 6948,
      "Ġanswers": 6949,
      "ĠBlue": 6950,
      "Ġlabor": 6951,
      "Ġeffects": 6952,
      "ĠThrough": 6953,
      "Of": 6954,
      "Whin": 6955,
      "ias": 6956,
      "nels": 6957,
      "Ġsin": 6958,
      "Ġbrill": 6959,
      "Ġfishing": 6960,
      "esome": 6961,
      "ĠSH": 6962,
      "ĠAmy": 6963,
      "ĠGames": 6964,
      "Ġsport": 6965,
      "Ġhumans": 6966,
      "ALL": 6967,
      "Ġtreatment": 6968,
      "Ġcritical": 6969,
      "Ġaffair": 6970,
      "Ġdreadful": 6971,
      "An": 6972,
      "KE": 6973,
      "name": 6974,
      "pre": 6975,
      "owder": 6976,
      "imp": 6977,
      "ĠDown": 6978,
      "ĠFree": 6979,
      "Ġgreatly": 6980,
      "Ġtravell": 6981,
      "Ġregret": 6982,
      "ANG": 6983,
      "Ġinstance": 6984,
      "Ġawake": 6985,
      "Ġtransform": 6986,
      "Ġsquee": 6987,
      "Ġapproached": 6988,
      "Ġfellows": 6989,
      "Ġvolume": 6990,
      "ĠBattle": 6991,
      "Ġfurniture": 6992,
      "upp": 6993,
      "Ġ:": 6994,
      "ancing": 6995,
      "Ġnick": 6996,
      "ĠTower": 6997,
      "vering": 6998,
      "Ġkangaroo": 6999,
      "Ġknees": 7000,
      "Ġwarri": 7001,
      "Ġlabel": 7002,
      "Ġwashers": 7003,
      "Ġenvironmental": 7004,
      "-a": 7005,
      "RY": 7006,
      "mpt": 7007,
      "zing": 7008,
      "Ġwicked": 7009,
      "Ġpha": 7010,
      "Ġhipp": 7011,
      "icing": 7012,
      "ĠTam": 7013,
      "ĠHas": 7014,
      "Ġseated": 7015,
      "ĠGro": 7016,
      "aging": 7017,
      "Ġflood": 7018,
      "Ġreturning": 7019,
      "which": 7020,
      "ĠShow": 7021,
      "ĠAgain": 7022,
      "Ġequal": 7023,
      "Ġdistributed": 7024,
      "coh": 7025,
      "Ġtied": 7026,
      "Ġben": 7027,
      "Ġdu": 7028,
      "ĠSouthern": 7029,
      "unning": 7030,
      "Ġ--": 7031,
      "uled": 7032,
      "ĠJam": 7033,
      "ĠJones": 7034,
      "emies": 7035,
      "Ġcrimin": 7036,
      "Ġgreet": 7037,
      "Ġstandard": 7038,
      "Ġcauses": 7039,
      "Ġtremb": 7040,
      "Ġexpensive": 7041,
      "Ġtribe": 7042,
      "Ġpresented": 7043,
      "ĠLeon": 7044,
      "Ġoperation": 7045,
      "ĠJerry": 7046,
      "Ġscratch": 7047,
      "Ġaffection": 7048,
      "sembly": 7049,
      "ĠVirginia": 7050,
      "Ġcrisis": 7051,
      "Ġaccompanied": 7052,
      "referent": 7053,
      "icago": 7054,
      "ĠShan": 7055,
      "ĠSue": 7056,
      "lyn": 7057,
      "....": 7058,
      "ĠBern": 7059,
      "ĠDON": 7060,
      "ĠOw": 7061,
      "ĠKir": 7062,
      "ART": 7063,
      "ĠâĢĶ": 7064,
      "Ġboot": 7065,
      "ESS": 7066,
      "ĠZe": 7067,
      "Ġhurts": 7068,
      "noise": 7069,
      "ĠConsequently": 7070,
      "Ġhonour": 7071,
      "Ġinitial": 7072,
      "ĠJews": 7073,
      "Ġbroadcast": 7074,
      "ĠService": 7075,
      "olarship": 7076,
      "ĠUEFA": 7077,
      "Whinney": 7078,
      "Be": 7079,
      "Ġdim": 7080,
      "ĠPra": 7081,
      "ĠNations": 7082,
      "Ġrubb": 7083,
      "Ġjustice": 7084,
      "Ġcovers": 7085,
      "Ġmarks": 7086,
      "Ġensure": 7087,
      "!âĢĻ": 7088,
      "LA": 7089,
      "ghan": 7090,
      "magn": 7091,
      "Ġbid": 7092,
      "ora": 7093,
      "Ġreck": 7094,
      "Ġspite": 7095,
      "Ġconsequ": 7096,
      "Ġrope": 7097,
      "Ġhanded": 7098,
      "Ġkeys": 7099,
      "Ġserves": 7100,
      "Ġhorrible": 7101,
      "apping": 7102,
      "ĠCommittee": 7103,
      "ĠMaggie": 7104,
      "Ġdamage": 7105,
      "Ġexchange": 7106,
      "Ġdunno": 7107,
      "yo": 7108,
      "Ġfant": 7109,
      "ato": 7110,
      "Ġbears": 7111,
      "Ġupper": 7112,
      "ĠBook": 7113,
      "ĠKong": 7114,
      "Ġours": 7115,
      "âĢĻre": 7116,
      "Ġbaseball": 7117,
      "Ġincred": 7118,
      "UNC": 7119,
      "-pitched": 7120,
      "ĠDanny": 7121,
      "ĠAnyway": 7122,
      "ĠBelg": 7123,
      "Ġetc": 7124,
      "Ġmagazine": 7125,
      "Ġscissors": 7126,
      "-D": 7127,
      "-R": 7128,
      "ĠBour": 7129,
      "ĠBren": 7130,
      "ĠOH": 7131,
      "gend": 7132,
      "ĠKansas": 7133,
      "Ġhorror": 7134,
      "Ġlanded": 7135,
      "ylvan": 7136,
      "Ġsuffer": 7137,
      "Ġphysical": 7138,
      "Ġcraw": 7139,
      "oos": 7140,
      "ĠWrest": 7141,
      "ĠBam": 7142,
      "Ġgettin": 7143,
      "Ġexha": 7144,
      "venue": 7145,
      "adder": 7146,
      "ĠAlice": 7147,
      "inson": 7148,
      "Ġpassengers": 7149,
      "Ġnearby": 7150,
      ".--": 7151,
      "Ġyum": 7152,
      "ann": 7153,
      "Ġpup": 7154,
      "Ġpizza": 7155,
      "ĠTurn": 7156,
      "ĠHong": 7157,
      "Ġgotten": 7158,
      "Ġworkers": 7159,
      "Ġremove": 7160,
      "Ġappeal": 7161,
      "Ġrare": 7162,
      "OULD": 7163,
      "iversal": 7164,
      "Ġboxes": 7165,
      "Ġreplaced": 7166,
      "Ġregarded": 7167,
      "Ġmanagement": 7168,
      "Ġinvestigation": 7169,
      "Ġmurdered": 7170,
      "ĠIslamic": 7171,
      "oa": 7172,
      "had": 7173,
      "Ġreward": 7174,
      "ĠMove": 7175,
      "Ġstole": 7176,
      "Ġseized": 7177,
      "ulated": 7178,
      "ĠStone": 7179,
      "Ġunit": 7180,
      "obal": 7181,
      "Ġlands": 7182,
      "-five": 7183,
      "ĠPhilipp": 7184,
      "Ġreports": 7185,
      "scream": 7186,
      "Ġruled": 7187,
      "Ġstruggle": 7188,
      "Cause": 7189,
      "hus": 7190,
      "Ġhills": 7191,
      "ĠTar": 7192,
      "Ġknee": 7193,
      "ĠForm": 7194,
      "ĠEastern": 7195,
      "berry": 7196,
      "Ġaffect": 7197,
      "Ġbron": 7198,
      "Ġproducer": 7199,
      "Ġarrive": 7200,
      "Ġcorpor": 7201,
      "ĠEverybody": 7202,
      "Ġprisoner": 7203,
      "Ġordinary": 7204,
      "ĠSteve": 7205,
      "Ġwounded": 7206,
      "Ġlatter": 7207,
      "Ġadvantage": 7208,
      "bu": 7209,
      "Ġtempt": 7210,
      "Ġheight": 7211,
      "ĠWars": 7212,
      "ĠDet": 7213,
      "ĠPac": 7214,
      "ĠFound": 7215,
      "Ġalarm": 7216,
      "Ġclip": 7217,
      "Ġagent": 7218,
      "intend": 7219,
      "ĠThough": 7220,
      "Ġcharts": 7221,
      "Ġdistant": 7222,
      "ĠCarl": 7223,
      "Ġiniti": 7224,
      "ĠFrancisco": 7225,
      "rative": 7226,
      "rels": 7227,
      "Ġox": 7228,
      "happy": 7229,
      "Ġdom": 7230,
      "Ġfile": 7231,
      "ams": 7232,
      "Ġgodd": 7233,
      "ĠNight": 7234,
      "Ġjury": 7235,
      "Ġdece": 7236,
      "hant": 7237,
      "bef": 7238,
      "Ġconsum": 7239,
      "Ġdata": 7240,
      "ibly": 7241,
      "Ġconfir": 7242,
      "Ġilleg": 7243,
      "Ġpotential": 7244,
      "Ġhousing": 7245,
      "Ġclaimed": 7246,
      "Ġscientific": 7247,
      "Ġscreaming": 7248,
      "ĠJacob": 7249,
      "-th": 7250,
      "Ġ{\\": 7251,
      "Ġthir": 7252,
      "ĠSC": 7253,
      "ĠWatch": 7254,
      "Ġwhist": 7255,
      "Ġsevere": 7256,
      "ĠHead": 7257,
      "ivered": 7258,
      "Ġqueer": 7259,
      "ĠVol": 7260,
      "eaking": 7261,
      "Ġsupported": 7262,
      "-house": 7263,
      "Ġforests": 7264,
      "Ġbalance": 7265,
      "ufact": 7266,
      "ĠBundle": 7267,
      "ropolitan": 7268,
      "Ġugly": 7269,
      "-V": 7270,
      "box": 7271,
      "ture": 7272,
      "heim": 7273,
      "Ġoops": 7274,
      "isl": 7275,
      "Ġduties": 7276,
      "Ġfra": 7277,
      "lled": 7278,
      "Ġinha": 7279,
      "ĠTem": 7280,
      "Ġash": 7281,
      "ifts": 7282,
      "ĠJUST": 7283,
      "Ġprecious": 7284,
      "ĠChicago": 7285,
      "Ġhelps": 7286,
      "Ġwave": 7287,
      "Ġentrance": 7288,
      "Ġeastern": 7289,
      "Ġbelonged": 7290,
      "Ġauthorities": 7291,
      "Ġexistence": 7292,
      "Ġsplit": 7293,
      "'M": 7294,
      "-W": 7295,
      ".A": 7296,
      "IE": 7297,
      "Ġdull": 7298,
      "ĠCub": 7299,
      "Ġconvin": 7300,
      "akin": 7301,
      "Ġslipped": 7302,
      "Ġdrunk": 7303,
      "Ġconfidence": 7304,
      "Ġtrem": 7305,
      "shine": 7306,
      "Ġservants": 7307,
      "Ġroads": 7308,
      "Ġmercy": 7309,
      "ĠGreece": 7310,
      "Ġdoggy": 7311,
      "Ġconnection": 7312,
      "ĠHelp": 7313,
      "Ġneighborhood": 7314,
      "Ġwondered": 7315,
      "Ġobliged": 7316,
      "-old": 7317,
      "Ġtip": 7318,
      "Ġfate": 7319,
      "orious": 7320,
      "ĠPower": 7321,
      "Ġgray": 7322,
      "âĢĻll": 7323,
      "Ġdecor": 7324,
      "Ġdollar": 7325,
      "Ġthrowing": 7326,
      "porary": 7327,
      "Ġactivity": 7328,
      "Ġclimbed": 7329,
      "Ġcaptured": 7330,
      "Ġintroduced": 7331,
      "Ġromantic": 7332,
      "-to": 7333,
      "GFA": 7334,
      "long": 7335,
      "sounds": 7336,
      "Ġwis": 7337,
      "Ġwitch": 7338,
      "Ġmuseum": 7339,
      "orter": 7340,
      "omy": 7341,
      "Ġgoals": 7342,
      "Ġclient": 7343,
      "Ġsooner": 7344,
      "pointing": 7345,
      "Ġtypes": 7346,
      "ĠOpen": 7347,
      "Ġsucceeded": 7348,
      "Ġmethod": 7349,
      ")}": 7350,
      "Here": 7351,
      "cest": 7352,
      "Ġgang": 7353,
      "aylor": 7354,
      "ĠBang": 7355,
      "Ġkings": 7356,
      "Ġashamed": 7357,
      "ĠNurse": 7358,
      "Ġcomr": 7359,
      "Ġtrunk": 7360,
      "avy": 7361,
      "Ġsigns": 7362,
      "Ġmagnetic": 7363,
      "ĠBenj": 7364,
      "Ġjumping": 7365,
      "Ġmurm": 7366,
      "Ġhorseshoe": 7367,
      "ĠBetty": 7368,
      "ĠGolden": 7369,
      "Ġfolks": 7370,
      "ĠJennie": 7371,
      "Ġmiserable": 7372,
      "ko": 7373,
      "Ã¤": 7374,
      "hell": 7375,
      "Ġmate": 7376,
      "Ġpoll": 7377,
      "Ġpressed": 7378,
      "Ġgle": 7379,
      "Ġwashed": 7380,
      "Ġreaching": 7381,
      "ĠCy": 7382,
      "ĠCaterpillar": 7383,
      "igan": 7384,
      "Ġenemies": 7385,
      "rows": 7386,
      "Ġbreast": 7387,
      "Ġconsult": 7388,
      "Ġinstr": 7389,
      "Ġadvanced": 7390,
      "Ġrolling": 7391,
      "-looking": 7392,
      "ynam": 7393,
      "ĠJersey": 7394,
      "Ġconnected": 7395,
      "Ġgazed": 7396,
      "Ġarchite": 7397,
      "Ġsenior": 7398,
      "keeper": 7399,
      "Ġmicrophone": 7400,
      "hemat": 7401,
      "Ġpond": 7402,
      "Ġlung": 7403,
      "atched": 7404,
      "ĠARE": 7405,
      "Ġwashing": 7406,
      "ela": 7407,
      "iley": 7408,
      "Ġwaved": 7409,
      "Ġpassage": 7410,
      "Ġrecords": 7411,
      "ĠGrace": 7412,
      "Ġsending": 7413,
      "ĠJackson": 7414,
      "Ġequip": 7415,
      "Ġindustrial": 7416,
      "ĠAnton": 7417,
      "Ġescaped": 7418,
      "ĠKNOW": 7419,
      "Ġresources": 7420,
      "To": 7421,
      "tles": 7422,
      "Ġcash": 7423,
      "Ġwebs": 7424,
      "iry": 7425,
      "ĠWonder": 7426,
      "ĠRail": 7427,
      "ĠFre": 7428,
      "Ġcliff": 7429,
      "Ġcommitted": 7430,
      "Ġpointed": 7431,
      "Ġincome": 7432,
      "nesota": 7433,
      "Ġestate": 7434,
      "-law": 7435,
      "ĠDaniel": 7436,
      "ĠAldworth": 7437,
      "Ġlaunch": 7438,
      "Ġfortun": 7439,
      "Ġnearer": 7440,
      "Ġexercise": 7441,
      "ĠEduc": 7442,
      "ĠIII": 7443,
      "ĠAB": 7444,
      "ĠBi": 7445,
      "ĠKate": 7446,
      "ĠKnow": 7447,
      "Ġbrings": 7448,
      "ocated": 7449,
      "comune": 7450,
      "GRF": 7451,
      "Ġinformed": 7452,
      "Ġhoped": 7453,
      "Ġtorn": 7454,
      "Ġvictims": 7455,
      "Ġfoolish": 7456,
      "Ġrevealed": 7457,
      "ĠAmericans": 7458,
      "Ġpregnant": 7459,
      "Ġnibbled": 7460,
      "ylvania": 7461,
      "-r": 7462,
      "bar": 7463,
      "rown": 7464,
      "uous": 7465,
      "Ġbark": 7466,
      "Ġborrow": 7467,
      "Ġ[\"": 7468,
      "raine": 7469,
      "ĠRIGHT": 7470,
      "umble": 7471,
      "Ġworn": 7472,
      "Ġmanufact": 7473,
      "Ġarmed": 7474,
      "Ġquality": 7475,
      "Ġprotection": 7476,
      "Ġpattern": 7477,
      "Ġspirits": 7478,
      "ĠRepublican": 7479,
      "ĠScottish": 7480,
      "'RE": 7481,
      "/BR": 7482,
      "pro": 7483,
      "omer": 7484,
      "leg": 7485,
      "ĠSky": 7486,
      "ĠCorn": 7487,
      "ĠHER": 7488,
      "ĠOli": 7489,
      "olen": 7490,
      "ĠAndy": 7491,
      "neath": 7492,
      "Ġsmooth": 7493,
      "Ġcontain": 7494,
      "Ġkindly": 7495,
      "Ġcommittee": 7496,
      "Ġaccused": 7497,
      "Ġrelax": 7498,
      "Ġdistingu": 7499,
      "Ġfactory": 7500,
      "Ġdrops": 7501,
      "Ġsystems": 7502,
      "Ġwhispers": 7503,
      "Ġincreasing": 7504,
      "Ġgarage": 7505,
      "Ġbillion": 7506,
      "ĠRomans": 7507,
      "ĠSweden": 7508,
      "/ER": 7509,
      "gency": 7510,
      "wide": 7511,
      "Ġpushing": 7512,
      "ented": 7513,
      "Ġprem": 7514,
      "lessly": 7515,
      "Ġimpati": 7516,
      "ĠMinnesota": 7517,
      "Ġmillions": 7518,
      "Ġprinci": 7519,
      "Ġemployed": 7520,
      "Ġreferred": 7521,
      "/Mac": 7522,
      "ĠHuman": 7523,
      "Ġshopping": 7524,
      "ĠHeaven": 7525,
      "ĠFootball": 7526,
      "MB": 7527,
      "_.": 7528,
      "contin": 7529,
      "yellow": 7530,
      "rets": 7531,
      "Ġbore": 7532,
      "Ġcert": 7533,
      "Ġcraft": 7534,
      "ĠIan": 7535,
      "asion": 7536,
      "ĠGET": 7537,
      "Ġjeal": 7538,
      "Ġalcoh": 7539,
      "ĠVen": 7540,
      "Ġtrained": 7541,
      "Ġtemple": 7542,
      "Ġbriefly": 7543,
      "ĠRevolution": 7544,
      "Yeah": 7545,
      "gues": 7546,
      "mi": 7547,
      "wa": 7548,
      "Ġfederal": 7549,
      "ĠSn": 7550,
      "ribe": 7551,
      "ĠHard": 7552,
      "ĠBus": 7553,
      "oses": 7554,
      "merican": 7555,
      "pshire": 7556,
      "Ġundert": 7557,
      "Ġmayor": 7558,
      "Ġretire": 7559,
      "Ġhundreds": 7560,
      "ĠClara": 7561,
      "ONE": 7562,
      "ĠLooks": 7563,
      "Ġproduce": 7564,
      "Ġshortly": 7565,
      "Ġsecretary": 7566,
      "ĠChampionships": 7567,
      "ĠOxfordshire": 7568,
      "Ġyelling": 7569,
      "Ã³n": 7570,
      "',": 7571,
      "-like": 7572,
      "cill": 7573,
      "Ġwing": 7574,
      "Ġlaughter": 7575,
      "Ġthirst": 7576,
      "ĠSl": 7577,
      "ĠSister": 7578,
      "Ġforb": 7579,
      "riger": 7580,
      "ĠBird": 7581,
      "Ġmechan": 7582,
      "ĠUP": 7583,
      "Ġunus": 7584,
      "Ġshower": 7585,
      "Ġsignal": 7586,
      "Ġsounded": 7587,
      "Ġconcern": 7588,
      "ĠNorway": 7589,
      "Ġearnest": 7590,
      "Ġcurious": 7591,
      "quarters": 7592,
      "Did": 7593,
      "vo": 7594,
      "Ġeth": 7595,
      "Ġcries": 7596,
      "Ġdining": 7597,
      "ĠWalk": 7598,
      "ĠRaj": 7599,
      "Ġsocks": 7600,
      "Ġfever": 7601,
      "Ġfeature": 7602,
      "atherine": 7603,
      "Ġsticking": 7604,
      "ublic": 7605,
      "Ġfollows": 7606,
      "ĠSpir": 7607,
      "ĠSpencer": 7608,
      "Ġexpand": 7609,
      "Ġspending": 7610,
      "Ġactivities": 7611,
      "Ġbenefit": 7612,
      "Ġstroke": 7613,
      "Ġvotes": 7614,
      "-off": 7615,
      "bell": 7616,
      "cow": 7617,
      "ront": 7618,
      "ties": 7619,
      "Ġdiamond": 7620,
      "Ġlately": 7621,
      "Ġhal": 7622,
      "Ġbeep": 7623,
      "verse": 7624,
      "ĠHoly": 7625,
      "ĠFur": 7626,
      "oli": 7627,
      "Ġintense": 7628,
      "ender": 7629,
      "ĠWere": 7630,
      "ĠVal": 7631,
      "Ġfled": 7632,
      "Ġcomposed": 7633,
      "aval": 7634,
      "Ġartists": 7635,
      "ika": 7636,
      "Ġexperiment": 7637,
      "ĠRepresent": 7638,
      "ĠSyrian": 7639,
      "Ġdelightful": 7640,
      "Ġrevolution": 7641,
      "ĠHelen": 7642,
      "ĠOffice": 7643,
      "Ġfarther": 7644,
      "!--": 7645,
      "When": 7646,
      "bow": 7647,
      "giving": 7648,
      "mings": 7649,
      "Ġmac": 7650,
      "Ġmock": 7651,
      "idays": 7652,
      "ĠWat": 7653,
      "Ġasks": 7654,
      "ĠPenn": 7655,
      "Ġhers": 7656,
      "ĠJa": 7657,
      "Ġfeast": 7658,
      "Ġunlike": 7659,
      "rang": 7660,
      "Ġteen": 7661,
      "Ġactual": 7662,
      "Ġreturns": 7663,
      "Ġsympt": 7664,
      "Ġadventure": 7665,
      "ĠBenjamin": 7666,
      "ĠOliver": 7667,
      "-cl": 7668,
      "Bill": 7669,
      "oard": 7670,
      "turns": 7671,
      "Ġcub": 7672,
      "Ġtoast": 7673,
      "Ġpitch": 7674,
      "Ġbeings": 7675,
      "ĠSa": 7676,
      "Ġcarpet": 7677,
      "Ġimage": 7678,
      "Ġslip": 7679,
      "ĠAfghan": 7680,
      "ĠFloss": 7681,
      "Ġdivision": 7682,
      "Ġlaun": 7683,
      "ĠWales": 7684,
      "Ġviolence": 7685,
      "ĠBerlin": 7686,
      "talking": 7687,
      "Ġcandidate": 7688,
      "Ġjealous": 7689,
      "cream": 7690,
      "och": 7691,
      "Ġtrop": 7692,
      "reck": 7693,
      "oti": 7694,
      "keys": 7695,
      "ĠWoo": 7696,
      "ĠPL": 7697,
      "Ġjoint": 7698,
      "Ġshove": 7699,
      "Ġcomedy": 7700,
      "ĠStella": 7701,
      "ĠVo": 7702,
      "Ġunhappy": 7703,
      "Ġera": 7704,
      "Ġgrateful": 7705,
      "Ġunderneath": 7706,
      "Ġending": 7707,
      "Ġassault": 7708,
      "Ġevolution": 7709,
      "Ġchairs": 7710,
      "Ġlesson": 7711,
      "Ġsquir": 7712,
      "Ġadmitted": 7713,
      "Ġteachers": 7714,
      "Ġencoura": 7715,
      "ĠDesmond": 7716,
      "Ġfeaturing": 7717,
      "Ġdetermine": 7718,
      "Ġmusical": 7719,
      "Ġautom": 7720,
      "break": 7721,
      "Ġscientists": 7722,
      "ĠHurry": 7723,
      "Ġequipment": 7724,
      "nut": 7725,
      "pired": 7726,
      "win": 7727,
      "zy": 7728,
      "Ġack": 7729,
      "erry": 7730,
      "Ġpowers": 7731,
      "Ġstared": 7732,
      "eare": 7733,
      "ĠPop": 7734,
      "ĠPoor": 7735,
      "ĠNa": 7736,
      "ĠOb": 7737,
      "ĠLuke": 7738,
      "Ġwrites": 7739,
      "Ġcoal": 7740,
      "aughters": 7741,
      "EST": 7742,
      "Ġhated": 7743,
      "whines": 7744,
      "coming": 7745,
      "ĠLeo": 7746,
      "Ġattacks": 7747,
      "hetti": 7748,
      "Ġbarely": 7749,
      "Ġnuclear": 7750,
      "Ġdoctors": 7751,
      "lock": 7752,
      "Ġobey": 7753,
      "Ġcro": 7754,
      "Ġdirt": 7755,
      "ĠTry": 7756,
      "ĠFestival": 7757,
      "Ġvision": 7758,
      "ĠUs": 7759,
      "Ġflash": 7760,
      "Ġapparently": 7761,
      "mann": 7762,
      "Ġbuck": 7763,
      "Ġtrains": 7764,
      "Ġimportance": 7765,
      "Ġdifficulty": 7766,
      "Ġdisappointed": 7767,
      "inois": 7768,
      "Ġincreased": 7769,
      "Ġvisited": 7770,
      "ĠBetween": 7771,
      "ĠMexican": 7772,
      "Ġpermission": 7773,
      "Ġvehicle": 7774,
      "ĠBesides": 7775,
      "gment": 7776,
      "wan": 7777,
      "Ġmood": 7778,
      "only": 7779,
      "Ġfrag": 7780,
      "enly": 7781,
      "lets": 7782,
      "unting": 7783,
      "Ġsauce": 7784,
      "aka": 7785,
      "ĠInter": 7786,
      "orney": 7787,
      "new": 7788,
      "ĠAlan": 7789,
      "ĠAss": 7790,
      "Ġsupply": 7791,
      "Ġsixth": 7792,
      "Ġpassion": 7793,
      "ĠProdu": 7794,
      "Ġconnect": 7795,
      "Ġaudience": 7796,
      "Ġroute": 7797,
      "ĠCompany": 7798,
      "Ġconcluded": 7799,
      "ĠIllinois": 7800,
      "Ah": 7801,
      "fa": 7802,
      "Ġaye": 7803,
      "ĠMans": 7804,
      "ĠHolly": 7805,
      "ĠDE": 7806,
      "ĠDam": 7807,
      "ĠPoint": 7808,
      "ĠRun": 7809,
      "ĠRangers": 7810,
      "ĠGulf": 7811,
      "Ġjail": 7812,
      "resp": 7813,
      "Ġunknown": 7814,
      "ivity": 7815,
      "Ġache": 7816,
      "ĠTHERE": 7817,
      "ĠJanet": 7818,
      "Ġreply": 7819,
      "who": 7820,
      "Ġreceiving": 7821,
      "ĠConf": 7822,
      "Ġadmir": 7823,
      "ĠColin": 7824,
      "Ġhammer": 7825,
      "Ġprospect": 7826,
      "ĠPortugal": 7827,
      "NON": 7828,
      "UE": 7829,
      "pher": 7830,
      "Ġward": 7831,
      "Ġwoke": 7832,
      "ington": 7833,
      "ĠTaylor": 7834,
      "ĠBible": 7835,
      "iform": 7836,
      "ĠGriff": 7837,
      "Ġtricks": 7838,
      "ĠChristopher": 7839,
      "ĠCarle": 7840,
      "ervative": 7841,
      "Ġgrandma": 7842,
      "Ġcomplex": 7843,
      "ĠGuard": 7844,
      "Ġringing": 7845,
      "ĠGreater": 7846,
      "ĠSecurity": 7847,
      "Ġprograms": 7848,
      "ĠHampshire": 7849,
      "Ġeagerly": 7850,
      "Ġculture": 7851,
      "Ġachieved": 7852,
      "Ġnetwork": 7853,
      "Ġchallenge": 7854,
      "avaria": 7855,
      "ĠWrestling": 7856,
      "TH": 7857,
      "uj": 7858,
      "Ġlamb": 7859,
      "Ġnah": 7860,
      "ĠAyl": 7861,
      "ĠHmm": 7862,
      "ĠBavaria": 7863,
      "Ġlif": 7864,
      "ĠPier": 7865,
      "ĠGard": 7866,
      "venge": 7867,
      "ollo": 7868,
      "Ġcompared": 7869,
      "Ġelement": 7870,
      "Ġsurgery": 7871,
      "Ġcharged": 7872,
      "Ġcharges": 7873,
      "Ġcolored": 7874,
      "Ġexplan": 7875,
      "ĠCommission": 7876,
      "Ġdawn": 7877,
      "Ġissued": 7878,
      "Ġhistorical": 7879,
      "Ġanticip": 7880,
      "Ġsymbol": 7881,
      "ĠMelissa": 7882,
      "rigerator": 7883,
      "JAK": 7884,
      "nies": 7885,
      "Ġmama": 7886,
      "Ġfaced": 7887,
      "enger": 7888,
      "child": 7889,
      "Ġprince": 7890,
      "ockey": 7891,
      "ĠAlso": 7892,
      "Ġtrail": 7893,
      "Ġfarmer": 7894,
      "Ġminds": 7895,
      "ĠMayor": 7896,
      "Ġcurtain": 7897,
      "ĠGram": 7898,
      "REAM": 7899,
      "Ġpresidential": 7900,
      "Ġanxiety": 7901,
      "Ġinitially": 7902,
      "hetic": 7903,
      "Ġresponsibility": 7904,
      "Ġsatisfied": 7905,
      "ĠWindows": 7906,
      "Ġï¿½ï¿½ï¿½ï¿½ï¿½ï¿½ï¿½": 7907,
      "ĠBasil": 7908,
      "Ġbrilliant": 7909,
      "OP": 7910,
      "__": 7911,
      "cr": 7912,
      "nis": 7913,
      "uct": 7914,
      "Ġax": 7915,
      "ĠCur": 7916,
      "ĠRi": 7917,
      "resents": 7918,
      "Ġdisag": 7919,
      "Ġindic": 7920,
      "theless": 7921,
      "chair": 7922,
      "Ġanimated": 7923,
      "Ġconstantly": 7924,
      "comm": 7925,
      "Ġstores": 7926,
      "ĠEmily": 7927,
      "Ġbanks": 7928,
      "ĠCentre": 7929,
      "Ġsexual": 7930,
      "OOK": 7931,
      "ĠPrize": 7932,
      "Ġthirteen": 7933,
      "LI": 7934,
      "pull": 7935,
      "Ġtalent": 7936,
      "Ġtomat": 7937,
      "Ġgal": 7938,
      "uls": 7939,
      "ĠJenny": 7940,
      "Ġvirt": 7941,
      "actor": 7942,
      "Ġperce": 7943,
      "Ġboyfriend": 7944,
      "Ġmob": 7945,
      "Ġdesired": 7946,
      "Ġbeds": 7947,
      "Ġdrift": 7948,
      "ĠIndeed": 7949,
      "Ġrepresents": 7950,
      "Ġconfident": 7951,
      "Ġwinner": 7952,
      "kesp": 7953,
      "ĠRussians": 7954,
      "Ġorganized": 7955,
      "Ġtouching": 7956,
      "ĠLeave": 7957,
      "Ġwaters": 7958,
      "stitution": 7959,
      "----------------": 7960,
      "Ġchemical": 7961,
      "Ġcanton": 7962,
      "Ġacknow": 7963,
      "belt": 7964,
      "Ġwolf": 7965,
      "Ġfox": 7966,
      "Ġlau": 7967,
      "Ġuna": 7968,
      "ĠHoo": 7969,
      "Ġancest": 7970,
      "anta": 7971,
      "ĠFat": 7972,
      "ophy": 7973,
      "ĠJr": 7974,
      "Ġshh": 7975,
      "ints": 7976,
      "ĠThus": 7977,
      "gets": 7978,
      "ĠTherefore": 7979,
      "Ġheading": 7980,
      "Ġcommit": 7981,
      "Ġcommission": 7982,
      "Ġretreat": 7983,
      "Ġsunshine": 7984,
      "Ġofficially": 7985,
      "Ġrolled": 7986,
      "Ġactivist": 7987,
      "Ġcompanions": 7988,
      "ĠHungary": 7989,
      "Ġinjured": 7990,
      "Ġsolemn": 7991,
      "Ġsacrif": 7992,
      "Ġdescend": 7993,
      "Ġadopted": 7994,
      "Ġfierce": 7995,
      "ĠAylmer": 7996,
      "erk": 7997,
      "ithe": 7998,
      "Ġnonsense": 7999,
      "Ġhesit": 8000,
      "etic": 8001,
      "ĠMouse": 8002,
      "Ġkil": 8003,
      "Ġseal": 8004,
      "ĠOs": 8005,
      "ĠGun": 8006,
      "igen": 8007,
      "alem": 8008,
      "Ġdrinks": 8009,
      "Ġarticle": 8010,
      "Ġengage": 8011,
      "Ġpossibility": 8012,
      "Ġoccasionally": 8013,
      "Ġfavourite": 8014,
      "ĠReliance": 8015,
      "Ġsufficient": 8016,
      "vard": 8017,
      "eding": 8018,
      "Ġgum": 8019,
      "Ġhid": 8020,
      "adium": 8021,
      "ĠCa": 8022,
      "ĠOrd": 8023,
      "Ġoffering": 8024,
      "Ġmarch": 8025,
      "Ġvisitors": 8026,
      "Ã¡n": 8027,
      "Ġgenu": 8028,
      "gasps": 8029,
      "ĠUkraine": 8030,
      "-man": 8031,
      "Ch": 8032,
      "vet": 8033,
      "Ġincl": 8034,
      "ali": 8035,
      "ĠAub": 8036,
      "Ġplot": 8037,
      "Ġspy": 8038,
      "upid": 8039,
      "ĠNewman": 8040,
      "ĠDev": 8041,
      "Ġeighteen": 8042,
      "GRM": 8043,
      "Ġmistress": 8044,
      "Ġhealthy": 8045,
      "Ġcommanded": 8046,
      "Ġlimited": 8047,
      "Ġinquired": 8048,
      "Ġeconomic": 8049,
      "hands": 8050,
      "ĠForest": 8051,
      "ĠMoscow": 8052,
      "Ġjournalist": 8053,
      "Ġinhabit": 8054,
      "kespeare": 8055,
      "ND": 8056,
      "Ġmas": 8057,
      "Ġgolf": 8058,
      "Ġsoap": 8059,
      "ĠFriend": 8060,
      "Ġletting": 8061,
      "cipl": 8062,
      "Ġprecise": 8063,
      "Ġslaves": 8064,
      "ĠNews": 8065,
      "Ġconscious": 8066,
      "Ġcolon": 8067,
      "Ġstops": 8068,
      "Ġdirections": 8069,
      "Ġfriendship": 8070,
      "Ġparliament": 8071,
      "Ġpuppy": 8072,
      "Ġpretending": 8073,
      "Ġclaims": 8074,
      "Ġhyp": 8075,
      "Donald": 8076,
      "Ġnursery": 8077,
      "Ġargument": 8078,
      "-k": 8079,
      "Ġitem": 8080,
      "ĠTon": 8081,
      "ĠAuthor": 8082,
      "enters": 8083,
      "Ġseasons": 8084,
      "Ġdeer": 8085,
      "Ġacted": 8086,
      "ection": 8087,
      "Ġunderstanding": 8088,
      "Ġstronger": 8089,
      "Ġruler": 8090,
      "ĠBarbara": 8091,
      "Ġrescue": 8092,
      "Billboard": 8093,
      "Ġgenuine": 8094,
      "Ġta": 8095,
      "ito": 8096,
      "orpor": 8097,
      "Ġloyal": 8098,
      "ĠBBC": 8099,
      "ĠDu": 8100,
      "ĠDuck": 8101,
      "ĠNich": 8102,
      "Ġrhy": 8103,
      "ordan": 8104,
      "Ġsets": 8105,
      "Ġsubm": 8106,
      "Ġassumed": 8107,
      "Ġawesome": 8108,
      "Ġinspect": 8109,
      "Ġcreating": 8110,
      "Ġattempting": 8111,
      "Ġworthy": 8112,
      "Ġfeatured": 8113,
      "ĠMilan": 8114,
      "Ġcheerful": 8115,
      "/MT": 8116,
      "cipal": 8117,
      "Ġparticipated": 8118,
      "-N": 8119,
      "Are": 8120,
      "ĠHIS": 8121,
      "Ġtales": 8122,
      "Ġtheat": 8123,
      "Ġcig": 8124,
      "Ġfare": 8125,
      "arms": 8126,
      "ĠSon": 8127,
      "ooke": 8128,
      "ĠPerson": 8129,
      "Ġshed": 8130,
      "ĠLes": 8131,
      "ĠLau": 8132,
      "eling": 8133,
      "Ġintention": 8134,
      "Ġpecul": 8135,
      "Ġunw": 8136,
      "Ġunique": 8137,
      "arson": 8138,
      "ĠAsia": 8139,
      "ĠWhoa": 8140,
      "Ġallowing": 8141,
      "ĠCommun": 8142,
      "Ġvanished": 8143,
      "Ġpunishment": 8144,
      "ĠDirector": 8145,
      "Ġpeculiar": 8146,
      "tained": 8147,
      "enes": 8148,
      "Ġlod": 8149,
      "ĠMi": 8150,
      "Ġstolen": 8151,
      "ĠDie": 8152,
      "Ġjam": 8153,
      "ardo": 8154,
      "Ġspill": 8155,
      "ĠKu": 8156,
      "Ġcheap": 8157,
      "ports": 8158,
      "Ġgrape": 8159,
      "ĠIndepend": 8160,
      "standing": 8161,
      "Ġexpressed": 8162,
      "Ġvalu": 8163,
      "Ġviews": 8164,
      "ĠBobby": 8165,
      "Ġtechnology": 8166,
      "Ġproceeded": 8167,
      "Ġpotato": 8168,
      "ĠFilm": 8169,
      "Ġbronze": 8170,
      "ĠEducation": 8171,
      "Ġalcohol": 8172,
      "Ġtan": 8173,
      "Ġtent": 8174,
      "ĠTa": 8175,
      "alling": 8176,
      "ĠRub": 8177,
      "ĠFle": 8178,
      "osity": 8179,
      "ĠUnt": 8180,
      "Ġgrade": 8181,
      "IST": 8182,
      "Ġslave": 8183,
      "Ġnights": 8184,
      "Ġelections": 8185,
      "reading": 8186,
      "Ġresemb": 8187,
      "Ġcamps": 8188,
      "Ġdragon": 8189,
      "Ġnominated": 8190,
      "ĠBrennan": 8191,
      "Ġlaunched": 8192,
      "Al": 8193,
      "mhm": 8194,
      "tes": 8195,
      "Ġwire": 8196,
      "ashes": 8197,
      "ĠCON": 8198,
      "Ġrude": 8199,
      "Ġspeaks": 8200,
      "Ġchildhood": 8201,
      "Ġindign": 8202,
      "Ġregions": 8203,
      "Ġawfully": 8204,
      "Ġpops": 8205,
      "Ġconfused": 8206,
      "Ġpurse": 8207,
      "ĠReport": 8208,
      "ĠBooth": 8209,
      "ĠÃĸ": 8210,
      "ĠJimmy": 8211,
      "shakes": 8212,
      "Ġthoroughly": 8213,
      "Ġsymptoms": 8214,
      "gle": 8215,
      "lon": 8216,
      "nda": 8217,
      "Ġbay": 8218,
      "Ġbent": 8219,
      "Ġfo": 8220,
      "Ġinaug": 8221,
      "Ġstool": 8222,
      "amas": 8223,
      "ĠBart": 8224,
      "ĠBunny": 8225,
      "Ġnodd": 8226,
      "Ġcann": 8227,
      "ĠJO": 8228,
      "Ġshining": 8229,
      "osh": 8230,
      "Ġvice": 8231,
      "ĠStay": 8232,
      "Ġquant": 8233,
      "ogue": 8234,
      "Ġumbre": 8235,
      "Ġpolite": 8236,
      "Ġextended": 8237,
      "Ġclasses": 8238,
      "ĠMean": 8239,
      "Ġdisappear": 8240,
      "Ġaffairs": 8241,
      "Ġproducts": 8242,
      "ĠStephen": 8243,
      "Ġconclusion": 8244,
      "&gt": 8245,
      ",and": 8246,
      "aurs": 8247,
      "eral": 8248,
      "aned": 8249,
      "Ġinfe": 8250,
      "ĠTour": 8251,
      "rily": 8252,
      "Ġshy": 8253,
      "ighed": 8254,
      "agger": 8255,
      "Ġsixteen": 8256,
      "ĠDeath": 8257,
      "Ġbearing": 8258,
      "ĠLeg": 8259,
      "Ġheavily": 8260,
      "Ġencount": 8261,
      "Ġportion": 8262,
      "Ġgaze": 8263,
      "Ġfunds": 8264,
      "ĠRyan": 8265,
      "Ġscheme": 8266,
      "PS": 8267,
      "Ġcord": 8268,
      "Ġdaughters": 8269,
      "ĠSel": 8270,
      "stream": 8271,
      "ĠBell": 8272,
      "Ġnoted": 8273,
      "ĠNE": 8274,
      "ĠNonna": 8275,
      "ĠRuth": 8276,
      "Ġnephe": 8277,
      "hia": 8278,
      "aghetti": 8279,
      "Ġgrat": 8280,
      "Ġscrap": 8281,
      "Ġchannels": 8282,
      "Ġenthus": 8283,
      "Ġrelie": 8284,
      "Ġdressing": 8285,
      "Ġconstructed": 8286,
      "Ġlouder": 8287,
      "Ġwhisper": 8288,
      "Ġutil": 8289,
      "Ġholidays": 8290,
      "ĠIsraeli": 8291,
      "Ġfolk": 8292,
      "Ġconstitu": 8293,
      "Ġaltogether": 8294,
      "ĠGeorgia": 8295,
      "Ġrestaurant": 8296,
      "KID": 8297,
      "Thank": 8298,
      "lace": 8299,
      "net": 8300,
      "oom": 8301,
      "uv": 8302,
      "Ġmile": 8303,
      "Ġlimb": 8304,
      "omi": 8305,
      "ĠMAN": 8306,
      "acious": 8307,
      "rific": 8308,
      "ĠCAN": 8309,
      "rod": 8310,
      "ĠFederal": 8311,
      "geant": 8312,
      "ĠEp": 8313,
      "Ġbutt": 8314,
      "Ġspider": 8315,
      "Ġguide": 8316,
      "ĠSoon": 8317,
      "Ġchanging": 8318,
      "Ġmarble": 8319,
      "Ġframe": 8320,
      "Ġsteel": 8321,
      "Ġamongst": 8322,
      "Ġicecream": 8323,
      "Ġscale": 8324,
      "Ġneighbour": 8325,
      "Ġclimbing": 8326,
      "Ġnaturally": 8327,
      "ĠRegion": 8328,
      "Ġemerged": 8329,
      "Ġfeathers": 8330,
      "ĠLieutenant": 8331,
      "ĠFlossie": 8332,
      "Ġencountered": 8333,
      "Ġnephew": 8334,
      "fire": 8335,
      "rad": 8336,
      "sk": 8337,
      "water": 8338,
      "Ġowe": 8339,
      "Ġcows": 8340,
      "lly": 8341,
      "encing": 8342,
      "Ġnaught": 8343,
      "ĠMust": 8344,
      "ĠWWE": 8345,
      "ĠBab": 8346,
      "oples": 8347,
      "Ġpepper": 8348,
      "Ġprime": 8349,
      "Ġflies": 8350,
      "Ġcricket": 8351,
      "Ġacad": 8352,
      "Ġcleared": 8353,
      "ĠWithout": 8354,
      "Ġsummon": 8355,
      "ĠShakespeare": 8356,
      "ĠAmong": 8357,
      "Ġscare": 8358,
      "ĠSeven": 8359,
      "Ġidentity": 8360,
      "Ġmotorcy": 8361,
      "ĠPictures": 8362,
      "Ġcitizens": 8363,
      "?âĢĻ": 8364,
      "Can": 8365,
      "GE": 8366,
      "Ġwishes": 8367,
      "Ġcage": 8368,
      "Ġdial": 8369,
      "lling": 8370,
      "anny": 8371,
      "ĠBall": 8372,
      "ĠOUT": 8373,
      "âĢĻve": 8374,
      "Ġrage": 8375,
      "Ġfounder": 8376,
      "Ġmathemat": 8377,
      "ologist": 8378,
      "Ġconsiderable": 8379,
      "Ġpacked": 8380,
      "Ġsubjects": 8381,
      "Ġcapture": 8382,
      "Ġbasketball": 8383,
      "Ġsurrounded": 8384,
      "Ġgranted": 8385,
      "Just": 8386,
      "LIN": 8387,
      "bes": 8388,
      "cers": 8389,
      "when": 8390,
      "Ġsadd": 8391,
      "erving": 8392,
      "Ġdign": 8393,
      "edge": 8394,
      "Ġpoured": 8395,
      "ĠWant": 8396,
      "Ġ\"'": 8397,
      "ĠDra": 8398,
      "ĠDog": 8399,
      "ĠPass": 8400,
      "ĠYo": 8401,
      "rah": 8402,
      "ĠRimb": 8403,
      "ĠGre": 8404,
      "Ġaloud": 8405,
      "Ġexceed": 8406,
      "Ġenorm": 8407,
      "Ġuncom": 8408,
      "ubble": 8409,
      "Ġkindness": 8410,
      "Ġelements": 8411,
      "Ġcalend": 8412,
      "Ġdelicate": 8413,
      "Ġchairman": 8414,
      "ĠTrust": 8415,
      "Ġclothing": 8416,
      "Ġhopes": 8417,
      "Ġattempts": 8418,
      "ĠPolish": 8419,
      "Ġceased": 8420,
      "Ġsituated": 8421,
      "Ġstatue": 8422,
      "ĠCambridge": 8423,
      "Ġdesperate": 8424,
      "TV": 8425,
      "pha": 8426,
      "rated": 8427,
      "Ġbree": 8428,
      "Ġcas": 8429,
      "Ġfed": 8430,
      "orse": 8431,
      "ĠAmb": 8432,
      "Ġreference": 8433,
      "ĠBurg": 8434,
      "ĠJay": 8435,
      "Ġconcept": 8436,
      "Ġbelt": 8437,
      "teenth": 8438,
      "ĠChampion": 8439,
      "Ġmarched": 8440,
      "Ġgrab": 8441,
      "Ġsubs": 8442,
      "force": 8443,
      "Ġenjoying": 8444,
      "black": 8445,
      "OOD": 8446,
      "Ġvacation": 8447,
      "Ġaffected": 8448,
      "Ġgraduated": 8449,
      "arrass": 8450,
      "ĠRoger": 8451,
      "Ġdivorce": 8452,
      "Ġillegal": 8453,
      "Brian": 8454,
      "GHING": 8455,
      "mod": 8456,
      "rac": 8457,
      "sylvania": 8458,
      "Ã±": 8459,
      "Ġcave": 8460,
      "Ġpapa": 8461,
      "arant": 8462,
      "utation": 8463,
      "ĠMam": 8464,
      "ĠMem": 8465,
      "ĠCelia": 8466,
      "Ġaspect": 8467,
      "ĠDale": 8468,
      "ores": 8469,
      "Ġrum": 8470,
      "ferences": 8471,
      "Ġarcher": 8472,
      "ĠChuck": 8473,
      "Ġobtained": 8474,
      "Ġyoungest": 8475,
      "Ġinvite": 8476,
      "Ġstrict": 8477,
      "Ġaddressed": 8478,
      "ĠDora": 8479,
      "ĠSpani": 8480,
      "Ġexperienced": 8481,
      "Ġintelligence": 8482,
      "aunton": 8483,
      "BI": 8484,
      "SC": 8485,
      "lers": 8486,
      "west": 8487,
      "Ġtad": 8488,
      "Ġsust": 8489,
      "Ġfeared": 8490,
      "ĠTilly": 8491,
      "imum": 8492,
      "ĠBA": 8493,
      "Ġsector": 8494,
      "ĠDun": 8495,
      "ĠDear": 8496,
      "Ġsheet": 8497,
      "olas": 8498,
      "Ġspots": 8499,
      "agon": 8500,
      "orne": 8501,
      "izations": 8502,
      "Ġmothers": 8503,
      "Ġglanced": 8504,
      "vention": 8505,
      "ĠArts": 8506,
      "ĠChair": 8507,
      "Ġrelative": 8508,
      "Ġinstantly": 8509,
      "Ġbottles": 8510,
      "Ġdreamed": 8511,
      "ĠShall": 8512,
      "ASE": 8513,
      "Ġbloody": 8514,
      "Ġdetail": 8515,
      "Ġimagined": 8516,
      "Ġimmense": 8517,
      "Ġthreatened": 8518,
      "ĠMargot": 8519,
      "Ġnegative": 8520,
      "Ġemergency": 8521,
      "Ġnapkin": 8522,
      "burgh": 8523,
      "ĠScarfe": 8524,
      "iber": 8525,
      "Ġdared": 8526,
      "ĠTha": 8527,
      "ĠBol": 8528,
      "rabs": 8529,
      "ĠOffic": 8530,
      "ĠLight": 8531,
      "ĠEnd": 8532,
      "ulpt": 8533,
      "istics": 8534,
      "Ġ(,": 8535,
      "Ġcompelled": 8536,
      "Ġcheek": 8537,
      "urious": 8538,
      "Ġpossession": 8539,
      "ĠCenter": 8540,
      "Ġprepare": 8541,
      "ĠHungarian": 8542,
      "Ġvisible": 8543,
      "ĠScholarship": 8544,
      "Ġdeliver": 8545,
      "Ġliterature": 8546,
      "ĠSweet": 8547,
      "Ġconvinced": 8548,
      "ĠSpirit": 8549,
      "NE": 8550,
      "ba": 8551,
      "ju": 8552,
      "Ġmars": 8553,
      "Ġfuss": 8554,
      "oting": 8555,
      "Ġthief": 8556,
      "aling": 8557,
      "Ġecho": 8558,
      "iments": 8559,
      "ĠFerg": 8560,
      "ĠLew": 8561,
      "estic": 8562,
      "Ġnowhere": 8563,
      "Ġdisg": 8564,
      "Ġpartners": 8565,
      "Ġpronounced": 8566,
      "Ġperman": 8567,
      "Ġresulting": 8568,
      "ĠDef": 8569,
      "Ġdrawer": 8570,
      "ĠPlan": 8571,
      "ĠDrum": 8572,
      "Ġexpert": 8573,
      "Ġcleaning": 8574,
      "Ġdrain": 8575,
      "ĠAgent": 8576,
      "Ġcommonly": 8577,
      "Ġbasis": 8578,
      "ustomed": 8579,
      "Ġdegrees": 8580,
      "Ġevidently": 8581,
      "ĠUntil": 8582,
      "On": 8583,
      "iser": 8584,
      "Ġdomin": 8585,
      "Ġtoe": 8586,
      "Ġstupid": 8587,
      "Ġugh": 8588,
      "ĠLib": 8589,
      "elp": 8590,
      "quis": 8591,
      "Ġthrust": 8592,
      "Ġhappily": 8593,
      "Ġscat": 8594,
      "Ġkinda": 8595,
      "Ġmonarch": 8596,
      "Ġphr": 8597,
      "Ġimpression": 8598,
      "oked": 8599,
      "UNT": 8600,
      "Ġmistakes": 8601,
      "rayed": 8602,
      "ederation": 8603,
      "Ġdinosaurs": 8604,
      "Ġpatients": 8605,
      "Ġindependence": 8606,
      "pos": 8607,
      "uge": 8608,
      "uzz": 8609,
      "Ġtummy": 8610,
      "inent": 8611,
      "Ġsou": 8612,
      "Ġyards": 8613,
      "eness": 8614,
      "Ġladder": 8615,
      "arc": 8616,
      "Ġonline": 8617,
      "ĠTok": 8618,
      "Ġreject": 8619,
      "sect": 8620,
      "ĠWolf": 8621,
      "Ġpee": 8622,
      "ĠVill": 8623,
      "ĠIslands": 8624,
      "Ġpersons": 8625,
      "ĠDean": 8626,
      "Ġcolour": 8627,
      "Ġskill": 8628,
      "Ġsyll": 8629,
      "ĠTHEY": 8630,
      "enez": 8631,
      "Ġdeaths": 8632,
      "unted": 8633,
      "zech": 8634,
      "ĠApollo": 8635,
      "ipper": 8636,
      "Ġsteam": 8637,
      "Ġmerged": 8638,
      "Ġpretends": 8639,
      "Ġembarrass": 8640,
      "Ġsatisfaction": 8641,
      "Ġfaithful": 8642,
      "ĠHIM": 8643,
      "ĠTurkish": 8644,
      "Ġmunicipalities": 8645,
      "ĠPennsylvania": 8646,
      "ĠRimbolt": 8647,
      "May": 8648,
      "bly": 8649,
      "Ġwipe": 8650,
      "itable": 8651,
      "Ġfits": 8652,
      "Ġyield": 8653,
      "Ġtox": 8654,
      "Ġlit": 8655,
      "Ġlan": 8656,
      "ĠAS": 8657,
      "Ġweary": 8658,
      "ĠRA": 8659,
      "ĠGall": 8660,
      "Ġsailed": 8661,
      "ĠVien": 8662,
      "Ġbeloved": 8663,
      "Ġrecover": 8664,
      "Ġpointing": 8665,
      "Ġloving": 8666,
      "Ġsquad": 8667,
      "Ġlevels": 8668,
      "ĠPoland": 8669,
      "Ġgoddess": 8670,
      "Go": 8671,
      "gins": 8672,
      "iot": 8673,
      "orial": 8674,
      "Ġpir": 8675,
      "ĠCart": 8676,
      "ĠHit": 8677,
      "ĠBrand": 8678,
      "teries": 8679,
      "Ġsale": 8680,
      "Ġsuicide": 8681,
      "Ġtray": 8682,
      "Ġremo": 8683,
      "Ġflu": 8684,
      "ĠAssembly": 8685,
      "Ġobtain": 8686,
      "gedy": 8687,
      "Ġdiscovery": 8688,
      "Ġmetres": 8689,
      "ĠTwenty": 8690,
      "Ġemphas": 8691,
      "incol": 8692,
      "Ġrailway": 8693,
      "Ġvegetables": 8694,
      "ĠSpecial": 8695,
      "ĠArgentina": 8696,
      "Ġcalendar": 8697,
      "gs": 8698,
      "gives": 8699,
      "iac": 8700,
      "inity": 8701,
      "Ġsession": 8702,
      "Ġcateg": 8703,
      "ĠIce": 8704,
      "Ġhook": 8705,
      "Ġbegged": 8706,
      "ĠMod": 8707,
      "ĠCOM": 8708,
      "ĠBY": 8709,
      "ĠRus": 8710,
      "Ġcomin": 8711,
      "Ġsprang": 8712,
      "Ġvia": 8713,
      "ĠStaunton": 8714,
      "pless": 8715,
      "Ġunits": 8716,
      "Ġcompar": 8717,
      "Ġsurre": 8718,
      "Ġkidna": 8719,
      "Ġdevice": 8720,
      "adesh": 8721,
      "Ġviolent": 8722,
      "Ġsearching": 8723,
      "Ġticket": 8724,
      "ĠColumbia": 8725,
      "OL": 8726,
      "cript": 8727,
      "vant": 8728,
      "Ġpul": 8729,
      "Ġpunch": 8730,
      "ario": 8731,
      "ĠAha": 8732,
      "ĠCivil": 8733,
      "ĠPak": 8734,
      "ĠJordan": 8735,
      "olk": 8736,
      "emed": 8737,
      "Ġvoted": 8738,
      "Ġraining": 8739,
      "Ġopens": 8740,
      "Ġtriangle": 8741,
      "Ġdelivered": 8742,
      "Ġconstant": 8743,
      "ĠSomebody": 8744,
      "Ġdragged": 8745,
      "Ġmistaken": 8746,
      "ynasty": 8747,
      "Ġblowing": 8748,
      "Ġexecution": 8749,
      "ĠBrazilian": 8750,
      "ĠMetropolitan": 8751,
      "ĠÂ¶": 8752,
      "Ġignor": 8753,
      "ĠGiven": 8754,
      "Ġmamma": 8755,
      "ĠDivision": 8756,
      "Ġcommercial": 8757,
      "Ġvaluable": 8758,
      "JO": 8759,
      "Ġsam": 8760,
      "arse": 8761,
      "Ġstern": 8762,
      "Ġ\"_": 8763,
      "ĠNin": 8764,
      "ifying": 8765,
      "ĠLad": 8766,
      "ĠLinda": 8767,
      "Ġsaving": 8768,
      "Ġshit": 8769,
      "Ġspoons": 8770,
      "Ġtwin": 8771,
      "ĠValley": 8772,
      "Ġguarant": 8773,
      "retched": 8774,
      "ĠAdd": 8775,
      "-san": 8776,
      "Ġleads": 8777,
      "ĠCountry": 8778,
      "Ġcreation": 8779,
      "Ġsolid": 8780,
      "Ġstatus": 8781,
      "Ġnickel": 8782,
      "Ġtypically": 8783,
      "BAB": 8784,
      "CA": 8785,
      "FE": 8786,
      "LING": 8787,
      "Ġcents": 8788,
      "ĠSit": 8789,
      "ĠSad": 8790,
      "ĠCross": 8791,
      "geon": 8792,
      "ĠEver": 8793,
      "Ġcounting": 8794,
      "ĠBrooke": 8795,
      "Ġimprison": 8796,
      "Ġmagnific": 8797,
      "Ġcuts": 8798,
      "Ġeditor": 8799,
      "ferring": 8800,
      "Ġbreathing": 8801,
      "Ġmidst": 8802,
      "Ġcousins": 8803,
      "Ġapologize": 8804,
      "continues": 8805,
      "'n": 8806,
      ".D": 8807,
      "UL": 8808,
      "gro": 8809,
      "iven": 8810,
      "may": 8811,
      "mosp": 8812,
      "inction": 8813,
      "Ġbord": 8814,
      "Ġcakes": 8815,
      "veled": 8816,
      "ĠToo": 8817,
      "ĠSkin": 8818,
      "entially": 8819,
      "ĠHay": 8820,
      "ĠBUT": 8821,
      "ĠBrig": 8822,
      "ĠDragon": 8823,
      "ĠNorthern": 8824,
      "ifer": 8825,
      "ĠUr": 8826,
      "Ġlegend": 8827,
      "Ġunex": 8828,
      "ranch": 8829,
      "actly": 8830,
      "Ġchamber": 8831,
      "pected": 8832,
      "Ġsneak": 8833,
      "Ġprofound": 8834,
      "Ġstaring": 8835,
      "Ġabsence": 8836,
      "Ġoperating": 8837,
      "Ġrecognition": 8838,
      "ĠTurkey": 8839,
      "ĠCrown": 8840,
      "Ġfeeding": 8841,
      "Ġtemperature": 8842,
      "ĠLiber": 8843,
      "ĠWelcome": 8844,
      "Ġshelter": 8845,
      "ĠDrummond": 8846,
      "MAN": 8847,
      "PA": 8848,
      "TP": 8849,
      "Ġmild": 8850,
      "Ġdea": 8851,
      "Ġdates": 8852,
      "ĠSnow": 8853,
      "iro": 8854,
      "riot": 8855,
      "Ġwhoo": 8856,
      "ĠYep": 8857,
      "aks": 8858,
      "ĠIntern": 8859,
      "Ġobst": 8860,
      "thew": 8861,
      "-sh": 8862,
      "ĠAbs": 8863,
      "Ġestim": 8864,
      "Ġstarring": 8865,
      "Ġassistance": 8866,
      "ĠPalace": 8867,
      "Ġexecutive": 8868,
      "Ġterritory": 8869,
      "Ġscheduled": 8870,
      "ĠDouglas": 8871,
      "ĠHoover": 8872,
      "]...": 8873,
      "from": 8874,
      "kind": 8875,
      "ni": 8876,
      "held": 8877,
      "Ġbee": 8878,
      "alo": 8879,
      "ĠAut": 8880,
      "ĠMid": 8881,
      "ĠCzech": 8882,
      "amen": 8883,
      "ĠHand": 8884,
      "ĠHank": 8885,
      "ĠBank": 8886,
      "ĠRaby": 8887,
      "ĠFer": 8888,
      "ĠFind": 8889,
      "Ġmyth": 8890,
      "ĠLincol": 8891,
      "ĠHemings": 8892,
      "Ġspaghetti": 8893,
      "Ġvig": 8894,
      "Ġconven": 8895,
      "Ġpartly": 8896,
      "rup": 8897,
      "Ġcompre": 8898,
      "ĠAnim": 8899,
      "Ġresting": 8900,
      "ĠEddie": 8901,
      "ĠHarvard": 8902,
      "Ġorganis": 8903,
      "Ġbreathe": 8904,
      "ĠKeith": 8905,
      "Ġdanced": 8906,
      "achel": 8907,
      "Ġprayer": 8908,
      "Ġopposition": 8909,
      "ĠSingh": 8910,
      "ĠIranian": 8911,
      "pherd": 8912,
      "Ġinhabitants": 8913,
      "ares": 8914,
      "col": 8915,
      "egr": 8916,
      "mic": 8917,
      "wick": 8918,
      "Ã§": 8919,
      "haw": 8920,
      "ndry": 8921,
      "Ġmask": 8922,
      "inging": 8923,
      "Ġsteak": 8924,
      "ĠHERE": 8925,
      "Ġwithdraw": 8926,
      "alls": 8927,
      "ĠRoy": 8928,
      "Ġtheme": 8929,
      "agne": 8930,
      "orted": 8931,
      "ARS": 8932,
      "Ġresign": 8933,
      "obile": 8934,
      "Ġstays": 8935,
      "Ġharder": 8936,
      "Ġhats": 8937,
      "Ġrefuse": 8938,
      "Ġfacts": 8939,
      "Ġrepeat": 8940,
      "Ġreferring": 8941,
      "Ġlimit": 8942,
      "ĠIrene": 8943,
      "Ġmaintain": 8944,
      "Ġsuspic": 8945,
      "Ġdebate": 8946,
      "Ġwitnessed": 8947,
      "Ġtroubles": 8948,
      "ĠGirls": 8949,
      "ocracy": 8950,
      "/she": 8951,
      "baby": 8952,
      "foot": 8953,
      "jack": 8954,
      "lass": 8955,
      "Ġwreck": 8956,
      "Ġbars": 8957,
      "Ġcooper": 8958,
      "Ġyer": 8959,
      "Ġpine": 8960,
      "Ġbeating": 8961,
      "ĠSav": 8962,
      "ĠMas": 8963,
      "ĠMoon": 8964,
      "amps": 8965,
      "ĠHospital": 8966,
      "starts": 8967,
      "eau": 8968,
      "ĠRap": 8969,
      "ieur": 8970,
      "ements": 8971,
      "Ġsuitc": 8972,
      "Ġvoy": 8973,
      "Ġlecture": 8974,
      "Ġprices": 8975,
      "iped": 8976,
      "Ġattorney": 8977,
      "exits": 8978,
      "Ġcollabor": 8979,
      "Ġgreenbelt": 8980,
      "Ġstrongly": 8981,
      "ĠJohan": 8982,
      "Ġmassive": 8983,
      "Ġintroduce": 8984,
      "Ġmaintained": 8985,
      "Ġblew": 8986,
      "ĠRaymond": 8987,
      "Ġconfirmed": 8988,
      "igenous": 8989,
      "dog": 8990,
      "fish": 8991,
      "ji": 8992,
      "ridge": 8993,
      "vior": 8994,
      "Ġawards": 8995,
      "Ġcough": 8996,
      "Ġfame": 8997,
      "Ġbend": 8998,
      "ĠAren": 8999,
      "ĠCad": 9000,
      "ĠCop": 9001,
      "ĠWan": 9002,
      "Ġsequ": 9003,
      "Ġath": 9004,
      "Ġsovere": 9005,
      "Ġdonkey": 9006,
      "ĠJessie": 9007,
      "agers": 9008,
      "Ġprob": 9009,
      "Ġblaz": 9010,
      "Ġimit": 9011,
      "Ġimper": 9012,
      "Ġummhm": 9013,
      "ilding": 9014,
      "ĠSpeak": 9015,
      "ribly": 9016,
      "Ġconfusion": 9017,
      "Ġfigured": 9018,
      "ĠColonel": 9019,
      "Ġstopping": 9020,
      "Ġparking": 9021,
      "III": 9022,
      "Ġshouting": 9023,
      "ĠNazis": 9024,
      "Ġexplanation": 9025,
      "&amp": 9026,
      "rors": 9027,
      "sl": 9028,
      "Ġarose": 9029,
      "Ġhay": 9030,
      "ĠTalk": 9031,
      "ĠAge": 9032,
      "Ġstew": 9033,
      "Ġatmosp": 9034,
      "ĠProm": 9035,
      "Ġknight": 9036,
      "plays": 9037,
      "Ġuniform": 9038,
      "ĠSociety": 9039,
      "bec": 9040,
      "ultural": 9041,
      "ĠJustin": 9042,
      "Ġsleepy": 9043,
      "Ġtriumph": 9044,
      "Ġgenerous": 9045,
      "byn": 9046,
      "Ġinspired": 9047,
      "Ġparade": 9048,
      "Ġdropping": 9049,
      "Ġruin": 9050,
      "Ġbeaten": 9051,
      "-American": 9052,
      "ĠMatthew": 9053,
      "Ġstretched": 9054,
      "Ġdescended": 9055,
      "ĠFIFA": 9056,
      "Ġabandoned": 9057,
      "ĠPLAY": 9058,
      "ĠGriffith": 9059,
      "pulls": 9060,
      "LW": 9061,
      "azz": 9062,
      "rings": 9063,
      "Ãĸ": 9064,
      "Ġfasc": 9065,
      "Ġpoo": 9066,
      "oto": 9067,
      "uther": 9068,
      "Ġstair": 9069,
      "unte": 9070,
      "ĠLane": 9071,
      "ĠKaz": 9072,
      "Ġoffers": 9073,
      "ogne": 9074,
      "Ġaccustomed": 9075,
      "Ġawoh": 9076,
      "Ġhorrid": 9077,
      "-by": 9078,
      "axy": 9079,
      "Ġemot": 9080,
      "ipping": 9081,
      "Ġexpecting": 9082,
      "Ġdipl": 9083,
      "Ġremarkable": 9084,
      "Ġspecifically": 9085,
      "Ġnegoti": 9086,
      "Ġchalleng": 9087,
      "Ġribbon": 9088,
      "Ġcrayon": 9089,
      "ĠChildren": 9090,
      "ĠNikki": 9091,
      "Ġunusual": 9092,
      "respond": 9093,
      "Ġumbrella": 9094,
      "ĠFergus": 9095,
      "-out": 9096,
      "/TP": 9097,
      "IG": 9098,
      "Mr": 9099,
      "mates": 9100,
      "vor": 9101,
      "zes": 9102,
      "Ãª": 9103,
      "Ġfires": 9104,
      "utor": 9105,
      "ĠMuseum": 9106,
      "ader": 9107,
      "ĠBow": 9108,
      "ĠNord": 9109,
      "igers": 9110,
      "Ġtrace": 9111,
      "ĠStart": 9112,
      "Ġsculpt": 9113,
      "Ġlasted": 9114,
      "uckle": 9115,
      "ĠMarine": 9116,
      "Ġrecon": 9117,
      "Ġsurvey": 9118,
      "ĠWilly": 9119,
      "noises": 9120,
      "ĠHarvey": 9121,
      "Ġgrowth": 9122,
      "Ġbags": 9123,
      "Ġclosing": 9124,
      "Ġprotected": 9125,
      "rafton": 9126,
      "ĠBozo": 9127,
      "chant": 9128,
      "Ġbehalf": 9129,
      "Ġtribes": 9130,
      "Ġgrief": 9131,
      "ĠPacific": 9132,
      "lan": 9133,
      "ras": 9134,
      "zburg": 9135,
      "Ġsan": 9136,
      "referring": 9137,
      "Ġbass": 9138,
      "Ġcou": 9139,
      "Ġmal": 9140,
      "Ġmos": 9141,
      "Ġpad": 9142,
      "Ġnations": 9143,
      "Ġrejo": 9144,
      "sex": 9145,
      "ilton": 9146,
      "ĠDri": 9147,
      "ĠNep": 9148,
      "ĠKrist": 9149,
      "ĠStat": 9150,
      "aren": 9151,
      "ĠVin": 9152,
      "issy": 9153,
      "Ġbuying": 9154,
      "Ġentering": 9155,
      "Ġload": 9156,
      "Ġproviding": 9157,
      "Ġwhispering": 9158,
      "ronic": 9159,
      "Ġturkey": 9160,
      "AKE": 9161,
      "Ġnormally": 9162,
      "Ġeconomy": 9163,
      "ĠBanbury": 9164,
      "Ġtowel": 9165,
      "Ġgloves": 9166,
      "Ġlemon": 9167,
      "Ġcriteria": 9168,
      "ĠPakistan": 9169,
      "MP": 9170,
      "Ġfacing": 9171,
      "Ġpier": 9172,
      "also": 9173,
      "Ġreform": 9174,
      "ĠNap": 9175,
      "unks": 9176,
      "Ġrust": 9177,
      "Ġrack": 9178,
      "Ġraces": 9179,
      "inking": 9180,
      "ĠKid": 9181,
      "Ġwhereas": 9182,
      "ĠInstead": 9183,
      "Ġcarbon": 9184,
      "Ġappropriate": 9185,
      "Ġshaking": 9186,
      "cling": 9187,
      "ĠAnth": 9188,
      "ĠAnna": 9189,
      "Ġgrain": 9190,
      "Ġinstru": 9191,
      "Ġassume": 9192,
      "engu": 9193,
      "Ġcenturies": 9194,
      "Ġcollea": 9195,
      "empts": 9196,
      "ĠSupp": 9197,
      "Ġequally": 9198,
      "Ġcrept": 9199,
      "Ġtastes": 9200,
      "Ġphoto": 9201,
      "ĠChant": 9202,
      "Ġextraord": 9203,
      "Ġcounsel": 9204,
      "ĠSandra": 9205,
      "Ġresponded": 9206,
      "screams": 9207,
      "Ġthirsty": 9208,
      "-J": 9209,
      ".I": 9210,
      "LES": 9211,
      "Your": 9212,
      "lav": 9213,
      "ught": 9214,
      "Ġsne": 9215,
      "Ġdwell": 9216,
      "Ġfucking": 9217,
      "Ġnort": 9218,
      "otam": 9219,
[...]
