{
  "version": "1.0",
  "truncation": null,
  "padding": null,
  "added_tokens": [
    {
      "id": 0,
      "content": "<pad>",
      "single_word": false,
      "lstrip": false,
      "rstrip": false,
      "normalized": false,
      "special": true
    }
  ],
  "normalizer": null,
  "pre_tokenizer": {
    "type": "ByteLevel",
    "add_prefix_space": false,
    "trim_offsets": true,
    "use_regex": true
  },
  "post_processor": null,
  "decoder": {
    "type": "ByteLevel",
    "add_prefix_space": true,
    "trim_offsets": true,
    "use_regex": true
  },
  "model": {
    "type": "BPE",
    "dropout": null,
    "unk_token": null,
    "continuing_subword_prefix": null,
    "end_of_word_suffix": null,
    "fuse_unk": false,
    "byte_fallback": false,
    "ignore_merges": false,
    "vocab": {
      "<pad>": 0,
      "!": 1,
      "\"": 2,
      "#": 3,
      "$": 4,
      "%": 5,
      "&": 6,
      "'": 7,
      "(": 8,
      ")": 9,
      "*": 10,
      "+": 11,
      ",": 12,
      "-": 13,
      ".": 14,
      "/": 15,
      "0": 16,
      "1": 17,
      "2": 18,
      "3": 19,
      "4": 20,
      "5": 21,
      "6": 22,
      "7": 23,
      "8": 24,
      "9": 25,
      ":": 26,
      ";": 27,
      "<": 28,
      "=": 29,
      ">": 30,
      "?": 31,
      "@": 32,
      "A": 33,
      "B": 34,
      "C": 35,
      "D": 36,
      "E": 37,
      "F": 38,
      "G": 39,
      "H": 40,
      "I": 41,
      "J": 42,
      "K": 43,
      "L": 44,
      "M": 45,
      "N": 46,
      "O": 47,
      "P": 48,
      "Q": 49,
      "R": 50,
      "S": 51,
      "T": 52,
      "U": 53,
      "V": 54,
      "W": 55,
      "X": 56,
      "Y": 57,
      "Z": 58,
      "[": 59,
      "\\": 60,
      "]": 61,
      "^": 62,
      "_": 63,
      "`": 64,
      "a": 65,
      "b": 66,
      "c": 67,
      "d": 68,
      "e": 69,
      "f": 70,
      "g": 71,
      "h": 72,
      "i": 73,
      "j": 74,
      "k": 75,
      "l": 76,
      "m": 77,
      "n": 78,
      "o": 79,
      "p": 80,
      "q": 81,
      "r": 82,
      "s": 83,
      "t": 84,
      "u": 85,
      "v": 86,
      "w": 87,
      "x": 88,
      "y": 89,
      "z": 90,
      "{": 91,
      "|": 92,
      "}": 93,
      "~": 94,
      "¡": 95,
      "¢": 96,
      "£": 97,
      "¤": 98,
      "¥": 99,
      "¦": 100,
      "§": 101,
      "¨": 102,
      "©": 103,
      "ª": 104,
      "«": 105,
      "¬": 106,
      "®": 107,
      "¯": 108,
      "°": 109,
      "±": 110,
      "²": 111,
      "³": 112,
      "´": 113,
      "µ": 114,
      "¶": 115,
      "·": 116,
      "¸": 117,
      "¹": 118,
      "º": 119,
      "»": 120,
      "¼": 121,
      "½": 122,
      "¾": 123,
      "¿": 124,
      "À": 125,
      "Á": 126,
      "Â": 127,
      "Ã": 128,
      "Ä": 129,
      "Å": 130,
      "Æ": 131,
      "Ç": 132,
      "È": 133,
      "É": 134,
      "Ê": 135,
      "Ë": 136,
      "Ì": 137,
      "Í": 138,
      "Î": 139,
      "Ï": 140,
      "Ð": 141,
      "Ñ": 142,
      "Ò": 143,
      "Ó": 144,
      "Ô": 145,
      "Õ": 146,
      "Ö": 147,
      "×": 148,
      "Ø": 149,
      "Ù": 150,
      "Ú": 151,
      "Û": 152,
      "Ü": 153,
      "Ý": 154,
      "Þ": 155,
      "ß": 156,
      "à": 157,
      "á": 158,
      "â": 159,
      "ã": 160,
      "ä": 161,
      "å": 162,
      "æ": 163,
      "ç": 164,
      "è": 165,
      "é": 166,
      "ê": 167,
      "ë": 168,
      "ì": 169,
      "í": 170,
      "î": 171,
      "ï": 172,
      "ð": 173,
      "ñ": 174,
      "ò": 175,
      "ó": 176,
      "ô": 177,
      "õ": 178,
      "ö": 179,
      "÷": 180,
      "ø": 181,
      "ù": 182,
      "ú": 183,
      "û": 184,
      "ü": 185,
      "ý": 186,
      "þ": 187,
      "ÿ": 188,
      "Ā": 189,
      "ā": 190,
      "Ă": 191,
      "ă": 192,
      "Ą": 193,
      "ą": 194,
      "Ć": 195,
      "ć": 196,
      "Ĉ": 197,
      "ĉ": 198,
      "Ċ": 199,
      "ċ": 200,
      "Č": 201,
      "č": 202,
      "Ď": 203,
      "ď": 204,
      "Đ": 205,
      "đ": 206,
      "Ē": 207,
      "ē": 208,
      "Ĕ": 209,
      "ĕ": 210,
      "Ė": 211,
      "ė": 212,
      "Ę": 213,
      "ę": 214,
      "Ě": 215,
      "ě": 216,
      "Ĝ": 217,
      "ĝ": 218,
      "Ğ": 219,
      "ğ": 220,
      "Ġ": 221,
      "ġ": 222,
      "Ģ": 223,
      "ģ": 224,
      "Ĥ": 225,
      "ĥ": 226,
      "Ħ": 227,
      "ħ": 228,
      "Ĩ": 229,
      "ĩ": 230,
      "Ī": 231,
      "ī": 232,
      "Ĭ": 233,
      "ĭ": 234,
      "Į": 235,
      "į": 236,
      "İ": 237,
      "ı": 238,
      "Ĳ": 239,
      "ĳ": 240,
      "Ĵ": 241,
      "ĵ": 242,
      "Ķ": 243,
      "ķ": 244,
      "ĸ": 245,
      "Ĺ": 246,
      "ĺ": 247,
      "Ļ": 248,
      "ļ": 249,
      "Ľ": 250,
      "ľ": 251,
      "Ŀ": 252,
      "ŀ": 253,
      "Ł": 254,
      "ł": 255,
      "Ń": 256,
      "Ġt": 257,
      "he": 258,
      "Ġa": 259,
      "in": 260,
      "Ġw": 261,
      "Ġthe": 262,
      "Ġs": 263,
      "ou": 264,
      "re": 265,
      "Ġ*": 266,
      "Ġo": 267,
      "ha": 268,
      "er": 269,
      "nd": 270,
      "Ġb": 271,
      "it": 272,
      "is": 273,
      "Ġm": 274,
      "Ġc": 275,
      "Ġd": 276,
      "on": 277,
      "Ġy": 278,
      "Ġf": 279,
      "ĠI": 280,
      "ing": 281,
      "Ġto": 282,
      "ll": 283,
      "an": 284,
      "or": 285,
      "ed": 286,
      "es": 287,
      "en": 288,
      "Ġp": 289,
      "Ġyou": 290,
      "hat": 291,
      "Ġand": 292,
      "Ġl": 293,
      "Ġg": 294,
      "HI": 295,
      "ar": 296,
      "CHI": 297,
      "Ġn": 298,
      "Ġof": 299,
      "as": 300,
      "OT": 301,
      "MOT": 302,
      "Ġin": 303,
      "at": 304,
      "om": 305,
      "Ġhe": 306,
      "Ġh": 307,
      "ow": 308,
      "ot": 309,
      "le": 310,
      "'s": 311,
      "Ġha": 312,
      "Ġit": 313,
      "et": 314,
      "ay": 315,
      "ic": 316,
      "Ġth": 317,
      "ve": 318,
      "Ġon": 319,
      "Ġthat": 320,
      "ĠT": 321,
      "us": 322,
      "id": 323,
      "gh": 324,
      "Ġbe": 325,
      "ĠS": 326,
      "al": 327,
      "Ġ=": 328,
      "ĠA": 329,
      "Ġis": 330,
      "Ġwas": 331,
      "Ġe": 332,
      "ld": 333,
      "ut": 334,
      "Ġwe": 335,
      "ĠM": 336,
      "oo": 337,
      "..": 338,
      "im": 339,
      "ver": 340,
      "ac": 341,
      "ke": 342,
      "ad": 343,
      "Ġre": 344,
      "'t": 345,
      "ri": 346,
      "Ġ[": 347,
      "ĠW": 348,
      "Ġfor": 349,
      "ent": 350,
      "ir": 351,
      "ĠC": 352,
      "ght": 353,
      "Ġu": 354,
      "Ġst": 355,
      "ion": 356,
      "Ġdo": 357,
      "se": 358,
      "am": 359,
      "ĠH": 360,
      "ly": 361,
      "ĠB": 362,
      "st": 363,
      "Ġk": 364,
      "out": 365,
      "ro": 366,
      "Ġ\"": 367,
      "Ġme": 368,
      "ith": 369,
      "her": 370,
      "Ġwhat": 371,
      "Ġwh": 372,
      "Ġan": 373,
      "Ġwith": 374,
      "ĠThe": 375,
      "ea": 376,
      "ome": 377,
      "all": 378,
      "ur": 379,
      "Ġli": 380,
      "Ġse": 381,
      "ch": 382,
      "Ġat": 383,
      "Ġas": 384,
      "ter": 385,
      "ill": 386,
      "Ġgo": 387,
      "Ġnot": 388,
      "Ġthis": 389,
      "ĠY": 390,
      "ould": 391,
      "Ġhave": 392,
      "ĠD": 393,
      "ce": 394,
      "ĠP": 395,
      "AT": 396,
      "Ġkn": 397,
      "il": 398,
      "ĠN": 399,
      "Ġ-": 400,
      "xx": 401,
      "FAT": 402,
      "Ġher": 403,
      "Ġno": 404,
      "ust": 405,
      "ra": 406,
      "...": 407,
      "if": 408,
      "Ġone": 409,
      "Ġare": 410,
      "un": 411,
      "Ġthey": 412,
      "Ġhis": 413,
      "ant": 414,
      "ct": 415,
      "ĠO": 416,
      "ĠR": 417,
      "Ġshe": 418,
      "Ġknow": 419,
      "Ġso": 420,
      "Ġwhe": 421,
      "ĠG": 422,
      "Ġcan": 423,
      "ĠL": 424,
      "ell": 425,
      "Ġsa": 426,
      "op": 427,
      "ore": 428,
      "Ġup": 429,
      "Ġmy": 430,
      "Ġdon": 431,
      "Ġ1": 432,
      "ĠF": 433,
      "Ġj": 434,
      "Ġne": 435,
      "Ġall": 436,
      "ĠE": 437,
      "ook": 438,
      "Ġthere": 439,
      "rom": 440,
      "Ġhad": 441,
      "ge": 442,
      "pp": 443,
      "âĢ": 444,
      "ie": 445,
      "our": 446,
      "and": 447,
      "eah": 448,
      "Ġde": 449,
      "Ġbut": 450,
      "Ġyour": 451,
      "ĠJ": 452,
      "um": 453,
      "Ġdid": 454,
      "ry": 455,
      "ain": 456,
      "Ġal": 457,
      "Ġr": 458,
      "ĠHe": 459,
      "ul": 460,
      "art": 461,
      "ĠIt": 462,
      "Ġlike": 463,
      "ol": 464,
      "ack": 465,
      "ood": 466,
      "Ġab": 467,
      "Ġout": 468,
      "Ġhim": 469,
      "Ġsh": 470,
      "ight": 471,
      "Ġfrom": 472,
      "ake": 473,
      "th": 474,
      "red": 475,
      "Ġ2": 476,
      "Ġpl": 477,
      "ation": 478,
      "han": 479,
      "very": 480,
      "el": 481,
      "ab": 482,
      "ig": 483,
      "'re": 484,
      "Ġget": 485,
      "os": 486,
      "Ġsee": 487,
      "est": 488,
      "'m": 489,
      "ers": 490,
      "ess": 491,
      "right": 492,
      "ink": 493,
      "Ġwere": 494,
      "ist": 495,
      "Ġby": 496,
      "Ġsu": 497,
      "ound": 498,
      "itt": 499,
      "ame": 500,
      "ong": 501,
      "Ġwho": 502,
      "Ġsaid": 503,
      "Ġor": 504,
      "hi": 505,
      "ck": 506,
      "ĠYou": 507,
      "one": 508,
      "ind": 509,
      "Ġyeah": 510,
      "qu": 511,
      "na": 512,
      "Ġwor": 513,
      "Ġhere": 514,
      "nt": 515,
      "res": 516,
      "Ġthem": 517,
      "ast": 518,
      "Ġabout": 519,
      "Ġsome": 520,
      "ive": 521,
      "Ġcom": 522,
      "Ġsp": 523,
      "em": 524,
      "ber": 525,
      "ard": 526,
      "use": 527,
      "Ġ(": 528,
      "Ġjust": 529,
      "xxx": 530,
      "Ġxxx": 531,
      "ep": 532,
      "own": 533,
      "Ġwant": 534,
      "Ġv": 535,
      "ak": 536,
      "Ġwould": 537,
      "Ġthink": 538,
      "Ġlook": 539,
      "au": 540,
      "ate": 541,
      "ice": 542,
      "Ġright": 543,
      "Ġtw": 544,
      "other": 545,
      "Ġif": 546,
      "ally": 547,
      "Ġwhen": 548,
      "Ġany": 549,
      "fe": 550,
      "kay": 551,
      "'ll": 552,
      "Ġnow": 553,
      "Ġman": 554,
      "od": 555,
      "Ġcon": 556,
      "ick": 557,
      "ime": 558,
      "ough": 559,
      "ear": 560,
      "Ġex": 561,
      "ap": 562,
      "ĠK": 563,
      "Ġoh": 564,
      "Ġ20": 565,
      "ag": 566,
      "Ġgot": 567,
      "hing": 568,
      "Ġsay": 569,
      "ittle": 570,
      "ort": 571,
      "ĠAnd": 572,
      "ich": 573,
      "Ġ19": 574,
      "Ġwill": 575,
      "].": 576,
      "Ġlittle": 577,
      "Ġus": 578,
      "ven": 579,
      "ine": 580,
      ".\"": 581,
      "ous": 582,
      "ĠU": 583,
      "ide": 584,
      "Ġthen": 585,
      "ther": 586,
      "IN": 587,
      "Ġhow": 588,
      "--": 589,
      "AR": 590,
      "Ġint": 591,
      "ost": 592,
      "Ġgood": 593,
      "Ġtoo": 594,
      "ca": 595,
      "Ġpro": 596,
      "Ġag": 597,
      "int": 598,
      "ies": 599,
      "Ġwhere": 600,
      "Ġpe": 601,
      "ity": 602,
      "Ġtwo": 603,
      "Ġtime": 604,
      "way": 605,
      "Ġmore": 606,
      "Ġbeen": 607,
      "Ġcould": 608,
      "Ġar": 609,
      "Ġcl": 610,
      "ite": 611,
      "Ġback": 612,
      "Ġokay": 613,
      "Ġput": 614,
      "Ġvery": 615,
      "Ġhas": 616,
      "Ġ'": 617,
      "lf": 618,
      "Ġgoing": 619,
      "Ġdown": 620,
      "ree": 621,
      "ace": 622,
      "Ġwhich": 623,
      "Ġtheir": 624,
      "Ġro": 625,
      "Ġover": 626,
      "ose": 627,
      "ĠâĢ": 628,
      "Ġbo": 629,
      "MAR": 630,
      "ond": 631,
      "ish": 632,
      "reat": 633,
      "Ġoff": 634,
      "ove": 635,
      "Ġother": 636,
      "ian": 637,
      "ĠWhat": 638,
      "ĠSt": 639,
      "end": 640,
      "Ġaf": 641,
      "ĠShe": 642,
      "alk": 643,
      "cause": 644,
      "Ġtr": 645,
      "Ġbl": 646,
      "Ġqu": 647,
      "ople": 648,
      "Ġthing": 649,
      "Ġcome": 650,
      "ud": 651,
      "ft": 652,
      "Ġwell": 653,
      "ase": 654,
      "augh": 655,
      "ure": 656,
      "orn": 657,
      ",\"": 658,
      "Ġlet": 659,
      "ark": 660,
      "ĠWe": 661,
      "Ġle": 662,
      "ment": 663,
      "are": 664,
      "omet": 665,
      "Ġfe": 666,
      "ia": 667,
      "hed": 668,
      "'ve": 669,
      "ty": 670,
      "Ġpeople": 671,
      "Ġthan": 672,
      "ĠTh": 673,
      "ĠIn": 674,
      "ĠBut": 675,
      "onna": 676,
      "INV": 677,
      "irst": 678,
      "Ġplay": 679,
      "ought": 680,
      "urn": 681,
      "Ġbr": 682,
      "pe": 683,
      "ue": 684,
      "Ġmake": 685,
      "Ġinto": 686,
      "ade": 687,
      "ary": 688,
      "ved": 689,
      "ater": 690,
      "Ġer": 691,
      "Ġcall": 692,
      "Ġgonna": 693,
      "Ġtell": 694,
      "ĠNo": 695,
      "ble": 696,
      "ĠV": 697,
      "Ġsomet": 698,
      "age": 699,
      "Ġway": 700,
      "ass": 701,
      "Ġday": 702,
      "iss": 703,
      "Ġagain": 704,
      "Ġwork": 705,
      "Ġdoes": 706,
      "ving": 707,
      "Ġ%": 708,
      "ord": 709,
      "ci": 710,
      "Ġfirst": 711,
      "ount": 712,
      "Ġmean": 713,
      "Ġtake": 714,
      "Ġco": 715,
      "my": 716,
      "RO": 717,
      "laugh": 718,
      "ne": 719,
      "Ġen": 720,
      "Ġafter": 721,
      "Ġhu": 722,
      "Ġwr": 723,
      "ff": 724,
      "Ġam": 725,
      "ran": 726,
      "Ġthr": 727,
      "IS": 728,
      "ire": 729,
      "ng": 730,
      "self": 731,
      "pl": 732,
      "mer": 733,
      "wn": 734,
      "ves": 735,
      "ather": 736,
      "Ġgr": 737,
      "Ġbet": 738,
      "Ġdis": 739,
      "pt": 740,
      "Ġpart": 741,
      "per": 742,
      "Ġwhy": 743,
      "so": 744,
      "ĠSo": 745,
      "ach": 746,
      "Ġevery": 747,
      "ĠThat": 748,
      "ps": 749,
      "Ġgu": 750,
      "ys": 751,
      "Ġdidn": 752,
      "uch": 753,
      "Ġhapp": 754,
      "ub": 755,
      "Ġyear": 756,
      "Ġneed": 757,
      "Ġun": 758,
      "ool": 759,
      "Ġonly": 760,
      "Ġpr": 761,
      "ĠMr": 762,
      "Ġshould": 763,
      "fore": 764,
      "ren": 765,
      "ouse": 766,
      "Ġbecause": 767,
      "les": 768,
      "Ġsomething": 769,
      "ĠThey": 770,
      "day": 771,
      "Ġour": 772,
      "laughs": 773,
      "âĢĻ": 774,
      "Ġfl": 775,
      "Ġmade": 776,
      "nder": 777,
      "ĠOh": 778,
      "ew": 779,
      "SIS": 780,
      "ock": 781,
      "ull": 782,
      "ĠYeah": 783,
      "Ġpre": 784,
      "act": 785,
      "Ġmuch": 786,
      "hen": 787,
      "able": 788,
      "thing": 789,
      "ress": 790,
      "Ġcha": 791,
      "ĠâĢľ": 792,
      "Ġthese": 793,
      "Ġtalk": 794,
      "Ġch": 795,
      "Ġte": 796,
      "zz": 797,
      "Ġcar": 798,
      "ady": 799,
      "oss": 800,
      "we": 801,
      "Ġlong": 802,
      "hy": 803,
      "ory": 804,
      "Ġ201": 805,
      "man": 806,
      "og": 807,
      "oll": 808,
      "Ġreally": 809,
      "be": 810,
      "BRO": 811,
      "ru": 812,
      "Ġhand": 813,
      "irl": 814,
      "ions": 815,
      "ied": 816,
      "ict": 817,
      "Ġwan": 818,
      "Ġchi": 819,
      "ated": 820,
      "Ġthree": 821,
      "Ġwent": 822,
      "Ġthrough": 823,
      "Ġsha": 824,
      "av": 825,
      "ang": 826,
      "Ġrem": 827,
      "Ġbig": 828,
      "Ġuh": 829,
      "ĠMom": 830,
      "Ġeat": 831,
      "ĠThis": 832,
      "add": 833,
      "ix": 834,
      "Ġyes": 835,
      "¿½": 836,
      "ï¿½": 837,
      "Ġim": 838,
      "cc": 839,
      "yes": 840,
      "Ġbefore": 841,
      "ile": 842,
      "Ġcomp": 843,
      "Ġnever": 844,
      "ting": 845,
      "Ġad": 846,
      "Ġmay": 847,
      "old": 848,
      "Ġchild": 849,
      "'d": 850,
      "ĠWell": 851,
      "ĠUn": 852,
      "Ġold": 853,
      "Ġsc": 854,
      "ise": 855,
      "ody": 856,
      "Ġcame": 857,
      "Ġstill": 858,
      "ĠChi": 859,
      "Ġgreat": 860,
      "Ġunder": 861,
      "Ġke": 862,
      "iz": 863,
      "Ġalso": 864,
      "Ġask": 865,
      "?\"": 866,
      "Ġmo": 867,
      "Ġhel": 868,
      "Ġsm": 869,
      "Ġwanna": 870,
      "Ġeven": 871,
      "Ġbu": 872,
      "Ġgirl": 873,
      "ful": 874,
      "up": 875,
      "Ġaway": 876,
      "Ġpo": 877,
      "Ġthought": 878,
      "ĠCh": 879,
      "ence": 880,
      "atch": 881,
      "ip": 882,
      "Ġum": 883,
      "ks": 884,
      "cl": 885,
      "Ġapp": 886,
      "Ġthose": 887,
      "Ġact": 888,
      "gg": 889,
      "Ġturn": 890,
      "ons": 891,
      "Ġhome": 892,
      "ried": 893,
      "Ġlast": 894,
      "Ġper": 895,
      "uck": 896,
      "oc": 897,
      "ĠThere": 898,
      "Ġnew": 899,
      "Ġhappen": 900,
      "Ġgive": 901,
      "Ġname": 902,
      "ward": 903,
      "get": 904,
      "Ġstart": 905,
      "ect": 906,
      "land": 907,
      "ath": 908,
      "ors": 909,
      "Ġanother": 910,
      "ember": 911,
      "ign": 912,
      "00": 913,
      "ited": 914,
      "Ġlea": 915,
      "Ġdoing": 916,
      "UR": 917,
      "Ġwa": 918,
      "Ġthings": 919,
      "ates": 920,
      "Ġmust": 921,
      "ily": 922,
      "ĠMar": 923,
      "Ġmany": 924,
      "Ġhouse": 925,
      "riend": 926,
      "Ġbook": 927,
      "Ġtry": 928,
      "Ġmother": 929,
      "âĢĿ": 930,
      ".]": 931,
      "Ġcont": 932,
      "Ġhelp": 933,
      "chool": 934,
      "ob": 935,
      "ings": 936,
      "hes": 937,
      "here": 938,
      "igh": 939,
      "ny": 940,
      "ans": 941,
      "ung": 942,
      "Ġfind": 943,
      "Ġser": 944,
      "aby": 945,
      "Ġcr": 946,
      "Ġsl": 947,
      "ious": 948,
      "ance": 949,
      "pen": 950,
      "Ġra": 951,
      "Ġhead": 952,
      "Ġple": 953,
      "iv": 954,
      "xt": 955,
      "Ġfour": 956,
      "ina": 957,
      "Ġshow": 958,
      "Ġwon": 959,
      "Ġnight": 960,
      "Ġ3": 961,
      "Ġsec": 962,
      "hm": 963,
      "Ġown": 964,
      "oney": 965,
      "oy": 966,
      "air": 967,
      "te": 968,
      "Ġcalled": 969,
      "rd": 970,
      "Ġres": 971,
      "Ġbel": 972,
      "Ġkind": 973,
      "ert": 974,
      "Ġchan": 975,
      "ah": 976,
      "oth": 977,
      "Ġlove": 978,
      "ail": 979,
      "Ġmom": 980,
      "Ġyears": 981,
      "Ġboy": 982,
      "ars": 983,
      "ild": 984,
      "body": 985,
      "Ġfriend": 986,
      "ĠYes": 987,
      "URS": 988,
      "ms": 989,
      "ave": 990,
      "Ġhuh": 991,
      "Ġfound": 992,
      "ĠHow": 993,
      "Ġel": 994,
      "Ġread": 995,
      "Ġbetter": 996,
      "Ġche": 997,
      "Ġdone": 998,
      "ical": 999,
      "ĠIs": 1000,
      "aking": 1001,
      "side": 1002,
      "Ġend": 1003,
      "Ġmight": 1004,
      "Ġrec": 1005,
      "akes": 1006,
      "Ġsure": 1007,
      "als": 1008,
      "med": 1009,
      "Ġaround": 1010,
      "Ġcomm": 1011,
      "ult": 1012,
      "Ġmin": 1013,
      "Ġfeel": 1014,
      "ways": 1015,
      "aw": 1016,
      "ince": 1017,
      "vers": 1018,
      "ER": 1019,
      "ican": 1020,
      "Ġplace": 1021,
      "ĠBe": 1022,
      "oh": 1023,
      "Ġmost": 1024,
      "ĠBr": 1025,
      "Ġsuch": 1026,
      "ĠIf": 1027,
      "ĠMommy": 1028,
      "Ġroom": 1029,
      "Ġcount": 1030,
      "Ġschool": 1031,
      "Ġgl": 1032,
      "Ġatt": 1033,
      "Ġcare": 1034,
      "port": 1035,
      "Ġbeing": 1036,
      "ident": 1037,
      "ces": 1038,
      "Ġtra": 1039,
      "Ġits": 1040,
      "Ġtold": 1041,
      "Ġpres": 1042,
      "Ġdif": 1043,
      "Ġsupp": 1044,
      "Ġ202": 1045,
      "Ġanything": 1046,
      "Ġkeep": 1047,
      "Ġfather": 1048,
      "Ġfin": 1049,
      "ont": 1050,
      "ere": 1051,
      "ever": 1052,
      "Ġwater": 1053,
      "amp": 1054,
      "Ġdes": 1055,
      "Ġ.": 1056,
      "Ġword": 1057,
      "rent": 1058,
      "Ġfive": 1059,
      "Ġlife": 1060,
      "Ġnext": 1061,
      "mp": 1062,
      "ee": 1063,
      "Ġcour": 1064,
      "ĠDo": 1065,
      "Ġelse": 1066,
      "inn": 1067,
      "Ġnum": 1068,
      "led": 1069,
      "ually": 1070,
      "ute": 1071,
      "Ġbeg": 1072,
      "ĠAs": 1073,
      "ĠAl": 1074,
      "ĠAll": 1075,
      "Ġsil": 1076,
      "Ġsame": 1077,
      "Ġlot": 1078,
      "Ġbaby": 1079,
      "ction": 1080,
      "ĠAmer": 1081,
      "ream": 1082,
      "Ġever": 1083,
      "ug": 1084,
      "Ġwait": 1085,
      "Ġopen": 1086,
      "uc": 1087,
      "ĠMark": 1088,
      "imes": 1089,
      "orry": 1090,
      "ump": 1091,
      "Ġwhile": 1092,
      "Ġnice": 1093,
      "ott": 1094,
      "Ġalways": 1095,
      "Ġmen": 1096,
      "ĠAn": 1097,
      "Ġmhm": 1098,
      "Ġbec": 1099,
      "!\"": 1100,
      "Ġsaw": 1101,
      "Ġtook": 1102,
      "row": 1103,
      "Ġdoesn": 1104,
      "oot": 1105,
      "uh": 1106,
      "Ġpret": 1107,
      "Ġph": 1108,
      "ations": 1109,
      "mber": 1110,
      "ens": 1111,
      "Ġset": 1112,
      "Ġsw": 1113,
      "ird": 1114,
      "Ġsing": 1115,
      "Ġpol": 1116,
      "Ġstop": 1117,
      "Ġpie": 1118,
      "Ġused": 1119,
      "ition": 1120,
      "Ġbre": 1121,
      "ts": 1122,
      "ec": 1123,
      "ling": 1124,
      "ï¿½ï¿½": 1125,
      "li": 1126,
      "Ġbus": 1127,
      "ĠWh": 1128,
      "Ġwom": 1129,
      "Ġleft": 1130,
      "ins": 1131,
      "Ġmon": 1132,
      "Ġmag": 1133,
      "Ġsix": 1134,
      "Ġrun": 1135,
      "ister": 1136,
      "Ġfam": 1137,
      "Ġdr": 1138,
      "Ġele": 1139,
      "ros": 1140,
      "vent": 1141,
      "Ġdog": 1142,
      "orm": 1143,
      "vel": 1144,
      "ational": 1145,
      "Ġcle": 1146,
      "ĠTH": 1147,
      "ounds": 1148,
      "AN": 1149,
      "ĠWhy": 1150,
      "Ġind": 1151,
      "tern": 1152,
      "Ġfun": 1153,
      "Ġreal": 1154,
      "Ġunt": 1155,
      "arly": 1156,
      "Ġfar": 1157,
      "ĠUnited": 1158,
      "Ġremember": 1159,
      "Ġuse": 1160,
      "oun": 1161,
      "Ġworld": 1162,
      "outh": 1163,
      "Ġstay": 1164,
      "ĠOn": 1165,
      "Ġmoney": 1166,
      "aught": 1167,
      "ĠAr": 1168,
      "cle": 1169,
      "Ġhard": 1170,
      "ished": 1171,
      "ĠAt": 1172,
      "Ġnothing": 1173,
      "Ġnumber": 1174,
      "ndred": 1175,
      "ye": 1176,
      "Ġplease": 1177,
      "Ġdiffe": 1178,
      "ries": 1179,
      "ĠCha": 1180,
      "Ġblack": 1181,
      "Ġwar": 1182,
      "Ġwee": 1183,
      "the": 1184,
      "Ġwatch": 1185,
      "ness": 1186,
      "ĠâĢĵ": 1187,
      "ower": 1188,
      "Ġhundred": 1189,
      "Ġstick": 1190,
      "ĠKing": 1191,
      "Ġbelie": 1192,
      "Ġmar": 1193,
      "ĠNow": 1194,
      "ĠDon": 1195,
      "Ġgi": 1196,
      "Ġsit": 1197,
      "Ġacc": 1198,
      "Ġob": 1199,
      "usic": 1200,
      "ellow": 1201,
      "ĠDe": 1202,
      "ope": 1203,
      "erson": 1204,
      "pect": 1205,
      "Ġ200": 1206,
      "ES": 1207,
      "ĠNew": 1208,
      "ph": 1209,
      "Ġret": 1210,
      "anc": 1211,
      "Ġgre": 1212,
      "ger": 1213,
      "oon": 1214,
      "Ġhold": 1215,
      "leep": 1216,
      "ween": 1217,
      "gether": 1218,
      "ret": 1219,
      "Ġtogether": 1220,
      "Ġac": 1221,
      "Ġhappened": 1222,
      "Ġknown": 1223,
      "ĠOkay": 1224,
      "Ġenough": 1225,
      "ets": 1226,
      "ĠMy": 1227,
      "Ġcourse": 1228,
      "ĠWhen": 1229,
      "Ġsays": 1230,
      "Ġyoung": 1231,
      "Ġgra": 1232,
      "ĠEng": 1233,
      "Ġuntil": 1234,
      "Ġcol": 1235,
      "Ġdat": 1236,
      "ial": 1237,
      "ĠFran": 1238,
      "orning": 1239,
      "Ġbad": 1240,
      "Ġbest": 1241,
      "ĠMiss": 1242,
      "ĠMrs": 1243,
      "Ġ4": 1244,
      "io": 1245,
      "Ġdied": 1246,
      "Ġsecond": 1247,
      "Ġwalk": 1248,
      "Ġupon": 1249,
      "ased": 1250,
      "LD": 1251,
      "Ġhear": 1252,
      "gr": 1253,
      "Ġisn": 1254,
      "The": 1255,
      "CO": 1256,
      "rist": 1257,
      "Ġeyes": 1258,
      "Ġpick": 1259,
      "ton": 1260,
      "Ġstand": 1261,
      "Ġsur": 1262,
      "Ġbetween": 1263,
      "Ġ_": 1264,
      "Ġdoor": 1265,
      "Ġthough": 1266,
      "fta": 1267,
      "Ġasked": 1268,
      "Ġmat": 1269,
      "oud": 1270,
      "ĠFor": 1271,
      "Ġsilver": 1272,
      "ĠAmerican": 1273,
      "Ġsorry": 1274,
      "Ġhafta": 1275,
      "ĠCan": 1276,
      "Ġfall": 1277,
      "oup": 1278,
      "Ġquite": 1279,
      "Ġalright": 1280,
      "eak": 1281,
      "Ġhimself": 1282,
      "mb": 1283,
      "Ġball": 1284,
      "ta": 1285,
      "Ġchildren": 1286,
      "ible": 1287,
      "ib": 1288,
      "Ġpoint": 1289,
      "Ġbed": 1290,
      "az": 1291,
      "Ġbit": 1292,
      "ubl": 1293,
      "oice": 1294,
      "ĠThen": 1295,
      "Ġmorning": 1296,
      "Ġlist": 1297,
      "\".": 1298,
      "uff": 1299,
      "Ġchar": 1300,
      "Ġside": 1301,
      "Ġlight": 1302,
      "aut": 1303,
      "ĠAd": 1304,
      "ject": 1305,
      "ures": 1306,
      "EL": 1307,
      "uring": 1308,
      "Ġrel": 1309,
      "ale": 1310,
      "ired": 1311,
      "ĠThan": 1312,
      "ohn": 1313,
      "Ġsmall": 1314,
      "Ġkill": 1315,
      "Ġcoming": 1316,
      "Ġonce": 1317,
      "Ġhm": 1318,
      "Ġmil": 1319,
      "Ġdist": 1320,
      "Ġpass": 1321,
      "Ġhur": 1322,
      "ĠZ": 1323,
      "Ġboth": 1324,
      "ents": 1325,
      "Ġwanted": 1326,
      "ollow": 1327,
      "enc": 1328,
      "ĠJan": 1329,
      "Ġface": 1330,
      "ĠNot": 1331,
      "Ġborn": 1332,
      "Ġseen": 1333,
      "addy": 1334,
      "Ġwithout": 1335,
      "Ġagainst": 1336,
      "Ġleave": 1337,
      "Ġfew": 1338,
      "Ġhigh": 1339,
      "Ġknew": 1340,
      "ĠRe": 1341,
      "Ġ18": 1342,
      "ched": 1343,
      "vie": 1344,
      "Ġmind": 1345,
      "une": 1346,
      "ged": 1347,
      "Ġtoday": 1348,
      "ross": 1349,
      "ĠStates": 1350,
      "ĠHey": 1351,
      "ters": 1352,
      "Ġpretty": 1353,
      "Ġlooking": 1354,
      "Ġheard": 1355,
      "ĠJust": 1356,
      "ork": 1357,
      "ĠCl": 1358,
      "Ġent": 1359,
      "iet": 1360,
      "Ġstory": 1361,
      "Ġred": 1362,
      "Ġtop": 1363,
      "Ġdifferent": 1364,
      "Ġbase": 1365,
      "Ġeach": 1366,
      "ank": 1367,
      "Ġheart": 1368,
      "ĠAf": 1369,
      "Ġthank": 1370,
      "ING": 1371,
      "ered": 1372,
      "Ġbro": 1373,
      "Ġter": 1374,
      "oint": 1375,
      "),": 1376,
      "Ġreg": 1377,
      "ctor": 1378,
      "Ġhung": 1379,
      "Ġstud": 1380,
      "ning": 1381,
      "ĠEd": 1382,
      "ics": 1383,
      "Ġcons": 1384,
      "Ġeight": 1385,
      "raw": 1386,
      "enty": 1387,
      "ĠJohn": 1388,
      "ffe": 1389,
      "Ġstr": 1390,
      "ĠMay": 1391,
      "Ġeverything": 1392,
      "most": 1393,
      "Ġ199": 1394,
      "aper": 1395,
      "Ġmet": 1396,
      "ier": 1397,
      "cha": 1398,
      "Ġshall": 1399,
      "ener": 1400,
      "Ġ5": 1401,
      "Ġdec": 1402,
      "Ġhat": 1403,
      "orth": 1404,
      "Ġgetting": 1405,
      "Ġyet": 1406,
      "Ġlater": 1407,
      "Ġtable": 1408,
      "ĠSp": 1409,
      "Ġsong": 1410,
      "Ġwhole": 1411,
      "Ġlooked": 1412,
      "Ġkid": 1413,
      "Ġrest": 1414,
      "Ġdri": 1415,
      "ĠInd": 1416,
      "ĠGod": 1417,
      "cial": 1418,
      "Ġtalking": 1419,
      "Ġfr": 1420,
      "ĠLet": 1421,
      "ason": 1422,
      "Ġhands": 1423,
      "Ġgave": 1424,
      "Ġperson": 1425,
      "ĠEr": 1426,
      "ĠChrist": 1427,
      "rib": 1428,
      "Ġsleep": 1429,
      "Ġsoon": 1430,
      "Ġwasn": 1431,
      "Ġate": 1432,
      "ĠRoss": 1433,
      "Ġinv": 1434,
      "less": 1435,
      "ife": 1436,
      "Ġsk": 1437,
      "stand": 1438,
      "Ġwrite": 1439,
      "Ġmagn": 1440,
      "Ġfollow": 1441,
      "Ġfood": 1442,
      "Ġcity": 1443,
      "Ġair": 1444,
      "Ġdoll": 1445,
      "ames": 1446,
      "Ġcat": 1447,
      "Ġmaybe": 1448,
      "uss": 1449,
      "its": 1450,
      "any": 1451,
      "osed": 1452,
      "Ġsince": 1453,
      "Ġfamily": 1454,
      "Ġtown": 1455,
      "Ġpict": 1456,
      "ably": 1457,
      "onder": 1458,
      "Ġbeaut": 1459,
      "Ġgoes": 1460,
      "ĠCome": 1461,
      "Ġsent": 1462,
      "Ġca": 1463,
      "hip": 1464,
      "Ġzz": 1465,
      "Ġmove": 1466,
      "Ġdays": 1467,
      "huh": 1468,
      "oor": 1469,
      "Ġhaving": 1470,
      "Ġzzz": 1471,
      "ision": 1472,
      "OU": 1473,
      "ok": 1474,
      "ertain": 1475,
      "Ġfire": 1476,
      "me": 1477,
      "ĠTHE": 1478,
      "Ġans": 1479,
      "Ġwind": 1480,
      "aster": 1481,
      ").": 1482,
      "Ġinst": 1483,
      "Ġhalf": 1484,
      "ined": 1485,
      "Ġbelieve": 1486,
      "Ġerm": 1487,
      "ape": 1488,
      "ating": 1489,
      "Ġmeet": 1490,
      "der": 1491,
      "Ġround": 1492,
      "Ġsn": 1493,
      "Ġgirls": 1494,
      "vern": 1495,
      "ĠGo": 1496,
      "ĠPr": 1497,
      "ĠSar": 1498,
      "tle": 1499,
      "ounc": 1500,
      "ines": 1501,
      "pped": 1502,
      "Ġgone": 1503,
      "Ġbring": 1504,
      "Ġstarted": 1505,
      "Ġpop": 1506,
      "Ġvoice": 1507,
      "ready": 1508,
      "pr": 1509,
      "iness": 1510,
      "ash": 1511,
      "Ġlive": 1512,
      "ĠSc": 1513,
      "ote": 1514,
      "Ġanim": 1515,
      "Ġquest": 1516,
      "und": 1517,
      "ike": 1518,
      "uth": 1519,
      "Ġaw": 1520,
      "sel": 1521,
      "Ġdear": 1522,
      "eng": 1523,
      "ball": 1524,
      "den": 1525,
      "Ġready": 1526,
      "rew": 1527,
      "Ġbrother": 1528,
      "Ġdrink": 1529,
      "cept": 1530,
      "ĠPh": 1531,
      "Ġlo": 1532,
      "Ġsaying": 1533,
      "Ġalready": 1534,
      "Ġhungry": 1535,
      "ney": 1536,
      "elt": 1537,
      "orrow": 1538,
      "Ġplan": 1539,
      "Ġson": 1540,
      "Ġfif": 1541,
      "Ġsy": 1542,
      "Ġpiece": 1543,
      "aj": 1544,
      "Ġmaking": 1545,
      "ey": 1546,
      "ither": 1547,
      "Ġdire": 1548,
      "Ġhor": 1549,
      "ully": 1550,
      "ual": 1551,
      "Ġhour": 1552,
      "Ġ198": 1553,
      "Ġwrong": 1554,
      "ĠHis": 1555,
      "Ġid": 1556,
      "ised": 1557,
      "Ġcap": 1558,
      "Ġhey": 1559,
      "Ġalmost": 1560,
      "LO": 1561,
      "cted": 1562,
      "ern": 1563,
      "Ġdep": 1564,
      "ex": 1565,
      "ĠCom": 1566,
      "Ġcut": 1567,
      "ĠGer": 1568,
      "lish": 1569,
      "ery": 1570,
      "aken": 1571,
      "Ġbuild": 1572,
      "Ġsound": 1573,
      "Ġlaugh": 1574,
      "aid": 1575,
      "iful": 1576,
      "Ġtrying": 1577,
      "Ġcountry": 1578,
      "Ġbreak": 1579,
      "ows": 1580,
      "Ġimp": 1581,
      "br": 1582,
      "Ġfoot": 1583,
      "Ġalong": 1584,
      "Ġwonder": 1585,
      "Ġhot": 1586,
      "Ġmiss": 1587,
      "ustr": 1588,
      "Ġexc": 1589,
      "Ġ6": 1590,
      "clud": 1591,
      "Ġunderstand": 1592,
      "Ġi": 1593,
      "ivers": 1594,
      "Ġ7": 1595,
      "Ġfriends": 1596,
      "wer": 1597,
      "Ġfight": 1598,
      "ison": 1599,
      "ield": 1600,
      "Ġmeans": 1601,
      "ĠAre": 1602,
      "Ġref": 1603,
      "Ġlar": 1604,
      "Ġcent": 1605,
      "Ġdisc": 1606,
      "wards": 1607,
      "Ġreturn": 1608,
      "Ġsort": 1609,
      "eth": 1610,
      "ues": 1611,
      "Ġsub": 1612,
      "Ġeas": 1613,
      "You": 1614,
      "Ġlooks": 1615,
      "ober": 1616,
      "Ã©": 1617,
      "Ġrep": 1618,
      "aces": 1619,
      "Ġbecame": 1620,
      "EN": 1621,
      "ities": 1622,
      "Ġwouldn": 1623,
      "ĠLook": 1624,
      "\",": 1625,
      "ining": 1626,
      "COL": 1627,
      "Ġland": 1628,
      "Ġpaper": 1629,
      "Ġwoman": 1630,
      "sh": 1631,
      "ten": 1632,
      "ĠTo": 1633,
      "ular": 1634,
      "Ġ8": 1635,
      "ĠQ": 1636,
      "app": 1637,
      "Ġactually": 1638,
      "Ġage": 1639,
      "Ġgame": 1640,
      "Ġmoment": 1641,
      "Ġadd": 1642,
      "UN": 1643,
      "ped": 1644,
      "oke": 1645,
      "Ġguess": 1646,
      "ON": 1647,
      "ative": 1648,
      "ĠFl": 1649,
      "Ġbegan": 1650,
      "ax": 1651,
      "erest": 1652,
      "ush": 1653,
      "ury": 1654,
      "eb": 1655,
      "Ġtwenty": 1656,
      "Ġri": 1657,
      "olog": 1658,
      "eed": 1659,
      "Ġten": 1660,
      "isit": 1661,
      "aint": 1662,
      "Ġlead": 1663,
      "ĠWho": 1664,
      "Ġfine": 1665,
      "ĠOne": 1666,
      "ĠHer": 1667,
      "Ġspeak": 1668,
      "Ġmm": 1669,
      "Ġyellow": 1670,
      "ĠWill": 1671,
      "Ġguy": 1672,
      "ĠDid": 1673,
      "Ġtre": 1674,
      "to": 1675,
      "19": 1676,
      "Ġhum": 1677,
      "Ġproble": 1678,
      "ĠWhere": 1679,
      "aul": 1680,
      "ants": 1681,
      "Ġwhite": 1682,
      "ital": 1683,
      "Ġdeath": 1684,
      "Ġguys": 1685,
      "Ġbeautiful": 1686,
      "ĠCount": 1687,
      "ĠSarah": 1688,
      "Ġfore": 1689,
      "unt": 1690,
      "Ġfro": 1691,
      "Ġinc": 1692,
      "ony": 1693,
      "Ġ197": 1694,
      "Ġidea": 1695,
      "Ġlost": 1696,
      "ster": 1697,
      "Ġnear": 1698,
      ".âĢĿ": 1699,
      "Ġclose": 1700,
      "ene": 1701,
      "Ġparty": 1702,
      "Ġprom": 1703,
      "Ġtri": 1704,
      "Ġstuff": 1705,
      "ple": 1706,
      "Ġinf": 1707,
      "Ġdro": 1708,
      "Ġpresent": 1709,
      "Ġrecord": 1710,
      "Ġturned": 1711,
      "cess": 1712,
      "Ġsign": 1713,
      "ĠThank": 1714,
      "Ġfact": 1715,
      "Ġposs": 1716,
      "Ġhappy": 1717,
      "Ġphone": 1718,
      "bably": 1719,
      "oes": 1720,
      "Ġass": 1721,
      "ole": 1722,
      "Ġtele": 1723,
      "ÃŃ": 1724,
      "Ġcoll": 1725,
      "Ġsun": 1726,
      "Ġ9": 1727,
      "Ġbrought": 1728,
      "Ġcertain": 1729,
      "ept": 1730,
      "Ġbox": 1731,
      "Ġplaying": 1732,
      "Ġwords": 1733,
      "Oh": 1734,
      "Ġconf": 1735,
      "ĠMot": 1736,
      "ĠRight": 1737,
      "ages": 1738,
      "ĠAdam": 1739,
      "Ġduring": 1740,
      "Ġlisten": 1741,
      "----": 1742,
      "Ġpubl": 1743,
      "ouch": 1744,
      "Ġinterest": 1745,
      "Ġear": 1746,
      "Ġfull": 1747,
      "Ġcomes": 1748,
      "ĠCar": 1749,
      "Ġtimes": 1750,
      "eter": 1751,
      "ouble": 1752,
      "Ġlear": 1753,
      "Ġplayed": 1754,
      "AI": 1755,
      "Ġuhhuh": 1756,
      "Ġstre": 1757,
      "by": 1758,
      "Ġweek": 1759,
      "ĠEnglish": 1760,
      "Ġpoor": 1761,
      "Ġpolit": 1762,
      "Ġpay": 1763,
      "Ġblue": 1764,
      "ring": 1765,
      "son": 1766,
      "Ġmonth": 1767,
      "ĠBl": 1768,
      "ense": 1769,
      "urs": 1770,
      "Ġteam": 1771,
      "unch": 1772,
      "Ġsister": 1773,
      "Ġmusic": 1774,
      "Ġrock": 1775,
      "ief": 1776,
      "Ġboys": 1777,
      "ution": 1778,
      "Ġmatter": 1779,
      "Ġbear": 1780,
      "ists": 1781,
      "ared": 1782,
      "Ġegg": 1783,
      "olly": 1784,
      "Ġhope": 1785,
      "Ġjob": 1786,
      "Ġdel": 1787,
      "Ġtaken": 1788,
      "no": 1789,
      "oe": 1790,
      "ama": 1791,
      "Ġmovie": 1792,
      "airs": 1793,
      "wh": 1794,
      "irth": 1795,
      "Ġable": 1796,
      "Ġext": 1797,
      "NA": 1798,
      "Ġwand": 1799,
      "Ġfell": 1800,
      "GLO": 1801,
      "pri": 1802,
      "Ġinclud": 1803,
      "fully": 1804,
      ",âĢĿ": 1805,
      "ying": 1806,
      "Ġwrit": 1807,
      "Ġherself": 1808,
      "It": 1809,
      "ze": 1810,
      "Ġminute": 1811,
      "ead": 1812,
      "gan": 1813,
      "utes": 1814,
      "ĠGe": 1815,
      "Ġmed": 1816,
      "Ġdress": 1817,
      "ĠSh": 1818,
      "amed": 1819,
      "lease": 1820,
      "Ġbeh": 1821,
      "Ġcir": 1822,
      "Ġdead": 1823,
      "Ġfelt": 1824,
      "ĠGood": 1825,
      "Ġgreen": 1826,
      "Ġking": 1827,
      "ned": 1828,
      "Ġwants": 1829,
      "where": 1830,
      "Ġmagnet": 1831,
      "room": 1832,
      "ĠPer": 1833,
      "Ġ10": 1834,
      "ĠPro": 1835,
      "Ġsomeone": 1836,
      "ma": 1837,
      "ese": 1838,
      "Ġmyself": 1839,
      "Ġart": 1840,
      "tain": 1841,
      "Ġgotta": 1842,
      "ik": 1843,
      "Ġprod": 1844,
      "ipp": 1845,
      "MEL": 1846,
      "Ġsat": 1847,
      "key": 1848,
      "Ġlaw": 1849,
      "icha": 1850,
      "Ġ196": 1851,
      "Ġleg": 1852,
      "uary": 1853,
      "Ġ,": 1854,
      "Ġinter": 1855,
      "Ġquick": 1856,
      "ided": 1857,
      "Ġcouldn": 1858,
      "Ġmakes": 1859,
      "Ġmine": 1860,
      "Ġletter": 1861,
      "Ġcup": 1862,
      "umb": 1863,
      "ald": 1864,
      "ĠFr": 1865,
      "ats": 1866,
      "ming": 1867,
      "Ġbar": 1868,
      "Ġ#": 1869,
      "Ġseemed": 1870,
      "not": 1871,
      "for": 1872,
      "Ġsim": 1873,
      "Ġbird": 1874,
      "Ġcontin": 1875,
      "Ġbra": 1876,
      "Ġsir": 1877,
      "rench": 1878,
      "used": 1879,
      "Ġhair": 1880,
      "Ġago": 1881,
      "idd": 1882,
      "eptember": 1883,
      "ises": 1884,
      "Ġlate": 1885,
      "Ġseven": 1886,
      "ica": 1887,
      "Ġoffic": 1888,
      "born": 1889,
      "Ġchair": 1890,
      "oub": 1891,
      "Ġpounds": 1892,
      "Ġprobably": 1893,
      "itc": 1894,
      "ner": 1895,
      "Ġgener": 1896,
      "ĠAfter": 1897,
      "Ġfront": 1898,
      "ator": 1899,
      "haps": 1900,
      "ĠCounty": 1901,
      "selves": 1902,
      "Ġloc": 1903,
      "ham": 1904,
      "ĠPaul": 1905,
      "Ġmilk": 1906,
      "ific": 1907,
      "Ġshort": 1908,
      "Ġbehind": 1909,
      "bum": 1910,
      "Ġsoft": 1911,
      "Ġrather": 1912,
      "Ġwood": 1913,
      "Ġfloor": 1914,
      "rest": 1915,
      "Ġstrong": 1916,
      "gin": 1917,
      "morrow": 1918,
      "Ġcry": 1919,
      "Ġbusiness": 1920,
      "Ġlived": 1921,
      "Ġgovern": 1922,
      "Ġbirth": 1923,
      "ousand": 1924,
      "itting": 1925,
      "ides": 1926,
      "Ġquestion": 1927,
      "Ġpri": 1928,
      "Ġinside": 1929,
      "ĠBro": 1930,
      "inner": 1931,
      "ĠGerman": 1932,
      "Ġswe": 1933,
      "Ġcolor": 1934,
      "Ġstate": 1935,
      "OR": 1936,
      "ĠSeptember": 1937,
      "ized": 1938,
      "Ġless": 1939,
      "la": 1940,
      "head": 1941,
      "Ġimport": 1942,
      "Ġoutside": 1943,
      "ians": 1944,
      "ize": 1945,
      "Ġwomen": 1946,
      "ati": 1947,
      "Ġcook": 1948,
      "ĠEx": 1949,
      "Ġpull": 1950,
      "Ġlady": 1951,
      "Ġhaven": 1952,
      "ments": 1953,
      "Ġminutes": 1954,
      "een": 1955,
      "ĠWor": 1956,
      "ĠFrance": 1957,
      "Ġev": 1958,
      "Ġdeal": 1959,
      "Ġsqu": 1960,
      "ots": 1961,
      "Ġed": 1962,
      "Ġsal": 1963,
      "ured": 1964,
      "irty": 1965,
      "fect": 1966,
      "nina": 1967,
      "Ġyep": 1968,
      "ĠSome": 1969,
      "ĠYour": 1970,
      "bo": 1971,
      "iversity": 1972,
      "ĠLe": 1973,
      "ĠPhil": 1974,
      "Ġtrue": 1975,
      "Ġthousand": 1976,
      "Ġ2022": 1977,
      "ĠBrit": 1978,
      "ĠAb": 1979,
      "ĠJanuary": 1980,
      "âĢĶ": 1981,
      "Ġ194": 1982,
      "Ġcur": 1983,
      "Ġalone": 1984,
      "Ġpicture": 1985,
      "men": 1986,
      "Ġes": 1987,
      "Ġserv": 1988,
      "Ġfrog": 1989,
      "ĠOr": 1990,
      "Ġgrand": 1991,
      "ĠBen": 1992,
      "Ġcase": 1993,
      "ention": 1994,
      "Ġpower": 1995,
      "ford": 1996,
      "read": 1997,
      "atur": 1998,
      "aughter": 1999,
      "uly": 2000,
      "Ġlay": 2001,
      "Ġforg": 2002,
      "Ġ195": 2003,
      "ism": 2004,
      "Ġbott": 2005,
      "Ġran": 2006,
      "ĠGu": 2007,
      "ĠPar": 2008,
      "ety": 2009,
      "ĠMan": 2010,
      "Ġlik": 2011,
      "pill": 2012,
      "ley": 2013,
      "ĠDaddy": 2014,
      "Ġalbum": 2015,
      "ugust": 2016,
      "Ġins": 2017,
      "Ġchange": 2018,
      "Ġcreat": 2019,
      "ones": 2020,
      "uts": 2021,
      "Ġtaking": 2022,
      "Ġroad": 2023,
      "Ġpar": 2024,
      "Ġyourself": 2025,
      "Ġhon": 2026,
      "ider": 2027,
      "Ġexpl": 2028,
      "uro": 2029,
      "Ġyup": 2030,
      "ĠDav": 2031,
      "arent": 2032,
      "aterpill": 2033,
      "Ġprot": 2034,
      "els": 2035,
      "Ġfunny": 2036,
      "rian": 2037,
      "CHILD": 2038,
      "ĠSha": 2039,
      "Ġste": 2040,
      "ĠEl": 2041,
      "erv": 2042,
      "range": 2043,
      "Ġfifty": 2044,
      "Ġdark": 2045,
      "Ġgiven": 2046,
      "ĠMarch": 2047,
      "Ġhurt": 2048,
      "ane": 2049,
      "arth": 2050,
      "Ġwin": 2051,
      "Ġdream": 2052,
      "Ġmark": 2053,
      "ears": 2054,
      "Ġwish": 2055,
      "IC": 2056,
      "ches": 2057,
      "Ġoften": 2058,
      "ĠDr": 2059,
      "Ġtrain": 2060,
      "Ġbutter": 2061,
      "Ġbody": 2062,
      "ĠWith": 2063,
      "ĠHar": 2064,
      "Ġtrans": 2065,
      "Ġfeet": 2066,
      "pril": 2067,
      "Ġpu": 2068,
      "ask": 2069,
      "ilt": 2070,
      "Ġarea": 2071,
      "angu": 2072,
      "Ġones": 2073,
      "Ġgod": 2074,
      "ĠYork": 2075,
      "Ġprof": 2076,
      "com": 2077,
      "Ġ?": 2078,
      "ĠSw": 2079,
      "ĠYOU": 2080,
      "What": 2081,
      "gy": 2082,
      "mother": 2083,
      "Ġcold": 2084,
      "Ġwife": 2085,
      "iously": 2086,
      "point": 2087,
      "ĠAugust": 2088,
      "Ġquiet": 2089,
      "Ġhist": 2090,
      "ices": 2091,
      "Ġform": 2092,
      "bit": 2093,
      "ĠFrench": 2094,
      "GAI": 2095,
      "Ġrele": 2096,
      "Ġliving": 2097,
      "ctober": 2098,
      "Ġchildes": 2099,
      "CHILDES": 2100,
      "Ġem": 2101,
      "but": 2102,
      "AL": 2103,
      "rs": 2104,
      "Ġâ": 2105,
      "ĠHere": 2106,
      "ĠMm": 2107,
      "ĠGr": 2108,
      "Ġleast": 2109,
      "ĠCon": 2110,
      "Ġworking": 2111,
      "Ġbuy": 2112,
      "Ġhorse": 2113,
      "Chi": 2114,
      "aterpillar": 2115,
      "Ġfav": 2116,
      "Ġtried": 2117,
      "Ġdraw": 2118,
      "artment": 2119,
      "ĠWorld": 2120,
      "aur": 2121,
      "Ġdi": 2122,
      "Ġlarge": 2123,
      "Ġmill": 2124,
      "Ġjump": 2125,
      "ards": 2126,
      "rence": 2127,
      "Ġleng": 2128,
      "Ġnamed": 2129,
      "icip": 2130,
      "Ġtree": 2131,
      "Ġgrow": 2132,
      "Ġnews": 2133,
      "Ġanswer": 2134,
      "rap": 2135,
      "Ġfig": 2136,
      "Ġtape": 2137,
      "Ġwear": 2138,
      "ently": 2139,
      "ĠTw": 2140,
      "Ġreason": 2141,
      "ately": 2142,
      "ained": 2143,
      "GR": 2144,
      "fort": 2145,
      "Ġfair": 2146,
      "ummer": 2147,
      "Ġsometimes": 2148,
      "ĠApril": 2149,
      "vision": 2150,
      "ĠChar": 2151,
      "Ġeither": 2152,
      "ĠPres": 2153,
      "Ġpast": 2154,
      "ĠPl": 2155,
      "Ġexpect": 2156,
      "ĠBecause": 2157,
      "ional": 2158,
      "aim": 2159,
      "ĠPe": 2160,
      "more": 2161,
      "rict": 2162,
      "Ġsea": 2163,
      "Ġtea": 2164,
      "let": 2165,
      "ĠJe": 2166,
      "co": 2167,
      "Ġothers": 2168,
      "Yes": 2169,
      "ĠOctober": 2170,
      "ĠGeor": 2171,
      "Ġbat": 2172,
      "Ġz": 2173,
      "Ġocc": 2174,
      "Ġclass": 2175,
      "mas": 2176,
      "Ġline": 2177,
      "ĠOf": 2178,
      "Ġmess": 2179,
      "Ġlangu": 2180,
      "Ġblock": 2181,
      "Ġimportant": 2182,
      "20": 2183,
      "Ġlives": 2184,
      "ament": 2185,
      "rit": 2186,
      "itten": 2187,
      "RE": 2188,
      "Ġadv": 2189,
      "Ġ17": 2190,
      "Ġjo": 2191,
      "ĠWar": 2192,
      "Ġmember": 2193,
      "Ġkids": 2194,
      "alth": 2195,
      "Ġattack": 2196,
      "Ġtill": 2197,
      "Ġsend": 2198,
      "enn": 2199,
      "Ġpur": 2200,
      "ature": 2201,
      "ĠMe": 2202,
      "ï¿½ï¿½ï¿½ï¿½": 2203,
      "ĠEvery": 2204,
      "Ġreport": 2205,
      "Ġanimals": 2206,
      "de": 2207,
      "ĠAm": 2208,
      "ĠTr": 2209,
      "Ġmoon": 2210,
      "ler": 2211,
      "rie": 2212,
      "ĠEuro": 2213,
      "Ġdad": 2214,
      "Ġhi": 2215,
      "Ġrece": 2216,
      "ula": 2217,
      "ĠPlease": 2218,
      "Ġsold": 2219,
      "Ļª": 2220,
      "000": 2221,
      "Ġfree": 2222,
      "Ġnine": 2223,
      "ai": 2224,
      "ls": 2225,
      "Ġbecome": 2226,
      "Ġconc": 2227,
      "Ġcompany": 2228,
      "Ġtomorrow": 2229,
      "Ġkilled": 2230,
      "ĠBar": 2231,
      "ĠâĻª": 2232,
      "gue": 2233,
      "ĠAN": 2234,
      "ĠRep": 2235,
      "Ġglad": 2236,
      "Ġmain": 2237,
      "osp": 2238,
      "Ġ15": 2239,
      "ement": 2240,
      "Ġconst": 2241,
      "And": 2242,
      "Ġexp": 2243,
      "Ġteac": 2244,
      "Ġacross": 2245,
      "Ġap": 2246,
      "Ġorder": 2247,
      "raid": 2248,
      "Ġcamp": 2249,
      "Ġstar": 2250,
      "Ġclean": 2251,
      "ality": 2252,
      "ken": 2253,
      "Ġmer": 2254,
      "arch": 2255,
      "Ġtoys": 2256,
      "Ġheld": 2257,
      "Ġamong": 2258,
      "Ġearly": 2259,
      "No": 2260,
      "Ġcried": 2261,
      "Ġice": 2262,
      "Ġvisit": 2263,
      "Ġthinking": 2264,
      "Ġ2017": 2265,
      "Ġbirthday": 2266,
      "ĠDavid": 2267,
      "Ġmis": 2268,
      "ĠRuss": 2269,
      "Ġworked": 2270,
      "Ġ12": 2271,
      "ara": 2272,
      "Ġstra": 2273,
      "Ġobject": 2274,
      "ffee": 2275,
      "Ġproblem": 2276,
      "ges": 2277,
      "ĠNe": 2278,
      "Ġfix": 2279,
      "ached": 2280,
      "Ġgets": 2281,
      "AS": 2282,
      "che": 2283,
      "Ġann": 2284,
      "icks": 2285,
      "Ġwall": 2286,
      "Ġfast": 2287,
      "Ġhit": 2288,
      "Ġreleased": 2289,
      "Ġgroup": 2290,
      "Ġband": 2291,
      "Ġnoise": 2292,
      "Ġeating": 2293,
      "itty": 2294,
      "ĠUniversity": 2295,
      "Ġcheck": 2296,
      "dden": 2297,
      "lo": 2298,
      "Ġfly": 2299,
      "aced": 2300,
      "Ġcor": 2301,
      "iddle": 2302,
      "Ġclear": 2303,
      "HS": 2304,
      "Ġrepl": 2305,
      "Ġfing": 2306,
      "Ġsomebody": 2307,
      "Ġ193": 2308,
      "Ġhell": 2309,
      "Ġfinished": 2310,
      "ĠMarky": 2311,
      "ened": 2312,
      "Ġill": 2313,
      "Ġah": 2314,
      "Ġopp": 2315,
      "Ġbooks": 2316,
      "ĠMin": 2317,
      "ĠMother": 2318,
      "stem": 2319,
      "Ġdaddy": 2320,
      "imb": 2321,
      "ĠCol": 2322,
      "owed": 2323,
      "Ġtrouble": 2324,
      "cy": 2325,
      "ĠItal": 2326,
      "Ġmarried": 2327,
      "Ġafraid": 2328,
      "Ġsingle": 2329,
      "ED": 2330,
      "Ġ16": 2331,
      "Ġdem": 2332,
      "dy": 2333,
      "Ġton": 2334,
      "iny": 2335,
      "Ġdra": 2336,
      "Ġsudden": 2337,
      "urch": 2338,
      "Ġcompet": 2339,
      "inning": 2340,
      "Ġpain": 2341,
      "Ġ...": 2342,
      "ility": 2343,
      "Ġadm": 2344,
      "ait": 2345,
      "entle": 2346,
      "Ġspe": 2347,
      "ived": 2348,
      "Ġcond": 2349,
      "Ġcaterpillar": 2350,
      "Ġloud": 2351,
      "ician": 2352,
      "Ġsever": 2353,
      "ĠTO": 2354,
      "ĠEngland": 2355,
      "Ġya": 2356,
      "Ġnin": 2357,
      "illy": 2358,
      "Ġcorn": 2359,
      "Ġpos": 2360,
      "ically": 2361,
      "AUN": 2362,
      "music": 2363,
      "Ġfish": 2364,
      "fic": 2365,
      "Ġcoffee": 2366,
      "Ġforget": 2367,
      "cient": 2368,
      "Ġchance": 2369,
      "Ġtoy": 2370,
      "ering": 2371,
      "Ġresp": 2372,
      "ĠâĢĺ": 2373,
      "Ġdaughter": 2374,
      "then": 2375,
      "Ġkept": 2376,
      "Ġsweet": 2377,
      "Ġvill": 2378,
      "Ġeng": 2379,
      "ĠChristmas": 2380,
      "Ġpublic": 2381,
      "Ġbag": 2382,
      "Ġeye": 2383,
      "raz": 2384,
      "Ġgovernment": 2385,
      "We": 2386,
      "rand": 2387,
      "ana": 2388,
      "Ġsca": 2389,
      "'.": 2390,
      "ox": 2391,
      "phan": 2392,
      "Ġhoney": 2393,
      "Ġseveral": 2394,
      "band": 2395,
      "ued": 2396,
      "Ġhors": 2397,
      "ising": 2398,
      "Ġsurpr": 2399,
      "ĠMary": 2400,
      "ĠBritish": 2401,
      "Ġthemselves": 2402,
      "itchen": 2403,
      "eared": 2404,
      "oman": 2405,
      "Ġprov": 2406,
      "ode": 2407,
      "iam": 2408,
      "anger": 2409,
      "Ġstore": 2410,
      "Ġgold": 2411,
      "Ġow": 2412,
      "Ġmur": 2413,
      "ĠWas": 2414,
      "Ġwindow": 2415,
      "ays": 2416,
      "ains": 2417,
      "Ġmonths": 2418,
      "Ġdinner": 2419,
      "owers": 2420,
      "ĠThese": 2421,
      "laughing": 2422,
      "ories": 2423,
      "ĠSir": 2424,
      "Ġwithin": 2425,
      "Ġground": 2426,
      "Ġtouch": 2427,
      "But": 2428,
      "Ġnational": 2429,
      "Ġevent": 2430,
      "Ġmouth": 2431,
      "idge": 2432,
      "ĠJuly": 2433,
      "ĠEurope": 2434,
      "ĠSe": 2435,
      "Ġkitchen": 2436,
      "Ġmommy": 2437,
      "ajor": 2438,
      "Ġwhis": 2439,
      "Ġ11": 2440,
      "ello": 2441,
      "velop": 2442,
      "Ġgoin": 2443,
      "Ġeasy": 2444,
      "Ġaren": 2445,
      "ted": 2446,
      "]?": 2447,
      "Ġbath": 2448,
      "ĠTom": 2449,
      "Ġstood": 2450,
      "ĠComm": 2451,
      "Ġmot": 2452,
      "ĠPresident": 2453,
      "Ġfil": 2454,
      "Ġknows": 2455,
      "Ġrunning": 2456,
      "ĠCity": 2457,
      "overed": 2458,
      "Ġpot": 2459,
      "Ġhop": 2460,
      "iding": 2461,
      "âĢĵ": 2462,
      "Ġclot": 2463,
      "rey": 2464,
      "Ġgun": 2465,
      "ĠAh": 2466,
      "irt": 2467,
      "iron": 2468,
      "ovember": 2469,
      "Ġwhether": 2470,
      ",--": 2471,
      "gram": 2472,
      "ĠDad": 2473,
      "Ġeverybody": 2474,
      "Ġsitting": 2475,
      "Ġorgan": 2476,
      "Ġperhaps": 2477,
      "you": 2478,
      "actly": 2479,
      "Ġarm": 2480,
      "ruary": 2481,
      "ebruary": 2482,
      "asure": 2483,
      "cember": 2484,
      "Ġstru": 2485,
      "ov": 2486,
      "Ġabove": 2487,
      "ET": 2488,
      "Ġdoctor": 2489,
      "points": 2490,
      "nes": 2491,
      "Ġtem": 2492,
      "Ġfa": 2493,
      "ude": 2494,
      "ĠJack": 2495,
      "ĠBy": 2496,
      "ĠUh": 2497,
      "ĠTe": 2498,
      "Ġcake": 2499,
      "Ġcross": 2500,
      ".'": 2501,
      "yl": 2502,
      "bs": 2503,
      "iver": 2504,
      "ĠCap": 2505,
      "Ġ2021": 2506,
      "Ġexper": 2507,
      "Ġdef": 2508,
      "Ġblood": 2509,
      "ccess": 2510,
      "sing": 2511,
      "Ġmist": 2512,
      "urg": 2513,
      "Ġ!": 2514,
      "lly": 2515,
      "Ġslow": 2516,
      "Ġtreat": 2517,
      "ĠPart": 2518,
      "Ġseries": 2519,
      "teen": 2520,
      "Ġsounds": 2521,
      "Ġhang": 2522,
      "oof": 2523,
      "ĠDor": 2524,
      "Ġyours": 2525,
      "Ġcomple": 2526,
      "ĠCal": 2527,
      "Ġseems": 2528,
      "Ġwrote": 2529,
      "ĠIN": 2530,
      "Ġspecial": 2531,
      "Ġlonger": 2532,
      "Ġtonight": 2533,
      "ĠX": 2534,
      "Ġty": 2535,
      "Ġsystem": 2536,
      "Ġgentle": 2537,
      "Ġpage": 2538,
      "con": 2539,
      "ĠSis": 2540,
      "Ġhuman": 2541,
      "HV": 2542,
      "Ġ2019": 2543,
      "Ġroll": 2544,
      "gar": 2545,
      "Ġest": 2546,
      "ium": 2547,
      "ĠGet": 2548,
      "LLD": 2549,
      "ĠEm": 2550,
      "Ġfootball": 2551,
      "HSLLD": 2552,
      "Ġoffice": 2553,
      "sc": 2554,
      "Ġwhose": 2555,
      "mpions": 2556,
      "Ġhours": 2557,
      "astic": 2558,
      "Ġinstead": 2559,
      "Ġthird": 2560,
      "ĠChe": 2561,
      "Ġtelling": 2562,
      "ounced": 2563,
      "Ġring": 2564,
      "Ġhowever": 2565,
      "ushed": 2566,
      "Ġdoub": 2567,
      "ĠNational": 2568,
      "Ġthrow": 2569,
      "Ġprofess": 2570,
      "ĠAg": 2571,
      "Ġstep": 2572,
      "que": 2573,
      "Ġboat": 2574,
      "Ġstreet": 2575,
      "ager": 2576,
      "ĠNovember": 2577,
      "Ġ13": 2578,
      "essie": 2579,
      "Ġtelevision": 2580,
      "ract": 2581,
      "Ġmeant": 2582,
      "unk": 2583,
      "Ġmod": 2584,
      "Ġride": 2585,
      "ĠJune": 2586,
      "dom": 2587,
      "Well": 2588,
      "Ġheav": 2589,
      "Ġ14": 2590,
      "ĠFebruary": 2591,
      "Ġevening": 2592,
      "Ġahead": 2593,
      "uthor": 2594,
      "unity": 2595,
      "Ġcand": 2596,
      "Ġanymore": 2597,
      "ĠHave": 2598,
      "Ġpartic": 2599,
      "mbers": 2600,
      "ondon": 2601,
      "Ġbuilt": 2602,
      "Ġappro": 2603,
      "ric": 2604,
      "Ġthirty": 2605,
      "ĠGreat": 2606,
      "usband": 2607,
      "Ġperfect": 2608,
      "Ġlad": 2609,
      "Ġhar": 2610,
      "Ġcarry": 2611,
      "ging": 2612,
      "joy": 2613,
      "Ġ2016": 2614,
      "rat": 2615,
      "itch": 2616,
      "ĠSant": 2617,
      "Ġwhatever": 2618,
      "Ġknock": 2619,
      "Ġsafe": 2620,
      "ĠDecember": 2621,
      "ouncil": 2622,
      "Ġwhom": 2623,
      "phone": 2624,
      "ĠFrom": 2625,
      "Ġpresident": 2626,
      "ored": 2627,
      "Ġanyone": 2628,
      "Ġbuilding": 2629,
      "Ġmillion": 2630,
      "ĠGeorge": 2631,
      "ĠSouth": 2632,
      "Ġsupport": 2633,
      "TER": 2634,
      "ĠLondon": 2635,
      "ĠMaybe": 2636,
      "ced": 2637,
      "ĠSu": 2638,
      "Ġtruck": 2639,
      "Ġprison": 2640,
      "Ġmoved": 2641,
      "Ġwritten": 2642,
      "Ġcoup": 2643,
      "Ġstanding": 2644,
      "Ġpassed": 2645,
      "ror": 2646,
      "Ġclos": 2647,
      "Ġtired": 2648,
      "amb": 2649,
      "rigin": 2650,
      "Ġglass": 2651,
      "Ġsave": 2652,
      "ĠEve": 2653,
      "Ġweeks": 2654,
      "Ġpark": 2655,
      "Ġdefe": 2656,
      "Ġ192": 2657,
      "ww": 2658,
      "ĠMa": 2659,
      "ĠHouse": 2660,
      "Ġnoises": 2661,
      "llustr": 2662,
      "Ġcontro": 2663,
      "come": 2664,
      "ron": 2665,
      "Ġcool": 2666,
      "ĠEdna": 2667,
      "Ġcirc": 2668,
      "Ġhistory": 2669,
      "Ġ2015": 2670,
      "Ġmount": 2671,
      "Ġcharac": 2672,
      "ĠAny": 2673,
      "Ġabs": 2674,
      "Ġswim": 2675,
      "Ġfit": 2676,
      "Ġtakes": 2677,
      "Ġru": 2678,
      "Ġwaiting": 2679,
      "terday": 2680,
      "Ġsand": 2681,
      "Ġdeep": 2682,
      "Ġfle": 2683,
      "ange": 2684,
      "ping": 2685,
      "Ġsick": 2686,
      "Ġhusband": 2687,
      "Ġlengthen": 2688,
      "Ġbow": 2689,
      "Ġtrees": 2690,
      "Ġlow": 2691,
      "ĠSec": 2692,
      "hold": 2693,
      "ressed": 2694,
      "Ġcop": 2695,
      "Ġlunch": 2696,
      "Ġdiv": 2697,
      "Ġdanger": 2698,
      "hin": 2699,
      "ilver": 2700,
      "unicip": 2701,
      "Ġwarm": 2702,
      "Ġbroke": 2703,
      "Ġbreat": 2704,
      "Ġcost": 2705,
      "ĠSee": 2706,
      "Ġ2020": 2707,
      "Ġteacher": 2708,
      "ĠNorth": 2709,
      "Ġcause": 2710,
      "Ġstraight": 2711,
      "fly": 2712,
      "Ġcast": 2713,
      "Ġparent": 2714,
      "iled": 2715,
      "Ġpossible": 2716,
      "emy": 2717,
      "Ġve": 2718,
      "Ġtest": 2719,
      "Ġdevelop": 2720,
      "Ġpretend": 2721,
      "ency": 2722,
      "Ġfinish": 2723,
      "IT": 2724,
      "ground": 2725,
      "Ġfear": 2726,
      "estern": 2727,
      "Ġsecret": 2728,
      "Ġsuppose": 2729,
      "ral": 2730,
      "Ġformer": 2731,
      "ĠUrs": 2732,
      "Ġspell": 2733,
      "eal": 2734,
      "Ġcertainly": 2735,
      "iter": 2736,
      "ĠCH": 2737,
      "ternational": 2738,
      "ĠSund": 2739,
      "Ġda": 2740,
      "idence": 2741,
      "resent": 2742,
      "Ġwriting": 2743,
      "Ġpen": 2744,
      "stairs": 2745,
      "Ġspace": 2746,
      "Ġpuzz": 2747,
      "mo": 2748,
      "par": 2749,
      "reed": 2750,
      "uced": 2751,
      "Ġfur": 2752,
      "ĠDan": 2753,
      "Ġindeed": 2754,
      ",'": 2755,
      "AY": 2756,
      "Ġreturned": 2757,
      "Ġmembers": 2758,
      "Ġju": 2759,
      "Ġplaces": 2760,
      "uct": 2761,
      "Ġcannot": 2762,
      "Ġdisapp": 2763,
      "Ġyesterday": 2764,
      "Ġelephan": 2765,
      "fer": 2766,
      "Ġcaught": 2767,
      "att": 2768,
      "Ġseem": 2769,
      "Ġfeeling": 2770,
      "Ġsnow": 2771,
      "Ġriver": 2772,
      "ospital": 2773,
      "Ġpost": 2774,
      "Ġclothes": 2775,
      "Ġeveryone": 2776,
      "Ġluck": 2777,
      "Ġsuccess": 2778,
      "kes": 2779,
      "ĠLord": 2780,
      "Ġarri": 2781,
      "Ġexactly": 2782,
      "Ġcars": 2783,
      "Ġlengthened": 2784,
      "Ġfellow": 2785,
      "ĠLike": 2786,
      "ulation": 2787,
      "ĠThanks": 2788,
      "ĠWilliam": 2789,
      "OM": 2790,
      "oose": 2791,
      "Ġord": 2792,
      "Ġpolice": 2793,
      "Ġvar": 2794,
      "LE": 2795,
      "hern": 2796,
      "Ġoper": 2797,
      "Ġkiss": 2798,
      "Ġworks": 2799,
      "Ġsupposed": 2800,
      "Ġprotect": 2801,
      "oul": 2802,
      "Ġenjoy": 2803,
      "ior": 2804,
      "Ġmiddle": 2805,
      "iday": 2806,
      "Ġstri": 2807,
      "ĠKe": 2808,
      "Ġusually": 2809,
      "Ġarms": 2810,
      "though": 2811,
      "Ġspec": 2812,
      "Ġdrive": 2813,
      "ĠIndian": 2814,
      "Ġbes": 2815,
      "Ġdet": 2816,
      "ĠLea": 2817,
      "arden": 2818,
      "Ġ30": 2819,
      "Ġcouple": 2820,
      "Ġdecided": 2821,
      "over": 2822,
      "Ã¡": 2823,
      "rop": 2824,
      "Ġprogram": 2825,
      "lin": 2826,
      "Ġdiffic": 2827,
      "Ġtruth": 2828,
      "Ġcal": 2829,
      "Ġdere": 2830,
      "Ġvict": 2831,
      "Ġval": 2832,
      "ĠHello": 2833,
      "noon": 2834,
      "ĠEX": 2835,
      "Ġpieces": 2836,
      "encil": 2837,
      "ĠMer": 2838,
      "igg": 2839,
      "empt": 2840,
      "Ġclub": 2841,
      "Ġchanged": 2842,
      "Ġbroken": 2843,
      "llustration": 2844,
      "Ġdest": 2845,
      "Ġlanguage": 2846,
      "Ġpictures": 2847,
      "Ġorigin": 2848,
      "Ġ)": 2849,
      "ĠBo": 2850,
      "Ġbright": 2851,
      "Ġcream": 2852,
      "ID": 2853,
      "ĠAld": 2854,
      "Ġsell": 2855,
      "ĠOK": 2856,
      "Ġcheese": 2857,
      "Illustration": 2858,
      "rible": 2859,
      "Ġmunicip": 2860,
      "Ġdistrict": 2861,
      "ology": 2862,
      "That": 2863,
      "ĠEle": 2864,
      "Ġsuper": 2865,
      "Ġwild": 2866,
      "uri": 2867,
      "Ġang": 2868,
      "Ġfollowing": 2869,
      "US": 2870,
      "Ġpencil": 2871,
      "aser": 2872,
      "ĠAND": 2873,
      "look": 2874,
      "Ġsouth": 2875,
      "Ġworry": 2876,
      "Ġafternoon": 2877,
      "Ġpolitician": 2878,
      "ichard": 2879,
      "Ġputting": 2880,
      "Ġcareful": 2881,
      "Ġanyway": 2882,
      "icy": 2883,
      "ĠWest": 2884,
      "hire": 2885,
      "II": 2886,
      "ĠSm": 2887,
      "ĠHi": 2888,
      "He": 2889,
      "Ġgeneral": 2890,
      "Ġsoftly": 2891,
      "Ġï¿½": 2892,
      "ĠWal": 2893,
      "Ġlaughing": 2894,
      "Ġforward": 2895,
      "ĠPeter": 2896,
      "Ġuncle": 2897,
      "Ġcommon": 2898,
      "Ġhole": 2899,
      "ĠBessie": 2900,
      "Ġnorth": 2901,
      "Ġleaf": 2902,
      "Ġvillage": 2903,
      "ourn": 2904,
      "Ġanybody": 2905,
      "Ġchick": 2906,
      "Ġapple": 2907,
      "Ġvide": 2908,
      "Ġlevel": 2909,
      "Ġcomplete": 2910,
      "Ġbur": 2911,
      "Ġlearn": 2912,
      "Ġself": 2913,
      "Ġfavor": 2914,
      "Ġain": 2915,
      "ĠHen": 2916,
      "Ġdoubt": 2917,
      "iger": 2918,
      "ĠParty": 2919,
      "Ġarmy": 2920,
      "that": 2921,
      "wered": 2922,
      "bl": 2923,
      "Ġserved": 2924,
      "Ġliked": 2925,
      "ĠSunday": 2926,
      "Ġrul": 2927,
      "Ġimag": 2928,
      "Ġdepartment": 2929,
      "ris": 2930,
      "ĠRichard": 2931,
      "Ġneeds": 2932,
      "Ġtur": 2933,
      "Ġpoints": 2934,
      "ĠPol": 2935,
      "Ġpract": 2936,
      "ighb": 2937,
      "Ġ]": 2938,
      "night": 2939,
      "Ġequ": 2940,
      "Ġearth": 2941,
      "Ġ25": 2942,
      "Ġsus": 2943,
      "amer": 2944,
      "ĠGl": 2945,
      "ffic": 2946,
      "LL": 2947,
      "Ġstopped": 2948,
      "Ġfigure": 2949,
      "uce": 2950,
      "cent": 2951,
      "nce": 2952,
      "ĠCanad": 2953,
      "Ġfail": 2954,
      "ĠQue": 2955,
      "AP": 2956,
      "Ġcatch": 2957,
      "Ġhast": 2958,
      "yn": 2959,
      "Ġhappens": 2960,
      "Ġcareer": 2961,
      "go": 2962,
      "omb": 2963,
      "Ġnose": 2964,
      "Ġesc": 2965,
      "ĠOF": 2966,
      "Ġopened": 2967,
      "Ġusing": 2968,
      "Ġanswered": 2969,
      "Ġfield": 2970,
      "Ġstrange": 2971,
      "silver": 2972,
      "Ġmatch": 2973,
      "ended": 2974,
      "Ġwww": 2975,
      "Ġhello": 2976,
      "Ġcre": 2977,
      "aged": 2978,
      "ĠAnge": 2979,
      "Ġhorses": 2980,
      "lex": 2981,
      "ĠGermany": 2982,
      "Ġfill": 2983,
      "ĠSorry": 2984,
      "Ġeighty": 2985,
      "othy": 2986,
      "ĠTed": 2987,
      "Ġforty": 2988,
      "ording": 2989,
      "nel": 2990,
      "Ġauthor": 2991,
      "Ġproper": 2992,
      "Ġgiving": 2993,
      "Ġdie": 2994,
      "Ġquickly": 2995,
      "olved": 2996,
      "fast": 2997,
      "Ġhig": 2998,
      "hile": 2999,
      "Ġworth": 3000,
      "ample": 3001,
      "lt": 3002,
      "Ġtowards": 3003,
      "Ġbelong": 3004,
      "uke": 3005,
      "Ġsummer": 3006,
      "rod": 3007,
      "ege": 3008,
      "acy": 3009,
      "ĠBaby": 3010,
      "Ġav": 3011,
      "Ġprop": 3012,
      "bb": 3013,
      "ding": 3014,
      "reen": 3015,
      "Ġled": 3016,
      "Ġdev": 3017,
      "Ġ23": 3018,
      "ustral": 3019,
      "ti": 3020,
      "ceed": 3021,
      "Ġprin": 3022,
      "min": 3023,
      "Ġgrew": 3024,
      "ĠÃ": 3025,
      "Ġholding": 3026,
      "Ġshoot": 3027,
      "Ġtrust": 3028,
      "Ġdesign": 3029,
      "time": 3030,
      "what": 3031,
      "Ġshot": 3032,
      "Ġreceived": 3033,
      "Ġheavy": 3034,
      "Ġ24": 3035,
      "Ġmeeting": 3036,
      "Ġtast": 3037,
      "iew": 3038,
      "iced": 3039,
      "Ġexcept": 3040,
      "cell": 3041,
      "Ġparents": 3042,
      "Ġtot": 3043,
      "Ġbeat": 3044,
      "Ġseat": 3045,
      "iling": 3046,
      "MA": 3047,
      "Ġpat": 3048,
      "Ġlose": 3049,
      "ums": 3050,
      "Ġcover": 3051,
      "Ġship": 3052,
      "ino": 3053,
      "Ġpack": 3054,
      "Ġlau": 3055,
      "ĠAustral": 3056,
      "Ġforgot": 3057,
      "âĢĺ": 3058,
      "Ġburn": 3059,
      "Ġemp": 3060,
      "lands": 3061,
      "ĠSanta": 3062,
      "view": 3063,
      "ĠJeff": 3064,
      "chan": 3065,
      "inos": 3066,
      "oura": 3067,
      "ggest": 3068,
      "ops": 3069,
      "olute": 3070,
      "ogn": 3071,
      "uture": 3072,
      "Ġ21": 3073,
      "cially": 3074,
      "Ġrequ": 3075,
      "ĠNor": 3076,
      "order": 3077,
      "ichael": 3078,
      "Ġjuice": 3079,
      "Ġneighb": 3080,
      "Ġrad": 3081,
      "olution": 3082,
      "apan": 3083,
      "Ġcow": 3084,
      "Ġlab": 3085,
      "ille": 3086,
      "ffect": 3087,
      "cher": 3088,
      "Ġmaster": 3089,
      "field": 3090,
      "Ġhospital": 3091,
      "ĠNina": 3092,
      "now": 3093,
      "Ġstation": 3094,
      "Ġrain": 3095,
      "Ġreading": 3096,
      "Ġreached": 3097,
      "Ġsuggest": 3098,
      "cer": 3099,
      "Ġnobody": 3100,
      "GRA": 3101,
      "iers": 3102,
      "ĠCent": 3103,
      "ified": 3104,
      "ĠDorothy": 3105,
      "ills": 3106,
      "ĠâĢľâĢĺ": 3107,
      "Ġwonderful": 3108,
      "Ġposition": 3109,
      "ius": 3110,
      "ira": 3111,
      "Ġsevent": 3112,
      "CH": 3113,
      "Ġpress": 3114,
      "ĠErm": 3115,
      "ĠIT": 3116,
      "gest": 3117,
      "Ġspir": 3118,
      "ances": 3119,
      "Ġquar": 3120,
      "Ġla": 3121,
      "Ġflowers": 3122,
      "Ġsol": 3123,
      "Ġconsider": 3124,
      "iol": 3125,
      "ips": 3126,
      "mon": 3127,
      "ases": 3128,
      "Ġexcl": 3129,
      "ĠAfr": 3130,
      "Ġtit": 3131,
      "Ġsuddenly": 3132,
      "Ġsight": 3133,
      "ĠSy": 3134,
      "Ġfort": 3135,
      "Ġshoes": 3136,
      "Ġletters": 3137,
      "ĠTwo": 3138,
      "AM": 3139,
      "Ġdanc": 3140,
      "ĠMc": 3141,
      "Ġstarts": 3142,
      "Ġinform": 3143,
      "Ġmad": 3144,
      "Ġthou": 3145,
      "ĠRea": 3146,
      "ander": 3147,
      "Ġplate": 3148,
      "ization": 3149,
      "OW": 3150,
      "Ġnor": 3151,
      "ĠBear": 3152,
      "Ġsense": 3153,
      "ĠNet": 3154,
      "ctions": 3155,
      "Ġloved": 3156,
      "Ġban": 3157,
      "ROG": 3158,
      "Ġforest": 3159,
      "Ġscared": 3160,
      "viously": 3161,
      "Ġseason": 3162,
      "Ġneck": 3163,
      "Ġfollowed": 3164,
      "itz": 3165,
      "ĠPark": 3166,
      "ĠEven": 3167,
      "ĠJo": 3168,
      "Ġsugar": 3169,
      "Ġsupper": 3170,
      "por": 3171,
      "Ġce": 3172,
      "Ġtail": 3173,
      "ĠCo": 3174,
      "Ġdogg": 3175,
      "Ġcommune": 3176,
      "Ġeduc": 3177,
      "Ġtap": 3178,
      "Ġhol": 3179,
      "Ġhous": 3180,
      "Ġbread": 3181,
      "--------": 3182,
      "work": 3183,
      "yer": 3184,
      "ĠJane": 3185,
      "aimed": 3186,
      "ĠPeople": 3187,
      "ograp": 3188,
      "EX": 3189,
      "well": 3190,
      "Ġsad": 3191,
      "ĠMichael": 3192,
      "ocol": 3193,
      "ĠTell": 3194,
      "Ġbrown": 3195,
      "ĠList": 3196,
      "Ġgarden": 3197,
      "Ġcircle": 3198,
      "fl": 3199,
      "riage": 3200,
      "ishing": 3201,
      "Ġdance": 3202,
      "Ġeffect": 3203,
      "ĠLou": 3204,
      "ĠJapan": 3205,
      "Ġlovely": 3206,
      "ĠCaptain": 3207,
      "ences": 3208,
      "Ġwat": 3209,
      "lymp": 3210,
      "ĠWait": 3211,
      "Ġactiv": 3212,
      "ĠAust": 3213,
      "rill": 3214,
      "Ġbusy": 3215,
      "?âĢĿ": 3216,
      "how": 3217,
      "ience": 3218,
      "Ġbeginning": 3219,
      "Ġaccept": 3220,
      "ĠTur": 3221,
      "Ġcharacter": 3222,
      "Ġpriv": 3223,
      "RIC": 3224,
      "VE": 3225,
      "Ġiss": 3226,
      "Ġstat": 3227,
      "ĠOlymp": 3228,
      "pers": 3229,
      "vin": 3230,
      "ĠTake": 3231,
      "Ġservice": 3232,
      "ĠChan": 3233,
      "iff": 3234,
      "Ġcalling": 3235,
      "Ġmoving": 3236,
      "ives": 3237,
      "Ġoffe": 3238,
      "ky": 3239,
      "Ġview": 3240,
      "Ġrecogn": 3241,
      "Ġbye": 3242,
      "ĠQu": 3243,
      "aturday": 3244,
      "Ġhealth": 3245,
      "Ġjud": 3246,
      "Ġthanks": 3247,
      "ache": 3248,
      "ĠTex": 3249,
      "sey": 3250,
      "ĠRed": 3251,
      "ĠAmerica": 3252,
      "worth": 3253,
      "Ġfuture": 3254,
      "ĠFirst": 3255,
      "Why": 3256,
      "Ġtiny": 3257,
      "Ġincluding": 3258,
      "ĠRepubl": 3259,
      "Ġproblems": 3260,
      "ĠOx": 3261,
      "ĠRob": 3262,
      "board": 3263,
      "Ġought": 3264,
      "ĠWH": 3265,
      "Ġspend": 3266,
      "Ġboard": 3267,
      "ĠSomet": 3268,
      "rug": 3269,
      "Ġmajor": 3270,
      "Ġ22": 3271,
      "Ġorange": 3272,
      "soci": 3273,
      "Ġcorner": 3274,
      "Ġvideo": 3275,
      "Ġcurrent": 3276,
      "Ġlie": 3277,
      "Th": 3278,
      "uty": 3279,
      "Ġcollect": 3280,
      "ĠSaturday": 3281,
      "iod": 3282,
      "makes": 3283,
      "puts": 3284,
      "Ġinvest": 3285,
      "ĠEn": 3286,
      "ĠFraser": 3287,
      "Ġgen": 3288,
      "Ġnina": 3289,
      "ĠAunt": 3290,
      "ummy": 3291,
      "Ġcrying": 3292,
      "AD": 3293,
      "omin": 3294,
      "IG": 3295,
      "Ġcomfort": 3296,
      "Ġleaving": 3297,
      "Ġdifficult": 3298,
      "Ġspoke": 3299,
      "Ġcreated": 3300,
      "Ġcompl": 3301,
      "Ġappear": 3302,
      "ray": 3303,
      "Ġbased": 3304,
      "Ġnames": 3305,
      "ĠMad": 3306,
      "ift": 3307,
      "form": 3308,
      "Ġ&": 3309,
      "Ġblocks": 3310,
      "sp": 3311,
      "urse": 3312,
      "Ġbreakfast": 3313,
      "Ġgas": 3314,
      "itted": 3315,
      "Ġchurch": 3316,
      "Ġfinger": 3317,
      "Ġseeing": 3318,
      "ĠQueen": 3319,
      "ply": 3320,
      "resh": 3321,
      "Ġshar": 3322,
      "tered": 3323,
      "Ġdinos": 3324,
      "Ġexample": 3325,
      "Ġcompan": 3326,
      "ades": 3327,
      "iforn": 3328,
      "Ġreplied": 3329,
      "ission": 3330,
      "ruction": 3331,
      "chn": 3332,
      "pered": 3333,
      "itions": 3334,
      "Ġdelight": 3335,
      "asket": 3336,
      "ek": 3337,
      "picks": 3338,
      "sy": 3339,
      "]!": 3340,
      "Ġbas": 3341,
      "Ġmention": 3342,
      "Ġvol": 3343,
      "play": 3344,
      "ĠItaly": 3345,
      "ifornia": 3346,
      "val": 3347,
      "Ġbank": 3348,
      "Ġbottom": 3349,
      "ĠRoman": 3350,
      "Ġsixty": 3351,
      "Ġlocal": 3352,
      "Home": 3353,
      "itched": 3354,
      "ests": 3355,
      "ancy": 3356,
      "ient": 3357,
      "eder": 3358,
      "uted": 3359,
      "Ġpuzzle": 3360,
      "ĠJer": 3361,
      "ĠVisit": 3362,
      "Ġchocol": 3363,
      "ĠSchool": 3364,
      "Ġregion": 3365,
      "Ġcard": 3366,
      "ĠHa": 3367,
      "Ġsinging": 3368,
      "Ġwatching": 3369,
      "ument": 3370,
      "Ġresult": 3371,
      "Ġphot": 3372,
      "Ġdecl": 3373,
      "Ġshout": 3374,
      "aud": 3375,
      "Ġmunicipality": 3376,
      "Ġgames": 3377,
      "Ġanimal": 3378,
      "Ġrepresent": 3379,
      "ĠHist": 3380,
      "Ġhate": 3381,
      "Ġdiscuss": 3382,
      "ĠFlore": 3383,
      "CK": 3384,
      "oop": 3385,
      "ĠColl": 3386,
      "Ġbottle": 3387,
      "Ġbutterfly": 3388,
      "yy": 3389,
      "ĠTony": 3390,
      "ĠJim": 3391,
      "Ġpopulation": 3392,
      "Ġcarried": 3393,
      "Ġbigger": 3394,
      "ĠAnn": 3395,
      "Ġquestions": 3396,
      "Ġcapital": 3397,
      "Ġlegs": 3398,
      "ĠMinister": 3399,
      "Ġwow": 3400,
      "Ġitself": 3401,
      "oops": 3402,
      "ĠCalifornia": 3403,
      "Ġfurther": 3404,
      "Ġanx": 3405,
      "mond": 3406,
      "Ġmix": 3407,
      "ĠGree": 3408,
      "Ġcrit": 3409,
      "wood": 3410,
      "ĠMart": 3411,
      "irm": 3412,
      "Ġstuck": 3413,
      "Ġalive": 3414,
      "Ġflat": 3415,
      "Ġspoon": 3416,
      "Ġhelped": 3417,
      "ĠChampions": 3418,
      "Ġ$": 3419,
      "Ġputs": 3420,
      "Ġasking": 3421,
      "Ġappeared": 3422,
      "ĠSan": 3423,
      "Ġep": 3424,
      "raft": 3425,
      "ico": 3426,
      "Ġshop": 3427,
      "ĠHowever": 3428,
      "Ġaccount": 3429,
      "ĠTexas": 3430,
      "Ġpush": 3431,
      "ĠStop": 3432,
      "itary": 3433,
      "Ġpi": 3434,
      "Ġtrack": 3435,
      "ĠFather": 3436,
      "Ġentire": 3437,
      "Ġlock": 3438,
      "ĠSam": 3439,
      "apa": 3440,
      "Ġclimb": 3441,
      "Ġbought": 3442,
      "Ġkitty": 3443,
      "ĠUrsula": 3444,
      "Ġsomewhere": 3445,
      "ĠVery": 3446,
      "Ġpromise": 3447,
      "Ġeggs": 3448,
      "ĠMon": 3449,
      "Ġproud": 3450,
      "kin": 3451,
      "like": 3452,
      "reet": 3453,
      "Ġmid": 3454,
      "ĠRober": 3455,
      "ĠState": 3456,
      "Ġobjects": 3457,
      "AK": 3458,
      "Ġbab": 3459,
      "Ġrelig": 3460,
      "omen": 3461,
      "Ġhall": 3462,
      "ĠAlex": 3463,
      "ĠMond": 3464,
      "ourt": 3465,
      "Ġrace": 3466,
      "Ġwalked": 3467,
      "ĠReally": 3468,
      "gged": 3469,
      "Ġstudio": 3470,
      "Ġchocolate": 3471,
      "Ġtall": 3472,
      "ĠCrom": 3473,
      "Ġnearly": 3474,
      "ĠIndia": 3475,
      "Ġchicken": 3476,
      "hood": 3477,
      "uation": 3478,
      "Ġyyy": 3479,
      "liament": 3480,
      "af": 3481,
      "acing": 3482,
      "ĠLittle": 3483,
      "She": 3484,
      "bye": 3485,
      "asant": 3486,
      "ĠCr": 3487,
      "Ġallowed": 3488,
      "pecially": 3489,
      "Ġfinal": 3490,
      "bles": 3491,
      "Ġpaint": 3492,
      "Ġwel": 3493,
      "Ġweren": 3494,
      "Ġbackground": 3495,
      "Ġduck": 3496,
      "cience": 3497,
      "ĠMarc": 3498,
      "iment": 3499,
      "Ġstars": 3500,
      "epend": 3501,
      "Ġfeed": 3502,
      "Ġsubject": 3503,
      "utch": 3504,
      "Ġdrop": 3505,
      "mm": 3506,
      "umph": 3507,
      "Ġcharge": 3508,
      "ĠRussian": 3509,
      "Ġtoward": 3510,
      "imate": 3511,
      "roy": 3512,
      "ĠGrand": 3513,
      "ume": 3514,
      "Ġpeace": 3515,
      "Ġmiles": 3516,
      "bers": 3517,
      "ĠMag": 3518,
      "ference": 3519,
      "ĠOxford": 3520,
      "Ġvers": 3521,
      "Ġcourt": 3522,
      "ghed": 3523,
      "Ġtor": 3524,
      "Ġpolitical": 3525,
      "unny": 3526,
      "Ġ191": 3527,
      "ĠUncle": 3528,
      "Ġdesc": 3529,
      "Ġlearned": 3530,
      "ĠHenry": 3531,
      "ause": 3532,
      "ĠLady": 3533,
      "Ġgrass": 3534,
      "Ġgar": 3535,
      "Ġlift": 3536,
      "king": 3537,
      "Ġsna": 3538,
      "ĠCor": 3539,
      "cious": 3540,
      "aus": 3541,
      "Ġplastic": 3542,
      "Ġshouldn": 3543,
      "Ġplayer": 3544,
      "Ġattention": 3545,
      "Ġaccident": 3546,
      "Ġinformation": 3547,
      "ĠWould": 3548,
      "ĠSte": 3549,
      "Ġsticks": 3550,
      "BR": 3551,
      "Ġnatur": 3552,
      "ĠPort": 3553,
      "Ġ26": 3554,
      "ĠGovern": 3555,
      "ĠFlorence": 3556,
      "Ġstraw": 3557,
      "sha": 3558,
      "ils": 3559,
      "het": 3560,
      "Ġbirds": 3561,
      "EW": 3562,
      "va": 3563,
      "ĠJames": 3564,
      "ĠBlack": 3565,
      "Ġcontrol": 3566,
      "Ġmach": 3567,
      "ĠMic": 3568,
      "ĠBel": 3569,
      "roat": 3570,
      "Ġcentury": 3571,
      "ida": 3572,
      "ploy": 3573,
      "ĠEXP": 3574,
      "Ġperiod": 3575,
      "Ġdropped": 3576,
      "Ġ27": 3577,
      "Ġcomb": 3578,
      "Ġparts": 3579,
      "Ġaff": 3580,
      "oken": 3581,
      "ria": 3582,
      "urity": 3583,
      "raph": 3584,
      "osta": 3585,
      "NG": 3586,
      "COU": 3587,
      "Ġhurry": 3588,
      "Ġinteresting": 3589,
      "Ġengine": 3590,
      "FA": 3591,
      "aff": 3592,
      "ĠPat": 3593,
      "Ġshut": 3594,
      "Ġ28": 3595,
      "ANN": 3596,
      "Ġextra": 3597,
      "eg": 3598,
      "Ġlots": 3599,
      "Ġflew": 3600,
      "ires": 3601,
      "ĠAct": 3602,
      "ĠCouncil": 3603,
      "Ġslice": 3604,
      "Ġrespect": 3605,
      "ration": 3606,
      "she": 3607,
      ",âĢĻ": 3608,
      "gon": 3609,
      "ĠBob": 3610,
      "Ġmem": 3611,
      "medi": 3612,
      "Ġfright": 3613,
      "Ġshowed": 3614,
      "ĠWhite": 3615,
      "ĠON": 3616,
      "Ġbeach": 3617,
      "ells": 3618,
      "Ġwalking": 3619,
      "Ġincre": 3620,
      "ĠSpan": 3621,
      "ĠUS": 3622,
      "Ġcloud": 3623,
      "\")": 3624,
      "ption": 3625,
      "Ġchief": 3626,
      "Ġleaves": 3627,
      "Ġfilm": 3628,
      "ya": 3629,
      "Ġsex": 3630,
      "rect": 3631,
      "Ġears": 3632,
      "ĠFriday": 3633,
      "HIS": 3634,
      "Ġnone": 3635,
      "ĠAnt": 3636,
      "Ġangry": 3637,
      "There": 3638,
      "Ġhost": 3639,
      "ĠBet": 3640,
      "Ġjoined": 3641,
      "GMA": 3642,
      "nic": 3643,
      "ĠMor": 3644,
      "Ġlaughed": 3645,
      "Ġdar": 3646,
      "Ġrid": 3647,
      "esta": 3648,
      "Ġsleeping": 3649,
      "Ġdirected": 3650,
      "singing": 3651,
      "Don": 3652,
      "cuse": 3653,
      "Ġrese": 3654,
      "Ġviol": 3655,
      "ffie": 3656,
      "Ġbattle": 3657,
      "olutely": 3658,
      "Ġonto": 3659,
      "ĠThom": 3660,
      "Ġairpl": 3661,
      "round": 3662,
      "Ġdue": 3663,
      "Ġfarm": 3664,
      "Ġslowly": 3665,
      "Ġut": 3666,
      "Ġfem": 3667,
      "Ġpati": 3668,
      "Ġvo": 3669,
      "Ġpaid": 3670,
      "ĠMama": 3671,
      "Ġmeat": 3672,
      "ords": 3673,
      "ivil": 3674,
      "Ġearli": 3675,
      "uk": 3676,
      "Ġrepe": 3677,
      "Ġforth": 3678,
      "Ġfinally": 3679,
      "ĠNothing": 3680,
      "Ross": 3681,
      "off": 3682,
      "yle": 3683,
      "itive": 3684,
      "Ġturning": 3685,
      "Ġsurprise": 3686,
      "of": 3687,
      "Ġwide": 3688,
      "Ġblank": 3689,
      "eneral": 3690,
      "UT": 3691,
      "Ġcountries": 3692,
      "Ġexcuse": 3693,
      "ĠLaw": 3694,
      "clock": 3695,
      "ses": 3696,
      "Ã¼": 3697,
      "Ġmus": 3698,
      "Ġspent": 3699,
      "Ġreach": 3700,
      "ĠBrian": 3701,
      "pping": 3702,
      "Ġclock": 3703,
      "Ġstudy": 3704,
      "Ġneeded": 3705,
      "inal": 3706,
      "Ġforce": 3707,
      "ĠEast": 3708,
      "Ġconne": 3709,
      "ously": 3710,
      "Ġpopular": 3711,
      "Ġcous": 3712,
      "pper": 3713,
      "Ġworse": 3714,
      "Ġtalked": 3715,
      "Ġdirect": 3716,
      "ĠRobert": 3717,
      "Ġdam": 3718,
      "ashed": 3719,
      "ston": 3720,
      "ĠRam": 3721,
      "Ġrose": 3722,
      "anor": 3723,
      "Ġpock": 3724,
      "ĠHung": 3725,
      "ĠEffie": 3726,
      "OO": 3727,
      "house": 3728,
      "mat": 3729,
      "uel": 3730,
      "Ġstage": 3731,
      "Ġperfor": 3732,
      "Ġconcern": 3733,
      "omes": 3734,
      "ili": 3735,
      "ĠOur": 3736,
      "aker": 3737,
      "har": 3738,
      "Ġshare": 3739,
      "Ġattempt": 3740,
      "conom": 3741,
      "set": 3742,
      "Ġdry": 3743,
      "ĠLot": 3744,
      "Ġterrible": 3745,
      "ĠCromer": 3746,
      "ĠMil": 3747,
      "ĠDem": 3748,
      "Ġrub": 3749,
      "Ġsky": 3750,
      "Ġleader": 3751,
      "ination": 3752,
      "Ġmagnets": 3753,
      "line": 3754,
      ".âĢĻ": 3755,
      "Ġhy": 3756,
      "ĠPet": 3757,
      "Ġnecess": 3758,
      "ĠMonday": 3759,
      "pes": 3760,
      "Ġtiger": 3761,
      "Ġaged": 3762,
      "Ġelect": 3763,
      "ĠReg": 3764,
      "ĠEuropean": 3765,
      "ids": 3766,
      "Ġrich": 3767,
      "Ġpray": 3768,
      "Ġstayed": 3769,
      "Ġcontinued": 3770,
      "Ġninety": 3771,
      "ĠCup": 3772,
      "Ġprofessional": 3773,
      "rab": 3774,
      "ĠRiver": 3775,
      "Ġdogs": 3776,
      "Ġbite": 3777,
      "ĠJes": 3778,
      "Ġoffered": 3779,
      "pha": 3780,
      "Ġ[?": 3781,
      "ĠVer": 3782,
      "Ġpossib": 3783,
      "Ġfresh": 3784,
      "Ġlying": 3785,
      "ĠMed": 3786,
      "Ġstories": 3787,
      "Ġnope": 3788,
      "Ġclosed": 3789,
      "ĠHel": 3790,
      "olf": 3791,
      "reme": 3792,
      "ĠSer": 3793,
      "ĠDuring": 3794,
      "Ġkey": 3795,
      "ĠKingdom": 3796,
      "Ġadded": 3797,
      "rel": 3798,
      "Ġenemy": 3799,
      "ĠBeck": 3800,
      "Ġbene": 3801,
      "stit": 3802,
      "Ġgrad": 3803,
      "Ġbegin": 3804,
      "Ġexcit": 3805,
      "Ġowl": 3806,
      "Ġfalls": 3807,
      "Ġsimply": 3808,
      "Ġelephant": 3809,
      "Ġfavorite": 3810,
      "ĠHam": 3811,
      "herry": 3812,
      "Ġ100": 3813,
      "ression": 3814,
      "Ġelection": 3815,
      "'?": 3816,
      "St": 3817,
      "elve": 3818,
      "Ġblow": 3819,
      "cast": 3820,
      "Ġbasket": 3821,
      "ĠSal": 3822,
      "Ġ(\"": 3823,
      "ĠFrank": 3824,
      "uses": 3825,
      "ĠDolly": 3826,
      "icked": 3827,
      "Ġtype": 3828,
      "Ġcos": 3829,
      "Ġweap": 3830,
      "lor": 3831,
      "ville": 3832,
      "Ġport": 3833,
      "owd": 3834,
      "Ġwasher": 3835,
      "ĠMex": 3836,
      "cture": 3837,
      "Ġvan": 3838,
      "ĠStreet": 3839,
      "father": 3840,
      "ĠMel": 3841,
      "ĠNesta": 3842,
      "Ġspeaking": 3843,
      "Ġbrave": 3844,
      "yond": 3845,
      "Ġwash": 3846,
      "ĠHall": 3847,
      "Ġshows": 3848,
      "Ġenc": 3849,
      "Ġcaused": 3850,
      "uction": 3851,
      "ours": 3852,
      "oyal": 3853,
      "Ġcommand": 3854,
      "Ġlikes": 3855,
      "aft": 3856,
      "ĠCourt": 3857,
      "Ġprep": 3858,
      "ĠCharles": 3859,
      "ĠPal": 3860,
      "Ġremark": 3861,
      "Ġimmedi": 3862,
      "Ġfighting": 3863,
      "isc": 3864,
      "ĠHigh": 3865,
      "Ġespecially": 3866,
      "Ġtower": 3867,
      "ami": 3868,
      "Ġconvers": 3869,
      "Ġairplane": 3870,
      "ĠBer": 3871,
      "Ġvarious": 3872,
      "bre": 3873,
      "Ġcab": 3874,
      "Ġhero": 3875,
      "Ġ29": 3876,
      "Ġserious": 3877,
      "Ġpleasure": 3878,
      "Ġpers": 3879,
      "ĠMass": 3880,
      "ĠHE": 3881,
      "Ġtelephone": 3882,
      "How": 3883,
      "isf": 3884,
      "ĠSch": 3885,
      "Ġcrack": 3886,
      "ĠHistory": 3887,
      "ially": 3888,
      "song": 3889,
      "Ġcoc": 3890,
      "Ġsle": 3891,
      "antly": 3892,
      "Ġupstairs": 3893,
      "bert": 3894,
      "ĠRod": 3895,
      "Ġthinks": 3896,
      "Ġuhuh": 3897,
      "Ġindust": 3898,
      "Ġtick": 3899,
      "Ġprocess": 3900,
      "Ġsinger": 3901,
      "Ġrelations": 3902,
      "Ġlaughs": 3903,
      "Ġiron": 3904,
      "Ġpal": 3905,
      "Ġhide": 3906,
      "oted": 3907,
      "razy": 3908,
      "ĠBE": 3909,
      "Ġaut": 3910,
      "Ġways": 3911,
      "ĠLi": 3912,
      "Ġspring": 3913,
      "ography": 3914,
      "van": 3915,
      "Ġteeth": 3916,
      "Ġ2018": 3917,
      "Ġscar": 3918,
      "Ġmarket": 3919,
      "rer": 3920,
      "Ġbud": 3921,
      "Ġtrad": 3922,
      "ĠDoes": 3923,
      "Ġcomput": 3924,
      "Ġwelcome": 3925,
      "RI": 3926,
      "Ġcru": 3927,
      "rael": 3928,
      "Ġsoldiers": 3929,
      "dd": 3930,
      "ilar": 3931,
      "ularly": 3932,
      "ĠRos": 3933,
      "Ġbreath": 3934,
      "ĠSure": 3935,
      "ival": 3936,
      "Ġofficer": 3937,
      "Ġtitle": 3938,
      "Ġhouses": 3939,
      "Ġspread": 3940,
      "ĠAbout": 3941,
      "ĠLeague": 3942,
      "ĠLouis": 3943,
      "inary": 3944,
      "Ġnorm": 3945,
      "Ġthreat": 3946,
      "ods": 3947,
      "host": 3948,
      "oly": 3949,
      "Ġbell": 3950,
      "str": 3951,
      "Ġrole": 3952,
      "Ġdressed": 3953,
      "ĠCHAP": 3954,
      "HE": 3955,
      "ĠDes": 3956,
      "Ġsocial": 3957,
      "Ġamaz": 3958,
      "Ġpun": 3959,
      "burg": 3960,
      "Ġmass": 3961,
      "Ġspoken": 3962,
      "hington": 3963,
      "Ġobs": 3964,
      "whis": 3965,
      "ĠCHAPTER": 3966,
      "ĠST": 3967,
      "Ġchim": 3968,
      "Ġinfl": 3969,
      "Ġspirit": 3970,
      "SS": 3971,
      "hand": 3972,
      "ĠMal": 3973,
      "ooper": 3974,
      "ĠHan": 3975,
      "Ġlikely": 3976,
      "Ġfat": 3977,
      "Ġstone": 3978,
      "ural": 3979,
      "ĠJul": 3980,
      "Ġphys": 3981,
      "ĠEliz": 3982,
      "ĠJoe": 3983,
      "Ġexist": 3984,
      "Ġexec": 3985,
      "Ġenv": 3986,
      "ERE": 3987,
      "rief": 3988,
      "Ġestab": 3989,
      "Ġexclaimed": 3990,
      "ups": 3991,
      "ĠII": 3992,
      "Ġisland": 3993,
      "Ġallow": 3994,
      "ĠWhich": 3995,
      "Ġballs": 3996,
      "Ġdollars": 3997,
      "erve": 3998,
      "ĠPen": 3999,
      "ĠGeneral": 4000,
      "Ġscream": 4001,
      "ĠSmith": 4002,
      "Ġsmile": 4003,
      "Ġcommun": 4004,
      "Ġcompletely": 4005,
      "!'": 4006,
      "Ã¶": 4007,
      "Ġdate": 4008,
      "iance": 4009,
      "Ġslight": 4010,
      "ĠParis": 4011,
      "Ġfingers": 4012,
      "ĠEleanor": 4013,
      "Ġinn": 4014,
      "Ġstom": 4015,
      "Ġalthough": 4016,
      "Ġguard": 4017,
      "ĠTHAT": 4018,
      "Ġfalling": 4019,
      "ergy": 4020,
      "Ġsuff": 4021,
      "Ġplays": 4022,
      "Ġdifference": 4023,
      "Ġlawyer": 4024,
      "ĠWashington": 4025,
      "met": 4026,
      "Ġemb": 4027,
      "ĠJew": 4028,
      "Ġwet": 4029,
      "Ġrab": 4030,
      "Ġquietly": 4031,
      "10": 4032,
      "light": 4033,
      "Ġinj": 4034,
      "Ġden": 4035,
      "ĠMike": 4036,
      "Ġrights": 4037,
      "Ġfamous": 4038,
      "Ġbeyond": 4039,
      "Ġjoy": 4040,
      "ashion": 4041,
      "Ġdinosaur": 4042,
      "My": 4043,
      "Ġthroat": 4044,
      "ĠPri": 4045,
      "ĠJose": 4046,
      "Ġstrawber": 4047,
      "itor": 4048,
      "arm": 4049,
      "Ġrefer": 4050,
      "ki": 4051,
      "ĠSince": 4052,
      "ĠDutch": 4053,
      "ustom": 4054,
      "aining": 4055,
      "Ġarrest": 4056,
      "Ġinclude": 4057,
      "ĠCare": 4058,
      "ĠRo": 4059,
      "Ġjour": 4060,
      "aine": 4061,
      "ples": 4062,
      "icle": 4063,
      "Ġrule": 4064,
      "Ġvictim": 4065,
      "pin": 4066,
      "Ġmir": 4067,
      "ĠHumph": 4068,
      "ĠGive": 4069,
      "oughs": 4070,
      "Ġentered": 4071,
      "ĠScot": 4072,
      "ĠMost": 4073,
      "ĠBert": 4074,
      "iles": 4075,
      "ĠEll": 4076,
      "Ġmagic": 4077,
      "Ġbroad": 4078,
      "Ġpurp": 4079,
      "ĠThomas": 4080,
      "writ": 4081,
      "Ġlim": 4082,
      "Ġris": 4083,
      "ĠOnly": 4084,
      "They": 4085,
      "Ġpicked": 4086,
      "asion": 4087,
      "Ġ2012": 4088,
      "Ġ2014": 4089,
      "ruit": 4090,
      "ighs": 4091,
      "Ġ2023": 4092,
      "Ġwinter": 4093,
      "Ġepis": 4094,
      "Ġcute": 4095,
      "arl": 4096,
      "Ġsearch": 4097,
      "ila": 4098,
      "Ġturns": 4099,
      "ĠMarg": 4100,
      "18": 4101,
      "Ġrev": 4102,
      "Ġsepar": 4103,
      "Ġtwelve": 4104,
      "apers": 4105,
      "Ġraised": 4106,
      "Ġhigher": 4107,
      "Ġcrazy": 4108,
      "ĠIre": 4109,
      "Ġgall": 4110,
      "lect": 4111,
      "ĠMore": 4112,
      "ĠMany": 4113,
      "Ġproject": 4114,
      "rupt": 4115,
      "Ġevidence": 4116,
      "oons": 4117,
      "oming": 4118,
      "Ġdeg": 4119,
      "Ġspot": 4120,
      "ĠCanada": 4121,
      "kn": 4122,
      "vey": 4123,
      "Ġ2011": 4124,
      "Ġscr": 4125,
      "Ġpublished": 4126,
      "Ġtaste": 4127,
      "ĠHumphrey": 4128,
      "ables": 4129,
      "Ġsposta": 4130,
      "Ġtechn": 4131,
      "Ġrespons": 4132,
      "ironment": 4133,
      "gigg": 4134,
      "Ġver": 4135,
      "Ġimm": 4136,
      "Ġdriving": 4137,
      "Ġdestroy": 4138,
      "Ġmurder": 4139,
      "wise": 4140,
      "Ġide": 4141,
      "ĠAc": 4142,
      "Ġeast": 4143,
      "Ġasleep": 4144,
      "Ġvis": 4145,
      "Ġinvolved": 4146,
      "Ġjoin": 4147,
      "ĠAustralia": 4148,
      "Ġpocket": 4149,
      "Then": 4150,
      "ois": 4151,
      "ss": 4152,
      "ĠBraz": 4153,
      "Ġcrowd": 4154,
      "ĠListen": 4155,
      "wich": 4156,
      "ĠCong": 4157,
      "ession": 4158,
      "orts": 4159,
      "Ġlistening": 4160,
      "Ġfault": 4161,
      "holds": 4162,
      "Ġarrived": 4163,
      "has": 4164,
      "ĠKitty": 4165,
      "Ġmetal": 4166,
      "ĠChristian": 4167,
      "ĠScott": 4168,
      "Ġsum": 4169,
      "ĠTheir": 4170,
      "ĠFred": 4171,
      "Ġ()": 4172,
      "Ġannounced": 4173,
      "ĠExcuse": 4174,
      "Ġcocoon": 4175,
      "ĠMac": 4176,
      "Ġterm": 4177,
      "do": 4178,
      "inc": 4179,
      "Ġdeter": 4180,
      "onounced": 4181,
      "Ġpink": 4182,
      "Ġnon": 4183,
      "aret": 4184,
      "Ġhappening": 4185,
      "ĠIsrael": 4186,
      "Ġmessage": 4187,
      "Ġninet": 4188,
      "Ġparticular": 4189,
      "Ġrabbit": 4190,
      "eless": 4191,
      "Ġintrod": 4192,
      "Ġmonkey": 4193,
      "Ġdirector": 4194,
      "Ġdelic": 4195,
      "Ġswimming": 4196,
      "Ġtaught": 4197,
      "ites": 4198,
      "abeth": 4199,
      "Ġgives": 4200,
      "ĠPrince": 4201,
      "Ġsimple": 4202,
      "vies": 4203,
      "Ġscient": 4204,
      "Ġmouse": 4205,
      "Ġpotat": 4206,
      "Ġpet": 4207,
      "ĠGold": 4208,
      "Ġbelow": 4209,
      "Ġended": 4210,
      "Ġcounty": 4211,
      "Ġmilitary": 4212,
      "Ġwise": 4213,
      "cks": 4214,
      "Ġprivate": 4215,
      "bed": 4216,
      "Ġident": 4217,
      "otten": 4218,
      "ĠParliament": 4219,
      "Ġapart": 4220,
      "Ġpic": 4221,
      "--\"": 4222,
      "ĠItalian": 4223,
      "ĠMarcia": 4224,
      "Ġladies": 4225,
      "Ġdoggie": 4226,
      "Ġtears": 4227,
      "erved": 4228,
      "Ġfool": 4229,
      "Ġhun": 4230,
      "ĠWomen": 4231,
      "ĠBat": 4232,
      "ĠDis": 4233,
      "aps": 4234,
      "LY": 4235,
      "lam": 4236,
      "Ġlaid": 4237,
      "ĠIts": 4238,
      "Ġspeed": 4239,
      "agn": 4240,
      "Ġhasn": 4241,
      "Ġolder": 4242,
      "Ġaccom": 4243,
      "Ġmountain": 4244,
      "Ġjourney": 4245,
      "inite": 4246,
      "Ġwag": 4247,
      "Ġbill": 4248,
      "Ġinternational": 4249,
      "ota": 4250,
      "ĠDO": 4251,
      "Ġwoods": 4252,
      "Ġwhispered": 4253,
      "Ġmotor": 4254,
      "Ġearlier": 4255,
      "ĠBrazil": 4256,
      "HT": 4257,
      "Ġï¿½ï¿½ï¿½ï¿½": 4258,
      "Ġlines": 4259,
      "Ġ2013": 4260,
      "Ġaction": 4261,
      "Ġnatural": 4262,
      "asons": 4263,
      "antic": 4264,
      "Ġwheel": 4265,
      "Ġconside": 4266,
      "Ġmovies": 4267,
      "ocrat": 4268,
      "Ġexcited": 4269,
      "Ġconsidered": 4270,
      "Now": 4271,
      "Ġbound": 4272,
      "Ġnut": 4273,
      "ppy": 4274,
      "Ġexam": 4275,
      "Ġoffer": 4276,
      "Ġinterested": 4277,
      "ux": 4278,
      "Ã³": 4279,
      "atives": 4280,
      "bon": 4281,
      "Ġanywhere": 4282,
      "gypt": 4283,
      "ipped": 4284,
      "vi": 4285,
      "ĠMo": 4286,
      "Ġund": 4287,
      "ĠHug": 4288,
      "Ġchoice": 4289,
      "Ġstarting": 4290,
      "Ġbelieved": 4291,
      "Ġawful": 4292,
      "Ġsatisf": 4293,
      "rem": 4294,
      "Ġbeha": 4295,
      "ĠCould": 4296,
      "ĠRes": 4297,
      "ĠRec": 4298,
      "abel": 4299,
      "Ġmanage": 4300,
      "Ġdrug": 4301,
      "osing": 4302,
      "Ġfounded": 4303,
      "Ġpath": 4304,
      "ointed": 4305,
      "under": 4306,
      "ĠAcc": 4307,
      "ursday": 4308,
      "Ġeducation": 4309,
      "Ġconversation": 4310,
      "!âĢĿ": 4311,
      "Ġ..": 4312,
      "Ġtend": 4313,
      "Ġsoul": 4314,
      "Ġnurse": 4315,
      "ushing": 4316,
      "ĠSen": 4317,
      "Ġstairs": 4318,
      "elle": 4319,
      "Ġnumbers": 4320,
      "Ġbull": 4321,
      "Ġsail": 4322,
      "Ġhonest": 4323,
      "AU": 4324,
      "ho": 4325,
      "Ġactor": 4326,
      "Ġfaith": 4327,
      "ĠME": 4328,
      "ĠWed": 4329,
      "ĠUnion": 4330,
      "ĠUp": 4331,
      "ĠThursday": 4332,
      "Ġdrew": 4333,
      "ciety": 4334,
      "Ġafterwards": 4335,
      "Ġfourth": 4336,
      "ails": 4337,
      "Ġterms": 4338,
      "IR": 4339,
      "ja": 4340,
      "Ġcovered": 4341,
      "oring": 4342,
      "Ġhuge": 4343,
      "ĠRepublic": 4344,
      "gen": 4345,
      "Ġplaced": 4346,
      "ka": 4347,
      "Ġpill": 4348,
      "Ġpushed": 4349,
      "Ġthrew": 4350,
      "ĠTV": 4351,
      "ĠSand": 4352,
      "ĠDep": 4353,
      "ulf": 4354,
      "Ġwhoa": 4355,
      "ĠThree": 4356,
      "ĠBefore": 4357,
      "Ġsituation": 4358,
      "itude": 4359,
      "ĠLat": 4360,
      "Ġclaim": 4361,
      "Ġshowing": 4362,
      "nesday": 4363,
      "Ġcamer": 4364,
      "asc": 4365,
      "aded": 4366,
      "ĠWood": 4367,
      "ĠLuc": 4368,
      "ella": 4369,
      "orthern": 4370,
      "Ġamount": 4371,
      "ĠEric": 4372,
      "Ġmissed": 4373,
      "ĠMOT": 4374,
      "elling": 4375,
      "Ġneg": 4376,
      "Ġspee": 4377,
      "Ġsettle": 4378,
      "Ġdistance": 4379,
      "Ġemploy": 4380,
      "If": 4381,
      "lie": 4382,
      "oved": 4383,
      "Ġthee": 4384,
      "Ġnap": 4385,
      "Ġplain": 4386,
      "Ġaddress": 4387,
      "Ġlocated": 4388,
      "11": 4389,
      "mel": 4390,
      "pa": 4391,
      "Ġcere": 4392,
      "Ġnature": 4393,
      "ales": 4394,
      "Ġeff": 4395,
      "Ġeconom": 4396,
      "acks": 4397,
      "Ġ2010": 4398,
      "Ġpleased": 4399,
      "Ġregard": 4400,
      "Ġdancing": 4401,
      "Ġmachine": 4402,
      "Ġtone": 4403,
      "lebr": 4404,
      "ĠDa": 4405,
      "ĠLab": 4406,
      "olt": 4407,
      "Ġagreed": 4408,
      "gu": 4409,
      "vere": 4410,
      "ĠChurch": 4411,
      "Ġskin": 4412,
      "Ġexpected": 4413,
      "Ġseventy": 4414,
      "Ġcivil": 4415,
      "cean": 4416,
      "ĠInternational": 4417,
      "Ġmissing": 4418,
      "ĠOlympics": 4419,
      "talk": 4420,
      "zen": 4421,
      "ads": 4422,
      "ĠCamp": 4423,
      "ĠBill": 4424,
      "Ġcalls": 4425,
      "Ġopport": 4426,
      "Ġturtle": 4427,
      "lim": 4428,
      "Ġsens": 4429,
      "ĠDi": 4430,
      "Ġunless": 4431,
      "Ġtraining": 4432,
      "KEN": 4433,
      "hum": 4434,
      "was": 4435,
      "arrow": 4436,
      "rain": 4437,
      "ĠJean": 4438,
      "Ġgentleman": 4439,
      "ĠRose": 4440,
      "ĠFox": 4441,
      "Ġagree": 4442,
      "Ġcommunity": 4443,
      "Ġsett": 4444,
      "ourage": 4445,
      "Ġaward": 4446,
      "arian": 4447,
      "ĠSummer": 4448,
      "ĠAye": 4449,
      "Ġsuit": 4450,
      "Ġsmart": 4451,
      "Ġrecorder": 4452,
      "looking": 4453,
      "Ġimagine": 4454,
      "reys": 4455,
      "Ġdread": 4456,
      "eds": 4457,
      "ari": 4458,
      "etts": 4459,
      "Ġnotice": 4460,
      "Ġ(;": 4461,
      "achus": 4462,
      "uesday": 4463,
      "Ġimmediately": 4464,
      "Ġcart": 4465,
      "Ġfre": 4466,
      "Ġur": 4467,
      "ĠDist": 4468,
      "Ġknife": 4469,
      "ossible": 4470,
      "uckles": 4471,
      "Ġquarter": 4472,
      "Ġwatched": 4473,
      "Ġsize": 4474,
      "Ġdig": 4475,
      "ĠWhile": 4476,
      "Ġhadn": 4477,
      "Ġcollege": 4478,
      "Ġsimilar": 4479,
      "Ġzoo": 4480,
      "Ġmistake": 4481,
      "Ġbal": 4482,
      "ights": 4483,
      "Ġbless": 4484,
      "Ġcolors": 4485,
      "Ġmovement": 4486,
      "Ġwearing": 4487,
      "giggles": 4488,
      "17": 4489,
      "arr": 4490,
      "ĠWE": 4491,
      "Ġspl": 4492,
      "Ġvote": 4493,
      "Ġmanner": 4494,
      "Ġshad": 4495,
      "ĠSpanish": 4496,
      "Ġgrown": 4497,
      "enced": 4498,
      "Ġrocket": 4499,
      "Ġinvestig": 4500,
      "itan": 4501,
      "ledge": 4502,
      "ĠWednesday": 4503,
      "Ġpair": 4504,
      "ĠRome": 4505,
      "elly": 4506,
      "Ġremem": 4507,
      "asing": 4508,
      "Ġstran": 4509,
      "Ġstreng": 4510,
      "Ġflying": 4511,
      "Ġfilled": 4512,
      "achusetts": 4513,
      "ĠPapa": 4514,
      "Ġchimney": 4515,
      "ien": 4516,
      "ials": 4517,
      "inct": 4518,
      "Ġcell": 4519,
      "ĠJud": 4520,
      "ago": 4521,
      "Ġsongs": 4522,
      "Ġbeside": 4523,
      "ĠMassachusetts": 4524,
      "hest": 4525,
      "Ġwest": 4526,
      "ators": 4527,
      "ĠTuesday": 4528,
      "Ġteach": 4529,
      "Ġproduced": 4530,
      "Ġcousin": 4531,
      "Ġpicnic": 4532,
      "hered": 4533,
      "Ġcapt": 4534,
      "Ġassist": 4535,
      "ĠRussia": 4536,
      "ĠAldred": 4537,
      "ĠAir": 4538,
      "vert": 4539,
      "Ġtherefore": 4540,
      "Ġdey": 4541,
      "action": 4542,
      "Ġcloser": 4543,
      "ĠElizabeth": 4544,
      "Ġfol": 4545,
      "ĠMont": 4546,
      "ĠBur": 4547,
      "outhern": 4548,
      "Ġneither": 4549,
      "ĠUm": 4550,
      "bered": 4551,
      "Ġdiscovered": 4552,
      "Ġbrain": 4553,
      "Ġoriginal": 4554,
      "sociation": 4555,
      "jo": 4556,
      "Ġneat": 4557,
      "Ġbridge": 4558,
      "Ġdise": 4559,
      "ELL": 4560,
      "ĠJesus": 4561,
      "ram": 4562,
      "rif": 4563,
      "ĠDel": 4564,
      "ĠOver": 4565,
      "ĠFin": 4566,
      "Ġstudied": 4567,
      "ĠEgypt": 4568,
      "ĠBrad": 4569,
      "can": 4570,
      "Ġdeli": 4571,
      "Ġplant": 4572,
      "Ġlanguages": 4573,
      "30": 4574,
      "gn": 4575,
      "ini": 4576,
      "Ġdirty": 4577,
      "Ġpour": 4578,
      "hips": 4579,
      "ĠFranc": 4580,
      "Ġdecision": 4581,
      "Ġsentence": 4582,
      "oups": 4583,
      "ĠOther": 4584,
      "Ġsurv": 4585,
      "Ġnineteen": 4586,
      "ĠMet": 4587,
      "Ġshirt": 4588,
      "Ġmedic": 4589,
      "Ġcorrect": 4590,
      "ĠMat": 4591,
      "ittee": 4592,
      "Ġdrinking": 4593,
      "Ġdangerous": 4594,
      "ĠCHI": 4595,
      "ĠWil": 4596,
      "Ġstock": 4597,
      "Ġhardly": 4598,
      "Ġlargest": 4599,
      "Ġsquare": 4600,
      "Ġsurprised": 4601,
      "ĠSuper": 4602,
      "rid": 4603,
      "rying": 4604,
      "ivid": 4605,
      "Ġfavour": 4606,
      "Ġcastle": 4607,
      "oid": 4608,
      "anda": 4609,
      "Ġdebut": 4610,
      "Ġfeat": 4611,
      "ANT": 4612,
      "ĠArmy": 4613,
      "Ġhonor": 4614,
      "Ġhistor": 4615,
      "Ġlength": 4616,
      "mont": 4617,
      "Ġcult": 4618,
      "HING": 4619,
      "ĠLa": 4620,
      "Ġmeaning": 4621,
      "Ġcoat": 4622,
      "Ġparticularly": 4623,
      "Ġcoun": 4624,
      "ĠNever": 4625,
      "Ġindepend": 4626,
      "anced": 4627,
      "itzer": 4628,
      "olic": 4629,
      "Ġworried": 4630,
      "Ġtwice": 4631,
      "Ġexperience": 4632,
      "Ġsoup": 4633,
      "ĠTri": 4634,
      "usion": 4635,
      "ĠSus": 4636,
      "Ġpleasant": 4637,
      "Do": 4638,
      "takes": 4639,
      "ita": 4640,
      "Ġcherry": 4641,
      "Ġhid": 4642,
      "tering": 4643,
      "Ġnote": 4644,
      "ĠOld": 4645,
      "Ġsaved": 4646,
      "ograph": 4647,
      "Ġimpro": 4648,
      "Ġpromised": 4649,
      "Ġexplain": 4650,
      "Ġmurd": 4651,
      "moves": 4652,
      "Ġthus": 4653,
      "oph": 4654,
      "Ġcheer": 4655,
      "ensus": 4656,
      "ĠClaus": 4657,
      "Ġbrothers": 4658,
      "Ġartist": 4659,
      "Ġtotal": 4660,
      "ĠJeffreys": 4661,
      "Ġwake": 4662,
      "Ġlap": 4663,
      "Ġdeb": 4664,
      "Ġcandy": 4665,
      "Ġcelebr": 4666,
      "Ġlat": 4667,
      "Ġnet": 4668,
      "ĠMur": 4669,
      "ĠCat": 4670,
      "ify": 4671,
      "Ġcoach": 4672,
      "mpion": 4673,
      "Ġdolly": 4674,
      "iving": 4675,
      "nie": 4676,
      "Ġaud": 4677,
      "ĠApp": 4678,
      "ĠMolly": 4679,
      "Ġplenty": 4680,
      "Ġrap": 4681,
      "Ġpicks": 4682,
      "Ġtemper": 4683,
      "Ġcalm": 4684,
      "ournal": 4685,
      "Ġsharp": 4686,
      "eer": 4687,
      "ns": 4688,
      "Ġtou": 4689,
      "ĠAward": 4690,
      "Ġstro": 4691,
      "Ġrough": 4692,
      "Ġstrugg": 4693,
      "bout": 4694,
      "ĠSim": 4695,
      "ĠMaster": 4696,
      "Ġusual": 4697,
      "ĠSpain": 4698,
      "Ġoppos": 4699,
      "Ġabsolutely": 4700,
      "cellent": 4701,
      "Ġfemale": 4702,
      "Ġmult": 4703,
      "ĠCast": 4704,
      "ĠGreen": 4705,
      "ellig": 4706,
      "Ġruns": 4707,
      "Is": 4708,
      "ĠIS": 4709,
      "Ġareas": 4710,
      "ĠBrown": 4711,
      "Ġgods": 4712,
      "Ġlucky": 4713,
      "Ġescape": 4714,
      "Ġempty": 4715,
      "bel": 4716,
      "atic": 4717,
      "Ġhill": 4718,
      "ĠRem": 4719,
      "Ġobviously": 4720,
      ".,": 4721,
      "AB": 4722,
      "vious": 4723,
      "hel": 4724,
      "Ġble": 4725,
      "vell": 4726,
      "ĠTer": 4727,
      "Ġ190": 4728,
      "Ġinflu": 4729,
      "gent": 4730,
      "isy": 4731,
      "ÃŃs": 4732,
      "cul": 4733,
      "just": 4734,
      "Ġcouch": 4735,
      "Ġfirm": 4736,
      "Ġeager": 4737,
      "ĠDuke": 4738,
      "ĠEarth": 4739,
      "ĠComp": 4740,
      "ees": 4741,
      "Ġtax": 4742,
      "ĠCath": 4743,
      "Ġflower": 4744,
      "Ġspeech": 4745,
      "boy": 4746,
      "pir": 4747,
      "icated": 4748,
      "Ġpersonal": 4749,
      "Ġpurpose": 4750,
      "Ġdouble": 4751,
      "alley": 4752,
      "ĠFire": 4753,
      "rance": 4754,
      "Ġgroups": 4755,
      "Ġappre": 4756,
      "inese": 4757,
      "Ġspecies": 4758,
      "ĠAfrican": 4759,
      "lig": 4760,
      "ners": 4761,
      "orough": 4762,
      "Ġlips": 4763,
      "ĠOut": 4764,
      "Ġroof": 4765,
      "Ġbathroom": 4766,
      "Ġradio": 4767,
      "So": 4768,
      "nded": 4769,
      "ishes": 4770,
      "Ġduty": 4771,
      "chie": 4772,
      "ĠChief": 4773,
      "Ġbeauty": 4774,
      "oking": 4775,
      "Ġpulled": 4776,
      "ĠSecret": 4777,
      "ĠRobin": 4778,
      "Ġcomputer": 4779,
      "Ġet": 4780,
      "Ġmater": 4781,
      "Ġinqu": 4782,
      "Ġtrip": 4783,
      "ĠHugo": 4784,
      "aign": 4785,
      "Ġwound": 4786,
      "iana": 4787,
      "Ġtravel": 4788,
      "Ġproduct": 4789,
      "Ġsuspect": 4790,
      "ĠJoseph": 4791,
      "iant": 4792,
      "oms": 4793,
      "ĠCO": 4794,
      "Ġdoin": 4795,
      "Ġmonster": 4796,
      "Ġclearly": 4797,
      "Ġimpossible": 4798,
      "Ġdarling": 4799,
      "Ġresearch": 4800,
      "50": 4801,
      "CE": 4802,
      "ĠDay": 4803,
      "ocratic": 4804,
      "ĠMus": 4805,
      "enth": 4806,
      "ĠCam": 4807,
      "ĠJos": 4808,
      "Ġtrick": 4809,
      "Ġeasily": 4810,
      "Ġwriter": 4811,
      "ĠFrancis": 4812,
      "viet": 4813,
      "ĠLove": 4814,
      "odes": 4815,
      "Ġwalks": 4816,
      "Ġsandwich": 4817,
      "IGHT": 4818,
      "Ġsour": 4819,
      "itation": 4820,
      "inger": 4821,
      "Ġtells": 4822,
      "Ġ50": 4823,
      "ENT": 4824,
      "Ġcontinue": 4825,
      "Ġprincess": 4826,
      "**": 4827,
      "ST": 4828,
      "ĠÂ": 4829,
      "Ġwit": 4830,
      "Ġmic": 4831,
      "Ġweather": 4832,
      "Ġpercent": 4833,
      "Ġelected": 4834,
      "Ġgrave": 4835,
      "Ġepisode": 4836,
      "gress": 4837,
      "vince": 4838,
      "oured": 4839,
      "onse": 4840,
      "Ġpool": 4841,
      "ĠGot": 4842,
      "inda": 4843,
      "using": 4844,
      "umber": 4845,
      "Ġblanket": 4846,
      "ĠMabel": 4847,
      "ĠHur": 4848,
      "ching": 4849,
      "rank": 4850,
      "Ġscene": 4851,
      "Ġheads": 4852,
      "Ġdistrib": 4853,
      "Ġconstruction": 4854,
      "Ġharm": 4855,
      "Ġjudge": 4856,
      "Ġcouncil": 4857,
      "Ġgate": 4858,
      "eta": 4859,
      "ĠSoviet": 4860,
      "Ġoil": 4861,
      "Ġcott": 4862,
      "Ġloss": 4863,
      "Ġaccording": 4864,
      "Ġdecide": 4865,
      "Ġbowl": 4866,
      "Ġtong": 4867,
      "Ġfruit": 4868,
      "Ġstudents": 4869,
      "Ġstruck": 4870,
      "cely": 4871,
      "ively": 4872,
      "Ġwilln": 4873,
      "Ġsecurity": 4874,
      "Ġfixed": 4875,
      "mit": 4876,
      "Ġfought": 4877,
      "ĠBig": 4878,
      "Ġshown": 4879,
      "rans": 4880,
      "ĠPerhaps": 4881,
      "_,": 4882,
      "with": 4883,
      "Ġlion": 4884,
      "Ġjack": 4885,
      "Ġgentlemen": 4886,
      "Ġcircus": 4887,
      "itzerland": 4888,
      "Ã¨": 4889,
      "Ġliter": 4890,
      "ĠCont": 4891,
      "ĠHapp": 4892,
      "Ġcrime": 4893,
      "Ġ40": 4894,
      "Ġperfectly": 4895,
      "oma": 4896,
      "Ġham": 4897,
      "ala": 4898,
      "Ġ31": 4899,
      "ĠOnce": 4900,
      "Ġcaptain": 4901,
      "Ġoccur": 4902,
      "Ġdeclared": 4903,
      "Ġnecessary": 4904,
      "coughs": 4905,
      "tin": 4906,
      "ĠSk": 4907,
      "aled": 4908,
      "elled": 4909,
      "isted": 4910,
      "Ġkeeping": 4911,
      "ĠSwitzerland": 4912,
      "Ġstrawberries": 4913,
      "bury": 4914,
      "corder": 4915,
      "ĠLife": 4916,
      "Ġjumped": 4917,
      "ĠScotland": 4918,
      "Ġtv": 4919,
      "Ġtar": 4920,
      "aries": 4921,
      "ĠDar": 4922,
      "Ġrate": 4923,
      "Ġgreatest": 4924,
      "Ġdemand": 4925,
      "Ġanxious": 4926,
      "asy": 4927,
      "ĠEmp": 4928,
      "ĠMaria": 4929,
      "Ġholds": 4930,
      "ĠAngela": 4931,
      "Ġbang": 4932,
      "ona": 4933,
      "ĠChina": 4934,
      "Ġdesp": 4935,
      "Ġearn": 4936,
      "Ġoccup": 4937,
      "Ġfrightened": 4938,
      "Ġcamera": 4939,
      "ferent": 4940,
      "Ġwilling": 4941,
      "Ġscary": 4942,
      "Ġdevelopment": 4943,
      "Ġenvironment": 4944,
      "Ġmut": 4945,
      "Ġfashion": 4946,
      "ĠBu": 4947,
      "?'": 4948,
      "ez": 4949,
      "mes": 4950,
      "ĠSaint": 4951,
      "Ġdoc": 4952,
      "Ġchannel": 4953,
      "Ġhotel": 4954,
      "ĠPercy": 4955,
      "Ġwooden": 4956,
      "ĠChampionship": 4957,
      "aven": 4958,
      "pan": 4959,
      "Ġthy": 4960,
      "ĠCle": 4961,
      "Ġarrow": 4962,
      "cip": 4963,
      "Ġcompeted": 4964,
      "Ġavail": 4965,
      "Ġwha": 4966,
      "Ġfancy": 4967,
      "Ġtow": 4968,
      "ĠAp": 4969,
      "Ġweak": 4970,
      "ĠMajor": 4971,
      "aches": 4972,
      "ĠBoy": 4973,
      "esty": 4974,
      "Ġdisp": 4975,
      "Ġfund": 4976,
      "ĠSing": 4977,
      "ĠWind": 4978,
      "Ġvac": 4979,
      "Ġchampions": 4980,
      "ĠScr": 4981,
      "Ġpossibly": 4982,
      "ique": 4983,
      "nods": 4984,
      "paper": 4985,
      "Ġfoc": 4986,
      "Ġgro": 4987,
      "ĠDra": 4988,
      "Ġqueen": 4989,
      "Ġappl": 4990,
      "edy": 4991,
      "Ġpin": 4992,
      "ĠTim": 4993,
      "ĠGO": 4994,
      "ĠFOR": 4995,
      "gas": 4996,
      "Ġscience": 4997,
      "Ġopin": 4998,
      "Ġweird": 4999,
      "ĠEarly": 5000,
      "ĠIsland": 5001,
      "200": 5002,
      "inist": 5003,
      "ĠRay": 5004,
      "ĠRock": 5005,
      "Ġmanaged": 5006,
      "udd": 5007,
      "iction": 5008,
      "Ġcontact": 5009,
      "Ġloudly": 5010,
      "Ġcant": 5011,
      "berg": 5012,
      "ĠThose": 5013,
      "ĠVir": 5014,
      "Ġcoast": 5015,
      "Ġsilence": 5016,
      "Ġcompetition": 5017,
      "Ġir": 5018,
      "rees": 5019,
      "Ġcustom": 5020,
      "Ġlower": 5021,
      "Ġrow": 5022,
      "Ġdishes": 5023,
      "ava": 5024,
      "ĠChris": 5025,
      "Ġmarriage": 5026,
      "Ġsusp": 5027,
      "Ġcuri": 5028,
      "etch": 5029,
      "Ġrising": 5030,
      "All": 5031,
      "bur": 5032,
      "da": 5033,
      "vis": 5034,
      "Ġtight": 5035,
      "Ġsac": 5036,
      "Ġnurs": 5037,
      "Ġmeal": 5038,
      "ĠNat": 5039,
      "ĠFe": 5040,
      "ishop": 5041,
      "Ġenergy": 5042,
      "Ġrail": 5043,
      "Ġcontinues": 5044,
      "icycle": 5045,
      "Ġfold": 5046,
      "Ġthick": 5047,
      "Ġleading": 5048,
      "Ġdisease": 5049,
      "In": 5050,
      "ba": 5051,
      "Ġrom": 5052,
      "Ġcred": 5053,
      "ĠIran": 5054,
      "Ġstret": 5055,
      "Ġlibr": 5056,
      "Ġremained": 5057,
      "Ġregular": 5058,
      "sec": 5059,
      "ĠBye": 5060,
      "ĠFour": 5061,
      "Ġbutton": 5062,
      "Ġadvent": 5063,
      "Ġstrength": 5064,
      "ste": 5065,
      "illa": 5066,
      "ĠFore": 5067,
      "umps": 5068,
      "Ġboots": 5069,
      "ĠZara": 5070,
      "UST": 5071,
      "Ġprepared": 5072,
      "Ġbare": 5073,
      "Ġpitched": 5074,
      "Ġge": 5075,
      "lected": 5076,
      "ĠMinn": 5077,
      "ĠNO": 5078,
      "Ġadult": 5079,
      "Ġsword": 5080,
      "ĠWalter": 5081,
      "Ġdeterm": 5082,
      "sm": 5083,
      "Ġnovel": 5084,
      "Ġgiant": 5085,
      "Ġacqu": 5086,
      "ĠSomething": 5087,
      "Ġye": 5088,
      "Ġyouth": 5089,
      "Ġnoticed": 5090,
      "Ġremind": 5091,
      "Ġattract": 5092,
      "Ġcarefully": 5093,
      "Ġdirection": 5094,
      "Ġcenter": 5095,
      "Ġestabl": 5096,
      "ĠAccording": 5097,
      "rig": 5098,
      "ĠHon": 5099,
      "aked": 5100,
      "ĠKat": 5101,
      "Ġcontract": 5102,
      "ilda": 5103,
      "ildred": 5104,
      "ribed": 5105,
      "Ġfifteen": 5106,
      "Ġcentre": 5107,
      "ĠGuy": 5108,
      "Ġelephants": 5109,
      "ĠKeep": 5110,
      "Ġstomach": 5111,
      "CT": 5112,
      "mar": 5113,
      "Ġtrib": 5114,
      "Ġbump": 5115,
      "ĠCons": 5116,
      "Ġstream": 5117,
      "Ġcancer": 5118,
      "useum": 5119,
      "Ġarch": 5120,
      "Ġhelping": 5121,
      "known": 5122,
      "aves": 5123,
      "ship": 5124,
      "ĠDen": 5125,
      "ĠFar": 5126,
      "Ġshore": 5127,
      "peror": 5128,
      "Ġseconds": 5129,
      "ĠEverything": 5130,
      "Ġourselves": 5131,
      "Ġ2005": 5132,
      "Ġ2008": 5133,
      "ĠGerald": 5134,
      "ederal": 5135,
      "bet": 5136,
      "Ġma": 5137,
      "ĠLee": 5138,
      "anges": 5139,
      "Ġstring": 5140,
      "Ġpractice": 5141,
      "ĠJapanese": 5142,
      "initely": 5143,
      "Ġsides": 5144,
      "erg": 5145,
      "Ġgaz": 5146,
      "ĠSay": 5147,
      "eaks": 5148,
      "ĠRy": 5149,
      "Ġ2009": 5150,
      "Ġplane": 5151,
      "Ġproduc": 5152,
      "ĠAfrica": 5153,
      "bu": 5154,
      "ker": 5155,
      "heart": 5156,
      "ouri": 5157,
      "ĠSun": 5158,
      "Ġstorm": 5159,
      "Ġunc": 5160,
      "Ġhandle": 5161,
      "pens": 5162,
      "ĠIslam": 5163,
      "Ġ2007": 5164,
      "Ġextreme": 5165,
      "gl": 5166,
      "Ġfurn": 5167,
      "Ġpan": 5168,
      "ript": 5169,
      "ĠHol": 5170,
      "Ġsaf": 5171,
      "ĠJenn": 5172,
      "osc": 5173,
      "istan": 5174,
      "Ġlights": 5175,
      "Ġopportunity": 5176,
      "?]": 5177,
      "orks": 5178,
      "ĠHum": 5179,
      "Ġdownstairs": 5180,
      "ĠChinese": 5181,
      "Ġcrown": 5182,
      "Ġmerry": 5183,
      "\"]": 5184,
      "sighs": 5185,
      "Ġwed": 5186,
      "ĠMhm": 5187,
      "ademy": 5188,
      "ĠHu": 5189,
      "ĠPope": 5190,
      "ĠGar": 5191,
      "Ġofficial": 5192,
      "Ġpurple": 5193,
      "book": 5194,
      "mn": 5195,
      "Ġcam": 5196,
      "Ġnea": 5197,
      "Ġrings": 5198,
      "Ġsomethin": 5199,
      "Ġpainting": 5200,
      "ĠTod": 5201,
      "ĠMildred": 5202,
      "Ġformed": 5203,
      "ĠRel": 5204,
      "ĠJake": 5205,
      "Ġprice": 5206,
      "Ġgreater": 5207,
      "Ġopening": 5208,
      "Ġswing": 5209,
      "ĠEdward": 5210,
      "Ġdriver": 5211,
      "Ġhanging": 5212,
      "gie": 5213,
      "reg": 5214,
      "ĠIr": 5215,
      "ĠBas": 5216,
      "ura": 5217,
      "Ġvir": 5218,
      "ĠStill": 5219,
      "Ġ2004": 5220,
      "Ġinterview": 5221,
      "Ġmotion": 5222,
      "IM": 5223,
      "Ġlog": 5224,
      "ooge": 5225,
      "ĠKent": 5226,
      "Ġchoose": 5227,
      "ĠBritain": 5228,
      "ĠCongress": 5229,
      "gs": 5230,
      "kins": 5231,
      "uten": 5232,
      "ĠHold": 5233,
      "Ġplums": 5234,
      "Ġsmiled": 5235,
      "Ġsteps": 5236,
      "Ġsouthw": 5237,
      "fit": 5238,
      "su": 5239,
      "Ġmail": 5240,
      "aching": 5241,
      "chuckles": 5242,
      "ilies": 5243,
      "urns": 5244,
      "Ġcampaign": 5245,
      "ĠNether": 5246,
      "Ġmentioned": 5247,
      "Ġmemory": 5248,
      "Ġwrest": 5249,
      "ication": 5250,
      "ĠDoctor": 5251,
      "Ġ2006": 5252,
      "Ġgrowing": 5253,
      "Ġtongue": 5254,
      "Ġdying": 5255,
      "Ġpig": 5256,
      "ĠMY": 5257,
      "ĠCall": 5258,
      "Ġknowing": 5259,
      "ĠZeal": 5260,
      "This": 5261,
      "ĠCollege": 5262,
      "Ġappreci": 5263,
      "ault": 5264,
      "ij": 5265,
      "Ġtries": 5266,
      "ero": 5267,
      "Ġchanges": 5268,
      "Ġfeels": 5269,
      "ĠPrin": 5270,
      "ippi": 5271,
      "ĠPlay": 5272,
      "Ġsoldier": 5273,
      "EA": 5274,
      "ban": 5275,
      "eks": 5276,
      "arah": 5277,
      "ĠFil": 5278,
      "ends": 5279,
      "Ġprint": 5280,
      "ĠFlor": 5281,
      "Ġofficers": 5282,
      "Ġorders": 5283,
      "Ġboss": 5284,
      "ĠTown": 5285,
      "ĠWestern": 5286,
      "ĠBRO": 5287,
      "Ġkinds": 5288,
      "ification": 5289,
      "Ġevents": 5290,
      "Ġnormal": 5291,
      "15": 5292,
      "car": 5293,
      "don": 5294,
      "Ġnerv": 5295,
      "Ġmere": 5296,
      "ilities": 5297,
      "Ġsaus": 5298,
      "Ġuses": 5299,
      "Ġprevent": 5300,
      "Ġkeeps": 5301,
      "Ġphil": 5302,
      "Ġfallen": 5303,
      "Ġfra": 5304,
      "Ġpapers": 5305,
      "omm": 5306,
      "ĠServ": 5307,
      "Ġeld": 5308,
      "kel": 5309,
      "Ġwheels": 5310,
      "iel": 5311,
      "Ġplans": 5312,
      "Ġprim": 5313,
      "Ġsisters": 5314,
      "Ġcarrying": 5315,
      "ĠSometimes": 5316,
      "ĠNetherlands": 5317,
      "ION": 5318,
      "Ġsch": 5319,
      "ardon": 5320,
      "Ġmoves": 5321,
      "Ġowned": 5322,
      "Ġterror": 5323,
      "Ġmodern": 5324,
      "Ġversion": 5325,
      "Ġwings": 5326,
      "Ġdare": 5327,
      "ĠRoyal": 5328,
      "eman": 5329,
      "Ġtrade": 5330,
      "Ġactress": 5331,
      "erecorder": 5332,
      "Ġgolden": 5333,
      "Ġneighbor": 5334,
      "Ġsettled": 5335,
      "ĠScrooge": 5336,
      "dam": 5337,
      "Ġign": 5338,
      "anch": 5339,
      "ador": 5340,
      "Ġnoble": 5341,
      "ocal": 5342,
      "Ġeleven": 5343,
      "Ġsmaller": 5344,
      "ĠBarb": 5345,
      "ĠWHAT": 5346,
      "ĠGreek": 5347,
      "Come": 5348,
      "tr": 5349,
      "Ġbrief": 5350,
      "ening": 5351,
      "ĠMummy": 5352,
      "ĠVal": 5353,
      "Ġ2003": 5354,
      "Ġkiller": 5355,
      "ological": 5356,
      "Ġresponse": 5357,
      "ĠAgnes": 5358,
      "ĠDistrict": 5359,
      "ĠZealand": 5360,
      "aning": 5361,
      "Ġlord": 5362,
      "ĠTHIS": 5363,
      "keep": 5364,
      "iring": 5365,
      "sequ": 5366,
      "Ġknowledge": 5367,
      "Ġshoe": 5368,
      "Ġflight": 5369,
      "Ġtext": 5370,
      "Ġsmell": 5371,
      "Ġchem": 5372,
      "Ġmostly": 5373,
      "Ġfrogs": 5374,
      "ĠIreland": 5375,
      "pet": 5376,
      "Ġloll": 5377,
      "kend": 5378,
      "ĠJac": 5379,
      "Ġblind": 5380,
      "Ġuhoh": 5381,
      "Ġindivid": 5382,
      "Ġdreams": 5383,
      "ĠBecky": 5384,
      "Ġnomin": 5385,
      "Ġho": 5386,
      "ĠWel": 5387,
      "Ġjoke": 5388,
      "Ġplat": 5389,
      "iano": 5390,
      "Ġqual": 5391,
      "izing": 5392,
      "Ġpoet": 5393,
      "Ġmatches": 5394,
      "Ġrocks": 5395,
      "ĠEmpire": 5396,
      "Ġpound": 5397,
      "Ġghost": 5398,
      "ĠMount": 5399,
      "ĠWow": 5400,
      "ĠWay": 5401,
      "ĠFort": 5402,
      "Ġsuc": 5403,
      "Ġoranges": 5404,
      "ĠMississ": 5405,
      "Ġ1990": 5406,
      "Ġteams": 5407,
      "Ġdrawing": 5408,
      "Ġconcerned": 5409,
      "lend": 5410,
      "bey": 5411,
      "Ġremain": 5412,
      "Ġtrial": 5413,
      "Ġrules": 5414,
      "Ġbabies": 5415,
      "Ġideas": 5416,
      "Ġted": 5417,
      "erc": 5418,
      "Ġnic": 5419,
      "ĠMax": 5420,
      "ĠHot": 5421,
      "Ġexcellent": 5422,
      "Ġrob": 5423,
      "Ġtalks": 5424,
      "Ġhelmet": 5425,
      "Ġwindows": 5426,
      "Ġforever": 5427,
      "Ġfigures": 5428,
      "Ġrisk": 5429,
      "Ġrapid": 5430,
      "16": 5431,
      "Ġess": 5432,
      "Ġdish": 5433,
      "enny": 5434,
      "ĠTra": 5435,
      "oston": 5436,
      "pering": 5437,
      "Ġwaited": 5438,
      "ĠAssociation": 5439,
      "Ġmarry": 5440,
      "Ġretired": 5441,
      "Ġoccasion": 5442,
      "ĠAustrian": 5443,
      "Ġcruel": 5444,
      "melon": 5445,
      "ĠHappy": 5446,
      "ĠMississippi": 5447,
      "OUR": 5448,
      "face": 5449,
      "Ġnuts": 5450,
      "ether": 5451,
      "ading": 5452,
      "aki": 5453,
      "Ġ2000": 5454,
      "Ġuseta": 5455,
      "Ġbedroom": 5456,
      "Ġeasier": 5457,
      "ĠSwed": 5458,
      "fortun": 5459,
      "ĠWilliams": 5460,
      "Ġsucceed": 5461,
      "uz": 5462,
      "amin": 5463,
      "Ġsake": 5464,
      "Ġgoodness": 5465,
      "Ġflag": 5466,
      "Ġschools": 5467,
      "ĠDonald": 5468,
      "uan": 5469,
      "Ġemer": 5470,
      "ĠWAS": 5471,
      "ĠNick": 5472,
      "ems": 5473,
      "Ġbike": 5474,
      "ĠMill": 5475,
      "ĠHor": 5476,
      "ĠNice": 5477,
      "ĠLos": 5478,
      "Ġupset": 5479,
      "Ġalt": 5480,
      "place": 5481,
      "ĠCarol": 5482,
      "Ġburst": 5483,
      "Ġestablished": 5484,
      "Ġsafety": 5485,
      "Not": 5486,
      "back": 5487,
      "otion": 5488,
      "Ġant": 5489,
      "ĠRon": 5490,
      "ĠStan": 5491,
      "iety": 5492,
      "arently": 5493,
      "Ġrib": 5494,
      "llen": 5495,
      "ĠBru": 5496,
      "Ġmel": 5497,
      "ĠRom": 5498,
      "ĠFine": 5499,
      "arts": 5500,
      "Ġworst": 5501,
      "avar": 5502,
      "199": 5503,
      "Ġwalls": 5504,
      "craft": 5505,
      "gt": 5506,
      "ĠHI": 5507,
      "Ġsen": 5508,
      "Ġbi": 5509,
      "Ġfond": 5510,
      "ĠTy": 5511,
      "ĠHA": 5512,
      "Ġplants": 5513,
      "Ġarg": 5514,
      "Ġshape": 5515,
      "Ġforgotten": 5516,
      "Ġconstit": 5517,
      "Ġmodel": 5518,
      "ĠCanadian": 5519,
      "VER": 5520,
      "uf": 5521,
      "nding": 5522,
      "Ġbomb": 5523,
      "outs": 5524,
      "cel": 5525,
      "ĠPolly": 5526,
      "Ġvot": 5527,
      "ĠMissouri": 5528,
      "pronounced": 5529,
      "Ġloves": 5530,
      "ĠMexico": 5531,
      "ae": 5532,
      "Ġwished": 5533,
      "ĠSur": 5534,
      "Ġsigned": 5535,
      "Ġpowerful": 5536,
      "ĠCatholic": 5537,
      "Ġlollip": 5538,
      "mark": 5539,
      "inet": 5540,
      "Ġwaste": 5541,
      "Ġforces": 5542,
      "ucky": 5543,
      "Ġyounger": 5544,
      "ĠSecond": 5545,
      "Ġtotally": 5546,
      "Ġrepeated": 5547,
      "ĠCareer": 5548,
      "cake": 5549,
      "lla": 5550,
      "Ġpears": 5551,
      "Ġproceed": 5552,
      "Ġattend": 5553,
      "Ġwatermelon": 5554,
      "Ġclouds": 5555,
      "Ġfork": 5556,
      "ĠBan": 5557,
      "ĠDou": 5558,
      "ĠEarl": 5559,
      "Ġrise": 5560,
      "Ġ32": 5561,
      "Ġpresents": 5562,
      "Ġleaders": 5563,
      "aura": 5564,
      "Mark": 5565,
      "ado": 5566,
      "ĠCooper": 5567,
      "roll": 5568,
      "Ġsociety": 5569,
      "Ġmanager": 5570,
      "Ġglo": 5571,
      "ĠArt": 5572,
      "Ġaware": 5573,
      "OME": 5574,
      "sych": 5575,
      "ĠAlexander": 5576,
      "aun": 5577,
      "fess": 5578,
      "Ġtheory": 5579,
      "Ġfaces": 5580,
      "ĠMaj": 5581,
      "ĠOk": 5582,
      "Ġjournal": 5583,
      "olars": 5584,
      "Ġcarriage": 5585,
      "Ġ2001": 5586,
      "Ġhighest": 5587,
      "Ġbother": 5588,
      "onia": 5589,
      "oria": 5590,
      "arily": 5591,
      "Ġweight": 5592,
      "ĠHome": 5593,
      "ĠPut": 5594,
      "ĠUN": 5595,
      "ĠUnder": 5596,
      "Ġunion": 5597,
      "Ġshoulder": 5598,
      "Ġfinding": 5599,
      "ĠPrime": 5600,
      "----------------": 5601,
      "ĠSecretary": 5602,
      "Ġavailable": 5603,
      "BC": 5604,
      "there": 5605,
      "Ġcases": 5606,
      "Ġcups": 5607,
      "Ġcensus": 5608,
      "Ġpurs": 5609,
      "semb": 5610,
      "ĠJon": 5611,
      "ĠMarie": 5612,
      "AND": 5613,
      "gery": 5614,
      "wo": 5615,
      "Ġfal": 5616,
      "ĠBoston": 5617,
      "stood": 5618,
      "ĠPict": 5619,
      "ĠFC": 5620,
      "Ġrice": 5621,
      "ĠKore": 5622,
      "Ġdism": 5623,
      "Ġfeelings": 5624,
      "Ġfifth": 5625,
      "Ġmedical": 5626,
      "EP": 5627,
      "hal": 5628,
      "Ġcy": 5629,
      "Ġheaven": 5630,
      "ushes": 5631,
      "rial": 5632,
      "aming": 5633,
      "ĠRh": 5634,
      "Ġshock": 5635,
      "avis": 5636,
      "Ġwondering": 5637,
      "Ġstreets": 5638,
      "Ġsalt": 5639,
      "Ġreligious": 5640,
      "Ġvoices": 5641,
      "Ġsilly": 5642,
      "icles": 5643,
      "Ġpolicy": 5644,
      "Ġbringing": 5645,
      "Ġgrandfather": 5646,
      "Ġordered": 5647,
      "Ġwore": 5648,
      "ented": 5649,
      "Ġprove": 5650,
      "ĠStar": 5651,
      "Ġparticip": 5652,
      "Ġneedta": 5653,
      "Ġprotest": 5654,
      "Ġutter": 5655,
      "Ġteddy": 5656,
      "year": 5657,
      "Ġpages": 5658,
      "ĠUk": 5659,
      "Ġaffe": 5660,
      "ĠIsn": 5661,
      "Ġpickle": 5662,
      "Ġsteal": 5663,
      "ĠActually": 5664,
      "Ġdegree": 5665,
      "12": 5666,
      "Ġsite": 5667,
      "riff": 5668,
      "ĠBre": 5669,
      "Ġreported": 5670,
      "Ġsausage": 5671,
      "PE": 5672,
      "Ġcong": 5673,
      "Ġstates": 5674,
      "Ġsomewhat": 5675,
      "Ġrode": 5676,
      "ansas": 5677,
      "Ġcondition": 5678,
      "Ġdeveloped": 5679,
      "Ġcomfortable": 5680,
      "Ġaunt": 5681,
      "itar": 5682,
      "Ġinvent": 5683,
      "ĠAndrew": 5684,
      "places": 5685,
      "Ġcookie": 5686,
      "Ġglasses": 5687,
      "Ġgradu": 5688,
      "Ġrelationship": 5689,
      "MAL": 5690,
      "bell": 5691,
      "ĠShi": 5692,
      "ĠWall": 5693,
      "Ġforced": 5694,
      "ential": 5695,
      "ĠCos": 5696,
      "ĠBack": 5697,
      "Ġshr": 5698,
      "Ġconqu": 5699,
      "Ġeverywhere": 5700,
      "Ġevil": 5701,
      "Ġveget": 5702,
      "Ġlollipop": 5703,
      "ule": 5704,
      "Ġbod": 5705,
      "Ġfence": 5706,
      "ĠSix": 5707,
      "ĠScient": 5708,
      "opher": 5709,
      "this": 5710,
      "ĠStep": 5711,
      "Ġamb": 5712,
      "Ġfamilies": 5713,
      "Ġweekend": 5714,
      "Ġsalad": 5715,
      "box": 5716,
      "Ġsuccessful": 5717,
      "Ġholes": 5718,
      "ĠAustria": 5719,
      "ĠDemocratic": 5720,
      "Ġmedicine": 5721,
      "hoe": 5722,
      "Ġocean": 5723,
      "Ġintern": 5724,
      "ĠTime": 5725,
      "Ġdose": 5726,
      "ĠPan": 5727,
      "Ġpean": 5728,
      "Ġsmoke": 5729,
      "ĠAlthough": 5730,
      "Ġmagaz": 5731,
      "Ġ189": 5732,
      "ĠJohnson": 5733,
      "Ġcentral": 5734,
      "ĠProvince": 5735,
      "Ġremembered": 5736,
      "ĠMuslim": 5737,
      "zo": 5738,
      "Ġbunch": 5739,
      "Ġcit": 5740,
      "Ġcities": 5741,
      "onel": 5742,
      "Ġnarrow": 5743,
      "ĠSol": 5744,
      "amond": 5745,
      "Ġships": 5746,
      "asty": 5747,
      "rences": 5748,
      "zza": 5749,
      "Ġchest": 5750,
      "Ġaddition": 5751,
      "Ġamazing": 5752,
      "mission": 5753,
      "tries": 5754,
      "Ġdun": 5755,
      "ications": 5756,
      "Ġreign": 5757,
      "ĠHal": 5758,
      "ĠEv": 5759,
      "ube": 5760,
      "Ġserve": 5761,
      "Ġapolog": 5762,
      "Ġcompanies": 5763,
      "ĠGovernment": 5764,
      "Ġnervous": 5765,
      "14": 5766,
      "Ġbunny": 5767,
      "ĠMi": 5768,
      "thur": 5769,
      "Ġbecoming": 5770,
      "Ġstaying": 5771,
      "ĠAuntie": 5772,
      "Ġscarcely": 5773,
      "Ġshadow": 5774,
      "Ġmud": 5775,
      "estival": 5776,
      "Ġgoodbye": 5777,
      "Ġtroub": 5778,
      "Ġforeign": 5779,
      "Ġincluded": 5780,
      "Ġservices": 5781,
      "Ġreligion": 5782,
      "rant": 5783,
      "rick": 5784,
      "Ġbone": 5785,
      "Ġgift": 5786,
      "ĠLI": 5787,
      "ĠLaura": 5788,
      "ishment": 5789,
      "Ġserving": 5790,
      "Ġminister": 5791,
      "Ġcircum": 5792,
      "Ġfailed": 5793,
      "Ġpotatoes": 5794,
      "Ġstyle": 5795,
      "ĠBest": 5796,
      "iece": 5797,
      "Ġplanning": 5798,
      "Ġguns": 5799,
      "ĠAngeles": 5800,
      "sings": 5801,
      "Ġtourn": 5802,
      "Ġmor": 5803,
      "Ġmale": 5804,
      "ena": 5805,
      "Ġgira": 5806,
      "aring": 5807,
      "ada": 5808,
      "Ġstir": 5809,
      "ĠBund": 5810,
      "ogether": 5811,
      "ĠAnother": 5812,
      "they": 5813,
      "Ġenter": 5814,
      "Ġbarn": 5815,
      "ĠTrans": 5816,
      "ĠSpe": 5817,
      "Ġrelease": 5818,
      "ental": 5819,
      "ola": 5820,
      "ocks": 5821,
      "Ġmatters": 5822,
      "ĠGovernor": 5823,
      "Ġbub": 5824,
      "Ġliber": 5825,
      "ĠGirl": 5826,
      "ibility": 5827,
      "Ġsalami": 5828,
      "ĠCharlie": 5829,
      "ĠMerle": 5830,
      "ĠSusan": 5831,
      "Ġheat": 5832,
      "ĠWent": 5833,
      "urt": 5834,
      "Ġalpha": 5835,
      "Ġroy": 5836,
      "Ġsurround": 5837,
      "Ġgrandmother": 5838,
      "bled": 5839,
      "ga": 5840,
      "Ġtour": 5841,
      "Ġwond": 5842,
      "utive": 5843,
      "Ġkm": 5844,
      "ĠVan": 5845,
      "Ġmedal": 5846,
      "ĠHarry": 5847,
      "Ġtarget": 5848,
      "zer": 5849,
      "Ġcourage": 5850,
      "ĠAEW": 5851,
      "Ġsection": 5852,
      "Ġriding": 5853,
      "Ġscrew": 5854,
      "Ġ188": 5855,
      "Ġsnake": 5856,
      "Ġplanet": 5857,
      "Ġcandid": 5858,
      "Ġprisoners": 5859,
      "\"?": 5860,
      "Mother": 5861,
      "ĠTor": 5862,
      "ĠSqu": 5863,
      "ols": 5864,
      "Ġsplend": 5865,
      "Ġthroughout": 5866,
      "ugs": 5867,
      "Ġhearts": 5868,
      "Ġedge": 5869,
      "Ġperforman": 5870,
      "ĠVirgin": 5871,
      "Good": 5872,
      "ugg": 5873,
      "Ġfaster": 5874,
      "Ġreve": 5875,
      "ĠHy": 5876,
      "road": 5877,
      "Ġflo": 5878,
      "Ġadop": 5879,
      "Ġadvice": 5880,
      "Ġstrike": 5881,
      "HER": 5882,
      "Ġfac": 5883,
      "esome": 5884,
      "ĠBa": 5885,
      "ctors": 5886,
      "Ġtraffic": 5887,
      "Ġpolic": 5888,
      "Ġissue": 5889,
      "Ġpatient": 5890,
      "Ġinnoc": 5891,
      "ked": 5892,
      "law": 5893,
      "Ġmam": 5894,
      "atory": 5895,
      "ĠMavis": 5896,
      "ĠBea": 5897,
      "ĠRog": 5898,
      "Ġshell": 5899,
      "ucking": 5900,
      "Ġsurely": 5901,
      "Ġgenerally": 5902,
      "ĠNext": 5903,
      "Ġmountains": 5904,
      "Ġhasta": 5905,
      "Ġ/": 5906,
      "Ġmaid": 5907,
      "Ġinit": 5908,
      "ett": 5909,
      "acher": 5910,
      "Ġpreschool": 5911,
      "Ġsorts": 5912,
      "Ġcopy": 5913,
      "writer": 5914,
      "ĠMargaret": 5915,
      "ĠAcademy": 5916,
      "Ġopinion": 5917,
      "Sarah": 5918,
      "fall": 5919,
      "acon": 5920,
      "ĠOff": 5921,
      "Ġexerc": 5922,
      "Ġsings": 5923,
      "Ġdeck": 5924,
      "Ġblame": 5925,
      "Ġdesk": 5926,
      "ĠAlright": 5927,
      "clears": 5928,
      "ĠAtl": 5929,
      "ĠJohnny": 5930,
      "engers": 5931,
      "Ġdrawn": 5932,
      "Ġvalue": 5933,
      "low": 5934,
      "phe": 5935,
      "Ġtie": 5936,
      "Ġachie": 5937,
      "Ġcards": 5938,
      "ette": 5939,
      "ĠLo": 5940,
      "ĠFair": 5941,
      "ĠEst": 5942,
      "ĠThink": 5943,
      "Ġhearing": 5944,
      "Ġkidding": 5945,
      "Ġcreature": 5946,
      "Ġadminist": 5947,
      "Ġappearance": 5948,
      "friend": 5949,
      "isions": 5950,
      "ĠBook": 5951,
      "ĠPers": 5952,
      "ability": 5953,
      "Ġ1980": 5954,
      "Ġdepart": 5955,
      "Ġcritic": 5956,
      "Ġpillow": 5957,
      "Ġwinning": 5958,
      "Ġpred": 5959,
      "astern": 5960,
      "ima": 5961,
      "Ġune": 5962,
      "Ġdoors": 5963,
      "Ġancient": 5964,
      "ĠVict": 5965,
      "Ġpartner": 5966,
      "Ġthoughts": 5967,
      "Ġactive": 5968,
      "Ġleague": 5969,
      "Ġrespond": 5970,
      "Ġcurrently": 5971,
      "cont": 5972,
      "nan": 5973,
      "Ġnest": 5974,
      "ĠArab": 5975,
      "Ġeh": 5976,
      "Ġlies": 5977,
      "ulous": 5978,
      "Ġoblig": 5979,
      "Ġorganization": 5980,
      "Ġwagon": 5981,
      "ILL": 5982,
      "bour": 5983,
      "ef": 5984,
      "essel": 5985,
      "Ġlem": 5986,
      "ĠSO": 5987,
      "ĠBal": 5988,
      "ĠBra": 5989,
      "andy": 5990,
      "Ġpros": 5991,
      "Ġuniversity": 5992,
      "Ġgrey": 5993,
      "Ġdisappeared": 5994,
      "Ġweapons": 5995,
      "draw": 5996,
      "run": 5997,
      "war": 5998,
      "ashing": 5999,
      "Ġhiding": 6000,
      "utions": 6001,
      "ĠHuh": 6002,
      "Ġhadta": 6003,
      "Ġsomehow": 6004,
      "Ġentertain": 6005,
      "ĠProfess": 6006,
      "Ġhorsie": 6007,
      "Ġtaperecorder": 6008,
      "ĠLabour": 6009,
      "FF": 6010,
      "case": 6011,
      "ĠSHE": 6012,
      "chief": 6013,
      "Ġresc": 6014,
      "ĠArgent": 6015,
      "ĠScar": 6016,
      "Ġ1960": 6017,
      "ĠMickey": 6018,
      "Ġindustry": 6019,
      "Ġtouched": 6020,
      "ĠBruce": 6021,
      "pret": 6022,
      "vest": 6023,
      "Ġyard": 6024,
      "ĠIll": 6025,
      "Ġnation": 6026,
      "Ġgoal": 6027,
      "ĠYear": 6028,
      "Ġbegins": 6029,
      "Ġ1995": 6030,
      "Ġkingdom": 6031,
      "Ġunclear": 6032,
      "Ġmixed": 6033,
      "Ġmirror": 6034,
      "60": 6035,
      "ĠSea": 6036,
      "ĠMaine": 6037,
      "Ġupside": 6038,
      "ĠNobody": 6039,
      "Ġfriendly": 6040,
      "ounce": 6041,
      "Ġplanned": 6042,
      "Ġdrove": 6043,
      "ÃŃt": 6044,
      "Ġmispronounced": 6045,
      "Ġbesides": 6046,
      "Ġproperty": 6047,
      "Ġopposite": 6048,
      "ĠOl": 6049,
      "ĠLy": 6050,
      "Ġjun": 6051,
      "ĠKim": 6052,
      "Ġarran": 6053,
      "ggy": 6054,
      "Ġcats": 6055,
      "Ġarrested": 6056,
      "An": 6057,
      "erable": 6058,
      "isher": 6059,
      "Ġpale": 6060,
      "ata": 6061,
      "Ġkick": 6062,
      "ĠNic": 6063,
      "ĠGers": 6064,
      "Ġclimate": 6065,
      "hens": 6066,
      "Ġballoon": 6067,
      "Ġcookies": 6068,
      "ĠEveryone": 6069,
      "ĠAustralian": 6070,
      "ĠMartin": 6071,
      "tt": 6072,
      "wing": 6073,
      "Ġtear": 6074,
      "Ġcad": 6075,
      "ĠNik": 6076,
      "Ġsilent": 6077,
      "ĠArthur": 6078,
      "Ġbuildings": 6079,
      "ĠColumb": 6080,
      "ĠLatin": 6081,
      "last": 6082,
      "Ġtun": 6083,
      "Ġdim": 6084,
      "Ġfreed": 6085,
      "Ġthin": 6086,
      "ĠWhe": 6087,
      "Ġsmiling": 6088,
      "Ġapples": 6089,
      "Ġpresence": 6090,
      "ension": 6091,
      "Ġlegal": 6092,
      "Ġforgive": 6093,
      "ĠTommy": 6094,
      "ĠTurk": 6095,
      "13": 6096,
      "die": 6097,
      "Ġsink": 6098,
      "ĠLong": 6099,
      "Ġspill": 6100,
      "Ġvessel": 6101,
      "Ġarrange": 6102,
      "Ġgrace": 6103,
      "Ġbiggest": 6104,
      "Ġuseful": 6105,
      "Ġ1998": 6106,
      "Ġdolls": 6107,
      "Ġshooting": 6108,
      "Ġpressure": 6109,
      "Ġpony": 6110,
      "ĠTre": 6111,
      "irlf": 6112,
      "ĠOoh": 6113,
      "Ġsheep": 6114,
      "Ġrushed": 6115,
      "Ġcomment": 6116,
      "Ġslide": 6117,
      "Ġ2002": 6118,
      "Ġmeth": 6119,
      "Ġdefinitely": 6120,
      "Ġspecific": 6121,
      "Ġdetect": 6122,
      "ĠCentral": 6123,
      "Ġweapon": 6124,
      "ĠDisney": 6125,
      "ani": 6126,
      "Ġpra": 6127,
      "ĠBoth": 6128,
      "oses": 6129,
      "quar": 6130,
      "ARD": 6131,
      "ĠStud": 6132,
      "Ġadvert": 6133,
      "Ġowner": 6134,
      "Ġservant": 6135,
      "Ġfairly": 6136,
      "Ġescap": 6137,
      "Ġburning": 6138,
      "iest": 6139,
      "{\\": 6140,
      "Ġchat": 6141,
      "oos": 6142,
      "ĠBes": 6143,
      "ĠNOT": 6144,
      "Ġscore": 6145,
      "Ġhurried": 6146,
      "Ġmedia": 6147,
      "Ġcupcake": 6148,
      "ĠToday": 6149,
      "ĠScientists": 6150,
      "uries": 6151,
      "Ġtooth": 6152,
      "ancial": 6153,
      "ĠRad": 6154,
      "ĠWhatever": 6155,
      "Ġshoulders": 6156,
      "ailed": 6157,
      "ĠAtt": 6158,
      "Ġdestroyed": 6159,
      "Ġroyal": 6160,
      "Of": 6161,
      "cho": 6162,
      "ĠLater": 6163,
      "ĠEs": 6164,
      "Ġrank": 6165,
      "hank": 6166,
      "ĠâĢĻ": 6167,
      "ĠAsian": 6168,
      "ĠRev": 6169,
      "Ġ1994": 6170,
      "Ġrecording": 6171,
      "Ġlibrary": 6172,
      "irlfriend": 6173,
      "SE": 6174,
      "Ġnative": 6175,
      "Ġnorthern": 6176,
      "ĠSIS": 6177,
      "Ġwhining": 6178,
      "Ġcray": 6179,
      "Ġcrim": 6180,
      "Ġrare": 6181,
      "ĠAmeric": 6182,
      "Ġaccess": 6183,
      "Ġ1999": 6184,
      "Ġproduction": 6185,
      "Ġdarkness": 6186,
      "ĠGroup": 6187,
      "ropol": 6188,
      "Ġdelicious": 6189,
      "ĠFlorida": 6190,
      "Let": 6191,
      "Where": 6192,
      "Ġborder": 6193,
      "ĠBad": 6194,
      "Ġnotes": 6195,
      "uments": 6196,
      "Ġrout": 6197,
      "Ġboats": 6198,
      "Ġpregn": 6199,
      "Ġchop": 6200,
      "Ġevident": 6201,
      "ĠPortug": 6202,
      "40": 6203,
      "tape": 6204,
      "iner": 6205,
      "Ġfier": 6206,
      "ĠSE": 6207,
      "ĠAri": 6208,
      "Ġagre": 6209,
      "ĠThr": 6210,
      "Ġcontrib": 6211,
      "Ġrealize": 6212,
      "Ġ1996": 6213,
      "Ġinvited": 6214,
      "ĠGeorg": 6215,
      "Ġpenny": 6216,
      "Ġexcitement": 6217,
      "Ġtradition": 6218,
      "ĠIrish": 6219,
      "Be": 6220,
      "while": 6221,
      "Ġodd": 6222,
      "Ġlone": 6223,
      "Ġnuh": 6224,
      "ĠMen": 6225,
      "ĠHas": 6226,
      "alled": 6227,
      "ĠPre": 6228,
      "ĠChild": 6229,
      "Ġtreated": 6230,
      "Ġveh": 6231,
      "ua": 6232,
      "Ġwine": 6233,
      "Ġpsych": 6234,
      "aron": 6235,
      "Ġreasons": 6236,
      "Ġstaff": 6237,
      "ĠBi": 6238,
      "urb": 6239,
      "...?": 6240,
      "Ġintellig": 6241,
      "Ġchap": 6242,
      "Ġburied": 6243,
      "Ġends": 6244,
      "Ġrelated": 6245,
      "whining": 6246,
      "Ġtransport": 6247,
      "Ġknocked": 6248,
      "whispers": 6249,
      "Tilda": 6250,
      "Ġfan": 6251,
      "Ġlosing": 6252,
      "Ġcloth": 6253,
      "ĠSocial": 6254,
      "angle": 6255,
      "Ġdesce": 6256,
      "Ġpassing": 6257,
      "Ġpupp": 6258,
      "Ġmainly": 6259,
      "Ġeffort": 6260,
      "utenant": 6261,
      "Ġtournament": 6262,
      "IA": 6263,
      "ware": 6264,
      "itter": 6265,
      "Ġfired": 6266,
      "Ġanti": 6267,
      "Ġsole": 6268,
      "Ġdesert": 6269,
      "Ġhandsome": 6270,
      "Ġtowns": 6271,
      "Ġ1970": 6272,
      "ĠRecords": 6273,
      "Ġsouthwestern": 6274,
      "Ġbicycle": 6275,
      "ĠWork": 6276,
      "essert": 6277,
      "angar": 6278,
      "Ġsetting": 6279,
      "Ġbreaking": 6280,
      "Ġthousands": 6281,
      "Ġfairy": 6282,
      "Ġexpression": 6283,
      "Ġvictory": 6284,
      "Ġaver": 6285,
      "Ġyo": 6286,
      "acha": 6287,
      "ĠLu": 6288,
      "ĠEaster": 6289,
      "ĠJung": 6290,
      "ague": 6291,
      "Ġchoo": 6292,
      "Ġclever": 6293,
      "ĠShar": 6294,
      "Ġapartment": 6295,
      "ĠEmperor": 6296,
      "Ġprofessor": 6297,
      "Nina": 6298,
      "Ġwra": 6299,
      "Ġsang": 6300,
      "Ġdessert": 6301,
      "Ġpor": 6302,
      "ĠHea": 6303,
      "ĠFI": 6304,
      "osen": 6305,
      "Ġremoved": 6306,
      "Ġslipp": 6307,
      "ĠBrother": 6308,
      "Ġdese": 6309,
      "Ġdivor": 6310,
      "ITH": 6311,
      "Ġenjoyed": 6312,
      "Ġmicro": 6313,
      "Ġ0": 6314,
      "Ġpa": 6315,
      "Ġhunt": 6316,
      "urance": 6317,
      "ateg": 6318,
      "Ġafford": 6319,
      "angers": 6320,
      "yo": 6321,
      "za": 6322,
      "Ġfart": 6323,
      "rol": 6324,
      "ĠFive": 6325,
      "Ġrug": 6326,
      "icket": 6327,
      "pton": 6328,
      "Ġacting": 6329,
      "Ġ1992": 6330,
      "bridge": 6331,
      "Ġlistened": 6332,
      "Ġexciting": 6333,
      "Ġphilos": 6334,
      "ĠIm": 6335,
      "Ġbeer": 6336,
      "ĠLake": 6337,
      "ĠYoung": 6338,
      "Ġtruly": 6339,
      "Ġpoison": 6340,
      "Ġfourteen": 6341,
      "Ġpresently": 6342,
      "Ġpriest": 6343,
      "Ġpositive": 6344,
      "ĠIra": 6345,
      "Ġloose": 6346,
      "ĠAT": 6347,
      "ĠBilly": 6348,
      "ĠYet": 6349,
      "ĠDiv": 6350,
      "ĠRE": 6351,
      "istry": 6352,
      "Ġcompos": 6353,
      "Ġpicking": 6354,
      "ĠClub": 6355,
      "Ġlarger": 6356,
      "ĠDidn": 6357,
      "Ġlearning": 6358,
      "Ġcitiz": 6359,
      "some": 6360,
      "Ġpity": 6361,
      "Ġlake": 6362,
      "Ġhorn": 6363,
      "ĠBay": 6364,
      "ĠLand": 6365,
      "ĠLast": 6366,
      "Ġprogress": 6367,
      "Ġclown": 6368,
      "Ġunderstood": 6369,
      "onsense": 6370,
      "Ġexchan": 6371,
      "Ġrecorded": 6372,
      "Ġlessons": 6373,
      "Ġconcent": 6374,
      "Ġannoy": 6375,
      "Ġbuddy": 6376,
      "Ġwedding": 6377,
      "Ġbodies": 6378,
      "Ġcircumst": 6379,
      "iture": 6380,
      "ĠMake": 6381,
      "Ġreview": 6382,
      "ĠBull": 6383,
      "Ġwhoops": 6384,
      "ĠNaz": 6385,
      "Ġprefer": 6386,
      "Ġprevious": 6387,
      "Ġseriously": 6388,
      "ĠBrook": 6389,
      "ĠArch": 6390,
      "ĠShow": 6391,
      "ĠSomeone": 6392,
      "Ġcreate": 6393,
      "Ġdirectly": 6394,
      "ĠRemember": 6395,
      "Ġwitness": 6396,
      "wers": 6397,
      "ingu": 6398,
      "Ġgy": 6399,
      "ĠAmy": 6400,
      "tery": 6401,
      "ĠPop": 6402,
      "Ġsuffe": 6403,
      "Ġsports": 6404,
      "Ġcreatures": 6405,
      "Ġexpress": 6406,
      "looks": 6407,
      "Ġpipe": 6408,
      "Ġsettlement": 6409,
      "heast": 6410,
      "Ġcone": 6411,
      "Ġpil": 6412,
      "icide": 6413,
      "ĠHill": 6414,
      "ĠRO": 6415,
      "ulk": 6416,
      "ulty": 6417,
      "Ġshook": 6418,
      "eping": 6419,
      "ending": 6420,
      "Ġshame": 6421,
      "Ġteaching": 6422,
      "Ġhoping": 6423,
      "Ġfields": 6424,
      "Ġsnap": 6425,
      "goes": 6426,
      "ano": 6427,
      "Ġpause": 6428,
      "ilty": 6429,
      "Ġcrash": 6430,
      "Ġkilling": 6431,
      "ĠWentworth": 6432,
      "Ġsplendid": 6433,
      "dro": 6434,
      "Ġast": 6435,
      "....": 6436,
      "unts": 6437,
      "gel": 6438,
      "Ġthrown": 6439,
      "Ġchain": 6440,
      "ERS": 6441,
      "Ġrefused": 6442,
      "Ġlaws": 6443,
      "ervation": 6444,
      "Ġfortune": 6445,
      "!âĢĻ": 6446,
      "'...": 6447,
      "isa": 6448,
      "Ġdump": 6449,
      "Ġfaint": 6450,
      "Ġpants": 6451,
      "ĠTam": 6452,
      "andra": 6453,
      "okes": 6454,
      "Ġsymp": 6455,
      "Ġgovernor": 6456,
      "Ġcooking": 6457,
      "Ġformula": 6458,
      "Ġindependent": 6459,
      "stein": 6460,
      "Amer": 6461,
      "UCK": 6462,
      "pro": 6463,
      "Ġaim": 6464,
      "oned": 6465,
      "ĠFoot": 6466,
      "Ġrat": 6467,
      "Ġquit": 6468,
      "Ġfeather": 6469,
      "ĠInstit": 6470,
      "Ġfinds": 6471,
      "Ġbadly": 6472,
      "Ġcutting": 6473,
      "Ġlocation": 6474,
      "Ġrequest": 6475,
      "Ġrubber": 6476,
      "gers": 6477,
      "Ġ{\\": 6478,
      "Ġtough": 6479,
      "ĠBren": 6480,
      "Ġvent": 6481,
      "Ġprepar": 6482,
      "Ġchosen": 6483,
      "Ġresponsible": 6484,
      "Ġsons": 6485,
      "ann": 6486,
      "Ġpump": 6487,
      "Ġnib": 6488,
      "ĠNana": 6489,
      "istic": 6490,
      "ĠKN": 6491,
      "ĠAnne": 6492,
      "ointment": 6493,
      "Ġincludes": 6494,
      "Ġinterrupt": 6495,
      "Ġtransfer": 6496,
      "Ġchecked": 6497,
      "ĠRamsey": 6498,
      "iliar": 6499,
      "Ġpalace": 6500,
      "Ġdistributed": 6501,
      "avaria": 6502,
      "uit": 6503,
      "vo": 6504,
      "Ġ:": 6505,
      "Ġgirlfriend": 6506,
      "acle": 6507,
      "see": 6508,
      "ĠBavaria": 6509,
      "ĠKen": 6510,
      "Ġcontr": 6511,
      "Ġmission": 6512,
      "Ġdemon": 6513,
      "Ġcereal": 6514,
      "Ġmaterial": 6515,
      "ĠMajesty": 6516,
      "22": 6517,
      "col": 6518,
      "Ġmap": 6519,
      "ĠBud": 6520,
      "Ġplus": 6521,
      "emic": 6522,
      "Ġpeas": 6523,
      "Ġchampion": 6524,
      "ANG": 6525,
      "anches": 6526,
      "Ġ60": 6527,
      "ĠPhilip": 6528,
      "Ġnewspaper": 6529,
      "Ġadvant": 6530,
      "Ġresults": 6531,
      "ĠRodger": 6532,
      "AUG": 6533,
      "Ġpiano": 6534,
      "ĠAlf": 6535,
      "gging": 6536,
      "Ġraise": 6537,
      "ĠAlice": 6538,
      "ucle": 6539,
      "ception": 6540,
      "Ġprovince": 6541,
      "ĠDanny": 6542,
      "Ġentirely": 6543,
      "vy": 6544,
      "Ġbon": 6545,
      "ĠSwe": 6546,
      "ĠWild": 6547,
      "OUT": 6548,
      "Ġconditions": 6549,
      "ĠTeam": 6550,
      "Al": 6551,
      "ios": 6552,
      "Ġtal": 6553,
      "hamed": 6554,
      "Ġmort": 6555,
      "Ġhomes": 6556,
      "ĠHoney": 6557,
      "ĠEach": 6558,
      "elia": 6559,
      "Ġtroops": 6560,
      "Ġpaying": 6561,
      "Ġjobs": 6562,
      "Ġreceive": 6563,
      "Ġdefeated": 6564,
      "Ġkissed": 6565,
      "Ġextremely": 6566,
      "rate": 6567,
      "hem": 6568,
      "Ġsigh": 6569,
      "Ġcode": 6570,
      "ĠBern": 6571,
      "ĠDire": 6572,
      "Ġspo": 6573,
      "Ġbold": 6574,
      "Ġotherwise": 6575,
      "Ġsche": 6576,
      "Ġperform": 6577,
      "ESS": 6578,
      "Ġstands": 6579,
      "Ġterrit": 6580,
      "Ġ1991": 6581,
      "Ġdelay": 6582,
      "ĠShould": 6583,
      "ĠSwiss": 6584,
      "Ġcredit": 6585,
      "ĠHAVE": 6586,
      "angaroo": 6587,
      ")}": 6588,
      "IE": 6589,
      "cries": 6590,
      "nds": 6591,
      "stone": 6592,
      "ĠDet": 6593,
      "Ġplates": 6594,
      "Ġrecently": 6595,
      "Ġpulling": 6596,
      "Ġrange": 6597,
      "Ġselling": 6598,
      "Ġpainted": 6599,
      "Ġdescri": 6600,
      "Ġjacket": 6601,
      "Ġdetermined": 6602,
      "cles": 6603,
      "fle": 6604,
      "magn": 6605,
      "Ġwestern": 6606,
      "referent": 6607,
      "sters": 6608,
      "ĠRa": 6609,
      "ĠGal": 6610,
      "ĠUK": 6611,
      "Ġcontent": 6612,
      "Ġdesper": 6613,
      "Ġmeters": 6614,
      "umbling": 6615,
      "Ġtransl": 6616,
      "playing": 6617,
      "ĠHelp": 6618,
      "Ġdocument": 6619,
      "Ġlonely": 6620,
      "ipe": 6621,
      "owing": 6622,
      "Ġdozen": 6623,
      "ĠHad": 6624,
      "Ġsees": 6625,
      "Ġrush": 6626,
      "Ġappointed": 6627,
      "Ġwaves": 6628,
      "Ġhurts": 6629,
      "ĠCarl": 6630,
      "ĠINV": 6631,
      "Ġdescribed": 6632,
      "Ġslept": 6633,
      "ĠCastle": 6634,
      "Ġalphabet": 6635,
      "Ġnuhhuh": 6636,
      ".--": 6637,
      "Cause": 6638,
      "Ġaid": 6639,
      "had": 6640,
      "Ġcrew": 6641,
      "ĠInt": 6642,
      "ĠSil": 6643,
      "ulations": 6644,
      "owned": 6645,
      "Ġguilty": 6646,
      "thel": 6647,
      "Ġconcert": 6648,
      "Ġcloset": 6649,
      "Ġsuggested": 6650,
      "Ġcollection": 6651,
      "Ġlocked": 6652,
      "Ġtender": 6653,
      "Ġsuffered": 6654,
      "RA": 6655,
      "Who": 6656,
      "bor": 6657,
      "dess": 6658,
      "Ġwid": 6659,
      "orge": 6660,
      "Ġpure": 6661,
      "Ġrent": 6662,
      "ĠWatch": 6663,
      "ĠWITH": 6664,
      "ĠGra": 6665,
      "Ġjew": 6666,
      "ĠJam": 6667,
      "umn": 6668,
      "ART": 6669,
      "Ġguitar": 6670,
      "igned": 6671,
      "Ġdrama": 6672,
      "Ġ1981": 6673,
      "Ġsignific": 6674,
      "ALL": 6675,
      "Ġcharacters": 6676,
      "ĠHungry": 6677,
      "Ġscratch": 6678,
      "ĠPrincess": 6679,
      "Ġtask": 6680,
      "Ġdust": 6681,
      "ĠSH": 6682,
      "Ġ--": 6683,
      "ĠLie": 6684,
      "Ġclip": 6685,
      "Ġbranches": 6686,
      "Ġresist": 6687,
      "Ġ186": 6688,
      "Ġdivided": 6689,
      "Ġissues": 6690,
      "ĠVermont": 6691,
      "ĠDepartment": 6692,
      "Ġsuspic": 6693,
      "Ġappreciate": 6694,
      "Whin": 6695,
      "Ã¦": 6696,
      "Ġsorrow": 6697,
      "athered": 6698,
      "Ġbeans": 6699,
      "ĠSub": 6700,
      "ĠALL": 6701,
      "Ġshel": 6702,
      "issa": 6703,
      "Ġeaten": 6704,
      "Ġstudent": 6705,
      "Ġsquee": 6706,
      "bbed": 6707,
      "Ġshouted": 6708,
      "Ġperformance": 6709,
      "yr": 6710,
      "Ġtim": 6711,
      "Ġpile": 6712,
      "ĠWin": 6713,
      "Ġours": 6714,
      "Ġeats": 6715,
      "Ġbitter": 6716,
      "Ġairport": 6717,
      "Ġreports": 6718,
      "Ġdefend": 6719,
      "ĠJacob": 6720,
      "Ġgiraffe": 6721,
      "25": 6722,
      "Ġbid": 6723,
      "Ġbeast": 6724,
      "Ġaside": 6725,
      "ĠDown": 6726,
      "ĠEthel": 6727,
      "Ġrac": 6728,
      "Ġconference": 6729,
      "Ġscreen": 6730,
      "Ġmighty": 6731,
      "Ġswear": 6732,
      "Ġhidden": 6733,
      "Ġpeanut": 6734,
      "RY": 6735,
      "Ġbones": 6736,
      "ĠShan": 6737,
      "Ġconv": 6738,
      "Ġroles": 6739,
      "Ġbranch": 6740,
      "ĠProt": 6741,
      "ĠAnyway": 6742,
      "Ġavoid": 6743,
      "Ġdesigned": 6744,
      "Ġincrease": 6745,
      "Ġmagazine": 6746,
      "cr": 6747,
      "Ġtied": 6748,
      "Ġdough": 6749,
      "Ġnail": 6750,
      "uties": 6751,
      "ĠKansas": 6752,
      "Ġgrant": 6753,
      "Ġgrate": 6754,
      "Ġglance": 6755,
      "Ġhorrible": 6756,
      "Ġadmit": 6757,
      "ĠTurn": 6758,
      "ĠPra": 6759,
      "emies": 6760,
      "Ġclay": 6761,
      "ĠâĢĶ": 6762,
      "Ġshake": 6763,
      "ĠAsh": 6764,
      "Ġcrossed": 6765,
      "Ġfellows": 6766,
      "Ġauthority": 6767,
      "Ġpackage": 6768,
      "Ġproducer": 6769,
      "Ġfalse": 6770,
      "Whinney": 6771,
      "MT": 6772,
      "walk": 6773,
      "ĠPL": 6774,
      "ĠOw": 6775,
      "ĠLar": 6776,
      "ĠJun": 6777,
      "ĠJones": 6778,
      "Ġbecomes": 6779,
      "Ġbaseball": 6780,
      "Ġ1993": 6781,
      "Ġincident": 6782,
      "Ġpossess": 6783,
      "Ġprize": 6784,
      "Ġsales": 6785,
      "Ġhonour": 6786,
      "Ġattacked": 6787,
      "Ġprovide": 6788,
      "Ġder": 6789,
      "Ġfant": 6790,
      "Ġgather": 6791,
      "Ġhipp": 6792,
      "ĠAng": 6793,
      "Ġwealth": 6794,
      "ĠMusic": 6795,
      "Ġassoci": 6796,
      "Ġspare": 6797,
      "Ġchase": 6798,
      "apping": 6799,
      "Ġprogramme": 6800,
      "Ġaffair": 6801,
      "Ġslightly": 6802,
      "Ġcounter": 6803,
      "KE": 6804,
      "rot": 6805,
      "ĠSa": 6806,
      "ĠYOUR": 6807,
      "ĠOpen": 6808,
      "Ġvalley": 6809,
      "ĠChic": 6810,
      "anche": 6811,
      "Ġ187": 6812,
      "Ġ1987": 6813,
      "Ġtreasure": 6814,
      "comune": 6815,
      "ĠRepublican": 6816,
      "Ġseparate": 6817,
      "Ġinnocent": 6818,
      "Mac": 6819,
      "esota": 6820,
      "Ġlic": 6821,
      "omed": 6822,
      "owder": 6823,
      "Ġstove": 6824,
      "ĠBon": 6825,
      "stead": 6826,
      "Ġunf": 6827,
      "Ġfinancial": 6828,
      "ancing": 6829,
      "Ġsurface": 6830,
      "Ġ1997": 6831,
      "Ġinvol": 6832,
      "ĠBlue": 6833,
      "umbled": 6834,
      "Ġfailure": 6835,
      "Ġcowboy": 6836,
      "Ġbeneath": 6837,
      "ĠSenate": 6838,
      "Ġstranger": 6839,
      "ĠProfessor": 6840,
      "21": 6841,
      "amily": 6842,
      "apt": 6843,
      "ĠUs": 6844,
      "Ġthrone": 6845,
      "which": 6846,
      "ĠJersey": 6847,
      "ds": 6848,
      "Ġgay": 6849,
      "ĠSuch": 6850,
      "ĠHaw": 6851,
      "raine": 6852,
      "ĠGro": 6853,
      "abb": 6854,
      "Ġconce": 6855,
      "Ġoldest": 6856,
      "Ġsciss": 6857,
      "Ġrestaur": 6858,
      "Ġsymb": 6859,
      "Ġconfl": 6860,
      "Ġproposed": 6861,
      "ĠBetty": 6862,
      "Ġfolks": 6863,
      "Ġcottage": 6864,
      "Here": 6865,
      "down": 6866,
      "ko": 6867,
      "put": 6868,
      "stra": 6869,
      "Ġspite": 6870,
      "Ġbrush": 6871,
      "ĠVol": 6872,
      "Ġbug": 6873,
      "ĠEverybody": 6874,
      "ĠReport": 6875,
      "Ġbelongs": 6876,
      "Ġburned": 6877,
      "ĠSteve": 6878,
      "ĠMinnesota": 6879,
      "mouth": 6880,
      "Ġx": 6881,
      "eps": 6882,
      "Ġcovers": 6883,
      "Ġremains": 6884,
      "Ġanswers": 6885,
      "Ġ1972": 6886,
      "noise": 6887,
      "Ġexplained": 6888,
      "ĠTele": 6889,
      "Ġoriginally": 6890,
      "Ġactivist": 6891,
      "Ġdrugs": 6892,
      "Ġcanton": 6893,
      "Ġnearer": 6894,
      "Ġdunno": 6895,
      "Ah": 6896,
      "Did": 6897,
      "Ġlob": 6898,
      "ĠSue": 6899,
      "ĠAwards": 6900,
      "Ġforms": 6901,
      "Ġseats": 6902,
      "ĠFree": 6903,
      "Ġracing": 6904,
      "Ġgettin": 6905,
      "Ġwhenever": 6906,
      "Ġconsequ": 6907,
      "Ġcheeks": 6908,
      "Ġfamiliar": 6909,
      "Ġobtain": 6910,
      "Ġ1988": 6911,
      "ĠLeon": 6912,
      "ĠGrace": 6913,
      "Ġtreatment": 6914,
      "ĠMaggie": 6915,
      "pensive": 6916,
      "Ch": 6917,
      "iation": 6918,
      "pitched": 6919,
      "Ġgained": 6920,
      "Ġgathered": 6921,
      "aly": 6922,
      "Ġug": 6923,
      "Ġknee": 6924,
      "Ġcomedy": 6925,
      "Ġparties": 6926,
      "ĠLooks": 6927,
      "ika": 6928,
      "Ġstepped": 6929,
      "Ġstructure": 6930,
      "Ġsafely": 6931,
      "ĠJerry": 6932,
      "Ġpizza": 6933,
      "Ġdreadful": 6934,
      "Ġchemical": 6935,
      "Ġobliged": 6936,
      "wide": 6937,
      "yellow": 6938,
      "Ġwicked": 6939,
      "Ġgently": 6940,
      "lyn": 6941,
      "ĠDON": 6942,
      "oles": 6943,
      "Ġhappiness": 6944,
      "Ġmoments": 6945,
      "Ġattached": 6946,
      "Ġswall": 6947,
      "Ġhated": 6948,
      "Ġ1950": 6949,
      "inois": 6950,
      "Ġcompanion": 6951,
      "Ġperformed": 6952,
      "Ġchampionship": 6953,
      "To": 6954,
      "_.": 6955,
      "works": 6956,
      "Ġhabit": 6957,
      "ĠAk": 6958,
      "ĠWater": 6959,
      "Ġkangaroo": 6960,
      "Ġsevere": 6961,
      "ĠRun": 6962,
      "geon": 6963,
      "ĠHealth": 6964,
      "berry": 6965,
      "ĠStand": 6966,
      "Ġhelps": 6967,
      "ĠSpir": 6968,
      "ĠBenj": 6969,
      "scream": 6970,
      "Ġholiday": 6971,
      "Ġscreaming": 6972,
      "uclear": 6973,
      "GFA": 6974,
      "name": 6975,
      "Ġyum": 6976,
      "ora": 6977,
      "Ġnick": 6978,
      "icate": 6979,
      "Ġrefe": 6980,
      "ĠWrest": 6981,
      "ĠOli": 6982,
      "Ġcommer": 6983,
      "Ġcomplet": 6984,
      "Ġrooms": 6985,
      "Ġpassengers": 6986,
      "ĠIndians": 6987,
      "ĠProd": 6988,
      "Ġreplaced": 6989,
      "ĠAnton": 6990,
      "Ġmurdered": 6991,
      "Ġaverage": 6992,
      "Ġlack": 6993,
      "Ġlink": 6994,
      "ato": 6995,
      "ĠPower": 6996,
      "ĠPerson": 6997,
      "otted": 6998,
      "Ġrelief": 6999,
      "ĠZe": 7000,
      "Ġstudies": 7001,
      "Ġ1989": 7002,
      "ĠTrump": 7003,
      "ĠBertha": 7004,
      "Ġinfluence": 7005,
      "ĠChicago": 7006,
      "WE": 7007,
      "Ġsouthern": 7008,
      "orious": 7009,
      "ĠSC": 7010,
      "rier": 7011,
      "Ġmeasure": 7012,
      "usted": 7013,
      "ela": 7014,
      "igan": 7015,
      "Ġjustice": 7016,
      "Ġvain": 7017,
      "Ġgotten": 7018,
      "Ġproved": 7019,
      "Ġboom": 7020,
      "Ġqueer": 7021,
      "Ġchallen": 7022,
      "UNC": 7023,
      "ĠAgain": 7024,
      "Ġproperly": 7025,
      "Ġwashers": 7026,
      "Ġfeatures": 7027,
      "ĠIllinois": 7028,
      "Ġfreedom": 7029,
      "lings": 7030,
      "Ã¤": 7031,
      "Ġmate": 7032,
      "asm": 7033,
      "icing": 7034,
      "Ġreck": 7035,
      "akin": 7036,
      "Ġguests": 7037,
      "Ġchose": 7038,
      "bef": 7039,
      "Ġreality": 7040,
      "ĠEduc": 7041,
      "OULD": 7042,
      "Ġrepresented": 7043,
      "Ġhunting": 7044,
      "Ġfurniture": 7045,
      "Ġindividual": 7046,
      "ĠAmericans": 7047,
      "Ġsympat": 7048,
      "hemat": 7049,
      "Ġwitch": 7050,
      "ĠTon": 7051,
      "ĠSong": 7052,
      "eable": 7053,
      "ĠOH": 7054,
      "olar": 7055,
      "Ġboot": 7056,
      "Ġenemies": 7057,
      "Ġunfortun": 7058,
      "Ġpride": 7059,
      "Ġproof": 7060,
      "iley": 7061,
      "Ġ35": 7062,
      "Ġ1985": 7063,
      "Ġconfess": 7064,
      "Ġexperi": 7065,
      "ĠPolice": 7066,
      "Ġetc": 7067,
      "ĠService": 7068,
      "ev": 7069,
      "water": 7070,
      "ĠTar": 7071,
      "Ġrear": 7072,
      "Ġreward": 7073,
      "ĠHmm": 7074,
      "ĠPo": 7075,
      "Ġknees": 7076,
      "umes": 7077,
      "Ġhug": 7078,
      "ocr": 7079,
      "Ġsits": 7080,
      "Ġpointed": 7081,
      "Ġrelax": 7082,
      "Ġlifted": 7083,
      "Ġobserved": 7084,
      "Ġbroadcast": 7085,
      "Ġsource": 7086,
      "Ġromantic": 7087,
      "Ġpregnant": 7088,
      "Yeah": 7089,
      "Ġoops": 7090,
      "erves": 7091,
      "ĠBang": 7092,
      "Ġmeas": 7093,
      "Ġsport": 7094,
      "Ġguest": 7095,
      "Ġunha": 7096,
      "Ġrecomm": 7097,
      "eaking": 7098,
      "Ġsooner": 7099,
      "198": 7100,
      "Ġrecognize": 7101,
      "Ġdelighted": 7102,
      "Ġsplit": 7103,
      "ĠVirginia": 7104,
      "American": 7105,
      "Ġtire": 7106,
      "Ġaston": 7107,
      "Ġboo": 7108,
      "ĠIII": 7109,
      "ooke": 7110,
      "ĠBird": 7111,
      "Ġability": 7112,
      "rane": 7113,
      "Ġresident": 7114,
      "Ġdrunk": 7115,
      "Ġwarri": 7116,
      "Ġwarning": 7117,
      "pointing": 7118,
      "Ġstatement": 7119,
      "ĠMexican": 7120,
      "Ġcircumstances": 7121,
      "coh": 7122,
      "cream": 7123,
      "mpt": 7124,
      "ĠCub": 7125,
      "ĠHER": 7126,
      "ĠHead": 7127,
      "ĠAndy": 7128,
      "Ġplayers": 7129,
      "iple": 7130,
      "Ġappears": 7131,
      "Ġbegun": 7132,
      "Ġmiserable": 7133,
      "ropolitan": 7134,
      "When": 7135,
      "ghan": 7136,
      "long": 7137,
      "orter": 7138,
      "ĠTry": 7139,
      "Ġwhist": 7140,
      "ĠOb": 7141,
      "ĠGames": 7142,
      "Ġexpensive": 7143,
      "ĠKnow": 7144,
      "Ġagent": 7145,
      "Ġclient": 7146,
      "neath": 7147,
      "Ġwaved": 7148,
      "Ġincred": 7149,
      "Ġmarked": 7150,
      "ĠDaniel": 7151,
      "ĠRoad": 7152,
      "Ġrapidly": 7153,
      "Ġmicrophone": 7154,
      "ĠInstitute": 7155,
      "MacWhinney": 7156,
      "BER": 7157,
      "UM": 7158,
      "wan": 7159,
      "rets": 7160,
      "Ġgang": 7161,
      "asp": 7162,
      "Ġstack": 7163,
      "rog": 7164,
      "ĠJr": 7165,
      "umed": 7166,
      "Ġcris": 7167,
      "Ġ1979": 7168,
      "Ġruled": 7169,
      "Ġdiscussion": 7170,
      "Ġintroduced": 7171,
      "olarship": 7172,
      "Ġscissors": 7173,
      "ĠOliver": 7174,
      "ĠWoo": 7175,
      "Ġstole": 7176,
      "ĠBour": 7177,
      "rose": 7178,
      "Ġalarm": 7179,
      "Ġspark": 7180,
      "ĠKir": 7181,
      "Ġmayor": 7182,
      "Ġbreast": 7183,
      "inson": 7184,
      "Ġ1984": 7185,
      "197": 7186,
      "Ġboxes": 7187,
      "priate": 7188,
      "ĠPhilipp": 7189,
      "Ġsupported": 7190,
      "Ġassistant": 7191,
      "Ġoccurred": 7192,
      "Ġconflict": 7193,
      "overy": 7194,
      "rels": 7195,
      "Ġfishing": 7196,
      "Ġgain": 7197,
      "Ġwashed": 7198,
      "ĠJUST": 7199,
      "icking": 7200,
      "pshire": 7201,
      "icted": 7202,
      "Ġkeys": 7203,
      "Ġresour": 7204,
      "Ġtravell": 7205,
      "ĠArmen": 7206,
      "Ġ1986": 7207,
      "Ġconduct": 7208,
      "ylvan": 7209,
      "Ġdoggy": 7210,
      "ĠIraq": 7211,
      "!--": 7212,
      "May": 7213,
      "bow": 7214,
      "foot": 7215,
      "mi": 7216,
      "ooth": 7217,
      "san": 7218,
      "ture": 7219,
      "Ġhes": 7220,
      "ĠDE": 7221,
      "Ġspect": 7222,
      "Ġfever": 7223,
      "ĠVo": 7224,
      "Ġdrum": 7225,
      "ONE": 7226,
      "Ġ90": 7227,
      "ĠBelg": 7228,
      "ĠJewish": 7229,
      "ĠHurry": 7230,
      "ĠBrennan": 7231,
      "ĠBenjamin": 7232,
      "sounds": 7233,
      "Ġcraw": 7234,
      "ĠPier": 7235,
      "Ġrope": 7236,
      "Ġaffect": 7237,
      "atherine": 7238,
      "Ġcriter": 7239,
      "Ġsticking": 7240,
      "Ġreply": 7241,
      "Ġpolitics": 7242,
      "who": 7243,
      "Ġpropos": 7244,
      "ĠÃĸ": 7245,
      "Ġbalance": 7246,
      "ĠHeaven": 7247,
      "gues": 7248,
      "heim": 7249,
      "Ġyelling": 7250,
      "Ġfully": 7251,
      "ĠIan": 7252,
      "Ġthorough": 7253,
      "ĠMiddle": 7254,
      "urd": 7255,
      "ĠNight": 7256,
      "ĠFound": 7257,
      "Ġrang": 7258,
      "hib": 7259,
      "ĠKate": 7260,
      "avy": 7261,
      "Ġawake": 7262,
      "Ġlanded": 7263,
      "ĠBesides": 7264,
      "Ġnibbled": 7265,
      "Ġugly": 7266,
      "OP": 7267,
      "ĠSl": 7268,
      "ali": 7269,
      "ĠMove": 7270,
      "ĠWere": 7271,
      "ĠInter": 7272,
      "adder": 7273,
      "aws": 7274,
      "Ġattended": 7275,
      "GRF": 7276,
      "Ġapproach": 7277,
      "Ġrequired": 7278,
      "Ġaccepted": 7279,
      "Ġneighborhood": 7280,
      "ĠFootball": 7281,
      "LA": 7282,
      "cest": 7283,
      "hell": 7284,
      "Ġmuseum": 7285,
      "ingly": 7286,
      "lection": 7287,
      "ĠBus": 7288,
      "Ġash": 7289,
      "Ġashamed": 7290,
      "intend": 7291,
      "Ġdollar": 7292,
      "shine": 7293,
      "Ġlately": 7294,
      "Ġservants": 7295,
      "Ġroads": 7296,
      "Ġdefeat": 7297,
      "Ġeffects": 7298,
      "Ġsuffering": 7299,
      "Ġimprove": 7300,
      "ĠJennie": 7301,
      "Ġarranged": 7302,
      "ĠKNOW": 7303,
      "Ġaye": 7304,
      "Ġmac": 7305,
      "Ġbears": 7306,
      "ĠSouthern": 7307,
      "imp": 7308,
      "ĠWalk": 7309,
      "ĠGun": 7310,
      "Ġimpl": 7311,
      "Ġhorror": 7312,
      "Ġsounded": 7313,
      "196": 7314,
      "Ġtribe": 7315,
      "Ġsending": 7316,
      "Ġprovided": 7317,
      "ĠLeave": 7318,
      "Ġgarage": 7319,
      "Ġacquaint": 7320,
      "keeper": 7321,
      "nels": 7322,
      "win": 7323,
      "Ġox": 7324,
      "hara": 7325,
      "Ġbrill": 7326,
      "Ġthir": 7327,
      "ĠSpen": 7328,
      "Ġ[\"": 7329,
      "ĠCy": 7330,
      "ĠPac": 7331,
      "ĠPoor": 7332,
      "ĠLuke": 7333,
      "Ġsaving": 7334,
      "Ġjeal": 7335,
      "Ġcomr": 7336,
      "Ġgray": 7337,
      "ĠAlso": 7338,
      "Ġgreet": 7339,
      "Ġtrem": 7340,
      "Ġjumping": 7341,
      "Ġcondu": 7342,
      "Ġmurm": 7343,
      "Ġoperation": 7344,
      "Ġphotograph": 7345,
      "Ġarchite": 7346,
      "Ġjournalist": 7347,
      "Ġpant": 7348,
      "omy": 7349,
      "ĠTay": 7350,
      "ĠARE": 7351,
      "ĠWonder": 7352,
      "ĠBam": 7353,
      "ĠRIGHT": 7354,
      "ĠStella": 7355,
      "Ġdesire": 7356,
      "ĠAlan": 7357,
      "ĠJanet": 7358,
      "ĠClara": 7359,
      "Ġinstit": 7360,
      "Ġwrites": 7361,
      "Ġlesson": 7362,
      "Ġillustr": 7363,
      "ĠCommittee": 7364,
      "ĠJackson": 7365,
      "Ġpresidential": 7366,
      "Ġcritical": 7367,
      "Ġelectric": 7368,
      "sembly": 7369,
      "Are": 7370,
      "SI": 7371,
      "gency": 7372,
      "Ġfile": 7373,
      "ĠAB": 7374,
      "ĠWat": 7375,
      "ĠDam": 7376,
      "ques": 7377,
      "ĠVen": 7378,
      "mann": 7379,
      "Ġunderneath": 7380,
      "Ġrecords": 7381,
      "Ġhoped": 7382,
      "Ġdisappointed": 7383,
      "ĠNorway": 7384,
      "Ġrecognized": 7385,
      "Ġpersu": 7386,
      "talking": 7387,
      "Ġawarded": 7388,
      "Ġlatter": 7389,
      "ĠStephen": 7390,
      "uj": 7391,
      "Ġgoals": 7392,
      "ĠOs": 7393,
      "Ġ(,": 7394,
      "Ġtrunk": 7395,
      "Ġapparently": 7396,
      "Ġslipped": 7397,
      "chair": 7398,
      "whines": 7399,
      "Ġthrowing": 7400,
      "Ġfleet": 7401,
      "Ġdaily": 7402,
      "Ġdamage": 7403,
      "Ġautom": 7404,
      "Ġrevolution": 7405,
      "Ġvirus": 7406,
      "Ġelder": 7407,
      "Ġtip": 7408,
      "Ġobey": 7409,
      "Ġbark": 7410,
      "only": 7411,
      "Ġtoast": 7412,
      "Ġhook": 7413,
      "Ġstared": 7414,
      "uls": 7415,
      "oli": 7416,
      "ĠUP": 7417,
      "Ġsecure": 7418,
      "Ġminor": 7419,
      "Ġstops": 7420,
      "Ġaircraft": 7421,
      "ĠLeo": 7422,
      "REAM": 7423,
      "Ġeventually": 7424,
      "Ġforests": 7425,
      "Ġmusical": 7426,
      "ĠBattle": 7427,
      "Ġinvestigation": 7428,
      "aunton": 7429,
      "',": 7430,
      "tles": 7431,
      "zing": 7432,
      "Ġinha": 7433,
      "olen": 7434,
      "ints": 7435,
      "ubs": 7436,
      "Ġprecious": 7437,
      "alend": 7438,
      "ĠFloss": 7439,
      "ĠWhoa": 7440,
      "Ġestate": 7441,
      "Ġhorseshoe": 7442,
      "break": 7443,
      "ĠScottish": 7444,
      "Ã³n": 7445,
      "ĠUkraine": 7446,
      "ĠBundle": 7447,
      "Ġwondered": 7448,
      "contin": 7449,
      "As": 7450,
      "gment": 7451,
      "nut": 7452,
      "Ġtale": 7453,
      "reck": 7454,
      "ĠTen": 7455,
      "ĠWars": 7456,
      "entine": 7457,
      "Ġsocks": 7458,
      "ĠGET": 7459,
      "Ġspr": 7460,
      "ender": 7461,
      "Ġbron": 7462,
      "Ġens": 7463,
      "rang": 7464,
      "Ġshower": 7465,
      "Ġcommittee": 7466,
      "ĠCarle": 7467,
      "Ġdiamond": 7468,
      "Ġadvance": 7469,
      "Ġrolling": 7470,
      "ĠEmily": 7471,
      "OOK": 7472,
      "ĠJews": 7473,
      "Ġadvantage": 7474,
      "Ġjealous": 7475,
      "23": 7476,
      "TH": 7477,
      "giving": 7478,
      "och": 7479,
      "pos": 7480,
      "Ġmama": 7481,
      "Ġpushing": 7482,
      "Ġthrill": 7483,
      "Ġbeep": 7484,
      "ĠSon": 7485,
      "sell": 7486,
      "Ġhers": 7487,
      "ruct": 7488,
      "Ġappeal": 7489,
      "Ġkindly": 7490,
      "Ġsupply": 7491,
      "Ġbelief": 7492,
      "ouncill": 7493,
      "ologist": 7494,
      "Ġengaged": 7495,
      "Ġmunicipal": 7496,
      "Ġnetwork": 7497,
      "ylvania": 7498,
      "?âĢĻ": 7499,
      "UE": 7500,
      "pre": 7501,
      "shire": 7502,
      "turns": 7503,
      "Ġopt": 7504,
      "ĠSn": 7505,
      "Ġanger": 7506,
      "Ġmyst": 7507,
      "Ġseek": 7508,
      "ĠUE": 7509,
      "orney": 7510,
      "Ġstandard": 7511,
      "Ġdecor": 7512,
      "Ġ80": 7513,
      "Ġmagnetic": 7514,
      "Ġwhispers": 7515,
      "Ã¡n": 7516,
      "Ġearnest": 7517,
      "Ġfocus": 7518,
      "Ġadventure": 7519,
      "ĠRevolution": 7520,
      "hus": 7521,
      "Ġpup": 7522,
      "ĠTem": 7523,
      "ĠNa": 7524,
      "ĠJa": 7525,
      "ulate": 7526,
      "Ġspin": 7527,
      "ĠStone": 7528,
      "ĠStaunton": 7529,
      "Ġgreatly": 7530,
      "Ġfarmer": 7531,
      "Ġimpati": 7532,
      "Ġgrandma": 7533,
      "Ġordinary": 7534,
      "Ġequal": 7535,
      "Ġshopping": 7536,
      "Ġconnected": 7537,
      "Ġencoura": 7538,
      "ĠPrize": 7539,
      "ĠPictures": 7540,
      "Ġgraduated": 7541,
      "Ġescaped": 7542,
      "Ġcompleted": 7543,
      "will": 7544,
      "Ġsought": 7545,
      "riger": 7546,
      "Ġseized": 7547,
      "ĠPenn": 7548,
      "ĠNurse": 7549,
      "unting": 7550,
      "ĠRangers": 7551,
      "zzy": 7552,
      "Ġ38": 7553,
      "Ġtrained": 7554,
      "Ġeighteen": 7555,
      "Ġ1978": 7556,
      "Ġstronger": 7557,
      "Ġsquir": 7558,
      "Ġilleg": 7559,
      "ĠHampshire": 7560,
      "Ġsatisfied": 7561,
      "ĠFrancisco": 7562,
      "Ġunhappy": 7563,
      "Can": 7564,
      "__": 7565,
      "wa": 7566,
      "Ġborrow": 7567,
      "Ġcro": 7568,
      "Ġfederal": 7569,
      "Ġstones": 7570,
      "Ġdoctors": 7571,
      "ĠLau": 7572,
      "Ġsauce": 7573,
      "umble": 7574,
      "ĠKar": 7575,
      "upid": 7576,
      "Ġwave": 7577,
      "EST": 7578,
      "Ġcauses": 7579,
      "Ġprisoner": 7580,
      "Ġcosts": 7581,
      "Ġtorn": 7582,
      "ĠRegion": 7583,
      "Ġsuffer": 7584,
      "Ġwounded": 7585,
      "gasps": 7586,
      "ĠWrestling": 7587,
      "cohol": 7588,
      "ND": 7589,
      "oise": 7590,
      "Ġwoke": 7591,
      "Ġowe": 7592,
      "Ġpitch": 7593,
      "Ġnaught": 7594,
      "Ġnonsense": 7595,
      "Ġupper": 7596,
      "Ġaltern": 7597,
      "Ġflood": 7598,
      "ulls": 7599,
      "ollo": 7600,
      "Ġcontain": 7601,
      "Ġboyfriend": 7602,
      "ensive": 7603,
      "Ġpassage": 7604,
      "Ġtremb": 7605,
      "Ġbrand": 7606,
      "Ġattacks": 7607,
      "hetti": 7608,
      "ĠSweden": 7609,
      "LI": 7610,
      "lies": 7611,
      "Ġwing": 7612,
      "ithe": 7613,
      "isl": 7614,
      "Ġdiss": 7615,
      "Ġnah": 7616,
      "idays": 7617,
      "ĠCaterpillar": 7618,
      "Ġ\"'": 7619,
      "Ġsched": 7620,
      "ĠMayor": 7621,
      "Ġfollows": 7622,
      "Ġdiscover": 7623,
      "Ġ1976": 7624,
      "GRM": 7625,
      "Ġsystems": 7626,
      "Ġsecretary": 7627,
      "Ġequip": 7628,
      "ĠGlad": 7629,
      "Ġbasketball": 7630,
      "nam": 7631,
      "ties": 7632,
      "Ġpowers": 7633,
      "Ġhills": 7634,
      "ĠTower": 7635,
      "Ġwashing": 7636,
      "ĠHolly": 7637,
      "Ġseated": 7638,
      "ĠOrd": 7639,
      "ĠFre": 7640,
      "ĠJenny": 7641,
      "ĠStay": 7642,
      "izes": 7643,
      "Ġresolved": 7644,
      "Ġache": 7645,
      "Ġanimated": 7646,
      "Ġawfully": 7647,
      "Ġclosely": 7648,
      "ĠGuard": 7649,
      "ĠAldworth": 7650,
      "ĠMelissa": 7651,
      "Ġexercise": 7652,
      "Thank": 7653,
      "Ġcash": 7654,
      "Ġthirst": 7655,
      "ĠCop": 7656,
      "ĠCON": 7657,
      "ams": 7658,
      "ĠGi": 7659,
      "ĠLes": 7660,
      "ardy": 7661,
      "aka": 7662,
      "venue": 7663,
      "Ġarmed": 7664,
      "Ġtricks": 7665,
      "Ġworkers": 7666,
      "Ġprince": 7667,
      "Ġhanded": 7668,
      "Ġtrains": 7669,
      "ĠDef": 7670,
      "ublic": 7671,
      "Ġdrops": 7672,
      "Ġfactory": 7673,
      "Ġconfidence": 7674,
      "ĠShall": 7675,
      "ĠRepresent": 7676,
      "Ġmercy": 7677,
      "Ġ1930": 7678,
      "ĠBooth": 7679,
      "ĠRyan": 7680,
      "Ġfarther": 7681,
      "Ġlamb": 7682,
      "Ġkings": 7683,
      "eare": 7684,
      "ĠDear": 7685,
      "ĠDog": 7686,
      "ĠFer": 7687,
      "Ġslip": 7688,
      "ĠBrooke": 7689,
      "Ġaccused": 7690,
      "Ġ1983": 7691,
      "ĠCentre": 7692,
      "ĠIslamic": 7693,
      "ĠSpencer": 7694,
      "NON": 7695,
      "iot": 7696,
      "upp": 7697,
      "Ġcries": 7698,
      "Ġdom": 7699,
      "Ġdull": 7700,
      "Ġfenc": 7701,
      "Ġheight": 7702,
      "ĠSister": 7703,
      "ĠAyl": 7704,
      "ĠWant": 7705,
      "Ġshh": 7706,
      "Ġarcher": 7707,
      "IST": 7708,
      "actor": 7709,
      "Ġelev": 7710,
      "ĠTHERE": 7711,
      "Ġawesome": 7712,
      "Ġsympt": 7713,
      "Ġeastern": 7714,
      "Ġ1969": 7715,
      "Ġofficially": 7716,
      "Ġdivision": 7717,
      "black": 7718,
      "Ġplatform": 7719,
      "Ġexchange": 7720,
      "Br": 7721,
      "aver": 7722,
      "iser": 7723,
      "Ġdirt": 7724,
      "ĠTok": 7725,
      "ĠYep": 7726,
      "Ġgrade": 7727,
      "ockey": 7728,
      "alem": 7729,
      "Ġregret": 7730,
      "Ġdrinks": 7731,
      "ĠColin": 7732,
      "Ġdragon": 7733,
      "Ġbloody": 7734,
      "ynam": 7735,
      "ĠBobby": 7736,
      "ĠBerlin": 7737,
      "Ġfavourite": 7738,
      "Ġcurious": 7739,
      "ĠBarbara": 7740,
      "ĠEducation": 7741,
      "rigerator": 7742,
      "gle": 7743,
      "west": 7744,
      "Ġlung": 7745,
      "Ġgum": 7746,
      "ĠAub": 7747,
      "ĠCorn": 7748,
      "stant": 7749,
      "Ġjury": 7750,
      "Ġspy": 7751,
      "ardo": 7752,
      "Ġunit": 7753,
      "Ġrecent": 7754,
      "ï¿½ï¿½ï¿½": 7755,
      "Ġdata": 7756,
      "Ġchart": 7757,
      "Ġexplan": 7758,
      "ĠGram": 7759,
      "Ġdifficulty": 7760,
      "ĠWales": 7761,
      "Ġdelightful": 7762,
      "Ġmanagement": 7763,
      "Ġmultiple": 7764,
      "Ġenvironmental": 7765,
      "quarters": 7766,
      "JAK": 7767,
      "aurs": 7768,
      "net": 7769,
      "inals": 7770,
      "Ġben": 7771,
      "Ġmock": 7772,
      "Ġpanc": 7773,
      "omer": 7774,
      "ĠBall": 7775,
      "ĠRaj": 7776,
      "ĠGre": 7777,
      "Ġjail": 7778,
      "Ġprem": 7779,
      "Ġfunction": 7780,
      "Ġhundreds": 7781,
      "ĠDeath": 7782,
      "Ġinstr": 7783,
      "Ġinstance": 7784,
      "Ġ1968": 7785,
      "Ġringing": 7786,
      "ĠAgent": 7787,
      "Ġteachers": 7788,
      "Ġhousing": 7789,
      "hands": 7790,
      "ĠWelcome": 7791,
      "ĠSpirit": 7792,
      "ĠUEFA": 7793,
      "On": 7794,
      "py": 7795,
      "pher": 7796,
      "sl": 7797,
      "ington": 7798,
      "ĠTha": 7799,
      "ĠTilly": 7800,
      "ĠMouse": 7801,
      "iry": 7802,
      "ĠRub": 7803,
      "ĠFat": 7804,
      "ĠJO": 7805,
      "ĠKong": 7806,
      "ĠThus": 7807,
      "Ġbrings": 7808,
      "Ġbuck": 7809,
      "Ġpermission": 7810,
      "Ġcricket": 7811,
      "arson": 7812,
      "aughters": 7813,
      "ĠDev": 7814,
      "Ġ1982": 7815,
      "Ġchairs": 7816,
      "Ġexperiment": 7817,
      "Donald": 7818,
      "Ġvictims": 7819,
      "ĠAylmer": 7820,
      "Com": 7821,
      "OL": 7822,
      "Ġmaint": 7823,
      "Ġgle": 7824,
      "atre": 7825,
      "ĠBab": 7826,
      "Ġshy": 7827,
      "Ġworn": 7828,
      "Ġdisplay": 7829,
      "Ġunus": 7830,
      "Ġimage": 7831,
      "gets": 7832,
      "Ġcolored": 7833,
      "Ġcharged": 7834,
      "Ġhighly": 7835,
      "Ġreturns": 7836,
      "Ġsignal": 7837,
      "Ġwhisper": 7838,
      "iverse": 7839,
      "Ġtypes": 7840,
      "Ġbillion": 7841,
      "Go": 7842,
      "NE": 7843,
      "five": 7844,
      "tes": 7845,
      "Ġta": 7846,
      "ito": 7847,
      "Ġmood": 7848,
      "ĠAra": 7849,
      "ĠBible": 7850,
      "ĠDun": 7851,
      "ifts": 7852,
      "ĠRail": 7853,
      "osh": 7854,
      "Ġpassion": 7855,
      "ĠSomebody": 7856,
      "Ġprinci": 7857,
      "Ġspirits": 7858,
      "ĠGolden": 7859,
      "Ġfrequ": 7860,
      "oscow": 7861,
      "Ġnominated": 7862,
      "Ġgrateful": 7863,
      "Mr": 7864,
      "uous": 7865,
      "erk": 7866,
      "Ġforb": 7867,
      "ĠNorthern": 7868,
      "anta": 7869,
      "resp": 7870,
      "Ġintended": 7871,
      "Ġcheap": 7872,
      "inned": 7873,
      "ĠAss": 7874,
      "ĠChristopher": 7875,
      "Ġ1971": 7876,
      "Ġprior": 7877,
      "Ġamongst": 7878,
      "Ġtempt": 7879,
      "Ġvolume": 7880,
      "ĠGreece": 7881,
      "ĠCompany": 7882,
      "ĠRoger": 7883,
      "Ġeth": 7884,
      "Ġfate": 7885,
      "Ġlaughter": 7886,
      "keys": 7887,
      "ĠHoly": 7888,
      "Ġseal": 7889,
      "Ġpepper": 7890,
      "Ġflash": 7891,
      "Ġrealized": 7892,
      "ĠAfghan": 7893,
      "Ġconsult": 7894,
      "Ġinstant": 7895,
      "Ġpuppy": 7896,
      "Ġmillions": 7897,
      "Ġadmir": 7898,
      "Ġmistress": 7899,
      "Ġfortun": 7900,
      "ĠHelen": 7901,
      "Ġphysical": 7902,
      "Ġaltogether": 7903,
      "Just": 7904,
      "mhm": 7905,
      "nis": 7906,
      "when": 7907,
      "Ġwolf": 7908,
      "Ġgal": 7909,
      "omi": 7910,
      "also": 7911,
      "ĠMoscow": 7912,
      "rily": 7913,
      "ĠHong": 7914,
      "ĠNations": 7915,
      "ĠFle": 7916,
      "venge": 7917,
      "Ġfeast": 7918,
      "ĠSoon": 7919,
      "Ġ37": 7920,
      "Ġcommitted": 7921,
      "ibly": 7922,
      "Ġhumans": 7923,
      "Ġsunshine": 7924,
      "ĠAbs": 7925,
      "Ġ1945": 7926,
      "Ġdisappear": 7927,
      "kesp": 7928,
      "Ġprotection": 7929,
      "Ġdetails": 7930,
      "Ġpattern": 7931,
      "Ġclimbed": 7932,
      "Ġhyp": 7933,
      "Ġpotato": 7934,
      "Ġhammer": 7935,
      "ĠBasil": 7936,
      "Ġagreement": 7937,
      "ĠLieutenant": 7938,
      "Ġequipment": 7939,
      "GE": 7940,
      "bar": 7941,
      "mings": 7942,
      "vard": 7943,
      "Ġcig": 7944,
      "Ġpit": 7945,
      "ĠAha": 7946,
      "ĠMAN": 7947,
      "Ġwhoo": 7948,
      "ĠYo": 7949,
      "cts": 7950,
      "ĠRap": 7951,
      "ĠGriff": 7952,
      "Ġdece": 7953,
      "ĠJay": 7954,
      "Ġsuffic": 7955,
      "Ġunknown": 7956,
      "rows": 7957,
      "iversal": 7958,
      "Ġsigns": 7959,
      "ĠSecurity": 7960,
      "ĠJimmy": 7961,
      "Ġstruggle": 7962,
      "ĠFilm": 7963,
      "ufact": 7964,
      "Ġthirteen": 7965,
      "gins": 7966,
      "Ġwinner": 7967,
      "hall": 7968,
      "Ġdining": 7969,
      "Ġtomat": 7970,
      "eding": 7971,
      "ĠHoo": 7972,
      "Ġrude": 7973,
      "Ġcarpet": 7974,
      "obal": 7975,
      "Ġtrail": 7976,
      "Ġevolution": 7977,
      "Ġcorpor": 7978,
      "Ġmotorcy": 7979,
      "Ġeagerly": 7980,
      "PS": 7981,
      "uing": 7982,
      "Ġpond": 7983,
      "oti": 7984,
      "lets": 7985,
      "ĠSel": 7986,
      "ĠSky": 7987,
      "Ġwebs": 7988,
      "ĠBow": 7989,
      "ĠBol": 7990,
      "ĠDuck": 7991,
      "Ġsoap": 7992,
      "ĠFriend": 7993,
      "ĠEastern": 7994,
      "ieur": 7995,
      "Ġspeaks": 7996,
      "Ġvast": 7997,
      "Ġnights": 7998,
      "Ġkinda": 7999,
      "Ġminds": 8000,
      "Ġfootballer": 8001,
      "Ġauthorities": 8002,
      "Ġlabel": 8003,
      "Ġincreased": 8004,
      "Ġsexual": 8005,
      "Ġconnection": 8006,
      "Ġscientific": 8007,
      "Ġrescue": 8008,
      "ĠSweet": 8009,
      "kespeare": 8010,
      "TV": 8011,
      "belt": 8012,
      "Ġbore": 8013,
      "ĠSud": 8014,
      "ĠAmb": 8015,
      "Ġancest": 8016,
      "Ġlif": 8017,
      "ĠDie": 8018,
      "rah": 8019,
      "ĠLew": 8020,
      "Ġsav": 8021,
      "ĠFestival": 8022,
      "ieve": 8023,
      "Ġvice": 8024,
      "ferences": 8025,
      "ĠVaud": 8026,
      "issy": 8027,
      "ĠAsia": 8028,
      "Ġsets": 8029,
      "Ġgrape": 8030,
      "Ġcolon": 8031,
      "Ġearned": 8032,
      "Ġimportance": 8033,
      "Ġillness": 8034,
      "Ġbelonged": 8035,
      "Ġneighbour": 8036,
      "porary": 8037,
      "shakes": 8038,
      "Ġresponsibility": 8039,
      "ĠRaymond": 8040,
      "Ġdivorce": 8041,
      "ĠTaylor": 8042,
      "ĠHIS": 8043,
      "Ġfox": 8044,
      "ĠCa": 8045,
      "ĠDale": 8046,
      "ifer": 8047,
      "Ġjoint": 8048,
      "ulated": 8049,
      "Ġletting": 8050,
      "Ġactual": 8051,
      "onscious": 8052,
      "Ġ34": 8053,
      "Ġsixth": 8054,
      "Ġmathemat": 8055,
      "Ġimpact": 8056,
      "Ġfriendship": 8057,
      "ĠConf": 8058,
      "Ġlouder": 8059,
      "Ġscare": 8060,
      "Ġpretending": 8061,
      "ĠSyrian": 8062,
      "ĠDesmond": 8063,
      "Ġtechnology": 8064,
      "Ġscientists": 8065,
      "Ġaccompl": 8066,
      "Ġfolk": 8067,
      "Ġstroke": 8068,
      "ĠHuman": 8069,
      "Ġbrilliant": 8070,
      "ĠFlossie": 8071,
      "KID": 8072,
      "ju": 8073,
      "two": 8074,
      "Ġtent": 8075,
      "itated": 8076,
      "lled": 8077,
      "enes": 8078,
      "Ġpardon": 8079,
      "arc": 8080,
      "ĠAS": 8081,
      "ĠCur": 8082,
      "alling": 8083,
      "ĠOUT": 8084,
      "ĠRi": 8085,
      "ĠRimb": 8086,
      "ĠForm": 8087,
      "Ġalcohol": 8088,
      "ĠKu": 8089,
      "agon": 8090,
      "Ġ500": 8091,
      "Ġcurtain": 8092,
      "ĠChampionships": 8093,
      "Ġbenefit": 8094,
      "Ġcabin": 8095,
      "Ġaudience": 8096,
      "Ġoccupied": 8097,
      "ĠDougl": 8098,
      "ĠOffice": 8099,
      "zy": 8100,
      "Ġpoll": 8101,
      "Ġpapa": 8102,
      "ĠTa": 8103,
      "ĠCAN": 8104,
      "Ġstool": 8105,
      "amas": 8106,
      "Ġ\"_": 8107,
      "ĠGor": 8108,
      "Ġjam": 8109,
      "Ġnephe": 8110,
      "Ġbutt": 8111,
      "Ġshove": 8112,
      "Ġvoted": 8113,
      "agger": 8114,
      "aghetti": 8115,
      "ĠAnth": 8116,
      "Ġsixteen": 8117,
      "ĠNewman": 8118,
      "Ġ44": 8119,
      "Ġdistingu": 8120,
      "Ġdriven": 8121,
      "Ġskill": 8122,
      "Ġ1977": 8123,
      "zech": 8124,
      "Ġ1964": 8125,
      "reading": 8126,
      "Ġpurse": 8127,
      "III": 8128,
      "Ġdinosaurs": 8129,
      "arrass": 8130,
      "ĠCambridge": 8131,
      "Ġsenior": 8132,
      "Ġvotes": 8133,
      "ĠPortugal": 8134,
      "ĠGeorgia": 8135,
      "Brian": 8136,
      "rac": 8137,
      "sk": 8138,
      "yard": 8139,
      "Ġ;": 8140,
      "leg": 8141,
      "ĠCOM": 8142,
      "ĠBunny": 8143,
      "ĠPoint": 8144,
      "ĠEp": 8145,
      "geant": 8146,
      "Ġdeer": 8147,
      "ĠChuck": 8148,
      "Ġumbre": 8149,
      "Ġpolite": 8150,
      "ĠNews": 8151,
      "Ġretire": 8152,
      "Ġcolour": 8153,
      "Ġsteel": 8154,
      "Ġstarring": 8155,
      "ĠKeith": 8156,
      "Ġindustrial": 8157,
      "Ġargument": 8158,
      "Ġevidently": 8159,
      "Ġrestaurant": 8160,
      "Ġnephew": 8161,
      "fire": 8162,
      "Ġwire": 8163,
      "nda": 8164,
      "eness": 8165,
      "ĠMans": 8166,
      "verse": 8167,
      "adium": 8168,
      "Ġstupid": 8169,
      "ĠNE": 8170,
      "hant": 8171,
      "ighed": 8172,
      "Ġspider": 8173,
      "ĠUnt": 8174,
      "ordan": 8175,
      "Ġcoal": 8176,
      "Ġslave": 8177,
      "ivity": 8178,
      "Ġ36": 8179,
      "Ġsurgery": 8180,
      "Ġentrance": 8181,
      "Ġpops": 8182,
      "Ġproduce": 8183,
      "ĠTwenty": 8184,
      "Ġexpecting": 8185,
      "Ġvisitors": 8186,
      "ĠDora": 8187,
      "Ġdawn": 8188,
      "stitution": 8189,
      "ĠSandra": 8190,
      "fa": 8191,
      "lace": 8192,
      "vet": 8193,
      "Ġward": 8194,
      "erry": 8195,
      "Ġnuclear": 8196,
      "ĠMust": 8197,
      "rific": 8198,
      "Ġstolen": 8199,
      "Ġmechan": 8200,
      "Ġseasons": 8201,
      "ĠPass": 8202,
      "ĠNich": 8203,
      "ĠEnd": 8204,
      "hia": 8205,
      "ivered": 8206,
      "new": 8207,
      "aval": 8208,
      "Ġharder": 8209,
      "Ġworthy": 8210,
      "Ġaffairs": 8211,
      "Ġinjured": 8212,
      "Ġfoolish": 8213,
      "Ġapologize": 8214,
      "]...": 8215,
      "Ġtrop": 8216,
      "Ġax": 8217,
      "eral": 8218,
      "Ġmile": 8219,
      "Ġcows": 8220,
      "aned": 8221,
      "Ġbeings": 8222,
      "iro": 8223,
      "Ġselected": 8224,
      "child": 8225,
      "aging": 8226,
      "ĠIslands": 8227,
      "Ġswift": 8228,
      "Ġmarble": 8229,
      "Ġ45": 8230,
      "Ġ185": 8231,
      "ĠIndepend": 8232,
      "lessly": 8233,
      "Ġincome": 8234,
      "Ġconfused": 8235,
      "Ġshortly": 8236,
      "Ġ1946": 8237,
      "ervative": 8238,
      "ĠGreater": 8239,
      "Ġhealthy": 8240,
      "ĠOxfordshire": 8241,
      "hetic": 8242,
      "Ġviolence": 8243,
      "Ġbarely": 8244,
      "Ġsucceeded": 8245,
      "Ġconstitu": 8246,
      "Ġsolemn": 8247,
      "Ġchallenge": 8248,
      "Ġsymptoms": 8249,
      "ĠDouglas": 8250,
      "AC": 8251,
      "dr": 8252,
      "gro": 8253,
      "pired": 8254,
      "sed": 8255,
      "Ġcert": 8256,
      "Ġyer": 8257,
      "Ġfuss": 8258,
      "Ġlod": 8259,
      "ĠMam": 8260,
      "ĠNonna": 8261,
      "ĠLight": 8262,
      "ĠVill": 8263,
      "Ġ33": 8264,
      "ĠMean": 8265,
      "Ġholidays": 8266,
      "achel": 8267,
      "Ġembarrass": 8268,
      "Ġnursery": 8269,
      "ĠArgentina": 8270,
      "Ġcrisis": 8271,
      "24": 8272,
      "baby": 8273,
      "from": 8274,
      "gives": 8275,
      "Ġbent": 8276,
      "Ġfo": 8277,
      "Ġloyal": 8278,
      "ĠWolf": 8279,
      "lying": 8280,
      "Ġgolf": 8281,
      "Ġshed": 8282,
      "ĠLad": 8283,
      "Ġcomin": 8284,
      "Ġmanufact": 8285,
      "Ġconcl": 8286,
      "Ġmob": 8287,
      "Ġmothers": 8288,
      "Ġslaves": 8289,
      "Ġbelt": 8290,
      "Ġdirections": 8291,
      "Ġ1959": 8292,
      "Ġtouching": 8293,
      "Ġrequire": 8294,
      "Ġactivity": 8295,
      "Ġmajority": 8296,
      "OOD": 8297,
      "ĠRomans": 8298,
      "ĠRimbolt": 8299,
      "Bill": 8300,
      "ront": 8301,
      "Ġcord": 8302,
      "enger": 8303,
      "Ġpressed": 8304,
      "ĠAuthor": 8305,
      "Ġrhy": 8306,
      "Ġshit": 8307,
      "Ġuncom": 8308,
      "Ġteen": 8309,
      "Ġremove": 8310,
      "Ġasks": 8311,
      "Ġsmooth": 8312,
      "pected": 8313,
      "Ġconscious": 8314,
      "Ġ1974": 8315,
      "Ġconfir": 8316,
      "Ġpurcha": 8317,
      "Ġicecream": 8318,
      "ĠRussians": 8319,
      "ĠCommun": 8320,
      "Ġorganized": 8321,
      "adesh": 8322,
      "Ġcaptured": 8323,
      "rifice": 8324,
      "Ġculture": 8325,
      "Ġadopted": 8326,
      "Ġmamma": 8327,
      "Ġcitizens": 8328,
      "Ġresources": 8329,
      "Look": 8330,
      "TP": 8331,
      "sylvania": 8332,
      "Ã±": 8333,
      "ĠSnow": 8334,
      "Ġugh": 8335,
      "Ġpreviously": 8336,
      "Ġacted": 8337,
      "ection": 8338,
      "Ġraining": 8339,
      "ĠAnna": 8340,
      "Ġindign": 8341,
      "Ġloving": 8342,
      "Ġartists": 8343,
      "ipper": 8344,
      "ĠShakespeare": 8345,
      "Ġoccas": 8346,
      "ĠSeven": 8347,
      "Ġfaithful": 8348,
      "Ġscheme": 8349,
      "Your": 8350,
      "iting": 8351,
      "Ġthief": 8352,
      "Ġonline": 8353,
      "ĠTalk": 8354,
      "ĠOffic": 8355,
      "ĠRu": 8356,
      "Ġshining": 8357,
      "abor": 8358,
      "Ġsprang": 8359,
      "Ġcliff": 8360,
      "Ġdisg": 8361,
      "Ġunable": 8362,
      "Ġfled": 8363,
      "Ġconsist": 8364,
      "UNT": 8365,
      "Ġpresented": 8366,
      "Ġbasically": 8367,
      "incol": 8368,
      "Ġdelicate": 8369,
      "Ġeconomic": 8370,
      "Ġproducts": 8371,
      "ĠHIM": 8372,
      "ĠEsther": 8373,
      "ĠColumbia": 8374,
      "ĠTokyo": 8375,
      "ji": 8376,
      "lon": 8377,
      "Ġpenn": 8378,
      "Ġinfe": 8379,
      "ĠToo": 8380,
      "ĠMod": 8381,
      "enters": 8382,
      "ĠCzech": 8383,
      "ĠHay": 8384,
      "ĠRus": 8385,
      "Ġconvin": 8386,
      "Ġflies": 8387,
      "gedy": 8388,
      "Ġlands": 8389,
      "Ġ1975": 8390,
      "ASE": 8391,
      "Ġtemple": 8392,
      "Ġrolled": 8393,
      "ĠAnything": 8394,
      "Ġpretends": 8395,
      "ĠDragon": 8396,
      "burgh": 8397,
      "Ġcamps": 8398,
      "ĠReliance": 8399,
      "80": 8400,
      "For": 8401,
      "JO": 8402,
      "bing": 8403,
      "mitted": 8404,
      "uals": 8405,
      "Ġdu": 8406,
      "Ġduties": 8407,
      "Ġfits": 8408,
      "arms": 8409,
      "ader": 8410,
      "ĠCelia": 8411,
      "ĠBY": 8412,
      "ĠRuth": 8413,
      "Ġplot": 8414,
      "elp": 8415,
      "Ġchanging": 8416,
      "Ġchew": 8417,
      "Ġcommit": 8418,
      "Ġmarch": 8419,
      "Ġbeds": 8420,
      "Ġhath": 8421,
      "standing": 8422,
      "Ġarticle": 8423,
      "Ġ1947": 8424,
      "Ġmarks": 8425,
      "Ġcleaning": 8426,
      "ĠXX": 8427,
      "Ġheavily": 8428,
      "Ġbanks": 8429,
      "Ġpersons": 8430,
      "Ġnapkin": 8431,
      "Ġhistorical": 8432,
      "Ġcheerful": 8433,
      "BI": 8434,
      "LING": 8435,
      "bird": 8436,
      "cing": 8437,
      "may": 8438,
      "Ġcage": 8439,
      "Ġdaughters": 8440,
      "Ġtoe": 8441,
      "Ġpoo": 8442,
      "Ġpunch": 8443,
      "etic": 8444,
      "alo": 8445,
      "riam": 8446,
      "Ġkil": 8447,
      "ĠPak": 8448,
      "ĠNep": 8449,
      "ĠLinda": 8450,
      "ĠKira": 8451,
      "Ġquality": 8452,
      "ogue": 8453,
      "Ġfounder": 8454,
      "Ġopens": 8455,
      "Ġcharges": 8456,
      "Ġsyll": 8457,
      "Ġtriangle": 8458,
      "Ġchairman": 8459,
      "Ġbottles": 8460,
      "ĠDrum": 8461,
      "ĠWithout": 8462,
      "ĠCenter": 8463,
      "Ġanxiety": 8464,
      "Ġpossibility": 8465,
      "Ġgazed": 8466,
      "Ġemergency": 8467,
      "ĠTurkish": 8468,
      "bes": 8469,
      "pal": 8470,
      "Ġtummy": 8471,
      "Ġinse": 8472,
      "ĠTak": 8473,
      "uto": 8474,
      "ĠCher": 8475,
      "ĠCart": 8476,
      "ĠHank": 8477,
      "ĠBell": 8478,
      "ĠPy": 8479,
      "Ġvirt": 8480,
      "ogne": 8481,
      "Ġcompared": 8482,
      "Ġkeen": 8483,
      "Ġcommission": 8484,
      "ports": 8485,
      "Ġstays": 8486,
      "ĠTHEY": 8487,
      "Ġinstru": 8488,
      "ĠLeg": 8489,
      "Ġclasses": 8490,
      "Ġadvanced": 8491,
      "Ġpacked": 8492,
      "Ġcompanions": 8493,
      "Ġbasis": 8494,
      "Ġblew": 8495,
      "Ġcandidate": 8496,
      "Ġsymbol": 8497,
      "MAN": 8498,
      "SC": 8499,
      "lers": 8500,
      "sound": 8501,
      "uv": 8502,
      "Ãª": 8503,
      "Ġsin": 8504,
      "ĠMem": 8505,
      "ĠHit": 8506,
      "eau": 8507,
      "ĠLead": 8508,
      "Ġspoons": 8509,
      "Ġdisag": 8510,
      "Ġbuying": 8511,
      "Ġdressing": 8512,
      "coming": 8513,
      "Ġdrawer": 8514,
      "Ġorganis": 8515,
      "Ġbreathe": 8516,
      "Ġactivities": 8517,
      "ĠMilan": 8518,
      "ĠÂ¶": 8519,
      "ACK": 8520,
      "UL": 8521,
      "dog": 8522,
      "making": 8523,
      "Ġincl": 8524,
      "ĠNord": 8525,
      "Ġsheet": 8526,
      "gend": 8527,
      "olas": 8528,
      "Ġpeek": 8529,
      "Ġtray": 8530,
      "Ġpronounced": 8531,
      "Ġprec": 8532,
      "uckle": 8533,
      "ĠChampion": 8534,
      "Ġpointing": 8535,
      "Ġ1956": 8536,
      "Ġcomplex": 8537,
      "ferring": 8538,
      "ĠPolish": 8539,
      "Ġlaunch": 8540,
      "ĠScholarship": 8541,
      "Ġticket": 8542,
      "ĠBrazilian": 8543,
      "ĠThrough": 8544,
      "ĠPersonal": 8545,
      "Ġthoroughly": 8546,
      "ĠPennsylvania": 8547,
      "BAB": 8548,
      "LIN": 8549,
      "zburg": 8550,
      "Ġcents": 8551,
      "Ġdared": 8552,
      "Ġfed": 8553,
      "Ġfare": 8554,
      "Ġladder": 8555,
      "arant": 8556,
      "ĠThing": 8557,
      "ĠSit": 8558,
      "ĠMid": 8559,
      "unte": 8560,
      "ĠChair": 8561,
      "Ġyoungest": 8562,
      "ĠReady": 8563,
      "ĠJustice": 8564,
      "Ġsneak": 8565,
      "ĠPlan": 8566,
      "ĠColonel": 8567,
      "Ġmistakes": 8568,
      "Ġprograms": 8569,
      "Ġblowing": 8570,
      "Ġestablish": 8571,
      "Ġclaims": 8572,
      "Ġefforts": 8573,
      "Ġinquired": 8574,
      "FE": 8575,
      "Ġmum": 8576,
      "Ġcalend": 8577,
      "Ġdea": 8578,
      "orse": 8579,
      "Ġpoured": 8580,
      "Ġhom": 8581,
      "ĠAD": 8582,
      "ĠAren": 8583,
      "ĠBart": 8584,
      "ĠLincol": 8585,
      "Ġsauc": 8586,
      "ophy": 8587,
      "Ġvic": 8588,
      "Ġclo": 8589,
      "Ġ39": 8590,
      "Ġelections": 8591,
      "Ġgrab": 8592,
      "Ġenthus": 8593,
      "ribly": 8594,
      "Ġcapable": 8595,
      "Ġ1967": 8596,
      "Ġ1940": 8597,
      "Ġstores": 8598,
      "ĠCommission": 8599,
      "Ġvalu": 8600,
      "flies": 8601,
      "Ġwaters": 8602,
      "ĠTurkey": 8603,
      "Ġstatue": 8604,
      "ĠPatrick": 8605,
      "ĠHungary": 8606,
      "Ġthreatened": 8607,
      "Ġdegrees": 8608,
      "Ġï¿½ï¿½ï¿½ï¿½ï¿½ï¿½ï¿½ï¿½": 8609,
      "Ġdeliver": 8610,
      "ĠKorea": 8611,
      "ĠScarfe": 8612,
      "ĠJungle": 8613,
      "Ġenthusi": 8614,
      "Ġsne": 8615,
      "asters": 8616,
      "ĠBrand": 8617,
      "unched": 8618,
      "ĠGhost": 8619,
      "ĠFÃ¼": 8620,
      "Ġaloud": 8621,
      "Ġrum": 8622,
      "Ġvision": 8623,
      "agne": 8624,
      "aren": 8625,
      "cipl": 8626,
      "Ġbetray": 8627,
      "teenth": 8628,
      "ĠWilly": 8629,
      "unted": 8630,
      "Ġ1948": 8631,
      "Ġcops": 8632,
      "Ġlabor": 8633,
      "cipal": 8634,
      "ĠApollo": 8635,
      "Ġachieve": 8636,
      "Ġprospect": 8637,
      "ĠNikki": 8638,
      "ĠDirector": 8639,
      "ĠUntil": 8640,
      "De": 8641,
      "lar": 8642,
      "lock": 8643,
      "Ġwreck": 8644,
      "Ġdial": 8645,
      "Ġpir": 8646,
      "Ġbegged": 8647,
      "ademic": 8648,
      "ĠDoub": 8649,
      "ĠRoy": 8650,
      "Ġsore": 8651,
      "Ġcann": 8652,
      "ĠLO": 8653,
      "ĠFind": 8654,
      "Ġnowhere": 8655,
      "ARS": 8656,
      "Ġhappily": 8657,
      "Ġunits": 8658,
      "Ġundert": 8659,
      "Ġummhm": 8660,
      "Ġframe": 8661,
      "Ġhorrid": 8662,
      "Ġeditor": 8663,
      "Ġdrag": 8664,
      "Ġhopes": 8665,
      "ĠPoland": 8666,
      "Ġspending": 8667,
      "ĠIrene": 8668,
      "ĠMetropolitan": 8669,
      "Ġtroubles": 8670,
      "ĠGirls": 8671,
      "Ġfierce": 8672,
      "Ġfeathers": 8673,
      "ĠPLAY": 8674,
      "bly": 8675,
      "des": 8676,
      "uge": 8677,
      "zes": 8678,
      "Ġtales": 8679,
      "ndry": 8680,
      "Ġbay": 8681,
      "Ġbord": 8682,
      "Ġded": 8683,
      "Ġdomin": 8684,
      "ĠMoon": 8685,
      "Ġstern": 8686,
      "amps": 8687,
      "igen": 8688,
      "Ġspaghetti": 8689,
      "Ġending": 8690,
      "thew": 8691,
      "Ġbits": 8692,
      "Ġbearing": 8693,
      "Ġadmitted": 8694,
      "Ġclothing": 8695,
      "ĠCheck": 8696,
      "Ġbreathing": 8697,
      "ĠMcC": 8698,
      "ĠSingh": 8699,
      "Ġmerely": 8700,
      "Ġdesperate": 8701,
      "Ġcommercial": 8702,
      "continues": 8703,
      "ĠDrummond": 8704,
      "26": 8705,
      "LES": 8706,
      "mun": 8707,
      "wait": 8708,
      "Ġbree": 8709,
      "Ġmars": 8710,
      "Ġcou": 8711,
      "Ġdign": 8712,
      "ĠIce": 8713,
      "ormed": 8714,
      "starts": 8715,
      "ĠRaby": 8716,
      "oples": 8717,
      "ĠEight": 8718,
      "olk": 8719,
      "istics": 8720,
      "Ġanyhow": 8721,
      "Ġexha": 8722,
      "ĠUr": 8723,
      "Ġbackwards": 8724,
      "Ġuns": 8725,
      "Ġchill": 8726,
      "addle": 8727,
      "Ġimpr": 8728,
      "Ġchildhood": 8729,
      "onsieur": 8730,
      "Ġglanced": 8731,
      "Ġdistinct": 8732,
      "ĠClare": 8733,
      "Ġ1973": 8734,
      "ÃŃn": 8735,
      "ĠProbably": 8736,
      "Ġparliament": 8737,
      "Ġfigured": 8738,
      "Ġsubjects": 8739,
      "ĠLiber": 8740,
      "Ġexistence": 8741,
      "ĠWindows": 8742,
      "Ġvacation": 8743,
      "ĠForest": 8744,
      "Ġignor": 8745,
      "Ġaffected": 8746,
      "Ġbronze": 8747,
      "kind": 8748,
      "ridge": 8749,
      "Ġwipe": 8750,
      "Ġbrie": 8751,
      "Ġcakes": 8752,
      "Ġbee": 8753,
      "Ġbeating": 8754,
      "ĠCad": 8755,
      "Ġsteak": 8756,
      "sex": 8757,
      "ĠBUT": 8758,
      "Ġsector": 8759,
      "ĠPret": 8760,
      "ĠRick": 8761,
      "Ġmyth": 8762,
      "Ġaband": 8763,
      "ĠIns": 8764,
      "Ġenorm": 8765,
      "Ġcheek": 8766,
      "Ġrelative": 8767,
      "Ġconfident": 8768,
      "Ġ1965": 8769,
      "Ġparade": 8770,
      "ĠSupp": 8771,
      "Ġviews": 8772,
      "Ġrepeat": 8773,
      "Ġnickel": 8774,
      "Ġaffection": 8775,
      "Ġillegal": 8776,
      "Per": 8777,
      "bie": 8778,
      "door": 8779,
      "referring": 8780,
      "itable": 8781,
      "Ġfucking": 8782,
      "Ġtox": 8783,
      "ĠTop": 8784,
      "ĠMall": 8785,
      "ĠCD": 8786,
      "ĠHand": 8787,
      "ĠHERE": 8788,
      "ĠBir": 8789,
      "Ġath": 8790,
      "ĠVin": 8791,
      "ĠVien": 8792,
      "Ġcounting": 8793,
      "ĠDean": 8794,
      "Ġkidna": 8795,
      "Ġsleepy": 8796,
      "exits": 8797,
      "Ġaddressed": 8798,
      "Ġpossession": 8799,
      "Ġgoddess": 8800,
      "Ġestim": 8801,
      "Ġcommonly": 8802,
      "ĠJohan": 8803,
      "Ġviolent": 8804,
      "Ġpunishment": 8805,
      "ĠIsraeli": 8806,
      "Ġtemperature": 8807,
      "Ġrailway": 8808,
      "Ġvegetables": 8809,
      "Ġsurrounded": 8810,
      "loud": 8811,
      "ni": 8812,
      "pulls": 8813,
      "rad": 8814,
      "woman": 8815,
      "Ġok": 8816,
      "Ġcave": 8817,
      "orf": 8818,
      "oting": 8819,
      "ĠMir": 8820,
      "ĠWoman": 8821,
      "ĠNap": 8822,
      "ĠRA": 8823,
      "Ġsuicide": 8824,
      "ĠKrist": 8825,
      "Ġflu": 8826,
      "bec": 8827,
      "Ġeatin": 8828,
      "Ġrage": 8829,
      "Ġdeserve": 8830,
      "ĠAnim": 8831,
      "Ġelement": 8832,
      "Ġdistant": 8833,
      "Ġcuts": 8834,
      "ĠExactly": 8835,
      "Ġ1942": 8836,
      "ĠHarvard": 8837,
      "Ġexpert": 8838,
      "ITT": 8839,
      "Ġruler": 8840,
      "Ġconsiderable": 8841,
      "ederation": 8842,
      "ĠHaving": 8843,
      "rafton": 8844,
      "Ġextraord": 8845,
      "ĠHungarian": 8846,
      "Ġnormally": 8847,
      "ĠMargot": 8848,
      "ĠSpecial": 8849,
      "Ġexplanation": 8850,
      "ĠPakistan": 8851,
      "28": 8852,
      "45": 8853,
      "AA": 8854,
      "LW": 8855,
      "iber": 8856,
      "iven": 8857,
      "inity": 8858,
      "Ġcough": 8859,
      "anny": 8860,
      "Ġpul": 8861,
      "otam": 8862,
      "ĠHard": 8863,
      "ĠBO": 8864,
      "Ġdonkey": 8865,
      "orted": 8866,
      "IND": 8867,
      "Ġquant": 8868,
      "Ġfeature": 8869,
      "ĠThough": 8870,
      "rup": 8871,
      "ulture": 8872,
      "awa": 8873,
      "ĠAlbert": 8874,
      "Ġcollea": 8875,
      "Ġinsurance": 8876,
      "Ġdreamed": 8877,
      "ĠChant": 8878,
      "AKE": 8879,
      "Ġnaturally": 8880,
      "ĠMorgan": 8881,
      "ĠChildren": 8882,
      "Ġvehicle": 8883,
      "Ġsignificant": 8884,
      "screams": 8885,
      "Ġnaughty": 8886,
      "ĠAubrey": 8887,
      "ĠLewis": 8888,
      "rim": 8889,
      "Ãĸ": 8890,
      "haw": 8891,
      "Ġcas": 8892,
      "anes": 8893,
      "ĠSad": 8894,
      "ĠBurg": 8895,
      "ĠGall": 8896,
      "ĠFederal": 8897,
      "ĠFerg": 8898,
      "ĠEh": 8899,
      "Ġsuitc": 8900,
      "Ġintense": 8901,
      "Ġshared": 8902,
      "ccer": 8903,
      "Ġactions": 8904,
      "Ġchannels": 8905,
      "Ġmomma": 8906,
      "Ġswitch": 8907,
      "oked": 8908,
      "ĠCarter": 8909,
      "Ġ1943": 8910,
      "ĠBozo": 8911,
      "ĠSpani": 8912,
      "Ġexecutive": 8913,
      "ĠLucy": 8914,
      "ĠMatthew": 8915,
      "ĠSimon": 8916,
      "ĠJosh": 8917,
      "Ġrevealed": 8918,
      "Ġcrayon": 8919,
      "ĠAbsolutely": 8920,
      "Ġumbrella": 8921,
      "Ġcalendar": 8922,
      "Ġbriefly": 8923,
      "At": 8924,
      "Fran": 8925,
      "aire": 8926,
      "bach": 8927,
      "Ġtad": 8928,
      "Ġboring": 8929,
      "arse": 8930,
      "ĠMun": 8931,
      "Ġstamp": 8932,
      "ĠBishop": 8933,
      "ĠFollow": 8934,
      "Ġabo": 8935,
      "eling": 8936,
      "Ġexact": 8937,
      "orne": 8938,
      "ĠValley": 8939,
      "ROM": 8940,
      "Ġguarant": 8941,
      "Ġprime": 8942,
      "Ġchin": 8943,
      "them": 8944,
      "Ġhats": 8945,
      "Ġawoh": 8946,
      "Ġdropping": 8947,
      "Ġdragged": 8948,
      "Ġburnt": 8949,
      "Ġremarked": 8950,
      "Ã£": 8951,
      "Ġcooper": 8952,
      "Ġgrief": 8953,
      "ĠTHI": 8954,
      "ĠSyl": 8955,
      "imately": 8956,
      "acious": 8957,
      "Ġreference": 8958,
      "ĠBor": 8959,
      "ĠDID": 8960,
      "ĠGrafton": 8961,
      "ĠLib": 8962,
      "opotam": 8963,
      "ĠFur": 8964,
      "ĠJordan": 8965,
      "estic": 8966,
      "Ġagents": 8967,
      "Ġclaimed": 8968,
      "Ġtryin": 8969,
      "Ġstopping": 8970,
      "Ġcleared": 8971,
      "pector": 8972,
      "Ġcharts": 8973,
      "Ġdrift": 8974,
      "Ã©e": 8975,
      "Ġdipl": 8976,
      "Ġbeaten": 8977,
      "ĠParker": 8978,
      "Ġmidst": 8979,
      "Ġtowel": 8980,
      "ĠFIFA": 8981,
      "Ar": 8982,
      "fish": 8983,
      "esc": 8984,
      "Ġnood": 8985,
      "iceless": 8986,
      "ĠWan": 8987,
      "ĠWWE": 8988,
      "ĠHim": 8989,
      "ĠBank": 8990,
      "Ġknight": 8991,
      "ĠOt": 8992,
      "ĠGib": 8993,
      "ĠGulf": 8994,
      "ĠJess": 8995,
      "ĠKam": 8996,
      "Ġprob": 8997,
      "ĠStu": 8998,
      "izations": 8999,
      "Ġcommander": 9000,
      "Ġnumer": 9001,
      "ĠAssembly": 9002,
      "Ġphr": 9003,
      "ĠEdie": 9004,
      "Ġstrict": 9005,
      "ĠSpring": 9006,
      "enez": 9007,
      "noises": 9008,
      "Ġ1951": 9009,
      "ICE": 9010,
      "ĠTrust": 9011,
      "Ġenjoying": 9012,
      "Ġturkey": 9013,
      "ĠCrown": 9014,
      "Ġnegative": 9015,
      "Ġribbon": 9016,
      "Ġpoliceman": 9017,
      "azz": 9018,
      "ras": 9019,
      "somet": 9020,
      "Ġyell": 9021,
      "utor": 9022,
      "utation": 9023,
      "iform": 9024,
      "Ġsometime": 9025,
      "Ġgrat": 9026,
      "Ġpartly": 9027,
      "URE": 9028,
      "ĠArts": 9029,
      "Ġmarbles": 9030,
      "ĠJustin": 9031,
      "ĠEddie": 9032,
      "Ġ1952": 9033,
      "Ġsteam": 9034,
      "ĠHarvey": 9035,
      "Ġabsor": 9036,
      "Ġcrept": 9037,
      "chant": 9038,
      "Ġsolid": 9039,
      "Ġincreasing": 9040,
      "Ġcousins": 9041,
      "Ġvisited": 9042,
      "Ġaccompan": 9043,
      "Ġprimary": 9044,
      "Ġbubble": 9045,
      "Ġlemon": 9046,
      "Ġcriminal": 9047,
      "Ġthirsty": 9048,
      "ĠHoover": 9049,
      "27": 9050,
      "BS": 9051,
      "ais": 9052,
      "away": 9053,
      "jack": 9054,
      "kun": 9055,
      "lic": 9056,
      "mad": 9057,
      "ught": 9058,
      "Ã§": 9059,
      "Ġbars": 9060,
      "Ġdrank": 9061,
      "Ġfetch": 9062,
      "ario": 9063,
      "Ġbelly": 9064,
      "ĠSum": 9065,
      "ĠSav": 9066,
      "ĠAP": 9067,
      "Ġreb": 9068,
      "ĠCatherine": 9069,
      "ĠHope": 9070,
      "ATE": 9071,
      "ĠRachel": 9072,
      "ĠEver": 9073,
      "osity": 9074,
      "Ġguide": 9075,
      "Ġlasted": 9076,
      "Ġperman": 9077,
      "vention": 9078,
      "Ġimpression": 9079,
      "Ġstuffed": 9080,
      "Ġgreenbelt": 9081,
      "force": 9082,
      "itches": 9083,
      "Ġridic": 9084,
      "ĠPeters": 9085,
      "Ġstretched": 9086,
      "Ġpumpkin": 9087,
      "Ġdescribe": 9088,
      "Ġunusual": 9089,
      "Ġpennies": 9090,
      "iac": 9091,
      "pur": 9092,
      "Ġsung": 9093,
      "Ġcaut": 9094,
      "orpor": 9095,
      "Ġpine": 9096,
      "ashes": 9097,
      "ĠAw": 9098,
      "ĠMich": 9099,
      "ĠMister": 9100,
      "ĠMuseum": 9101,
      "outheast": 9102,
      "teries": 9103,
      "ĠNOW": 9104,
      "umper": 9105,
      "igers": 9106,
      "inds": 9107,
      "ements": 9108,
      "ĠKaz": 9109,
      "ĠKelly": 9110,
      "Ġquack": 9111,
      "ranch": 9112,
      "Ġimit": 9113,
      "iped": 9114,
      "Ġperce": 9115,
      "Ġattorney": 9116,
      "theless": 9117,
      "Ġfacts": 9118,
      "----\"": 9119,
      "Ġmusician": 9120,
      "ĠMmm": 9121,
      "Ġstaring": 9122,
      "Ġdeeply": 9123,
      "Ġarrive": 9124,
      "Ġdetail": 9125,
      "ynasty": 9126,
      "Ġtastes": 9127,
      "Ġvolunte": 9128,
      "Ġclimbing": 9129,
      "Ġducks": 9130,
      "Ġpatients": 9131,
      "Ġindependence": 9132,
      "ĠIranian": 9133,
      "Ġmethod": 9134,
      "ĠAnthony": 9135,
      "girl": 9136,
      "life": 9137,
      "mates": 9138,
      "oir": 9139,
      "part": 9140,
      "press": 9141,
      "Äĩ": 9142,
      "Ġwishes": 9143,
      "aru": 9144,
      "uther": 9145,
      "ĠMu": 9146,
      "iments": 9147,
      "ĠCamer": 9148,
      "still": 9149,
      "ĠPost": 9150,
      "ĠFif": 9151,
      "Ġje": 9152,
      "Ġjoking": 9153,
      "Ġspots": 9154,
      "Ġwanting": 9155,
      "Ġven": 9156,
      "ĠVava": 9157,
      "Ġthrust": 9158,
      "ruck": 9159,
      "Ġ300": 9160,
      "Ġreads": 9161,
      "ĠBeat": 9162,
      "retched": 9163,
      "Ġconsum": 9164,
      "Ġunderstanding": 9165,
      "Ġrefrigerator": 9166,
      "Ġdiscovery": 9167,
      "Ġleads": 9168,
      "umbles": 9169,
      "Ġexplos": 9170,
      "Ġbags": 9171,
      "Ġlevels": 9172,
      "ĠDoesn": 9173,
      "Ġdebt": 9174,
      "ĠSkinner": 9175,
      "Ġlobster": 9176,
      "Billboard": 9177,
      "ĠLincoln": 9178,
      "KING": 9179,
      "cri": 9180,
      "mate": 9181,
      "rated": 9182,
      "Ġcher": 9183,
      "Ġpowder": 9184,
      "oto": 9185,
      "icians": 9186,
      "ĠSene": 9187,
      "Ġrejo": 9188,
      "ĠHang": 9189,
      "ĠBBC": 9190,
      "Ġwithdraw": 9191,
      "ctic": 9192,
      "ando": 9193,
      "resents": 9194,
      "akh": 9195,
      "ĠKhan": 9196,
      "ĠInc": 9197,
      "agement": 9198,
      "asses": 9199,
      "Ġmustn": 9200,
      "ĠBring": 9201,
      "Ġmarched": 9202,
      "Ġgrain": 9203,
      "engu": 9204,
      "Ġalongside": 9205,
      "Ġreturning": 9206,
      "Ġ1966": 9207,
      "Ġ1944": 9208,
      "Ġgrowth": 9209,
      "ĠCharl": 9210,
      "urious": 9211,
      "ĠChannel": 9212,
      "Ġmidnight": 9213,
      "Ġintroduce": 9214,
      "Ġsurvive": 9215,
      "Ġliterature": 9216,
      "ĠNathan": 9217,
      "EAH": 9218,
      "ouncillor": 9219,
      "ĠGriffith": 9220,
      ";\"": 9221,
      "found": 9222,
      "iar": 9223,
      "sur": 9224,
      "vant": 9225,
      "wick": 9226,
      "removes": 9227,
      "Ġmask": 9228,
      "Ġcrib": 9229,
      "Ġding": 9230,
      "ĠId": 9231,
      "ĠTag": 9232,
      "aling": 9233,
      "Ġren": 9234,
      "ĠCe": 9235,
      "stream": 9236,
      "Ġkitten": 9237,
      "ATION": 9238,
      "ĠNort": 9239,
      "uns": 9240,
      "ĠLill": 9241,
      "Ġsale": 9242,
      "Ġrack": 9243,
      "quis": 9244,
      "Ġvow": 9245,
      "aug": 9246,
      "Ġblaz": 9247,
      "Ġsecrets": 9248,
      "Ġcared": 9249,
      "Ġsnip": 9250,
      "Ġ70": 9251,
      "Ġsubs": 9252,
      "Ġnearby": 9253,
      "ĠGeography": 9254,
      "ipping": 9255,
      "Ġsquad": 9256,
      "Ġparking": 9257,
      "ronic": 9258,
      "ĠKevin": 9259,
      "ĠJoan": 9260,
      "Ġfeeding": 9261,
      "Ġprayer": 9262,
      "Ġsatisfaction": 9263,
      "Ġunex": 9264,
      "Ġinhabit": 9265,
      "phy": 9266,
      "Ġawards": 9267,
      "Ġoven": 9268,
      "Ġfasc": 9269,
      "ĠMs": 9270,
      "ĠMorning": 9271,
      "irts": 9272,
      "ĠCross": 9273,
      "ĠBrig": 9274,
      "ĠGR": 9275,
      "Ġmyster": 9276,
      "ĠHemings": 9277,
      "Ġtheme": 9278,
      "ĠStart": 9279,
      "Ġlecture": 9280,
      "Ġpartners": 9281,
      "ĠSociety": 9282,
      "Ġpron": 9283,
      "Ġimper": 9284,
      "obile": 9285,
      "Ġdisturb": 9286,
      "ĠSpeak": 9287,
      "Ġinvite": 9288,
      "Ġrepresents": 9289,
      "END": 9290,
      "Ġbusinessman": 9291,
      "Ġinspired": 9292,
      "ĠAmong": 9293,
      "Ġwhispering": 9294,
      "Ġlaunched": 9295,
      "ĠPete": 9296,
      "Ġlimit": 9297,
      "ĠDiandra": 9298,
      "Ġtraditional": 9299,
      "Ġpilot": 9300,
      "ĠPrague": 9301,
      "ĠBangl": 9302,
      "ĠOrder": 9303,
      "Ġvaluable": 9304,
      "BE": 9305,
      "brew": 9306,
      "cut": 9307,
      "gra": 9308,
      "mosp": 9309,
      "rings": 9310,
      "Ġtag": 9311,
      "Ġdates": 9312,
      "Ġpha": 9313,
      "ĠTour": 9314,
      "ĠCL": 9315,
      "alls": 9316,
      "Ġnothin": 9317,
      "...\"": 9318,
      "uled": 9319,
      "ulpt": 9320,
      "inking": 9321,
      "earch": 9322,
      "Ġunlike": 9323,
      "Ġprices": 9324,
      "Ġflung": 9325,
      "Ġtalkin": 9326,
      "ective": 9327,
      "ultural": 9328,
      "ĠForce": 9329,
      "Ġ1963": 9330,
      "Ġruin": 9331,
      "Ġimagined": 9332,
      "ĠDaisy": 9333,
      "Ġtribes": 9334,
      "Ġroute": 9335,
      "Ġpuppet": 9336,
      "Ġwrapped": 9337,
      "ĠDivision": 9338,
      "Brown": 9339,
      "ĠMeanwhile": 9340,
      "Ġconfirmed": 9341,
      "29": 9342,
      "Ne": 9343,
      "PA": 9344,
      "dri": 9345,
      "lav": 9346,
      "inated": 9347,
      "Ġsam": 9348,
      "Ġmal": 9349,
      "Ġcells": 9350,
      "Ġpork": 9351,
      "asper": 9352,
      "Ġhits": 9353,
      "oween": 9354,
      "Ġthunder": 9355,
      "ĠSat": 9356,
      "ĠAy": 9357,
      "riot": 9358,
      "ĠCivil": 9359,
      "Ġlied": 9360,
      "Ġliqu": 9361,
      "ĠPur": 9362,
      "ĠRud": 9363,
      "ĠLane": 9364,
      "ĠJessie": 9365,
      "Ġages": 9366,
      "pless": 9367,
      "Ġscored": 9368,
      "Ġkindness": 9369,
      "ilding": 9370,
      "Ġtrap": 9371,
      "ĠChristians": 9372,
      "axy": 9373,
      "Ġsunny": 9374,
      "Ġmerged": 9375,
      "Ġprofession": 9376,
      "Ġhastily": 9377,
      "bbing": 9378,
      "ĠJoey": 9379,
      "ĠMadam": 9380,
      "ĠFranklin": 9381,
      "Ġeconomy": 9382,
      "Ġdebate": 9383,
      "ĠHolmes": 9384,
      "Ġsqueeze": 9385,
      "ĠFergus": 9386,
      "IV": 9387,
      "oa": 9388,
      "Ġmild": 9389,
      "orms": 9390,
      "Ġhaha": 9391,
      "ĠTW": 9392,
      "ĠSab": 9393,
      "ĠHulk": 9394,
      "ĠYEAH": 9395,
      "ĠPitt": 9396,
      "ĠPage": 9397,
      "ores": 9398,
      "ĠFight": 9399,
      "Ġvoy": 9400,
      "ureau": 9401,
      "ĠVice": 9402,
      "Ġremaining": 9403,
      "Ġcomposed": 9404,
      "Ġheadquarters": 9405,
      "char": 9406,
      "Ġinsult": 9407,
      "ĠShaw": 9408,
      "Ġchecking": 9409,
      "Ġdrain": 9410,
      "ĠSean": 9411,
      "Ġissued": 9412,
      "Ġphoto": 9413,
      "Ġshouting": 9414,
      "Ġexecution": 9415,
      "Ġsacrifice": 9416,
      "ĠLIKE": 9417,
      "Ġresponded": 9418,
      "ĠRadio": 9419,
      "Ġannoyed": 9420,
      "Ġcriteria": 9421,
      "intendo": 9422,
[...]
