#version: 0.2
Ġ t
h e
Ġ a
i n
Ġ w
Ġt he
o u
r e
Ġ s
Ġ *
o n
h a
e r
n d
Ġ b
i t
i s
Ġ m
Ġ c
Ġ o
Ġ d
Ġ f
in g
Ġt o
l l
a n
o r
e d
Ġ I
Ġ y
e s
e n
Ġ p
ha t
Ġy ou
H I
a r
Ġ g
Ġ l
C HI
Ġa nd
Ġo f
a s
O T
M OT
Ġ in
a t
o m
n o
Ġ he
Ġ h
l e
' s
Ġ ha
a y
i c
e t
v e
Ġ it
Ġt h
Ġ on
Ġ T
u s
i d
g h
Ġt hat
Ġb e
a l
Ġ =
Ġ S
Ġw as
Ġ A
l d
Ġ e
Ġ is
u t
o w
o o
Ġ no
Ġ M
. .
Ġw e
i m
v er
a c
k e
a d
Ġ n
' t
o t
r i
Ġ re
Ġ W
s e
en t
Ġf or
i r
gh t
a m
i on
Ġs t
Ġ H
Ġ C
l y
Ġ B
s t
Ġd o
Ġ u
ou t
Ġ k
r o
Ġm e
it h
he r
Ġ [
Ġ "
Ġw ith
ĠT he
a ll
e a
om e
u r
c h
Ġa n
a nd
Ġl i
Ġa t
t er
Ġa s
Ġw h
i ll
Ġs e
Ġ Y
ou ld
Ġg o
Ġno t
c e
Ġha ve
Ġ D
A T
Ġth is
Ġ P
i l
no w
Ġ N
Ġ -
x x
F AT
us t
Ġhe r
e ll
.. .
i f
u n
an t
c t
Ġh is
Ġ O
Ġa re
Ġ R
Ġk now
Ġon e
r a
Ġ G
t h
Ġ L
o p
Ġthe y
o re
Ġw hat
Ġu p
Ġ 1
Ġ F
Ġs he
Ġs a
Ġn e
oo k
Ġm y
Ġs o
u m
Ġa ll
Ġ j
r om
Ġ E
Ġha d
Ġd on
Ġc an
ou r
g e
p p
i e
â Ģ
ea h
Ġthe re
Ġ J
Ġd e
Ġyou r
Ġw he
r y
a in
u l
ĠH e
Ġ r
ĠI t
Ġ Ġ
o l
ac k
oo d
Ġa b
Ġli ke
Ġb ut
Ġ out
i ght
Ġh im
re d
a ke
ar t
Ġf rom
Ġa l
Ġs h
Ġ 2
Ġd id
at ion
on e
Ġp l
a b
ha n
ver y
i g
e l
' re
es t
' m
o s
w hat
er s
es s
ri ght
in k
e m
is t
h i
Ġwe re
Ġg et
ou nd
it t
am e
Ġb y
on g
Ġs u
Ġsa id
c k
ĠY ou
n a
in d
Ġo r
t her
q u
Ġw or
re s
n t
Ġthe m
as t
Ġab out
i ve
Ġc om
Ġs ome
b er
ar d
Ġs p
us e
o h
Ġ (
xx x
e p
y ou
a k
ow n
Ġ v
t he
Ġwh o
Ġw ant
Ġc on
all y
a u
at e
Ġth ink
ic e
Ġj ust
Ġw ould
Ġhe re
f e
y eah
k ay
' ll
Ġse e
e ar
Ġan y
ic k
o d
Ġm an
im e
ou gh
a p
Ġt w
Ġ if
Ġ K
a g
Ġ2 0
Ġe x
Ġwhe n
itt le
Ġg ot
ic h
ĠA nd
Ġ1 9
h ing
Ġ right
Ġs ay
] .
or t
Ġl ook
Ġw ill
Ġ us
v en
in e
Ġl ittle
. "
id e
ou s
c a
I N
- -
A R
t o
o st
Ġ U
Ġno w
Ġa g
Ġp ro
Ġto o
in t
i es
it y
w ay
Ġt ime
Ġbe en
Ġp e
it e
Ġa r
Ġb ack
n e
Ġm ore
Ġc ould
Ġthe n
Ġc l
l f
Ġha s
Ġ xxx
Ġgo ing
Ġg ood
he re
Ġd own
re e
ac e
u h
o se
Ġtw o
Ġthe ir
Ġ very
Ġ âĢ
a re
Ġo ver
M AR
re at
is h
Ġ ro
Ġwh ich
o ve
Ġof f
i an
ca use
ĠW hat
e nd
Ġo ther
al k
ĠĠ ĠĠ
ĠS he
ot her
ĠS t
Ġp ut
h y
u re
Ġt r
Ġa f
op le
t hat
Ġth ing
u d
o y
Ġb l
as e
f t
au gh
Ġ qu
on d
, "
w e
s o
ar k
m ent
ĠW e
Ġ '
om et
i a
t y
' ve
he d
or n
Ġl e
Ġf e
Ġh ow
m y
Ġpe ople
p e
ĠT h
IN V
ĠI n
on na
ir st
y es
ĠB ut
Ġb r
ou ght
u e
ur n
h o
ad e
Ġc ome
Ġin to
ar y
v ed
Ġg r
at er
Ġpl ay
Ġ er
Ġm ake
ĠN o
Ġc all
Ġg onna
b le
a ge
Ġ V
Ġw ay
as s
Ġt han
Ġd ay
is s
Ġwor k
or d
v ing
Ġ %
c i
Ġag ain
Ġs omet
p l
ou nt
Ġt ell
Ġme an
b e
l augh
R O
o ll
Ġf irst
o kay
f f
Ġ en
Ġwhe re
r an
I S
i re
se lf
m er
n g
Ġa m
Ġaf ter
w n
Ġt ake
v es
Ġw r
at her
Ġth r
u p
Ġp art
Ġl et
Ġb et
Ġdo es
ĠS o
ac h
ĠT hat
u ch
Ġy ear
oo l
Ġg u
Ġne ed
Ġd is
Ġp r
Ġha pp
Ġdid n
f ore
Ġe very
ou se
re n
th ing
Ġu n
p s
l es
p er
Ġon ly
u b
S IS
ĠThe y
laugh s
Ġsh ould
ĠM r
âĢ Ļ
p t
Ġ our
d ay
nd er
Ġm ade
Ġsomet hing
h m
ĠO h
u ll
Ġf l
ac t
ad y
ab le
res s
Ġm uch
ĠâĢ ľ
Ġc ha
z z
re t
he n
ĠY eah
os s
B RO
o g
Ġt e
Ġwe ll
Ġt alk
Ġl ong
m an
t e
or y
Ġ20 1
Ġc ar
t ing
Ġc o
ir l
ion s
Ġha nd
i ed
at ed
Ġc hi
ic t
Ġthe se
an g
a v
Ġw ent
ad d
ĠTh is
i x
Ġre ally
Ġthr ough
¿ ½
ï ¿½
c c
g et
Ġ im
Ġcom p
i le
u ck
Ġbe cause
Ġbe fore
Ġa d
w here
' d
Ġp o
Ġchi ld
Ġne ver
Ġo ld
Ġb ig
is e
od y
ĠU n
Ġs ha
ĠW ell
an na
Ġth ree
u g
Ġc ame
Ġb oy
Ġm o
Ġs c
Ġre m
Ġst ill
i z
? "
Ġe at
Ġal so
Ġu nder
Ġg reat
Ġ ke
Ġas k
c l
f ul
Ġs m
Ġhe l
Ġa way
Ġg irl
i p
en ce
Ġth ought
Ġe ven
at ch
k s
on s
ri ed
Ġa ct
ĠC h
w ard
d o
ĠThe re
Ġa pp
no ther
u nd
om my
Ġh ome
Ġne w
Ġl ast
Ġw anna
Ġp er
Ġc h
Ġhapp en
Ġn ame
e ct
l and
Ġm ay
or s
Ġc r
em ber
at h
0 0
it ed
U R
Ġdo ing
Ġst art
Ġt urn
at es
i ly
Ġthing s
o ck
ri end
a h
o ld
ig n
Ġm ust
Ġth ose
ĠM ar
Ġh ouse
Ġman y
Ġb ook
âĢ Ŀ
Ġl ea
. ]
Ġm other
ch ool
Ġa nother
he s
ing s
n y
l i
an s
Ġcon t
o b
ab y
Ġg ive
un g
b ut
Ġhel p
Ġb u
Ġs er
Ġf ind
i ous
an ce
a it
y s
Ġhe ad
x t
h ow
le ase
p en
ĠN e
in a
a ir
i v
Ġt ry
a ve
ra in
Ġw on
i gh
w ell
Ġo wn
Ġse c
Ġn ight
one y
r d
Ġcall ed
Ġre s
Ġ 3
ĠĠĠĠ ĠĠĠĠ
Ġbe l
a il
Ġk ind
o c
t s
Ġsh ow
ĠB r
ar s
Ġyear s
Ġc han
i ld
ĠC hi
a w
b ody
Ġl ove
Ġf riend
Ġf our
ĠY es
UR S
er t
h uh
ĠH ow
Ġf ound
Ġe l
ic al
ak ing
ĠI s
Ġdon e
g g
Ġbet ter
s ide
Ġs l
Ġwh y
Ġe nd
Ġm ight
ak es
Ġre c
Ġb o
al s
Ġre ad
Ġo kay
Ġc he
way s
in ce
Ġcom m
Ġb ot
ver s
E R
ic an
Ġm in
Ġpl ace
Ġar ound
Ġsu ch
Ġfe el
ĠB e
ĠI f
Ġro om
Ġm ost
Ġs chool
le t
p ort
Ġat t
id ent
c es
Ġbe ing
Ġg l
f or
Ġc ount
Ġp res
Ġd if
Ġto ld
Ġit s
Ġ20 2
Ġsu pp
d s
am p
Ġf ather
Ġsu re
re nt
Ġ .
Ġany thing
Ġli fe
Ġc are
m p
Ġke ep
Ġd es
Ġel se
Ġc our
ĠD o
Ġf in
l ed
u ally
Ġw ater
on t
Ġbe g
in n
ĠA ll
Ġn um
m hm
ct ion
ĠA s
re am
r ow
Ġs il
ĠA mer
u c
w hy
Ġe ver
Ġl ot
Ġs ame
Ġne xt
ul t
im es
or ry
um p
Ġe ar
Ġd r
ĠR e
d e
ut e
Ġal ways
Ġm en
Ġf ive
! "
Ġwh ile
Ġbe c
Ġsa w
b r
Ġ ra
ĠA l
Ġtoo k
e e
ation s
m ber
en s
l ook
Ġs et
Ġo pen
Ġb aby
Ġn ice
e ver
Ġp ol
re st
Ġst r
w ho
y e
Ġus ed
Ġdoes n
it ion
l ing
Ġse em
m s
Ġy eah
ï¿½ ï¿½
Ġw om
c an
Ġp re
Ġp ret
Ġb re
Ġle ft
th is
Ġp ie
oo t
Ġb us
Ġs w
is ter
Ġf am
ro s
v ent
Ġr un
Ġm on
the y
Ġm ag
ĠA n
ation al
ve l
ĠT H
ĠD e
A N
ound s
ĠW hy
Ġf ar
c le
ĠUn ited
w h
ou n
out h
Ġst op
ter n
Ġwor ld
Ġc le
Ġs ix
get her
Ġu nt
Ġre al
Ġu m
au ght
ĠO n
Ġf un
Ġe le
is hed
ĠA r
Ġ use
Ġm oney
Ġha rd
und red
Ġk ne
ri es
Ġnum ber
Ġm om
Ġs ing
Ġdif fe
n ess
ĠâĢ ĵ
Ġst ay
g r
ĠK ing
Ġwe e
Ġh undred
Ġp h
ĠC ha
ĠN ow
ow er
Ġbel ie
us ic
ell ow
op e
Ġw ar
Ġo b
ers on
pe ct
Ġ20 0
E S
Ġa cc
in s
the re
g er
Ġm ar
ĠNe w
Ġdo g
an c
Ġre t
T he
ĠD on
s he
ĠM ark
Ġbl ack
Ġg i
we en
le ep
Ġst ick
Ġb ir
Ġto gether
Ġknow n
ĠF or
Ġhappen ed
Ġa c
t on
Ġw ait
ĠO kay
ĠW hen
ĠM y
m e
et s
Ġcour se
Ġen ough
Ġyou ng
ĠE ng
han k
C O
le as
p h
i al
Ġsay s
orn ing
Ġhe ar
Ġunt il
ĠA t
t a
Ġb est
ĠF ran
Ġd ied
Ġup on
L D
Ġy es
i o
Ġsec ond
n ed
Ġnot hing
Ġc ol
d id
re w
r ist
e c
ĠM iss
C hi
t le
Ġf r
Ġe yes
Ġb ad
Ġ _
Ġbet ween
ft a
Ġs ur
Ġ 4
Ġw alk
Ġth ough
Ġdo or
ĠAmer ican
Ġask ed
ĠC an
ou p
Ġm at
ea k
Ġqu ite
u ff
ĠMr s
se e
Ġrem ember
Ġsil ver
i ble
a z
Ġst and
ub l
Ġchild ren
g ed
Ġpo int
Ġb it
ĠThe n
Ġb ed
Ġhim self
no t
" .
Ġm orning
Ġha fta
Ġh old
Ġcha r
Ġf all
Ġp lease
Ġs ide
j ect
u res
E L
ur ing
Ġs it
Ġv o
Ġre l
i red
Ġb all
a ut
Ġli ght
m b
Ġk ill
Ġd ist
a le
p ut
Ġs orry
Ġl ist
ent s
ĠN ot
Ġcom ing
Ġsm all
Ġp ick
Ġ Z
Ġp ass
Ġwant ed
oll ow
m ed
c hed
Ġf ace
an y
oh n
add y
ĠJ an
Ġse en
Ġagain st
Ġkne w
v ie
Ġ1 8
Ġfe w
Ġbot h
ter s
un e
Ġwith out
Ġm ind
Ġis n
u ary
or k
ros s
ĠSt ates
en c
ĠHe y
t en
Ġon ce
i b
Ġhe ard
ĠJ ust
ap e
i et
Ġ ent
Ġlook ing
n ing
Ġb orn
Ġst ory
an k
Ġm il
ĠC l
c ha
IN G
Ġto p
Ġdiffe rent
Ġb ase
) ,
o int
m ost
ĠA f
Ġh ur
Ġe ach
Ġre g
ct or
Ġlea ve
Ġst ud
Ġt er
ic s
Ġcon s
Ġhe art
ra w
f fe
ĠE d
ent y
Ġ19 9
ap er
Ġto day
ou d
i er
Ġm et
ĠM ay
en er
Ġb ro
m m
p r
Ġy et
Ġde c
ĠJ ohn
Ġt able
Ġget ting
st and
Ġre st
Ġs ong
Ġwho le
Ġlook ed
ci al
Ġpret ty
ĠL et
l ess
Ġl ater
Ġh ung
ĠI nd
Ġu h
or th
Ġ hat
as on
Ġ 5
at ing
Ġp erson
Ġhand s
Ġg ave
re en
Ġk id
Ġevery thing
ul ar
Ġw atch
Ġtalk ing
Ġd ri
Ġe ight
if e
e x
Ġne ar
Ġin v
Ġso on
it s
ĠG od
Ġc ity
ĠE r
c ome
Ġs leep
Ġs k
Ġf ollow
am es
us s
Ġat e
Ġh uh
Ġh igh
Ġwas n
ĠCh rist
Ġmag n
Ġfam ily
Ġto wn
re ady
ab ly
ond er
hi p
Ġf ood
ĠC ome
ne y
Ġs ent
c o
zz z
Ġa ir
Ġday s
is ion
Ġp ict
g o
ert ain
Ġre d
ĠTH E
Ġdo ll
Ġha ving
O U
as ter
) .
d er
Ġgo es
Ġan s
Ġs ince
Ġbe aut
Ġer m
Ġha lf
Ġbelie ve
ĠG o
Ġw ind
Ġme et
os ed
ĠA d
b all
ĠP r
Ġin st
o or
in es
Ġgirl s
oun c
pp ed
Ġsha ll
Ġr ound
as h
Ġf ire
d on
Ġin d
ver n
in ess
ĠS p
s h
Ġli ve
Ġwr ite
Ġvo ice
Ġm ove
Ġg one
Ġstart ed
d en
ĠS c
w o
i ke
Ġqu est
Ġ ri
Ġsp o
ar ah
ut h
se l
Ġwor d
Ġan im
ce pt
Ġt ri
Ġp op
en g
Ġbr other
ĠM ommy
Ġl o
Ġbr ing
a j
or row
Ġsay ing
Ġal ready
el t
Ġt rain
Ġs on
Ġth ir
Ġpl an
a id
Ġc at
it her
Ġs y
ull y
u al
Ġh or
Ġd ire
Ġ19 8
Ġh our
Ġc a
ĠH is
is ed
Ġ id
L O
ct ed
Ġf if
ot e
Ġwr ong
a pp
ĠT o
ĠC om
Ġm aking
l ish
p art
ĠG er
Ġc ap
er y
Ġdr ink
ak en
if ul
Ġhung ry
M ommy
Ġcount ry
Ġre ady
ust r
Ġpie ce
cl ud
Ġbu ild
ward s
Y ou
Ġunder stand
Ġde ar
i vers
Ġbre ak
w er
Ġtry ing
is on
ie ld
t ed
Ġfriend s
a x
ĠA re
Ġl ar
CO L
Ġal ong
Ġd at
Ġf ight
Ġc ent
Ġw onder
Ġmean s
Ġm iss
Ġ 6
u es
Ġret urn
Ġf oot
Ġ 7
Ġim p
Ġsu b
Ã ©
Ġl augh
Ġal most
e red
o ber
ac es
Ġs ound
Ġb as
Ġc ut
Ġs ort
E N
it ies
Ġbec ame
ĠL ook
" ,
Ġh ot
ĠP h
et h
Ġe as
Ġwom an
Ġl and
U N
ĠR oss
ĠL e
Ġa ge
a ul
Ġmom ent
Ġ Q
Ġg ame
Ġwould n
p ed
Ġ 8
O N
at ive
ĠG r
Ġbeg an
Ġt ra
ĠH er
Ġ i
ur y
c ess
us h
ĠF l
Ġp aper
Ġj o
ow s
is it
ĠW ho
Ġle ad
uh huh
ĠO ne
Ġgu y
in ed
ĠD id
b y
ĠW ill
Ġad d
al right
Ġin te
ant s
Ġact ually
1 9
Ġre f
O h
ĠW here
Ġt re
Ġsp eak
Ġpro ble
et er
it al
Ġde ath
on y
ĠC ount
Ġ19 7
k en
Ġre p
Ġid ea
d u
Ġf ore
Ġtw enty
Ġgu ys
ro g
Ġas s
. âĢĿ
en e
Ġin t
ĠJ e
Ġh um
ro p
Ġgu ess
Ġpart y
Ġl ost
Ġc up
Ġp rom
Ġst uff
Ġpres ent
ĠT hank
Ġo h
b ably
t ain
Ġp oss
Ġwh ite
st er
ĠM ot
Ġt en
e y
Ġs ign
Ġbeaut iful
Ġturn ed
Ã Ń
Ġrec ord
ĠC ar
Ġlook s
Ġf ine
Ġph one
Ġc oll
Ġf act
Ġbr ought
re et
z e
Ġwor ds
ep t
Ġ 9
ag es
Ġc ertain
-- --
Ġte le
Ġd uring
Ġp ubl
ou ch
Ġy ellow
Ġt imes
oll y
ou ble
Ġinte rest
Ġcom es
Ġbo x
A I
Ġl ear
ĠĠĠĠĠĠĠĠ ĠĠĠĠĠĠĠĠ
Ġcon f
g ot
Ġa w
k es
ĠEng lish
s on
Ġpol it
Ġf ull
Ġcl ose
Ġwee k
Ġmon th
Ġp ay
ĠB l
Ġex c
I t
Ġs un
ur s
Ġte am
un ch
es e
Ġplay ed
ĠR ight
Ġp ain
ie f
Ġplay ing
y ing
ist s
Ġm usic
a red
Ġs ister
Ġhapp y
Ġj ob
Ġmat ter
Ġt aken
Ġboy s
Ġde l
Ġst e
leas ed
r u
G LO
am a
air s
or m
he y
Ġab le
Ġmo vie
N A
Ġw and
un t
Ġbe ar
Ġh ope
Ġro ck
f ully
Ġin clud
, âĢĿ
Ġlist en
b b
Ġex t
re ad
Ġthan k
g an
ke y
r ing
Ġmin ute
m ing
am ed
Ġm ed
ro om
Ġwr it
m ore
Ġin c
Ġf ell
Ġher self
M EL
ĠG ood
Ġde ad
Ġd ress
ĠG e
the n
Ġdis c
Ġpo or
Ġk ing
h ind
Ġ1 0
Ġwant s
Ġe gg
ĠP er
Ġf elt
Ġmy self
Ġl aw
ic ha
Ġ19 6
um b
Ġar t
Ġmagn et
Ġ ,
Ġc ir
at s
o le
ĠA p
n er
Ġs at
id ed
Ġin ter
m en
ut es
p le
ol og
Ġ #
Ġseem ed
Ġcould n
ĠW h
Ġlet ter
Ġcont in
us ed
ren ch
Ġs im
Ġag o
Ġb ar
ept ember
is es
ĠAf ter
Ġha ir
ic a
Ġs ir
Ġm akes
Ġoff ic
Ġmay be
Ġsp e
Ġl ate
id d
Ġp ounds
Ġle g
it c
Ġg ener
Ġsome one
ry ing
Ġbl ue
b um
at or
ha ps
m a
ĠCount y
sel ves
Ġgot ta
Ġl oc
Ġfr ont
ou b
if ic
b o
Ġcha ir
Ġr ather
g in
b orn
Ġcle ar
ĠP ro
Ġli ved
Ġbus iness
ut ion
ous and
Ġfl oor
itt ing
l a
id es
inn er
he ad
Ġw ood
Ġp ri
Ġbe hind
li ke
Ġstr ong
O R
iz ed
ĠGer man
ĠS eptember
j ust
vern ment
Ġst ate
Ġquest ion
Ġbir th
s p
Ġim port
iz e
ian s
Ġl ess
s ing
at i
Ġsh ort
Ġwom en
er n
Ġmin utes
ĠFran ce
ĠW or
Ġde al
Ġe v
ĠE x
u red
fe ct
n ina
Ġ ed
Ġs we
Ġg reen
c om
ĠS ome
en se
ivers ity
ĠY our
Ġin side
i k
Ġha ven
Ġ202 2
Ġcol or
Ġpro bably
ĠPh il
e en
Ġth ousand
Ġtr ue
ĠBr it
al d
âĢ Ķ
Ġ19 4
Ġl ady
ĠJan uary
Ġal one
ĠS arah
Ġse ven
Ġout side
Ġser v
Ġc ur
at ur
ri l
ent ion
f ord
Ġc ase
ĠO r
Ġpict ure
aught er
u ly
ĠB en
g y
Ġ es
ha m
is m
Ġ19 5
Ġqu ick
Ġp ower
Ġc ook
o es
Ġf rog
ĠP ar
r s
on es
Ġt ape
et y
ĠM an
Ġr an
p ill
Ġal bum
le y
m orrow
ĠG u
ug ust
Ġm ine
Ġc reat
Ġro ad
Ġgr and
Ġmil k
Ġl ay
id er
Ġchan ge
ĠD r
Ġyour self
Ġe m
Ġs qu
ĠF e
Ġh on
Ġp ull
er v
ear s
are nt
ment s
ater pill
Ġp ar
ri an
el s
Ġex pl
Ġt aking
CHI LD
ot h
Ġpr ot
ran ge
y ep
ra p
Ġgi ven
m other
ĠMar ch
y up
Ġm ain
ĠS ha
ĠA b
W hat
ĠE l
Ġw in
Ġd ark
ĠF r
ĠP e
Ġd ream
c hes
I C
Ġof ten
u ro
Ġw ish
ĠW ith
Ġm ark
c he
Ġfif ty
Ġb ody
ĠH ar
Ġare a
Ġtr ans
ang u
an e
Ġon es
ĠY ork
ĠD av
Ġpro f
A nd
ĠY OU
Ġfe et
for m
p oint
k ed
Ġs al
Ġfun ny
Ġw ife
il t
ious ly
c ent
e ad
G AI
Ġhis t
ic es
ĠA ugust
Ġfor m
f l
ct ober
ĠF rench
Ġchild es
CHILD ES
Ġli ving
A L
Ġhur t
Ġ â
ĠHe re
ĠS w
Ġle ast
ĠC on
aterpill ar
Ġwork ing
i pp
Ġp u
Ġco ld
a ur
ĠWor ld
ĠS h
Ġlar ge
Ġt ried
Ġf av
f ort
ĠAd am
re y
be cause
w hen
Ġm ill
ic ip
Ġn amed
i am
ĠJ o
m as
ren ce
re m
Ġhor se
G R
g ood
Ġf ig
Ġbu y
ate ly
Ġre ason
Ġc ho
Y es
um mer
in ing
ĠM e
Ġf air
Ġans wer
r it
a im
ard s
ĠM om
v ision
ar a
ĠP res
Ġex pect
ion al
Ġt ree
Ġbut ter
ĠBe cause
r ict
Ġwe ar
ĠAp ril
Ġp ast
Ġother s
ĠP l
w w
b l
Ġgr ow
Ġo cc
ĠO ctober
Ġd raw
Ġe ither
ĠO f
2 0
Ġl ine
ent ly
Ġimport ant
Ġs ea
Ġl angu
Ġli ves
al th
itt en
Ġcl ass
ho ld
R E
Ġb at
am ent
Ġad v
ĠW ar
Ġ1 7
ĠT r
ri e
Ġme mber
Ġatt ack
at ure
Ġt ill
ï¿½ï¿½ ï¿½ï¿½
ĠCha r
ĠGe or
Ġm ess
Ġre port
Ġse nd
ĠE very
a i
ra id
Ġ ?
Ġre ce
ul a
ĠP lease
Ļ ª
Ġg ra
Ġso ld
00 0
Ġbl ock
Ġkid s
ĠS e
N o
en n
Ġcomp any
Ġt ea
Ġâ Ļª
g ue
Ġkill ed
ĠR ep
Ġf ree
ar ch
os p
Ġanim als
c er
ĠA N
ain ed
em ent
Ġgl ad
Ġbec ome
Ġ1 5
Ġor der
Ġex p
ĠA m
ĠP aul
Ġqu iet
Ġac ross
ĠB ar
al ity
l o
Ġin s
Ġhe ld
ĠE uro
Ġc amp
Ġp ur
Ġam ong
Ġear ly
ick s
Ġd ro
Ġc ried
Ġs n
l s
Ġj ump
Ġ201 7
Ġte ac
ĠR uss
Ġthink ing
Ġmo on
Ġm is
Ġv isit
g es
Ġst ar
ĠB ro
Ġcon st
Ġob ject
ffe e
m ay
Ġm er
Ġwork ed
ac hed
A S
ĠM m
Ġproble m
Ġto ys
Ġgo vernment
l er
Ġre leased
Ġ1 2
Ġgr oup
Ġget s
Ġso ft
Ġw all
itt y
Ġf ast
ĠUn iversity
Ġc or
Ġbirth day
Ġno ise
ac ed
W e
H S
Ġre pl
Ġ19 3
idd le
b s
Ġcle an
Ġ ill
i ved
Ġb and
Ġo pp
st em
Ġn ine
c y
ot t
laugh ing
ĠM in
B ut
d y
Ġaf raid
Ġmar ried
d den
Ġsomet imes
Ġche ck
E D
Ġtr ouble
Ġsing le
ĠDav id
Ġ1 6
Ġf ing
ur ch
Ġcomp et
inn ing
Ġde m
ĠD addy
s c
Ġ ...
il ity
ent le
ra z
Ġad m
Ġbook s
ĠIt al
ic ian
Ġfin ished
m usic
en ed
d uc
Ġto morrow
ill y
k ing
ĠT O
ĠEng land
ow ed
Ġf ly
A UN
Ġh it
ic ally
t wo
ĠE ar
Ġt on
Ġc e
f ic
Ġp os
Ġsu dden
ci ent
Ġf ix
ĠC ol
Ġchan ce
no ck
Ġeat ing
Ġse ver
pl ay
Ġres p
er ing
ĠâĢ ĺ
i ver
Ġd aughter
b and
Ġv ill
Ġke pt
ĠM other
Ġpubl ic
Ġen g
an a
in y
Ġfor get
od e
g ing
' .
o x
p han
Ġb ag
han ks
M om
H e
is ing
ĠBrit ish
om an
ea red
Ġthem selves
itc hen
n ight
Ġn in
Ġpro v
Ġswe et
Ġ z
Ġto y
ang er
Ġc orn
ĠW as
Ġmonth s
Ġm ot
ĠThe se
Ġs ca
ow ers
or ies
Ġn or
Ġsever al
ĠS ir
Ġst ore
Ġwith in
Ġde part
ĠChrist mas
Ġp ot
Ġn ational
Ġgr ound
Ġe ye
Ġsur pr
Ġwind ow
Ġw a
Ġm ur
Ġe vent
b ed
id ge
Ġd inner
ĠEuro pe
aj or
Ġgo ld
ell o
ain s
vel op
Ġk itchen
Ġf ish
ĠJ uly
Ġ ice
u ed
] ?
Ġm outh
Ġ1 1
ĠCom m
Ġst ood
ĠPres ident
Ġknow s
R oss
Ġf il
ĠC ity
Ġgo in
ove red
Ġt ouch
do es
âĢ ĵ
id ing
ir on
ove mber
gr am
, --
Ġb ath
Ġ rain
Ġco ffee
ĠA h
E X
Ġwhe ther
W ell
Ġcl ot
id ay
Ġor gan
act ly
Ġg un
br uary
Ġh ors
ce mber
point s
E T
Ġfor got
c ol
n es
ĠT e
ud e
Ġab ove
Ġsec ret
Ġrun ning
Ġt em
ĠM ary
Ġc aterpillar
ĠB y
Ġar m
c on
. '
Ġ202 1
ain t
Ġsome body
te en
cc ess
Ġex per
Ġeas y
y l
Ġm ist
Ġser ies
Ġt reat
oo f
ĠC ap
ur g
ĠD or
Ġbl ood
ĠP art
ĠC al
Ġdo ctor
Ġs itting
Ġp leas
Ġc ross
Ġlong er
r ic
Ġwr ote
Ġ X
Ġt y
ir t
Ġcomp le
Ġsy stem
Ġl eng
Ġh oney
ĠJ ack
Ġseem s
Ġp age
Ġg entle
ir d
H V
M ark
Ġ !
Ġ201 9
Ġf a
qu e
Ġ est
Ġper haps
Ġhum an
Ġspe cial
Ġin de
Ġh op
ĠG et
i um
L LD
Ġde f
HS LLD
o on
Ġoff ice
mp ions
Ġton ight
ast ic
Ġhour s
d om
ounc ed
r act
Ġfoot ball
us hed
Ġal right
b ye
ĠN ational
Ġprof ess
Ġtell ing
j oy
ĠA g
Ġd oub
ess ie
Ġtele vision
Ġha ng
ĠN ovember
Ġme ant
ph one
ag er
re ed
Ġst ra
Ġst reet
Ġd ra
g ar
w ith
Ġeven ing
Ġa head
Ġy a
Ġ1 3
Ġ1 4
uth or
Ġm od
un k
un ity
Ġhow ever
ĠFe bruary
mb ers
Ġst ep
ond on
ĠH ave
Ġpart ic
ĠC he
Ġd ad
ĠJ une
Ġyour s
Ġbo at
Ġthir d
ot s
av y
c ed
t hank
us band
Ġc ake
ĠG reat
it ch
Ġd i
Ġare n
Ġro ll
Ġ201 6
Ġnew s
ĠDe cember
ounc il
Ġgo d
Ġsl ow
Ġany more
ĠS outh
ĠF rom
Ġmill ion
w ait
Ġha r
Ġwh om
ĠN or
Ġsa fe
Ġper fect
w as
Ġsupp ort
T ER
r at
Ġr ide
Ġpres ident
Ġbuild ing
ĠMay be
a f
c ri
Ġs ounds
ĠL ondon
Ġany one
Ġpr ison
f ly
Ġmo ved
Ġbir d
Ġinst ead
Ġl ad
s ha
Ġpass ed
r or
Ġan n
Ġwr itten
ĠGeor ge
Ġr ing
r on
s ome
ri gin
il ver
Ġcl os
Ġbu ilt
Ġstand ing
Ġthir ty
Ġ19 2
ĠH ouse
ll ustr
Ġno ises
Ġt ired
Ġde fe
Ġcont ro
Ġc oup
ĠEd na
ĠI N
Ġhist ory
o v
ant a
Ġ201 5
Ġevery body
Ġwee ks
an ge
ĠA ny
Ġgl ass
b it
ĠD ad
f er
Ġp ark
ter day
Ġchar ac
Ġm ount
Ġab s
Ġl oud
Ġh usband
Ġthr ow
ĠS ec
Ġt akes
ress ed
Ġwait ing
Ġsa ve
Ġf le
the ned
Ġs ick
Ġd iv
Ġd addy
Ġd anger
Ġtr uck
Ġcir c
un icip
ore d
ĠS ee
Ġ202 0
Ġtre es
Ġc op
ĠN orth
p ing
Ġcl im
Ġposs ible
d at
Ġc ost
Ġl unch
Ġde ep
em y
gr ound
Ġc and
Ġde velop
enc y
I T
Ġb reat
Ġs now
Ġf it
es tern
Ġde p
end ed
h in
Ġwhat ever
res ent
Ġp arent
Ġf ear
Ġfor mer
Ġk nock
Ġc ast
e al
it er
ĠC H
tern ational
st airs
Ġteac her
t om
id ence
p ar
Ġs and
Ġsupp ose
am b
Ġbro ke
Ġb ow
at t
, '
A Y
Ġreturn ed
Ġme mbers
Ġcertain ly
Ġ ve
Ġf ur
Ġinde ed
Ġstra ight
Ġt est
ĠE m
il ed
Ġpl aces
Ġsw im
Ġcan not
Ġsp ace
no on
Ġr u
Ġfeel ing
k y
und ay
Ġri ver
osp ital
T hat
Ġen joy
Ġsu ccess
Ġwrit ing
u el
Ġter ri
Ġp ost
ĠL ord
Ġar ri
Ġwar m
Ġf ellow
O M
i or
ul ation
ĠK e
Ġpu zz
Ġclot hes
Ġv ar
ĠWill iam
Ġl uck
ĠL ike
Ġpartic ular
ou l
Ġsp ell
Ġsupp osed
Ġpol ice
L E
Ġc ry
Ġo per
ĠT hanks
Ġwork s
Ġprot ect
Ġc aught
Ġd a
ll o
Ġst ri
Ġsp ec
Ġm iddle
ĠD an
Ġex actly
ĠMark y
Ġl ow
th ough
ĠL ea
ard en
Ġar ms
Ġ3 0
Ġd et
oo se
Ġdis app
Ġdec ided
Ã ¡
r al
Ġpro gram
may be
Ġtr uth
Ġdif fic
Ġp en
Ġpro du
Ġevery one
Ġv ict
ĠInd ian
ĠH ello
em pt
Ġv al
llustr ation
Ġcoup le
t ime
Ġd est
Ġus ually
Ġcl ub
Ġchan ged
Ġk iss
Ġlangu age
Ġ )
Ġpie ces
Ġo rigin
I D
Ġc ool
ĠO K
I llustration
Ġb right
u ri
Ġm unicip
as k
ĠA ld
ĠM er
Ġse ll
ig g
Ġdist rict
Ġpict ures
U S
ĠE le
ĠAN D
Ġyes terday
Ġpolit ician
icha rd
Ġw ild
Ġs outh
hi le
Ġafter noon
Ġwho se
Ġdri ve
I I
Ġc al
ct ions
hi re
o ver
as er
ic y
Ġb es
ĠS m
Ġ ï¿½
ĠW al
ĠW est
ĠU h
ĠH i
Ġgener al
c her
Ġfollow ing
l in
Ġfor ward
Ġcar s
Ġcomm on
Ġfin ish
Ġc ream
Ġo w
oo ps
ĠB essie
s ilver
our n
Ġvill age
Ġun cle
Ġbro ken
Ġle vel
Ġn orth
Ġapp ro
d ing
Ġlear n
Ġcomple te
y y
ig er
ĠPart y
Ġb ra
Ġv ide
n ce
we red
Ġdoub t
ĠH en
Ġser ved
r is
Ġli ked
Ġar my
Ġfav or
Ġdepart ment
Ġb ur
ĠS unday
om b
Ġh ole
Ġr ul
enc il
ĠP ol
igh b
Ġear th
Ġj u
Ġ2 5
Ġpoint s
Ġse lf
Ġsu per
Ġput ting
Ġneed s
am er
ff ic
Ġs us
Ġpro p
L L
Ġe qu
Ġpr act
wh is
Ġstop ped
d am
c han
Ġa in
Ġf ail
Ġfig ure
ĠQ ue
A P
ĠCan ad
ĠP eter
Ġim ag
Ġcare er
Ġhappen s
le x
ĠO F
Ġopen ed
he l
Ġp encil
Ġans wered
Ġes c
Ġan g
ag ed
Ġm atch
Ġf ield
ord ing
f ast
w atch
Ġha st
ĠS orry
ĠGerman y
Ġ ]
ĠG l
n el
Ġany body
Ġus ing
ĠAn ge
ri but
Ġst re
m o
Ġa uthor
ĠT ed
Ġst range
Ġlea f
Ġd ie
ot hy
ol ved
t ell
Ġwor th
Ġpro per
amp le
Ġeight y
l t
t i
Ġto wards
ĠR ichard
Ġs ummer
ac y
og n
Ġa v
Ġwh is
Ġbel ong
Ġf ill
Ġl ed
Ġ2 3
ustr al
Ġhors es
Ġt ur
ce ed
Ġde v
m in
e ge
Ġc atch
Ġg rew
Ġwor ry
u ke
g ive
Ġdes ign
Ġ Ã
Ġno se
Ġtr ust
wh ich
ĠS y
Ġrece ived
c use
ĠC o
Ġ2 4
Ġgi ving
m on
y a
Ġpr in
ay s
ie w
Ġsh ot
ic ed
Ġfor ty
Ġh ig
Ġche ese
Ġmeet ing
M A
ĠT om
ut s
um s
Ġbe at
Ġparent s
in o
Ġpro duc
Ġl ose
ĠA ustral
Ġse at
Ġlaugh ing
Ġc re
ce ll
âĢ ĺ
Ġch ick
land s
f ield
Ġl au
u it
Ġto t
Ġhe avy
vie w
in os
ou ra
Ġb urn
ol ute
ord er
Ġhold ing
ut ure
Ġ2 1
ci ally
Ġco ver
u ce
icha el
ill e
ol ution
ap an
g est
Ġl ab
Ġre qu
ffe ct
Ġm aster
Ġp ack
GR A
Ġne ighb
Ġquick ly
Ġany way
Ġh ospital
Ġsh ip
Ġre ached
Ġst ation
Ġele phan
ĠJe ff
h is
ill s
i ers
Ġp at
ĠC ent
if ied
gg est
Ġsu ggest
ĠâĢľ âĢĺ
Ġpos ition
i us
ir a
Ġr ad
C H
Ġread ing
ĠEr m
y n
ĠI T
w ork
ĠDor othy
an ces
Ġsp ir
Ġsh op
Ġso l
Ġpret end
Ġcons ider
i ol
Ġt it
i ps
Ġs ight
and er
A M
ĠT wo
Ġth ou
Ġfor t
Ġex cl
iz ation
O W
r up
ĠB ear
Ġs ense
ĠN et
Ġlo ved
v iously
RO G
Ġse ason
il ing
Ġapp le
Ġfore st
Ġm ad
Ġstart s
p or
Ġse vent
Ġfollow ed
Ġwonder ful
it z
Ġcon d
Ġe mp
ĠE ven
Ġju ice
o e
w ould
Ġin form
Ġcomm une
sing ing
y er
Ġl a
ĠP ark
Ġqu ar
---- ----
Ġed uc
ĠB aby
Ġa part
Ġsca red
Ġsh oes
Ġlet ters
aim ed
y our
Ġt ast
ĠM c
Ġpl ate
Ġex cept
Ġh ous
Ġne ck
Ġfl owers
ĠPe ople
ĠJan e
m akes
ĠT ell
ĠL ist
Ġd anc
Ġh ol
ĠW ait
Ġg arden
ri age
Ġt ail
is hing
Ġe ffect
ri ll
ĠJ apan
Ġsudden ly
en ces
ĠAf r
ly mp
R IC
s y
i ves
ug g
? âĢĿ
i ence
Ġact iv
Ġac cept
Ġw at
ĠT ur
ĠA ust
o f
Ġs ad
Ġlove ly
V E
Ġb an
Ġbeg inning
Ġpri v
ĠCap tain
Ġp ress
Ġca use
a us
w orth
Ġserv ice
atur day
p ers
v in
ĠT ake
ĠO lymp
Ġcharac ter
Ġof fe
Ġv iew
ug s
Ġrec ogn
d is
Ġst at
ĠL ou
Ġk n
Ġsupp er
bo ard
Ġj ud
so ci
o ke
se y
W hy
Ġf uture
Ġhe alth
Ġcir cle
ĠRep ubl
if f
ĠR ed
Ġbre ad
Ġinclud ing
ĠT ex
if t
ĠF irst
Ġmo ving
ĠW H
ĠO x
Ġproble ms
Ġg as
r ay
Ġm ajor
Ġ2 2
ĠAmer ica
Ġcorn er
ĠS omet
Ġbo ard
put s
Ġcur rent
Ġd ance
Ġsp end
i od
s it
ĠS is
Ġvide o
Ġ ought
Ġinv est
Ġcoll ect
Ġn ina
un ny
um my
A D
og rap
I G
Ġg en
Ġis s
ur se
Ġlea ving
Ġspo ke
Ġcreat ed
Ġdiffic ult
Ġapp ear
ĠS anta
ĠE ve
Ġbas ed
Ġ &
Ġm ommy
Ġcom pl
Ġcom fort
ed er
Ġn ames
ĠE n
itt ed
om in
S arah
ĠM a
ĠM ad
ĠQue en
p ly
Ġsu gar
Ġbr own
te red
v al
Ġex ample
Ġcomp an
ad es
if orn
ĠSt e
iss ion
Ġrepl ied
Ġsee ing
Ġch urch
ru ction
pe red
Ġbus y
Ġdel ight
it ions
p icks
ĠS aturday
] !
Ġm ention
ĠU rs
iforn ia
w ood
Ġc ow
Ġb ank
Ġloc al
H ome
i ent
it ched
Ġc rying
est s
Ġv ol
Ġbreak fast
ĠM ichael
Ġli e
ĠR oman
Ġbot tom
anc y
Ġblock s
pp er
Ġcall ing
ĠV isit
oo p
Ġreg ion
ĠQ u
ĠItal y
ĠS chool
um ent
Ġfing er
Ġde cl
Ġsha r
Ġph ot
Ġmunicip ality
hy s
Ġt iny
ĠH ist
Ġcare ful
C K
m ond
n ic
Ġrep resent
k in
Ġdisc uss
Ġg ames
Ġpop ulation
re r
Ġno body
Ġcar ried
Ġquest ions
ĠMin ister
b ers
ĠJ er
res h
ĠFl ore
Ġfur ther
Ġit self
b oy
Ġan x
Ġcr it
Ġwatch ing
Ġc ard
ir m
ĠG ree
Ġhat e
Ġleg s
ĠCal ifornia
ĠC han
Ġw an
ĠSt op
Ġsix ty
ĠCha mpions
Ġpuzz le
Ġbe ll
ĠM art
Ġapp eared
Ġe p
ra ft
Ġal ive
Ġanim al
Ġask ing
Ġhelp ed
ĠHow ever
Ġbot tle
Ġacc ount
ap a
ĠTex as
Ġput s
it ary
ĠH a
ĠC oll
ĠJ im
ĠT ony
Ġfl at
Ġper for
Ġent ire
ĠN ina
Ġde re
S he
ĠS an
Ġcar ry
ck et
t urn
st r
Ġtr ack
Ġst uck
ĠSt ate
Ġobject s
A K
Ġl ock
om en
Ġrel ig
ĠM on
ĠC r
our t
Ġpr oud
y ed
Ġm id
ic o
ĠR ober
Ġstud io
D on
Ġb ought
ĠR ob
Ġwalk ed
ĠInd ia
ĠV ery
Ġbig ger
ĠRe ally
h ood
o ff
u ation
ep end
li ament
Ġprom ise
ac ing
t ake
Ġall owed
pe cially
w ant
Ġha ll
ĠF ather
Ġr ace
Ġsome where
Ġback ground
Ġnear ly
w ill
Ġm ix
ĠS am
ĠA unt
ci ence
im ent
Ġsub ject
ĠA lex
ut ch
um e
fe rence
Ġt all
ump h
Ġspo on
Ġcap ital
ĠRuss ian
k now
Ġfin al
Ġchar ge
Ġmil es
Ġto ward
ĠMar c
Ġcour t
ĠOx ford
v a
Ġ vers
Ġwere n
Ġpolit ical
g hed
k et
pp ing
Ġ19 1
a use
Ġto r
ĠL ady
Ġlear ned
he t
pl oy
s ay
ĠHen ry
g on
ci ous
Ġst ars
Ġpe ace
Ġegg s
B R
r ound
ĠC or
Ġplay er
Ġatt ention
Ġinform ation
Ġwe l
ĠW ould
ĠAn n
CO U
Ġl im
ĠL ittle
u ge
ĠP ort
Ġ2 6
Ġacc ident
Ġn atur
k i
E W
Ġsh out
Ġgr ass
Ġshould n
Ġcontro l
ĠM ag
ĠB el
ro at
ĠJ ames
Ġcent ury
ĠBl ack
ĠFlore nce
id a
a ff
t alk
Ġm ach
as es
Ġli ft
il s
Ġ2 7
cl ock
A dam
Ġor ange
ha r
Ġb oo
ri a
ur ity
ra ph
Ġpl astic
ost a
Ġaf f
AN N
N G
g u
h ouse
Ġpart s
T here
u nder
Ġg ar
ĠL i
Ġdes cri
F A
i res
Ġd inos
Ġ2 8
Ġeng ine
Ġstick s
e k
ut y
ĠC ouncil
Ġres pect
Ġdro pped
Ġfle w
Ġs na
Ġbir ds
olog y
, âĢĻ
e g
med i
as ed
ĠO N
Ġsh ut
Ġext ra
ĠWh ite
re ct
ĠA ct
Ġshow ed
Ġp i
Ġinterest ing
ĠR am
ĠU S
ĠGr and
Ġinc re
" )
s et
ha ve
Ġch ief
ĠM ond
ĠSp an
Ġfil m
HI S
ĠT w
Ġf right
Ġh ost
Ġse x
Ġjo ined
G MA
ĠM or
ord s
f ather
Ġr id
est a
in al
Ġre se
Ġme m
Ġfe ed
ff ie
Ġdire cted
Ġbat tle
Ġlau ghed
olute ly
Ġ $
Ġbe ach
ĠP at
Ġbutter fly
Ġd ue
Ġon to
Ġpop ular
ĠTh om
d og
ha s
ĠA nt
ir ty
ĠL ot
Ġv iol
au d
Ġ ut
Ġp ati
Ġf em
Ġp aid
ener al
ant ly
iv il
Ġre pe
Ġor d
Ġper iod
ĠNot hing
Ġleng thened
ĠC up
Ġdo gg
ĠUn cle
Ġear li
ĠFr iday
U T
Ġcount ries
Ġfar m
ĠL aw
y le
Ã ¼
Ġw ide
Ġd ar
id s
Ġe ars
Ġsp ent
pl ane
Ġlea ves
pp y
Ġwalk ing
Ġneed ed
de red
Ġstud y
ra b
rom er
ĠE ast
Ġcom b
Ġdest ro
Ġchick en
Ġre ach
Ġwor se
Ġcon ne
l ight
Ġd uck
an or
st on
Ġro se
Ġtalk ed
Ġd am
Ġfor th
ĠE ffie
Ġdire ct
ĠRober t
O O
it ive
Ġst age
Ġd rop
ĠB et
il i
ak er
Ġfin ally
Ġsurpr ise
om es
ĠO ur
Ġturn ing
Ġatt empt
Ġcho col
con om
ha nd
Ġm us
Ġfor ce
Ġsleep ing
ar m
Ġbl ank
in ation
ĠD em
Ġlead er
re l
Ġc ell
. âĢĻ
b re
ĠM il
Ġne cess
our s
Ġsk y
l ine
Ġag ed
Ġsha re
ĠEurope an
ed s
ĠB o
ĠHe l
ous in
ĠRe g
Ġcontin ued
S t
Ġn one
ĠH ung
the se
Ġprofess ional
Ġang ry
Ġr ich
Ġpr ay
Ġco co
Ġsl ice
Ġterri ble
Ġoffe red
ĠM ed
Ġst ories
ol f
ous ly
Ġh y
us es
ĠR iver
Ġcl osed
Ġposs ib
re me
Ġb ab
ĠD uring
ĠV er
ĠKing dom
Ġadd ed
st it
ick ed
Ġen emy
Ġlot s
Ġb ene
ĠS er
m at
Ġgr ad
Ġbeg in
c ast
Ġ1 00
ress ion
Ġele ction
' ?
ĠP et
el ve
Ġke y
Ġele ct
Ġ( "
Ġfall s
Ġexc it
ĠH am
vern or
Ġsim ply
Ġnin ety
ĠS al
Ġfavor ite
v ille
Ġc os
Ġp ort
Ġl ying
Ġwe ap
Ġty pe
a ft
ĠB er
Ġme at
ct ure
Ġcl ock
ĠSt reet
Ġra bb
Ġslow ly
ĠM ex
ĠN esta
y ond
Ġdog s
Ġshow s
Ġca used
Ġbra ve
s ong
Ġp ush
ĠB ob
il ar
th ree
H ow
p ha
ĠD olly
Ġsp ot
oy al
Ġcr ow
k a
Ġwas her
Ġr ub
Ġmagn ets
ĠH all
ĠP al
Ġim medi
Ġcomm and
Ġpre p
Ġbas ket
ĠH igh
ĠChar les
Ġchocol ate
ĠJ es
Ġcon vers
Ġen c
Ġrem ark
Ġhe ro
am i
Ġli kes
Ġvar ious
Ġ2 9
ber t
Ġser ious
Ġfight ing
Ġpleas ure
ĠH E
Ġ[ ?
Ġv an
is f
Ġto wer
ĠS ch
ĠS up
Ġthan ks
ĠHist ory
i ally
s omet
Ġp ers
Ġstay ed
b les
p in
Ġcon c
ĠFran k
Ġspeak ing
s es
ĠR od
Ġthink s
v an
he llo
Ġs le
Ġf resh
ĠC ourt
Ġpro cess
Ġsing er
Ġrel ations
Ġind ust
Ġow l
Ġp al
ĠM ic
Ġbl ow
raz y
ĠB E
b urg
e re
Ġc ab
ĠM ass
Ġway s
c ar
Ġa ut
Ġ201 8
Ġmark et
r ation
ĠB rian
Ġa p
Ġsp ring
iv al
ĠDo es
R I
ra el
Ġtr ad
Ġlaugh s
Ġes pecially
ĠMond ay
p ret
Ġd ry
Ġsold iers
Ġh ide
ĠE X
Ġsc ar
Ġbreat h
ĠS ure
Ġcomp ut
Ġsing ing
Ġoffic er
Ġtit le
so ft
as hed
ĠAb out
ĠLea gue
in ary
Ġm ir
no pe
Ġup stairs
Ġ iron
Ġb ite
ĠR os
Ġro le
Ġte ch
The y
Ġdress ed
ĠCH AP
H E
Ġb ud
Ġth reat
ĠD es
ĠD is
Ġso cial
Ġhous es
ĠLou is
hing ton
Ġob s
Ġtele phone
ĠCHAP TER
g i
Ġm ass
Ġp un
Ġin fl
ĠS T
and y
Ġspir it
S S
w rit
Ġlike ly
raw ber
re c
er ve
oo per
ur al
M y
Ġp hys
Ġhe y
Ġwas h
Ġn orm
Ġex ist
Ġex ec
Ġen v
Ġam az
Ġte eth
ER E
rie f
Ġest ab
Ġexcl aimed
m ag
ĠI I
Ġis land
Ġall ow
uh uh
ĠĠĠĠ ĠĠ
Ġdoll ars
Ġf at
Ġst one
ĠG eneral
ĠWh ich
Ġwel come
ĠJ ul
Ġsp read
Ġcomm un
! '
Ã ¶
ian ce
ĠPar is
Ġsoft ly
f in
o ly
ap s
ĠTH AT
Ġfing ers
ĠEle anor
Ġcomplete ly
er gy
Ġsu ff
Ġcr ack
Ġlaw yer
Ġd ate
Ġsm ile
ot ed
Ġplay s
Ġgu ard
ĠEl iz
1 0
h ost
ĠM el
Ġdiffe rence
Ġball s
ĠWas hington
ĠSm ith
le ct
ĠP ri
ĠR o
Ġch im
Ġfam ous
Ġspo ken
s ure
or ing
Ġbe yond
ĠS u
Ġright s
ash ion
ĠSc ot
e w
Ġth roat
Ġb rain
m et
ĠD utch
il es
ust om
Ġal though
Ġar rest
Ġref er
Ġinclud e
f our
ĠS ince
ĠM al
Ġj our
ĠJ ose
pl es
Ġw et
ic le
Ġsl ight
Ġfall ing
Ġvict im
ĠG ive
ough s
Ġent ered
ĠJo e
Ġpur p
Ġru le
1 8
ĠH umph
Ġr is
ograp hy
Ġep is
Ġt ick
ĠC are
ain e
Ġbro ad
ĠFr aser
ĠThom as
as ion
ap ers
Ġ201 2
Ġ201 4
igh s
Ġ202 3
Ġse arch
ĠP en
il a
ĠOn ly
ĠJe w
ĠM ost
Ġre v
Ġse par
Ġra ised
ĠM ore
ĠM any
Ġev idence
Ġwin ter
ĠI re
Ġg all
om ing
Ġde g
Ġpro ject
Ġpick ed
g igg
o k
Ġ ide
th ose
Ġ201 1
Ġpubl ished
b u
ĠE ll
ab les
Ġresp ons
iron ment
ĠHumph rey
T hen
e at
Ġh un
Ġv is
ĠCanad a
h um
w ise
ar r
v i
Ġ ver
Ġs li
Ġinv olved
hold s
Ġmur der
ĠAustral ia
Ġc razy
ĠA c
Ġe ast
oo th
rem ember
ĠList en
w ich
w anna
ĠC ong
ĠB raz
ain ing
Ġair plane
Ġjo in
Ġint ro
t r
Ġarri ved
Ġd en
Ġk itty
her ry
Ġ( )
Ġturn s
Ġann ounced
Ġs um
as ure
ĠThe ir
Ġas leep
ort s
ĠEx cuse
Ġelephan t
ess ion
Ġlisten ing
b aby
w ow
Ġc ute
ĠM ac
ĠK itty
Ġsc r
Ġdri ving
on ounced
are t
b ing
l ie
Ġd eter
Ġn on
ĠB ert
Ġhappen ing
ĠIs rael
Ġdire ctor
l am
ĠT ri
ab eth
ĠChrist ian
ĠPr ince
s s
Ġs cient
Ġsp osta
el ess
Ġpo cket
Ġbel ow
Ġcount y
Ġmil itary
Ġmess age
Ġt aught
Ġgi ves
Ġter m
Ġmet al
ĠSc ott
l or
n et
p lease
Ġ ident
Ġw ise
Ġtw elve
Ġend ed
ĠPar liament
Ġpriv ate
p es
v ies
Ġcon cer
-- "
Ġcoco on
Ġp et
Ġsim ple
N ow
Ġt ears
Ġt iger
er ved
it es
ĠW omen
Ġhig her
L Y
g ie
u x
ĠM ike
Ġst om
ĠIt s
Ġacc om
Ġdel ic
Ġjour ney
m ake
Ã ³
Ġf ool
Ġin ternational
ĠM o
ot a
ĠD O
Ġj oy
pt ion
Ġlad ies
H T
Ġ ï¿½ï¿½ï¿½ï¿½
Ġhas n
Ġ201 3
Ġwood s
ĠMarc ia
ĠBraz il
Ġm m
Ġl ines
Ġl aid
as ons
ĠD ar
ant ic
Ġcon side
Ġold er
Ġact ion
oc rat
Ġconside red
Ġb ound
it or
Ġoff er
Ġinterest ed
Ġnatur al
Ġearli er
ĠB at
ati ves
Ġmount ain
Ġex am
look ing
gy pt
ĠItal ian
j a
Ġb ill
Ġn ut
ĠH ug
Ġbelie ved
Ġu nd
ab el
Ġany where
Ġman age
Ġmo vies
Ġstart ing
Ġsat isf
Ġcho ice
b an
Ġw ag
Ġy yy
ĠC ould
ĠR es
Ġfound ed
b et
ĠS en
ĠF red
os ing
ĠA cc
ail s
Ġmag ic
urs day
Ġconvers ation
! âĢĿ
Ġ ..
Ġp ic
Ġaw ful
Ġem ploy
1 1
Ġs oul
us hing
Ġeduc ation
b es
d d
Ġy ell
ar i
ell e
ĠG ot
A U
I f
at o
Ġsm ell
Ġact or
gg ed
Ġhur ry
Ġhon est
K EN
ĠM E
Ġn urse
Ġst airs
Ġsa il
ĠUn ion
oint ed
Ġfa ith
l im
Ġt end
Ġw ww
Ġm ouse
ĠU p
Ġsc ream
Ġnin et
Ġtast e
Ġp ath
ĠG old
ci ety
Ġter ms
I R
Ġin j
ke ep
ad ed
Ġnot e
Ġafter wards
ĠRepubl ic
ĠB oy
ĠL uc
Ġpl aced
Ġnum bers
Ġmot or
Ġfa ult
Ġswim ming
Ġc overed
ĠT V
ĠD ep
ul f
ĠTh ree
ĠBe fore
Ġsit uation
it ude
ed nes
Ġcl aim
ednes day
t ape
Ġd rew
ĠL at
Ġwhe el
ther n
Ġam ount
Ġshow ing
is c
ar ian
ack s
Ġby e
Ġsp ee
Ġfour th
Ġdist ance
u k
Ġthe e
al es
Ġset tle
Ġloc ated
j o
ar row
Ġe ff
Ġe conom
ad s
ĠW ood
ish op
Ġ201 0
Ġh uge
le br
ĠL ab
Ġreg ard
Ġadd ress
Ġmach ine
Ġdinos aur
Y eah
ve re
Ġth rew
ol t
ĠCh urch
Ġexpect ed
o ved
p ro
Ġp leased
Ġn ature
ce an
ell a
Ġag reed
ĠIn ternational
Ġsim ilar
Ġb ull
Ġc amer
Ġc ivil
Ġopp ort
ĠOlymp ics
S o
r am
ĠC amp
Ġtrain ing
f rom
ve y
uck les
Ġmiss ing
Ġmiss ed
c all
Ġt one
Ġs ens
Ġp ill
us et
ac he
ro ll
look s
Ġsk in
Ġgentle man
ĠC romer
Ġcomm unity
Ġset t
wh ining
oura ge
Ġcrow d
e very
Ġa ward
as c
ĠS ummer
ĠA ye
Ġpl ain
Ġag ree
s m
re ys
Ġd read
ĠR ose
ĠF ox
Ġ( ;
ues day
Ġsevent y
Ġimmedi ately
s l
ĠD ist
Ġsu it
oss ible
gigg les
1 7
D o
ĠW hile
Ġhad n
Ġcall s
Ġmist ake
ĠUrs ula
Ġrabb it
Ġs ize
Ġmove ment
Ġrecord er
Ġwat ched
ĠW E
ĠD a
ag o
Ġv ote
enc ed
Ġexc ited
it an
Ġu r
out her
Ġnot ice
ĠG reen
hi gh
Ġman ner
led ge
ĠJe an
Ġwear ing
Ġinvest ig
l og
m el
re al
ĠB ill
ur t
ĠR ome
Ġgr own
ach uset
ing ly
Ġp air
ĠSpan ish
achuset ts
b ook
at ors
Ġfill ed
Ġdanc ing
in ct
Ġrem em
Ġcoll ege
Ġimag ine
i als
Ġn ap
Ġsha d
Ġproduc ed
soci ation
c is
he red
ve ll
Ġst ran
act ion
Ġsm art
Ġsong s
Ġcap t
Ġass ist
ĠRuss ia
ĠAld red
Ġstre ng
m om
t ry
Ġc art
Ġf re
ĠA ir
ell y
Ġthere fore
ĠJ ud
Ġspe ed
b el
Ġw est
Ġd ig
Ġf ol
be red
Ġdisc overed
Ġfly ing
outher n
d a
f ive
he st
ĠO ver
Ġdis e
Ġte ach
EL L
ww w
m ommy
Ġb al
ĠF in
ul ts
Ġcol ors
Ġstud ied
Ġrock et
Ġorigin al
ĠMass achusetts
ĠE gypt
Ġbr idge
Ġres ult
Ġbes ide
in i
ĠD el
hi ps
Ġsp l
Ġlangu ages
Ġkn ife
3 0
b ig
ite ly
Ġdec ision
Ġsent ence
Ġclos er
Ġquar ter
i en
ou ps
um ber
ck s
Ġreg ular
as y
ĠO ther
Ġsur v
Ġtur tle
ĠEliz abeth
Ġc ousin
Ġp ink
and a
and ra
Ġde but
ol ic
itt ee
ĠTh ursday
Ġmed ic
Ġchim ney
t akes
z en
ĠM et
ĠM ont
op h
Ġun less
AN T
Ġhard ly
Ġlar gest
P aul
Ġh i
iv id
Ġfav our
Ġdanger ous
ĠW ednesday
Ġsh irt
ĠAr my
Ġhon or
Ġhist or
ĠSec ret
p a
HI NG
Ġe mb
Ġde li
Ġfe at
Ġz oo
Ġleng th
Ġpic nic
d ad
g l
n s
Ġc ult
anc ed
Ġind epend
Ġcor rect
itz er
m ont
v ious
Ġc oun
ĠW il
ĠL a
Ġcon du
ĠBr ad
Ġexper ience
Ġparticular ly
b a
n ie
us ion
ĠH an
ĠNe ver
I s
Ġst ock
ter ing
Ġpl ant
Ġwor ried
Ġmon key
Ġprom ised
Ġsqu are
Ġcast le
ĠJes us
Ġd irty
Ġth us
Ġmean ing
ens us
Ġsurpr ised
ĠJeff reys
e er
Ġh id
Ġtw ice
ĠCl aus
Ġce lebr
d own
o is
it a
ing er
Ġn et
st op
if y
Ġsa ved
Ġco ach
mp ion
Ġbrother s
Ġimp ro
Mark y
Ġtot al
b out
p an
Ġa ud
Ġl at
Ġne ither
Ġpick s
ĠEr ic
ourn al
Ġl ap
ĠA pp
ĠA ward
ĠM olly
Ġde b
Ġstr ugg
Ġart ist
Ġtem per
Ġt ou
Ġp ushed
at ic
Ġgo ds
Ġopp os
cell ent
Ġm ult
ĠC ast
ell ig
Ġus ual
Ġche er
ĠSp ain
Ġdef in
Ġfem ale
ĠI S
ĠM aster
Ġare as
Ġco at
Ġesc ape
ĠT er
ĠR em
Ġpl enty
od ay
. ,
A B
T h
c ul
g ent
ĠM ur
ind a
Ġ19 0
ĠBr own
Ġexpl ain
Ġinfl u
b ack
is y
ĠS im
ÃŃ s
b ur
c ut
ĠD uke
Ġne at
Ġfl ight
ĠEar th
sha ll
Ġabs olutely
b or
Ġh ill
ĠC ath
Ġspee ch
B ro
r id
ic ated
all ey
ran ce
Ġrun s
Ġob viously
Ġpurp ose
Ġc ouch
ver t
Ġgr oups
Ġapp re
Ġperson al
ines e
Ġspec ies
Ġcal m
ĠSup er
n ers
s ings
Ġt ax
Ġb le
Ġe ager
ĠO ut
ĠG ar
Ġr ough
Ġshar p
m ar
Ġd uty
Ġhe ll
ch ie
Ġbl ess
Ġluck y
Ġninet een
h od
s how
Ġw ake
Ġm ater
Ġf irm
Ġin qu
ĠCh ief
Ġbeaut y
ĠHug o
a ign
o id
ran k
Ġra p
ĠFran cis
Ġtra vel
Ġbath room
Ġemp ty
Ġcomput er
Ġw ound
ĠT uesday
ĠS us
ent h
Ġst rawber
Ġdrink ing
Ġsus pect
Ġli ps
ĠRe c
Ġtri p
Ġclear ly
Ġquiet ly
Ġrad io
Ġrese arch
Ġdar ling
ĠJose ph
5 0
C E
Ġt ap
Ġf ro
us ing
ĠD ay
Ġr oof
Ġsh oot
Ġimp ossible
ocrat ic
I n
s hip
ĠM us
Ġdo in
fe rent
Ġeas ily
Ġwrit er
EX P
v iet
ĠF ire
og raph
IG HT
k er
Ġ5 0
EN T
Ġpull ed
* *
S T
Ġ Â
Ġw it
Ġd ouble
Ġele cted
ĠĠĠĠĠĠĠĠĠĠĠĠĠĠĠĠ ĠĠĠĠĠĠĠĠĠĠĠĠĠĠĠĠ
Ġcontin ue
Ġepis ode
v ince
ou red
on se
om s
Ġwe ather
ian a
Ġper cent
c at
Ġs our
ĠM at
ĠL ove
ie ce
Ġwalk s
Ġhol iday
r ough
Ġp ool
ĠM abel
ĠC am
Ġsc ene
soft ly
c ake
Ġc ouncil
Ġg ate
ive ly
Ġtr ick
ĠSo viet
Ġdist ribut
Ġconst ruction
Ġhar m
Ġl oss
Ġexc use
Ġjud ge
i ant
Ġstr uck
Ġdec ide
Ġsand wich
l ittle
is hes
ce ly
Ġsh oo
Ġmon ster
Ġacc ording
Ġstud ents
Ġs oup
Ġf ought
ur ry
Ġsh own
Ġhead s
Ġsec urity
ĠPer haps
_ ,
g as
l oud
p et
Ġt ight
on ly
Ġtell s
itzer land
l eng
Ã ¨
re es
Ġp our
Ġl iter
ĠC ont
Ġfl ower
Ġcr ime
Ġ4 0
Ġperfect ly
Ġblank et
c oughs
g en
l ig
Ġt ar
Ġt ong
Ġo il
om a
st e
ch ing
ce nd
ĠO ld
Ġocc ur
Ġgentle men
Ġprin cess
Ġdecl ared
Ġnecess ary
b ury
f irst
et a
al ed
ist ed
ĠOn ce
ĠSw itzerland
Ġfix ed
Ġbow l
al a
ĠH app
ĠL ife
Ġ3 1
ĠBe ck
Ġkeep ing
Ġcap tain
Ġpain t
af ter
Ġa h
ac hes
ĠU m
whis pers
Ġanx ious
ĠScot land
A ll
N ina
Ġm ic
Ġr ate
Ġgreat est
Ġdem and
m it
on a
ar ies
ĠC at
ĠJ os
ĠCh ina
Ġdes p
Ġear n
Ġocc up
Ġdefe nd
Ġfr uit
Ġhold s
Ġdevelop ment
ĠAfr ican
Ġenv ironment
m es
Ġf ashion
ĠE mp
ho e
Ġdis co
ĠPr in
ĠAnge la
? '
Ġhot el
ĠChampions hip
Ġfright ened
a ven
no ds
Ġar row
Ġim m
Ġjump ed
Ġcompet ed
Ġav ail
t in
t les
at oes
ĠM ajor
Ġwe ak
ĠC le
ct s
est y
ĠMar ia
g n
Ġin f
ĠW ind
Ġcha mpions
ĠPer cy
Ġpleas ant
i que
r oo
Ġt v
Ġf und
ĠS ing
ĠD ra
Ġcamer a
f it
Ġf oc
Ġha m
Ġth y
ĠG O
ĠF OR
Ġapp l
rup t
Ġpossib ly
c ould
Ġo pin
Ġdo c
ĠIs land
Ġwood en
2 00
v is
in ist
Ġb i
Ġf ancy
ĠB u
Ġj ack
Ġman aged
ict ion
Ġsc ary
Ġcont act
Ġgra ve
ĠEar ly
Ġs cience
ĠS aint
Ġv ac
Ġqu een
ĠTh ose
Ġco ast
av a
Ġsil ence
Ġcompet ition
Ġc ant
Ġc ustom
ir gin
ĠR ay
Ġmar riage
Ġcirc us
Ġsus p
rec order
Ġc uri
ĠB ig
Ġme al
Ġen ergy
Ġcontin ues
Ġs ac
Ġth ick
Ġwill n
Ġra il
Ġdise ase
C h
Ġc red
ĠI ran
Ġbe ha
Ġdis hes
Ġrem ained
Ġlead ing
icy cle
Ġ ir
Ġn urs
ber g
Ġad vent
S is
en ny
ill a
ĠR ock
ĠF ore
ĠF our
Ġchan nel
ĠZ ara
US T
Ġdogg ie
Ġp itched
le cted
Ġli br
ĠN O
Ġprep ared
Ġdeter m
s ighs
w ater
Ġno vel
um ps
ci p
Ġnew sp
Ġac qu
Ġdoll y
ĠWal ter
Ġ rom
Ġyou th
ri g
Ġnot iced
Ġr ow
Ġatt ract
Ġdire ction
ĠSomet hing
Ġestab l
ĠAcc ording
Ġstreng th
Ġm ut
Ġto w
ĠH on
ĠN at
Ġcont ract
ild a
ild red
Ġcent re
Ġcent er
ĠGu y
ĠKe ep
C T
he art
ĠS k
ĠC ons
Ġcan cer
use um
ak ed
Ġgi ant
f all
Ġst ret
per or
Ġsecond s
b ell
o ves
ĠT im
ĠD i
Ġour selves
pen s
Ġsw ord
Ġ200 5
Ġ200 8
eder al
Ġb ang
Ġst ream
ĠB ye
Ġar ch
ang es
Ġhelp ing
ĠEvery thing
ĠJapan ese
a ves
l ast
Ġm a
or ks
Ġl ower
ĠS ay
im ate
ĠB ur
ea ks
ĠL ee
Ġrem ind
Ġcare fully
Ġ200 9
Ġcand y
ou ri
Ġs ides
ĠF ar
ĠIs lam
Ġ200 7
know n
ĠH ol
ĠB as
Ġbut ton
Ġsh ore
ist an
ĠGer ald
Ġpract ice
ĠAfr ica
Ġopport unity
? ]
e ks
re g
re ally
ha d
it ation
Ġg ro
Ġg az
ĠS un
Ġhand le
ĠCh inese
" ]
ĠM hm
ad emy
Ġsa f
Ġoffic ial
ĠRob in
b ly
r un
Ġ CHI
er g
Ġf urn
ĠM os
Ġn ea
Ġst orm
out s
e z
Ġwe ird
Ġfor med
ĠR el
Ġdis p
Ġgreat er
ĠCh ris
Ġcr own
Ġopen ing
ĠEd ward
Ġplan e
Ġfif teen
M other
u z
ĠM ildred
ac hing
ĠC O
ur a
ĠSt ill
Ġpr ice
Ġ200 4
Ġdri ver
Ġext reme
Ġmot ion
Ġboo ts
I M
ĠI r
ir ing
ĠH or
Ġinter view
ĠBrit ain
ĠCong ress
T his
k ins
an ing
Ġp an
ut en
ĠH old
ch uckles
Ġsm iled
Ġpain ting
Ġsouth w
il ies
Ġlight s
Ġcamp aign
ĠNet her
Ġmention ed
Ġmem ory
A n
Ġw rest
Ġc herry
Ġl ion
ic ation
ĠT ran
Ġch oose
who a
Ġ200 6
Ġstep s
f ace
g ress
Ġb are
Ġp in
et ch
ĠM Y
ĠM inn
ĠD en
ĠZ eal
ĠColl ege
ĠEX P
Ġstom ach
Ġappre ci
1 5
i j
w r
y ellow
in et
Ġd ying
Ġg e
Ġl og
ĠC all
ĠP apa
ĠV al
ipp i
E A
c r
Ġy e
ĠH ot
ĠF il
Ġdown stairs
Ġsold ier
Ġhang ing
Ġord ers
Ġt ries
er o
Ġb oss
ĠT own
Ġwe ight
ĠW estern
Ġun c
Ġkind s
Ġchan ges
Ġstr ing
Ġoffic ers
ific ation
Ġmer ry
Ġevent s
roo ge
Ġc am
Ġf old
Ġp ig
Ġme re
il ities
ĠJ ake
Ġpre vent
Ġph il
Ġgrow ing
Ġtong ue
Ġf ra
ĠS erv
Ġe ld
ke l
ie l
Ġpl ans
em an
Ġpr im
Ġpr int
Ġsister s
ĠPl ay
ĠNether lands
E ve
I ON
m ark
ard on
Ġmo ves
Ġown ed
Ġfeel s
Ġfall en
Ġter ror
ĠSomet imes
Ġvers ion
ou ds
Ġs ch
Ġd are
im b
ĠR oyal
ĠK at
end s
Ġact ress
ĠSc rooge
Ġsett led
m n
Ġp apers
Ġno ble
Ġn erv
Ġknow ing
ĠJ enn
Ġsh r
oc al
ĠWH AT
ĠGree k
C ome
a e
d raw
an ch
en ing
ĠW el
Ġr ings
em s
Ġkeep s
Ġ200 3
Ġkill er
bo x
Ġresp onse
ĠAg nes
ĠDist rict
ĠZeal and
Ġw ings
er c
Ġl ord
ĠT HIS
ad or
se qu
Ġknow ledge
Ġtr ade
Ġsmall er
Ġgold en
Ġw ed
ke nd
ce l
Ġte xt
Ġcar rying
Ġche m
ĠDo ctor
Ġind ivid
ĠFl or
Ġneighb or
Ġnorm al
ĠIre land
Ġn omin
ĠR y
Ġus es
ian o
Ġbl ind
Ġpo et
Ġmod ern
d r
s ed
Ġb ump
Ġb rief
Ġp ound
ĠM ount
ĠMiss iss
Ġ199 0
Ġteam s
Ġdream s
Ġconcer ned
leng thened
is n
le nd
ĠJ ac
Ġsu c
Ġqu al
pl ace
uck y
Ġrem ain
iz ing
Ġtri al
mel on
1 6
N ot
l ow
om m
ĠF ort
Ġide as
ĠEmp ire
an other
ĠM ama
am in
ost on
Ġcr uel
ĠAs sociation
Ġmar ry
Ġwind ows
Ġeas ier
Ġjo ke
Ġfig ures
Ġocc asion
Ġwa ited
Ġrul es
ĠAust rian
ĠMississ ippi
O UR
Ġ ess
Ġm ail
ad ing
ĠW ay
ĠW ow
op s
Ġpl at
ak i
Ġ20 00
per ing
Ġret ired
fort un
Ġdraw ing
ĠWilliam s
Ġwhis pered
Ġsuc ceed
ĠH um
Ġsa ke
Ġfrog s
ĠSw ed
D addy
as ing
Ġe mer
ĠW AS
ĠB ud
Ġschool s
Ġmat ches
ĠHapp y
Ġd ish
Ġfl ag
Ġhel met
Ġsw ing
Ġbed room
Ġbur st
Ġestabl ished
t oo
ot ion
Ġst ro
ĠL os
Ġwhe els
Ġus eta
Ġmost ly
iet y
arent ly
Ġsaf ety
b on
c raft
ll en
ar ia
Ġin no
ĠN ice
ĠR om
ĠF ine
Ġwor st
oll ip
19 9
Ġrock s
Ġwall s
Ġexec ut
g t
o ons
y ell
Ġ HI
Ġf ond
ĠH A
ĠSt an
Ġtalk s
Ġsha pe
pr onounced
Ġfore ver
Ġconst it
Ġforgot ten
ĠCanad ian
V ER
v o
Ġs en
no thing
Ġv ot
Ġw ished
Ġpl ants
Ġar g
ĠMiss ouri
Ġsign ed
Ġbab ies
ĠMex ico
ĠCath olic
e ed
Ġh ug
ri f
Ġfor ces
Ġme l
ĠK ent
Ġyoung er
ĠBar b
Ġmod el
ĠSec ond
Ġrepe ated
ĠCare er
1 2
Ġb omb
ll a
no log
ĠT y
ĠS ur
Ġn uts
Ġan t
ĠP ope
Ġwill ing
Ġpro ceed
ĠMar g
Ġatt end
Ġlo ves
u le
Ġb ike
Ġl one
Ġwas te
ad o
ĠB an
ĠD ou
Ġup set
Ġcom ed
Ġlead ers
Ġpower ful
aur a
a un
w hile
on ia
ha l
Ġp le
Ġg host
ĠM ill
ĠC ooper
ĠP olly
Ġso ciety
Ġman ager
Ġsomet hin
Ġ3 2
Ġpres ents
Ġaw are
ĠEar l
OM E
sy ch
Ġrap id
f ess
Ġthe ory
ĠM aj
ĠM ax
Ġj ournal
Ġr ise
ol ars
Ġ200 1
ger y
Ġhig hest
B C
Ġf aces
ar ily
ĠH ome
Ġun ion
ĠPr ime
-------- --------
ĠSecret ary
Ġavail able
ha ppy
Ġb other
Ġc ases
Ġc ensus
Ġp urs
se mb
st ood
ĠO k
ĠU nder
Ġpe as
Ġfind ing
AN D
Ġstrawber ries
u an
y ear
Ġh o
ĠP ict
ĠF C
ĠK ore
Ġcl ouds
Ġcar riage
Ġele ven
Ġmed ical
ĠAlex ander
E P
Ġc y
us hes
ri al
am ing
ĠP ut
av is
Ġfeel ings
ĠGo vernment
Ġtot ally
Ġrelig ious
B e
Ġf al
ic les
Ġor dered
uh oh
Ġpol icy
Ġfif th
Ġstre ets
u f
ĠJ on
Ġpart icip
Ġshould er
Ġvo ices
Ġbring ing
ĠCar ol
Ġpur ple
Ġut ter
w alk
Ġw ore
Ġf ac
Ġr ising
Ġsh ock
ĠU k
Ġpro ve
ĠIs n
olog ical
duc ed
Ġdeg ree
Ġs ite
Ġp ages
Ġhe aven
ad a
Ġn ic
ri ff
Ġsh oe
Ġgood ness
Ġreport ed
ollip op
u be
ent ed
Ġst ates
ĠB oston
pl aces
Ġneed ta
ans as
Ġdevelop ed
M AL
e le
w ing
en a
Ġin vent
art s
Ġsome what
ĠSt ar
Ġaf fe
Ġcond ition
Ġgrad u
Ġrelations hip
z o
ĠS hi
ĠW all
ent ial
ĠR on
Ġcon qu
Ġro de
Ġcup s
p ir
Ġt ed
Ġc ong
ĠS ix
ĠS cient
ĠB ack
ĠP an
op her
Ġfam ilies
Ġev il
Ġprot est
play ing
Ġsuccess ful
ĠAust ria
ĠAct ually
ĠDem ocratic
1 4
t ries
Ġb od
ĠT ime
ri ble
Ġfor ced
ast y
uck ing
ĠMar ie
Ġwee kend
Ġ18 9
ĠJohn son
Ġcent ral
Ġste al
ĠPro vince
Ġcomfort able
Ġremem bered
Ġmedic ine
ĠMus lim
Ġc it
Ġc ities
Ġf ence
Ġin tern
Ġn arrow
Ġsh ips
ren ces
zz a
Ġche st
ĠAl though
Ġadd ition
or ia
ic ations
ĠS ol
ac her
Ġre ign
ĠH al
ĠC os
ĠB re
th ur
ĠE v
Ġevery where
Ġmag az
Ġgrand father
Ġcompan ies
Ġap olog
Ġm ud
Ġbec oming
somet hing
Ġscar cely
m ission
Ġo cean
Ġp or
est ival
ĠAnd rew
Ġtr oub
go ing
Ġwonder ing
Ġinclud ed
Ġserv ices
Ġrelig ion
Ġris k
G ood
P E
f riend
Ġ et
Ġg ift
ĠL I
ol s
ĠU N
ish ment
Ġmin ister
Ġglass es
Ġcirc um
Ġfail ed
Ġs illy
Ġst yle
ĠB est
ĠSt ep
Ġser ve
Ġplan ning
Ġfore ign
Ġlaw s
ĠAnge les
Ġnerv ous
w ar
Ġt ourn
Ġb unch
Ġm ale
Ġd un
ar ing
ĠS ar
ĠB und
Ġsm oke
Ġser ving
Ġent er
Ġhol es
z er
Ġb one
Ġm or
ĠS pe
ĠA nother
Ġre lease
ct ors
Ġr ice
Ġstay ing
ĠGo vernor
ĠT or
ent al
ĠDon ald
Ġmat ters
ib ility
ĠMer le
g a
ĠW ent
Ġfor k
Ġli ber
ĠG irl
Ġro y
Ġam b
ĠAr t
Ġsur round
go es
Ġve get
Ġshad ow
Ġt our
Ġw ond
Ġk m
ro ad
th ink
Ġmed al
Ġtar get
r ick
it ar
ĠA EW
Ġse ction
ĠN ick
Ġor anges
ĠV an
Ġ18 8
Ġbar n
Ġgun s
Ġprison ers
Ġcand id
" ?
A l
d addy
at ory
ĠL aura
Ġsp lend
Ġthrough out
ail ed
Ġgrand mother
Ġperfor man
l aw
w an
Ġa unt
Ġhe at
Ġhe llo
Ġre ve
ĠV irgin
Ġad op
Ġheart s
Ġplan et
Ġed ge
ĠHar ry
Ġadv ice
Ġstri ke
Ġamaz ing
H ER
ĠS qu
ĠB a
Ġpati ent
ĠBeck y
ĠI ll
es ome
ĠM avis
op en
ol a
qu ar
Ġsure ly
Ġtra ffic
Ġgener ally
Ġiss ue
Ġshoo ting
Ġ /
Ġm aid
Ġin it
ĠH u
ĠH y
ĠR og
ĠNe xt
ĠCom p
Ġsort s
writ er
ĠAc ademy
Ġopin ion
n an
im a
ac on
Ġfl o
Ġmount ains
Ġcop y
Ġted dy
M a
c ow
Ġf aster
am ma
Ġu ne
ĠO ff
Ġde ck
ick ing
Ġdes k
ĠAl right
cle ars
ĠAt l
eng ers
Ġcook ie
Ġsal t
Ġsal ad
Ġval ue
ĠMarg aret
Ġa chie
or ough
al t
ĠB ea
ĠF air
Ġpl ums
Ġhear ing
Ġadm inist
Ġappear ance
a ult
ĠB ook
ĠP ers
Ġr iding
ab ility
Ġex cellent
Ġbl ame
ĠTh ink
Ġpres chool
Ġstr u
ĠZ e
Ġkid ding
Ġ198 0
Ġsn ake
Ġcrit ic
b our
c ont
Ġw inning
Ġp red
as tern
Ġan cient
ĠV ict
Ġpart ner
Ġthought s
Ġact ive
Ġlea gue
Ġpol ic
bl ue
Ġresp ond
Ġcurrent ly
1 3
c ase
ĠA rab
Ġst ir
Ġdo ors
ch o
Ġli es
ul ous
ĠK ar
Ġob lig
Ġorgan ization
I LL
l ong
s ounds
Ġb ug
Ġc ards
es sel
ĠS O
ĠM i
Ġn est
Ġun iversity
ĠSc ar
Ġdra wn
Ġweap ons
ch ief
ĠL o
Ġent ertain
Ġuncle ar
Ġelephan ts
ĠLab our
F F
v est
is ions
ĠS HE
ĠB av
Ġshe ll
Ġpro s
Ġcl oud
ĠAr gent
Ġ196 0
ĠPro fess
Ġcreat ure
Ġhast a
Ġc ourage
Ġp ears
Ġh m
Ġh iding
Ġn ation
ĠY ear
Ġgo al
Ġro b
Ġsc rew
Ġres c
ĠBr uce
Ġ199 5
Ġking dom
Ġindust ry
Ġpill ow
Ġtou ched
6 0
b led
Ġy ard
ĠM aine
Ġj un
ĠNo body
Ġfriend ly
oun ce
Ġplan ned
ÃŃ t
Ġproper ty
Ġwag on
Ġoppos ite
U rs
Ġb ub
as hing
le g
ĠE st
Ġhad ta
Ġsome how
Ġar ran
Ġbeg ins
bl ack
Ġmis pronounced
sc ream
Ġdisapp eared
Ġmix ed
Ġarrest ed
M r
r ant
er able
is her
ĠS ea
ĠG ers
Ġr ug
od es
ĠEvery one
Ġdro ve
Ġpot atoes
Ġclim b
Ġclim ate
ĠAustral ian
Ġmir ror
n i
p ull
s u
Ġc ad
Ġex erc
ĠChar lie
ĠCol umb
ĠMart in
ĠLat in
F r
b ra
Ġd im
Ġth in
Ġfor give
Ġne g
Ġal pha
Ġv ir
Ġpres ence
Ġsil ent
ens ion
Ġbuild ings
Ġleg al
reed om
ĠTur k
ĠB ir
st ead
Ġv essel
Ġar range
Ġgr ace
Ġuse ful
Ġ199 8
s ix
w are
Ġs ink
ir lf
ĠO oh
Ġr ushed
Ġbig gest
Ġsm iling
Ġ200 2
Ġspec ific
Ġdet ect
mo ves
ĠCent ral
Ġpress ure
p he
Ġb unny
Ġp ale
ĠT ra
ĠL ong
Ġcom ment
AR D
ĠSt ud
Ġown er
Ġfair ly
Ġweap on
ĠSus an
L et
W here
o om
{ \
ĠT oday
ĠB es
ĠN OT
Ġsp ill
Ġad vert
Ġhur ried
ĠĠĠĠĠĠĠĠĠĠĠĠĠĠĠĠ ĠĠĠĠĠĠĠĠ
Ġmed ia
Ġserv ant
Ġburn ing
ĠScient ists
O f
d ie
u ries
Ġc hat
an cial
Ġg rey
et te
ĠB oth
ĠR ad
ĠL u
ĠK im
ĠWhat ever
ĠAt t
Ġdoll s
ĠDis ney
on str
an i
ĠL ater
Ġr ank
ick et
ĠâĢ Ļ
Ġshould ers
Ġsc ore
ĠRe v
Ġ199 4
Ġesc ap
Ġdestro yed
irlf riend
M ama
S E
Ġt ear
Ġp ra
ĠT re
ĠS how
Ġn ative
ĠW he
art ment
ca re
are n
Ġcr im
ĠAmer ic
Ġra re
Ġacc ess
Ġ199 9
ĠGr oup
rop ol
Ġnor thern
Ġprodu ction
y r
Ġb order
ĠB ad
ĠN ic
Ġup side
um ents
Ġr out
Ġpre gn
Ġreal ize
ĠJohn ny
Ġdark ness
4 0
i pped
s k
Ġf ier
ĠS E
ĠH as
Ġnot es
Ġshe ep
Ġcont ribut
Ġbo ats
Ġ199 6
Ġinv ited
Ġev ident
ĠPort ug
Ġexcit ement
Ġlibr ary
ĠIr ish
ar on
at a
ĠM en
ac ha
ac hel
Ġrecord ing
Ġtreat ed
Ġve h
Ġtrad ition
c up
Ġp sych
ĠA ri
Ġre asons
Ġst aff
... ?
Ġag re
Ġcha p
Ġbu ried
ĠChi ld
Ġend s
Ġrel ated
T ilda
Ġt un
Ġw ine
Ġhe ight
Ġcl oth
ĠSo cial
Ġdes cend
Ġpass ing
Ġmain ly
Ġtrans port
Ġeff ort
uten ant
ĠFlor ida
Ġtourn ament
Ġroy al
I A
t t
Ġc ott
Ġf ired
ĠB ra
Ġk night
Ġan ti
de re
Ġtown s
Ġ197 0
Ġdefin itely
ĠRec ords
Ġsouthw estern
f ire
z a
Ġt ie
Ġt ip
Ġf an
Ġp ony
Ġl osing
ĠT urn
ad er
ĠW ork
ĠO li
Ġso le
ang ar
Ġset ting
Ġthousand s
Ġloud ly
Ġvict ory
u a
Ġa ver
Ġl ollipop
Ġsa us
ag ue
ang le
ĠAr thur
Ġhands ome
Ġcat s
ĠSha r
Ġfair y
Ġexp ression
Ġprofess or
ĠEm peror
Ġapart ment
A mer
Ġs ang
Ġp a
ĠH ea
ĠF I
Ġdr ug
br idge
Ġint ellig
Ġdiv or
IT H
Ġknock ed
whis pered
Ġdelic ious
nolog y
Ġ 0
Ġw ra
an ut
ĠB i
ur ance
ĠN ik
ĠJ ung
os en
ate g
Ġaf ford
ang ers
Ġrem oved
Ġsl ide
ĠGeor g
in c
Ġto oth
ĠF ive
pt on
Ġbre aking
Ġcle ver
Ġball oon
Ġ199 2
Ġcook ies
Ġphil os
ter y
ĠL ake
ĠYou ng
Ġtr uly
ĠV o
Ġcomp os
Ġlisten ed
Ġpri est
ĠI ra
ĠA T
ĠD iv
ĠR E
ist ry
Ġact ing
ĠCl ub
Ġlar ger
ĠDid n
rop ri
Ġenjoy ed
Ġcit iz
Ġp ity
Ġl oose
ĠM ummy
ĠY et
ĠR a
Ġpo ison
Ġunder stood
ons ense
Ġpresent ly
Ġrecord ed
Ġlear ning
Ġexc han
Ġless ons
Ġpu pp
Ġwed ding
Ġbod ies
Ġcircum st
it ure
ĠM ake
Ġre view
ĠH uh
ĠB ay
ĠB ull
ĠN az
we et
ĠBr ook
Ġpre vious
Ġpos itive
Ġcre ate
ĠRem ember
Ġwit ness
w ers
oo s
Ġsu ffe
Ġcr ay
Ġpre fer
ĠAr ch
ĠSome one
Ġexp ress
Ġbes ides
ĠAunt ie
Ġdirect ly
Ġexcit ing
Ġsettle ment
ic ide
ĠA my
ĠH ill
ĠR O
ul k
ul ty
ess ert
ep ing
Ġcon cent
Ġad ult
Ġhop ing
Ġfield s
ili ar
r and
Ġl ake
st ill
il ty
ĠL in
ĠL and
Ġpro gress
Ġkill ing
ira ffe
ĠWent worth
Ġsplend id
c les
ing u
an o
or ge
.. ..
un ts
ĠL ast
Ġsh ook
Ġsp orts
Ġcl own
Ġthr own
ER S
Ġref used
Ġcreat ures
erv ation
Ġfort une
ste in
! âĢĻ
' ...
g ers
m ine
r as
Ġy o
Ġgo vernor
one l
Ġsha me
Ġform ula
iam ond
Ġteac hing
Ġindepend ent
U CK
Ġp ause
ĠS pr
end ing
ĠIn stit
Ġcha in
Ġser iously
Ġfind s
Ġbad ly
Ġloc ation
Ġrequ est
Ġbud dy
Ġ {\
ĠT ommy
ĠB ren
ĠP re
Ġv ent
Ġch osen
ĠBr other
Ġrespons ible
Ġmic ro
c ope
Ġs ons
on ed
is a
Ġp ants
le ar
Ġbe e
ĠB illy
ĠP op
ge l
ist ic
ĠK N
ĠAs ian
Ġpick le
oint ment
Ġsy mp
Ġinclud es
Ġcheck ed
Ġpen ny
ĠRam sey
Ġpal ace
Ġdistribut ed
i pe
s ound
Ġ :
Ġt ough
Ġb uck
ac le
Ġpre par
Ġpick ing
Ġmet hod
Ġsna p
Ġmater ial
ĠMaj esty
ĠBav aria
2 2
Ġt im
Ġp il
em ic
Ġcha mpion
Ġsc reen
Ġch op
Ġcont r
Ġres ults
AN G
Ġmiss ion
Ġ6 0
ĠPhil ip
Ġadv ant
Ġconc ern
ĠRod ger
AU G
Ġa im
in er
Ġg irlfriend
be y
for med
anc ing
anc hes
cept ion
Ġtrans fer
Ġprov ince
Ġentire ly
Ġnewsp aper
b ow
v y
Ġb icycle
ĠS to
ĠA lf
ĠW ild
st one
ĠD et
ock s
Ġdes ert
Ġwater melon
OU T
ĠTe am
Ġcond itions
Ġinno cent
c ries
f le
m outh
Ġt al
ha med
Ġm ort
Ġp it
Ġh omes
Ġbe er
ĠG i
ĠE ach
el ia
Ġtr oops
Ġfe ather
Ġapp les
Ġpay ing
Ġjob s
Ġrece ive
n ame
r ot
w he
Ġm ap
Ġd essert
ĠD ire
Ġr at
Ġsc he
ES S
Ġter rit
Ġ199 1
Ġdel ay
ĠSh ould
Ġdefe ated
Ġpi pe
Ġcred it
ĠHA VE
angar oo
) }
I E
Ġb old
st ers
the l
Ġstand s
Ġran ge
Ġsell ing
Ġdeterm ined
W ho
Ġw estern
re ferent
Ġb on
Ġc ode
ĠU K
Ġcont ent
Ġrec ently
Ġra ise
Ġmet ers
Ġpain ted
umb ling
Ġcook ing
Ġdoc ument
Ġjack et
d ess
i os
he m
ĠT am
Ġdo zen
ĠE s
ĠJ am
Ġapp ointed
Ġcut ting
Ġwa ves
Ġkiss ed
talk ing
Ġdescri bed
ĠHel p
Ġsle pt
Ġextreme ly
Ġlone ly
. --
C ause
g reen
Ġa id
Ġc rew
ĠI nt
ĠL y
ĠE aster
ul ations
Ġqu it
Ġgu ilty
Ġtrans l
Ġclos et
Ġsuggest ed
Ġcollect ion
Ġsuffe red
Ġw id
an n
Ġp ure
ĠS il
Ġre nt
ĠW ITH
ĠH ad
ĠG al
Ġr ush
AR T
ign ed
Ġdes per
Ġdr ama
Ġ198 1
AL L
Ġcharac ters
Ġa st
Ġp iano
at hered
ĠS H
ĠW atch
ĠH oney
Ġ- -
ĠL ie
ĠF oot
Ġres ist
Ġ18 6
Ġsign ific
Ġdiv ided
Ġiss ues
Ġlock ed
ĠVer mont
ĠDep artment
ĠCast le
Ġsusp ic
Ġappreci ate
W hin
i est
Ã ¦
Ġw ha
ĠS ub
ĠA LL
Ġdo se
Ġshe l
Ġbr anches
iss a
Ġeat en
Ġcr ash
Ġstud ent
Ġintro du
Ġperforman ce
Ġsaus age
Ġs orrow
Ġd ump
Ġbe nd
ĠW in
ĠN ight
ĠK en
Ġother wise
Ġgu itar
Ġbit ter
Ġreport s
Ġtend er
ĠPrin cess
2 5
t ure
Ġs igh
Ġb id
Ġh orn
Ġbe ast
ĠB ern
ĠD own
ĠG ra
Ġcon v
Ġcon ference
Ġcl ip
Ġmight y
wh oops
Ġpull ing
Ġhors ie
Ġshout ed
Ġhid den
R Y
T o
Ġd ust
Ġas ide
Ġse es
ĠE thel
ate ful
Ġro les
Ġsw ear
ĠAn ne
Ġair port
ĠPr ot
UN C
ĠCar l
Ġav oid
Ġdesign ed
Ġincre ase
Ġrub ber
ĠJac ob
D e
R A
p ol
Ġt ask
Ġp ile
Ġin sp
Ġgr ant
Ġgl ance
Ġhur ts
Ġce real
ĠAny way
bre ak
ĠHung ry
M T
M ac
U h
c ream
Ġc one
um n
em ies
ne w
ĠâĢ Ķ
ĠAl ice
wh ines
Ġhor rible
Ġadm it
Ġfellow s
Ġauthor ity
Ġproduc er
Ġmagaz ine
Urs ula
Whin ney
c oh
d ear
n uhhuh
Ġt ied
no ise
ĠP L
ĠO w
ĠJ ones
Ġpl ates
we re
Ġbr anch
Ġ199 3
Ġposs ess
Ġinc ident
Ġpri ze
Ġhon our
Ġsal es
Ġprov ide
Ġcross ed
p iece
Ġp ump
al y
ĠM usic
Ġwe alth
ri b
am ily
st ra
Ġas soci
ĠP ra
Ġr ac
ĠK ansas
Ġeat s
Ġfour teen
Ġbec omes
anc he
Ġdist ur
app ing
Ġattack ed
Ġprogram me
Ġaff air
Ġscr atch
Ġcoun ter
Ġfal se
K E
Ġg y
ĠY OUR
ĠO pen
Ġpl us
Ġfam iliar
Ġ18 7
Ġ198 7
com une
ĠRepubl ican
Ġsepar ate
2 1
es ota
ow der
im p
Ġde y
Ġsp are
Ġour s
gg y
Ġsur face
cha ir
Ġ199 7
Ġinv ol
ĠBl ue
umb led
ĠDan ny
Ġfail ure
Ġbene ath
ĠMic key
ĠSen ate
D id
k o
Ġb ones
Ġg ather
ĠA ng
Ġv alley
Ġthr one
ĠCh ic
Ġch oo
Ġfin ancial
eak ing
ĠJer sey
Ġstran ger
wr ite
ĠProfess or
M ay
f oot
Ġf art
Ġg ay
ra ine
ep s
Ġcon ce
Ġold est
let ed
Ġrest aur
Ġsy mb
Ġconf l
Ġprop osed
Ġfol ks
b ar
h im
Ġf ant
Ġl ic
al i
ĠS uch
Ġsp ite
Ġcha se
Ġtre asure
ĠRep ort
He re
Ġpack age
gi ving
ĠMinn esota
w ide
ow ing
ĠH aw
ro l
ĠL ar
ĠV ol
Ġrem ains
ĠAs h
Ġdr ugs
Ġans wers
Ġ197 2
Ġexpl ained
Ġorigin ally
Ġburn ed
Ġactiv ist
Ġcant on
Ġnea rer
A h
G FA
w orks
ĠA wards
Ġfor ms
Ġst ove
Ġse ats
ĠF ree
Ġcon sequ
ĠU r
Ġcl ay
Ġco vers
Ġob tain
Ġ198 8
ĠLe on
bb ed
ĠEvery body
Ġtreat ment
Ġbelong s
pens ive
Ġcott age
B rian
p itched
Ġg ained
Ġg athered
Ġn ail
ab out
ĠLook s
Ġste pped
Ġdread ful
Ġcomed y
Ġoblig ed
Ġd er
or a
ly n
ĠB on
ĠD ON
ĠK now
Ġpart ies
Ġatt ached
Ġmom ents
Ġ195 0
ino is
Ġcompan ion
Ġperfor med
Ġdestro y
Ġchampions hip
Ġchem ical
Ġstru cture
_ .
p ick
Ġha bit
ic ate
Ġbe ans
ĠA k
se c
ĠP o
ge on
ĠHe alth
ol ar
ĠSt and
Ġun p
Ġche eks
uc lear
Ġhat ed
ĠSp ir
ik a
ĠBen j
Ġslight ly
Ġalpha bet
g reat
Ġd ough
ĠS a
Ġre fe
ĠW ater
ĠW rest
Ġse vere
Ġr acing
Ġroom s
Ġpass engers
Ġrepl aced
Ġmur dered
Ġsafe ly
ĠAnt on
ĠTran s
Ġdun no
Ġaver age
l ings
Ġf aint
Ġl ack
Ġl ink
Ġhe av
ĠT on
ĠR un
Ġsha ke
Ġhel ps
Ġrel ief
Ġstud ies
Ġ198 9
ĠTr ump
iver se
ĠSte ve
ĠBert ha
Ġinflu ence
Amer ican
B r
W E
Ġ zzz
or ious
ĠS C
ur d
ĠP ower
ĠP erson
ust ed
ig an
el a
Ġv ain
Ġjust ice
Ġgot ten
Ġpro ved
Ġqu eer
be f
Ġcha llen
Ġsw all
Ġcup cake
ĠAg ain
Ġproper ly
Ġfeat ures
ĠIll inois
p ot
w a
Ã ¤
Ġw icked
Ġm ate
ic ing
Ġre ck
Ġme asure
ak in
iss ors
Ġgu ests
Ġch ose
Ġreal ity
ĠEd uc
OU LD
Ġrepresent ed
Ġwasher s
Ġindivid ual
ĠAmeric ans
ĠChic ago
b al
he mat
ĠS ong
ut ies
Ġn ick
ea ble
ĠO H
ĠO l
Ġcom mer
Ġen emies
Ġdis m
Ġdis play
Ġpr ide
Ġpr oof
Ġhapp iness
ile y
Ġ3 5
Ġ198 5
Ġconf ess
ĠSw iss
Ġexper i
ĠPol ice
Ġprop os
Ġhun ting
ĠServ ice
Ġet c
Fr aser
c ount
Ġf reedom
Ġre ar
Ġre ward
ĠH mm
to gether
ĠĠĠĠ Ġ
oc r
Ġkne es
ĠInd ians
ĠTe le
Ġlift ed
Ġobs erved
Ġbroad cast
Ġsour ce
Ġrom antic
Ġpregn ant
Ġsymp at
Ġe h
ĠB ang
ap t
Ġun fortun
Ġrec omm
Ġsit s
Ġreg ret
Ġsoon er
19 8
Ġtape recorder
Ġrecogn ize
Ġfurn iture
g ly
i ation
Ġs outhern
er ves
ĠI II
Ġg ently
oo ke
um es
Ġab ility
Ġsp ort
own ed
ran e
Ġres ident
Ġwar ri
did n
Ġsqu ee
point ing
Ġdelight ed
ĠMex ican
ĠVirgin ia
Ġcircumst ances
Mac Whinney
W hen
m pt
Ġa ston
or ter
ĠI m
Ġin n
om ed
ĠH ER
Ġan no
Ġbr ush
Ġplay ers
Ġgu est
ip le
Ġbeg un
Ġpoint ed
Ġri bb
Ġmis erable
Ġstat ement
Ġcow boy
ĠJer ry
ĠStep hen
ropol itan
g han
j u
Ġw itch
ĠT ry
oo ts
ĠC ub
ĠP ac
ĠG ames
Ġget tin
Ġag ent
ne ath
Ġcl ient
Ġapp ears
Ġkne e
Ġbase ball
Ġmark ed
Ġspl it
ĠInstit ute
B ER
U M
d ro
m i
s an
ro se
um ed
ĠJ r
Ġcr is
Ġrel ax
ĠGr ace
Ġ197 9
Ġrul ed
Ġdiscuss ion
Ġintro duced
olars hip
f ish
m aking
Ġg ang
ĠS ant
Ġn ib
ĠW oo
ĠB our
ĠO b
ĠHe ad
Ġal arm
ber ry
Ġex pensive
Ġmay or
Ġbre ast
Ġwar ning
ins on
sh ould
Ġ198 4
19 7
ĠPhil ipp
Ġsupport ed
ĠRo ad
Ġassist ant
Ġoccur red
A s
t es
re ls
Ġg ain
ĠT ar
ĠS han
Ġk ick
Ġj ew
ĠJ UST
Ġsp ark
ĠK ir
ĠAnd y
ps hire
ict ed
Ġres our
ĠAr men
Ġ198 6
Ġtra vell
Ġwa ved
yl van
ĠIra q
ropri ate
! --
w in
Ġ ign
Ġt ire
Ġl ob
Ġst ole
ĠH urry
Ġsp ect
Ġwhen ever
ON E
Ġ9 0
ĠDan iel
ĠMag gie
ĠBel g
ĠBren nan
ĠBenj amin
A re
b ab
Ġ x
or ne
Ġme as
ĠD E
ĠG ro
Ġaf fect
Ġfe ver
ather ine
get s
Ġcr iter
Ġrep ly
Ġpolit ics
GR F
ĠÃ ĸ
ĠJew ish
ĠHea ven
g ues
h un
u pp
on ies
Ġf ully
ĠI an
Ġth orough
Ġwas hed
ĠF ound
Ġr ang
hi b
Ġaw ake
Ġprodu ct
turn s
ĠBet ty
ĠBes ides
O P
c est
he im
ĠM ove
ver ing
ĠK ate
ud d
ĠWe re
ĠIn ter
ran g
add er
aw s
Ġatt ended
Ġdr unk
de y
Ġappro ach
Ġrequ ired
Ġaccept ed
Ġtech n
ĠFoot ball
e v
Ġw ave
ri er
Ġas hamed
ell ed
ge nd
int end
sh ine
Ġbox es
Ġroad s
Ġdefe at
Ġeffect s
Ġsuff ering
Ġimpro ve
ĠJenn ie
Ġneighbor hood
Ġarran ged
ĠKN OW
S I
Ġm useum
Ġf ishing
ĠS outhern
ĠW alk
ĠG un
Ġim pl
ex cuse
Ġtri be
Ġhor ror
Ġland ed
19 6
Ġlate ly
Ġsend ing
Ġprov ided
ĠLea ve
keep er
n els
ha ra
Ġb rill
Ġg reet
Ġst ack
ĠC y
ĠB us
Ġas h
Ġwh ist
Ġj eal
ĠJ un
Ġcom r
Ġdoll ar
Ġserv ants
Ġoper ation
Ġphot ograph
Ġrapid ly
Ġjournal ist
L A
n ut
Ġc raw
Ġhe sit
ĠT ay
ĠA RE
ĠR IGHT
os h
os es
ĠSt ella
Ġdes ire
Ġtre m
Ġwrit es
Ġill ustr
ĠComm ittee
ĠJack son
Ġpresident ial
Ġcrit ical
Ġbal ance
Ġcondu ct
semb ly
er man
Ġf ile
Ġp ant
ar c
ĠA B
Ġsa ving
qu es
Ġgood bye
end er
ĠV en
ub s
ĠAl so
Ġstick ing
Ġinst it
kes p
Ġless on
Ġsal ami
does n
Ġhop ed
ĠNor way
Ġrecogn ized
Ġpers u
Ġaward ed
Ġlat ter
Ġarch ite
g ency
h ot
Ġ ze
ĠM iddle
Ġu gly
Ġgo als
ĠP oor
Ġ( ,
Ġbr and
Ġgr ay
Ġke ys
ĠAl an
ĠCl ara
Ġfle et
Ġdam age
Ġrev olution
Ġvir us
ĠOli ver
Ġmicro phone
er ry
Ġo x
Ġbe ars
ĠW at
ĠW onder
Ġst ared
ĠU P
Ġro pe
Ġsc issors
Ġsec ure
Ġmin or
ale nd
Ġair craft
Ġrecord s
Ġinc red
RE AM
Ġda ily
Ġforest s
Ġaut om
ĠBat tle
Ġeld er
aun ton
cont in
' ,
n ice
Ġb ark
it ing
Ġ[ "
th rough
ol en
ck ed
ĠU s
int s
ĠLe o
ĠFl oss
ĠWho a
Ġevent ually
Ġest ate
Ġsli pped
ĠScott ish
Ã³ n
Ġinvestig ation
ĠUk raine
ĠBund le
Ġwond ered
care ful
g ment
k ind
Ġt ale
Ġa ye
Ġo dd
Ġin ha
al so
ĠS pen
ĠW ars
ent ine
ĠB ab
ĠG ET
ne ver
Ġapp arently
Ġcomm ittee
Ġpre cious
Ġstop s
Ġadv ance
Ġthrow ing
Ġhorses hoe
OO K
Ġmus ical
ĠJew s
Ġadvant age
Ġconfl ict
Ġjeal ous
2 3
T H
h us
n am
p os
z ing
Ġto ast
Ġh ook
Ġth rill
ĠS on
ĠA then
se ll
ĠD am
Ġbr on
Ġapp eal
Ġkind ly
Ġsupp ly
Ġbelie f
ounc ill
Ġsound ed
Ġeng aged
Ġmunicip al
Ġnet work
ylvan ia
? âĢĻ
C an
U E
l av
s hire
Ġo pt
ĠT en
Ġan ger
ĠN a
Ġmy st
ĠU E
Ġstand ard
Ġ8 0
hand s
Ġearn est
Ġadvent ure
ĠRev olution
J AK
u j
Ġg iraffe
ĠT em
ĠJ a
ul ate
Ġsee k
ĠSt one
ĠSt aunton
Ġcomp leted
Ġgreat ly
do or
Ġadm ir
Ġequ al
Ġord inary
Ġconne cted
ĠPri ze
Ġfoc us
ĠPict ures
Ġgradu ated
r ac
r ate
Ġp up
as m
Ġh unt
ri ger
Ġse ized
ĠP ier
ĠR angers
ard y
Ġun happy
zz y
Ġ3 8
Ġtrain ed
Ġ197 8
com ing
Ġill eg
Ġroll ing
ĠHam pshire
ĠFrancis co
Ġescap ed
J ust
_ _
s al
Ġw ow
Ġf ederal
Ġst ones
ĠO s
Ġtr unk
up id
Ġun f
Ġdr um
ES T
Ġca uses
Ġstrong er
GR M
Ġprison er
Ġtor n
ĠReg ion
Ġelect ric
Ġsuff er
Ġsatisf ied
gas ps
coh ol
ĠWrest ling
B AB
N D
o ise
t hanks
Ġs ought
Ġo we
Ġher s
Ġal tern
oll o
Ġfl ood
Ġcont ain
Ġshow er
ens ive
Ġpass age
ĠJan et
Ġtre mb
Ġattack s
Ġmur m
Ġcost s
het ti
Ġwound ed
L I
M rs
T hank
i ving
l ies
t ies
Ġw oke
Ġb orrow
it he
Ġn aught
Ġn onsense
am en
ĠB ow
Ġdo ctors
Ġ" '
ĠP enn
Ġup per
Ġsp r
Ġboy friend
Ġsc hed
ĠMay or
Ġ197 6
Ġmagnet ic
Ġjump ing
Ġsecret ary
Ġsystem s
Ġequ ip
ĠSwed en
Ġw ing
ed ing
Ġp owers
Ġh ills
ĠT ower
ri pt
Ġse ated
ĠO rd
ĠF re
Ġso cks
Ġsp in
ĠSt ay
iz es
Ġunder neath
Ġres olved
ubl ic
Ġfollow s
Ġinst ru
Ġaw fully
Ġclose ly
ĠGu ard
Ġdem onstr
ĠAld worth
Ġgar age
Ġpi zza
somet imes
b us
e ven
Ġc ro
Ġc ash
Ġp itch
le ts
ke ys
se ven
ĠH olly
ĠC ON
ĠB am
ĠB ooth
out he
ĠN urse
ĠL ight
ĠĠ Ġ
ak a
ven ue
Ġpe anut
Ġar med
Ġwork ers
Ġpr ince
Ġrec all
Ġconf idence
ĠSha ll
ĠRep resent
Ġ193 0
Ġshop ping
Ġenc oura
Ġfart her
i ot
w est
Ġd iss
Ġd ull
Ġth irst
am s
ĠC aterpillar
ea re
ch ild
ĠD og
th row
um ble
Ġhand ed
ĠBr ooke
Ġacc used
Ġ198 3
olog ist
Ġmer cy
ĠEm ily
ĠCent re
ĠIslam ic
A r
N ON
g le
l ist
Ġd om
ĠA yl
Ġtr icks
IS T
ĠTH ERE
Ġeight een
Ġanim ated
Ġsy mpt
Ġeas tern
Ġ196 9
Ġoffic ially
Ġdiv ision
Ġplat form
quar ters
Ġexchan ge
ĠEduc ation
e es
is er
Ġf enc
or ney
ĠT ha
ĠW ant
ĠY ep
Ġsa uce
Ġar cher
ne xt
Ġgr ade
ale m
Ġdec or
Ġblood y
ĠBer lin
Ġfavour ite
Ġcuri ous
riger ator
O n
n is
Ġc ries
Ġp ushing
ĠA ub
st ant
Ġk ings
ĠL au
Ġj ury
ge e
ard o
Ġsp y
oc key
Ġrec ent
ï¿½ï¿½ ï¿½
Ġfar mer
Ġac he
Ġchar t
ĠCl a
Ġdat a
Ġfact ory
Ġexpl an
Ġdro ps
Ġdisapp ointed
Ġdiffic ulty
ĠWal es
yn am
Ġdelight ful
Ġbasket ball
Ġmanage ment
Ġmult iple
Ġenvironment al
N E
a urs
d ri
g ra
Ġwas hing
ĠC orn
ĠB all
ĠR aj
ĠL es
ie ve
qu iet
Ġpre m
Ġfun ction
Ġinst ance
Ġtrain s
Ġdrink s
Ġ196 8
ĠAg ent
Ġdra gon
Ġhous ing
pret ty
ĠWel come
ĠSpir it
ĠUE FA
C om
G o
e ight
g irl
p her
p ress
s aid
Ġl ung
ĠM ouse
Ġj ail
ul s
ĠK ong
ĠTh us
Ġbr ings
Ġper mission
ars on
ĠDe v
ĠDe ath
aught ers
Ġinst r
Ġ198 2
Ã¡ n
Ġvictim s
ĠAyl mer
O L
b ling
Ġs ings
Ġb en
ing ton
Ġg le
ĠD un
ĠR ub
Ġsl ip
Ġchar ged
Ġhigh ly
Ġsign al
Ġsqu ir
Ġty pes
Ġbill ion
ĠSpen cer
f r
he ll
er k
Ġm ac
Ġm ood
or se
at re
ĠT illy
ĠA ra
ĠH oo
ĠB ol
if ts
ĠR ail
Ġwor n
ĠK u
Ġgr ateful
Ġun us
Ġim age
wh ose
Ġpass ion
Ġreturn s
ĠGr am
ĠCar le
ĠSome body
Ġmain tain
Ġexper iment
Ġprin ci
Ġspir its
Ġscream ing
ĠGold en
Ġfre qu
Ġnomin ated
p ur
t w
ha ll
ir y
ĠB ible
ĠE nd
res p
Ġsm o
Ġdes e
inn ed
Ġhundred s
Ġ197 1
Ġchair s
Ġpri or
Ġamong st
ĠNor thern
ĠGree ce
ĠRy an
ĠComp any
Ġexerc ise
U n
m il
Ġ eth
Ġl aughter
ĠS el
Ġfor b
ĠB ell
ĠY o
op y
ĠJ O
ĠJ enny
Ġal together
up s
Ġreal ized
ĠAf ghan
Ġinst ant
Ġint ended
Ġtem pt
Ġring ing
Ġteacher s
Ġfort un
ĠHel en
Ġphys ical
ĠRog er
g ins
u its
w is
Ġg al
ĠS ister
ri ly
ĠH ong
ĠH oly
ĠC a
ĠN ations
ĠL uke
Ġsa v
ol i
han t
ag on
Ġfe ast
ĠSo on
Ġfl ash
Ġ3 7
Ġche ap
Ġcomm itted
Ġhum ans
read ing
Ġ194 5
Ġprotect ion
Ġdet ails
Ġpat tern
Ġvol ume
ĠBas il
ĠMos cow
Ġagre ement
ĠLie utenant
Ġequip ment
B ill
G E
M iss
P S
d es
m ings
o ch
p y
v ard
Ġb oot
an ny
om i
om er
ĠA ha
ĠM AN
ĠN ana
un ting
ĠG riff
ĠF le
Ġpl ot
Ġsu ffic
act or
Ġcol ored
ib ly
Ġcons ult
ivers al
Ġsign s
ĠAb s
Ġmill ions
Ġmist ress
ĠSec urity
Ġstrugg le
ĠFil m
uf act
b ird
p aper
Ġw inner
Ġw olf
Ġd iamond
ly ing
ĠR ap
ĠJ ay
Ġr ude
Ġsh y
Ġcar pet
uc ed
Ġev olution
Ġcor por
sha kes
g ro
u ing
Ġp ond
Ġl em
Ġh ipp
ĠT a
ĠS ud
Ġli f
ĠE astern
ie ur
Ġde ce
Ġv ast
ob al
Ġele v
Ġmind s
Ġinter rup
Ġfootball er
yy y
Ġauthor ities
Ġwhis per
Ġlab el
Ġincre ased
Ġsex ual
Ġconne ction
ĠMel issa
Ġscient ific
kesp eare
b elt
g ives
v et
Ġb ore
Ġd rain
Ġd irt
Ġg um
Ġl amb
ĠS ky
Ġwe bs
am m
ĠD ie
ĠF riend
ĠF estival
Ġv ice
fe rences
ven ge
Ġcr icket
Ġnight s
ĠAs s
ĠAs ia
Ġear ned
Ġimport ance
Ġill ness
Ġce rem
Ġdisapp ear
Ġbelong ed
Ġneighb our
por ary
Ġrespons ibility
Ġeager ly
ĠRay mond
Ġresc ue
Ġdivor ce
ĠTay lor
K ID
T V
k itty
Ġ HIS
Ġd u
Ġd ining
ĠS and
ĠS weet
ĠA mb
ĠB ird
Ġan cest
ĠD ale
if er
ĠF er
ĠF at
Ġj oint
ul ated
ĠV aud
Ġlet ting
ons cious
Ġact ual
Ġ3 4
Ġset s
ĠNew man
Ġmat hemat
Ġfriends hip
Ġimp act
ĠSy rian
Ġtech nology
ĠDes mond
Ġscient ists
Ġaccom pl
Ġfol k
ĠHum an
Ġstro ke
Ġbrill iant
ĠFloss ie
f a
s ylvania
u gh
u ous
Ġt ent
is l
ĠA S
ĠO UT
ĠR i
ĠR imb
Ġso ap
pp ers
Ġal cohol
iss y
Ġsix th
Ġ5 00
ĠChampions hips
Don ald
Ġbene fit
Ġcab in
Ġaud ience
Ġoccup ied
ĠDou gl
ĠOff ice
P er
y ard
z y
Ġt a
Ġp oll
am as
ĠC AN
Ġ" _
ick en
ag ger
ag hetti
Ġun known
Ġ4 4
Ġdist ingu
Ġdri ven
Ġimp ati
Ġ197 7
ze ch
Ġ196 4
ĠCon f
Ġclim bed
II I
ĠJim my
ĠBob by
arr ass
Ġmotor cy
Ġvot es
phe w
ĠPortug al
ĠGeorg ia
b i
Ġ ;
it o
Ġm as
Ġp anc
ĠC OM
ĠD uck
ĠP oint
ĠE p
ge ant
iv ity
ĠNew s
Ġret ire
Ġcol our
stand ing
Ġsk ill
Ġsun shine
ĠKe ith
stit ution
Ġindust rial
Ġsen ior
Ġrestaur ant
Ġnib bled
b ie
t ons
Ġw ire
en es
ĠM ans
ad ium
ir o
Ġst upid
ĠB ishop
Ġne phew
ig hed
Ġv oted
ĠU nt
ord an
Ġco al
Ġ3 6
Ġsur gery
Ġent rance
Ġaw esome
Ġgrand ma
Ġexpect ing
Ġstar ring
ĠDor a
some body
Ġda wn
Ġprodu ce
ĠTw enty
Ġdogg y
Ġarg ument
ĠBarb ara
Ġevident ly
l ace
Ġw ard
ĠT rain
ĠM ust
Ġn uclear
Ġme chan
Ġse asons
ĠG or
qu ick
ive red
Ġun it
av al
ĠCh uck
Ġsl ave
less ly
Ġvisit ors
ky o
Ġworth y
Ġaff airs
Ġfool ish
Ġinj ured
Ġapolog ize
G od
] ...
s n
Ġa x
er al
nd a
Ġm ile
Ġc ig
ll y
an ed
Ġin come
Ġbe ings
Ġst olen
Ġk angaroo
Ġse lected
ĠIs lands
Ġsw ift
Ġ4 5
Ġ18 5
ĠInd epend
Ġshort ly
Ġ194 6
Ġcur tain
erv ative
Ġpur se
ĠGreat er
Ġhealth y
ĠOxford shire
het ic
ĠCam bridge
Ġsucceed ed
Ġconstit u
Ġchallen ge
Ġsympt oms
ĠDougl as
A C
b ro
Ġc ert
Ġf ate
Ġl od
ut ions
ĠB unny
st ick
ĠP ass
ĠN E
the m
ĠV ill
Ġ3 3
Ġhard er
Ġconf used
Ġste el
ĠMe an
Ġcontro ll
Ġviol ence
Ġconc ert
pro bably
Ġholiday s
ĠArgent ina
Ġsole mn
Ġcris is
2 4
Y our
s w
s ur
Ġt rop
Ġb ent
Ġy er
Ġl oyal
ĠM od
ĠW olf
Ġshe d
hi a
Ġcon cl
Ġman ufact
ag no
Ġmo b
Ġmother s
Ġbel t
Ġsl aves
Ġ195 9
Ġrequ ire
Ġmajor ity
OO D
ĠRom ans
ĠRimb olt
J O
g s
Ġw re
Ġf uss
en ger
ar ms
ĠA uthor
Ġre jo
Ġst ool
Ġgo lf
Ġsh it
Ġun com
Ġrem ove
Ġask s
Ġsm ooth
Ġbo om
Ġsix teen
pect ed
Ġcons cious
Ġdire ctions
Ġtra il
Ġ197 4
Ġconf ir
Ġpur cha
ĠRuss ians
ĠComm un
Ġorgan ized
Ġactiv ity
Ġcapt ured
Ġcult ure
Ġnurs ery
rif ice
Ġadop ted
Ġcitiz ens
Ġresour ces
L ook
T P
w on
Ã ±
ĠT op
Ġde er
Ġr hy
ag ing
uck le
Ġact ed
ect ion
Ġpre viously
Ġart ists
ĠSha kespeare
Ġocc as
Ġpretend ing
mag net
Ġemb arrass
Ġsche me
D ad
s orry
Ġc ord
Ġf ox
Ġp ressed
Ġp ardon
Ġon line
ĠT alk
ĠO ffic
ab or
Ġsp rang
Ġcl iff
Ġfl ed
Ġper form
Ġcons ist
Ġlo ving
ĠTo kyo
UN T
Ġpresent ed
Ġprodu cts
Ġfaith ful
Ġeconom ic
ĠHI M
ĠColumb ia
F ran
j i
l on
p re
p al
u v
Ġp apa
Ġin fe
ĠS now
ent ers
ĠH ay
ĠC her
ĠC zech
ĠN ich
Ġcon vin
Ġun able
ged y
Ġind ign
Ġthir teen
Ġland s
Ġ197 5
ipp er
AS E
Ġtem ple
Ġroll ed
ĠAny thing
Ġpretend s
Ġdelic ate
bur gh
ĠDra gon
ĠRel iance
Ġcam ps
8 0
F or
h op
j ump
u als
Ġd uties
ĠT oo
ĠB Y
Ġk il
ĠR us
ĠR uth
ĠL ad
Ġsh ining
Ġcom in
Ġcomm it
ĠFor m
Ġhat h
Ġpop s
Ġart icle
Ġ194 7
fl ies
ĠX X
fer ring
Ġban ks
Ġhistor ical
Ġcheer ful
scream s
Ġheav ily
B I
L ING
c ing
m itted
r ad
s un
Ġf o
al o
ri am
ĠP ak
ĠN ep
ĠK ira
Ġpe pper
Ġqu ality
Ġfound er
port s
Ġopen s
ĠAn th
Ġbed s
Ġchar ges
Ġsy ll
Ġchair man
ĠDr um
ĠWith out
ĠCent er
Ġanx iety
Ġpossib ility
Ġham mer
Ġgaz ed
Ġemer gency
ĠTurk ish
Ġc age
Ġg rain
ĠT ak
ut o
Ġst rain
ĠC art
ea u
Ġv irt
og ne
Ġte en
Ġke en
Ġkind a
Ġcomm ission
Ġmar ble
ĠTHE Y
Ġbas is
Ġmark s
Ġclass es
Ġadv anced
Ġpack ed
Ġcompan ions
ades h
Ġpers ons
Ġble w
Ġcandid ate
Ġsymb ol
M AN
S C
i ber
j ack
l ock
Ã ª
ot ton
ĠH it
Ġj e
Ġsp eaks
Ġfl u
og ue
Ġchan ging
ĠChrist opher
Ġdress ing
Ġpu ppy
Ġdraw er
hold ing
Ġorgan is
ĠMil an
ĠÂ ¶
ĠEst her
A CK
U L
b ad
Ġs ore
Ġin se
Ġin cl
ĠH ank
st arts
ĠN ord
Ġshe et
ol as
Ġsh ove
ĠTh rough
Ġdis ag
Ġbot tles
ĠCha mpion
Ġpoint ing
Ġ195 6
ĠSe ven
ĠCol in
Ġcomple x
Ġbreat he
ĠPol ish
Ġla unch
Ġactiv ities
ĠSch olarship
Ġtick et
ĠBrazil ian
ele phan
Ġthorough ly
L IN
z burg
Ġc ents
Ġc ows
Ġd ared
ar ant
ĠT hing
al most
ĠS it
ĠM id
ĠB al
un te
na h
Ġv ic
Ġtr ay
Ġpr onounced
Ġfl ies
Ġcomp ared
Ġbu ying
ĠRe ady
Ġum bre
Ġstay s
ĠCha ir
Ġyoung est
ĠJust ice
ĠPl an
ĠCol onel
Ġtouch ing
Ġmist akes
Ġprogram s
Ġestab lish
Ġclaim s
Ġeff orts
Ġinqu ired
Ġdisco ver
ĠPerson al
ĠPenn sylvania
F E
f ind
i ar
Ġm um
Ġc alend
Ġd ea
Ġf ed
Ġf are
Ġp unch
Ġp oured
Ġh om
ĠS ab
ĠA D
ĠA ren
ĠB art
un ched
Ġfe e
Ġdis g
Ġ3 9
ĠAn na
Ġele ctions
Ġcap able
Ġbas ically
ru ct
Ġ196 7
Ġ194 0
Ġstore s
ĠComm ission
Ġval u
Ġwat ers
ĠTur key
Ġthreat ened
Ġdeg rees
Ġï¿½ï¿½ï¿½ï¿½ ï¿½ï¿½ï¿½ï¿½
ĠKore a
ĠScar fe
a way
t ie
Ġm amma
Ġd aughters
Ġf its
Ġto e
Ġl it
ĠC e
ĠD ear
ĠF Ã¼
Ġne got
Ġal oud
Ġv ision
ci pl
Ġbet ray
te enth
Ġmar ch
ĠAp ollo
com m
Ġ194 8
Ġcop s
Ġlab or
ĠPat rick
cip al
Ġachie ve
Ġpros pect
ĠDire ctor
ĠUnt il
f ound
h ors
l ar
l ers
p at
re nd
Ġb ishop
Ġp enn
as p
Ġbe gged
ĠM em
ad emic
se x
ĠH ur
ĠD oub
ĠL O
ĠE ight
ous ins
AR S
Ġun its
Ġfr ame
Ġtri angle
Ġhor rid
Ġed itor
Ġclean ing
Ġhop es
ĠPol and
Ġstat ue
Ġspend ing
ĠIre ne
ĠMet ropolitan
Ġtroub les
ĠGirl s
Ġfier ce
ĠJung le
ĠLin col
ĠPL AY
2 6
z es
Ġt ales
nd ry
Ġb ay
Ġb ord
Ġd omin
Ġl adder
Ġth ief
ĠP y
ig en
el ine
the w
man n
Ġend ing
Ġpre c
Ġbit s
Ġent hus
Ġbear ing
Ġgra pe
Ġadm itted
Ġpot ato
Ġrain ing
Ġclot hing
Ġbreat hing
ĠMc C
Ġdinos aurs
ĠSing h
Ġmere ly
contin ues
ĠDrum mond
Ġenthus i
L ES
l ay
l ife
re ferring
Ġs ne
Ġb ree
Ġd ed
Ġd ign
al ing
ĠM oon
am ps
ĠR aby
op hy
op les
ĠF ind
um mhm
Ġj am
Ġr um
ist ics
Ġex ha
pe ople
be c
Ġhapp ily
add le
Ġim pr
Ġchild hood
ons ieur
Ġgl anced
Ġdist inct
ĠCl are
Ġ197 3
Ġpar liament
Ġfig ured
Ġsn eak
Ġdra g
some one
hel p
Ġsubject s
ĠLi ber
ĠHung ary
Ġexist ence
ĠWind ows
Ġvac ation
ĠFore st
Ġdesper ate
Ġcommer cial
Ġign or
p ie
s a
s qu
ĠI ce
ut iful
ĠC ad
ĠB UT
Ġse ctor
ĠR h
ĠR oy
th s
Ġab and
Ġany how
Ġch ill
ĠMar got
aw a
gg ing
for ce
Ġrel ative
ÃŃ n
Ġ196 5
Ġview s
Ġrepe at
ĠSu pp
Ġaffe cted
pull s
Ġfeather s
Ġbron ze
Ġilleg al
A t
e h
Ġt ummy
Ġs in
Ġb rie
Ġc as
Ġf ucking
Ġto x
Ġbe ating
ĠH and
ĠH ERE
and o
Ġat h
ig no
el ing
ĠV ien
Ġen orm
Ġcr u
Ġkid na
ex its
ĠLe g
ĠWill y
Ġadd ressed
Ġposs ession
Ġconf ident
ĠJo han
Ġest im
Ġgod dess
Ġcommon ly
Ġviol ent
Ġpun ishment
ĠIsrael i
Ġtemper ature
Ġrail way
Ġsurround ed
h ome
w oman
Ġc ave
or f
Ġp ul
ĠS andra
ĠM ir
ĠM all
ĠW oman
ĠC D
ĠR A
Ġcan n
Ġsu icide
Ġpe e
Ġback wards
Ġcl o
ĠV in
Ġra ge
Ġele ment
Ġdist ant
Ġcut s
Ġrep ro
ĠPro bably
Ġ194 2
Ġexper t
ĠChe ck
ĠIN V
IT T
Ġrul er
Ġconsider able
eder ation
raft on
ĠHa ving
Ġextra ord
Ġnorm ally
Ġbare ly
Ġaffe ction
ĠSpe cial
Ġexplan ation
ĠPak istan
2 8
4 5
A A
L W
m ade
p oor
ha w
ĠM as
ot am
ri ot
ĠH ard
ĠB O
ĠN ap
Ġsp ider
ort ed
IN D
Ġnow here
Ġqu ant
Ġfe ature
ĠTh ough
ĠIn s
Ġdes erve
ult ure
ĠAl bert
Ġcoll ea
Ġdream ed
Ġins urance
Ġsca re
Ġty p
AK E
Ġnatur ally
ĠHung arian
Ġblow ing
Ġnap kin
Ġveh icle
Ġsignific ant
ĠAub rey
D ear
g row
m ic
r idge
Ã ĸ
Ġm ars
Ġc akes
Ġo k
an es
Ġin ten
ĠS ad
ĠM mm
ĠB urg
st ay
ĠG all
ĠF ederal
ĠE h
ass es
cc er
Ġact ions
Ġchan nels
Ġcount ing
ĠLe wis
ĠCar ter
Ġ194 3
ĠSpan i
ĠMor gan
ĠLuc y
Ġexecut ive
Ġreve aled
ĠChild ren
Ġnaught y
ĠAbs olutely
Ġcalend ar
Ġinten se
M ar
t ree
nd ed
Ġp ir
ĠB or
ol k
Ġab o
ĠV alley
RO M
Ġgu arant
Ġpr ime
Ġsha red
ĠDe an
Ġspo ons
ĠHar vard
Ġdra gged
Ġbur nt
chan t
Ġremark ed
bu ild
Ġbrie fly
I nd
a zz
h ol
l ic
r im
Ã £
Ġ MOT
Ġc ou
Ġg rief
no ises
ĠT HI
ĠM un
im ately
ac ious
Ġre ference
se cut
ĠC ur
ĠD ID
ĠG rafton
op otam
ĠF ollow
ĠJ ordan
est ic
Ġag ents
Ġcl aimed
Ġch in
ĠAn im
Ġstop ping
Ġcle ared
pect or
Ġchar ts
Ġdri ft
sh h
Ã© e
Ġpar ade
Ġdro pping
Ġdi pl
Ġbeat en
Ġmid st
call ed
ĠSim on
Ch rist
dr ink
ĠFI FA
N e
c u
c rying
e rest
Ġc ooper
Ġd ial
as hes
ic eless
ĠW WE
ĠH im
ĠC elia
ĠB ank
ĠP ret
ĠG ulf
Ġex act
ran ch
iz ations
Ġeat in
Ġnum er
ĠAs sembly
Ġph r
ĠEd ie
ene z
ĠEx actly
Ġ195 1
IC E
ĠTr ust
Ġgra b
Ġenjoy ing
ĠPark er
ĠCr own
ĠNik ki
u ght
v ia
Ġb oring
or ange
Ġp oo
ar se
ĠS yl
ĠH ope
her s
ĠG host
ĠK rist
Ġgr at
Ġpart ly
UR E
Ġcomm ander
ĠAr ts
gr and
bo at
Ġ195 2
Ġabs or
Ġloud er
Ġcre pt
Ġsol id
Ġvis ited
Ġaccom pan
Ġprim ary
yell ing
Ġcrim inal
ĠHoo ver
mil k
2 7
B S
b rew
b oth
k un
u zz
Ã §
Ġb ars
Ġc ough
Ġf etch
en ess
ĠS um
ĠS av
ĠA P
AT E
ĠF ur
ĠE ver
Ġdon key
os ity
ick y
ĠSt u
Ġle gend
Ġgu ide
ady s
ret ched
vent ion
Ġimp ression
itc hes
Ġgreen belt
ĠHar vey
Ġrid ic
ĠPet ers
erg us
Ġveget ables
Ġneg ative
Ġthirst y
k nock
Ġc aut
or por
ĠM ich
ĠM useum
ot o
st art
st ream
ter ies
ĠN OW
if orm
un ks
ĠR ab
Ġsa uc
our se
Ġr ot
ig ers
em ents
Ġsu itc
the less
ĠK az
Ġim it
uck s
ip ed
Ġlast ed
Ġper ce
Ġper man
Ġche ek
Ġatt orney
Ġstr ict
Ġstuff ed
Ġfact s
---- "
Ġmusic ian
Ġstar ing
ĠTe ch
Ġdeep ly
Ġarri ve
Ġdet ail
yn asty
Ġvol unte
Ġdescri be
Ġpati ents
Ġindepend ence
ĠIran ian
outhe ast
Ġunus ual
i ac
p hy
t rying
Ä ĩ
Ġc ousins
le ction
ĠA w
im ents
am an
ĠC amer
ĠP ost
res ents
ast e
Ġwant ing
ĠV ava
Ġthr ust
Ġpr on
Ġ3 00
Ġsw itch
cha r
Ġcons um
Ġsleep y
Ġunderstand ing
Ġlead s
umb les
Ġice cream
Ġlevel s
Ġbell y
ĠDoes n
Ġdeb t
Ġdisco very
Ġacqu aint
Ġtow el
ĠSk inner
Ġstret ched
Ġribb on
Bill board
K ING
m ate
m ove
m ates
Ġw ishes
ar u
ar io
ĠS ene
ot ing
ĠH ang
ĠB BC
Ġwith draw
ct ic
ĠL inda
ĠF if
ĠF ight
Ġal t
Ġv en
age ment
Ġmust n
ĠBr ing
Ġmar ched
ĠEd die
Ġhat s
ertain ly
ax y
Ġalong side
Ġreturn ing
Ġref rigerator
Ġ196 6
Ġ194 4
Ġexpl os
Ġbag s
uri ous
ĠChan nel
Ġsurv ive
Ġliter ature
EA H
Ġpolic eman
Ġcray on
ouncill or
ĠGriff ith
; "
m ail
t op
v ant
ha ha
Ġd rank
no te
ĠT ag
Ġse al
AT ION
ĠL ill
Ġsa le
um per
ol ate
qu is
au g
Ġpro b
Ġbl az
Ġread s
ĠBe at
Ġnear by
den ly
Ġca red
Ġ7 0
Ġsub s
ĠGe ography
Ġsqu ad
rem oves
Ġgrow th
Ġsecret s
ron ic
Ġpark ing
talk s
Ġpray er
Ġsatisf action
Ġune x
Br own
Ġinha bit
ĠLincol n
b ir
n amed
Ġa wards
it able
Ġm os
Ġf asc
or ial
Ġp ine
ĠM orning
ir ts
ĠB rig
Ġmy ster
ĠJ ess
ĠHe mings
Ġthem e
Ġv ow
ĠSt art
Ġle cture
Ġpart ners
ĠSo ciety
ob ile
Ġinv ite
ĠSp eak
EN D
Ġrep resents
Ġbusiness man
ipp ing
ĠAm ong
whis pering
Ġla unched
Ġlim it
writ ing
ĠNat han
Ġtradition al
ĠSpr ing
Ġinsp ired
ĠPra gue
ĠBang l
ĠOrd er
Ġvalu able
B E
L e
a is
m osp
Ġs ung
Ġd ates
Ġto mat
ĠT our
ĠM s
ĠC L
ĠC ho
ĠC ross
... "
ĠR hod
ul ed
ul pt
ear ch
ĠK han
ĠK elly
Ġpr ices
Ġfl ung
Ġim per
ect ive
aw oh
Ġche w
ult ural
ĠFor ce
Ġtri bes
Ġjo king
Ġ196 3
Ġru in
Ġimag ined
Ġrout e
ĠDiv ision
Ġintrodu ce
ĠMean while
Ġconfir med
2 9
P A
R e
f ine
g onna
p ool
in ated
Ġs am
ha ir
or ters
as per
ĠS at
ut her
ow een
ĠM u
ĠC ivil
ro d
Ġli ed
ĠD u
ĠP ur
ĠL ane
Ġag es
ĠIn c
pl ess
hen s
Ġsc ored
Ġkind ness
gr unts
ĠChrist ians
Ġtra p
Ġmer ged
Ġprofess ion
Ġhast ily
ĠMad am
Ġmid night
Ġeconom y
ĠDa isy
Ġdeb ate
ĠHol mes
Ġwra pped
C romer
I V
b ac
Ġp owder
ĠT W
ĠM ain
ver se
ĠH ulk
ĠY EAH
Ġgo ver
ĠP age
ĠF ergus
Ġv oy
ure au
ho le
ĠV ice
Ġun like
Ġtalk in
Ġcomp osed
Ġrem aining
Ġhead quarters
ĠBe cket
Ġmar bles
ĠPro du
Ġiss ued
Ġphot o
Ġfeed ing
Ġcell s
Ġexec ution
ĠLI KE
Ġrespond ed
Ġbub ble
ĠRad io
ĠPac ific
Ġcriter ia
intend o
o a
w oo
Ġd ude
Ġh its
Ġno od
ĠC ard
ĠC OME
Ġli qu
Ġat mosp
Ġas pect
ĠP rom
ĠG R
Ġsp ots
Ġsc ript
AN K
sh outs
ĠSha w
ĠEl ite
ĠChar l
Ġconst ant
Ġsca le
Ġclim bing
ask et
aron i
Ġpupp et
ĠAB OUT
Ġumbre lla
Ġpenn ies
ĠVien na
" ).
E M
O ne
j an
he ld
Ġa rose
Ġs ession
ha rd
Ġb ond
it ors
Ġm ild
Ġp y
ĠT al
Ġe cho
Ġno dd
Ġst ern
ĠH ospital
ĠP itt
ĠP oll
un a
un ted
ĠL ine
Ġshe pher
ol and
Ġsp aghetti
Ġmo ck
Ġchar ming
ĠJust in
Ġinterest s
Ġste am
Ġalbum s
ĠBro ad
ĠKe vin
empt s
Ġgen ius
Ġlim ited
every body
ĠMat thew
Ġsac rifice
Ġshel ter
r ors
r ison
t Ã©
y la
Ġs ou
Ġm al
Ġo ven
Ġf eared
Ġp ad
ĠS ri
im um
im me
Ġst amp
st al
Ġk itten
ro y
ĠD ream
ĠG ord
Ġab road
ig ator
ak ota
Ġsc ra
Ġhead ing
ĠHow ard
Ġele ments
Ġint ention
Ġprom pt
Ġstrong ly
ĠHar wood
Ġconst antly
ĠBet ween
ĠFrank lin
Ġident ity
Ġyell ing
ĠCarol ina
Ġintellig ence
ĠGram my
Ġconstitu ency
a res
i ents
y gen
Ġt an
Ġt ag
in ent
Ġw ins
Ġm art
Ġc her
Ġl amp
et t
ĠB R
ĠR achel
ĠG w
Ġpe oples
ĠIn tern
RO W
Ġrec on
let on
Ġstud ying
Ġste ad
Ġdress es
Ġ195 4
Ġ195 5
Ġ195 7
ĠPe ggy
ai ries
Ġpot ential
Ġarri val
ĠOK AY
Ġcre ation
Ġprep are
Ġrefer ring
Ġnic kel
Ġnegot i
Ġextraord inary
! _
c orn
f s
n ine
v or
z ed
Ã º
Ġc rib
Ġy ield
Ġwe ary
Ġsa iled
ĠHe brew
Ġr oot
Ġout er
ig r
ak h
Ġtr ace
Ġsent ences
Ġri fle
Ġlo ad
Ġca using
clud ed
Ġimp ress
Ġland ing
Ġ196 1
Ġem ot
Ġcheck ing
ĠMary land
Ġprotect ed
Ġhast e
Ġdev ice
ĠJeff erson
Ġgen us
ĠEn ter
Ġpray ers
Ġlat est
Ġpil ot
ĠAnth ony
5 00
M an
b at
s ar
u ay
Ġa ck
on ce
ha mm
ed ge
Ġy ards
Ġg ard
ic hes
ĠM anche
ĠC atherine
ĠL ET
Ġr ust
Ġex ped
to e
Ġsomet ime
Ġun s
Ġcha mber
but ter
Ġdeath s
Ġsun ny
Ġ194 9
Ġclos ing
Ġspell ing
ĠGl adys
ĠPal ace
Ġcommand ed
Ġdeli ver
ĠJos h
Ġterrit ory
ĠAnton io
Ġcomr ades
Ġtrem end
Ġenorm ous
Ġinhabit ants
Ġnodd ed
B l
V ery
l an
u ct
Ġw is
Ġc ateg
an im
Ġh ired
le m
ĠA ge
Ġwe b
Ġst ated
Ġst eak
ĠH ans
ĠC as
ĠB aker
all e
Ġse qu
un s
ra h
ĠG ary
ĠL ITT
ĠF amily
Ġj olly
Ġj umps
Ġr ack
el p
." ]
ĠSt at
Ġer a
Ġsha king
Ġcont est
Ġ18 4
clud e
bb les
Ġ195 8
Ġvisit or
Ġband s
Ġneck lace
ĠPet e
Ġvan ished
Ġsearch ing
Ġregard ed
Ġdemand ed
heart ed
ĠWay ne
ĠKore an
Ġpor ch
Ġpump kin
Ġmyst ery
ĠDoub s
S ue
b ach
it als
Ġc ra
Ġo d
Ġg rie
Ġth under
id y
ĠS l
ĠH ind
ĠB urn
ĠD iana
ĠN in
ĠN intendo
un ning
ĠO t
ĠL ind
ĠL OOK
ĠF inn
el ope
Ġor phan
Ġex pen
Ġneed le
Ġsc old
wh ite
Ġwar n
Ġwar rant
sh ort
ĠGr ay
by n
Ġste ady
Ġrece iving
ĠSe an
Ġ192 9
ov a
ĠEm il
Ġappro x
Ġdev oted
Ġremark able
ĠRod ney
ĠLuc as
---------------- ----------------
Ġrecomm end
Ġash ore
ĠRepresent atives
Ġsuitc ase
Ġunex pected
3 5
I L
in ating
Ġl ux
om y
le ans
Ġha y
et tle
us a
Ġbe ard
ĠC ool
ĠO ak
ĠG ard
ĠE va
Ġal ike
em a
ort on
ide o
to y
ĠV enez
Ġgu ards
Ġcar bon
Ġpo le
Ġapp ropriate
Ġcont ains
Ġgl oves
ĠDe f
Ġdri ll
Ġref use
atur al
AS T
Ġann ual
Ġterri bly
Ġpuzz led
Ġsol ution
Ġdanc ed
Ġphot os
ĠON E
Ġduck s
IR L
Ġcoun sel
Ġwid ow
Ġassoci ated
Ġlob ster
Ġimpr ison
D ER
h ums
m od
v ation
Ġw rap
Ġd well
Ġf aced
Ġp ier
as ha
Ġha l
ĠA G
ĠM P
Ġre venge
se ction
Ġst ab
il ton
ĠF all
ie ved
ĠJ essie
hi o
Ġwor m
Ġpe ep
Ġoff ering
ass ador
Ġhouse hold
ĠBr and
Ġrec over
Ġgl orious
Ġcons cience
ĠInd eed
Ġca res
Ġthank ful
Ġ196 2
Ġgener ous
Ġdeal ing
Ġ195 3
Ġprot ests
Ġanswer ing
att empts
Ġcollect ed
Ġcab inet
cul iar
ĠJos Ã©
Ġbeha lf
ĠAlf red
ocr acy
Ġsympat hy
quiet ly
Ġabo ard
Ã£ o
ĠLITT LE
" ),
H ave
ĠC ab
ĠN one
ĠN onna
Ġv ig
od d
ag ers
les h
Ġcr ashed
Ġ202 4
ĠAs k
Ġmon arch
me ans
Ġinv itation
Ġinst antly
Ġtri but
Ġpull s
Ġexp ressed
Ġ193 9
Ġunc onscious
ĠSwed ish
ĠHal f
ĠBrook s
ĠGra ham
ĠMans field
JO A
ĠMich igan
F RI
d ney
r us
r ical
w ick
it us
Ġm ama
Ġf ires
Ġbe ep
im er
ot ted
ĠH OW
ĠD NA
ĠR ud
Ġshe lf
um a
ag le
cl ose
gg ie
wh oo
Ġob st
enc ies
Ġmove ments
eng u
Ġbas ic
Ġref uge
Ġconf usion
bb ing
enn es
ĠPol it
Ġsevent een
ĠWH O
ĠLaw yer
Ġconne ct
Ġpoet ry
ĠOl ive
ynam ite
Ġcig aret
igen ous
p ass
r r
Ġt ub
ing le
Ġto ile
ay a
ic ians
al ys
ĠW OR
ch ran
ĠD ave
ĠD akota
ĠG ab
ĠL omb
ĠF ern
Ġr aces
Ġbut tons
IN E
Ġpe culiar
ĠSt ra
ĠIn stead
ĠV ar
Ġtry in
ĠCha p
Ġret reat
Ġac ademic
Ġmet res
bl ast
Ġexp and
ĠCol or
Ġsweet heart
Ġtreat y
Ġcop ies
Ġcand le
Ġtrack s
hum ming
Ġstran gers
loud ly
Ġadvent ures
ĠFore ign
Ġcad et
Ġlem on
Ġdipl om
Ġack now
. )
i at
Ä ģ
re ll
Ġf uck
ĠI V
Ġg room
le ave
Ġn asty
Ġst iff
Ġk icked
ĠN ine
ĠN avy
ĠL isa
ĠF ord
Ġsh one
Ġsp ray
ĠK a
ous ed
Ġch rist
Ġbu zz
Ġrec overed
vel ope
Ġdist ress
ĠCl ass
Ġsk ills
itc her
che stra
Ġ193 8
Ġdep os
ĠTw ila
Ġhy p
Ġinj ury
Ġcondu ctor
Ġdesp ite
Ġexecut ed
yell s
Ġparticip ated
ĠEv ans
AUG HING
ĠJun ior
Ġincred ible
Ġconvin ced
ĠVenez uel
e enth
f ix
h h
t oday
u er
on ge
ing ing
ĠI F
id den
ĠA v
ĠA li
ĠW y
ĠW end
Ġst air
ĠH o
ĠB and
ĠB ub
ĠP ap
ĠN EW
ĠR ich
ĠR oc
ĠG ook
Ġman ners
ost er
Ġcl ergy
ĠThere fore
Ġob vious
ĠNot ting
ĠCl ark
Ġste ep
head ed
Ġed ition
ĠHar ris
Ġce ased
ĠCol omb
Ġbur den
chan ge
Ġtast es
ĠCor byn
Ġattempt s
Ġsle e
mag n
Th ou
Ġwarri or
R ight
m t
r in
r ich
t ur
y um
Ġ igno
Ġt ires
re k
Ġc raft
Ġo bey
Ġd ating
Ġto ps
Ġy um
Ġin her
oo h
Ġn iece
Ġre ject
ĠW ANT
ĠB acon
Ġu lt
Ġse as
ĠK id
Ġlet s
Ġsc at
Ġsc rap
Ġact s
ĠMar ian
Ġhead ed
Ġsw ept
Ġreg ional
Ġcons pir
Ġsat ell
Ġbar rel
ĠTr ack
Ġvill ages
ĠX V
ĠCo chran
Ġdam n
ĠPal est
Ġscient ist
ĠVict or
Ġcad ets
Ġlic ense
ĠBour g
Ġclo ak
3 1
? [
M ary
g ain
k ers
w ind
Ġw ipe
Ġc ran
Ġd ime
ar med
Ġg inger
ĠT reat
ĠC ry
ĠC ass
ĠB ry
ĠB ugs
ur ger
ĠD ur
ore s
ĠE wo
os cope
Ġsu p
Ġwho ever
ĠK ill
Ġex ceed
ĠSt ory
Ġbl ast
ps on
Ġsha de
Ġsc ulpt
ip es
put ation
ĠInd ust
Ġimp ressed
Ġtra ve
Ġten nis
Ġmist aken
Ġcross ing
cri pt
Ġvar iety
ĠMer ry
Ġcal cul
ĠMc K
ĠCor por
Ġmus cles
ĠRos am
ĠĠĠĠĠĠ Ġ
Ġoppos ition
Ġadminist r
acha che
ĠBi ography
ĠSto ck
Ġwebs ite
ĠDie go
opotam us
Ġatmosp here
b ishop
c or
c aterpillar
n at
it ol
it led
Ġf ame
Ġf rank
or us
Ġp ork
Ġe re
ĠB ush
ĠP ig
ĠN el
ĠO cean
qu er
ĠK al
Ġle ather
ĠV iet
oll ey
Ġcomp ar
ug ar
Ġres ign
ĠBe vis
Ġatt itude
Ġrel ation
Ġball oons
Ġcent uries
com es
Ġdef ense
Ġneighb ors
Ġla wn
Ġgas ped
ĠHist or
Ġshout ing
Ġmem ories
Ġfarm ers
ĠBet ter
Ġsepar ated
Ġgall ant
** **
ocal ization
Ġreview s
Ġtal ent
Ġreck on
Ġox ygen
Ġmunicipal ities
Ġinterrup ted
Ġdisg ust
O S
W ill
i i
k ward
Ġs an
Ġs ust
ha se
Ġb ob
Ġp aj
Ġg ates
Ġh ockey
ĠT imes
ĠS cience
ĠA ut
ĠA ud
ĠA ff
ĠN iger
ĠG IRL
Ġso vere
Ġall ey
est ion
ag ain
Ġ19 20
ous es
Ġlong ing
te xt
cl ing
Ġnice ly
Ġcons ent
ball s
Ġri vers
Ġ6 5
ĠMan or
ĠEl oise
Ġins ult
Ġdisapp ointment
Ġtur key
ĠSte ven
tape recorder
Ġbull et
ĠFin ally
Ġcelebr ate
ĠKat ie
ĠAtl antic
Ġpa used
Ġaccompan ied
Ġridic ulous
m aster
n est
Ġw ars
Ġc ub
Ġf ain
Ġbe w
ĠM AR
ri k
Ġst out
Ġst able
Ġli p
ĠD ri
if ying
ĠR oll
ĠG ran
ĠL ion
Ġsa iling
Ġj elly
ĠE conom
Ġwho a
Ġdis cipl
put ting
Ġtri umph
Ġspeak er
Ġass ault
men se
Ġoffic ials
ĠEx cept
Ġ194 1
Ġlay ing
Ġ193 5
sc ar
Ġsweet ie
rat ulations
Ġdep end
Ġru ined
Ġdev il
Ġquar ters
ĠEn v
ĠSal zburg
Ġemploy ed
Ġdeli ber
run s
Ġswall ow
Ġsquee ze
Ġnumer ous
Ġperman ent
J an
Ġs well
Ġb und
Ġf acing
Ġg orge
Ġh oly
us alem
se ud
Ġst ations
ĠC ir
ĠC ook
Ġmy th
ul ting
ist ol
hi bit
Ġgood s
ĠSt ation
ach t
Ġun ique
Ġlong est
Ġchi ps
Ġsc orn
ĠMar ine
ĠBr idge
inn ers
row s
ĠRe al
Ġmagn ific
Ġbutter flies
Ġrepl ace
Ġann ounce
Ġ192 6
Ġdep ends
Ġemp has
ĠOlymp ic
ĠGree ks
Ġfro st
Ġnea rest
ĠBan bury
Ġadminist ration
Ġshell s
Com tÃ©
Ġmotorcy cle
ĠPitt s
C l
J ohn
d in
d ra
f ter
n uts
z an
Ġb ass
Ġto ss
ar o
Ġhe n
ĠA R
oo ped
Ġre action
Ġnot able
ĠD ark
ĠN orm
ĠE mm
Ġwor ship
au c
Ġen velope
Ġim mense
Ġapp ointment
Ġbel oved
Ġgl ory
Ġgl oom
ĠAre a
Ġ7 5
Ġcreat ing
AL LY
ĠCon way
ĠJo ey
Ġcompet itions
ĠThanks giving
Ġsevent h
sm all
ĠEgypt ian
ĠFound ation
ithe ly
list en
ĠAfghan istan
Fran che
ĠThing s
ĠBourg ogne
E O
O kay
h ung
j e
Ã ¢
Ġt une
er os
Ġd ia
Ġf estival
Ġf lesh
Ġto es
ĠA y
ĠM ister
ur ches
Ġan them
ĠK night
Ġrem ote
Ġhel pless
ĠAl most
Ġland sc
Ġdel ivered
ĠGu ys
ĠJo an
Ġbat teries
Ġhar sh
ĠTom orrow
Ġlab our
Ġcorrect ly
Ġdesp air
Ġinvent ed
ĠGriffith s
/ /
A IN
B aby
M ic
U B
i as
t uce
Ġ vel
Ġm akin
Ġo ath
Ġg ross
Ġg igg
Ġhe els
Ġh ip
ĠS ilver
im it
am ation
ĠH oll
Ġse eds
Ġse mi
Ġnot ed
ĠJ uan
Ġcom ments
Ġbl ah
iss ed
act ory
Ġfun eral
ĠFor get
ĠFran co
Ġchar ity
Ġjo kes
Ġrep air
Ġfore head
Ġass ure
Ġass ass
Ġass ured
Ġext ent
Ġinter fe
ĠEx ec
Ġdi agno
Ġ192 5
Ġabs ence
Ġcatch ing
ograp her
ĠSam uel
Ġearli est
Ġbud get
ĠAir port
ĠPhilipp ines
Ġtremb ling
ĠPLAY ING
D i
n al
Ġt iss
Ġs ke
ĠI mp
Ġp itcher
Ġg ifts
at ures
om ers
Ġbe es
ĠS ounds
Ġre act
Ġst or
Ġst ress
ĠH art
ĠC ousin
Ġk etch
ĠD ouble
ĠP ublic
ĠR and
ĠF E
ĠF R
ol ves
Ġro ared
ud ge
IS H
hm m
Ġfollow ers
LO W
Ġsub ur
Ġass ume
Ġint ent
ĠBl ood
ĠMe g
Ġsnow man
Ġclub s
Ġban ana
ĠMart ha
ĠJul ius
Ġsum m
Ġsurv ived
ĠMuslim s
Ġtroub led
Ġliber al
Ġknight s
Ġobtain ed
resp ond
hamm ad
7 0
F L
F ather
d i
f ashion
Ġ FAT
Ġb ade
it ter
Ġm ice
Ġd war
Ġf ears
Ġp ed
Ġp ace
Ġp atch
at han
le en
ic ia
ĠT ree
Ġbe et
Ġe c
ut ter
ac ity
Ġn erve
ĠH ills
Ġan gel
Ġgo at
ĠN ative
ĠR ANG
ĠG re
ĠG ame
um hum
ĠJ u
ol ph
itt ens
Ġtw in
Ġtr ump
Ġim ages
ĠMar io
Ġwar ned
ĠCount ry
sp eaks
Ġ192 8
Ġdest ruction
Ġappro ached
min ation
ĠNet tie
dog gie
ĠLaw son
ĠEll en
Ġident ify
ĠDep uty
asc al
bor ough
Ġarrow s
Ġwrest ling
Ġliber ty
ĠDet ective
Ġgrant ed
Ġunfortun ate
ĠBelg ium
Ġinstr ument
ĠRhod es
$ =
C ar
G H
h oney
p ent
in als
in ction
Ġf iction
Ġp ear
Ġha mb
Ġit ÃŃs
ĠS ic
ĠA C
Ġis lands
all ed
Ġnot hin
ĠP ot
ĠO hio
ĠO blast
ĠR et
Ġso fa
Ġde put
Ġr amp
Ġag ency
Ġro ses
Ġgr ounds
up on
ĠUn less
ĠIs a
Ġdr own
az a
Ġvo iced
Ġ18 0
Ġdec ent
Ġperson ality
OR E
IC K
ĠDav is
ĠAm anda
ĠNor man
gu ess
ĠLouis iana
Ġtick ets
ĠFred er
Ġcapt ure
ker chief
Ġappl ied
Ġsac red
Ġnewsp apers
Ġess ay
ĠPers ian
ĠPier re
Ġsmo king
Ġsuffic ient
ĠNep al
Ġshove l
Ġpaj amas
ĠEnv ironment
l ady
p op
r ine
r ings
z u
Ġs ighed
ha h
or i
Ġin ner
Ġth umb
ld om
ĠM att
ĠH il
ĠR ag
Ġyour selves
os ition
ist ration
Ġv it
ĠK r
ĠU t
hed ral
ci ences
hes s
Ġbu ff
ĠAr m
leas ant
Ġreg ions
Ġdec isions
Ġhung er
ĠInd ones
Ġlo ver
ey ed
fort able
Ġfil ms
ĠAld ithely
Ġequ ally
Ġprin cipal
Ġstat us
ĠJer usalem
ĠGrand ma
ĠGrand pa
ĠLaw rence
Ġcomb at
Ġport ion
ĠJul ie
Ġyell s
Ġcuri osity
Ġbrief case
Ġpropos al
Ġretire ment
Ġkil omet
ĠMall ory
Ġtoile t
ĠWend y
, ]
. /
A p
C A
in ate
Ġthe atre
ha us
Ġb ills
Ġto ols
Ġl ane
as ped
ĠS ever
ĠA L
ĠB alt
Ġ" "
ell ect
ĠO R
ĠR oland
ĠG OOD
ĠE li
Ġcon ven
Ġlook in
ree k
ĠTh ird
be fore
RO AN
Ġwhere ver
Ġun iverse
Ġcr imes
ĠMar gery
ĠDe velop
Ġrel ieved
Ġuh huh
Ġbreak s
Ġlear nt
Ġdream ing
ĠCon ference
Ġ193 6
ĠGl oria
min ster
Ġrecogn ition
Ġcompl ain
Ġnecess arily
Ġaut umn
ĠSen ator
Ġsens ible
ĠWil son
ĠHon or
bour ne
Ġentertain ment
Ġjew el
ĠAthen s
Ġmac aroni
ĠVin cent
Ġvoy age
ĠGord on
B y
H ey
P h
T ell
b ound
e ating
Ġ ing
in ity
Ġf er
et ic
ĠS ang
ĠM aur
Ġst raw
Ġme ad
ch oc
Ġan ch
ĠD omin
un ci
ĠL ois
ĠAnd r
Ġar ts
Ġover all
ĠSt ri
ĠSt orm
Ġen s
Ġam us
ign ment
mp h
Ġra ising
Ġpol ite
Ġsur vey
Ġsit es
app le
ĠCom ing
Ġprom oted
Ġoffic es
Ġcook ed
che ster
Ġprof it
Ġreason able
sc ri
Ġz ero
Ġtem porary
Ġda isy
Ġsad ly
Ġgrad ually
Ġenc ourage
Ġinj uries
yr ics
Ġconcent ration
Ġresist ance
ĠLad ies
ĠHit ler
Ġbree ze
ĠSpani ards
Ġphr ase
Ġtremend ous
alys is
Ġdia lect
D ynamite
E x
F R
V ID
d ials
f its
t aking
v ior
Ġt us
Ġb ul
it age
Ġd ashed
Ġf ake
st rawber
ĠG OT
ĠL as
ind ere
ag an
Ġpro cl
Ġun iform
Ġfl our
act ually
ĠDe ad
ĠFor ces
Ġsent enced
19 5
Ġconf irm
Ġaw kward
ĠAb ra
cri ption
Ġ192 2
Ġcirc les
Ġtest s
Ġoper ating
Ġkiss ing
Ġpract ical
Ġimag ination
Ġbell s
Ġaccount s
Ġengine er
Ġamaz ement
ustom ed
call ing
ĠMur phy
Ġmater ials
Ġsour ces
ĠSqu are
Ġveh icles
Ġcompos er
ĠProt est
ĠSud denly
Ġincl ined
Ġcollea gues
ĠSene ca
ĠIntern et
b its
d le
f ell
h u
s en
Ġt ank
ha ms
is k
Ġm orn
Ġm ask
Ġm ental
ĠI van
et her
Ġit em
Ġth read
Ġbe an
ĠA th
ĠC ase
ĠC herry
ĠB os
ĠP a
ĠN i
ĠG y
Ġall iance
ĠJ oy
Ġsh ield
ak ers
ĠK ai
ĠAnd re
Ġneed n
Ġco ck
ĠBe ing
Ġpret ended
Ġstick y
Ġcol on
ĠFl ag
Ġref ers
che ese
ĠAdam s
Ġmer c
Ġ193 4
Ġroll s
Ġterri f
Ġoper ated
Ġsol ve
Ġconsider ing
Ġanx iously
pret ends
ĠPen elope
ĠTer ry
Ġfirm ly
Ġmut tered
Ġstret ch
Ġproceed ed
ĠDou g
Ġadop t
Ġdetect ive
Ġtun nel
REAM ING
Ġsav age
Ġdign ity
orpor ated
ĠBangl adesh
3 4
S ome
b read
b ased
h or
h rer
m ill
m und
t ub
v ous
Ġb er
Ġc otton
ĠI l
no body
Ġhe ap
Ġe ase
ĠM O
ĠM R
ĠP el
ĠP ied
ant is
ĠG en
Ġso ccer
ol es
the ast
au de
Ġus eless
Ġpro ced
int on
Ġgr ows
Ġdis gr
iz er
Ġend ea
Ġra pper
ĠAl ways
az y
cha rd
Ġref lect
Ġpain ter
Ġpri ests
ĠCon stitution
ĠSh ort
ĠAm az
Ġins ist
Ġmis chief
Ġvisit ing
Ġopp osed
ĠComm ons
Ġrepresent ative
Ġcrit ics
ĠMon te
ĠBo zo
Ġslight est
Ġcrowd ed
Ġur ban
Ġimpro ved
Ġfra g
ĠJenn ifer
Ġarchite ct
Ġcerem ony
ĠNich olas
T HE
b age
w or
Å Ĥ
Ġh ollow
Ġh osp
ic on
ĠT ot
ac o
Ġn ations
Ġre putation
ĠW on
ĠW HI
ĠH ell
st ate
ĠP i
ĠN umber
ĠF ROM
Ġsh ine
Ġsh rie
Ġbl oss
ĠV I
Ġcha sing
cl ass
Ġfin ishing
Ġstr ate
ĠCha g
io ca
Ġbro om
ĠPe ace
ĠComm ander
ĠCap itol
Ġcand les
Ġshop s
Ġrefer red
Ġsail or
ĠUp on
Ġtravell ing
ĠTem ple
Ġfenc ing
Ġben ch
Ġprinci ple
Ġeth nic
M S
P apa
l ines
m ind
m aid
p ush
Å į
ha b
Ġb ored
Ġb olt
Ġm ath
Ġf ans
Ġh ire
Ġh itting
ic ating
us ive
id ers
ut ive
Ġno on
ac les
ot te
Ġre in
ĠW ELL
ĠC op
ĠB right
st an
Ġk not
ĠY orks
ĠN ar
if ully
un n
ĠO per
ĠR iley
ĠL E
Ġso da
Ġde eds
ĠK yle
Ġag ric
Ġqu ack
Ġbr id
Ġdis aster
ĠNe ed
Ġsw iss
Ġworld wide
Ġph ones
ĠPr ice
ivers ary
Ġinte gr
Ġpar lor
ĠSh h
ĠAN Y
Ġsn ip
Ġ193 2
ĠComm on
Ġroll er
Ġcontro vers
ĠSy stem
Ġchick ens
Ġsuggest ion
Ġpun ished
ĠBrad ley
Ġmult i
Ġsuspect ed
ĠFour th
Ġutter ly
ĠNaz is
Ġresident s
Ġpup ils
Ġnood les
ĠManche ster
Ġstrate gy
9 0
F irst
M P
U ID
c ool
f ers
l ah
t il
t able
Ġ |
Ġthe ater
nd ing
Ġo ak
Ġl in
ĠS S
ĠS n
ĠG il
ĠL yn
op es
Ġso ci
oy d
Ġbl ows
ĠWe eks
ĠV eg
ĠUn iversal
Ġcont ained
ĠChi le
Ġbelie ves
Ġwind s
ĠAd d
Ġcat tle
Ġhor iz
Ġart icles
Ġbar r
ĠWar ren
Ġ193 3
Ġ193 7
Ġclean ed
Ġdra ft
ĠWest minster
Ġappro aching
Ġcompl icated
Ġcomb ination
ĠSup reme
Ġepis odes
Ġvis ible
Ġsail ors
Ġfeat ured
ĠApp arently
Ġappl ication
ĠHor se
Ġprint ed
Ġamb ul
su ccess
ĠArch bishop
ĠTele vision
ĠArmen ian
Ġphotograph s
Ġuncom fortable
ĠYorks hire
C D
F T
J e
N K
f ight
Ġw oof
Ġs outheast
Ġb urg
ed ar
Ġin formed
ĠM ind
Ġn a
ĠC hat
st ruction
ĠP R
ĠO pal
ĠF BI
ink ing
Ġcon cept
Ġar gue
ne um
ps y
Ġmo le
Ġcount s
br ing
ĠAr k
Ġacc ustomed
Ġrel atives
Ġlist ed
Ġinst inct
sh ot
Ġpop ped
Ġjo ining
Ġhum ming
ru it
idd ing
Ġbusiness es
ĠCon ne
Ġpos itions
Ġdef ence
Ġmount ed
ĠSy dney
Ġeduc ated
Ġpeace ful
Ġwide ly
ĠBo ard
every thing
ĠBu ild
Ġgrave ly
Ġintellig ent
ĠNaz i
Ġcray ons
hun h
Ġaltern ative
Ġconcl usion
Ġbord ers
ĠColor ado
Ġketch up
indere lla
X T
v as
w art
Ġt ut
re nder
Ġs han
Ġb ol
Ġf uel
Ġp eak
Ġg a
Ġg ri
Ġh int
ĠT og
ĠS i
im s
ac re
ĠH od
Ġk ite
Ġse ldom
ĠG ates
ĠG ib
ol ve
end ment
ci le
Ġfl ow
Ġcont em
Ġhead ache
iv or
ĠBe ach
ee z
Ġdri ves
ĠAd min
ony m
Ġexp osed
play s
Ġdepart ed
ĠChe ster
Ġknock ing
Ġoper a
cell or
ĠSer ies
Ġhero es
Ġmir acle
ĠMur ray
Ġpour ing
Ġcustom ers
Ġleaders hip
Ġshock ed
ĠFair y
Ġpolic ies
ĠMi riam
ĠArgent ine
ĠBus iness
hell e
Ġexped ition
ĠLomb ardy
Ġgorge ous
I ES
N T
b urn
f ull
g ian
y o
it i
Ġf og
OT HER
Ġin k
Ġbe have
Ġbe ads
ĠW ILL
st ar
if ferent
th y
Ġall e
Ġall ows
Ġr ushing
ig a
res a
ĠK ings
Ġaf t
Ġbr ick
zz ie
Ġad ults
Ġchan ces
ER Y
ces ter
Ġdes ired
Ġsur ve
Ġcons ists
ĠSp art
Ġwrit ers
ĠSha h
aur us
Ġmer chant
Ġprov ides
Ġoper ate
Ġoper ations
US IC
Ġself ish
Ġtit les
Ġinvest ment
AK ING
Ġmach ines
Ġincre asing
Ġrese ar
ĠMed ia
Ġimmedi ate
Ġstom achache
Ġfro zen
ĠRon ald
Ġconqu ered
Ġsteal ing
Ġinit i
Ġadvert ising
ĠWhe ther
ĠBrother s
Ġgy m
ĠTon ight
Ġnick name
Ġexperi enced
Ġcontroll ed
Ġwre ck
choc olate
. _
D O
d ge
f are
g um
h urry
p o
s is
s ince
t iger
u ated
Ã ´
Ġt in
Ġt ube
Ġt igers
Ġa pt
Ġa ired
Ġw retched
Ġthe rap
ou st
Ġs ank
on ent
Ġf ab
Ġf ulf
ĠI ron
Ġl est
ic op
Ġit ems
ĠM ember
Ġre aching
ir s
ĠB C
ĠR ea
Ġup d
ĠE cu
Ġcl ients
Ġplay in
Ġwr ath
per haps
Ġsc enes
Ġch urches
for ms
Ġsil k
Ġfr ustr
uff led
Ġent ry
ank a
Ġinv asion
Ġpresent er
Ġext ended
ĠPer u
ĠOr gan
ĠAb d
ĠComm unity
Ġdistrict s
ĠWal t
ĠEn ough
Ġcommun ities
Ġrob ber
Ġmethod s
Ġtransfer red
Ġast ron
dro ps
child ren
ĠCla vering
Ġtrop ical
Ġacquaint ance
Ġsou ls
fashion ed
" ;
9 9
C oma
b ang
c s
c ard
l iness
m ight
r ots
t own
Å ĵ
Ġt ad
Ġt ack
Ġt ide
Ġt ables
is ible
Ġo p
ĠI d
Ġin ch
ĠS lo
ĠH orn
ĠC ran
ĠC rit
Ġan ge
ĠD ick
ĠP ress
ĠE un
Ġde leg
ĠHe art
Ġsh ift
ind er
AR Y
ĠMar ion
ĠNe ci
Ġfin est
Ġmon keys
any way
Ġsk irt
wo ke
Ġinc hes
Ġinter pret
Ġgener ation
ĠGu ards
Ġbat tery
Ġmess ages
Ġhop eless
Ġcost ume
tom orrow
ask a
Ġtor ture
Ġpati ence
Ġproject s
show s
Ġliter ally
Ġachie ved
Ġdescend ed
Ġphilos ophy
Ġwha le
Ġsovere ign
ĠFreder ick
ĠEcu ador
3 8
H er
N ew
P lease
S ec
W ith
m iss
z ona
Ġm aj
Ġc ust
Ġd art
Ġto ler
Ġg re
Ġl un
OT H
et ime
ĠT oy
ĠA ggie
ĠC issy
and al
ill ed
Ġab use
od a
ĠK y
ĠK ap
Ġcl am
Ġcl ips
Ġer rand
ĠNo bel
Ġgu id
man s
Ġhand kerchief
li er
Ġgl obal
ĠRe x
CO S
Ġhur ting
Ġred uced
Ġri val
ĠHer o
Ġguess ed
ster dam
sp eaking
ĠOr leans
Ġran ks
good bye
Ġsoft ware
Ġdi ary
Ġsupport ing
Ġwhis pering
ya wn
Ġdanc er
Ġbab e
ĠRes earch
Ġplain ly
ĠHot el
Ġeld est
ĠVict oria
ĠSE E
Ġsuspic ion
Ġfant astic
ĠWalk er
Ġdom estic
tw enty
ĠOffic er
ĠFÃ¼ hrer
Ġestim ated
magn ets
ĠNel son
' !
T O
U D
d inos
i able
r ising
t an
t rain
u ate
Ġt att
Ġs no
on om
on to
Ġo oh
ĠS her
Ġn aked
Ġre b
ĠW r
ĠH O
ĠC re
ĠB ul
ĠB oss
ĠB amb
Ġu na
ĠD ance
ĠF ield
ĠF ury
Ġr ides
os lav
em ploy
ist ered
Ġtw ins
Ġpro port
Ġoff ers
ho en
Ġpr ote
Ġres olution
Ġdes erved
Ġstr ings
Ġbus h
Ġacc ur
ĠFor rest
Ġ4 00
ING ING
Ġeight h
Ġ8 5
Ġpain ful
Ġmed ium
Ġdead ly
Ġhon ored
lo ad
Ġ193 1
ĠMin istry
Ġann iversary
Ġabs olute
Ġvide os
Ġpriv ile
Ġdifficult ies
Ġmass ive
Ġcelebr ated
ez es
ĠServ ices
Ġjun ior
Ġspill ed
Ġbee f
ĠCarl os
Ġencoura ged
On ly
ĠCommun ist
ĠEnter tain
hung ry
ĠPied mont
3 7
E very
e gg
l ove
r um
y ers
Ġa woke
Ġb om
Ġb isc
is le
Ġm ax
Ġl id
ĠP H
ĠF al
ind eer
ast ed
Ġv s
ĠK ids
ĠIn v
ĠV ia
IS S
Ġlet tuce
Ġres igned
Ġfather s
Ġdr owned
br ings
Ġ4 6
Ġrest ing
ĠRight s
OR Y
ĠAm sterdam
Ġtruck s
Ġval entine
Ġappro ved
Ġrul ing
ĠAnn ie
Ġshout s
Ġsna kes
Ġcomput ers
Ġscr amb
ĠFin land
Ġdeli very
Ġsusp ended
Ġattract ed
ĠMill er
ĠWin ter
ĠClare nce
ĠTHI NK
ĠPret ty
J uly
N ever
W h
g age
s pe
s leep
t ra
u no
u ction
w ear
Ġ eter
Ġd ing
Ġf airies
as i
at ched
Ġno d
Ġno bles
ac hi
ĠH og
ro st
Ġme als
Ġas sociation
ĠP ed
ĠL ang
ĠJ ed
ist a
ĠK am
Ġle aning
ress ing
Ġapp et
Ġapp ly
Ġnew ly
Ġhelp ful
Ġser ves
de rer
Ġbre ach
ĠAr ound
Ġacc ent
Ġ4 9
Ġperson ally
ĠGo ing
Ġ8 8
Ġtra itor
Ġref lected
Ġbat tles
Ġrain ed
Ġorgan izations
was n
Ġviol in
ĠHigh land
Ġexist ed
roll ed
Ġhistor ic
Ġconstit ution
Ġaddition al
Ġbub bles
Ġprepar ing
Ġaston ishment
Ġadmir ation
Ġsched ule
Ġinstru ctions
ĠAuthor ity
ĠChair man
Ġprec ise
ĠKrist en
Ġperce ived
Ġwis dom
ĠVenezuel a
f old
m ot
w ha
Ġt ons
re z
Ġs ample
er ving
Ġb ugs
Ġc urs
Ġf rench
Ġf urious
ll eng
Ġp ushes
Ġp hase
Ġg oose
om on
ĠT ennes
id i
ĠA st
ad ays
Ġre new
ent ially
Ġse ar
ĠD er
ant ry
ĠL il
ab ama
el f
Ġsu its
qu et
ĠK i
ĠU pper
int ellig
Ġbr ass
av id
Ġhome work
Ġcr ust
ĠNe ither
rain ian
Ġown ers
ER ING
Ġdes cent
wh im
ph ones
ĠFran ces
Ġlight ning
any a
Ġter min
OU S
Ġbas ement
19 2
Ġtre as
Ġint ellect
Ġhum or
ĠPer se
Ġgrand pa
RE E
Ġadv oc
Ġgra v
Ġ15 0
Ġins isted
Ġprov iding
OM AN
ĠHen ri
Ġearth qu
Ġsuper ior
Ġtrust ed
Ġconsider ation
Ġjud gment
ĠRoman ia
Ġattempt ed
Ġblank ets
Ġrabb its
gi ven
Ġsum mon
Ġhonest ly
ĠCons ervative
Ġpra ise
achel or
hib ition
Ġmyster ious
ĠRosam ond
ĠPitts burgh
Ap ril
4 7
F e
b ast
c ap
p ushes
v als
Ġt ones
ha i
Ġm i
Ġd ried
ĠI D
ĠT R
ĠT un
ĠT AL
Ġbe ats
ĠA z
ĠM ess
ĠM AY
ĠN am
ĠN ature
ĠR u
ĠF ull
Ġso ck
art en
Ġpl ung
ĠYou T
Ġsp lin
Ġv ault
Ġsee king
Ġback s
ĠTh irty
ĠIn vest
Ġfl ock
Ġcount ed
Ġra is
ĠAl ber
ĠTH ANK
Ġsing les
Ġdist ract
iet h
Ġinv al
ĠPr att
ues e
Ġ8 7
Ġcoll ar
AI D
Ġinter rupt
la use
ĠFr ont
Ġsend s
Ġsn ack
Ġcompet e
Ġadm ire
Ġnin th
Ġprov in
Ġknock s
Ġvol can
Ġvers ions
ĠWould n
Ġdescri ption
ĠCourt ney
ĠDen mark
Ġvot ing
Be cause
Ġintern al
Ġmor al
ĠTre vor
Ġinvol ve
Ġexperi ences
Ġaband oned
Ġamus ement
ĠAbra ham
ĠTennes see
3 3
H ello
J une
M E
S anta
a el
b ot
i Äĩ
o ken
r ous
Ġt act
Ġb unk
es h
Ġl t
Ġl ords
ĠT ud
ĠA le
im ming
ĠC oss
ĠC osta
ĠB eth
Ġk it
ĠD onna
ĠR ick
ĠG us
ĠL ower
ĠE asy
Ġsh ill
han a
Ġ( ),
ag raph
ĠU l
ĠSt r
ud es
Ġdis may
Ġchi p
ĠMar shall
ĠAl abama
Ġbus hes
wh oop
ĠCha mber
ĠCl ar
ĠCl ay
pr on
stand s
Ġfire man
Ġ7 7
ĠBen net
rap es
form ation
Ġgra ph
Ġce iling
Ġmur derer
ric ate
Ġ192 7
Ġpuzz les
ĠÃ ī
ĠCo ast
Ġtail s
Ġdiscuss ed
ĠJul ia
bu ilt
Ġden ied
Ġdig ital
Ġstrugg ling
ĠFar mer
ĠCO VID
Ġconsequ ences
Ġunfortun ately
Ġwhist le
olley ball
ĠRANG ER
ĠDevelop ment
B A
B O
S IG
b by
d ers
n in
s ie
w all
x ed
Â Ĥ
Ã ®
Å ¡
is se
Ġo be
Ġd ynasty
Ġf iring
ĠS em
ĠS ue
ĠS ax
ĠS PE
ĠM and
ke e
ad elp
Ġn arr
ĠC ape
ĠB ucking
ĠP oly
ĠN on
ĠN ation
ĠL or
Ġsh ots
ab led
ĠSt ark
Ġfl ames
anna h
Ġsm iles
ect or
ĠMar vel
Ġpre v
Ġheart ily
pr ise
Ġsent iment
Ġmeet ings
sh out
ĠLe ader
Ġ8 6
Ġass umed
Ġtele gram
Ġquestion ed
Ġsn iff
Ġcor re
Ġcor respond
Ġz one
Ġpen al
ĠIndian a
Ġcre ep
Ġtor t
Ġcult ural
Ġbeha vior
Ġdeterm ine
Ġcong ress
Ġphilos opher
Ġdistur b
ĠGro ver
sal ami
Ġelev ator
Ġinfe ction
Ġadministr ative
Ġtiss ue
Ġhamb urger
Ġdeput y
Ġambul ance
M e
t ail
w hel
Ġp neum
Ġin aug
at us
le te
ĠS ame
Ġe ffic
ĠM aced
ĠC OULD
ĠB ase
ĠD ays
ĠO rigin
ĠR ot
ĠR ain
ĠG ros
ĠL l
ĠL ip
ĠL ily
Ġso lo
ge ons
ĠK aren
ort ion
Ġcl erk
ĠSt al
Ġcar rot
Ġsha ve
ob i
ung le
Ġlight ed
Ġpass es
Ġfight er
Ġadd ing
Ġcoll ap
Ġlay s
ĠTr acy
ĠBar ry
Ġhar bour
Ġ192 1
Ġcow ard
Ġphys ics
Ġtap es
Ġfoc used
Ġpainting s
Ġcy cle
Ġnic er
Ġconqu er
ĠAri zona
Ġpossess ed
Ġrefe ree
omed ay
Ġfortun ate
Ġpanc akes
Ġoccas ions
Ġbew ild
Ġmagnific ent
Ġendea v
adelp hia
A y
P AU
R o
S ee
b ea
d rop
m oon
n ell
o ft
p ow
r ont
s chool
v ocalization
on i
Ġy acht
ĠT all
ĠS ports
ĠA M
ĠM is
ĠW an
ĠC ro
ĠC urt
ith uan
ĠR en
ĠG U
ĠG ur
ĠG entle
ore t
ĠF el
ĠF inal
Ġshe ets
Ġr oots
os hi
em ed
Ġcon cluded
ne ed
Ġlong ed
Ġmon sters
ĠCl ose
ĠCl imate
Ġrest rict
Ġlo an
ivers ities
Ġsub st
Ġhum ble
ÃŃ a
Ġmusic ians
ĠGe off
Ġexpl ains
Ġformer ly
Ġcover ing
ĠPark man
cast le
song writer
Ġcrack ers
Ġide al
Ġweak ness
Ġgaz e
ĠOw en
Ġconsequ ence
ĠKu wait
ĠFriend s
Ġded icated
Ġsatell ite
ĠSever al
ĠEntertain ment
A ugust
E l
O r
g od
r ace
s ne
s sh
w ord
in ter
on ing
Ġd um
Ġf ict
Ġto ol
Ġp engu
ar ound
at ically
Ġhe ars
Ġh ither
ic ative
ĠT ill
ĠT oh
ĠS ara
ĠA in
ĠA aron
ĠM ight
ĠW ang
Ġst im
ĠB ones
Ġdo ct
Ġas semb
Ġse ed
ĠY ang
ĠY outh
ĠL iver
Ġup right
pp le
ber ries
Ġcl ue
Ġover come
Ġdis char
Ġhapp ier
Ġun w
Ġte asing
Ġcomp ass
Ġsc an
Ġapp arent
iv an
Ġbit es
Ġent ering
co ffee
Ġplan ets
Ġ7 9
Ã© r
Ġthank ed
Ġleg isl
Ġem otion
ĠSe bast
Ġmis ery
ĠNor we
Ġtest ed
cher s
ĠOF F
Ġcond em
Ġvers us
Ġlift ing
Ġengine ering
ĠUS A
Ġcomb ined
ĠSer geant
ĠHall oween
Ġamaz ed
Ġregard ing
ĠJud ge
Ġbless ed
Ġtap ioca
ĠCle ar
Ġnurs es
ĠDi andra
IM E
Ġdocument ary
ĠTam il
__ __
Ġguarant ee
ĠMun ich
ĠViet nam
ĠAff airs
? --
Y S
c al
d ial
d ale
l k
o cc
r ome
u ros
v able
Ã ¸
Ã Ł
Ġc od
Ġd ies
Ġd umb
or ation
ĠI llustr
Ġy ep
Ġin fin
ic ates
ĠT ob
ver ty
ac ter
ad ise
ĠB att
Ġk no
Ġk ettle
Ġse w
ĠY ears
ĠP ow
ĠP RO
ĠN ope
ĠG reg
Ġso ber
Ġj unk
Ġde ed
Ġtr icycle
ia h
ĠIn f
Ġwr ist
Ġsha res
iv a
ĠAll en
Ġbus es
Ġsw ung
Ġent itled
Ġsk i
Ġ6 4
Ġ8 3
Ġtre ason
ĠWh it
ĠWor ks
ĠMan ager
Ġem peror
GR UNT
Ġya wn
ĠNet work
ĠTur in
Ġrepresent ing
Ġguard ian
Ġï¿½ï¿½ï¿½ï¿½ ï¿½
Ġcart oon
ĠSuper man
Ã¨ s
Ġcrown ed
ĠKat hy
Ġindivid uals
ĠSong s
ĠShan e
ĠNa omi
Ġsquir rel
Per haps
Ġliqu id
" --
S e
U P
b ag
b ian
c ook
p arent
Ġt ug
Ġw ax
re ly
er a
Ġm ike
Ġc ouncillor
Ġo ption
Ġg reed
ĠT ren
Ġwas ted
ot es
ĠH at
ĠC ru
Ġas pir
Ġwh ining
ill es
ra it
Ġdon ÃŃt
Ġab rupt
ink le
Ġro sy
ĠV ic
uck ed
Ġpo verty
Ġsha pes
Ġhel icop
Ġcont ents
Ġcour ses
cha e
Ġdifferent ly
Ġrest ored
Ġsong writer
Ġhigh way
Ġcap acity
Ġtra pped
ĠCar lo
ole on
Ġem br
Ġsal ary
ament al
Ġ17 8
Ġeng ines
Ġlad s
Ġabs urd
ĠCH R
Ġang rily
mo vie
Ġappear ances
Ġdecl are
Ġtrad ing
Ġsli ppers
tr ouble
Ġident ified
Ġopport un
ĠCamp bell
Ġhistor ian
cul es
Ġliter ary
Ġfund s
Ġcy cl
Ġmaid en
ĠArab ic
Ġjun ction
scream ing
Ġadvert is
Ġrank ed
ĠPortug uese
Ġcitiz en
pol es
Ġfant asy
Ġunp leasant
Ġearnest ly
Ġmurm ured
Ġsyll able
ĠColomb ia
Ġlandsc ape
hoen ix
B en
C ol
J ack
M arch
P ING
c ott
r ican
r Ãª
Ġa ster
in ny
it ated
Ġm ent
ĠT iger
Ġbe held
al us
ĠS P
Ġre he
Ġre bell
ĠC old
ĠB ald
Ġk ar
all as
Ġgo sh
ĠN ear
ĠL is
op ed
ĠF ace
Ġall eg
ĠE b
Ġab ilities
Ġcom ic
ak s
Ġv on
Ġtw ist
Ġcl ar
Ġcl ick
Ġbl own
Ġgr im
Ġcha lleng
Ġpo em
Ġch orus
âĢĿ .
Ġdr am
Ġstr ateg
Ġfar ms
Ġwalk ie
uff s
any thing
ĠEd ge
Ġred uce
ĠPh ill
ĠLe ban
Ġprom otion
Ġlaw yers
Ġswe ater
Ġpar as
Ġsecret ly
Ġprotect ing
Ġdesign er
ĠMad rid
ĠPort ia
ĠTri pp
bet ter
Ġsens itive
sl ow
ĠMinn ie
Ġfold ed
draw s
Ġnomin ation
Ġqual ified
fortun ately
ĠAndrew es
Ġflo ating
Ġmort al
Ġgather ing
Ġwarri ors
Ġpops icle
ĠTreat y
ĠExec utive
ĠVeg as
ĠForrest er
A W
c ame
c od
m are
n or
w itz
Ġt el
Ġt enth
in ch
Ġb ib
Ġm onsieur
Ġc ure
Ġc unning
Ġto mb
ed a
as al
ĠS K
Ġwas ting
ir k
Ġst ake
Ġst are
ĠH ood
ĠH Ã¶
ĠH omer
ĠC AR
ĠB ureau
ĠD ude
ĠP atch
ĠP elle
ĠP arson
ĠL ow
ĠL ive
ĠF un
Ġso il
ĠJ i
ab oo
em et
ck ets
Ġcon ver
Ġover whel
Ġbr ace
Ġam used
fore st
Ġfl ows
Ġcha ins
Ġcomp re
ons in
do ors
ĠAl b
Ġdoor way
ĠZ ach
Ġent reat
Ġsk ull
Ġint end
Ġext rem
Ġpar agraph
ĠChar le
ĠSe ason
enn is
ird rÃª
ĠChe er
ĠAny one
Ġdeep er
ĠSy ria
Ġshar ply
ĠChan cellor
ĠCr im
Ġut most
ĠReg ional
ĠMed iter
aps ed
ĠBat man
isc onsin
Ġassist ance
umber land
Ġplant ed
ĠCat al
ĠVal entine
ĠUk rainian
ĠHu gh
ĠZe us
ĠKar l
ĠLo ire
Ġbitter ly
ĠLar ry
rane an
Ġunf air
Ġlung s
Ġinse cts
ĠChag mouth
ĠNorwe gian
) :
G et
b ul
e f
w ent
w iches
â ģ
Ġa irl
in clude
Ġw ool
Ġw iped
er ies
Ġb owed
Ġm ast
Ġf et
Ġf ir
ic cup
us ter
ow ulf
im i
Ġn y
ri ved
Ġst y
ĠH ail
ĠC ow
st eps
ĠThe o
Ġnot ion
ĠP hys
ĠL im
ĠL ock
Ġj ar
Ġcan al
em ois
Ġsp ank
Ġsp aces
au ce
ĠK h
ĠK er
Ġtr actor
urn s
Ġcar ries
let t
let ics
for mer
Ġpre ced
vent h
ĠDe irdrÃª
ĠEng ine
Ġcol umn
Ġpass port
Ġlater al
ex cept
ounc ing
idd les
ĠPro ject
Ġform al
Ġadv is
ĠWar ner
Ġ17 9
Ġcamp us
Ġobject ion
Ġclean er
ĠComm and
Ġtest ing
ĠWal ton
Ġeduc ational
Ġwat ches
Ġlock s
ida e
ĠPat ty
sm ith
Ġur ged
ĠRock y
run ning
Ġsch olars
Ġant icip
Ġghost s
ĠAk ari
bab bles
Ġexha usted
ĠNap oleon
ĠRab bit
Ġstead ily
Ġinterfe re
Ġanch or
Ġcust ody
ĠMediter ranean
emois elle
A unt
P oor
R ob
d ow
d em
d oll
p any
p osed
r ud
in um
Ġw ives
Ġd ow
Ġf ury
or gan
et to
ĠT an
ĠS id
ĠS end
ĠA F
Ġst adium
ĠB ACK
ro id
ĠF a
ul us
hi pp
Ġqu e
ĠTh ou
be gins
up er
Ġco ins
Ġad just
Ġcont empt
Ġown s
ail ing
Ġread er
Ġcol ony
Ġ6 7
rog en
Ġ9 2
ĠPer fect
Ġswe at
Ġswe ep
oth s
Ġwa ving
Ġ192 4
US E
Ġnorth west
Ġsuggest ing
Ġemp ire
ĠMc G
ĠWH Y
ĠChan t
Ġ191 8
Ġsex y
mag ne
Ġemploy ment
Ġstrugg led
Ġtax es
ĠWind s
Ġpan ic
Ġveget able
ĠColumb us
Ġprefer red
Ġbuck s
Ġmeas ures
ĠCON T
Ġgal axy
Ġdisag re
lem me
Ġdiscipl ine
ĠRea gan
ĠLiver pool
âģ Ħ
3 2
3 6
F rench
I VE
V al
f ood
m ust
r ated
v ideo
Ġa y
in ations
Ġb ury
ed y
Ġg ender
Ġl ing
Ġin ject
le af
al ong
ot ic
ri fic
Ġre ception
Ġre indeer
ĠC reat
ch i
Ġ- ï¿½
ĠL augh
ĠL anka
Ġcon ferences
od ox
ag a
Ġbl ade
ĠIn gle
ĠV ik
Ġun success
Ġco in
Ġsha ving
ip ur
ĠBe owulf
Ġmag ician
Ġmom ma
Ġrest ed
Ġinv isible
Ġ8 9
Ġ9 5
Ġaw ait
Ġmed als
Ġcolor ing
ĠPhil adelphia
Ġcur ls
Ġpar cel
Ġhang ed
Ġterri fic
Ġvis its
Ġexam ples
Ġ190 8
bur ps
ĠCont in
lig a
Ġple be
ĠPict ure
Ġutter ance
Ġdistur bed
Ġanno yed
ĠHolly wood
hors es
Ġshepher d
lah oma
ĠCharle magne
4 6
A m
N O
m umbles
o ving
t ook
Ġt ents
he e
Ġw aking
Ġb ri
Ġm amm
Ġd ip
Ġd iet
Ġf ount
an tern
ĠT rem
al ion
ĠS OME
ĠM oney
ĠW isconsin
se a
Ġfor given
Ġst ressed
ĠC ra
ĠC ord
ĠC ASE
ĠD ue
ĠO ri
ĠO VER
ĠG Ã¼
th day
os er
os ure
Ġsp onge
Ġv i
ass ie
ile en
Ġad j
Ġpo ckets
iz ard
Ġsl ain
Ġend ure
Ġrec y
inn ie
Ġmar vell
Ġside walk
ĠEr nie
Ġcap s
Ġaw aken
Ġrock ing
Ġexpl ore
Ġfil es
Ġhuman ity
Ġmeant ime
cri bed
Ġ192 3
hin oc
Ġstri king
AP P
Ġlau ndry
Ġeffect ive
ĠHa ven
ĠLi zzie
hand ed
ĠMed ical
ĠSal v
Ġallow ing
fin ish
Ġbound ary
Ġsuit able
Ġble eding
Ġsch olar
ĠPope ye
Ġ/ &
ĠSocial ist
Ġcontr ast
Ġbend ing
Ġopt ions
Ġdea f
ĠPolit ical
ĠNotting ham
Ġdiagno sed
ĠYouT ube
N ay
T ake
b ble
c ies
i ently
s ays
re aches
Ġb in
Ġb acon
Ġy og
Ġg er
Ġl yrics
id ency
ĠM USIC
ĠC ole
ĠB eng
ro it
ĠD A
ĠP un
ĠN ame
ĠN ancy
ant h
ct ures
ĠO scar
ĠR io
ĠF anny
Ġr oo
Ġr and
Ġr ates
ink s
Ġcon text
ap ore
ĠK ind
Ġex hibit
-- _
Ġgr am
Ġer ase
ĠNo v
Ġday light
Ġfl ushed
Ġsha ped
Ġapp oint
Ġsl a
Ġsupp lies
ĠRe id
Ġsur render
Ġreg ister
Ġrest less
Ġ5 5
Ġcoll abor
ĠWh oo
ham es
ĠPl us
Ġmess ed
Ġstar ving
Ġbow ling
Ġsuccess or
Ġsuccess fully
Ġval ues
ĠAld ridge
Ġfort night
Ġspirit ual
ram id
Ġdoc uments
ĠNat al
Ġarrange ments
Ġcontr ary
Ġsuspic ious
ĠRub ens
Ġcurtain s
Ġestablish ment
ĠStu art
Ġtomat o
Ġgard ens
Ġscat tered
ĠHoll and
; &
A EW
B et
B ob
C on
C LI
P e
Q u
d ose
f ree
g ate
g raph
k ar
p ast
t it
Ġ Å
Ġm ant
Ġd ang
Ġf oss
ar n
Ġh ob
ĠT est
ĠT ai
ut ed
ĠC ob
ĠP am
ant e
ĠR ider
ĠR iding
th odox
ĠF ederation
ie ge
ain ted
ul ating
ack ed
Ġsp ear
fe ld
ĠK o
ĠSt ub
ĠSt aff
Ġtr unks
Ġbr ide
Ġer ror
Ġfl ame
Ġfl av
ors hip
Ġser ial
ĠAl ban
ens ity
ĠNew ton
Ġfr own
Ġhat ch
Ġlo ads
Ġ8 4
Ġconf ront
bb ie
Ġpar ish
Ġmis under
cher ry
Ġprop ose
AM E
Ġmad am
Ġoffe nded
Ġremark s
Ġpun ish
ĠScot ch
Ġpurp oses
Ġsmell s
ĠBoy s
Ġstock ing
Ġstrawber ry
Ġdistribut ion
Ġbang ing
Ġpan el
Ġwrest ler
ĠBud d
ĠSol omon
Ġinit ial
Ġarrange ment
Ġdump ed
ĠIm per
ĠOb viously
Ġelectric ity
Ġprem ie
elephan t
Ġignor ant
Ġdisgr ace
Sec ond
Ġinval id
sne ezes
ĠTren with
emet ery
C har
L ittle
S p
u ine
v ol
Ġ `
Ġt um
as hi
id en
id oscope
ĠS W
Ġst ub
ĠY ES
ĠP ART
ĠO range
ra ge
ĠG aul
th in
Ġj et
ack ing
ort al
ass y
Ġevery day
te le
ug uay
Ġcont aining
Ġres idence
Ġel im
Ġcomm enced
Ġsupp orters
ale idoscope
Ġsmall est
ĠPr ison
ĠGu ess
aterpill ars
Ġgovernment s
Ġforget ting
Ġcop per
Ġappro val
Ġwhis pers
Ġlaughing ly
Ġneighb ours
OW N
talk ie
ĠRo om
ĠSu zu
ĠPen ny
ĠCong ratulations
ĠApp le
Ġbless ing
Ġstream s
Ġsouthw est
ĠOk lahoma
Ġspecific ally
ĠRa oul
De cember
ĠUr uguay
ĠBelg ian
Ġhipp opotamus
Ġancest ors
Ġmob ile
ĠGw en
Ġchrist mas
Ġhosp itals
ĠTog ether
M ummy
O K
T r
g one
l ad
p res
z ard
ou ches
Ġs oo
is ode
Ġc odes
Ġd ict
an oke
or p
ĠI mm
Ġp ope
ĠS CH
ĠA bb
ĠA venue
ĠM ade
Ġwe ars
ad i
ĠC ensus
ro ck
Ġgo vern
ĠD om
ĠD ig
if ted
ĠO ber
ĠG ON
ĠL ithuan
op ol
Ġ1 000
Ġpl ug
ĠK on
ud ding
ĠV ERY
pl ed
pl astic
Ġun employ
ub a
hen omen
ĠUn fortunately
Ġcr ushed
li ad
Ġsec ured
Ġcare less
Ġra v
Ġbre ed
Ġcol onel
Ġ4 2
Ġreg istered
Ġdri pped
Ġfire place
Ġind ul
Ġind icate
Ġind igenous
Ġspo il
Ġlo aded
Ġfight s
Ġfight ers
aul ts
ÃŃ re
ices ter
Ġclass room
Ġgra bbed
Ġpot s
col m
Ġhang s
Ġsand wiches
ĠLord s
Ġav o
boy s
ĠMarc us
ĠLi br
OO L
ĠEliz a
Ġinvestig ate
Ġopin ions
Ġattract ive
Ġunc ertain
ĠMount ains
Ġoccasion ally
Ġpeas ant
ĠBre nda
Ġguitar ist
Un cle
ĠFle et
Ġdistingu ished
ĠIce land
Ġvow el
ĠManor ama
dinos aur
Ġfict ional
Ġopportun ities
ĠIngle by
C hant
G y
N ord
P l
P oss
S h
V EN
b ia
c ery
f ar
g un
n ity
o ca
y on
Ġt u
Ġb ust
Ġb ail
Ġm and
Ġto re
or able
en os
ay ne
ve olar
ĠT ELL
ĠS ave
ĠM amma
am ount
ĠC ut
ĠB ach
ro qu
Ġas hes
ĠD oc
ĠP ull
ĠP rem
ĠR ic
ĠL ucky
Ġr ounds
Ġr ows
Ġpl um
Ġv ia
Ġex ists
uh hum
Ġro ar
ĠSt range
ĠSt adium
man y
Ġcar rots
Ġpo ly
Ġnever theless
rain ed
Ġacc ord
Ġfr uits
Ġfr icative
Ġ4 7
Ġri p
Ġspo iled
Ġanim ation
Ġ7 4
ĠGood bye
ĠPres ently
ĠAm aru
Ġbath tub
yl um
Ġdevelop ing
AY S
Ġarri ving
Ġhast ened
mon key
Ġlie utenant
Ġdiscuss ing
str ong
Ġ191 2
Ġden y
Ġaccom mod
Ġwag ons
Ġbull ets
Ġtou ches
ĠÂ £
only include
Ġir rit
ĠBur ton
Ġgaz ing
Ġdisp ute
Ġpros per
Ġsched uled
Ġfrequ ently
butter fly
ĠEwo k
haus en
ĠLl oyd
ĠGON NA
O ld
V D
d ese
f an
j ud
l ots
m aker
n k
s aus
Ġd ug
Ġf isher
Ġg est
Ġin fect
ĠS or
ĠS ection
ĠA e
Ġe agle
ĠW ien
ĠC er
ĠC ant
ĠB RO
all ing
Ġan k
ĠP sy
il st
ĠO tt
ĠR an
ĠR up
ĠL am
Ġcan cell
ĠJ E
ig ration
os is
Ġsp ed
ĠK l
ort ing
-- -
AR K
Ġcl aws
Ġro be
hy ll
pl ing
up t
cc oli
cl osed
Ġch uck
Ġlea p
oc ation
Ġmin es
Ġatt ach
Ġpres um
Ġelse where
Ġpre y
Ġ4 8
Ġchar m
Ġlight ly
Ġmil it
Ġreg iment
Ġ5 6
ĠEr in
ĠSc out
Ġ7 6
ĠLe ft
Ġsign ature
ÃŃ ng
Ġwand ering
umb ers
ik i
ĠCon stant
iam i
ĠPl at
Ġbat hing
Ġfree ly
Ġfree zing
Ġwa ist
Ġfear ful
Ġmembers hip
ĠMer cer
ĠEle ct
Ġproduc ing
ĠMad ison
Ġvol umes
Ġproud ly
Ã¼ r
ĠEll a
Ġexam ination
ĠOther wise
Ġinflu enced
ĠJon athan
Ġsurround ing
whe el
Ġterrit ories
ĠAsh ley
Ġfare well
ĠRh ode
ctic ut
ĠFinn ish
Ġslee ve
Ġbund le
ĠEmm a
onom ous
Ġpneum onia
ĠToh no
. =
. ?
4 9
: //
G O
b ear
b ai
c op
c hen
e ur
l ater
v ate
w y
ha lf
Ġb orne
Ġd il
Ġf u
Ġf ert
ĠI roqu
es ar
no ld
ĠT hames
ĠS OM
ĠA BC
ow l
ac c
ri el
ĠW o
ĠW itch
ĠY as
ce line
ell ing
ĠR ah
ĠF ab
Ġal ert
ck y
fe el
ĠK ay
ĠK enn
Ġ19 19
Ġcl in
Ġle an
ĠTh under
Ġbr ook
Ġdis gu
Ġun ited
Ġsha ft
ug oslav
Ġper il
iv ated
Ġsl ides
Ġrec o
br own
br ush
enc ing
Ġri pped
Ġtri ps
Ġsub stant
Ġprom inent
Ġconf ession
ĠEnglish man
Ġdisc ont
Ġclear ing
ĠPro v
Ġquestion ing
Ġfix ing
Ġstri p
hel m
Ġexcept ion
Ġjud ges
Ġ191 3
Ġ191 4
Ġchief ly
ĠSer iously
ĠBill board
ĠSing apore
Ġrom ance
Ġremind ed
ĠWel sh
Ġchap ter
Ġvent ure
Ġdelay ed
Ġbeast s
Ġtechn ical
Ġpersu ade
Ġze bra
Ġcert ified
Ġpul se
ĠIns pector
ĠCharl otte
ĠAdmin istration
3 9
G B
G AS
[ -
b asket
e ye
f if
r ice
s ame
he ard
Ġs addle
Ġb a
it is
is ation
Ġf ranch
ar ation
Ġl ust
et he
Ġth ine
ĠS ac
ĠA us
ĠM uch
ĠM iami
ĠW OULD
ĠW OMAN
ĠP G
ĠO z
ĠG ene
ĠL eah
ĠF itz
ĠF arm
ĠJ ura
ol ation
ig ation
os a
Ġcl asped
be ep
Ġyear lings
Ġun iversities
Ġcomp ound
Ġcomp ens
ĠCh in
Ġcr ush
ĠNe il
Ġcount ies
ling ton
Ġsw ords
uff ed
Ġremember ing
ĠEd mund
clud ing
Ġ7 8
ĠCar ly
Ġspe cially
OR T
ĠEl sie
ĠSh in
bl ocks
Ġvill ain
Ġsurpr ising
Ġarm or
ĠGl en
Ġdesign s
CH EL
Ġperfor ming
Ġaff ricate
Ġdam aged
Ġap ost
Ġfat al
ĠFred dy
book s
Ġshad ows
Ġcalm ly
Ġbi ological
Ġpurs uit
ĠBack ground
ĠBre ak
Ġrat tle
ĠBern ard
Ġwealth y
Ġjew els
OP LE
girl s
Ġdistingu ish
ĠNE ED
Ġmanufact ure
elephan ts
ĠJohan n
Ġgrat itude
ĠNin ja
ĠBry ce
ĠCase y
ĠConne cticut
Ġtad poles
intellig ible
Ġpenal ty
ĠChant illy
A G
P ro
f aced
g or
m ir
m ie
n on
p ic
u um
z ar
Ġb idding
Ġp airs
Ġg rapes
Ġh ind
ĠT han
ĠS V
ĠS aid
Ġwe lf
Ġst ing
ĠB ri
all el
ur m
Ġwh ip
ĠP il
ĠN av
ell er
ĠG RE
Ġall igator
Ġj azz
ĠJ ill
ink led
ak o
ag en
Ġnow adays
Ġro d
Ġbl ues
Ġgr ind
Ġen sure
Ġwr ought
Ġun re
Ġchild ish
Ġper pet
Ġch ir
Ġstart led
ĠMar iana
Ġfound ing
Ġgl ove
ĠDe rek
Ġdiffe rences
Ġmar gin
Ġmar ching
ĠJust us
Ġcons on
Ġbeaut ifully
ĠSp ace
Ã© mon
UN D
Ġrep orter
Ġ9 3
Ġaw hile
Ġhope fully
Ġdeal t
Ġ17 7
Ġdepart ure
ĠGl ou
Ġtit led
Ġgen uine
Ġcompl iment
Ġlim bs
Ġdar ing
Ġcell ar
Ġphys ician
ok Ã©mon
Ġexam ined
ĠBill ie
erg arten
ĠDen ver
Ġqual ities
ĠSur v
Ġpeas ants
Ġtour ist
ĠBea u
Ġheight s
Ġconcern s
ĠJam ie
Ġsevere ly
ĠTrans port
ĠCla ire
ĠRap id
Ġimpati ent
Ġswift ly
Ġrhy th
Ġembarrass ed
Ġpir ate
ĠBrig ade
igr ants
Ġapprox imately
Ġimprison ed
Ġcigaret te
ĠPalest in
Jan uary
Ġannounce ment
ĠFranco is
Ġscramb led
Ġsear ched
Ġsplin ter
rican e
Ġrehe ars
Ġwelf are
: --
R D
S H
S AN
W A
h ouses
l ord
p ict
t is
v ak
Ġs ed
ha ired
Ġm hm
Ġp ap
hat tan
Ġl y
at al
le my
Ġbe gg
Ġbe hold
ĠA men
ĠW AY
am pton
ĠC ertainly
ĠC EO
ĠB ag
ur red
ur ation
ĠY e
ĠP om
ĠP ick
il and
ĠN ico
ĠL anc
ĠF UCK
Ġcan vas
Ġr ic
est ly
ck er
Ġor chestra
Ġv ocal
Ġwho lly
Ġmore over
we ight
so on
Ġen qu
up iter
Ġdis like
Ġfl ip
ret urns
ix on
Ġsha w
Ġsha ring
Ġhouse keeper
ĠBr id
gg er
Ġsl am
Ġbot hered
ĠAl pha
ph in
Ġtri ump
ON G
Ġtra gedy
Ġass um
Ġprom ising
Ġ9 8
Ġpubl isher
got ta
Ġwand ered
ham med
fl ower
Ġcho king
ï¿½ï¿½ï¿½ï¿½ ï¿½ï¿½ï¿½ï¿½
Ġmess y
Ġdem ocracy
.' "
Ġmod er
ĠDan i
oura ble
Ġquar rel
Ġactiv ists
ĠWH EN
ĠQu ick
ĠMed al
pret end
Ġcrack ed
Ġbrain s
ĠGO ING
Ġchem istry
ĠMount ain
ĠCarol ine
ĠWall ace
ĠLeon ard
hara oh
Ġcraw l
ĠCorpor ation
ĠSic ily
Ġterrif ied
Ġproced ure
ĠBuild ing
ĠStub bs
Chant illy
4 8
D a
D IA
N ovember
P L
S PE
e or
h it
n ick
p ower
s uch
Ä ±
Ġ iv
he ro
Ġw ages
Ġc el
Ġd oo
Ġd ent
Ġd iver
Ġf ries
at tle
Ġhe m
Ġhe ir
le vant
Ġha vin
ĠS low
ĠM ap
Ġre nd
ĠW ake
ĠH ou
ĠC oc
ĠC inderella
st icks
ĠY ugoslav
ĠO re
ĠR est
ĠR ound
ĠG ate
ĠJ ason
ul ia
est yle
Ġcon vince
ĠK och
Ġag ony
ĠTh orne
Ġam id
âĢĻ .
ret t
Ġcomp rom
ĠWell s
ĠMar x
Ġcount en
amp a
Ġcour ts
pect ive
Ġcol ours
Ġkill s
ĠChrist a
Ġ8 2
Ġten se
ru cture
ĠPro gram
ĠEx pl
ĠWith in
Ġfast ened
was her
amb ling
Ġwild ly
Ġpencil s
Ġbelong ing
ĠAust in
Ġcompl ications
ĠMad ame
ĠRob inson
ĠMic ro
writ es
tr uck
Ġconcer ning
Ġstock ings
ĠJos celine
water melon
Ġcam el
Ġess ential
zer bai
Ġcandid ates
Ġinit ially
Ġcritic ism
Ġdivor ced
Ġconv ict
ĠAra gon
Ġaccompl ished
ĠIndepend ence
Ġconscious ness
Ġsauc er
Ġexplos ion
Ġcateg ory
ĠRag gedy
Ġtus ks
Ġange ls
Ġearthqu ake
' '
5 5
C I
T om
h r
h ou
i ate
l ene
n atural
p ack
s its
t ea
y an
er ness
Ġm ode
Ġc able
an as
an uts
es liga
Ġg oo
Ġl end
Ġl azy
Ġl antern
Ġin ton
le ment
ĠT E
ĠT IME
us ions
ĠS no
ĠS af
ĠS oph
ĠS ciences
ĠA ires
oo ting
oo ping
Ġn ails
Ġn erves
ĠW es
Ġst em
Ġst ages
ĠH us
ĠC roat
ĠB L
ĠB AB
st ep
ch y
ĠP E
ĠP ardon
ĠG ang
ĠF ood
ĠE t
ĠJ ournal
est ed
itt in
na il
ate ur
are r
ud a
ĠV is
ĠV ir
Ġcar ved
Ġcomp are
Ġpo ems
li est
ĠBr itt
ump y
Ġra pt
ned y
Ġ4 1
Ġheart y
Ġsk ipper
Ġind icated
Ġlo ft
ĠLook ing
Ġprom ote
Ġprom ises
ĠMom ma
Ġattack ing
Ġglad ly
Ġadm ired
Ġton ic
Ġcorn ers
Ġnor theast
ĠTed dy
Ġrequ ires
Ġtast ed
Ġboard ing
ĠMad emoiselle
ĠCr us
Ġvers es
ĠCor ps
Ġfright en
Ġobs ervation
ĠEll is
ĠDar th
ĠMet ro
Ġcondu cted
Ġinqu iry
Ġtravel s
ĠBu enos
Ġbump ed
Ġfac ilities
Ġvessel s
ĠBrook lyn
Ġdesert ed
ĠVen ice
Ġinstit ution
ĠAmb assador
Ġmathemat ics
ĠIndepend ent
Ind eed
Ġsam ples
ĠMu hammad
Ġprompt ly
Ġconspir acy
Ġbarr acks
ĠPerse us
Fe bruary
ĠWan aka
ĠHÃ¶ ss
ĠSOM ET
1 00
E ng
W ould
f olk
i per
w estern
Ġ ï¿½ï¿½ï¿½
Ġt id
Ġw o
Ġs or
is ure
Ġc rab
ĠI da
ar ter
ĠS om
ĠS andy
ut ches
ĠM ine
se en
ĠH annah
ĠB ed
all i
ch witz
ĠP and
ĠP hoenix
ĠN ak
ĠN ag
ĠG oo
ĠG onna
ĠF L
ĠE ars
our ing
ĠJ upiter
ul es
Ġr ider
ack er
Ġal ter
ab s
ig i
ig s
what ever
em p
na p
qu it
Ġsp ared
Ġv ague
au do
Ġex quis
Ġro ast
Ġbl oom
ĠWe b
ĠBut ton
be an
ĠBr on
Ġread ily
Ġche ering
ĠBe ast
cle ar
Ġreal ise
Ġac id
Ġfr act
ĠCan on
ĠCl inton
ĠEr nest
Ġ6 6
Ġ6 8
Ġ6 00
umb s
ĠMan hattan
ĠCon st
ĠJo on
ĠPl ot
Ġmess enger
Ġmur ders
Ġdev ices
Ġrad iation
Ġshar k
Ġmid field
ĠDes p
Ġphys ic
Ġemploy ees
Ġyell ed
Ġremem b
Ġcart oons
ĠWil helm
Ã¨ re
Ġdefend ing
Ġimm unity
Ġcustom er
Ġpig s
Ġswing ing
ĠStan ley
ĠBan ks
Ġcontribut ion
Ġaim ed
Ġlink ed
ĠIraq i
ĠUs ually
ĠFre eman
Ġmaintain ed
Ġprinci ples
Ġoccas ional
Ġorganis ation
ĠFollow ing
Ġemot ional
ĠFern ando
Ġlemon ade
Ġtoss ed
ĠProtest ant
wor ld
Ġdoct rine
Ġkar ate
saus age
ĠIroqu ois
audo is
B o
B ar
F UL
G u
G ive
M ichael
U G
Y ea
c ular
d ed
d ict
d aughter
l w
m uch
n ia
Ġs ib
Ġb ully
Ġc ush
Ġd amp
Ġf itting
Ġf oul
an ie
es ame
Ġp henomen
Ġl iner
as ping
al ian
al og
ĠS leep
ĠM oo
Ġme ets
ĠP ine
ĠP ont
un ter
ĠO nt
ĠG as
ie ves
ab ber
ig ious
Ġv irgin
Ġv audois
ĠAnd erson
Ġtr im
Ġtr aces
Ġbl ond
Ġqu aint
Ġwork er
Ġgu ilt
hm an
ress es
Ġcha lk
Ġco b
Ġapp lause
Ġcr ashing
Ġbo iled
als etto
Ġsil ently
ump ty
Ġmag ical
ĠAr ist
gr im
pr ints
ĠEx cellent
ĠEx press
ĠFr ampton
angu age
Ġconst ru
AS S
Ġsnow y
ĠCH E
Ġspell ed
Ġstri pes
ĠSm all
Ġang le
Ġgar ments
Ġsum mit
Ġoccup ation
Ġpurs ue
ĠAtl antis
Ġcompos ition
Ġprepar ation
ĠDet roit
Ġhorn s
Ġtechn ique
Ġhesit ated
ĠJa ime
Ġtremb led
Ġencoura ging
ĠJO E
ĠCa esar
bro ken
Ġloyal ty
Ġbetray ed
ĠTech nology
Ġacknow led
nat ured
Ġdeliber ately
ĠHil ary
Ġgrav ity
Ġobe yed
Ġny mph
hinoc eros
Ġrand om
ĠRup ert
ĠKenn eth
, .
N ana
O ctober
P H
b ank
d one
g imme
m ama
p erson
t ier
u is
Ġ Ä
Ġw ider
ha p
is i
Ġc ubs
Ġc aterpillars
Ġy ummy
Ġp ow
Ġp ail
Ġp ills
Ġg ear
Ġl ent
Ġl ament
om ic
le aves
Ġon ion
ĠT RE
us cript
ĠS eth
ĠS aud
se in
ĠC rom
ĠB ros
Ġu ng
ch oo
Ġse lect
ĠP ent
un ition
ĠR al
ĠR anger
ĠL uther
ĠF IR
ĠJ ama
ab ilities
ink er
Ġv ul
ĠK in
ĠK ath
ag ne
ĠU H
Ġqu ote
we y
Ġafter ward
Ġunder ground
cl oth
ah n
Ġlea k
Ġbelie ving
ES E
Ġrel uct
Ġlist ing
Ġcons isted
ĠTHE N
OU SE
ĠGr ant
Ġtre acher
Ġass ess
Ġcontin uing
Ġsim pl
Ġbar rels
Ġmoon light
Ġstar red
Ġcor rupt
Ġpublic ly
Ġarm ies
Ġabs ent
Ġkiss es
ĠQue ens
Ġsuggest s
ĠBaby lon
ĠQu ite
Ġhost age
ĠJes se
Ġver se
Ġaccom pany
Ġscream ed
Ġcheer fully
ĠMur ph
Ġflight s
Ġrough ly
Ġpra ised
Ġbuck et
Ġaston ished
Ġrevolution ary
uzz le
Ġinher it
Ġtrave led
Ġresign ation
Ġtreas ures
ĠBennet t
Ġhelicop ter
oca ust
( '
0 20
G rand
I X
L ea
c ars
k u
s ung
Â °
Ġa le
Ġs way
ha pp
is en
Ġd ash
Ġf est
Ġf itted
Ġto ll
es cope
Ġhe dge
Ġha unted
et ing
et ers
ĠS ER
ĠA er
ĠA zerbai
ĠM um
ĠM unicip
ad ers
Ġre named
ĠC R
ĠB urt
st range
Ġu no
Ġme lt
ĠY E
un es
ĠG on
ĠG arden
ĠL av
ĠF rey
ĠF RI
um an
ĠE at
ĠE ug
ĠJ asper
Ġr att
ab ad
el and
Ġv ine
ap ted
Ġpe el
Ġpe ek
Ġro bbed
ci ed
Ġthr ows
ull ivan
Ġcha sed
Ġad apt
Ġsha lt
do zer
Ġser geant
Ġkind ergarten
Ġear ning
br other
Ġfoot steps
Ġ7 3
Ġref lection
Ġhum ili
Ġste pping
Ġext inct
ĠPer ry
com ed
ĠPar amount
ĠPe bbles
Ġlarge ly
ĠBar cel
ĠWas n
Ġmouth s
Ġdisapp oint
ID E
ID S
Ġpract icing
ĠNet ty
ĠChan ge
Ġ191 7
ĠBel ieve
Ġut tered
Ġmus cle
Ġelect rical
ĠPal mer
Ġcommun ication
ĠPri x
bu quer
ĠMo hammed
Ġdig ging
oph il
Ġtow ers
Ġterror ist
Ġho arse
Ġfac ility
Ġmagaz ines
Ġresc ued
ĠVo iced
Ġvent ured
Ġgreet ed
Ġcomr ade
Ġillustr ations
pur ple
ĠEp isode
Ġcliff s
ĠTak aki
Ġwithdraw al
Ġcher ries
ROAN ING
ĠPed ro
Ġappet ite
ĠCurt is
ĠLibr ary
Ġfranch ise
ĠGlou cester
Ġinton ation
buquer que
G PA
S eptember
S upp
U ARY
W as
d ia
f unny
i ge
k ets
p ink
in to
in ema
Ġw are
Ġthe ories
ha fta
Ġc ul
Ġc uc
ĠI ÃŃ
Ġp onies
Ġl ions
at ha
Ġha bits
ic ular
Ġbe ak
ĠS et
ĠS ound
ĠS ally
ĠA hm
ĠA ms
Ġno isy
ĠM ort
Ġwe pt
ac ement
ĠH OME
ĠC od
ĠB og
ĠB ox
Ġan aly
Ġan alysis
Ġli king
Ġwh ine
Ġwh irl
ĠP AU
ĠN AS
ĠL iter
ĠF em
Ġsa fer
Ġj er
ĠE mer
Ġcan e
han g
est ro
hi es
oh yla
you s
ĠK enny
Ġex cess
Ġwhen ce
ond isse
Ġle isure
Ġco inc
uck er
Ġsm ugg
Ġnight mare
Ġkeep er
Ġacc us
ec il
Ġsit com
Ġrel ay
Ġfew er
Ġ5 1
Ġtri als
Ã© s
Ġ8 00
Ġbar bar
ĠGu er
Ġsqu eak
Ġins ane
Ġwall et
Ġpublic ation
Ġeng agement
Ġdef ined
Ġhar vest
Ġcontro ls
Ġdet ailed
ĠGl obal
ĠAnge l
Ġkn ives
Ġphot ographer
gu ing
Ġhost ages
St ar
Ġbene fits
Ġmarket ing
ĠSure ly
Ġcommun ist
fin als
Ġtick le
ĠBert ie
Ġï¿½ï¿½ï¿½ï¿½ ï¿½ï¿½
every one
Ġartist ic
Ġbang s
Ġsen ator
ĠKent ucky
Ġple bes
ĠTor onto
ĠStud ies
Ġfan cied
Ġscreen writer
Ġintrodu ction
Ġcriter ion
heim er
Ġpersu aded
Ġinstr uments
Ġpurcha se
Ġinfe cted
Ġparliament ary
Ġkidna pped
Ġcou ples
Ġjewel ry
mind ed
Ġtut or
Ro anoke
bea utiful
ĠImper ial
A fter
V I
a o
h ist
l ia
p resent
w s
Ġw oe
Ġm im
Ġm ister
Ġd ub
ing o
Ġp od
Ġh ut
ĠT el
ĠT ax
us o
al pha
ĠA ction
ĠM oor
ion e
ĠB uff
ĠThe od
ĠD ennis
ĠP ink
ĠN ad
ĠN ah
ell i
ĠR ow
ĠG range
ĠL ate
ĠL ost
ĠF ame
ĠE sc
ol o
ol ics
Ġsh ud
Ġsh iver
Ġpl acing
Ġsp ons
Ġv olleyball
Ġtw ent
ĠK wan
Ġpro secut
Ġover board
reat h
be at
ret e
Ġper f
ĠBr istol
Ġcomm a
ĠDe bbie
Ġhard est
OU ND
Ġround ed
Ġlive ly
Ġid le
Ġ7 2
Ã© n
Ġage nda
Ġhum our
Ġ9 7
Ġweek ly
Ġadv ise
Ġcor on
Ġopp onent
Ġeng age
Ġrain forest
Ġstri kes
Ġlow est
Ġpract ically
ribut ed
CH UCK
worth y
gu ard
ĠMor ris
Ġrese mb
Ġpopular ity
Ġfem in
Ġbrave ly
ĠMic helle
Ġexist ing
fin itely
Ġgall e
ĠHor ace
VER Y
Ġgradu ate
Ġstir red
ĠNic ole
Ġpupp ets
Ġconfess ed
Ġinstit utions
Ġdemonstr ation
Ġforb idden
Ġenthusi asm
Ġcann on
Ġquant ity
Ġcaut ion
Ġfasc inating
ĠSpeak er
Ġimpress ive
Ġsup reme
Ġgloom y
ĠIsa ac
Ġassemb led
Ġstrateg ic
ĠPsy che
ĠDesp ite
B LE
L AUGHING
b en
c ca
d orf
f lex
g own
g ans
p ost
Ġw oo
Ġs iege
Ġm r
Ġm ing
Ġc oughs
ing e
Ġl ace
ic it
ĠS we
ĠA j
ut a
Ġre ass
Ġre form
ĠW ERE
am ins
Ġst alk
st ad
ĠY ale
ĠD OWN
AT TER
ĠP A
ĠL ib
ĠE vent
ge red
Ġwhe at
ry n
Ġsh o
ig her
Ġwor ries
Ġman uscript
ĠK an
ag i
Ġsay in
Ġtheir s
ĠTh ought
Ġmake up
ĠV III
ci um
Ġen force
Ġam bit
Ġun ions
Ġcha riot
Ġsc rat
Ġrem oving
Ġact ors
ah hah
ĠMar s
Ġbo il
Ġmin i
Ġgl imp
ĠRe ferences
br id
Ġra z
oun ces
ĠCha se
me ga
Ġstand ards
Ġmet re
ĠSp ider
app ropriate
ered ith
Ġguess ing
Ġpubl ishing
Ġloc ations
Ġexpl aining
Ġdraw ers
ĠTr ue
Ġblock ed
ĠBar nes
Ġce ase
Ġdep th
Ġcast ing
Ã¡ s
Ġow ls
AD Y
Ġcompl ained
Ġ191 0
BR I
ĠLi ving
Ġrespect ed
bre vi
Ġelect ronic
Ġport ray
Ġindust ries
fin ished
Ġscr ub
ĠMike y
ĠME AN
Ġcamer as
ĠDa wn
Ġdefin ition
ĠĠĠĠĠĠĠĠĠĠĠĠĠĠĠĠĠĠĠĠĠĠĠĠĠĠĠĠĠĠĠĠ ĠĠĠĠĠĠĠĠ
Ġchampions hips
Ġacqu ired
Ġprevent ed
Ġintern et
ĠTurn er
ĠPre viously
Ġconv icted
bab bling
Ġautom obile
Ġlif etime
Ġneighbour hood
Ġignor ance
Ġrot ten
ĠKaz akh
Ġecho ed
Ġexpen ses
whoo sh
uer to
Mic key
strawber ries
Ġalle ged
Ġtatt oo
Ġbom bs
Ġrais ins
ĠIllustr ated
ĠWinds or
ĠTrem ayne
ĠNatal ie
ĠAus chwitz
ĠSOMET HING
Ġglimp se
. !
C ap
I l
M BER
S unday
W ait
a pped
c andy
h ran
m al
m ith
t us
t ouches
Ã ¥
Ã ¯
Ä į
Ġs hat
Ġb os
an no
Ġg it
Ġg ap
et on
ĠT ol
ĠS ier
ĠS onia
ĠA ges
ĠM aid
ĠH ob
ĠB U
ĠD al
ĠP O
Ġ- [
ĠR ED
ĠG ail
ĠG lo
ĠF is
Ġr ural
Ġpl ague
Ġsp inning
Ġcon vent
Ġtw isted
Ġex ert
Ġex agger
Ġar chae
we alth
ho f
be e
ĠThat cher
Ġdis order
ĠUn iverse
Ġcont ented
air plane
Ġres ent
Ġfound ation
Ġbo ast
Ġread ers
ĠAll y
ĠRe y
Ġopen ly
tern al
Ġstick er
Ġsecond ary
az ine
Ġpass enger
Ġbro ccoli
Ġsy rup
Ġbas es
ĠFl ight
Ġpay ment
Ġsun set
Ġext ract
Ġext ension
olog ists
oub ted
ĠSha dow
Ġclass ic
ĠSe ems
Ġfil ed
Ġdi aper
Ġclos est
Ġpost ed
ĠDan ish
Ġpress ing
Ġtall er
Ġhost ed
Ġrelations hips
Ġrev ol
Ġdread fully
ĠJud ah
ĠDel hi
Ġrail road
Ġmel ted
Ġheaven s
ĠRog ers
Ġstir ring
ĠWork ing
ĠKen nedy
sec ution
Ġelder ly
Ġcommit ment
ĠLiber al
ĠTW O
ĠNiger ia
ĠCir c
Di andra
Ġconven ient
hams hire
Ġguid ance
Ġplung ed
Ġprovin ces
Ġairl ine
Ġshaw l
ĠAms den
A rab
K e
P eter
_ --
d rew
e xt
g il
i ency
l ied
m oney
o ey
r ust
s igh
s ets
w right
Ã «
Ġthe at
on ian
Ġb acter
Ġd ated
Ġf ret
or ous
ĠT ory
ĠS ign
Ġno ds
Ġn ests
Ġn asal
ri um
am ble
ĠC hen
st own
ch icken
Ġan th
Ġli ver
Ġwh ilst
ĠP ros
ĠP uerto
ĠO UR
ĠL ess
Ġsa int
ĠJ ump
ain ty
ist r
Ġsp an
Ġpro ven
Ġoff ence
Ġtr oop
ĠV ern
ĠV ader
Ġwhere as
Ġsha bby
ĠNe ville
Ġsl im
Ġmin imum
Ġgl o
ĠAll ison
Ġsw orn
Ġfar ming
uff y
az e
Ġbit ing
Ġrest ore
Ġ5 2
ĠAd olf
Ġri ot
Ġass igned
cent ury
Ġins pect
Ġins pector
Ġmod est
ĠChe l
Ġsupport s
Ġdiv ide
Ġru ins
Ġsol ar
ĠAlex and
Ġwel comed
ĠMil itary
Ġcoco a
Ġport rait
Ġprocess ion
Ġthreat s
ĠChristian ity
ĠJud ith
bel ie
ĠCath olics
Ġpool s
Ġaccording ly
Ġnurs ing
Ġremind s
ĠVal er
Ġfra ud
Ġarg uments
Ġpurs ued
ĠNick y
Ġgrace ful
Ġtear ing
Ġcrim inals
Ġprepar ations
Ġribb ons
Ġbark ing
Ġmas ters
ĠMod ern
ĠRus sell
ĠSad ler
bac co
Ġvit amins
Ph one
Ġtherap y
Ġshill ings
ĠBucking ham
Ġabrupt ly
Ġdang ling
Ġcounten ance
ĠSoph ie
Ġrememb rance
ĠBarcel ona
; /
S omet
b ish
c ross
f un
h orse
m ist
m ble
r ide
t ha
Ġ +
in stead
re ne
re pe
Ġs omeday
Ġb ows
Ġd uke
Ġd ainty
Ġp all
at ar
Ġhe el
le in
ĠS ed
ĠA irl
ut tering
ow a
ĠM U
ĠM ah
ĠM ey
ĠM ik
ĠM eredith
im o
ri x
ĠH APP
ĠB ax
ĠD ow
ĠD ob
ĠP ey
ĠL ag
ĠF O
ĠE th
Ġdon ut
Ġde als
ĠHe ar
nt own
Ġex it
ne ys
ĠWe x
ĠTh or
ĠV el
Ġpart ing
do ing
Ġcr ook
ĠMar co
Ġel bow
Ġpres erved
ĠAn s
ĠDe ep
oun ter
Ġbed time
ject ive
Ġlight er
Ġent ers
Ġsk ip
co at
Ġ6 9
Ġ7 1
Ġ8 1
ĠJe re
Ġpresent ation
Ġ9 4
Ġpolit icians
ĠBl ake
Ġste amer
Ġart ific
ats u
che on
Ġprof its
Ġform ation
Ġhorse men
Ġclass ical
Ġcamp ing
Ġcompet itive
Ġeye b
Ġbright er
Ġwild erness
Ġcal cium
Ġimag inary
Ġpat ron
ĠPark inson
Ġban jo
ĠTw in
Ġattempt ing
St ation
Ġthreat ening
Ġdeter mination
Ġsens es
mom ma
Ġregular ly
Ġfund ing
Ġfund amental
Ġnovel s
ĠHol ocaust
Ġgro cery
gress ive
ĠNic ola
Ġpit ter
Ġtransl ated
ĠHaw ai
ĠCub an
Ġarchite cture
ĠTha iland
Ġsolemn ly
Ġdea rest
ĠSupp ose
Ġpir ates
Ġpy ramid
ĠPoll ard
Ġrack et
Ġvel vet
ĠUt ah
Ġagric ultural
ĠArk ansas
ĠBul gar
SIG HS
Ġmarvell ous
ĠSalv ador
ĠOnt ario
ĠFRI END
0 2
= "
D avid
G old
H i
S A
S ea
V OR
Z Z
a ire
c ited
d ig
e qu
e ze
i zz
k iss
l ive
m ers
n ation
p ose
r ub
u ously
Ġa uth
ha ge
Ġf res
or r
Ġg ent
ay e
ĠT ae
ac hy
ĠW ard
Ġst er
ĠH ond
ĠB omb
ĠD aw
il ation
ĠL ana
ĠF ried
um ns
ĠE ner
Ġout ta
Ġout break
Ġman s
ap h
Ġex hibition
Ġpro vision
ies on
Ġback ed
ark s
Ġgr acious
Ġtell in
ire n
Ġam using
Ġun lock
Ġres erve
Ġrec oll
Ġche aper
ĠBe e
Ġatt ent
Ġra w
ens ions
Ġsw am
Ġob last
Ġmar vel
Ġret ro
Ġvo iceless
Ġcons ervative
OU G
ĠSp in
sel s
Ġcountry side
Ġsub way
ĠPh Åĵ
ĠLe op
Ġ9 1
ple te
Ġlay er
ĠAb u
ĠAb bey
fl ix
Ġdraw s
Ġdraw ings
20 16
col or
ĠAny body
Ġdiv ine
IT Y
ĠNet flix
Ġbank rupt
ĠAct iv
ĠMed ic
ĠMic hel
Ġtrad ed
Ġhun ted
ĠMac Donald
ĠDO ES
Ġexam ine
ĠFred a
Ġeconom ics
Ġpill ows
Ġspeed ily
Is n
Ġdefend ed
ĠFil ip
Ġprint ing
ĠPlay Station
Ġdim in
Ġdescend ants
ĠEs pecially
ĠJam ieson
Ã¦ sar
Ġanno ying
ĠRail way
Ġpoll ution
Ġcert ific
Ġsyll ables
build ing
ĠAnim ation
ĠSyl via
Ġexpen se
Ġdepos it
ĠBub ba
ĠTud or
ĠBase ball
Ġcollap se
Ġcancell ed
ĠMicro soft
ĠPAU L
C he
S R
S c
S ha
T wo
W OM
c ons
m im
t was
t aps
v on
v ich
w ald
Ġ OTHER
Ġc ore
Ġc aval
Ġd ot
Ġf ib
Ġto bacco
Ġl es
Ġth ro
ĠT RA
al ds
ĠS ak
ĠM ist
Ġn i
ot ch
ri ous
ĠH m
ĠH ir
ĠC rist
ĠB od
st en
Ġk aleidoscope
ur dy
Ġwh im
Ġse ctions
il ian
ĠN ell
ĠN de
op er
ĠF ra
Ġne ut
Ġj ur
ĠE ither
el come
od i
ĠShe riff
Ġfe es
Ġbr isk
Ġer aser
ĠV at
be ing
ff es
Ġdis put
Ġte ase
ang led
ĠUn like
Ġche ating
Ġche wing
ĠBe cca
Ġgl ue
amp ed
ult an
ĠAl buquerque
ister s
AN CE
Ġcol onies
ib i
ib al
ING S
Ġcons ervation
Ġdec ades
Ġsk etch
Ġsy nd
ĠPh ini
Ġpay s
ring ton
Ġpri zes
Ġpar allel
Ġprof ound
bl ock
Ġgrow ling
Ġgra vy
ĠTO O
Ġcast les
Ġswim mer
ĠSm art
Ġdoubt less
Ġbur p
Ġstrange ly
ĠCent ury
ira ffes
Ġrecogn ised
Ġgen es
Ġcompl aint
Ġvol unt
Ġlift s
Ġenv y
Ġcommun icate
ĠMal colm
Ġvis ual
ĠHon ours
Ġess entially
Ġcomed ian
Ġprotest ed
ĠBund esliga
Ġcritic ized
Ġrob ot
Ġtim id
Ġsche mes
Ġinvol ving
ocr ats
ĠCub a
ĠMove ment
Ġpant ry
ĠFle ming
Ġfee ble
Ġimper ial
ĠProdu ctions
ĠBroad way
Ġtan ks
Ġod ds
Ġlux ury
Ġreject ed
Ġmead ow
unci ation
Ġhoriz on
Ġbol ts
ĠGeoff rey
Ġgreed y
Ġyog urt
Ġdent ist
ĠSaud i
ĠEner gy
ĠNde R
ĠPhini as
) ;
C C
C L
F l
H L
c ony
f les
g ic
g ant
h ill
h our
h orn
l est
r ise
s itting
u ations
y ay
Ġ CHILD
in th
Ġf aded
Ġp ension
no s
Ġhe ed
Ġh ood
ay ing
ic ity
us k
Ġbe am
Ġbe gging
ĠS Ã£o
im ed
im ore
ĠC ALL
ĠC Ã¦sar
ĠB ou
ĠB less
ĠB EN
ĠB ella
ĠThe atre
ĠD art
ĠD rop
ĠP ear
ĠR J
op ing
ĠF und
Ġso d
Ġj ungle
ĠE yes
ĠE xt
Ġab und
Ġab ortion
Ġout fit
ab outs
em en
ist ent
Ġwor s
Ġwor rying
the ir
od ed
Ġman if
int erest
ho g
Ġgr an
Ġgr asp
ĠV ince
ord in
Ġpart ed
ach ment
Ġco ats
Ġhome less
ĠBr uno
let ic
Ġdes er
Ġpol ish
ĠAr med
Ġob ed
Ġsur geon
Ġlight ing
ctor al
Ġ5 4
Ġdri vers
ex pl
co very
Ġdoll ie
Ġshall ow
Ġsub sequ
Ġ9 6
ĠGerman s
Ġcur led
Ġquick er
ĠGu il
Ġgrand son
ĠDr ac
Ġsqu eal
Ġform at
Ġform ally
Ġbat t
ĠTr ade
Ġspell s
igg ie
Ġban ned
Ġrecogn ise
ĠWH ERE
Ġgen etic
ĠEve lyn
Ġcomfort ably
Ġmix ture
Ġengine ers
ĠRos y
Ġcrack er
ĠMel bourne
Ġver t
Ġsli pper
Ġbound aries
Ġbull dozer
Ġresult ed
ĠNever theless
Ġneat ly
Ġvac uum
Ġcruel ty
Ġbother ing
ĠShi va
Ġflo ors
Ġscrew ed
Ġcontribut ions
inc orporated
Ġconcent rate
Ġbold ly
pick le
sec ond
Ġmurm ur
Ġsquir rels
Ġabsor bed
Ġconsum ption
Ġsculpt ure
ĠIndust ry
Ġemphas is
Ġkilomet ers
yawn s
Ġproport ion
Ġprivile ge
ĠRah ul
ĠOre gon
ĠPE OPLE
ĠGoo gle
ĠJere my
0 30
8 6
D Y
N S
N or
O ur
c ur
d ough
k h
k n
k ra
m umbling
n ik
s ugar
Ġs add
Ġd ive
Ġd ivers
Ġf ist
Ġg ig
at hy
ay ed
ve land
ĠT ro
id o
ĠS enn
ĠS esame
ĠA i
oo ter
ĠM ick
ad ier
ad eth
Ġre ci
Ġre verse
ĠH os
ĠC ale
ĠB uc
ch t
Ġan ts
Ġgo ats
ĠD J
ĠN ino
ĠN XT
if ies
ant ha
ĠL em
ĠL ud
ĠL ocal
ĠF rog
Ġcan on
ul se
ĠHe ath
itt ies
Ġor chard
ĠK ang
Ġpe ac
ond o
Ġbr ows
ool aid
Ġun iversal
Ġun incorporated
act ive
Ġsha kes
Ġthought fully
Ġmust ache
Ġwon t
ĠRe ading
Ġpre cip
Ġmon ument
Ġac ademy
me aning
Ġtop ic
ener y
Ġhat red
Ġ5 8
Ġri pe
Ã© t
EN CE
ĠHer bert
Ġjo yous
Ġspeak ers
Ġass ets
Ġcup board
Ġcoll apsed
Ġconf ined
Ġpain s
read s
ham pton
erv atory
bl er
Ġadv ised
Ġfree zer
Ġtem por
Ġfle e
chan ce
Ġproper ties
Ġexcl usive
Ġcompl aining
Ġshar pen
ĠHE Y
Ġpers pective
ĠDes ign
Ġscream s
Ġdise ases
Ġbal cony
Ġstret ching
ĠRel ax
Ġinterview s
Ġprim arily
Ġhug ging
ele ction
ĠUN DER
Ġpred ict
Ġexerc ises
Ġtim ber
Ġdism issed
Ġrecomm ended
Ġresident ial
ĠSand ers
Ġax e
Ġtrail er
bec ca
ĠBO Y
Ãĸ Ãĸ
Ġpartners hip
ĠCard inal
ĠEmil ia
ĠIndones ia
Ġaccur ate
Ġmax imum
ĠHog g
elf th
ĠLip an
ĠGentle men
Ġfount ain
nk ÃĸÃĸ
pict ure
ĠYugoslav ia
Eng lish
Ġmidfield er
ĠRal ph
ĠAirl ines
ĠWex ler
) "
S O
a ver
b ath
c ence
r M
t est
t em
u at
z i
in ea
in side
it arian
is ha
Ġc av
or ig
Ġp and
Ġl as
Ġl ump
om aster
ic he
ĠT ARS
ĠT AKE
ĠS aw
ĠS port
ĠS AY
ĠS unny
ĠS kel
ut ton
Ġwe eping
ri et
ĠC ond
ĠB hair
Ġk icking
Ġwith drew
ĠP ast
ĠP ubl
ĠG rey
ge ance
Ġr oused
Ġbut cher
Ġal armed
Ġsh rill
ist inct
ck ing
Ġor n
Ġor bit
Ġman kind
ĠK E
ĠK ab
ĠK urd
ous ing
int ed
are k
ĠShe ila
Ġbr ow
ĠNo el
pl ums
Ġpr ud
Ġun kind
Ġfl ashed
add ington
Ġsm oo
Ġthought ful
ob ject
aw are
Ġsl ope
ĠBe en
let ter
Ġdes erves
ĠEd ith
Ġsk ies
Ġinst all
sh op
Ġinter vals
Ġev ac
ĠEx change
fl owers
dy a
Ġsurpr ises
ĠChe ers
Ġsick ness
Ġcop ied
Ġ25 0
Ġfill ing
ĠIT V
Ġexcl amation
Ġemp hat
ĠThom pson
Ġsle nder
ĠMore over
Ġcivil ization
Ġur gent
Ġdebut ed
gl ass
ĠÂ ©
Ġacqu ainted
ĠMos es
Ġarg ued
Ġwond ers
Ġrug by
ni ques
ĠStud ios
ras her
Ġapples auce
ĠEs sex
May be
Ġpup il
ĠAra bs
Ġprior ity
Ġmechan ical
Ġpurcha sed
Ġorganis ations
ĠCe cile
Ġath lete
Ġbond s
ĠGab riel
Ġtel escope
Ġbrace let
Ġdisagre eable
Ġfoss il
GB T
ĠHou ston
ĠMoo re
ĠFIR ST
Ġraz or
A ny
H a
I P
L o
S ure
c ir
j ar
p i
p ence
s in
t ad
y uck
Ã Ĺ
Ħ ¢
Ġt ha
Ġt ension
Ġw ist
Ġw inners
Ġb ou
Ġm ush
Ġp ins
Ġg own
Ġl ugg
as ia
Ġh ides
Ġth ieves
ĠM ec
Ġfor ming
Ġst ooped
ĠH unter
ĠC ou
ĠC IA
ly mouth
ĠB ent
ĠB anc
ĠB ET
ill ery
ĠO P
ĠR as
ra v
ĠG ob
ĠG aza
ĠE nt
Ġcan s
ge nder
ĠJ ar
Ġr ung
ood le
Ġal as
ink ling
ound ed
ĠYou mans
ĠK as
Ġag gressive
Ġar guing
Ġback ward
ne cess
Ġover head
ĠTh rasher
ĠV as
pl an
Ġam m
ach ine
Ġfl ap
av ier
Ġad apted
ĠNe el
iv ors
ĠDo ver
Ġpre jud
Ġcol umns
Ġ4 3
Ġ5 7
Ġ5 9
Ġkid ney
ĠAd v
Ġpop corn
ĠHis pan
ative ly
Ġass ignment
Ġ9 9
Ġinc om
bo om
ĠOr thodox
Ġâ Ħ¢
bl ows
Ġgrow led
Ġocc urs
20 15
Ġexp osure
ĠBar on
ĠTe hran
Ġdi zzy
sha ped
Ġwarm th
Ġprogram ming
Ġequ ival
Ġesc ort
Ġrad i
Ġaccident ally
Ġgar bage
Ġsna pped
Ġrepe ating
Ġgall ery
ĠDar ling
Ġdread ed
ĠAccording ly
ĠDen ise
Ġqual ification
Ġinvent ion
ĠAtl anta
ĠPers ia
phe us
ĠInt o
Ġdesper ately
ĠKir by
intend ent
Ġbelief s
Ġcontain er
throw s
uls ion
SC REAMING
Ġdisag ree
Ġkidna pping
Ġtyp ical
ĠBurg omaster
Ġcough ing
bir ds
ĠProdu ction
Bl ack
ĠHind u
Ġsust ain
Ġdwar fs
CA USE
might y
Ġmaj esty
Ġadvertis ement
Poss um
ĠJE FF
ĠBeau fort
Ġexquis ite
anno yed
Ġlugg age
6 6
S ir
_ ,"
b ies
f ing
f am
g al
i ries
i rie
t p
Ġ ll
Ġa pron
re na
re fers
Ġb achelor
Ġc oo
Ġp ub
Ġg ee
as ingly
ĠT ow
ĠT ick
ĠM umb
Ġn en
Ġre un
ir ation
ĠH op
ĠH AD
ĠC ecil
ro be
Ġse lection
ĠD ai
ĠD allas
ĠD VD
ĠP ooh
ĠN ort
ĠO LD
ĠL AUGHING
ĠL GBT
ĠF let
ĠE NG
ĠJ en
ĠHe ather
Ġal tered
Ġsh irts
ab e
ess a
qu ite
Ġsp it
ag u
Ġwill ingly
Ġpe anuts
ace y
we ed
ĠWe bb
pe ction
Ġbr ut
ĠSo ld
thing s
Ġcar rier
Ġhand ful
ip se
Ġcr umbs
ob a
Ġsec ular
Ġbo iling
mp agne
ĠRe ardon
ĠAl c
Ġhat es
ĠChrist ine
Ġwind ing
Ġ6 1
ĠFl o
Ġint imate
ĠCar rie
Ġexc used
Ġbear ings
ple x
Ġgener ations
ĠPaul a
Ġbag gage
Ġcost umes
Ġvar i
LE ASE
Ġow ed
Ġpack ing
work ing
Ġconsider ably
ĠMc Donald
ĠTur ks
ĠTur tle
Ġcollect ing
Ġgen re
Ġlim its
ĠMag n
ĠHam ilton
Ġhide ous
Ġscar let
ĠST ORY
Ġï¿½ï¿½ï¿½ï¿½ ï¿½ï¿½ï¿½
ĠCould n
ĠGot ta
Ġaddress ing
ĠOther s
Ġaud ible
Ġtax i
Ġterror ists
Ġminister s
ĠBea uty
ĠBook s
Ġjun ctions
Ġwitness es
Ġrequest ed
ĠVol mar
REAM S
Ġthrill er
ĠGuard ian
find s
Ġbishop s
Ġemot ions
Ġigno re
ĠCry stal
ĠNorm andy
ĠKnight s
Ġber ries
Je ff
ĠGib bs
ĠTAL K
Ġtort ured
Ġsubst ance
Ġcondem ned
Ġchalleng es
Ġcompre hens
horses hoe
ĠCra ig
anth rop
Ġsla very
Ġreco very
ĠFUCK ING
Ġtriump hant
Ġphysic ist
ĠFis cher
A H
B ig
F amily
H is
P LA
S an
b ase
c ia
i op
m ies
m ock
s aw
y el
È Ļ
Ġw ounds
Ġs ins
Ġf ran
Ġf ried
or g
es ter
en burg
Ġhe nce
ĠT u
ĠT anya
ĠM ISS
im my
am ents
ĠC AM
ĠB ates
Ġdo l
ro e
Ġme mb
ch uck
Ġas ylum
Ġse als
ĠY am
ĠD ub
ĠP aw
il ts
un ty
ĠR aff
ĠL assie
Ġshe er
ook ie
Ġall erg
ĠE mb
Ġde fect
Ġr ash
ol ine
Ġab ol
Ġal ien
Ġsh h
Ġsh iny
ation ally
one ys
Ġsu ite
Ġman aging
ĠK or
Ġcl ung
ĠBut ter
ĠNo ah
pl ate
Ġpart ially
ren cy
Ġim itation
Ġsc andal
Ġch ina
Ġch lor
ans ion
Ġbu rial
ĠNe v
Ġrec ru
Ġgl ancing
ĠRe view
br as
ĠAl bum
ens on
Ġsw ings
ĠDe wey
Ġret ain
Ġmat t
Ġlist s
ĠInd u
Ġsk ating
ĠTHE M
ĠPr oof
Ġtri ple
Ġlo af
Ġ6 2
Ġfoot age
ĠLe eds
ĠHer r
ĠHer itage
ĠWho ever
Ġsign ing
Ġtele graph
Ġdisc om
ĠEx am
ik h
ĠSha wn
RE T
ĠSe rena
gue z
Ġmod els
Ġhar ness
ĠNor folk
ĠSam my
ĠMag ic
aud ible
Ġpray ing
Ġbab bling
Ġspot ted
Ġrub bing
Ġrub bish
Ġspread ing
Ġgall ey
ĠEll iot
Ġpocket book
Ġcivil ians
oph one
ENT S
ĠLove ly
ĠGO D
Ġcustom s
Ġlibr aries
Ġfurn ished
Ġfold er
Not hing
ĠArab ia
ĠWhe el
Ġrare ly
Ġtip toe
ĠShar ston
ĠArmen ia
Ġmeas ured
Ġgreet ing
ĠWonder ful
gra bs
ĠBol iv
Ġtempt ation
Ġcorpor ate
Ġimpati ently
Ġindign ation
Ġlabor atory
Ġrelative ly
Ġcas ual
ĠFif th
Ġgover ness
Ġexceed ingly
ĠHod gins
ĠOrgan ization
Ġbewild ered
Ġdram atic
Ġstub born
ĠSCH OOL
Ġeyeb rows
Ġamm unition
0 7
I O
K ing
M Y
P R
S P
c ot
n ival
n umber
p ine
p owder
r oth
y u
Ġa isle
in ence
Ġw al
Ġw age
Ġs ighs
Ġb og
Ġb ald
Ġb aker
Ġm our
Ġd orm
Ġf anc
Ġf ern
Ġf reed
Ġp ies
Ġp udding
ic ial
et ti
ĠT s
ĠT aking
ĠT EA
ĠS aul
ĠA ther
im mer
Ġn ah
ĠH anc
ĠB ond
ĠB ark
Ġwh ipped
ĠD w
ĠP lymouth
if ting
ĠO pp
ĠO mega
ĠR ing
ĠR at
th ought
ĠL ear
ĠL ief
ĠF ellow
Ġsa ils
ĠE rik
ĠJ et
ĠJ ae
Ġde ploy
Ġr ans
Ġr ays
Ġab brevi
Ġwere w
Ġv oc
ous ers
Ġover night
Ġbl o
Ġbr ome
ho ven
Ġun necess
get ting
Ġsc enery
Ġper mit
Ġche que
ĠAl z
ĠAl ong
ĠAl ready
Ġpol itely
Ġsw itched
ĠNew castle
az ar
ib bean
Ġtable t
Ġsk ips
Ġfire works
Ġcat hedral
Ġid ol
part y
Ġunderstand s
Ġref resh
AI L
Ġcontin ent
ĠMan n
Ġexpl o
ĠCon c
Ġdem on
Ġwa ff
oof y
ĠCal m
Ġdecided ly
your s
Ġeffect ively
Ġtall est
Ġ191 1
Ġhost s
Ġpray ed
Ġfat ig
Ġris en
vi our
tr ack
Ġexcited ly
Ġfro ck
ĠCat hedral
Ġir re
ĠHon estly
quar ium
Ġflo at
ĠLo ch
ĠBir thday
Ġchemical s
Ġaffect s
NE I
ĠLO VE
ĠCamer on
Ġalt itude
Ġtomat oes
Ġunlike ly
ĠJosh ua
ĠChap ter
ĠMeg adeth
Ġbul b
Ġcongress ional
ĠStal ag
Aunt ie
Rob in
tit les
Ġsubstant ial
Ġbegg ar
ĠAther ton
ĠHanc ock
4 4
D r
D own
G ER
I AN
I RE
L a
L ove
M el
S w
T hanks
U ES
b un
c il
c old
d ist
e ch
g ow
h urt
l as
m ouse
s que
u ana
w ig
Â ¡
Ã ł
Ġt ies
he a
Ġa venue
Ġthe r
Ġs izes
Ġb ind
Ġm uff
Ġm aker
Ġm ales
Ġo y
Ġd ense
or al
Ġp add
Ġp ix
Ġp iles
ĠA ah
oo st
ĠM au
ĠM ult
ĠM AKE
ĠM iddles
Ġwe igh
ac ent
ke red
Ġre eds
ĠW ra
Ġst urdy
ĠH EL
ĠH yl
ĠC ore
Ġk in
Ġk ittens
and ros
Ġse min
Ġse aled
Ġgo ss
ĠD ill
ĠD est
ĠP ir
ct ive
ĠG io
ĠG iant
ĠF ish
ĠF uj
Ġall ies
ĠE L
Ġr am
Ġr uff
ink ed
ist en
Ġsp arrow
Ġv eter
au x
ĠK atherine
Ġ19 00
Ġover l
Ġbl iss
ĠWe ek
ue va
Ġgr unting
Ġmean while
zz o
UR T
ung al
air y
ĠIs le
ĠBe et
ĠAll iance
Ġrun ner
vel t
cle an
gr ad
ĠCha nd
Ġfr idge
ubl in
Ġrel ate
Ġfood s
Ġbas kets
Ġrep ublic
ĠBl ues
bb ers
Ġwrit ings
Ġfell a
Ġgrand daughter
Ġdark er
IC H
ĠHar bor
Ġprof ile
ĠSw ami
Ġcho ices
Ġmess ing
ĠBar ons
Ġmer rily
Ġprov isions
ĠJack ie
ĠIN TER
Ġfear less
Ġdev otion
Ġappear ing
ĠCr ime
ĠAnt i
Ġpun ct
Ġconcer ts
Ġund oubted
Ġwheel chair
Ġsurv ival
ĠTer rit
ĠCont est
Ġcuri ously
Ġdisp osed
Ġemer ged
Ġbomb ing
ĠMax well
Ġcong rat
Ġperforman ces
ĠBea utiful
Ġagre eable
ĠRE ALLY
Ġtransl ation
eps i
Ġswall owed
ĠKir k
Ġimprove ment
Ġminor ity
uj ah
ĠConf eder
ĠVill age
Ġconsist ent
Ġvirt ually
ĠBart lemy
Ġexha ust
Ġdistinct ly
Ġprofession ally
Ġaspect s
Ġfrank ly
Ġlip stick
Ġsummon ed
ĠTai wan
Ġconstru cted
ĠCrom well
ĠPhÅĵ be
ĠGuil ala
ĠDrac ula
ĠSkel ton
ĠLief ering
E CT
N ING
a a
b in
i kes
i ago
p se
w onder
Ġa er
in ery
Ġw ilt
Ġb il
Ġm oo
Ġc rest
Ġc hess
en o
Ġp ans
Ġp haraoh
Ġg iraffes
at em
Ġhe al
Ġha mm
ĠT ig
id el
ĠS ain
ĠS ho
ĠS AID
ĠS ultan
ĠA gr
ld er
ut tered
Ġn an
Ġre vel
ĠW anna
ĠH edge
ĠC edar
ĠB ass
and ed
ill o
Ġgo bble
ĠD C
ĠD ent
il ant
ĠN AT
ĠO cc
ĠR ama
ĠL ux
um m
Ġj og
pp ard
ĠJ ade
ul ars
Ġr ats
Ġlike wise
ard ed
ine e
ĠU se
Ġag encies
ian e
Ġtr ousers
ond ay
Ġbr u
Ġun con
âĢĻ ,
te ch
Ġco c
ug a
oc ated
Ġche at
Ġra g
Ġra pe
ĠDe cl
Ġwar fare
Ġdist inction
ĠCl er
Ġhur rying
ĠAd rian
Ġri g
Ġbuild s
ming ham
ĠAp ache
ific ations
ĠMan agement
Ġpar rot
Ġmark ets
ĠHar per
ĠPl uto
Ġins pection
Ġcor al
Ġopp ose
Ġdem ocratic
Ġarm our
ĠCal ais
Ġest imate
Ġbright ly
ĠEle phan
Ġprin ces
Ġburn s
Ġneighb oring
Ġ& *
Ġmix ing
Ġtor ment
ĠMag azine
Ġperiod s
Ġprocess es
Ġap ology
ĠMal ays
ok er
Ġpet ition
ĠMo z
Ġclaim ing
bel ieve
Ġdefin ite
Ġinqu ire
ograph ical
fall s
Ġgro aned
Ġshr ine
ĠSar ac
Ġamb assador
ĠVan uat
ĠBa iley
Ġune asy
ĠBir mingham
Ġsink ing
ĠStud io
Ġcontribut ed
Ġprogress ive
Ġtim ing
ĠShould n
Ġdisplay ed
Ġpropos als
ĠGro ve
ĠGun n
ĠVen us
Ġspin ach
ĠCOM P
Ġrhy me
Ġenthusi astic
Ġdrag ons
Ġtox in
Ġvolunte er
ĠJess ica
ĠGR UNT
Ġstab bed
Ġbeet le
pent er
Ġprocl aimed
ĠNar uto
ĠCommon wealth
Ġdart ed
ĠNam ib
parent s
Ġrecy cling
Ġpremie red
Gy ver
Ġgest ure
ĠDani elle
ondisse ment
ĠVern on
ĠBax ter
Ġcaval ry
Ġequival ent
' -
) \
0 5
5 6
E n
M D
O D
S F
b one
c ough
e asy
h on
k angaroo
m ount
p it
s ister
s ki
Ġ q
Ġt as
Ġt umbled
Ġt ucked
Ġw its
Ġs ack
nd ers
Ġb aked
is ons
Ġm ol
Ġm ourn
Ġm ashed
Ġf ry
an and
or o
or ic
Ġp ipes
Ġl ined
Ġl anes
Ġth ither
ĠS as
Ġe ll
ut t
ĠM ong
im eter
Ġre vers
ĠW A
ĠW rit
Ġst all
ĠH AN
ĠC OU
ĠB apt
st ro
out ed
Ġ" ".
Ġwh iny
ĠP S
ĠP okÃ©mon
ĠR af
ĠG ill
Ġ1 20
ĠF inger
ĠF auc
ĠE qu
ul u
ĠHe w
ĠHe nd
ight s
est on
Ġv est
Ġv io
Ġman e
ĠK ee
ĠU g
Ġpe ach
Ġar oused
Ġback up
Ġle aned
ĠIn n
pl ant
og i
Ġhand led
Ġsc am
Ġsc ree
cl im
ĠCh ung
Ġcr ick
for th
Ġpres idency
ĠRe becca
Ġsw amp
Ġmon ks
Ġcle ars
Ġob sc
leas ure
EL F
aut us
ĠZ ika
ten ance
Ġsent ry
co on
co ver
Ġsy nt
ĠCom mer
Ġsub mit
Ġsub mitted
ĠRoss y
ĠQ ur
Ġtra uma
ĠBl ock
Ġinter rog
olog na
Ġbar gain
itc hell
Ġev al
Ġcur ly
Ġcreat ive
Ġpar ad
20 17
20 13
Ġexp ansion
Ġcor rid
Ġcheck s
Ġexper iments
Ġhar ass
ov al
ĠNorth umberland
Ġspec im
Ġval id
Ġpract ices
mo ving
ĠCo al
ĠCr atch
off ice
Ġpi geons
Ġpati ently
Ġdestro ying
ĠReg ie
Ġgrad uation
ĠRos a
Ġobs erve
ĠPri est
ĠCare ful
tr acks
ĠTri bal
Ġpath s
ĠDa ily
Ġfre ak
ĠDel aware
Ġtight ly
Ġmic ros
Ġdefend ant
ĠDra ke
ĠTown ship
ĠFort y
walk s
Ġflo ated
Ġrout ine
cup cake
Ġwitness ed
hem ia
Ġconce aled
ĠSant iago
ĠWat son
ouncill ors
ĠFÃ¼ r
ĠCad et
ĠDID N
Ġven geance
ĠFall s
ĠCab inet
Ġacknow ledge
Ġstair case
ĠEconom ic
Ġec st
Ġbloss om
ĠBamb i
ĠFal con
Ġcorre cted
Ġaster oid
Ġdow ntown
mir al
ĠSno opy
ĠGlo be
Ġbrome liad
ĠVanuat u
% .
C ould
D oes
M on
P ER
T ed
V aud
a an
b ows
c ock
c mon
d al
d olly
g rap
j ab
l ac
m id
p our
t ick
v ar
y in
Å Ł
Ġ iced
Ġw akes
Ġm oust
es y
Ġp ets
Ġg ambling
Ġl ac
at isf
et o
ĠT ib
ĠT odd
ĠS ugar
Ġis t
ĠM onsieur
im on
ot to
Ġre bel
Ġst ag
ĠC and
ĠC ouncillor
ill er
Ġse iz
ĠY an
ĠY ong
ĠD AY
AT ER
AT ED
ĠP rop
ĠN ate
ĠN atural
ĠN FL
ct uary
ĠL on
ĠL amb
ĠF u
pp ery
Ġr ises
Ġab st
est one
ag na
ag ram
Ġback ing
Ġtr ash
ud dy
ark in
ĠIn st
yes terday
ĠBut ler
IS E
Ġdis abled
oss ibly
land o
Ġhouse holds
Ġres erved
ert ed
Ġsl ate
Ġmin ing
Ġgl ow
Ġdes ks
ĠRe gin
wh iny
Ġkne el
Ġkne eling
ĠCha d
Ġreg ime
ener ation
Ġsleep s
uss ia
Ġca ves
Ġwonder fully
ĠFl int
du ction
Ġint im
Ġsign als
Ġtele phones
AI R
Ġsun k
Ġwand er
unt il
ĠWh ose
Ġcontin ually
ĠMan ipur
Ġmark er
ĠSe attle
ĠBar ney
Ġobject ive
Ġrain s
Ġtem ples
Ġtreat ing
Ġdi ving
LE Y
Ġlow ered
Ġtur tles
sit ter
ĠSte wart
har m
ĠDem ocrat
Ġnecess ity
Ġcommun ications
ĠMac Gyver
Ġident ical
Ġsatisf actory
Ġcelebr ation
ĠOut side
gas p
Ġvac c
Ġnovel ist
Ġwrest les
wr itten
ĠJac ques
Ġmel anch
Ġreign ed
Ġscore s
Ġphilos oph
ĠVo iceless
Ġreck less
Ġanno y
Ġincred ibly
des ign
Ġmathemat ician
Ġaffection ate
hol m
Ġsauc ers
EM BER
ĠBroad cast
Ġpeep ed
Ġtribut e
Ġexpand ed
Ġdiplom at
Ġbeet les
ĠBalt imore
ĠMaur ice
ĠAth letics
Ġfrag ments
Ġreb els
ĠCoss ack
Ġnarr ative
Ġpengu in
Ġconver ted
ĠPrem ier
Ġrhyth m
Da isy
ĠHawai i
ĠAlz heimer
ĠFauc it
C ertainly
H ar
M ike
b ite
b ug
c ure
c aster
e als
e ges
g reg
i ary
i pt
k ov
p ole
s ir
s ho
t aken
v ic
Ġw ishing
Ġm op
Ġm ug
Ġd ensity
Ġf ishes
Ġp el
Ġp ite
Ġp iggie
Ġg aining
Ġin ev
at ra
Ġth orn
Ġthat ÃŃs
al ia
ĠS in
ĠS ib
ĠS cha
ĠA x
ĠA way
ĠM am
ĠM ard
ĠM aking
ĠM ee
im ony
ri z
ri ft
Ġre leas
Ġre aches
Ġre levant
ĠW ha
ĠW ol
Ġst roll
ĠH az
ĠC ode
ĠB uck
ĠB OOK
ĠB iden
st acks
out e
out side
Ġas sembly
ĠY ellow
ĠD R
ĠD one
ĠP LEASE
Ġher d
ĠR aw
ĠR INGING
ĠG ipp
ĠF ly
Ġshe riff
ĠE gg
ie val
Ġr ating
Ġal veolar
Ġsu cc
Ġor gans
Ġwor ms
the d
Ġman ip
Ġex its
Ġtr am
Ġqu ot
Ġqu art
ĠV illa
ass ic
Ġen able
Ġcha kra
ang a
add ers
Ġad ds
Ġrem oves
cl ipse
do ck
ĠNe ighb
Ġres ort
Ġrec ess
Ġpres erve
Ġmon itor
ĠFor give
Ġchar ging
ĠNot e
Ġtop ics
pr int
Ġinv aded
ĠAd vent
Ã© lie
Ġref res
Ġste ward
Ġdisc rim
Ġbar rier
Ġswe ets
ik o
ĠHar old
ĠSh ir
ĠRep lic
ĠAm endment
ĠBro ck
Ġmot ive
ĠTe acher
Ġtem p
ĠX IV
with out
ĠChe m
Ġdefe nder
Ġcry stal
chan ts
ĠÃ ł
Ġfort ress
ĠOlymp i
ĠMa estro
ĠMon ster
Ġ191 5
Ġrub bed
Ġtech niques
keep ing
Ġamount s
Ġinvestig ating
ĠJud y
ĠMont real
ĠBrown ie
ĠGar field
Ġpercent age
Ġloss es
Ġdemand s
ĠCat hy
Ġimm ortal
ĠCle veland
Ġbeha viour
ĠFort un
ĠBud dy
ĠMax im
Be cky
Ġ189 0
ĠSqu ad
Ġneg lected
Ġpsych iat
AUG HS
Ġdism al
ĠWars aw
Ġfrequ ent
Ġcorpor ation
Ġmas ks
Ġwre cked
Ġinse ct
ĠCommission er
ĠFur ther
ĠPeters burg
ĠCamer oon
!_ "
ĠAG AIN
Ġbuzz ing
ĠRoc he
Ġclergy man
Ġtrave ling
Ġdisgust ing
Ġsubur b
ĠRet urn
ĠIndones ian
ĠPH ONE
ĠCrim ea
dem onstr
Ġank le
ĠPalestin ian
Ġartific ial
Ġcoc aine
6 5
6 9
C LE
F rom
W V
a unt
b ald
b ones
c art
d rogen
e ach
l ical
l asses
m ila
o i
w ants
x ual
Ġw igg
on so
ha st
it udes
Ġm orrow
Ġm ule
Ġd ome
Ġf ri
en ne
Ġl umber
Ġhe aling
Ġh oo
ĠT i
ĠT ab
ĠS op
ĠM A
ĠM ut
ĠM old
ĠM obile
ĠM ORE
ad le
ot hes
ri o
ri ve
ri ages
ent e
ĠH ale
ĠH orton
ĠC ody
ĠC atch
ĠC reek
st ones
Ġse wing
ĠD ublin
ĠP ay
Ġ- ...
Ġher itage
ĠO d
ĠR ou
ĠR ale
ĠR ange
ĠR oose
ĠG ert
ĠL og
ĠF o
ĠF ant
ĠF rost
Ġj ug
ĠE D
ĠE sp
ĠJ U
ul ator
Ġr ay
ol esome
ig ail
ess ions
Ġv owed
Ġus ers
ĠU gh
Ġback yard
Ġro bbers
ud s
pe ek
uch i
Ġun just
ub ba
Ġcha mbers
Ġco ff
av i
iz ers
ĠBr ace
ĠIs ab
Ġfin ishes
br uck
br aska
Ġpol o
Ġbre eding
Ġsing ular
ins ula
Ġsit uated
ĠJan ey
ĠCl aude
ex cited
Ġsk ates
Ġair s
Ġhalf way
sh r
Ġtri gger
ĠWill is
Ġfore most
Ġdel ays
Ġhope ful
Ġrock y
Ġext inction
Ġinc or
ĠPro duced
Ġstrong est
sp oken
fect ure
ĠAb by
ĠAb igail
fl at
ĠJo el
Ġgrow l
20 19
20 18
ĠWar ri
ĠEuro vision
Ġstore d
Ġrain bow
ĠAg ency
Ġsuccess ion
Ġcal f
Ġbes ie
ĠHen ny
Ġcover age
Ġpat hetic
Ġsol ic
Ġstat ements
iff s
Ġcard inal
ĠCr icket
Ġtor ch
dog s
aud io
Ġfem ales
Ġcommand s
Ġphys ically
Ġsepar ately
Ġpet rol
ĠDO OR
Ġsatisf y
Ġfeat uring
ĠGar th
Ġtap ing
ĠCont rol
Ġimm igrants
Ġfoc uses
inet een
Ġsch olarship
Ġattend ing
Ġparticip ate
ĠSqu ire
Ġentertain ed
Ġarran ging
Ġneg lect
ĠTra il
Ġchat ter
Ġpra irie
Ġpoison ed
ĠStand ish
Ġspark ling
Ġillustr ated
Ġautom atic
ĠNa oise
ĠRepresent ative
ĠDev il
Ġtempt ed
Ġsuffic iently
Ġdu o
Ġancest or
Ġaccompl ish
squ ee
ĠLeg isl
ĠCur rent
Ġscra pe
ĠDef ense
Ġcompar ison
Ġsust ained
ĠDri ve
dra wn
Ġtrump et
ĠJoy ce
Ġbisc uit
ĠJed i
Ġrenew ed
ĠAlber to
ĠPhill ips
ĠLithuan ia
GAS PS
ĠVir gil
ĠAzerbai jan
Ġretro flex
ĠMedic ine
ĠMumb ai
Ġmemb rane
ĠRegin ald
4 2
B B
D AY
E m
H N
M AS
S hall
T HING
V EL
c ry
c uss
g iraffe
i ors
m ember
o ir
Ġt idy
he nt
Ġw reath
Ġs ittin
Ġb ounds
Ġb ureau
Ġc inema
Ġo ars
Ġd ances
Ġto ad
ĠI X
ar thy
Ġha w
ĠT her
al ways
ĠS ide
ĠM es
ĠM ack
ĠM ig
ac io
ad ian
Ġfor ks
am o
Ġst ables
ĠH of
ĠC ulture
ĠB ranch
st ock
all ow
ter m
ĠY up
ĠP sych
if fe
ĠR ox
ĠR ector
Ġup wards
ĠE ss
ĠE cho
ie ls
ĠJ AN
ĠJ UN
Ġr ational
Ġpl ed
han tom
Ġv ary
the ning
Ġcon vert
ĠAnd ers
ĠAnd roid
ĠU nd
Ġar ise
Ġoff ense
Ġtr ot
Ġbl amed
so ever
Ġbr ushed
Ġgr ate
ĠV II
ass et
iss ions
pl anes
RO UND
Ġam use
Ġdis li
ang ular
Ġcomp elled
Ġmo ist
Ġch icks
Ġch ops
ina x
Ġsl iding
Ġche ers
Ġche ered
Ġcour ty
ĠAl ger
ĠAn cient
ĠAr nold
gr ade
ĠFran z
ĠFran ken
cha nd
ĠEd in
ĠEd wards
Ġcat ches
LO CK
ĠHer cules
ĠCar ibbean
Ġsun light
Ġ10 1
Ġleg it
com b
ĠBen ed
ĠGu atem
che t
ĠPl ant
Ġclass ified
Ġteac hes
Ġcor ps
play ed
Ġsweet est
ĠX I
Ġdef ensive
ĠChe ese
Ġdep ressed
Ġbow ls
Ġdest ined
ĠMer cy
dam n
Ġexcl aim
Ġsad ness
Ġdescri bes
Ġpi geon
Ġspring ing
met ic
Ġver dict
pro fit
Ġsens ation
ĠWil mot
Ġgro cer
Ġlog s
Ġshr ink
ĠStan ford
ĠTy p
Ġreve al
bour g
ĠTurk ic
ĠLy dia
ĠTar o
Ġtravell ed
Ġopt im
Ġgle e
Ġdrain board
Ġteen ager
Ġsne eze
Ġyield ed
Ġcigaret tes
cor rect
seud ophil
leen ex
ĠAmaz on
Ġcontrovers ial
Ġgri p
ĠSpart a
Ġrobber y
Ġeter nal
ĠCHR IST
Ġadvis or
Ġvi br
Ġger ms
tele phone
ĠFleet foot
ĠSlow ly
ĠTRE VOR
Ġcoinc idence
ĠFlet cher
ĠWra ith
ĠRale igh
seudophil autus
6 8
E ric
G C
G e
G reat
P LE
R ichard
S AR
c ourse
f i
f urt
l en
l ion
m urm
n Ã©e
p ies
t or
t ri
w ife
w yn
x ter
y ah
Ġt ame
Ġt ren
Ġt ips
Ġa quarium
in em
ou ched
Ġb um
Ġb ake
Ġm aps
Ġm umbling
Ġd otted
Ġf ences
or u
ar re
as a
om be
Ġh tt
ic ious
ĠT rying
ĠT roy
ĠT itus
ĠS au
ĠM I
im ble
Ġn oun
se ver
ĠH ab
ĠC row
ĠC arson
st een
Ġk oolaid
Ġme ek
ĠP in
ĠP as
ĠP ant
ĠP ack
ĠP epsi
il ight
ĠN ed
if ford
ĠR ivers
ĠR oma
ĠG ren
ĠG osh
ĠF ear
ĠF uture
ĠF isher
um i
um er
Ġr ushes
red ible
Ġpl ural
ab lo
ist ant
na ils
Ġthem es
Ġv ital
Ġman agers
ĠK ey
Ġar bit
Ġcl an
here nt
Ġro aring
ĠShe l
ĠSt ars
Ġaf fl
ĠTh row
Ġer upt
ĠV O
Ġam ateur
Ġthr ong
hm a
Ġcar ing
Ġco ax
av ia
Ġim pe
uck oo
Ġsha ken
Ġrem orse
Ġper mitted
ah u
Ġbook case
Ġres olve
Ġbo ards
Ġche f
Ġche ated
Ġatt ic
mp oo
Ġworld s
Ġfun ctions
me at
Ġbest owed
Ġsur f
az ed
Ġmet ropolitan
Ġperson nel
ex cellent
Ġsk et
ĠAd miral
ĠSp eaking
Ġplan es
Ġ6 3
Ġsound ing
ĠCar ters
Ġcoll ision
Ġste w
Ġinter ior
idd ick
ĠOr chestra
Ġmain tenance
Ġdream t
ĠSw itch
Ġhorse back
Ġclass ification
ĠWar wick
Ġreport ing
Ġexp elled
Ġfast est
Ġ16 7
Ġcompet itors
ĠGet ting
Ġdra gging
sha r
Ġclos es
Ġdep ths
Ġenjoy ment
Ġprop he
Ġfail ing
Ġcre eping
Ġpriv ately
Ġcharacter istics
ĠLou ise
ĠChan g
turn ed
Ġlim b
Ġhost ess
Ġsex ually
ĠMor occ
Ġscar ce
Ġcrack ing
lect ric
ĠPri vate
Ġsli pping
Ġspee ches
Ġsett ling
ĠMont ana
ĠWil kins
Ġcelebr ating
Ġaud io
Ġstrugg les
uten berg
ĠTran sl
ĠPlay ers
Ġess ays
vo ice
Ġrepeated ly
Ġproceed ings
Ġple aded
Ġconqu est
ĠLI FE
Ġamb ition
ĠTra vel
ĠBad en
Ġtransport ation
ĠVo ice
Ġpupp ies
ĠSC REAMING
ĠAgain st
Ã¤ r
Ġnick named
Ġrecall ed
ĠTrain or
Ġlod ging
Ġindign antly
haw k
Ġimit ating
Ġalt ar
ATION S
Ġcateg ories
Ġsequ el
Ġhal ted
ĠPig gy
ĠKai ju
Ġlin en
Ġdistract ed
ĠStr ong
shout ing
ĠGur u
ĠBatt alion
ĠPow ell
Ġrebell ion
ĠLis bon
ĠOtt oman
ĠSurv ivor
Ġrend ered
Ġcush ion
Ġcorrupt ion
ĠEvent ually
Ġscrat ched
ĠMiddles ex
4 3
B re
E ven
H FF
L isten
M L
R EN
b od
f ruit
g old
m umbled
n st
p m
r ons
s il
u ish
x y
x ation
z ig
Å ¾
Ġt roll
he ar
he ment
Ġa we
Ġw ob
Ġs urn
on ven
on ents
ha g
nd ez
Ġb rig
it tering
Ġm all
Ġd ots
Ġd itch
Ġp anda
Ġp addle
Ġg or
at ics
ic hi
ĠT ouch
ĠS ig
ĠM oll
ĠM ika
Ġn g
Ġn om
Ġre nder
ĠW als
se mble
ĠH ague
ĠB A
ĠB ath
st om
Ġdo ck
ur st
Ġan ne
ill ance
ce ans
ĠD iamond
ĠN ay
ĠN ash
un ken
ĠO g
ĠR ath
ĠR ush
ra bb
ĠG hana
ĠG IVE
ĠF reedom
Ġj ugg
Ġcan cel
Ġsh orter
Ġpl ains
ist on
itt ees
Ġcon vey
ven ant
Ġcl ums
Ġover heard
ĠWe in
ĠWe iss
Ġgr ub
Ġgr unt
man uel
Ġcar go
Ġsc en
Ġsc ent
Ġsc ull
Ġch uckle
aw k
ert on
Ġsl opes
de ep
ĠDe c
wh ist
ĠOn line
Ġwar ming
Ġacc um
ĠZ ero
ĠCl oud
Ġreg ards
Ġreg ulations
Ġinv iting
Ġsince rely
Ġca f
ĠWill ie
Ġrep ent
ÃŃ ve
Ġ9 11
Ġste als
room s
Ġinc onven
la ved
ĠEx per
ĠPaul o
Ġmis chie
Ġobject ions
col ored
con struction
Ġspecial ized
Ġdefe ating
Ġdep ression
hin o
Ġfur ry
Ġpost er
ĠEle ment
Ġdoubt ful
Ġrul ers
Ġaccept able
Ġkn elt
Ġrepresent ation
ĠON LY
ĠDem ocrats
ĠMil ton
St op
Ġhy pot
ĠPet ro
ĠBob o
ĠRod ri
Ġthreat en
Ã¶ r
ĠTri p
ĠLab or
vere nd
Ġremem bers
Ġcapt ive
Ġspl ash
Ġhi jack
Ġdemand ing
Ġbeha ved
Ġmut ual
ĠCons ider
Ġhug ged
ĠRon nie
Ġcong reg
Ġintern ationally
Ġsurround ings
ĠPers ians
Ġpregn ancy
Ġbon us
RY ING
Ġlink s
Ġsaving s
Ġgle am
Ġpassion ate
Ġflash light
Ġpattern s
Ġdece ived
Ġwebs ites
Ġneighbour ing
bro ke
pre ne
Ġindign ant
Ġrepro ach
grow ls
Ġblaz ing
ĠProm ise
Ġrefuge es
ĠWy oming
Ġginger bread
Ġintent ions
ĠEnvironment al
Ġcolon ial
Ġprev ailed
ĠSebast ian
GRUNT ING
Ġalleg iance
slow ly
ĠHus sein
Ġware house
Ġtwent ieth
Ġpand emic
object s
Ġmatt ress
design ated
ĠFortun ately
ĠRoose velt
ĠEdin burgh
5 8
9 7
L augh
M ot
M ag
P M
T C
c us
c ore
f en
i Ã¡n
l ins
p ath
w arm
Ġw uz
re rs
re prene
Ġb un
Ġb ats
Ġb ulk
Ġm oss
Ġd re
Ġp om
Ġp aw
Ġp unk
Ġp aus
Ġl ame
Ġin doors
le ader
Ġha ught
et ta
ĠT at
ĠT rent
ĠS U
ĠS r
ĠM ason
ĠM ole
ĠM itchell
Ġwe ighed
im m
im al
ad em
Ġre ly
Ġre ct
Ġre de
ĠB ib
Ġk itties
Ġ[ $=
ĠThe resa
Ġan ime
Ġli ly
Ġwh oo
ĠD ha
ĠD ro
ĠP ence
il is
ĠR ica
ĠG a
ĠG ri
ĠG ust
ĠL ots
ore n
ĠF ig
ĠF IND
ĠE R
ĠE u
ry an
ight ed
Ġsh rew
ig o
Ġv ivid
fe ed
Ġany time
ĠK re
ĠK el
ĠK ana
ĠK amen
ĠAnd or
Ġar ray
ĠShe ll
ĠV e
Ġwhere in
ran s
Ġam endment
Ġun will
te acher
ĠNe braska
Ġres umed
Ġsl ay
Ġsupp lied
ĠDo ing
Ġfin ance
ĠAll ies
Ġdr ums
ĠRe ad
Ġra ft
Ġra gged
Ġra gs
Ġsw an
ĠDe uts
gr ant
Ġstick ers
ec ess
ĠCan aan
Ġdec re
Ġdec ides
Ġred uction
Ġhot els
Ġjo ins
Ġfact ors
Ġed ges
ĠPar adise
Ġpar l
Ġmain land
AL X
ĠPl ace
Ġconst ruct
ĠCap ital
ĠSee ing
ĠEm my
Ġappro ve
Ġhast y
ĠGl ad
Ġdev ast
Ġlock er
Ġdirect ing
rel ated
Ġenc ount
ĠBE EN
ĠRos ie
ĠDis covery
Ġmass es
ĠPri ya
Ġver b
ĠTri be
ĠMo vie
Ġsurv ivors
Ġtemper atures
Ġoccup y
Ġbi kes
Ġsac rific
ĠNat ter
cr ack
mn ast
Ġattend ant
Ġprotest ing
ĠScar let
ĠBir k
Ġhurried ly
ĠĠĠĠĠĠĠĠĠĠĠĠĠĠĠĠĠĠĠĠĠĠĠĠ ĠĠĠĠĠĠĠ
Ġfier cely
ĠBra vo
Ġadvant ages
whe e
Ġsignific ance
Ġincident s
Ġassoci ate
Ġinvol ves
Ġchoo sing
Ġdough nut
Ġinn keeper
Ġdecor ations
ĠRaj a
Ġlod ge
hors ie
Ġmart ial
Ã¢ t
ĠRhodes ia
Ġcomplain ts
DO OR
ĠHorn er
Ġintellect ual
ĠMaced onian
Ġembr ace
ĠCant on
ĠProv idence
Ġsib lings
abber ing
Ġming led
Ġambit ious
ĠGipp ie
ĠGuatem ala
! ]
5 7
G erman
T E
V ENT
W AY
a ired
c onscious
d um
m os
p ushed
s pr
s ized
s weet
t iny
v ised
Â £
Â Ŀ
Ä ĥ
Ġ ~
Ġt akin
Ġw olves
Ġthe oret
Ġb ounce
is ive
Ġc ri
Ġf oe
Ġf oster
Ġto s
or ms
Ġp uff
ar in
Ġg ut
Ġl am
as ters
ic able
Ġth res
ĠT iny
ĠS HI
ĠS ul
ĠS ite
ĠS ex
ĠS URE
ĠA be
Ġe cc
Ġe jective
Ġno ses
Ġn av
Ġst if
ly de
ĠD au
ĠD ynasty
AT ING
ĠP ic
ĠP rest
ĠP hyll
ust y
ĠG ay
th ird
ĠL uck
ĠL ex
op ens
Ġwhat soever
ĠE nder
ĠE agle
Ġout s
ĠK ha
ĠK um
ag ged
ag uay
Ġus er
IN T
to ys
ĠU mm
Ġar rog
Ġcl at
Ġover se
Ġtr amp
Ġbr ack
Ġday time
ci als
Ġen closed
Ġhand ing
Ġunder take
Ġsm ote
ip her
ĠCh u
und y
Ġnew born
Ġlea ped
xt on
pen cil
Ġsl ed
Ġend ured
ĠBe hind
for ward
for ced
uc ci
ĠAl tern
ĠAl ison
look ed
ition al
Ġsw ore
Ġmon ot
Ġreal ised
Ġret iring
ĠMiss us
Ġfr antic
put er
ĠZ one
Ġ18 00
Ġ5 3
ames e
Ġhigh light
ĠPr adesh
Ġri fles
ĠCom pet
Ġsub stit
Ġsub scri
Ġsort ed
EN S
ĠLe v
ĠLe ip
rog ress
ĠPer ro
Ġart illery
Ġev olved
ĠPar aguay
ĠMan uel
Ġhon ors
che st
ĠWorld wide
Ġcho ir
Ġtea pot
lo at
Ġmis er
ĠBy un
ĠX II
Ġdi als
ĠNor ah
Ġpark s
Ġbreat hed
Ġstri pped
Ġpen et
Ġprodu ces
Ġdest ination
Ġorigin ated
ribut ion
ti est
ĠRichard s
ĠCo ffee
AM IN
Ġban anas
AD E
ĠEn joy
Ġbrown ie
ĠRob bie
Ġ191 6
ĠBel inda
ĠMor rison
Ġhy mn
Ġhy drogen
ĠBer ks
Ġpal m
Ġemploy ee
Ġaddress es
ĠCamp aign
sm iles
Ġbal anced
ellig ence
Ġ190 5
Ġshoo ter
ĠDra per
Ġattract ion
Ġpin ch
Ġdish on
Ġlone liness
Ġapolog ies
cow boy
ĠProfess ional
Ġcontribut e
Ġcontr ad
Ġtal ented
Ġrat io
ĠGal axy
Ġinsp iration
Ġdistur bing
ĠStand ard
Ġdough nuts
Ġspect ators
hib ited
bus y
dri ver
Ġhipp o
Ġ44 00
Ġembarrass ing
Ġvirt ue
found er
Ġvolunte ered
Ġprob ability
ĠSpring steen
Ġgard ener
ĠGIRL S
ĠRand all
Ġcontrovers y
ĠChat ty
Ġpeak ed
Ġupd ate
Ġprote ins
Ġcurs ive
Ġmamm als
Ġgovern ors
Ġpresum ably
vak ia
Bo zo
Ġinherit ance
Ġenforce ment
ĠLeop old
tad ah
Ġmelanch oly
ĠBrace well
Ġcourty ard
Ġtren ches
Ġencount ered
ĠNatter jack
' --
0 3
0 6
A d
D S
E F
F rance
I LY
K S
P T
T Y
V ING
W est
d ies
d ress
d uck
m is
s ky
t ails
Ã ī
he w
Ġw izard
ou x
Ġs oph
it ic
Ġc iv
Ġc ube
Ġo rig
Ġd an
Ġd angers
Ġf erry
Ġto ot
Ġto pped
ed e
ĠI mag
Ġp seud
Ġp istol
Ġl icked
Ġl amps
om ot
Ġh ose
ic ting
ĠT ey
Ġbe ck
ĠS ie
ĠS uff
ĠS iber
ĠS asha
ĠM ol
ĠM ath
im eters
Ġn avy
Ġre el
Ġre ferent
ĠW ig
ĠW right
ĠH undred
ĠH OUSE
ĠC ame
ĠC ause
ĠB AR
ĠB ran
ĠB IG
ĠB ucks
Ġme nd
Ġme ow
ill on
Ġse ize
ce ler
ĠD ana
ell s
un hunh
ĠO ft
ĠO dd
ĠO pa
ĠR andy
ĠG av
ĠL ig
ĠL ars
op us
op py
Ġj us
rom eda
ĠE ND
ĠE VERY
Ġcan ÃŃt
Ġthere ÃŃs
ĠJ umper
Ġde an
ol ia
Ġsu ited
Ġsome place
Ġsp ies
Ġcon ception
od iac
ĠK iss
Ġex ternal
ĠAnd romeda
to ld
Ġpro long
Ġcl ad
ish ima
ond a
omet er
Ġle e
pe anut
ble m
ĠV ale
Ġfl ute
Ġfl owing
Ġcha mpagne
man ce
Ġco arse
Ġpo ets
Ġmo or
ĠCh op
ath on
li us
li ved
Ġchan ced
Ġel abor
port ant
Ġdr ummer
Ġdr unken
Ġmen u
ens es
Ġsix teenth
ES CO
Ġhear th
ĠCan ter
Ġsit uations
Ġball ot
ĠEd u
Ġdec ade
ĠInd igenous
Ġhigh chair
Ġri bs
Ġsy n
ĠLe gend
ĠQ U
Ġext end
Ġpoor ly
bo ards
sp eak
Ġtrans gender
Ġcho ke
Ġrece iver
Ġconst ell
Ġmer it
Ġband aid
,-- "
Ġcirc uit
Ġoper ates
Ġprogram mes
ĠMer c
Ġow ing
ĠSunday s
Ġsuper st
ĠGl as
tell s
ĠÃ ģ
Ġrad iant
Ġneck s
ĠOlymp us
Ġjud ged
Ġrepresent atives
Ġmach inery
Ġrespect able
ĠSer bia
ĠPet ra
Ġcrow ds
Ġconc rete
Ġris ks
ĠEll ie
ĠDar win
Ġund o
isc asset
uk u
Ġtrick y
vis or
Ġstream ing
cr ates
Ġphil anthrop
ĠBarb i
Ġpor no
Ġaunt ie
AUG H
Ġsymb ols
ĠPo acher
Ġsympat hetic
Ġrelax ed
Ġwhist ling
Ġcraw led
Ġze bras
Ġautom atically
Ġtorn ado
Ġcro cod
fr ont
Ġfortun es
Ġdiamond s
Ġpanc ake
enes is
quick ly
Ġrequire ments
ĠRus so
Ġsneak ers
Ġelement ary
Ġblaz e
Ġmock ing
Ġnegoti ations
Ġsequ ence
ĠDef ence
Ġigno red
Ġtires ome
Ġinher ited
ĠStock holm
ĠHistor ic
Ġske leton
Ġdwar f
Ġbrid ges
Ġcontem porary
Ġbisc uits
ĠFrances co
Ġeffic ient
ĠFace book
ĠLeban on
Ġawait ing
ĠGÃ¼ n
Ġawaken ed
ĠGaul s
Ġcel ery
ĠBritt any
ĠSier ra
Ġwors hi
ĠDw ight
Ġundoubted ly
ĠAgr ic
ĠMard ie
4 1
B OTH
L ED
M ING
R ANG
Y OU
a ited
c ourt
d iv
g io
j un
l ollipop
s ub
t rees
v il
y pe
z el
Â Ń
he nd
Ġs anta
on ial
it ness
Ġd w
or ity
or ph
ĠI owa
Ġp ion
Ġp ang
Ġp iled
Ġg n
Ġl oses
le z
ĠT ru
ĠT HING
ĠS A
ĠS ent
ĠS IS
ĠS lav
ĠS ullivan
ĠA u
Ġis ol
ut land
ĠM aw
ĠM itch
ĠM OM
ac a
Ġre li
ĠW i
ent ric
am ous
ĠC our
ĠC opy
ch in
ĠY on
ĠD y
ĠD ifferent
AT CH
ĠP M
il ess
ĠR UN
ĠG em
th irty
ĠL iz
ĠF ri
Ġso b
Ġj est
ĠE k
pp e
pp led
Ġde emed
Ġr asp
ess ed
Ġsu llen
qu oting
Ġany ways
ap es
-- '
Ġpe g
ne z
so le
ass ium
Ġen velop
Ġun belie
Ġfl ush
act s
Ġcar nival
Ġcar penter
ang ry
Ġsha dy
Ġsha mpoo
Ġch illy
Ġlea pt
Ġgl owing
Ġpret tier
Ġrun nin
ĠTH REE
Ġele venth
Ġret ained
Ġball et
Ġhur ricane
eng ine
Ġdear ly
ĠMot ion
ĠCar roll
Ġleg acy
just ice
Ġswe eping
Ġcur rency
erv ations
Ġcho ked
20 14
Ġmess engers
Ġfree ze
osp ace
lo aded
Ġsn eaking
Ġmer chand
duc ing
Ġmot ions
Ġ11 0
Ġexper ts
Ġdoub ts
Ġdoub ted
Ġbird ie
Ġve xed
Ġda res
ĠCo ach
Ġrad ical
Ġban ner
ĠQu est
Ġelect ron
Ġremark ably
Ġbreath less
ĠST ART
Ġhun ters
ĠHug hes
Ġemploy er
ĠME ET
ĠRepublic ans
Ġcivil ized
Ġskin ny
ĠFin ance
Ġnet works
Ġinflu ences
ĠSim pson
Ġharm ony
gn acio
Ġappl ications
Ġshore s
An n
Ġremain der
ĠPan ama
su pp
Ġfier y
ĠShar p
ĠDire ct
Ġbon net
ĠInt elligence
Ġrefe rend
Ġfaint ly
Ġdism iss
ĠOb ama
Ġlob by
Ġspect acle
ĠBab a
ĠRevolution ary
Ġdemonstr ate
Ġfenc er
gro ans
ĠTrain ing
Ġflu id
Ġvic ious
ĠMem orial
Ġtyp ically
Ġdial ogue
Ġpron unciation
ĠFif ty
rod ite
ĠOt to
ĠRud olf
tur tle
Ġult imate
Ġseas ide
Ġmyth ology
Ġstor age
ĠAndre a
ĠTot ally
Ġsurve illance
Ġinterpret ation
Ġprote in
whim pers
cap ital
Ġinaug uration
Ġrestrict ions
Ġdischar ge
Ġcompass ion
Ġfisher man
nick name
ĠBAB Y
Ġacknowled ged
Ġfest iv
ĠNAS A
Ġperf ume
Ke ep
Ġcertific ate
Ġvolunt ary
ĠExam ples
Ġunnecess ary
ĠDill son
ĠCommer ce
ĠMig uel
! )
2 20
D I
D ON
E le
H all
K O
L ike
M onday
S te
c akes
c rit
f ollow
f ires
f inal
g led
k as
l ance
o qu
r iding
r usted
s uit
Ä «
Ġa qu
Ġs ly
ha gen
is andy
Ġm ates
Ġo ct
Ġto il
Ġp ence
Ġp rest
Ġg imme
Ġl ick
Ġl ull
Ġin fer
Ġhe aps
et ies
Ġit alian
al bum
ĠA ph
ĠA ctor
ĠA stra
Ġe rect
ĠM ix
ĠM akes
ĠM eth
ĠM ead
ĠM ov
Ġre cept
ĠH ilda
ĠH ockey
ĠC iscasset
ĠB icester
ea pple
ur f
Ġas c
ĠD uc
ĠD AD
ĠP u
un less
ant ine
ĠR ack
ĠR ICH
ĠG aut
ĠL AST
op al
ĠF ac
Ġall ied
Ġpl uck
Ġpl under
el ts
the astern
fe ction
ear ance
od ka
Ġtw elfth
ĠK ara
AR ING
oy le
Ġqu iver
ĠWe e
ĠTh ousand
Ġbr ushing
ĠV lad
pl us
Ġpr ick
Ġhand y
Ġsc ope
cl ed
ip ing
ons hire
Ġcr adle
Ġnight gown
Ġ. ?
Ġfin als
Ġear rings
can e
Ġob li
Ġret ail
Ġret orted
ĠFran con
ib ilities
Ġmet ap
Ġdri pping
ex per
Ġsk ate
Ġair planes
Ġinst ruction
sh ore
Ġeas iest
Ġland lord
ĠFl ash
Ġref using
Ġmonth ly
Ġinc orporated
ĠSh ut
Ġrepl acing
Ġ16 8
Ġdepart ments
ĠPresident ial
Ġrain y
Ġpleas antly
ric ia
ĠX box
af ia
Ġpark ed
Ġdep ending
Ġpost p
ĠKe ys
Ġsuper natural
Ġled ge
ĠCo ke
Ġsuggest ions
Ġsol ved
Ġsol itary
Ġstat istics
Ġdescri bing
Ġsna ils
Ġrepe ats
ĠHam pton
Ġsle igh
ok o
ĠDep uties
Ġcivil ian
log y
Ġcapt ivity
ĠDel ta
Ġble ed
Ġeager ness
Ġharm less
Ġdisp os
Ġappreci ated
Ġfra grant
ĠStan ard
Ġmel ody
ĠUN ESCO
ĠWhe never
Ġpoison ing
Ġconv iction
pol is
Ġpossess ions
Ġrestaur ants
ĠLeon ardo
Ġimpl ications
ĠDam n
Ġdiss olved
ĠDun can
ĠRail ways
ĠDesmond stown
Ġrejo icing
ĠXX X
ĠMOT HER
ĠSyl ar
grand father
Ġlegend ary
Ġcaut iously
start ed
Ġstrict ly
ĠAw esome
ĠRud olph
ĠStra ight
ĠRich mond
Ġslee ves
ĠEli as
ĠAndr ade
Ġfab ric
Ġfrustr ation
ĠSlo ven
Ġunemploy ment
Ġavo ided
Ġcompens ation
ĠJama ica
Lea gue
ĠGon z
CHUCK LES
ĠMU CH
ĠVat ican
Ġsynd rome
Ġtempor arily
ĠLux em
ĠRaf ael
demonstr ates
rabb it
0 40
B less
B ubba
M er
M arc
N onna
T ON
W H
f rigerator
g ons
l Ã©
n ear
p ay
r ÃŃ
s hed
t ouch
v ir
re ction
Ġs ums
Ġb ast
Ġb aking
is ms
Ġc ens
Ġc ape
Ġc reek
Ġc emetery
Ġd ynam
Ġd usk
Ġf olly
Ġf alsetto
an z
or ax
en ough
ar th
at hi
Ġhe ated
Ġon ions
ĠT itan
Ġbe headed
ĠS omers
ĠA ur
ĠA the
ĠA rd
Ġno is
im ir
Ġre leg
am on
ĠH amp
ĠC ourse
ĠB ess
ĠB orn
ĠB ears
ĠB asket
st age
Ġdo st
ĠThe m
Ġas cend
Ġse aman
ĠY ard
ĠD ot
ĠP or
ĠP ush
ĠP ole
ĠP ascal
un intelligible
ĠO p
ĠO bs
ĠR ico
ĠL EA
ĠE N
Ġpl ank
han i
el ujah
ist ical
qu estion
you ng
ĠK orn
ĠK urt
ag n
Ġex ile
Ġex cell
Ġpe eping
Ġoff ensive
ĠSt rat
Ġtr an
Ġbl ouse
Ġbl unt
so ver
Ġgr unts
ĠV ers
ass ing
oll en
Ġwhere upon
ire ct
Ġam en
ĠSo crates
ach ne
Ġun ite
Ġcha os
zz i
Ġhand ling
ug ged
cl iffe
ful ness
Ġsm ashed
pen se
pen ny
oc ese
ĠBr un
Ġmin us
ĠRe ich
br alt
ĠAl aska
ee e
Ġpre ca
Ġpret tiest
ĠTH RO
ĠAr row
ĠAr oost
ĠAr achne
Ġwar p
Ġac res
me ow
ĠMiss ion
Ġbad ge
EL I
ĠZ ion
ĠCl im
Ġcons ort
pr us
Ġrest rain
ĠPr im
Ġind uced
ĠSc ots
app y
Ġbas in
ĠPh ot
Ġadd ict
Ġrep ay
Ġrep ubl
Ġfore cast
Ġass urance
AI T
Ġext ensive
idd y
ĠPro ven
Ġcur se
ĠOr pheus
ĠFe et
ĠFe el
ĠHar low
ĠFrench man
ards ley
Ġband age
cy cl
Ġcompet es
Ġpot assium
Ġorgan ic
Ġfa ire
Ġest ates
Ġinde x
ĠChe w
ov ich
Ġarri ves
Ġoper ator
Ġstri ker
uri ously
omb ies
Ġfail s
Ġpat ent
Ġexcept ional
Ġvol t
Ġcard board
Ġtrack ing
off s
Ġgar rison
Ġrespect s
Ġincre ases
ĠMor i
Ġviol ently
Ġclock s
ĠBE CAUSE
ĠDes cription
ĠST OP
ĠJul ian
Ã¶ n
gigg ling
bu zz
Ġwise ly
Ġjoy fully
Ġninet eenth
ĠLuc ha
Ġeconom ist
ĠWood s
sl ice
Ġsurv ivor
ĠTer rible
Th ree
Ġ190 6
bor o
ĠBur ger
ij i
mark et
Ġburst ing
ĠTy ler
EP ING
ĠVict ory
Ġdetect ed
Ġcrim son
ĠBra ve
ĠShar mila
Ġconcent r
ras p
ĠGi bralt
Ġrac ial
ĠLeon id
ĠShan g
Ġthrill ed
rac ombe
dri ving
ĠCOM M
ĠNE VER
Ġmanufact uring
ĠReady man
Ġachieve ment
found ed
Ġtox ic
ĠRA F
Ġprob able
Ġrecon c
igr ated
ĠHind i
ĠGard ens
ĠEwo ks
Ġexceed ing
din and
imit ates
ĠFE EL
Ġkilomet res
Ġens laved
strawber ry
Ġmorn in
Ġadopt ion
Ġbloss oms
spe ed
Ġprecise ly
Ġvolcan ic
____ ____
ĠTob y
Ġski ing
Ġaspir in
ĠLeban ese
ĠCONT IN
Ġunsuccess fully
ĠPun jab
Ġgram mar
Char lie
Ġdisgu ise
fif ty
SPE AKING
ĠKath leen
ĠLiter ature
Ġshud der
ĠAlexand ria
Ġcrook ed
ĠHond ur
ĠGob lin
Ġparad ox
Ġcorrid or
Ġmoust ache
ĠRath ore
ĠGlas gow
Ġdw elt
ĠAroost ook
9 5
C U
C ha
D P
L ou
L AND
M ad
Q U
T ur
b less
b ache
d ance
f elt
g entle
l ate
m oor
s pl
t han
u i
u ld
Ã °
Ġ icy
Ġt inker
in ia
Ġw iser
Ġw itches
Ġs ar
Ġs ip
er oy
Ġto m
ĠI v
ĠI st
Ġy ucky
Ġp ose
Ġp ian
ar us
Ġg ale
Ġl oop
Ġin mates
om o
Ġh ier
le e
Ġha ha
Ġha ul
ĠT it
ĠT RI
ĠT arek
ĠS ons
Ġno pe
ot he
ĠW har
ĠH ook
ĠC ort
ĠB ord
Ġdo om
ea ux
Ġwh it
ĠY un
ĠY uri
ĠD ong
ĠD acre
ĠN elly
... !
ĠR ace
ĠL arkin
op ardy
ĠF OUR
Ġso bbed
ĠE M
ĠE ston
ie u
ul um
Ġout ward
ink y
na i
qu ito
ber ger
ick er
od ge
ap y
ap est
ĠK ness
Ġex ter
Ġcl apping
Ġro bes
hy la
ud son
Ġbl ot
Ġqu id
Ġqu oted
Ġhow ling
ĠV on
ĠV iew
ci ples
Ġneed les
ren ched
Ġun in
act ing
og on
Ġpo ke
ĠCh icken
Ġch ili
Ġcont ra
but ton
iv ation
ĠBr at
Ġcomm ittees
ĠAs soci
Ġmon it
Ġele gant
gr unting
she ll
Ġblack mail
io x
Ġdist ressed
Ġind icates
Ġfif teenth
Ġmiss iles
eter a
Ġfact or
ĠBl anc
ner able
Ġinter ference
Ġinter action
Ġshort ened
ĠYour s
Ġcreat es
ipp y
Ġfast en
Ġpublic ations
Mom ma
Ġpot tery
Ġcross es
Ġdra ught
Ġpresident s
Ġve hement
chan ting
mon ary
Ġproduc ers
Ġpack ages
would n
Ġtast y
Ġcharacter istic
Ġdecl ine
Ġphot ograp
ĠMon roe
ĠRober ts
Ġgar lic
Ġhero ic
Ġcommun ism
Ġguard ed
Ġsli ppery
ĠBat eman
ĠDist ributed
Ġhonor ary
Ġinflu ential
bor ne
ĠRec ording
ĠPrin cipal
Ġinf ant
ĠBu y
Ġwrest led
Ġge ography
mark s
Ġshr imp
rif ied
walk er
ĠZe ke
Ġbug gy
Ġrank ing
Ġtooth brush
ĠRE M
ĠInt erest
Ġstack ed
ĠCy prus
Ġhesit ation
gro ve
Ġrejo iced
Ġconsist ing
Ġje ep
Ġdomin ant
ĠMas ters
ĠBor is
ĠAnim al
Ġsung lasses
ĠCho i
Ġstern ly
Ġimprison ment
Ġdwell ing
ĠMP s
Ġult imately
ĠXV I
ĠPalest ine
ĠMR S
ĠAmaz ing
ĠSn ake
ĠLyn n
Ġsentiment al
ĠOrigin al
Ġhither to
GRUNT S
ĠCru z
Ġparas ite
ĠCheer ios
Ġmoder ate
ĠEug ene
alpha HFF
Ġshat tered
Ġmanif est
ĠSenn it
ĠNAT O
ĠUg anda
ĠOlympi ad
ĠBened ict
ĠLeip zig
ĠBerks hire
ĠOft en
ĠCanter bury
ĠAph rodite
bache v
ĠKness et
6 4
B ad
L IS
M usic
M aj
_ ."
a ving
b oo
c oll
e em
h oo
m orning
n one
p age
p ears
p ours
r ics
u ki
w ash
z ai
Ġ ib
he er
Ġw i
re a
re p
er m
er ts
it ations
Ġd in
Ġp aws
as el
Ġhe ck
Ġh ilar
Ġth oo
ĠS z
ĠS ou
ĠS OR
ĠA ch
ĠA ileen
Ġe uros
ĠM S
Ġn it
Ġre built
Ġst ained
Ġst amps
ĠC raw
ĠC amb
ĠC BS
ĠB elt
ĠB order
st ed
ro ft
Ġwh olesome
Ġse izing
ĠD I
ĠP ER
ĠN er
ĠN an
ĠR oute
ĠG orm
ĠG ott
ĠL amer
ĠF AM
ĠF unny
Ġsa kes
um in
ĠJ ur
ĠJ ob
Ġr ally
ol an
Ġout standing
Ġout post
Ġpl aint
ab l
han gs
ink les
qu in
Ġcon ve
Ġtw inned
ĠK il
ven ess
Ġag rees
Ġcl ues
Ġcl utch
ĠShe ppard
Ġtr act
Ġbl og
Ġle ctures
Ġplay ground
ĠV ance
Ġfl aming
Ġsc ri
Ġsc out
Ġapp rent
ĠBr us
URS E
uc ing
ĠRe ception
ens ed
ition ally
Ġmon aster
AN Y
Ġreal m
ĠAr c
Ġmar rying
Ġac ute
me al
EL LOW
Ġrel ieve
ĠEd ition
Ġdri p
ĠPr ay
Ġround about
Ġind icating
Ġtri fle
Ġlo ans
ĠCom ics
Ġdat ab
Ġland lady
Ġi Phone
Ġaw aited
Ġexc uses
orm al
Ġinc ons
Ġdisc ount
Ġinter ven
Ġinter val
sp ir
sp ace
Ġless er
Ġdeal er
ense i
Ġgrand parents
Ġtrans formed
fl u
ĠHere bald
ĠCon vention
fort une
ĠMe et
ĠTr uth
Ġstar ved
Ġobject ed
laughing ly
Ġmot to
Ġstep mother
ĠIN TO
Ġdeep est
Ġequ als
Ġmatch ing
ĠGl ory
ĠCo vent
Ġ21 0
Ġeduc ator
Ġstat ues
ĠMon arch
Ġincre asingly
Ġchief s
Ġrid ers
Ġmem or
ĠReg iment
Ġhy per
Ġhy dro
ĠMic he
mag ic
ĠJose f
ĠJew el
Ġhun ter
ĠSen ior
Ġaud ition
Ġ190 9
Ġappre hens
ĠChief s
Ġfra gment
Ġmail box
Ġflag s
Ġmel ting
ĠJon ah
Ġutter ances
Al ert
bra him
Ġcomment ator
ĠAmeric as
Ġchap el
ĠHea vy
ĠGeorg ian
ĠSpr ings
ĠSil ence
ĠGal icia
ĠSH OULD
Ġchallen ged
ĠArmen ians
196 9
Ġcraw ling
Ġjealous y
Ġflood ed
Ġcro ps
Ġdom ain
Ġdecor ated
Ġexperiment al
Ġconsult ation
ĠFer dinand
ĠGor bachev
Ã± a
ĠForm ula
ĠBart on
Ġaband on
Christ mas
Ne il
ĠTech n
Ġpron oun
Ġconsum er
Ġsubs idi
ĠStart ing
Ġlecture r
Ġshepher dess
Ġrecommend ation
ĠMcK ay
ĠCorpor al
ĠNiger ian
Ġassass ination
ĠFR AN
Ġsumm ers
Ġfrustr ated
Ġadvoc ate
ĠTun is
pow ered
Ġkno b
Ġsty les
Ġspaces hip
Ġunsuccess ful
ĠBeng al
Ġprosper ity
Ġconson ants
ĠIÃŃ m
ĠBuff alo
Ġshiver ing
ĠPey ton
ĠAns wer
ĠFilip ino
Ġneut ral
ĠAlc inda
Ġallerg ic
ĠBark er
ĠBapt ist
ĠCratch it
Ġincor rect
Ġsurn ame
ĠTey la
ĠSOR RY
ĠLamer ay
" .]
5 3
5 4
9 8
A nt
B Y
G eneral
H ush
J AMIN
N Y
R ock
S ay
T alk
T was
W oman
b as
b ility
c H
c reat
c ond
d ram
e i
h il
j in
m ia
m ix
p rom
p uzzle
r ug
s oo
t ic
t ong
v ance
á »
re ng
on ic
Ġc ouncillors
ed uc
en z
Ġyou s
Ġl aser
ĠS add
ĠS ung
ĠS IG
ĠS alle
ĠM uri
Ġwe aken
ĠW HIS
Ġst ain
ĠH ers
ĠH AS
ĠH olt
ĠC ay
ĠC red
ĠC elt
ĠB alk
ĠB OTH
Ġdo d
Ġk na
ur b
ur geon
and s
and ro
Ġli lies
Ġat omic
ĠD in
ĠD ixon
ĠD iane
ĠN uclear
ĠO il
ĠR icky
ĠG is
ĠL t
ĠF est
Ġso bs
Ġj aw
ĠE van
Ġcan ce
ĠJ ACK
ĠJ odi
Ġde ars
ĠHe ctor
os lo
ast ro
Ġsp ears
ĠK it
ca red
Ġthen ce
Ġaf loat
Ġbr andy
ĠNo ey
iss ance
ci val
Ġdis pers
Ġun l
pt ions
Ġhand writing
av an
Ġsc ooter
cl aps
Ġhel m
Ġper chance
Ġdoing s
Ġsl ower
for ming
de v
ens is
ĠDe bor
Ġunt o
gr own
The se
me re
me red
Ġmat ure
Ġpick up
any body
Ġcons ented
Ġsk ipped
ĠTHE IR
Ġfire men
sh ield
sh irt
Ġ7 00
Ġsub tle
Ġtra gic
rop hy
ĠMot or
Ġcoll eges
ĠBl anche
Ġpain ts
umb o
Ġes p
Ġsqu ash
Ġmark ers
che ck
ane ous
ĠSh iny
20 20
Ġ17 0
Ġsn acks
Ġsn atched
Ġdem ol
Ġpublic ity
Ġfil med
yl an
Ġpartic les
Ġgod damn
sha w
Ġdoubt fully
ĠPol icy
Ġprop ag
Ġpract ise
Ġlau rel
Ġview ed
Ġcomfort ed
Ġphot ography
ĠColl ier
Ġflat tered
ĠSam antha
het to
ĠPort land
Ġsna il
Ġsna ps
Ġduck ie
ĠMil es
ĠMo hammad
Ġsettle ments
Ġregard less
Ġmedic ation
Ġcult ures
Ġ190 7
ograph ic
Ġcouncil s
Ġfashion able
ĠFore ver
had dya
Ġfold s
Ġplat forms
Ġparticip ation
ĠWall ula
Ġpor ter
Ġpred ecess
ILL Y
ĠAtt ack
ĠTre as
Ġrout es
Ġexchan ged
ĠRO GER
ĠPre p
ĠPop ular
Ġast hma
Ġshel tered
Ġtender ly
him self
ĠLar ita
Ġreward ed
Ġsquee zed
Ġresour ce
Ġtechn ically
erman n
Ġadmir al
Ġmotorcy cles
Ġmechan ism
magnet ic
Ġquant ities
Ġcollea gue
Ġcooper ation
Ġabsor b
bir th
Ġconnect ing
ĠDur racombe
ĠAud rey
ÅĤ aw
ĠGil bert
Ġhoriz ont
Ġdraft ed
ĠBamb oo
Ġinvolve ment
Ġbunk er
Ġcreep y
Ġinfin ite
ĠLim ited
ĠEngine ering
Ġhob by
Ġclin ic
ĠChin amen
Ġenqu iry
ĠCroat ia
Ġblond e
ĠMunicip ality
ĠAhm ed
ĠNad u
stad t
Arab ic
ĠChel sea
Ġvert ical
Ġreci pe
iche ver
ĠKurd ish
ĠCAM P
Ġfanc ies
Ġrans om
Ġfatig ue
bun al
ĠDecl aration
ĠCler ke
ĠElephan t
stro ke
ĠHew lett
ĠBroadcast ing
Ġquot ation
ĠFranken stein
Ġmischie vous
Ġconstell ation
Ġpion eer
Ġisol ated
Ġmerchand ise
Ġreferend um
ĠRICH ARD
ĠGorm ogon
) ]
4 00
6 7
H as
M art
S ing
T A
U m
h ope
l it
m ese
o ked
r t
r hinoceros
t ower
t aste
w lin
z in
Å Ħ
he avy
Ġs omers
Ġ* ****
ha les
nd on
Ġb orough
Ġc er
Ġc ope
Ġc edar
Ġd oth
Ġd iction
ing a
ĠI P
Ġp est
Ġl oser
no v
Ġh ulk
Ġha lt
et e
ĠT hi
ĠT ong
ĠT rees
ĠS ard
ĠS und
ĠS ey
ĠS alem
ĠA H
ĠA ROUND
Ġe clipse
ĠM iz
ĠM ina
Ġn atives
Ġre cl
ĠW app
ĠW ON
ĠW AL
se nd
Ġfor s
Ġst umbled
ĠH es
ĠH AND
ĠH iccup
ĠC emetery
ĠB ardsley
st orm
Ġk leenex
Ġ" ...
ch urch
Ġat he
Ġse ash
ĠY a
ĠD har
ĠD ancing
ĠP ia
ĠP aper
ĠN T
ĠN iles
Ġ- ----
Ġ- --------------------------------
ĠR ather
ĠR ise
ra ps
th ou
ĠL en
Ġj ingle
ĠJ ava
Ġab du
Ġbut t
Ġout st
Ġdid st
Ġpl ump
ab we
ig rant
Ġsu nd
ber n
Ġv ase
ĠK ra
Ġar c
Ġar ith
ne red
Ġcl apped
ĠIn formation
ho on
Ġgr id
ci us
pl aced
Ġen lar
ran o
Ġyear ling
og en
Ġad vers
Ġmo at
Ġsc ant
Ġsc otch
Ġrem ix
Ġunder wear
Ġch ron
Ġname ly
Ġmust ard
ĠMar ÃŃa
hes is
Ġres ulting
ĠChi p
Ġsl id
ĠBe yond
Ġroom mate
Ġpres ume
Ġsil ky
Ġra id
ĠAl t
ĠAn at
ĠDe al
AN S
wh ine
Ġsix pence
Ġwar mer
Ġmar ine
Ġret rie
Ġac celer
Ġwait er
ĠFran Ã§
Ġent reprene
ier re
Ġmet als
ĠMay a
Ġhat ched
ĠEr nst
Ġsk il
Ġinst alled
ash ima
Ġind uce
Ġlo vers
ĠTo ad
Ġcountry men
Ġmiss ile
Ġimp lement
Ġimp ulse
Ġrep aired
Ġpubl ish
Ġmed ieval
Ġfell as
ĠPer cival
Ġcontin ental
Ġbar que
Ġgener als
ator ium
Ġloc ally
Ġshort s
ik ing
Ġcur tis
ĠDr ink
ĠHar ley
ĠSw ift
ĠCon nor
Ġadv ancing
ĠTr inity
ĠTr uman
Ġrece ipt
Ġexp ose
ĠAm Ã©lie
Ġrepl acement
ĠAh h
Ġorgan ize
Ġhop ping
ange red
Ġsuper hero
Ġprop het
Ġmad ness
Ġsevent eenth
Ġban ished
Ġgas p
Ġcollect ions
Ġbank er
ĠRoman ian
ĠQu iet
Ġdecl aring
ĠTw elve
Ġfem inist
Ġconne ctions
ĠVer hoe
Ġcommand ing
Ġaut onomous
Ġspread s
arr ondissement
vi ving
Ġpet ty
Ġexam s
Ġshad es
Ġmedic ines
bur st
Ġbless ings
could n
imb abwe
Ġinno cence
199 1
ĠUnder stand
Ġnic est
Ġenter prise
Ġtarget s
Ġune as
ĠLu is
ĠWork ers
inc inn
Ġpoison ous
Ġexpress ing
Ġpil grim
ĠWild tree
Ġder ived
Ġrefe rences
ĠBour don
Ġfever ish
upp ets
Ġappeal ed
ĠBow l
dri ve
fr ustr
Ġsmo ked
ĠSel by
Ġimpati ence
ĠTalk ing
ĠPlan et
Ġsne ez
Ġguarant eed
Ġimit ate
ĠMain stream
ĠGray son
-------------------------------- ----
ĠNotting hamshire
rek h
ĠKill er
ROAN S
Ġshrie ked
Ġresear cher
Ġiniti ative
Ġfulf illed
Ġlun cheon
ĠMAY BE
Ġcycl ist
ĠEb den
hipp opotamus
ĠMcG ee
Ġsoo thing
Ġaccommod ation
Ġdil ig
Ġfert il
Ġmanufacture r
Ġassum ing
ĠTE AM
Ġtid ings
hist oric
Ġglo be
chuck ling
ĠGio van
ĠMalays ia
ĠGRUNT ING
ĠNamib ia
Ġdisli ked
Ġunwill ing
ĠHamp den
ĠBasket ball
ĠBrus sels
ĠSadd am
ĠDebor ah
Ġseash ore
ĠVerhoe ff
7 8
A z
F ar
G ROANING
H an
H uh
H AL
M ont
N ER
P P
P at
R ed
S outh
S uper
T uesday
V o
W on
b est
c am
d ah
m oo
m ath
n u
n ib
p ump
r one
r ants
r ude
s ort
Â ·
Ġt aps
Ġa ven
Ġa mer
Ġw ig
re f
Ġs arah
Ġs arc
Ġb ungal
Ġm ould
Ġc ove
Ġo ri
Ġf i
ing don
Ġy uck
es c
Ġp ent
Ġp oodle
Ġin ward
Ġin justice
ic ism
Ġth ump
ĠT iber
ĠS ort
ĠS ita
ĠA man
ĠA IDS
ĠM ant
ĠM ak
ĠM OR
Ġn aval
ĠC air
ĠC RE
ĠC reed
ĠC auc
ĠB le
ĠB rew
st ore
st ring
Ġk ap
ur ring
ĠD as
ĠD ame
ĠD ee
ĠD uf
ĠN orton
un ge
un ned
un clear
ĠO ju
ĠR id
ĠR over
ĠG ret
ĠL anguage
op ard
ĠF ro
ĠF ast
um ma
ĠE ye
ĠE ros
ĠJ oo
ul ates
ĠHe e
ĠHe h
Ġr it
Ġr aced
Ġor nam
qu al
qu ack
nt y
Ġv odka
Ġcon vention
Ġjust ify
ĠK end
ĠK won
Ġag gra
Ġpro ves
Ġpe w
Ġar ist
Ġcl er
Ġcl inging
Ġcl uster
Ġro gue
ĠSt ories
Ġtr aced
Ġaf ore
ĠWe ather
pe ace
pe cker
ĠTh ir
onna ise
Ġbr icks
ue y
Ġgr inned
ĠV ane
ĠV ideo
pl ain
Ġen abled
IS Y
Ġgu ided
Ġfl ashing
ret ion
te asing
Ġcar p
ang o
Ġpo ker
Ġrem oval
Ġapp lying
Ġch ore
Ġcr utches
ĠMar ple
Ġres olute
ĠYes terday
Ġrec re
Ġcomm otion
ĠBe g
let es
Ġgl ittering
Ġnum bered
ĠRe ed
de f
ee red
Ġpre lim
Ġmon str
Ġph os
Ġsecond ed
Ġmat ched
Ġchar ter
Ġhor rors
ĠQ ual
Ġprom ot
ĠBl air
Ġste er
Ġ10 8
ĠWh is
OR K
ĠSome how
ĠDr ama
Ġexpl oded
ĠCon or
Ġgra bs
Ġ12 3
Ġ16 0
Ġsca res
Ġorgan ised
ĠTe ut
ĠCal ed
que z
ĠChe et
was hers
Ġdiv isions
Ġfear ing
Ġcry st
Ġda zz
Ġstri pe
Ġlearn s
Ġbra kes
Ġpract ising
ĠGl enn
Ġpat riot
Ġsight s
iff any
ĠSte in
Ġhall way
ĠBel arus
Ġshut ting
ĠTw itter
dog gy
Ġhy ster
Ġhy brid
ĠBer g
Ġpal atal
Ġscar f
Ġtech nolog
ĠCare y
ĠGot ham
Ġfaith fully
ĠFin ancial
Ġhistor ians
Ġimpro ving
Th ursday
Ġ190 2
loud er
Ġimm une
Ġtow els
Ġcontract s
Ġgro ans
uz aki
Ġtext s
Ġconqu ering
ĠHu bert
Ġadminist ered
Ġcomment ed
ĠĠĠĠĠĠĠĠĠĠĠĠĠĠĠĠĠĠĠĠĠĠĠĠ ĠĠĠĠ
ĠĠĠĠĠĠĠĠĠĠĠĠĠĠĠĠĠĠĠĠĠĠĠĠ ĠĠĠĠĠĠ
ĠĠĠĠĠĠĠĠĠĠĠĠĠĠĠĠĠĠĠĠĠĠĠĠ ĠĠĠĠĠ
Ġanti qu
Ġclown s
IE LD
Ġtransl ate
Ġrent ed
Ġsignific antly
Ġtrem ble
Ġpant ing
bus ters
Ġfrequ ency
Ġteen y
ĠAD VENT
comm unes
ĠLiber ty
ĠSpani ard
Ġapprox im
ĠAG S
Ġrecover ing
Ġinsult ed
ĠImp act
Ġsubur bs
ĠNi gel
Ġintegr ity
Ġfab ulous
Ġdeleg ates
Ġtermin al
ĠClar ke
Ã® r
ĠMand ela
ĠCro ix
Ġpengu ins
Ġoverwhel ming
ĠCord elia
ĠCob ra
ĠBudd ha
ĠDig ital
Ġvul nerable
ĠQueens land
ĠEth iop
ĠSpin ipes
Ġjur is
ĠBEN JAMIN
Ġsod ium
Ġecst asy
ĠTib et
Ġpite ous
peek aboo
Ġcoff in
Ġshrew d
ĠCovent ry
ĠOju ara
Ġornam ents
2 60
6 1
9 2
; '
A fr
B ert
F IELD
G ro
J o
L uc
N C
P ope
P lay
S orry
S aint
c ra
c row
d or
d uring
e ous
f rog
g ame
j im
k ids
l ot
o z
p g
p read
p aste
r ast
s er
w inning
y ummy
Ġt ended
Ġw ret
Ġw ides
Ġw har
Ġs ul
ha el
Ġb ash
Ġm rs
Ġm asc
Ġf el
Ġto ken
or anges
es pecially
Ġp ave
ar ro
Ġg on
Ġg au
Ġl ag
Ġl ining
no se
Ġhe ter
Ġh oll
le vel
le gged
Ġha zard
ĠT able
id al
ĠS oul
ĠA K
Ġe yel
ad vant
ri ans
ĠW a
ĠW ord
se ems
am ine
ĠH D
ĠH OR
ĠH amb
ĠH udson
ĠC ul
ĠC open
ĠC otton
ĠC incinn
ĠB il
ĠB reat
ĠB achelor
Ġk ins
Ġme mo
Ġli ar
Ġat oms
ĠD IS
ĠD inner
AT H
ĠN C
ĠN BC
ĠR ice
ĠR ES
ĠR ena
ĠR UB
ĠG an
ĠG ual
ĠG uts
ĠG enesis
ĠL Ã®r
ore r
Ġup coming
ĠF A
Ġr ascal
Ġal ibi
ist icated
qu est
res pect
Ġsp ied
Ġ( ).
Ġjust ified
Ġtw ilight
ĠK em
ĠK hal
Ġex port
ide red
ous y
ĠSt ick
Ġput tin
Ġgr ades
Ġplay ful
ĠV il
pl ings
Ġcar ving
Ġco ke
Ġco ached
Ġhand les
Ġcomp aring
Ġsha m
Ġsha ggy
Ġsm arter
ip el
ign s
ĠMar ley
gg s
Ġsl aughter
ĠBe an
Ġsupp orter
Ġdes ires
Ġwater fall
de al
ĠAl as
Ġsw ollen
Ġele ctoral
ĠMiss ing
Ġfr owned
see ing
ĠZ oo
ĠZ imbabwe
ank ing
Ġmet eor
pr oof
ĠGo a
Ġspo kes
Ġcat alog
ax ies
Ġsub t
Ġpaper work
du ed
Ġhum id
Ġten ants
ÃŃ d
Ġfact ories
Ġwrit in
Ġ10 3
Ġstate ly
ham mer
ĠGu inea
Ġwin ters
Ġtrans it
Ġtrans mit
Ġexpect ation
Ġexpect ations
20 12
ĠBar r
Ġins et
Ġresp ir
Ġsweet ness
Ġgun powder
Ġtreat s
ĠX III
bye bye
ots uba
Ġdi agram
ĠIN D
Ġhusband s
Ġwarm ly
Ġvar ied
Ġwild life
Ġbra ke
Ġpract ised
Ġpract iced
whis per
tell ing
Ġwhis key
ĠÃ ¬
ĠJane iro
dis app
Ġought a
Ġdecl ined
Ġcrit ique
Ġhall oween
Ġcell phone
ĠHall elujah
ĠHigh way
Ġpers isted
ĠRod rÃŃ
Ġsocial ist
Ġallow ance
ĠJul iet
ĠJul iÃ¡n
ĠPen rud
ĠDar ius
ĠDar rah
Ġwheel ed
call s
Ġnap kins
Ġemb ark
ĠRec ord
Ã¨ res
Ġmic row
ĠTim my
Ġgro aning
Ġmotion less
ij uana
Ġprint s
ION S
Ġnoble man
Ġnoble men
Ġple ad
walk ing
ĠSol ar
ĠPers is
ĠThink ing
Ġstru ctures
Ġpred icted
Ġgoal keeper
ĠBir ds
ĠStud ents
ĠAtt orney
Ġpsych ological
ĠArch ite
Ġteaching s
ĠPop py
Ġchop ped
whe els
ĠBern ulf
De f
Ġrac er
foot ed
Ġheav ier
hun hunh
Ġunus ually
Ġdece ased
Ġelev ation
Ġinterrup ting
ĠAss istant
Ġwire less
ĠCzech oslo
ĠRh ine
Ġcann ab
knock s
Ġblaz ed
ĠBeat les
ĠBeat rice
Re ally
bac ca
ĠMatthew s
Ġnegoti ate
alle ys
Ġhyp not
ĠAut onomous
ĠLion el
Ġdrown ing
Ġmead ows
Ġmorn ings
ĠOper ation
Ġagric ulture
Ġga ily
Ġtack le
Ġeter nity
Ġowners hip
ĠInvest igation
ĠCoss acks
ĠRain bow
ĠCHR IS
Col in
ĠBald ur
ĠAF TER
ĠLaugh s
ĠAlban ia
ĠPom pe
ĠMap le
ĠSaf ety
Ġloft y
ĠBulgar ia
ĠFRIEND S
Ġauth ors
Ġmarvel ous
OUG HT
Ġles bian
ĠNell ie
kn ife
ĠEmb assy
ĠNev ada
ĠProof reading
Ġgoss ip
Ġveter an
Ġhamm ock
Ġphilosoph ical
Ġgor illa
Ġclums y
Ġparl our
Ġoverse as
AUGH TER
ĠSomers et
rasp berry
Ġ--------------------------------- ------------------------------------
Ġwides pread
ĠRodrÃŃ guez
? ].
A F
C hat
F red
J IM
M O
M at
M eal
P age
V ES
c eton
f ig
f ellow
i ated
m ens
r iment
t v
u ca
w i
Ã Ĩ
Ġt umbling
Ġw ailing
on ius
ha ri
Ġb ait
Ġm ummy
an ne
Ġy onder
Ġp udd
Ġl ur
Ġl os
Ġl oos
Ġl adders
CHI NG
at on
no x
Ġh og
Ġh oof
ic z
et al
ĠT us
us ively
id ly
Ġbe in
Ġwe asel
ri ots
Ġre app
Ġre forms
ĠW en
ĠW AN
ĠC it
ĠC ost
ly s
ly ph
ĠB ac
ĠB ot
ĠB un
ĠB ard
ĠB ene
and i
ĠD rew
ĠP ad
ĠP owers
ĠN y
un ya
ĠO wn
Ġare na
ĠR ac
ĠR iv
ĠR idge
ĠG ut
ĠG one
ĠG lyn
ĠG rend
ĠL oud
ĠF airies
Ġso bbing
um bered
ĠE ileen
Ġde port
Ġde cks
ain es
Ġr iches
ĠIt ÃŃs
Ġout door
Ġout rage
os ive
em aker
Ġsp ike
ĠK un
ĠK IND
Ġgot s
ca le
Ġag itated
Ġpe ered
Ġpe aches
end ers
Ġbl ades
Ġqu ad
ty pe
ĠNo va
ĠV ent
iss i
Ġwhere by
Ġam iable
Ġdis abilities
Ġcha ined
Ġlast s
ily n
ah l
ans k
Ġcont rived
Ġbu ys
Ġser pent
gg le
ĠBe ver
for mance
ĠRe verend
de ad
ens burg
ĠDe finitely
Ġsing ers
ĠCha llen
ph ilis
Ġsur rend
Ġsur viving
Ġball er
Ġlist ings
Ġcons ignment
pr ot
co vers
Ġtri pp
app les
UN K
ĠLe icester
ĠEnglish men
Ġsun rise
Ġste alth
Ġ10 4
Ġbar bec
ĠAfter wards
Ġhair cut
ati ent
Ġsqu at
Ġexpl ode
ĠEl sa
IC T
ĠSw ord
rit ch
20 10
ĠSe vent
Ġsn ar
Ġcor pse
Ġill usion
ĠTO LD
Ġvill agers
ĠTe resa
Ġ14 0
itch ing
Ġhar bor
ov iÄĩ
ĠSee ley
ĠEm ir
Ġpost al
Ã¡ r
Ġbra very
Ġbra vest
Ġsuper intendent
chan ged
ĠQue bec
Ġdev ote
Ġactiv ated
Ġban quet
AD U
Ġgen et
ĠBel ow
ĠGrand e
.âĢĻ âĢĿ
ĠHam mond
Ġdry er
Ġsepar ation
ĠMore ll
Ġexam ining
Ġur ge
Ġcelebr ity
Ġsuspect s
ĠPrin ceton
ĠCle wlin
Ġinf irm
Ġinf antry
Ġappl ies
UST R
wr ong
ĠFil ms
Ġeld ers
ĠFort une
Ġwaste basket
Ġfac ulty
Ġgradu ating
ĠSpe ed
Ġ188 8
Ġescap ing
yr us
ĠShar k
Ġpil ots
Ġtransfer ring
ĠLy on
Ġscratch ing
Ġconce al
Ġconce ited
Ġmeas uring
ĠAthen Ã©
sell ing
Ġunf old
ĠFre ising
outhe astern
Ġforb id
Ġfortun ately
Ġgal axies
Ġcontroll ing
Ġuncom mon
Ġprospect s
Ġtox ins
grow ling
Ġcooper ate
asper ated
Ġgover ned
ĠBR AD
ĠBurn side
Ġscold ing
Ġunexpected ly
ĠWOR LD
Ġdiplom atic
Ġimmense ly
Ġvel ar
Ġsumm ons
unn ies
ĠANY THING
Ġresear chers
Ġastron aut
ĠKap lan
Ġnod ding
ĠAlber ta
Ġvolcan o
ĠSax on
ĠClear ly
Ġoverwhel med
Ġforgiven ess
Ġfrown ing
Ġelim inated
Tr ue
Ġchuck led
Ġric her
Ġiv y
ĠBL UE
ĠWilhelm ina
Ġtreacher y
ĠCR T
Supp ose
Ġaccus ations
ĠSpider man
ĠKazakh stan
Ġexagger ated
Ġbacter ia
ĠFO X
Ġbankrupt cy
Ġdimin ished
ĠMist ress
Ġprud ent
ĠCOMP ANY
Ġcrick eter
grap hy
Ġseiz ure
Ge orge
Ġerupt ion
ĠEu rop
Ã¢t eau
Ġtheoret ical
ĠImag ine
ĠVlad imir
ĠLuxem bourg
Ġvolt age
Ġib n
ĠShiny a
ĠTreas ury
Ġ----- -
ĠCopen hagen
Ġrespir atory
ĠPenrud dock
ĠGrend el
" :
0 60
5 1
9 4
A VE
A UT
C Y
C han
F OR
F ORE
G ra
G irl
L ady
M i
M al
O ut
S andy
T w
U p
b reat
b ott
c re
c ats
d el
e ast
f inger
g all
m kay
n ar
p ins
r ition
s i
u ppy
v ag
y ears
Ġ ),
he h
Ġa pe
ha k
ha ven
Ġm am
Ġc yl
Ġc udd
Ġo ceans
Ġd iverse
Ġd agger
Ġd iox
Ġf ug
ed ed
Ġy up
Ġp oop
Ġp rank
ar ming
Ġl akes
Ġl uc
Ġh mm
Ġh over
Ġon going
ĠT ir
us ually
ĠM ON
Ġwe aker
Ġn igh
Ġre ins
Ġre venue
Ġst ump
ĠH ahn
ĠC N
ĠC i
ĠC ain
ĠC LO
st ory
Ġdo omed
ro c
ur ities
ch u
Ġli bert
Ġse rekh
ĠY otsuba
ĠP ha
ĠP une
ĠP ARK
ĠP addington
ĠP rogress
ĠN OR
ĠN ueva
ell an
ĠG og
ĠG AS
ĠG Ã¶
ĠL ope
op l
ĠF T
Ġall y
our ce
pp en
ĠJ ang
ĠJ oint
Ġde w
Ġde ment
ry e
Ġr idge
Ġal oft
Ġpl ight
ab a
ab ial
Ġsu ndry
ind icates
res ident
Ġman ages
ap or
ap id
Ġtw e
Ġtw inkling
ĠU b
ĠU tt
Ġover throw
Ġtr icked
ĠV ista
ci ble
ff old
Ġam p
Ġwr inkled
ĠSo ft
Ġdis o
Ġhapp iest
Ġun seen
og way
Ġco vet
av or
Ġcomp act
Ġbefore hand
Ġapp ar
Ġper ch
Ġcr ude
ĠMar sha
ĠMar ilyn
Ġres ume
Ġres ervation
Ġsl owed
Ġend angered
Ġread ings
ident ly
Ġgl ances
Ġfin s
inn ou
Ġear l
ĠAl ba
Ġstr ay
ĠTH ESE
ĠFor mer
ĠCan al
Ġhold er
Ġchar itable
Ġpass ages
Ġcons ol
co le
go vernment
Ġtri ll
ĠCom bat
Ġmiss es
Ġmiss ions
Ã© z
ows ki
rop he
Ġdisc oura
Ġ10 5
ĠWh ig
Ġhair s
bo ats
Ġem pt
Ġmain stream
Ġtrans form
Ġtrans mission
bl ood
hold ers
Ġrece ives
Ġgra vey
Ġblock ing
ĠAm i
lo e
Ġsca ffold
Ġbath s
ĠCal vin
Ġspecial ist
Ġdep ended
Ġve il
Ġbright est
Ġvide ot
Ġequ ation
Ġesc al
Ġdesign ated
Ġpat ting
Ġinvest ors
ĠSte f
Ġaccident s
Ġrespect ively
Ġrid den
Ã¼ n
ĠMil k
ĠBE FORE
ĠRos en
Ġmass age
Ġmass acre
Ġinfl ation
ĠMal ay
Ġrespons ibilities
Ġpet als
sl ide
Ġinvestig ations
Ġemb ro
Ġfund ed
ĠDra go
Ġvac ant
ĠHor us
ĠBud apest
Ġstro kes
Ġproceed ing
Ġjournal ists
Ġheaven ly
ĠSix th
Ġbod ily
Ġshadow y
Ġheat hen
ĠRO CHEL
fle et
Ġpit iful
ĠGal ile
Ġ186 3
Ġsuspic ions
Ã¦ us
Ġsorrow ful
Ġtender ness
Ġgy mnast
Ġlic ence
ĠStand ing
ĠTon o
Ġbroadcast s
198 9
Ġaston ishing
ĠDE AR
LA CK
ĠOs lo
Ġcorpor al
Ġlif estyle
Ġskill ed
Ġconcl usions
Ġfo il
ĠMem bers
ĠHur st
pie ces
Ġconfident ial
ĠCur tain
Ġpron ounce
Ġprob ation
ĠPur itan
anim als
Ġtribut ary
pass ed
Ġcalcul ated
Ġgigg ling
Ġske let
ĠChile an
ĠAdd ison
fight er
Ġcontem pl
sleep ing
bot tle
ĠMaced onia
Ġdischar ged
dial ing
ĠPhys ics
Ġspank ing
ĠFa ith
ĠLaugh ing
Ġcollabor ation
ĠElect ric
Ġcomprom ise
Ġnymph s
ĠAer ospace
ĠYE ARS
ĠNeel anand
oneys uckle
ĠHEL P
murm urs
Ġsket ches
Ġdre ary
Ġtos sing
Ġthres hold
ĠAltern ative
Ġtran qu
ĠGibralt ar
ĠMuri el
Ġbungal ow
Pope ye
6 3
; âĢĿ
D ING
E d
G S
G UE
M c
T is
W N
b ull
b acks
b idden
d ancing
g ia
g ave
g ical
i antly
l orn
l isted
l ifts
m art
m uffled
r ament
s us
s light
t ill
w omen
x es
z ep
Å «
Ġt at
Ġt ul
in as
Ġw ards
Ġthe ft
Ġs ash
ha ving
Ġb out
Ġd ys
Ġd airy
Ġf ung
Ġf ax
ll ie
Ġp ry
Ġp inned
Ġp issed
Ġg ul
Ġl itt
Ġl ingu
at an
Ġhe x
Ġh olly
Ġh oop
ve red
ĠT ate
ĠT ooth
us ters
us ky
ĠA pe
ĠA part
Ġe ve
ow e
ĠM add
Ġwe eds
Ġn ought
Ġn aming
Ġn uis
Ġre now
ĠW ear
ĠW ins
ĠW innie
ĠH unt
ĠH ipp
ĠC um
ĠC ash
ĠC rab
ĠB rent
ĠB AD
ĠB aud
all er
Ġwh ither
ill ing
ĠY oo
ce ls
ĠP it
ĠP ul
if ier
ra ve
ĠG ian
ĠG oth
ĠG raz
ĠL U
ĠL ug
Ġup s
ĠF IN
ĠF lying
Ġne ur
Ġso aked
Ġthere by
Ġthere after
Ġde fic
ry pton
ĠHe pha
ol ving
Ġab dom
Ġpl ac
os aurus
na e
ber y
Ġv amp
Ġv alleys
ĠK ILL
AR M
ĠU lt
Ġpe nd
Ġdown ward
ĠSt y
Ġbl uff
Ġplay wright
Ġer rors
ĠV ad
be hind
RO B
self ish
Ġdis advant
Ġpr ow
per ors
Ġfl ank
Ġco ordin
Ġcomp ilation
ĠUn it
Ġmo aning
Ġapp end
Ġper ched
Ġcr ows
ĠMar i
ĠMar vin
ĠNe ela
ave nder
ĠBr ought
ĠIs h
Ġrec ruit
Ġsupp ressed
Ġdes ir
ĠDo ctors
Ġra ven
ĠAl ma
Ġpre acher
Ġmon k
oup le
az i
Ġrel ates
Ġrel ating
ĠZ ack
ĠZ el
Ġind ication
Ġri ley
Ġtri bal
Ġsy philis
Ġca fe
LO R
ĠFl ower
ĠDid cot
Ġref ined
Ġrep orters
olog ically
Ġleg ally
ĠPro vin
head s
Ġcur l
ĠPar aly
erv ille
Ġpar am
ĠSha ron
ĠAb orig
ĠAb ingdon
ĠPe pper
ĠSw an
ĠPl ains
20 21
Ġexp end
Ġins ol
Ġmis fortune
Ġmer ger
iny l
ĠBy z
ĠDor is
Ġpleas ures
Ġty ran
ced es
Ġsand s
ĠLea ving
Ġvict ories
Ġvict orious
Ġbes ee
Ġang uish
ĠÃ Ĩ
ĠÃ Ĺ
Ġhospital ity
Ġhospital ized
Ġpat ches
Ġpat rol
iol a
Ġquar rell
Ġaccept ing
VE MBER
Ġkn itting
Ġjud ging
ĠQueen ie
Ġfinger nail
Ġdiscuss ions
ĠAlex is
ĠGrand mother
Ġmem orial
Ġmem orable
Ġdar n
ĠBo az
St ay
St ill
ĠPal azz
Ġenc ounter
ĠSch ne
ĠPen insula
Ġden ying
ĠParliament ary
Ġfool ing
Ġfool ed
Ġsmell ed
ĠRome o
Ġfre estyle
ĠEgypt ians
Ġdeb ts
Ġpersonal ities
Ġwit hered
200 2
Ġjack ets
Ġgro an
Ġcampaign s
Ġlog ical
Ġfra il
Ġprim itive
Ġnerv ously
Ġshr ub
Ġnomin ations
Ġstro de
bon ne
EP H
EP T
Ġmud dy
Ġforeign ers
Ġcandid acy
Ġentertain ing
leg s
Ġtradition ally
Ġpsych ology
Ġtun nels
Ġbuck ets
Ġmort gage
ĠGi ulia
Ġwha les
Ġinn it
ju ice
Ġtravell ers
Ġbark s
Ġflood s
ĠLau ren
ĠJO HN
Ġconsult ant
ĠSud an
ĠSky walker
Ġcerem onies
ĠSweet heart
sn ip
Ġstrain ed
Ġje ans
Ġmars hm
ĠBurg undy
Ġimit ates
Ġgover ning
Ġhal ves
ĠPap ua
ĠSteven s
ĠWHI CH
Ġbrid le
Ġsoci eties
ĠAbd ul
Ġstim ulus
ĠSebast opol
ĠInf antry
ĠAlb any
Ġque ens
ĠCreat ure
Ġmisunder standing
Ġunemploy ed
ĠConstant ine
Ġconson ant
Ġric hest
Ġiv ory
Ġfemin ism
Ġmini ature
aph ne
Ġbrisk ly
Ġwist fully
ĠBoliv ia
ĠBeet hoven
Ġvio lets
ĠKee gan
Ġmicros cope
Ġstag gered
Ġinev itable
ĠJUN E
ĠMorocc o
Ġrasp berry
ĠKorn el
ĠPrep are
Ġcer am
Ġarith metic
ĠParaly mp
" ...
, âĢĶ
D E
I nt
M EN
N ote
P r
R em
S am
S aturday
U GH
W or
W ARD
c overed
d p
d ice
d iction
f ol
g ence
g eneral
h n
h t
h its
i veness
k k
l ined
l ords
m ac
o ids
p ause
p icking
s and
s oup
s hoe
u ka
v ular
z ens
Ä Ł
Ġt apping
Ġa unts
in se
in cluding
Ġthe sis
ou pe
Ġs ciences
Ġb ould
is ie
Ġm itten
Ġm umbles
Ġc ater
Ġd uly
Ġd ashing
es us
Ġp aces
Ġg rill
Ġg ulf
Ġl inger
at z
at ers
Ġh ound
ĠT ort
ĠT hy
ĠT old
ĠT een
id on
id ad
Ġbe aches
ĠS I
ĠS N
ĠS ep
ĠS ows
ĠS ony
ĠS outheast
Ġwas p
ĠA ig
ĠA na
Ġno bility
ĠM end
ĠM oss
ĠM atch
ĠM andra
Ġwe ed
ac ies
ri ers
Ġre actor
ĠW id
ĠW ag
ĠW AIT
Ġfor lorn
Ġst am
ĠH off
ĠC E
ĠC ice
ĠC ey
ĠB ug
ĠB WV
ĠB LACK
st able
Ġk ites
ro ar
ro pe
ur u
ur ye
Ġli ken
ĠP engu
ĠN ea
ĠN EX
ĠN BA
ant o
ĠL ec
op sy
ĠF res
Ġj aws
Ġj abbering
ĠE up
ĠE ury
âĢ İ
ĠJ inny
Ġde mer
Ġr owed
Ġr iddick
Ġbut ler
Ġout come
art e
Ġpl edge
ab i
ist ion
qu iry
Ġsp iders
ak u
od ia
ĠK le
ĠK itt
ĠK ov
ĠK erry
Ġlook out
ian c
ĠSt acy
ĠSt asi
hy un
Ġtr otted
pe cial
ff s
Ġfl own
act ed
Ġim part
Ġeven ings
Ġch uckles
ign on
Ġbook ed
ys m
let te
Ġcount less
inn amon
Ġra ises
ĠAl mighty
Ġpol ar
ĠDe xter
ĠAr gy
ĠMark et
CO ND
az ing
Ġside ways
Ġrel ish
Ġmind ed
iet ies
ĠInd o
Ġtown ship
go v
ĠPr isc
aid s
ĠCom edy
ĠCom plete
wer p
Ġsub dued
Ġtra ff
Ġint ently
ĠCar uso
ĠPer th
Ġart ic
Ġcolor ful
Ġlay ers
Ġpar ole
Ġpar adise
ĠEl ton
ane ously
ĠYOU NG
ĠSh innou
rem lin
Ġreason ably
ĠPl aces
bl est
20 11
Ġbat he
ĠBar n
Ġsn uff
Ġill um
Ġopp osing
sc ript
Ġchance ll
Ġz ip
Ġ11 2
urg a
Ġdoctor ate
ĠX er
Ġty rant
Ġleng thening
Ġhop ped
Ġdef ine
ĠAg atha
Ġcirc ular
Ġdevelop er
Ġsand y
amb ig
Ġtest imony
Ġspec ulation
Ã¡ ndez
Ġcool er
Ġbright ness
Ġow es
Ġfavor ites
ĠGl ass
Ġleaf let
Ġstation ed
ĠEven ing
rill a
Ġpriv acy
Ġview ers
Ġcollect s
Ġfinger prints
Ġcourt esy
Ġlim p
Ġgrass y
Ġfright ful
ĠPat ricia
ĠSal am
ĠFrank ie
Ġrev olt
Ġvis ions
hum an
gypt ian
Ġstreng then
ELL ING
Ġhonor able
EXP s
ĠMat hemat
Ġdesp ised
200 5
200 8
ĠNO VEMBER
Ġdisp osition
Ġinterview ed
cr ash
dr ama
199 0
199 6
ĠShi a
ĠWall is
Ġ189 6
Ġlaws uit
ĠSpe cies
pull ing
su pper
Ġchat tering
ropol is
Ġcott ages
Ġtooth paste
Ġpositive ly
sound ing
ĠWild ermann
Ġpure ly
ĠSub titles
Ġconce ived
Ġhesit ate
Ġhook ed
Ġthrill ing
Ġfenc ers
Ġgle aming
Ġdece ive
ĠSweet ie
Ġmathemat ical
Ġcommission ed
Ġvic ar
Ġhom icide
ĠMcC arthy
Ġdign ified
Ġcru ise
Ġcru cial
Ġmars h
Ġdial ing
Ġmos quito
ĠJess op
ĠGR AND
Ġrust ling
Ġcra bs
Ġscold ed
Ġpier ced
Ġconspir ators
ĠCir cle
Ġgigg le
Ġsumm ary
Ġvit amin
Ġbuff alo
ĠStri ke
Ġconfirm ation
Ġkno ts
Ġextrem ity
iccup s
ĠSid ney
ĠAF C
Ġmant el
ĠTest ament
Ġflav or
Ġrows pan
Ġunre ason
Ġlantern s
Ġrapt ure
quit oes
Ġbos om
Ġgig antic
Ġbrut al
ĠAlbum s
ĠTEA CH
ĠCore y
ĠHedge ville
ĠSib yl
ĠReplic ator
ĠJAN UARY
Ġpled ged
ĠWals h
Ġpom p
ĠDau phin
Ġorig ins
Maj in
Ġdatab ase
Ġcance led
Ġoutst retched
frustr ated
HAL ES
nib bled
ĠCair o
Ġmonstr ous
Afr ican
ĠHamb urg
ĠBreat he
Ġsurrend ered
ĠUtt ar
ĠHepha istion
ĠSows hip
ĠCice ly
3 00
D ark
E r
F rank
F IRE
L F
M ENT
P W
P ar
S it
_ ]
b ited
c HE
d oo
f ried
f amily
k ung
m us
n ay
p ants
s ud
s erv
v ice
w aves
Ġ ouch
Ġt art
Ġt umble
ou g
Ġs essions
Ġ* **
on is
Ġb red
Ġm it
Ġm ittens
Ġc ork
Ġc ured
Ġo o
Ġf ianc
or ously
ĠI va
Ġp m
Ġp ran
Ġp has
Ġp harm
hat e
ar ic
Ġg ene
Ġg ains
as in
as ive
at ie
Ġhe e
ic i
ic il
ĠT ea
al ox
ĠS uther
ĠS utton
ĠA CT
Ġe aster
oo le
ĠM andy
ĠM UST
ke ley
Ġre n
ĠW ing
ĠW ea
ent ines
am oto
ion i
Ġst ap
Ġst rolled
ĠH ence
ĠH ON
ĠC ultural
ĠC umberland
ĠC SF
ĠB ret
Ġwith drawn
ĠThe ater
all ows
ea gues
Ġan eur
Ġli ability
ĠY gnacio
ĠD anger
ĠP iers
ĠN ile
ĠN GC
ant i
ant ing
ĠR hy
ĠR AD
ĠR ita
ĠR aven
ĠG AR
ĠG ener
ĠG ael
ĠF ay
ĠF ont
ĠF OUND
Ġsa ves
Ġcan oe
ĠHe in
Ġsh ifted
Ġdid dle
Ġpl ots
han e
Ġor acle
qu el
ast es
Ġcom ics
use ums
au er
od ing
ĠK D
ĠK ur
ĠK nock
ag les
ich o
ort ic
IN S
Ġcl ause
Ġover fl
ĠSt ack
ĠIn side
Ġbr an
Ġgr ubs
Ġcall er
Ġwork in
Ġyear ly
Ġdis rupt
Ġpr isons
Ġun ac
Ġun intelligible
Ġun selfish
hm ir
Ġfl ocks
act ions
Ġco aching
add s
Ġcomp at
Ġunder oos
Ġper secut
Ġper plex
Ġch rom
Ġcr uc
Ġhead lines
Ġfam ine
Ġrun way
ĠMy fan
ta le
Ġcol ord
Ġsur gical
Ġkill ers
Ġdec iding
Ġdec isive
ĠJohn ston
ĠInd ivid
uss y
uss ian
OU GH
Ġwind shield
ĠPr Ã©
sh oot
Ġca vern
Ġsub mission
Ġtre ad
Ġass hole
Ġrecord ings
ĠCar men
Ġbox er
Ġpolit ically
ru z
Ġlisten ers
Ġdisc on
umb ent
Ġinter im
Ġgener ator
ma res
atur ally
ĠPar ish
Ġem inent
erv atives
Ġexpl icit
Ġtrans ition
ĠCon stit
ĠSh ield
ĠPl um
ĠPl ain
RE W
ĠTr in
Ġstar vation
Ġnor theastern
Ġnational ist
Ġbath time
with standing
Ġ13 0
Ġstraight en
Ġstraight forward
ĠEm i
Ġpost s
Ġda is
Ġstri ped
ĠEle ction
Ġequ ality
Ġequ ipped
chan nel
Ġwhis kers
ĠTom atoes
field s
ĠMc Don
Ġdanc ers
Ġcurrent s
Ġbrown ies
ĠSte el
ĠColl ins
BR UARY
round ed
Ġextra vag
Ġhost ile
ĠDem ocracy
ĠBo hemia
ĠSer bian
Ġelect ro
ĠSal t
ĠBer k
ĠBer gen
Ġcab bage
pret ending
Ġpun ched
Ġcrack s
ĠMel anie
Ġrev ived
Ġver te
Ã³ r
ĠDO S
Ġbull ied
roll s
Ġ190 3
Ġham per
200 1
200 6
Ġcontract ed
fall en
ĠBur mese
ĠHol iday
ĠBas in
ĠEXP s
Ġblind s
199 5
ĠBarb ie
ĠSur rey
Ġant agon
ĠMill isandy
Ġ189 5
ĠEv il
Ġamb ush
Ġ188 7
ĠBa gh
ĠHy dra
ĠBea le
ĠĠĠĠĠĠĠĠĠĠĠĠĠĠĠĠĠĠĠĠĠĠĠĠ ĠĠĠ
Ġchat ting
ĠSE COND
Ġtun a
ĠNik i
Ġconcent rated
Ġaim s
Ġhomes ick
Ġbend s
ĠBern ie
Ġdust y
stra ight
Ġrac ism
Ġgy psy
ĠUr ban
Ġdisplay s
Ġaffect ing
Ġze al
Ġconflict s
ĠPier ce
Ġborrow ed
Ġspr ings
Ġinstru cted
ĠDog s
ĠLes lie
Ġprem ises
Ġconsult ed
ĠRap hael
Ġward robe
Ġrequire ment
Ġdisg usted
ruct ive
Ġtroubles ome
Ġrum ors
Ġath letics
ĠJohan nes
ĠRA WA
Ġrepro du
drink ing
ĠSum ida
Ġvolunte ers
Ġprofession als
Ġmonarch y
ĠColomb ian
Ġsan ctuary
Ġcub ic
Ġfrost ing
ĠPot ter
Ġencourage ment
Ġdialect s
ĠBos nia
Ġmulti pl
since rely
ĠGreg ory
Ġalleg ations
Ġadj acent
Ġroo ster
Ġmant le
ĠAbb ott
Ġinfect ious
ĠConstant in
ĠGene va
Ġslam med
Ġtreacher ous
Ġsway ed
Ġcuc umber
ĠCod icil
ĠMoor ings
Ġrecoll ect
sten feld
ĠBanc o
ĠCecil ia
Ġsemin ar
ĠSwami ji
Ġtas ks
ĠFÃ¼r stenfeld
ĠAdvent ures
Ġgrocer ies
ĠCHRIST MAS
Ġsacrific ed
Ġenvelop es
Ġunbelie vable
Ele anor
ĠCONTIN UES
Ġpian ist
Ġhilar ious
ĠFAM ILY
ĠLt d
Ġdiction ary
ĠFranÃ§ ois
Ġprelim inary
pg dp
Ġwhar f
ĠWAN NA
ansk rit
ĠChallen ge
ĠMyfan wy
0 1
8 7
A b
B at
B ea
B oth
B rit
C all
F O
G ET
H appy
L ord
P ut
T ING
U K
b ys
c os
c amp
d an
e cho
g art
i be
k al
l u
l anguage
m ut
r ician
s we
t ac
t one
u en
u ity
v ial
w ipe
y et
z ip
Ġ ï¿½ï¿½
re ci
Ġs i
er get
Ġb int
Ġb itten
Ġm uffled
Ġm aze
Ġd ual
Ġf ut
Ġf aults
Ġf uriously
ing ham
ĠI LL
ĠI brahim
Ġp ens
Ġp onder
Ġp ours
Ġg iv
as hire
Ġin ex
Ġhe d
Ġh ub
Ġh ounds
Ġha il
ic us
ic ited
ic ans
ĠT ip
ĠT ESS
id able
ĠS ays
ĠA ches
im ps
Ġn our
Ġre hab
ĠW W
ĠW u
ĠW er
ĠW ik
ĠW ENT
se al
am ura
ĠH Ã©
ĠC oun
ĠC Ã©
ĠB M
ĠB oo
ĠB end
ĠB aff
ĠB orough
Ġan om
Ġnot icing
ĠD ol
ĠD umpty
ĠD aphne
ĠP ee
ĠP RE
ĠN ac
if orms
ĠR um
ĠG n
ĠG ed
ĠL al
ĠL oc
ĠL az
ĠF an
ĠF ix
Ġmy ths
um en
Ġcan st
âĢ ľ
ĠJ eez
Ġsh ines
Ġsh ipped
Ġsh ivered
Ġcom a
od ies
ĠK Ã¶
Ġus age
Ġpe er
Ġcl ang
Ġgood y
ose xual
Ġro pes
ĠSt acey
ud i
ud ged
ĠIn it
ho v
Ġgr asped
ĠV all
be ard
Ġen han
Ġen light
Ġen erget
Ġthr ash
Ġpart ial
ĠSo ccer
Ġgu er
ren s
og a
Ġsc orp
iz abeth
Ġunder taking
Ġsm ash
ĠCh ow
ĠCh il
land ers
Ġcr unch
ĠNe b
Ġtry s
Ġ3 50
Ġel astic
Ġel bows
Ġcomm itting
Ġmin eral
Ġsupp osing
ĠAr cher
Ġwar med
Ġstick in
ĠFor um
ĠFor bidden
ph ine
az aki
Ġ18 60
ĠCl ifford
Ġcons ulting
ĠEd itor
ĠLet ty
ĠPr it
ĠSc rew
ĠSc outs
Ġtri bunal
Ġpop ulations
Ġtrain er
Ġfif ties
Ġcent res
ĠFl owers
Ġpay ments
Ġfell er
Ġbar ge
Ġwood land
com p
ĠSome where
ĠPhil os
ones ome
Ġcreat or
Ġgrand children
Ġem ail
Ġfav oured
fort y
Ġbuy er
Ġclass mates
Ġbat tered
ĠChar t
Ġgra ham
sc rew
Ġadm iring
Ġ11 5
Ġ11 7
Ġfil mm
ĠMary se
Ġstra it
ĠGreat est
Ġdi ab
ĠNor theast
TER S
ov o
Ġbow ing
ĠEm manuel
ĠDan iels
Ġdisapp ro
Ġcool ing
Ġpictures que
omb ie
LL Y
Ġapart ments
Ġpriv at
Ġoffe nd
ĠMa hara
ĠMad onna
Ġhate ful
ĠColl eagues
turn ing
Ġpeace fully
ĠAnn ette
ĠBel fast
Ġboo ty
Ġut ens
ĠHel ena
Ġenc ro
ĠHE AD
Ġvan illa
somet hin
ĠBE AUT
Ġaut o
RI L
Ġtrad itions
Ġbud dies
Ġexec ute
Ġgall oped
bu y
Ġintro ducing
ĠMo ving
Ġjoy s
Ġund one
Ġnote book
Ġassist ed
ĠJud as
ELL ER
ĠMont ene
Ġble nd
ĠĠĠĠĠĠĠĠĠĠĠĠĠĠĠĠĠĠĠĠĠĠĠĠĠĠĠĠĠĠĠĠ Ġ
ĠĠĠĠĠĠĠĠĠĠĠĠĠĠĠĠĠĠĠĠĠĠĠĠĠĠĠĠĠĠĠĠ ĠĠĠĠ
ĠĠĠĠĠĠĠĠĠĠĠĠĠĠĠĠĠĠĠĠĠĠĠĠĠĠĠĠĠĠĠĠ ĠĠĠĠĠĠĠĠĠĠĠĠĠĠĠĠ
ĠĠĠĠĠĠĠĠĠĠĠĠĠĠĠĠĠĠĠĠĠĠĠĠĠĠĠĠĠĠĠĠ ĠĠĠ
Ġtong ues
Ġdisco vering
ĠSing le
200 7
Ġbi ology
Ġcoast al
Ġmut tering
CT O
CT LY
ĠCons ort
Ġstret ches
ĠDi No
Ġbang ed
Ġappreci ation
Ġlog ging
ĠCall ing
ĠPlay ing
Ġpound ing
ĠHum m
199 4
EP S
Be fore
Ġparticip ating
Ġinvent or
ĠUN CLE
ĠStep han
Ġtourn aments
Ġdun geon
ĠTor rance
Ġwond rous
Ġmaid s
Ġrob ots
Ġtransport ed
ĠOli via
Ġshel ves
rib ble
ĠBon nie
Ġetc etera
count ing
ĠPhilipp ine
ONE Y
Ġinstit ute
Ġhook s
ĠDev on
Ġdisappear ing
Ġancest ry
ĠVill ars
ĠThrough out
Ġdiscover ies
Ġachieve ments
Ġbay on
Ġdomin ions
Ġpul monary
Ġexpert ise
Ġphr ases
ĠHope fully
ĠFight ing
Ġliqu or
Ġgrie vous
Ġorphan age
Ġlux urious
Ġcompar ative
ĠEconom ics
ĠDark ness
imit ating
ĠFAT HER
Ġing red
ĠProtest ants
Ġburg hers
ĠGib son
onym ous
Ġupd ated
ĠCrit ical
Ġsno oker
Ġgraph ics
ĠÃī cole
Ġprev ail
ĠNear ly
ĠCatal onia
Ġappoint ments
Bet ter
Ġavo iding
ĠSor bonne
ĠEdmund s
ĠGRE AT
ĠLanc ashire
ĠCHE ERING
Ġanth rop
Somet hing
rub ber
Ġmans ion
Ġdisput ed
CL AI
Ġorn ament
Lo ire
pi zza
ĠWheel er
Sw iss
ĠTerrit ory
ĠSain te
ĠMee ks
Ġdiscrim ination
shr ugs
Ġhtt ps
ĠTrip ura
ĠCompet ition
Ġphilanthrop ist
Ġporno graphy
ĠGÃ¼n zburg
Ġreli able
ĠDuc hess
ĠFeet man
ĠHondur as
ĠWhar ton
Ġpredecess or
ĠCincinn ati
ipel ago
Ġdement ia
ĠNEX T
kung unya
ĠFÃ¼rstenfeld bruck
ĠAches on
" !
A GE
B ook
B ELL
C al
D onna
H ur
H ist
K id
K ent
L ast
L AUGHS
O H
P ret
R a
a ved
b os
b are
b ons
b unny
c ity
d ar
d ard
d ish
d umps
e ither
h usband
i u
i ott
j umps
m ajor
r own
r ade
r ateful
s ch
t ap
v ara
w ords
z h
Ġ icon
ou ver
Ġs ill
Ġs ire
ha v
Ġb art
Ġb apt
Ġb umble
Ġb ouncing
it as
is p
is ition
Ġc raz
Ġc ogn
Ġc uckoo
Ġo live
Ġd na
Ġd ine
ing en
an off
ar ity
ar ran
Ġg am
as aki
Ġin audible
at in
ĠT zar
Ġbe aming
ĠS out
ĠS ter
ĠS IR
ĠS EPT
ĠA qu
ĠA de
ĠA UG
Ġe ch
Ġe yed
oo pers
ĠM ing
ri ving
Ġre ef
ĠH ass
ĠH ait
ĠH BO
ĠC over
ĠB ody
ĠB EL
ĠB US
Ġk ung
ro bat
Ġ" (
ĠThe ory
Ġan at
Ġli zard
Ġwh ites
Ġse rene
ĠY i
ĠY elts
ĠY ORK
Ġnot ices
ĠD ylan
ĠP HI
ĠP all
ĠP iet
ĠP orter
ĠN ou
ĠN arc
ĠN HL
ĠO i
ĠO mar
ĠR ade
ĠR ory
ĠR ect
ĠR LF
ĠG ae
ĠG ROANING
ĠG utenberg
th usa
ĠL od
ĠF i
ĠF iji
Ġsa ge
Ġso fter
ĠE P
ĠE vers
ry s
ack Down
Ġout line
Ġsh red
ab ra
ist ance
Ġsu g
ind y
Ġv a
Ġcon sole
Ġhere by
ĠK n
ĠK ell
Ġpro g
Ġpe ering
Ġback pack
Ġgood ies
are z
ĠSt re
ĠSt urgeon
Ġle go
Ġgr umbled
Ġwork shop
Ġwhere abouts
Ġthr owed
ĠSo f
day s
Ġfl owed
zz le
Ġco als
ang les
ï¿½ )
Ġad equ
ĠUn ivers
Ġsc or
atch ing
Ġact ively
Ġper m
Ġper ish
land er
ign y
ĠMar se
ĠMar sh
li ps
Ġnight time
ĠBr ic
ĠBr unn
Ġlove liest
Ġfour teenth
ert ime
Ġbo ar
Ġcomm em
Ġbot an
Ġatt aches
for got
ĠDo or
ĠAll ey
Ġsil ken
why n
mber g
Ġpol es
Ġseem ing
Ġpre historic
Ġreal izing
gr oup
gr aded
gr ims
anc er
ĠDon n
Ġwait in
ph is
Ġcol oured
Ġsilver ware
EL Y
ĠZ oey
enc er
enc ia
Ġhur led
mm a
Ġsk irts
Ġdoll ies
ĠAd ult
oor ay
ĠSc he
Ġtri pped
Ġpop ul
ĠCom te
Ġimp osed
Ġsound track
eth oscope
ĠLe ad
ĠGr ad
Ġass ign
Ġprom oting
ze bra
Ġdisc reet
icha els
Ġcontin uous
Ġloc ate
sp ell
com ma
Ġcur ved
ril s
ĠFr is
ĠPe rez
Ġsal ute
ĠSh ore
ĠSh oot
Ġreason ing
ĠPres ent
Ġexpect s
Ġpast ry
Ġpast ure
ĠSe oul
Ġorder ing
lo ading
ott al
Ġdep ot
Ġfear fully
ĠCH AR
Ġve ins
Ġcry in
Ġprotect or
Ã¡ ny
Ġval entines
Ġearth ly
ĠÃ İ
Ġtrust ing
ĠJeff rey
Ġcollect ive
ĠRoman o
ĠQu estion
ĠQu arter
Ġfinger nails
Ġcard iac
ĠMart ine
Ġrelig ions
ĠMon key
Ġaff irm
Ġrespect ful
medi ately
ĠAnt hem
ĠAnt werp
ĠRiver side
ĠBer keley
Ġconvers ations
ĠEX O
Ġcommun es
met al
Ġide ology
ĠBert a
ĠBert rand
Ġfool s
ĠRes erve
ĠRes ults
Ġmotor way
Ġsett lers
Ġspl itting
Ġfavour ites
Ġlat itude
Th ink
ĠSus sex
CE C
Ġtap ed
200 3
Ġcustom ary
Ġcred its
Ġir res
Ġlibr arian
An ne
Ġpin eapple
Ġge omet
Ġfold ing
ĠHum ming
Ġstro ked
Ġattend ance
Ġaware ness
Ġpurs u
Ġparticip ants
ĠRon on
Ġweekend s
Ġ189 7
ĠSol o
ĠTor res
Ġveget arian
Ġtour ists
think ing
Ġ188 0
ĠScar borough
Ġscrew s
Ġscrew driver
ĠStud ent
ĠNic kel
Ġdescend ant
Ġwra pping
Ġcircumst ance
ĠRO AD
Ġmission ary
Ġmort ar
ĠGi ven
Ġ186 1
ĠProt ection
Ġ187 0
ĠAng lo
ĠHaw kins
ĠLar ge
Ġpropos ition
Ġrang ing
Ġconduct ing
ĠAthen ians
Ġappeal ing
Ġwing ed
Ar thur
Ġtrop hy
ĠTak agi
ĠMem phis
ĠPy m
Ġprec ision
Ġrum or
ĠGall ery
Mar ie
Ġcaut ious
Ġmos que
Ġfasc inated
ĠBangl ades
Ġcarbon ate
Ġvig il
ĠRich ie
ĠIndust rial
Jan et
ĠFE BRUARY
ĠBlood y
ĠDomin ican
Ġprocl amation
ĠFlag s
Ġmerc iful
Ġproced ures
ĠOper a
Je an
yawn ing
ĠWr ite
ĠLor na
Ġdisturb ance
Ġment ally
ĠLanc aster
ĠCroat ian
ĠCrus ade
ĠConst ance
Ġphenomen a
ĠSER IES
Ġcul pr
Ġprosecut or
ATTER ING
Ġobed ience
Ġsubsequ ently
tem pered
ĠBhair ava
ĠKas hmir
Ġprejud ice
Ġdol phin
ĠIsab ella
ĠWarri or
Ġbesie ged
ĠMoll ie
Ġscen ario
ĠBirk wood
Ġecc entric
Ġarrog ant
Ġfestiv als
Ġinfer ior
ĠChew bacca
Ġmonit oring
Ġsubsidi ary
Ġhorizont al
ĠRUB Y
Ġbarbec ue
ĠEurop a
Ġdiox ide
Ġgravey ard
Ġnuis ance
ĠWins low
ĠPalazz o
ĠEury dice
Ġchancell or
ambig uation
ĠConstit u
ĠDiNo zzo
ĠYelts in
ĠRect ory
0 4
6 2
B illy
C R
H old
S INGING
T ommy
W ow
b ah
b arrow
c as
e yes
g om
j et
k ill
l eness
m or
o king
p ear
r ack
r Ã©
s na
t aker
t ailed
u ber
v id
v ira
w re
Ġ ÃŃn
Ġt i
Ġt ipped
he alth
Ġa uction
Ġw ink
Ġs outheastern
ha y
ha gin
Ġb raid
it Ã©
is an
is hi
Ġm igration
Ġo at
Ġd rying
an u
ĠI R
ĠI z
Ġp amp
Ġp ouch
Ġg el
Ġg ated
Ġl atch
Ġof the
Ġhe ather
Ġh ull
ic orn
id is
Ġbe ams
ĠS AR
ĠS hip
ĠS ham
ĠS ikh
Ġwas ps
ĠA ar
ut z
ĠM uff
ĠM TV
Ġre e
Ġre wards
ĠW ick
ĠW ald
Ġfor wards
ĠH om
ĠH ark
ĠC oy
ĠC lyde
ĠB rain
ĠB elle
ĠB uckle
ĠB enson
Ġdo dge
Ġu vular
ch im
ch op
ch io
ch ini
Ġwh ines
Ġse m
Ġse gment
ĠD AR
ĠD oll
ĠD rill
ĠP UT
il ot
ĠN ure
ust ered
ust rious
ĠR udd
ĠR ules
Ġknow est
ĠG ow
ĠG os
ĠG ina
th ir
th ren
ĠL A
ĠL ON
pp es
ĠJ orge
Ġde br
Ġab c
qu eline
ime e
Ġright ly
Ġpro secution
Ġpe ers
ne ck
Ġcl aus
ish y
ĠSt yle
we ek
ĠIn flu
Ġbr ute
ĠV a
ĠV iva
ass er
ran ces
Ġun leas
Ġun anim
per iod
Ġcha ps
ret te
Ġco aster
irl ing
Ġcomp iled
cl ub
cl othes
Ġapp alling
und ered
Ġhome ward
ĠMar riage
li hood
Ġser mon
ys on
Ġres isted
Ġres erves
oc ol
Ġchan ting
Ġfound ers
Ġsl ack
Ġend less
Ġrec ession
Ġche ery
Ġgl oss
for get
Ġpres cribed
Ġdif f
ĠAs cott
Ġpre ach
Ġrun ners
ĠTH OUGHT
ĠDe b
AN E
Ġcle ans
ets k
Ġsecond ly
ĠNot es
ĠNot able
Ġeight eenth
ĠGod s
Ġsk ys
Ġmagn itude
Ġind ian
Ġspo ilt
Ġcat al
ĠCom o
ĠCom puter
Ġhot ly
ĠLe igh
Ġtra ps
ĠFl an
Ġjo e
Ġass et
Ġconf using
Ġste re
ming ton
Ġinc ap
Ġdisc ourse
Ġdisc retion
Ġ10 2
Ġart work
Ġsim ult
ĠPro vision
sp oon
ĠOr lando
Ġran ch
Ġhon oured
erv oir
Ġprot agon
What ever
che m
Ġform idable
fl oor
ĠJo ker
ĠMe aning
hold er
Ġorder ly
ĠBar ack
Ġsn ug
Ġ12 5
play er
ode on
Ġz odiac
Ġfil ming
Ġhar p
ĠAny how
Ġfle x
Ġdevelop ments
Ġdep rived
ĠCH UCK
Ġspace craft
Ġpost man
Ġpost ern
Ġbright ened
Ġsell s
min ent
Ġrad ius
Ġtast ing
Ġdanc in
dis ambiguation
ĠOx fam
Ġgas ps
Ġinvest ed
Ġbank ing
ĠQu ad
ĠSchool s
Ġperfor mer
Ġboo th
Ġaff ili
ĠAnt ar
light s
ili ary
ĠReg ent
Ġrich ly
ĠVer a
Ġbene fic
cast ically
Ġhero ine
ĠSch war
Ġprocess ing
rec ord
Ġphys i
Ġjoy ful
Ġhonest y
Ġur ging
Ġstreng thened
Ġspl ashing
ĠMet al
ĠMont ague
gl asses
Is rael
Ġlap top
ĠApp earance
Th ose
Ġ190 1
ĠGar c
Ġdistribut e
Ġshoo ts
ĠCle an
Ġfurn ace
ĠRel ations
ĠCO P
Ġlog ic
ĠFil ipp
Ġunc les
draw ing
ĠRy uzaki
Ġqual ifying
Ġvot ers
Ġattend ants
Ġpurs uing
Ġcy an
Ġcong ratulations
Ġ188 1
Ġ188 4
quar ter
Ġpolic emen
Ġrespond ing
Fr iday
cup ine
ĠTurn s
Ġexpress ions
Ġterrit orial
ĠSil as
ĠSH OW
ĠNight s
ĠDown es
ĠProt ector
ĠUr ler
Ġbroadcast ing
197 0
ĠPhilipp e
ĠKir ishima
196 7
Ġinha bited
ĠBab e
ĠDev onshire
Ġtempt ing
ĠAmb rose
ĠAS K
ĠCher yl
ĠCart hage
ĠCart hagin
ĠMid as
Ġï¿½ï¿½ï¿½ï¿½ï¿½ï¿½ï¿½ï¿½ ï¿½ï¿½ï¿½ï¿½
ĠHur ricane
Ġbord ered
Ġdomin ated
Ġenthusi ast
ĠHand s
Ġquant um
Ġintense ly
secut ive
uzz er
Ġchew ed
ĠProm ethe
ĠTal ib
Ġtribut aries
Ġsatell ites
Ġsculpt or
Ġcalcul ate
ĠMAR CH
ĠRoll ing
ĠArm strong
Ġshrie k
ĠCop a
card ia
whim pering
Ġgraph ic
ĠStal in
irk ov
Ġanticip ation
Ġconfront ed
Ġfu zzy
agen et
ĠBrid get
ĠIda ho
Ġbully ing
Ġreluct ant
ĠTheod ore
Ġresemb lance
Ġgalle on
ĠPA GE
Somet imes
repe ats
ĠBomb in
Ġrecoll ection
ĠDOES N
ĠDart moor
interest ing
Ġsubsequ ent
Ġemphat ically
ĠHop kins
Ġmour ning
ĠJet ty
Ġintim id
Ġvacc ine
Ġpsychiat rist
Ġsolic itor
ĠPlant agenet
ĠVO ICE
fen au
ĠGri zz
Ġelabor ate
ĠMerc ury
ĠStrat ford
Ġmonaster y
Ġdispers ed
Ġpilgrim age
Ġaggra v
Ġmicrow ave
ĠRAD IO
ĠILL USTR
CTO BER
Pret ty
ĠAUG UST
ĠNure mberg
7 5
8 8
; --
C ont
C ES
C inderella
D T
F ire
G ot
I OUS
I FUL
J im
L S
M M
M ister
O SE
P resident
Q ue
S us
S ES
S mith
Z A
b ike
b eth
d ressed
f air
f rey
g wick
h igher
j ou
l ost
l iter
m u
n ormal
p ound
p essa
s wing
s uper
w ed
w en
w haddya
z ad
Ġ 00
Ġt ins
Ġt ying
Ġa unty
Ġw ires
re ens
on ica
on omy
Ġb raz
Ġb unnies
is bury
is oft
Ġc rem
Ġd iam
Ġf id
Ġf iddle
Ġp ac
Ġl ens
Ġl inda
Ġh ush
le ft
Ġha v
et le
ĠT ut
ĠT igers
ĠS pl
ĠS ON
ĠS AM
ĠA ber
ĠA vi
Ġe e
Ġe gyptian
ut us
ĠM ale
im portant
Ġn ets
ri v
ri que
ĠW IND
se at
ĠH AR
ĠH ardy
ĠC ell
ĠC Ã¡
ĠC ris
ĠC razy
ĠB oul
st ir
st ained
Ġu huh
Ġk icks
ro hyla
Ġme g
her self
ur ated
ch ner
Ġwh ichever
Ġnot ably
ĠD K
ĠD ed
ĠD AUGHTER
il ized
ĠN IGHT
ĠN yon
Ġ- (
ĠR in
ĠR EL
ĠR ai
ĠR INGS
ĠR utland
ra ged
ĠG ol
ĠL om
ĠL ose
ĠL ions
ĠL over
Ġup l
Ġup ward
ĠF oster
ĠE VEN
ie ft
ĠJ in
ul ic
Ġr ud
Ġr iddle
Ġr hinoceros
Ġpl unge
han na
ig ible
el ines
os o
os se
em ark
Ġsu e
ind icating
Ġsp a
Ġsp here
own er
Ġv ocalization
Ġwould st
Ġman ly
Ġpe ck
Ġcl asping
are se
oy s
Ġbl ushed
Ġfe ud
pe as
Ġgr ampa
Ġer asing
ĠV y
ĠV anc
ĠV arese
ff iti
Ġen unci
Ġgu ides
Ġneed ing
Ġun ison
Ġun iforms
Ġfl uttering
ĠWell ington
ug en
Ġmo vin
Ġsc oring
Ġsc ritch
Ġrem n
Ġapp ropri
Ġper imeter
ah ren
ĠMar ina
Ġnight mares
Ġres id
ĠBr ack
Ġsl ot
ĠBe ij
Ġatt ribut
Ġbeg inn
ĠAll an
ĠRe lease
de uk
Ġra ging
ĠAl one
Ġstr ut
ĠTH AN
oun ge
Ġunt ie
Ġunt idy
Ġreal izes
ĠAr ms
Ġeyes ight
Ġbed side
Ġball ad
Ġlist ener
ched ule
Ġcons olation
Ġmet ro
Ġrest s
ĠInd ex
Ġsent in
Ġsent ries
co ffs
Ġind ifferent
ĠSp ot
aj a
ĠAre thusa
Ġmiss us
Ġhot ter
ĠQ uit
Ġint ol
Ġsun be
Ġrock ets
Ġext ending
ĠPer m
Ġsat in
ĠWh itt
Ġspe ck
ator ial
Ġloc omot
la f
sp read
Ġcur b
ĠGu ad
Ġpar ap
ĠSha k
uro pe
Ġtrans plant
ĠSh rew
Ġbuy ed
ĠAN N
Ġcompet ing
Ġadm ission
Ġorgan ism
unk y
ange lo
Ġdiv iding
Ġcop ying
amb i
att i
Ġru ining
Ġstri ps
Ġdet ained
Ġval ued
Ġdest iny
Ġbes et
Ġnorth western
Ġsuper visor
chan ted
Ġimag in
Ġhast en
min ute
ĠÃ ħ
Ġprin cip
Ġlab els
Ġsol itude
ĠMc M
Ġactiv ism
Ġcharacter ized
Ġspend s
Ġcomfort ing
Ġdecl aration
nic kel
Ġep id
har t
ĠRam say
Ġdam ned
Ġgrad er
ĠPal m
Ġtrad ers
ĠRos ny
Ġobs erving
ĠEll iott
Ġsli ps
ĠAc ross
bes ides
Ġdig est
Ġemb assy
Ġcult iv
Ġtou g
ĠSim ple
ĠGar vey
Ġtravel ers
ĠCam ille
Ã¨ ve
Ġprincess es
Ġinf rast
200 9
Ġcontact s
Ch ris
ĠTim othy
pens er
ĠBas ically
Ġcampaign ing
ĠPlay er
Ġqual ify
Ġplat inum
199 2
199 9
rif ices
ĠSur vey
ĠHome land
ĠSix ty
Ġ188 9
ni est
Ġescap es
Ġsole ly
ĠAlf a
Ġrac coon
Ġlack ed
Ġcommer cials
count ry
Ġcowboy s
Ġimprove ments
Ġflood ing
Ġspr ung
Ġpond s
Ġdece it
ĠConf ederation
Ġmanufact ured
ĠOffic ial
ĠNich ols
comm un
Ġath letic
ĠRA CHEL
ĠPakistan i
ĠNap les
ĠIns urance
stay ed
drink s
ĠBrig adier
Ġexecution er
Ġnood le
Ġscra ps
Ġmart y
Ġrust y
Ġcran berry
Di andros
ĠKr ish
scri ber
ĠPel hams
ĠShort ly
Ġarchitect ural
stan bul
Ġguid elines
Ġconstitution al
Ġprovin cial
Ġshill ing
ĠSPE AK
ĠStark s
Ġeffic iency
Ġlegisl ation
ĠWhit ney
Ġchalleng ing
Ġanticip ated
ĠCONT ENTS
Bet ty
Pe ople
Ġprosper ous
Ġinfect ions
ĠPlat inum
ĠBri ggs
Ġpap al
ĠQuick ly
Ġsor ce
ĠKin nock
ĠMunicip al
ĠYE AR
Supp es
ĠEmer gency
ione ers
ĠSwe ets
ĠChen nai
istr ates
ĠHAPP EN
ĠPear l
Ġemphat ic
Ġradi ator
Ġcomprehens ion
Ġabol ished
Ġchlor ine
Ġwaff les
Ġoy ster
ĠSas uke
Ġrevers ed
ĠLon nie
ĠScha fer
ĠJU LY
ĠCurrent ly
Ġnom inee
ĠElement ary
Ġsoph isticated
Ġworshi pped
ĠFrancon ia
ĠSloven ia
ĠAthe na
buzz ing
Ġconve yed
ĠWapp inger
Ġabdu cted
ĠCauc as
Ġkap os
Ġjuris diction
Def iance
Ġ--------------------------------------------------------------------- ---
ĠUb isoft
Ġdiscoura ged
ĠPrisc illa
ĠSuther land
Ġaneur ysm
ĠIndivid ual
ĠPrit chard
ĠSEPT EMBER
ĠÃİ le
ĠNickel odeon
Ġpamp h
Ġcatal ogue
ĠFlan agan
ĠProvision al
ĠVanc ouver
1 20
A g
B el
D ay
F C
F CD
G ROANS
H yl
L ife
N FL
O GE
S up
T ime
V IS
V ED
b ob
c atch
d ate
f al
f alsetto
g ently
h tt
h wa
i y
i ens
k ull
m em
p us
p able
s ave
s hips
u y
u cted
v ig
y ot
Ã ĥ
Ġt ak
Ġt angled
Ġa no
Ġw ri
re leased
re cy
ha il
er ment
Ġb atch
Ġb io
Ġb umps
it ory
Ġm oth
Ġc ros
Ġc rop
Ġc ages
Ġo t
Ġd ental
Ġf en
Ġf rying
es ters
Ġp us
Ġp ious
Ġl ain
Ġl onesome
at ism
Ġhe ating
Ġh udd
ĠT ina
ĠT ourn
us al
ĠS ke
ĠS ag
ĠS lam
ĠA no
ĠA ven
ĠA LW
ĠM ode
ĠM isa
ĠM achine
Ġwe ighs
im an
im ag
ac as
ac inth
Ġn er
ĠW ich
ĠW ise
ĠW ings
Ġfor ge
Ġfor cing
Ġst ung
Ġst yl
Ġst ability
ĠH ed
ĠC AT
ĠC ove
ĠC ox
ĠB ased
out ing
ur ous
ur rection
ch heim
ĠY ELLOW
Ġnot orious
ĠD res
ĠD ag
ĠD epend
ĠD urga
ĠP C
ĠP hen
ĠP ix
ĠP unch
ĠP ays
ĠN as
ĠN atives
ĠN aval
ĠN AME
Ġher ald
if ference
ant ically
ĠO CTOBER
ĠR you
ĠR ide
ĠR aid
ĠR ule
ĠG ir
ĠG rab
ĠL unch
ĠL IST
ĠL iga
ĠL ONG
Ġj a
Ġj ub
ĠE lder
Ġdon t
Ġdon ated
âĢ ĭ
Ġwhe e
ol is
Ġab used
ig ators
ess on
Ġby pass
ong s
ak os
Ġcon ster
fe w
fe et
od or
Ġman ga
Ġtw ine
Ġtw inkle
ĠK ie
ĠK ATE
ĠK IDS
Ġex ult
Ġsay est
." --
ĠU sing
Ġcl ap
Ġdown wards
ish ly
Ġbl oke
omet own
ĠIn no
Ġgr in
Ġgr udge
ater al
ater nity
ĠV ick
ord ination
be er
RO OGE
wn y
Ġun worthy
Ġun rounded
Ġfl op
oss a
Ġsc ales
Ġunder taken
Ġper secution
Ġper fection
Ġch owder
Ġcr ashes
ĠMar cell
Ġlea gues
ob ed
Ġhead long
ĠNe al
Ġsl aught
ĠAl ph
oot ed
Ġbus ily
Ġph oned
Ġacc use
Ġmar athon
Ġmar ijuana
ĠFor chheim
Ġyoung ster
ĠFran ks
Ġdoor bell
Ġfall ed
Ġrel ent
Ġlight house
Ġ18 50
Ġent rusted
Ġstud ios
Ġcons pic
ĠEd gar
Ġtable cloth
ĠGod dess
Ġred ucing
ĠPr ide
Ġfire truck
ĠSp ark
ĠSp arrow
Ġid iot
ĠCom b
ĠCom pan
Ġbuild er
You ng
ted dy
Ã© g
EN CH
ĠLe ila
Ġtra itors
ĠHer z
Ġref rain
Ġtre nd
Ġrep airs
Ġass ert
Ġint ending
rop ical
Ġstuff ing
Ġbox ing
ĠBl ast
Ġmed i
ĠPer formance
Ġbar red
bo k
Ġed ited
ĠGu itar
Ġem perors
Ġsqu irt
Ġmark ing
ĠHar riet
Ġtrans cribed
Ġgrow ls
Ġ17 00
ĠChar ge
Ġglad ness
Ġpur ity
Ġsn outed
Ġgroup ed
Ġrepl ies
Ġill ustrious
ED FCD
Ġpot ent
Ġfil thy
ĠAg ust
Ġcirc ulation
Ġcand ies
IT E
Ġsnow ing
Ġcast e
Ġswim min
ĠDan es
ĠDan ube
ĠMer cedes
ĠAnge lo
Ġworth less
Ġtur f
Ġmaster piece
Ġpack et
Ġexcl usively
Ġsense less
Ġexcept ions
Ġgas ping
rer as
str icken
want ed
ĠSam ar
ĠCor rect
Ġlim estone
ĠBlack ie
gu ys
ĠTw ice
UT H
ĠBo om
Ġpossib ilities
Ġbene vol
Ġclock wise
Ġaut obi
RI AA
Ġmir acles
Ġobs er
ĠST ILL
lect rohyla
four teen
Ġris ked
Ġmurder ing
Ġscr amble
Ġbound ed
Ġtend ency
Ġwheel barrow
ĠGreen e
ANT ING
ĠTer min
ĠRem ind
Ġinqu iries
CE MBER
Ġimm igration
ĠCle ment
Ġcontact ed
Ġnurs ed
Ġestabl ishing
fall ing
Ġremind er
reg ular
Ġgro ve
ĠJac queline
199 7
ĠHI GH
Ġant ib
Ġjournal ism
Ġcy cling
Ġfac ial
Ġ189 1
Ġ189 9
Ġpred ators
Ġoblig ation
Ġnest led
Ġkingdom s
Ġvir uses
ĠTra ffic
dere rs
ĠDet ails
ĠWin chester
ĠCarl isle
Ġrac ist
Ġlack ing
ĠSC ROOGE
Ġswall ows
198 0
ĠIm mediately
Ġwhist led
ĠUs na
Ġcontain ers
Ġinstru ctor
Ġdecor ation
ĠLes cure
ĠDun ham
ĠRub y
Ġsav ages
Ġcorpor ations
ĠTa o
ĠFer r
sw imming
Ã± o
Ġrhy mes
SC REAMS
ĠMid lands
ĠPlan ning
ĠCe lebr
ĠAnim als
Ġdrift ing
ĠAP RIL
Ġlegend s
Ġsubs id
ĠInc redible
Ġstamp ed
ĠBurn s
ĠOak ford
ĠStra it
ĠEconom y
Ġdeliber ate
Ġswell ing
Ġbund les
ĠJoan ne
Ġstor ms
ĠBalt ic
Ġing en
ĠBright on
Ġtherap ist
Ġfulf ill
ĠCran mer
ĠCrit ics
Ġdeleg ate
ĠWr ong
Wh ich
Ġcurs ed
SIG HING
Ġentreat ed
Ġling ered
Ġinject ion
ĠContin ental
pres so
Ġmilit ant
Ġdisgu ised
Ġrehears al
ĠProgram me
Ġphenomen on
Ġvul gar
ĠFrey ung
Ġjer sey
VI EW
Ġmim ic
ĠValer ia
ĠSed gwick
ĠMey nell
Ġpitter pat
ĠBhair av
Ġmush rooms
ĠOP EN
ĠJar vis
Ġsustain able
Ġreun ion
Ġfern s
ĠOpp osition
Ġwerew olves
Ġsparrow s
ĠConfeder acy
ĠMoz art
ĠSarac en
ĠWA GR
Ġspecim en
atisf ied
sho es
ĠShir ley
Ġgrate fully
sever al
sil ence
ĠPhyll is
Ġprest igious
Ġparadox er
ĠDacre field
ĠJur assic
Ġapprent ice
ĠMina j
ĠADVENT URE
Ġembro idered
Wor ld
cHE EDFCD
alox one
ĠStack anoff
ĠConstantin ople
Ġconster nation
8 00
9 6
? ?
B ye
C AR
H ad
H am
K aren
O ver
R on
R om
S pan
T ar
V A
] :
b id
b yes
b ush
c hat
c oc
d ry
d ue
e gr
g ings
g erton
h l
h ull
l aughter
m d
m ad
p ond
p ark
p ired
r ays
s ib
u ctor
v ra
v io
w ah
w orm
Ġt ours
Ġt haw
he it
in qu
ou f
re x
Ġs ard
Ġb ic
Ġb ony
Ġb usted
Ġb ologna
it ives
Ġm uzzle
Ġo le
Ġd ah
Ġd umps
Ġto dd
ll e
ll i
ĠI stanbul
Ġp ip
Ġg ird
Ġl av
Ġl orry
as ps
at ile
no ons
Ġh ue
Ġh ometown
Ġha unt
Ġha iled
Ġon ward
ĠT as
ĠT au
ĠT aj
ĠT ask
ĠT ales
gh i
Ġbe aver
ĠA I
ld on
ut ation
Ġno bly
ĠM oh
ĠM IN
ĠM ia
ĠM ang
Ġwe ld
ver ted
Ġn ailed
Ġn uns
ri p
ri bly
ĠW ool
ĠW arden
ĠW izard
Ġfor ts
ĠH ig
ĠH au
ĠH av
ĠH igher
ĠC A
ĠC P
ĠB it
ĠB ast
ĠB RE
st a
st yle
Ġdo le
ro ads
Ġan alog
Ġse ctors
ĠY ak
ĠD ion
AT ES
ĠP od
ĠP AR
ĠP av
ĠP ET
ĠN ept
ĠN ij
ĠN ixon
ĠR ug
ĠR OW
ra gon
ĠG and
ĠF encing
Ġne uro
ĠE LE
ĠE isen
ĠJ avier
ul i
ul ously
ĠHe ights
Ġr uth
Ġr inse
ood y
Ġab ode
Ġout burst
Ġsh uts
han ging
res ne
Ġv om
Ġv ests
ate red
Ġthink in
od il
ĠK ick
ĠK aw
ĠK lein
ag re
-- ?
ĠU sed
Ġover powered
ĠSt av
ĠSt ructure
Ġtr ooper
Ġthing y
ĠWe ir
ĠIn iti
Ġcall in
ĠV i
ĠV agn
ci o
RO D
Ġen forced
Ġafter noons
Ġbet h
Ġpr icked
Ġfl an
Ġad rift
Ġpo king
ĠWell fleet
Ġsc oop
Ġsc roll
Ġsc ribble
Ġrem ake
Ġhel per
ĠCh ron
Ġnew com
Ġmay onnaise
ĠMar j
ĠMar quis
igh o
Ġ3 60
oc le
ĠIs abel
Ġsl og
Ġgl ac
Ġfin ed
uc chini
Ġear ring
ĠRe form
br al
br and
ĠAl ps
ĠAr bit
ĠAr ctic
Ġhard ware
gr unt
ĠNew port
ĠMark s
ĠMark us
ĠFran ck
[...]
