{
  "version": "1.0",
  "truncation": null,
  "padding": null,
  "added_tokens": [
    {
      "id": 0,
      "content": "<s>",
      "single_word": false,
      "lstrip": false,
      "rstrip": false,
      "normalized": false,
      "special": true
    },
    {
      "id": 1,
      "content": "<pad>",
      "single_word": false,
      "lstrip": false,
      "rstrip": false,
      "normalized": false,
      "special": true
    },
    {
      "id": 2,
      "content": "</s>",
      "single_word": false,
      "lstrip": false,
      "rstrip": false,
      "normalized": false,
      "special": true
    },
    {
      "id": 3,
      "content": "<unk>",
      "single_word": false,
      "lstrip": false,
      "rstrip": false,
      "normalized": false,
      "special": true
    },
    {
      "id": 4,
      "content": "<mask>",
      "single_word": false,
      "lstrip": false,
      "rstrip": false,
      "normalized": false,
      "special": true
    }
  ],
  "normalizer": null,
  "pre_tokenizer": {
    "type": "ByteLevel",
    "add_prefix_space": false,
    "trim_offsets": true,
    "use_regex": true
  },
  "post_processor": {
    "type": "ByteLevel",
    "add_prefix_space": true,
    "trim_offsets": false,
    "use_regex": true
  },
  "decoder": {
    "type": "ByteLevel",
    "add_prefix_space": true,
    "trim_offsets": true,
    "use_regex": true
  },
  "model": {
    "type": "BPE",
    "dropout": null,
    "unk_token": null,
    "continuing_subword_prefix": null,
    "end_of_word_suffix": null,
    "fuse_unk": false,
    "byte_fallback": false,
    "ignore_merges": false,
    "vocab": {
      "<s>": 0,
      "<pad>": 1,
      "</s>": 2,
      "<unk>": 3,
      "<mask>": 4,
      "!": 5,
      "\"": 6,
      "#": 7,
      "$": 8,
      "%": 9,
      "&": 10,
      "'": 11,
      "(": 12,
      ")": 13,
      "*": 14,
      "+": 15,
      ",": 16,
      "-": 17,
      ".": 18,
      "/": 19,
      "0": 20,
      "1": 21,
      "2": 22,
      "3": 23,
      "4": 24,
      "5": 25,
      "6": 26,
      "7": 27,
      "8": 28,
      "9": 29,
      ":": 30,
      ";": 31,
      "<": 32,
      "=": 33,
      ">": 34,
      "?": 35,
      "@": 36,
      "A": 37,
      "B": 38,
      "C": 39,
      "D": 40,
      "E": 41,
      "F": 42,
      "G": 43,
      "H": 44,
      "I": 45,
      "J": 46,
      "K": 47,
      "L": 48,
      "M": 49,
      "N": 50,
      "O": 51,
      "P": 52,
      "Q": 53,
      "R": 54,
      "S": 55,
      "T": 56,
      "U": 57,
      "V": 58,
      "W": 59,
      "X": 60,
      "Y": 61,
      "Z": 62,
      "[": 63,
      "\\": 64,
      "]": 65,
      "^": 66,
      "_": 67,
      "`": 68,
      "a": 69,
      "b": 70,
      "c": 71,
      "d": 72,
      "e": 73,
      "f": 74,
      "g": 75,
      "h": 76,
      "i": 77,
      "j": 78,
      "k": 79,
      "l": 80,
      "m": 81,
      "n": 82,
      "o": 83,
      "p": 84,
      "q": 85,
      "r": 86,
      "s": 87,
      "t": 88,
      "u": 89,
      "v": 90,
      "w": 91,
      "x": 92,
      "y": 93,
      "z": 94,
      "{": 95,
      "|": 96,
      "}": 97,
      "~": 98,
      "¡": 99,
      "¢": 100,
      "£": 101,
      "¤": 102,
      "¥": 103,
      "¦": 104,
      "§": 105,
      "¨": 106,
      "©": 107,
      "ª": 108,
      "«": 109,
      "¬": 110,
      "®": 111,
      "¯": 112,
      "°": 113,
      "±": 114,
      "²": 115,
      "³": 116,
      "´": 117,
      "µ": 118,
      "¶": 119,
      "·": 120,
      "¸": 121,
      "¹": 122,
      "º": 123,
      "»": 124,
      "¼": 125,
      "½": 126,
      "¾": 127,
      "¿": 128,
      "À": 129,
      "Á": 130,
      "Â": 131,
      "Ã": 132,
      "Ä": 133,
      "Å": 134,
      "Æ": 135,
      "Ç": 136,
      "È": 137,
      "É": 138,
      "Ê": 139,
      "Ë": 140,
      "Ì": 141,
      "Í": 142,
      "Î": 143,
      "Ï": 144,
      "Ð": 145,
      "Ñ": 146,
      "Ò": 147,
      "Ó": 148,
      "Ô": 149,
      "Õ": 150,
      "Ö": 151,
      "×": 152,
      "Ø": 153,
      "Ù": 154,
      "Ú": 155,
      "Û": 156,
      "Ü": 157,
      "Ý": 158,
      "Þ": 159,
      "ß": 160,
      "à": 161,
      "á": 162,
      "â": 163,
      "ã": 164,
      "ä": 165,
      "å": 166,
      "æ": 167,
      "ç": 168,
      "è": 169,
      "é": 170,
      "ê": 171,
      "ë": 172,
      "ì": 173,
      "í": 174,
      "î": 175,
      "ï": 176,
      "ð": 177,
      "ñ": 178,
      "ò": 179,
      "ó": 180,
      "ô": 181,
      "õ": 182,
      "ö": 183,
      "÷": 184,
      "ø": 185,
      "ù": 186,
      "ú": 187,
      "û": 188,
      "ü": 189,
      "ý": 190,
      "þ": 191,
      "ÿ": 192,
      "Ā": 193,
      "ā": 194,
      "Ă": 195,
      "ă": 196,
      "Ą": 197,
      "ą": 198,
      "Ć": 199,
      "ć": 200,
      "Ĉ": 201,
      "ĉ": 202,
      "Ċ": 203,
      "ċ": 204,
      "Č": 205,
      "č": 206,
      "Ď": 207,
      "ď": 208,
      "Đ": 209,
      "đ": 210,
      "Ē": 211,
      "ē": 212,
      "Ĕ": 213,
      "ĕ": 214,
      "Ė": 215,
      "ė": 216,
      "Ę": 217,
      "ę": 218,
      "Ě": 219,
      "ě": 220,
      "Ĝ": 221,
      "ĝ": 222,
      "Ğ": 223,
      "ğ": 224,
      "Ġ": 225,
      "ġ": 226,
      "Ģ": 227,
      "ģ": 228,
      "Ĥ": 229,
      "ĥ": 230,
      "Ħ": 231,
      "ħ": 232,
      "Ĩ": 233,
      "ĩ": 234,
      "Ī": 235,
      "ī": 236,
      "Ĭ": 237,
      "ĭ": 238,
      "Į": 239,
      "į": 240,
      "İ": 241,
      "ı": 242,
      "Ĳ": 243,
      "ĳ": 244,
      "Ĵ": 245,
      "ĵ": 246,
      "Ķ": 247,
      "ķ": 248,
      "ĸ": 249,
      "Ĺ": 250,
      "ĺ": 251,
      "Ļ": 252,
      "ļ": 253,
      "Ľ": 254,
      "ľ": 255,
      "Ŀ": 256,
      "ŀ": 257,
      "Ł": 258,
      "ł": 259,
      "Ń": 260,
      "Ġt": 261,
      "he": 262,
      "Ġa": 263,
      "in": 264,
      "Ġw": 265,
      "Ġthe": 266,
      "ou": 267,
      "re": 268,
      "Ġs": 269,
      "Ġ*": 270,
      "on": 271,
      "ha": 272,
      "er": 273,
      "nd": 274,
      "Ġb": 275,
      "it": 276,
      "is": 277,
      "Ġm": 278,
      "Ġc": 279,
      "Ġo": 280,
      "Ġd": 281,
      "Ġf": 282,
      "ing": 283,
      "Ġto": 284,
      "ll": 285,
      "an": 286,
      "or": 287,
      "ed": 288,
      "ĠI": 289,
      "Ġy": 290,
      "es": 291,
      "en": 292,
      "Ġp": 293,
      "hat": 294,
      "Ġyou": 295,
      "HI": 296,
      "ar": 297,
      "Ġg": 298,
      "Ġl": 299,
      "CHI": 300,
      "Ġand": 301,
      "Ġof": 302,
      "as": 303,
      "OT": 304,
      "MOT": 305,
      "Ġin": 306,
      "at": 307,
      "om": 308,
      "no": 309,
      "Ġhe": 310,
      "Ġh": 311,
      "le": 312,
      "'s": 313,
      "Ġha": 314,
      "ay": 315,
      "ic": 316,
      "et": 317,
      "ve": 318,
      "Ġit": 319,
      "Ġth": 320,
      "Ġon": 321,
      "ĠT": 322,
      "us": 323,
      "id": 324,
      "gh": 325,
      "Ġthat": 326,
      "Ġbe": 327,
      "al": 328,
      "Ġ=": 329,
      "ĠS": 330,
      "Ġwas": 331,
      "ĠA": 332,
      "ld": 333,
      "Ġe": 334,
      "Ġis": 335,
      "ut": 336,
      "ow": 337,
      "oo": 338,
      "Ġno": 339,
      "ĠM": 340,
      "..": 341,
      "Ġwe": 342,
      "im": 343,
      "ver": 344,
      "ac": 345,
      "ke": 346,
      "ad": 347,
      "Ġn": 348,
      "'t": 349,
      "ot": 350,
      "ri": 351,
      "Ġre": 352,
      "ĠW": 353,
      "se": 354,
      "ent": 355,
      "Ġfor": 356,
      "ir": 357,
      "ght": 358,
      "am": 359,
      "ion": 360,
      "Ġst": 361,
      "ĠH": 362,
      "ĠC": 363,
      "ly": 364,
      "ĠB": 365,
      "st": 366,
      "Ġdo": 367,
      "Ġu": 368,
      "out": 369,
      "Ġk": 370,
      "ro": 371,
      "Ġme": 372,
      "ith": 373,
      "her": 374,
      "Ġ[": 375,
      "Ġ\"": 376,
      "Ġwith": 377,
      "ĠThe": 378,
      "all": 379,
      "ea": 380,
      "ome": 381,
      "ur": 382,
      "ch": 383,
      "Ġan": 384,
      "and": 385,
      "Ġli": 386,
      "Ġat": 387,
      "ter": 388,
      "Ġas": 389,
      "Ġwh": 390,
      "ill": 391,
      "Ġse": 392,
      "ĠY": 393,
      "ould": 394,
      "Ġgo": 395,
      "Ġnot": 396,
      "ce": 397,
      "Ġhave": 398,
      "ĠD": 399,
      "AT": 400,
      "Ġthis": 401,
      "ĠP": 402,
      "il": 403,
      "now": 404,
      "ĠN": 405,
      "Ġ-": 406,
      "xx": 407,
      "FAT": 408,
      "ust": 409,
      "Ġher": 410,
      "ell": 411,
      "...": 412,
      "if": 413,
      "un": 414,
      "ant": 415,
      "ct": 416,
      "Ġhis": 417,
      "ĠO": 418,
      "Ġare": 419,
      "ĠR": 420,
      "Ġknow": 421,
      "Ġone": 422,
      "ra": 423,
      "ĠG": 424,
      "th": 425,
      "ĠL": 426,
      "op": 427,
      "Ġthey": 428,
      "ore": 429,
      "Ġwhat": 430,
      "Ġup": 431,
      "Ġ1": 432,
      "ĠF": 433,
      "Ġshe": 434,
      "Ġsa": 435,
      "Ġne": 436,
      "ook": 437,
      "Ġmy": 438,
      "Ġso": 439,
      "um": 440,
      "Ġall": 441,
      "Ġj": 442,
      "rom": 443,
      "ĠE": 444,
      "Ġhad": 445,
      "Ġdon": 446,
      "Ġcan": 447,
      "our": 448,
      "ge": 449,
      "pp": 450,
      "ie": 451,
      "âĢ": 452,
      "eah": 453,
      "Ġthere": 454,
      "ĠJ": 455,
      "Ġde": 456,
      "Ġyour": 457,
      "Ġwhe": 458,
      "ry": 459,
      "ain": 460,
      "ul": 461,
      "ĠHe": 462,
      "Ġr": 463,
      "ĠIt": 464,
      "ĠĠ": 465,
      "ol": 466,
      "ack": 467,
      "ood": 468,
      "Ġab": 469,
      "Ġlike": 470,
      "Ġbut": 471,
      "Ġout": 472,
      "ight": 473,
      "Ġhim": 474,
      "red": 475,
      "ake": 476,
      "art": 477,
      "Ġfrom": 478,
      "Ġal": 479,
      "Ġsh": 480,
      "Ġ2": 481,
      "Ġdid": 482,
      "ation": 483,
      "one": 484,
      "Ġpl": 485,
      "ab": 486,
      "han": 487,
      "very": 488,
      "ig": 489,
      "el": 490,
      "'re": 491,
      "est": 492,
      "'m": 493,
      "os": 494,
      "what": 495,
      "ers": 496,
      "ess": 497,
      "right": 498,
      "ink": 499,
      "em": 500,
      "ist": 501,
      "hi": 502,
      "Ġwere": 503,
      "Ġget": 504,
      "ound": 505,
      "itt": 506,
      "ame": 507,
      "Ġby": 508,
      "ong": 509,
      "Ġsu": 510,
      "Ġsaid": 511,
      "ck": 512,
      "ĠYou": 513,
      "na": 514,
      "ind": 515,
      "Ġor": 516,
      "ther": 517,
      "qu": 518,
      "Ġwor": 519,
      "res": 520,
      "nt": 521,
      "Ġthem": 522,
      "ast": 523,
      "Ġabout": 524,
      "ive": 525,
      "Ġcom": 526,
      "Ġsome": 527,
      "ber": 528,
      "ard": 529,
      "Ġsp": 530,
      "use": 531,
      "oh": 532,
      "Ġ(": 533,
      "xxx": 534,
      "ep": 535,
      "you": 536,
      "ak": 537,
      "own": 538,
      "Ġv": 539,
      "the": 540,
      "Ġwho": 541,
      "Ġwant": 542,
      "Ġcon": 543,
      "ally": 544,
      "au": 545,
      "ate": 546,
      "Ġthink": 547,
      "ice": 548,
      "Ġjust": 549,
      "Ġwould": 550,
      "Ġhere": 551,
      "fe": 552,
      "yeah": 553,
      "kay": 554,
      "'ll": 555,
      "Ġsee": 556,
      "ear": 557,
      "Ġany": 558,
      "ick": 559,
      "od": 560,
      "Ġman": 561,
      "ime": 562,
      "ough": 563,
      "ap": 564,
      "Ġtw": 565,
      "Ġif": 566,
      "ĠK": 567,
      "ag": 568,
      "Ġ20": 569,
      "Ġex": 570,
      "Ġwhen": 571,
      "ittle": 572,
      "Ġgot": 573,
      "ich": 574,
      "ĠAnd": 575,
      "Ġ19": 576,
      "hing": 577,
      "Ġright": 578,
      "Ġsay": 579,
      "].": 580,
      "ort": 581,
      "Ġlook": 582,
      "Ġwill": 583,
      "Ġus": 584,
      "ven": 585,
      "ine": 586,
      "Ġlittle": 587,
      ".\"": 588,
      "ide": 589,
      "ous": 590,
      "ca": 591,
      "IN": 592,
      "--": 593,
      "AR": 594,
      "to": 595,
      "ost": 596,
      "ĠU": 597,
      "Ġnow": 598,
      "Ġag": 599,
      "Ġpro": 600,
      "Ġtoo": 601,
      "int": 602,
      "ies": 603,
      "ity": 604,
      "way": 605,
      "Ġtime": 606,
      "Ġbeen": 607,
      "Ġpe": 608,
      "ite": 609,
      "Ġar": 610,
      "Ġback": 611,
      "ne": 612,
      "Ġmore": 613,
      "Ġcould": 614,
      "Ġthen": 615,
      "Ġcl": 616,
      "lf": 617,
      "Ġhas": 618,
      "Ġxxx": 619,
      "Ġgoing": 620,
      "Ġgood": 621,
      "here": 622,
      "Ġdown": 623,
      "ree": 624,
      "ace": 625,
      "uh": 626,
      "ose": 627,
      "Ġtwo": 628,
      "Ġtheir": 629,
      "Ġvery": 630,
      "ĠâĢ": 631,
      "are": 632,
      "Ġover": 633,
      "MAR": 634,
      "reat": 635,
      "ish": 636,
      "Ġro": 637,
      "Ġwhich": 638,
      "ove": 639,
      "Ġoff": 640,
      "ian": 641,
      "cause": 642,
      "ĠWhat": 643,
      "end": 644,
      "Ġother": 645,
      "alk": 646,
      "ĠĠĠĠ": 647,
      "ĠShe": 648,
      "other": 649,
      "ĠSt": 650,
      "Ġput": 651,
      "hy": 652,
      "ure": 653,
      "Ġtr": 654,
      "Ġaf": 655,
      "ople": 656,
      "that": 657,
      "Ġthing": 658,
      "ud": 659,
      "oy": 660,
      "Ġbl": 661,
      "ase": 662,
      "ft": 663,
      "augh": 664,
      "Ġqu": 665,
      "ond": 666,
      ",\"": 667,
      "we": 668,
      "so": 669,
      "ark": 670,
      "ment": 671,
      "ĠWe": 672,
      "Ġ'": 673,
      "omet": 674,
      "ia": 675,
      "ty": 676,
      "'ve": 677,
      "hed": 678,
      "orn": 679,
      "Ġle": 680,
      "Ġfe": 681,
      "Ġhow": 682,
      "my": 683,
      "Ġpeople": 684,
      "pe": 685,
      "ĠTh": 686,
      "INV": 687,
      "ĠIn": 688,
      "onna": 689,
      "irst": 690,
      "yes": 691,
      "ĠBut": 692,
      "Ġbr": 693,
      "ought": 694,
      "ue": 695,
      "urn": 696,
      "ho": 697,
      "ade": 698,
      "Ġcome": 699,
      "Ġinto": 700,
      "ary": 701,
      "ved": 702,
      "Ġgr": 703,
      "ater": 704,
      "Ġplay": 705,
      "Ġer": 706,
      "Ġmake": 707,
      "ĠNo": 708,
      "Ġcall": 709,
      "Ġgonna": 710,
      "ble": 711,
      "age": 712,
      "ĠV": 713,
      "Ġway": 714,
      "ass": 715,
      "Ġthan": 716,
      "Ġday": 717,
      "iss": 718,
      "Ġwork": 719,
      "ord": 720,
      "ving": 721,
      "Ġ%": 722,
      "ci": 723,
      "Ġagain": 724,
      "Ġsomet": 725,
      "pl": 726,
      "ount": 727,
      "Ġtell": 728,
      "Ġmean": 729,
      "be": 730,
      "laugh": 731,
      "RO": 732,
      "oll": 733,
      "Ġfirst": 734,
      "okay": 735,
      "ff": 736,
      "Ġen": 737,
      "Ġwhere": 738,
      "ran": 739,
      "IS": 740,
      "ire": 741,
      "self": 742,
      "mer": 743,
      "ng": 744,
      "Ġam": 745,
      "Ġafter": 746,
      "wn": 747,
      "Ġtake": 748,
      "ves": 749,
      "Ġwr": 750,
      "ather": 751,
      "Ġthr": 752,
      "up": 753,
      "Ġpart": 754,
      "Ġlet": 755,
      "Ġbet": 756,
      "Ġdoes": 757,
      "ĠSo": 758,
      "ach": 759,
      "ĠThat": 760,
      "uch": 761,
      "Ġyear": 762,
      "ool": 763,
      "Ġgu": 764,
      "Ġneed": 765,
      "Ġdis": 766,
      "Ġpr": 767,
      "Ġhapp": 768,
      "Ġdidn": 769,
      "fore": 770,
      "Ġevery": 771,
      "ouse": 772,
      "ren": 773,
      "thing": 774,
      "Ġun": 775,
      "ps": 776,
      "les": 777,
      "per": 778,
      "Ġonly": 779,
      "ub": 780,
      "SIS": 781,
      "ĠThey": 782,
      "laughs": 783,
      "Ġshould": 784,
      "ĠMr": 785,
      "âĢĻ": 786,
      "pt": 787,
      "Ġour": 788,
      "day": 789,
      "nder": 790,
      "Ġmade": 791,
      "Ġsomething": 792,
      "hm": 793,
      "ĠOh": 794,
      "ull": 795,
      "Ġfl": 796,
      "act": 797,
      "ady": 798,
      "able": 799,
      "ress": 800,
      "Ġmuch": 801,
      "ĠâĢľ": 802,
      "Ġcha": 803,
      "zz": 804,
      "ret": 805,
      "hen": 806,
      "ĠYeah": 807,
      "oss": 808,
      "BRO": 809,
      "og": 810,
      "Ġte": 811,
      "Ġwell": 812,
      "Ġtalk": 813,
      "Ġlong": 814,
      "man": 815,
      "te": 816,
      "ory": 817,
      "Ġ201": 818,
      "Ġcar": 819,
      "ting": 820,
      "Ġco": 821,
      "irl": 822,
      "ions": 823,
      "Ġhand": 824,
      "ied": 825,
      "ated": 826,
      "Ġchi": 827,
      "ict": 828,
      "Ġthese": 829,
      "ang": 830,
      "av": 831,
      "Ġwent": 832,
      "add": 833,
      "ĠThis": 834,
      "ix": 835,
      "Ġreally": 836,
      "Ġthrough": 837,
      "¿½": 838,
      "ï¿½": 839,
      "cc": 840,
      "get": 841,
      "Ġim": 842,
      "Ġcomp": 843,
      "ile": 844,
      "uck": 845,
      "Ġbecause": 846,
      "Ġbefore": 847,
      "Ġad": 848,
      "where": 849,
      "'d": 850,
      "Ġpo": 851,
      "Ġchild": 852,
      "Ġnever": 853,
      "Ġold": 854,
      "Ġbig": 855,
      "ise": 856,
      "ody": 857,
      "ĠUn": 858,
      "Ġsha": 859,
      "ĠWell": 860,
      "anna": 861,
      "Ġthree": 862,
      "ug": 863,
      "Ġcame": 864,
      "Ġboy": 865,
      "Ġmo": 866,
      "Ġsc": 867,
      "Ġrem": 868,
      "Ġstill": 869,
      "iz": 870,
      "?\"": 871,
      "Ġeat": 872,
      "Ġalso": 873,
      "Ġunder": 874,
      "Ġgreat": 875,
      "Ġke": 876,
      "Ġask": 877,
      "cl": 878,
      "ful": 879,
      "Ġsm": 880,
      "Ġhel": 881,
      "Ġaway": 882,
      "Ġgirl": 883,
      "ip": 884,
      "ence": 885,
      "Ġthought": 886,
      "Ġeven": 887,
      "atch": 888,
      "ks": 889,
      "ons": 890,
      "ried": 891,
      "Ġact": 892,
      "ĠCh": 893,
      "ward": 894,
      "do": 895,
      "ĠThere": 896,
      "Ġapp": 897,
      "nother": 898,
      "und": 899,
      "ommy": 900,
      "Ġhome": 901,
      "Ġnew": 902,
      "Ġlast": 903,
      "Ġwanna": 904,
      "Ġper": 905,
      "Ġch": 906,
      "Ġhappen": 907,
      "Ġname": 908,
      "ect": 909,
      "land": 910,
      "Ġmay": 911,
      "ors": 912,
      "Ġcr": 913,
      "ember": 914,
      "ath": 915,
      "00": 916,
      "ited": 917,
      "UR": 918,
      "Ġdoing": 919,
      "Ġstart": 920,
      "Ġturn": 921,
      "ates": 922,
      "ily": 923,
      "Ġthings": 924,
      "ock": 925,
      "riend": 926,
      "ah": 927,
      "old": 928,
      "ign": 929,
      "Ġmust": 930,
      "Ġthose": 931,
      "ĠMar": 932,
      "Ġhouse": 933,
      "Ġmany": 934,
      "Ġbook": 935,
      "âĢĿ": 936,
      "Ġlea": 937,
      ".]": 938,
      "Ġmother": 939,
      "chool": 940,
      "Ġanother": 941,
      "hes": 942,
      "ings": 943,
      "ny": 944,
      "li": 945,
      "ans": 946,
      "Ġcont": 947,
      "ob": 948,
      "aby": 949,
      "Ġgive": 950,
      "ung": 951,
      "but": 952,
      "Ġhelp": 953,
      "Ġbu": 954,
      "Ġser": 955,
      "Ġfind": 956,
      "ious": 957,
      "ance": 958,
      "ait": 959,
      "ys": 960,
      "Ġhead": 961,
      "xt": 962,
      "how": 963,
      "lease": 964,
      "pen": 965,
      "ĠNe": 966,
      "ina": 967,
      "air": 968,
      "iv": 969,
      "Ġtry": 970,
      "ave": 971,
      "rain": 972,
      "Ġwon": 973,
      "igh": 974,
      "well": 975,
      "Ġown": 976,
      "Ġsec": 977,
      "Ġnight": 978,
      "oney": 979,
      "rd": 980,
      "Ġcalled": 981,
      "Ġres": 982,
      "Ġ3": 983,
      "ĠĠĠĠĠĠĠĠ": 984,
      "Ġbel": 985,
      "ail": 986,
      "Ġkind": 987,
      "oc": 988,
      "ts": 989,
      "Ġshow": 990,
      "ĠBr": 991,
      "ars": 992,
      "Ġyears": 993,
      "Ġchan": 994,
      "ild": 995,
      "ĠChi": 996,
      "aw": 997,
      "body": 998,
      "Ġlove": 999,
      "Ġfriend": 1000,
      "Ġfour": 1001,
      "ĠYes": 1002,
      "URS": 1003,
      "ert": 1004,
      "huh": 1005,
      "ĠHow": 1006,
      "Ġfound": 1007,
      "Ġel": 1008,
      "ical": 1009,
      "aking": 1010,
      "ĠIs": 1011,
      "Ġdone": 1012,
      "gg": 1013,
      "Ġbetter": 1014,
      "side": 1015,
      "Ġsl": 1016,
      "Ġwhy": 1017,
      "Ġend": 1018,
      "Ġmight": 1019,
      "akes": 1020,
      "Ġrec": 1021,
      "Ġbo": 1022,
      "als": 1023,
      "Ġread": 1024,
      "Ġokay": 1025,
      "Ġche": 1026,
      "ways": 1027,
      "ince": 1028,
      "Ġcomm": 1029,
      "Ġbot": 1030,
      "vers": 1031,
      "ER": 1032,
      "ican": 1033,
      "Ġmin": 1034,
      "Ġplace": 1035,
      "Ġaround": 1036,
      "Ġsuch": 1037,
      "Ġfeel": 1038,
      "ĠBe": 1039,
      "ĠIf": 1040,
      "Ġroom": 1041,
      "Ġmost": 1042,
      "Ġschool": 1043,
      "let": 1044,
      "port": 1045,
      "Ġatt": 1046,
      "ident": 1047,
      "ces": 1048,
      "Ġbeing": 1049,
      "Ġgl": 1050,
      "for": 1051,
      "Ġcount": 1052,
      "Ġpres": 1053,
      "Ġdif": 1054,
      "Ġtold": 1055,
      "Ġits": 1056,
      "Ġ202": 1057,
      "Ġsupp": 1058,
      "ds": 1059,
      "amp": 1060,
      "Ġfather": 1061,
      "Ġsure": 1062,
      "rent": 1063,
      "Ġ.": 1064,
      "Ġanything": 1065,
      "Ġlife": 1066,
      "Ġcare": 1067,
      "mp": 1068,
      "Ġkeep": 1069,
      "Ġdes": 1070,
      "Ġelse": 1071,
      "Ġcour": 1072,
      "ĠDo": 1073,
      "Ġfin": 1074,
      "led": 1075,
      "ually": 1076,
      "Ġwater": 1077,
      "ont": 1078,
      "Ġbeg": 1079,
      "inn": 1080,
      "ĠAll": 1081,
      "Ġnum": 1082,
      "mhm": 1083,
      "ction": 1084,
      "ĠAs": 1085,
      "ream": 1086,
      "row": 1087,
      "Ġsil": 1088,
      "ĠAmer": 1089,
      "uc": 1090,
      "why": 1091,
      "Ġever": 1092,
      "Ġlot": 1093,
      "Ġsame": 1094,
      "Ġnext": 1095,
      "ult": 1096,
      "imes": 1097,
      "orry": 1098,
      "ump": 1099,
      "Ġear": 1100,
      "Ġdr": 1101,
      "ĠRe": 1102,
      "de": 1103,
      "ute": 1104,
      "Ġalways": 1105,
      "Ġmen": 1106,
      "Ġfive": 1107,
      "!\"": 1108,
      "Ġwhile": 1109,
      "Ġbec": 1110,
      "Ġsaw": 1111,
      "br": 1112,
      "Ġra": 1113,
      "ĠAl": 1114,
      "Ġtook": 1115,
      "ee": 1116,
      "ations": 1117,
      "mber": 1118,
      "ens": 1119,
      "look": 1120,
      "Ġset": 1121,
      "Ġopen": 1122,
      "Ġbaby": 1123,
      "Ġnice": 1124,
      "ever": 1125,
      "Ġpol": 1126,
      "rest": 1127,
      "Ġstr": 1128,
      "who": 1129,
      "ye": 1130,
      "Ġused": 1131,
      "Ġdoesn": 1132,
      "ition": 1133,
      "ling": 1134,
      "Ġseem": 1135,
      "ms": 1136,
      "Ġyeah": 1137,
      "ï¿½ï¿½": 1138,
      "Ġwom": 1139,
      "can": 1140,
      "Ġpre": 1141,
      "Ġpret": 1142,
      "Ġbre": 1143,
      "Ġleft": 1144,
      "this": 1145,
      "Ġpie": 1146,
      "oot": 1147,
      "Ġbus": 1148,
      "Ġsw": 1149,
      "ister": 1150,
      "Ġfam": 1151,
      "ros": 1152,
      "vent": 1153,
      "Ġrun": 1154,
      "Ġmon": 1155,
      "they": 1156,
      "Ġmag": 1157,
      "ĠAn": 1158,
      "ational": 1159,
      "vel": 1160,
      "ĠTH": 1161,
      "ĠDe": 1162,
      "AN": 1163,
      "ounds": 1164,
      "ĠWhy": 1165,
      "Ġfar": 1166,
      "cle": 1167,
      "ĠUnited": 1168,
      "wh": 1169,
      "oun": 1170,
      "outh": 1171,
      "Ġstop": 1172,
      "tern": 1173,
      "Ġworld": 1174,
      "Ġcle": 1175,
      "Ġsix": 1176,
      "gether": 1177,
      "Ġunt": 1178,
      "Ġreal": 1179,
      "Ġum": 1180,
      "aught": 1181,
      "ĠOn": 1182,
      "Ġfun": 1183,
      "Ġele": 1184,
      "ished": 1185,
      "ĠAr": 1186,
      "Ġuse": 1187,
      "Ġmoney": 1188,
      "Ġhard": 1189,
      "undred": 1190,
      "Ġkne": 1191,
      "ries": 1192,
      "Ġnumber": 1193,
      "Ġmom": 1194,
      "Ġsing": 1195,
      "Ġdiffe": 1196,
      "ness": 1197,
      "ĠâĢĵ": 1198,
      "Ġstay": 1199,
      "gr": 1200,
      "ĠKing": 1201,
      "Ġwee": 1202,
      "Ġhundred": 1203,
      "Ġph": 1204,
      "ĠCha": 1205,
      "ĠNow": 1206,
      "ower": 1207,
      "Ġbelie": 1208,
      "usic": 1209,
      "ellow": 1210,
      "ope": 1211,
      "Ġwar": 1212,
      "Ġob": 1213,
      "erson": 1214,
      "pect": 1215,
      "Ġ200": 1216,
      "ES": 1217,
      "Ġacc": 1218,
      "ins": 1219,
      "there": 1220,
      "ger": 1221,
      "Ġmar": 1222,
      "ĠNew": 1223,
      "Ġdog": 1224,
      "anc": 1225,
      "Ġret": 1226,
      "The": 1227,
      "ĠDon": 1228,
      "she": 1229,
      "ĠMark": 1230,
      "Ġblack": 1231,
      "Ġgi": 1232,
      "ween": 1233,
      "leep": 1234,
      "Ġstick": 1235,
      "Ġbir": 1236,
      "Ġtogether": 1237,
      "Ġknown": 1238,
      "ĠFor": 1239,
      "Ġhappened": 1240,
      "Ġac": 1241,
      "ton": 1242,
      "Ġwait": 1243,
      "ĠOkay": 1244,
      "ĠWhen": 1245,
      "ĠMy": 1246,
      "me": 1247,
      "ets": 1248,
      "Ġcourse": 1249,
      "Ġenough": 1250,
      "Ġyoung": 1251,
      "ĠEng": 1252,
      "hank": 1253,
      "CO": 1254,
      "leas": 1255,
      "ph": 1256,
      "ial": 1257,
      "Ġsays": 1258,
      "orning": 1259,
      "Ġhear": 1260,
      "Ġuntil": 1261,
      "ĠAt": 1262,
      "ta": 1263,
      "Ġbest": 1264,
      "ĠFran": 1265,
      "Ġdied": 1266,
      "Ġupon": 1267,
      "LD": 1268,
      "Ġyes": 1269,
      "io": 1270,
      "Ġsecond": 1271,
      "ned": 1272,
      "Ġnothing": 1273,
      "Ġcol": 1274,
      "did": 1275,
      "rew": 1276,
      "rist": 1277,
      "ec": 1278,
      "ĠMiss": 1279,
      "Chi": 1280,
      "tle": 1281,
      "Ġfr": 1282,
      "Ġeyes": 1283,
      "Ġbad": 1284,
      "Ġ_": 1285,
      "Ġbetween": 1286,
      "fta": 1287,
      "Ġsur": 1288,
      "Ġ4": 1289,
      "Ġwalk": 1290,
      "Ġthough": 1291,
      "Ġdoor": 1292,
      "ĠAmerican": 1293,
      "Ġasked": 1294,
      "ĠCan": 1295,
      "oup": 1296,
      "Ġmat": 1297,
      "eak": 1298,
      "Ġquite": 1299,
      "uff": 1300,
      "ĠMrs": 1301,
      "see": 1302,
      "Ġremember": 1303,
      "Ġsilver": 1304,
      "ible": 1305,
      "az": 1306,
      "Ġstand": 1307,
      "ubl": 1308,
      "Ġchildren": 1309,
      "ged": 1310,
      "Ġpoint": 1311,
      "Ġbit": 1312,
      "ĠThen": 1313,
      "Ġbed": 1314,
      "Ġhimself": 1315,
      "not": 1316,
      "\".": 1317,
      "Ġmorning": 1318,
      "Ġhafta": 1319,
      "Ġhold": 1320,
      "Ġchar": 1321,
      "Ġfall": 1322,
      "Ġplease": 1323,
      "Ġside": 1324,
      "ject": 1325,
      "ures": 1326,
      "EL": 1327,
      "uring": 1328,
      "Ġsit": 1329,
      "Ġvo": 1330,
      "Ġrel": 1331,
      "ired": 1332,
      "Ġball": 1333,
      "aut": 1334,
      "Ġlight": 1335,
      "mb": 1336,
      "Ġkill": 1337,
      "Ġdist": 1338,
      "ale": 1339,
      "put": 1340,
      "Ġsorry": 1341,
      "Ġlist": 1342,
      "ents": 1343,
      "ĠNot": 1344,
      "Ġcoming": 1345,
      "Ġsmall": 1346,
      "Ġpick": 1347,
      "ĠZ": 1348,
      "Ġpass": 1349,
      "Ġwanted": 1350,
      "ollow": 1351,
      "med": 1352,
      "ched": 1353,
      "Ġface": 1354,
      "any": 1355,
      "ohn": 1356,
      "addy": 1357,
      "ĠJan": 1358,
      "Ġseen": 1359,
      "Ġagainst": 1360,
      "Ġknew": 1361,
      "vie": 1362,
      "Ġ18": 1363,
      "Ġfew": 1364,
      "Ġboth": 1365,
      "ters": 1366,
      "une": 1367,
      "Ġwithout": 1368,
      "Ġmind": 1369,
      "Ġisn": 1370,
      "uary": 1371,
      "ork": 1372,
      "ross": 1373,
      "ĠStates": 1374,
      "enc": 1375,
      "ĠHey": 1376,
      "ten": 1377,
      "Ġonce": 1378,
      "ib": 1379,
      "Ġheard": 1380,
      "ĠJust": 1381,
      "ape": 1382,
      "iet": 1383,
      "Ġent": 1384,
      "Ġlooking": 1385,
      "ning": 1386,
      "Ġborn": 1387,
      "Ġstory": 1388,
      "ank": 1389,
      "Ġmil": 1390,
      "ĠCl": 1391,
      "cha": 1392,
      "ING": 1393,
      "Ġtop": 1394,
      "Ġdifferent": 1395,
      "Ġbase": 1396,
      "),": 1397,
      "oint": 1398,
      "most": 1399,
      "ĠAf": 1400,
      "Ġhur": 1401,
      "Ġeach": 1402,
      "Ġreg": 1403,
      "ctor": 1404,
      "Ġleave": 1405,
      "Ġstud": 1406,
      "Ġter": 1407,
      "ics": 1408,
      "Ġcons": 1409,
      "Ġheart": 1410,
      "raw": 1411,
      "ffe": 1412,
      "ĠEd": 1413,
      "enty": 1414,
      "Ġ199": 1415,
      "aper": 1416,
      "Ġtoday": 1417,
      "oud": 1418,
      "ier": 1419,
      "Ġmet": 1420,
      "ĠMay": 1421,
      "ener": 1422,
      "Ġbro": 1423,
      "mm": 1424,
      "pr": 1425,
      "Ġyet": 1426,
      "Ġdec": 1427,
      "ĠJohn": 1428,
      "Ġtable": 1429,
      "Ġgetting": 1430,
      "stand": 1431,
      "Ġrest": 1432,
      "Ġsong": 1433,
      "Ġwhole": 1434,
      "Ġlooked": 1435,
      "cial": 1436,
      "Ġpretty": 1437,
      "ĠLet": 1438,
      "less": 1439,
      "Ġlater": 1440,
      "Ġhung": 1441,
      "ĠInd": 1442,
      "Ġuh": 1443,
      "orth": 1444,
      "Ġhat": 1445,
      "ason": 1446,
      "Ġ5": 1447,
      "ating": 1448,
      "Ġperson": 1449,
      "Ġhands": 1450,
      "Ġgave": 1451,
      "reen": 1452,
      "Ġkid": 1453,
      "Ġeverything": 1454,
      "ular": 1455,
      "Ġwatch": 1456,
      "Ġtalking": 1457,
      "Ġdri": 1458,
      "Ġeight": 1459,
      "ife": 1460,
      "ex": 1461,
      "Ġnear": 1462,
      "Ġinv": 1463,
      "Ġsoon": 1464,
      "its": 1465,
      "ĠGod": 1466,
      "Ġcity": 1467,
      "ĠEr": 1468,
      "come": 1469,
      "Ġsleep": 1470,
      "Ġsk": 1471,
      "Ġfollow": 1472,
      "ames": 1473,
      "uss": 1474,
      "Ġate": 1475,
      "Ġhuh": 1476,
      "Ġhigh": 1477,
      "Ġwasn": 1478,
      "ĠChrist": 1479,
      "Ġmagn": 1480,
      "Ġfamily": 1481,
      "Ġtown": 1482,
      "ready": 1483,
      "ably": 1484,
      "onder": 1485,
      "hip": 1486,
      "Ġfood": 1487,
      "ĠCome": 1488,
      "ney": 1489,
      "Ġsent": 1490,
      "co": 1491,
      "zzz": 1492,
      "Ġair": 1493,
      "Ġdays": 1494,
      "ision": 1495,
      "Ġpict": 1496,
      "go": 1497,
      "ertain": 1498,
      "Ġred": 1499,
      "ĠTHE": 1500,
      "Ġdoll": 1501,
      "Ġhaving": 1502,
      "OU": 1503,
      "aster": 1504,
      ").": 1505,
      "der": 1506,
      "Ġgoes": 1507,
      "Ġans": 1508,
      "Ġsince": 1509,
      "Ġbeaut": 1510,
      "Ġerm": 1511,
      "Ġhalf": 1512,
      "Ġbelieve": 1513,
      "ĠGo": 1514,
      "Ġwind": 1515,
      "Ġmeet": 1516,
      "osed": 1517,
      "ĠAd": 1518,
      "ball": 1519,
      "ĠPr": 1520,
      "Ġinst": 1521,
      "oor": 1522,
      "ines": 1523,
      "Ġgirls": 1524,
      "ounc": 1525,
      "pped": 1526,
      "Ġshall": 1527,
      "Ġround": 1528,
      "ash": 1529,
      "Ġfire": 1530,
      "don": 1531,
      "Ġind": 1532,
      "vern": 1533,
      "iness": 1534,
      "ĠSp": 1535,
      "sh": 1536,
      "Ġlive": 1537,
      "Ġwrite": 1538,
      "Ġvoice": 1539,
      "Ġmove": 1540,
      "Ġgone": 1541,
      "Ġstarted": 1542,
      "den": 1543,
      "ĠSc": 1544,
      "wo": 1545,
      "ike": 1546,
      "Ġquest": 1547,
      "Ġri": 1548,
      "Ġspo": 1549,
      "arah": 1550,
      "uth": 1551,
      "sel": 1552,
      "Ġword": 1553,
      "Ġanim": 1554,
      "cept": 1555,
      "Ġtri": 1556,
      "Ġpop": 1557,
      "eng": 1558,
      "Ġbrother": 1559,
      "ĠMommy": 1560,
      "Ġlo": 1561,
      "Ġbring": 1562,
      "aj": 1563,
      "orrow": 1564,
      "Ġsaying": 1565,
      "Ġalready": 1566,
      "elt": 1567,
      "Ġtrain": 1568,
      "Ġson": 1569,
      "Ġthir": 1570,
      "Ġplan": 1571,
      "aid": 1572,
      "Ġcat": 1573,
      "ither": 1574,
      "Ġsy": 1575,
      "ully": 1576,
      "ual": 1577,
      "Ġhor": 1578,
      "Ġdire": 1579,
      "Ġ198": 1580,
      "Ġhour": 1581,
      "Ġca": 1582,
      "ĠHis": 1583,
      "ised": 1584,
      "Ġid": 1585,
      "LO": 1586,
      "cted": 1587,
      "Ġfif": 1588,
      "ote": 1589,
      "Ġwrong": 1590,
      "app": 1591,
      "ĠTo": 1592,
      "ĠCom": 1593,
      "Ġmaking": 1594,
      "lish": 1595,
      "part": 1596,
      "ĠGer": 1597,
      "Ġcap": 1598,
      "ery": 1599,
      "Ġdrink": 1600,
      "aken": 1601,
      "iful": 1602,
      "Ġhungry": 1603,
      "Mommy": 1604,
      "Ġcountry": 1605,
      "Ġready": 1606,
      "ustr": 1607,
      "Ġpiece": 1608,
      "clud": 1609,
      "Ġbuild": 1610,
      "wards": 1611,
      "You": 1612,
      "Ġunderstand": 1613,
      "Ġdear": 1614,
      "ivers": 1615,
      "Ġbreak": 1616,
      "wer": 1617,
      "Ġtrying": 1618,
      "ison": 1619,
      "ield": 1620,
      "ted": 1621,
      "Ġfriends": 1622,
      "ax": 1623,
      "ĠAre": 1624,
      "Ġlar": 1625,
      "COL": 1626,
      "Ġalong": 1627,
      "Ġdat": 1628,
      "Ġfight": 1629,
      "Ġcent": 1630,
      "Ġwonder": 1631,
      "Ġmeans": 1632,
      "Ġmiss": 1633,
      "Ġ6": 1634,
      "ues": 1635,
      "Ġreturn": 1636,
      "Ġfoot": 1637,
      "Ġ7": 1638,
      "Ġimp": 1639,
      "Ġsub": 1640,
      "Ã©": 1641,
      "Ġlaugh": 1642,
      "Ġalmost": 1643,
      "ered": 1644,
      "ober": 1645,
      "aces": 1646,
      "Ġsound": 1647,
      "Ġbas": 1648,
      "Ġcut": 1649,
      "Ġsort": 1650,
      "EN": 1651,
      "ities": 1652,
      "Ġbecame": 1653,
      "ĠLook": 1654,
      "\",": 1655,
      "Ġhot": 1656,
      "ĠPh": 1657,
      "eth": 1658,
      "Ġeas": 1659,
      "Ġwoman": 1660,
      "Ġland": 1661,
      "UN": 1662,
      "ĠRoss": 1663,
      "ĠLe": 1664,
      "Ġage": 1665,
      "aul": 1666,
      "Ġmoment": 1667,
      "ĠQ": 1668,
      "Ġgame": 1669,
      "Ġwouldn": 1670,
      "ped": 1671,
      "Ġ8": 1672,
      "ON": 1673,
      "ative": 1674,
      "ĠGr": 1675,
      "Ġbegan": 1676,
      "Ġtra": 1677,
      "ĠHer": 1678,
      "Ġi": 1679,
      "ury": 1680,
      "cess": 1681,
      "ush": 1682,
      "ĠFl": 1683,
      "Ġpaper": 1684,
      "Ġjo": 1685,
      "ows": 1686,
      "isit": 1687,
      "ĠWho": 1688,
      "Ġlead": 1689,
      "uhhuh": 1690,
      "ĠOne": 1691,
      "Ġguy": 1692,
      "ined": 1693,
      "ĠDid": 1694,
      "by": 1695,
      "ĠWill": 1696,
      "Ġadd": 1697,
      "alright": 1698,
      "Ġinte": 1699,
      "ants": 1700,
      "Ġactually": 1701,
      "19": 1702,
      "Ġref": 1703,
      "Oh": 1704,
      "ĠWhere": 1705,
      "Ġtre": 1706,
      "Ġspeak": 1707,
      "Ġproble": 1708,
      "eter": 1709,
      "ital": 1710,
      "Ġdeath": 1711,
      "ony": 1712,
      "ĠCount": 1713,
      "Ġ197": 1714,
      "ken": 1715,
      "Ġrep": 1716,
      "Ġidea": 1717,
      "du": 1718,
      "Ġfore": 1719,
      "Ġtwenty": 1720,
      "Ġguys": 1721,
      "rog": 1722,
      "Ġass": 1723,
      ".âĢĿ": 1724,
      "ene": 1725,
      "Ġint": 1726,
      "ĠJe": 1727,
      "Ġhum": 1728,
      "rop": 1729,
      "Ġguess": 1730,
      "Ġparty": 1731,
      "Ġlost": 1732,
      "Ġcup": 1733,
      "Ġprom": 1734,
      "Ġstuff": 1735,
      "Ġpresent": 1736,
      "ĠThank": 1737,
      "Ġoh": 1738,
      "bably": 1739,
      "tain": 1740,
      "Ġposs": 1741,
      "Ġwhite": 1742,
      "ster": 1743,
      "ĠMot": 1744,
      "Ġten": 1745,
      "ey": 1746,
      "Ġsign": 1747,
      "Ġbeautiful": 1748,
      "Ġturned": 1749,
      "ÃŃ": 1750,
      "Ġrecord": 1751,
      "ĠCar": 1752,
      "Ġlooks": 1753,
      "Ġfine": 1754,
      "Ġphone": 1755,
      "Ġcoll": 1756,
      "Ġfact": 1757,
      "Ġbrought": 1758,
      "reet": 1759,
      "ze": 1760,
      "Ġwords": 1761,
      "ept": 1762,
      "Ġ9": 1763,
      "ages": 1764,
      "Ġcertain": 1765,
      "----": 1766,
      "Ġtele": 1767,
      "Ġduring": 1768,
      "Ġpubl": 1769,
      "ouch": 1770,
      "Ġyellow": 1771,
      "Ġtimes": 1772,
      "olly": 1773,
      "ouble": 1774,
      "Ġinterest": 1775,
      "Ġcomes": 1776,
      "Ġbox": 1777,
      "AI": 1778,
      "Ġlear": 1779,
      "ĠĠĠĠĠĠĠĠĠĠĠĠĠĠĠĠ": 1780,
      "Ġconf": 1781,
      "got": 1782,
      "Ġaw": 1783,
      "kes": 1784,
      "ĠEnglish": 1785,
      "son": 1786,
      "Ġpolit": 1787,
      "Ġfull": 1788,
      "Ġclose": 1789,
      "Ġweek": 1790,
      "Ġmonth": 1791,
      "Ġpay": 1792,
      "ĠBl": 1793,
      "Ġexc": 1794,
      "It": 1795,
      "Ġsun": 1796,
      "urs": 1797,
      "Ġteam": 1798,
      "unch": 1799,
      "ese": 1800,
      "Ġplayed": 1801,
      "ĠRight": 1802,
      "Ġpain": 1803,
      "ief": 1804,
      "Ġplaying": 1805,
      "ying": 1806,
      "ists": 1807,
      "Ġmusic": 1808,
      "ared": 1809,
      "Ġsister": 1810,
      "Ġhappy": 1811,
      "Ġjob": 1812,
      "Ġmatter": 1813,
      "Ġtaken": 1814,
      "Ġboys": 1815,
      "Ġdel": 1816,
      "Ġste": 1817,
      "leased": 1818,
      "ru": 1819,
      "GLO": 1820,
      "ama": 1821,
      "airs": 1822,
      "orm": 1823,
      "hey": 1824,
      "Ġable": 1825,
      "Ġmovie": 1826,
      "NA": 1827,
      "Ġwand": 1828,
      "unt": 1829,
      "Ġbear": 1830,
      "Ġhope": 1831,
      "Ġrock": 1832,
      "fully": 1833,
      "Ġinclud": 1834,
      ",âĢĿ": 1835,
      "Ġlisten": 1836,
      "bb": 1837,
      "Ġext": 1838,
      "read": 1839,
      "Ġthank": 1840,
      "gan": 1841,
      "key": 1842,
      "ring": 1843,
      "Ġminute": 1844,
      "ming": 1845,
      "amed": 1846,
      "Ġmed": 1847,
      "room": 1848,
      "Ġwrit": 1849,
      "more": 1850,
      "Ġinc": 1851,
      "Ġfell": 1852,
      "Ġherself": 1853,
      "MEL": 1854,
      "ĠGood": 1855,
      "Ġdead": 1856,
      "Ġdress": 1857,
      "ĠGe": 1858,
      "then": 1859,
      "Ġdisc": 1860,
      "Ġpoor": 1861,
      "Ġking": 1862,
      "hind": 1863,
      "Ġ10": 1864,
      "Ġwants": 1865,
      "Ġegg": 1866,
      "ĠPer": 1867,
      "Ġfelt": 1868,
      "Ġmyself": 1869,
      "Ġlaw": 1870,
      "icha": 1871,
      "Ġ196": 1872,
      "umb": 1873,
      "Ġart": 1874,
      "Ġmagnet": 1875,
      "Ġ,": 1876,
      "Ġcir": 1877,
      "ats": 1878,
      "ole": 1879,
      "ĠAp": 1880,
      "ner": 1881,
      "Ġsat": 1882,
      "ided": 1883,
      "Ġinter": 1884,
      "men": 1885,
      "utes": 1886,
      "ple": 1887,
      "olog": 1888,
      "Ġ#": 1889,
      "Ġseemed": 1890,
      "Ġcouldn": 1891,
      "ĠWh": 1892,
      "Ġletter": 1893,
      "Ġcontin": 1894,
      "used": 1895,
      "rench": 1896,
      "Ġsim": 1897,
      "Ġago": 1898,
      "Ġbar": 1899,
      "eptember": 1900,
      "ises": 1901,
      "ĠAfter": 1902,
      "Ġhair": 1903,
      "ica": 1904,
      "Ġsir": 1905,
      "Ġmakes": 1906,
      "Ġoffic": 1907,
      "Ġmaybe": 1908,
      "Ġspe": 1909,
      "Ġlate": 1910,
      "idd": 1911,
      "Ġpounds": 1912,
      "Ġleg": 1913,
      "itc": 1914,
      "Ġgener": 1915,
      "Ġsomeone": 1916,
      "rying": 1917,
      "Ġblue": 1918,
      "bum": 1919,
      "ator": 1920,
      "haps": 1921,
      "ma": 1922,
      "ĠCounty": 1923,
      "selves": 1924,
      "Ġgotta": 1925,
      "Ġloc": 1926,
      "Ġfront": 1927,
      "oub": 1928,
      "ific": 1929,
      "bo": 1930,
      "Ġchair": 1931,
      "Ġrather": 1932,
      "gin": 1933,
      "born": 1934,
      "Ġclear": 1935,
      "ĠPro": 1936,
      "Ġlived": 1937,
      "Ġbusiness": 1938,
      "ution": 1939,
      "ousand": 1940,
      "Ġfloor": 1941,
      "itting": 1942,
      "la": 1943,
      "ides": 1944,
      "inner": 1945,
      "head": 1946,
      "Ġwood": 1947,
      "Ġpri": 1948,
      "Ġbehind": 1949,
      "like": 1950,
      "Ġstrong": 1951,
      "OR": 1952,
      "ized": 1953,
      "ĠGerman": 1954,
      "ĠSeptember": 1955,
      "just": 1956,
      "vernment": 1957,
      "Ġstate": 1958,
      "Ġquestion": 1959,
      "Ġbirth": 1960,
      "sp": 1961,
      "Ġimport": 1962,
      "ize": 1963,
      "ians": 1964,
      "Ġless": 1965,
      "sing": 1966,
      "ati": 1967,
      "Ġshort": 1968,
      "Ġwomen": 1969,
      "ern": 1970,
      "Ġminutes": 1971,
      "ĠFrance": 1972,
      "ĠWor": 1973,
      "Ġdeal": 1974,
      "Ġev": 1975,
      "ĠEx": 1976,
      "ured": 1977,
      "fect": 1978,
      "nina": 1979,
      "Ġed": 1980,
      "Ġswe": 1981,
      "Ġgreen": 1982,
      "com": 1983,
      "ĠSome": 1984,
      "ense": 1985,
      "iversity": 1986,
      "ĠYour": 1987,
      "Ġinside": 1988,
      "ik": 1989,
      "Ġhaven": 1990,
      "Ġ2022": 1991,
      "Ġcolor": 1992,
      "Ġprobably": 1993,
      "ĠPhil": 1994,
      "een": 1995,
      "Ġthousand": 1996,
      "Ġtrue": 1997,
      "ĠBrit": 1998,
      "ald": 1999,
      "âĢĶ": 2000,
      "Ġ194": 2001,
      "Ġlady": 2002,
      "ĠJanuary": 2003,
      "Ġalone": 2004,
      "ĠSarah": 2005,
      "Ġseven": 2006,
      "Ġoutside": 2007,
      "Ġserv": 2008,
      "Ġcur": 2009,
      "atur": 2010,
      "ril": 2011,
      "ention": 2012,
      "ford": 2013,
      "Ġcase": 2014,
      "ĠOr": 2015,
      "Ġpicture": 2016,
      "aughter": 2017,
      "uly": 2018,
      "ĠBen": 2019,
      "gy": 2020,
      "Ġes": 2021,
      "ham": 2022,
      "ism": 2023,
      "Ġ195": 2024,
      "Ġquick": 2025,
      "Ġpower": 2026,
      "Ġcook": 2027,
      "oes": 2028,
      "Ġfrog": 2029,
      "ĠPar": 2030,
      "rs": 2031,
      "ones": 2032,
      "Ġtape": 2033,
      "ety": 2034,
      "ĠMan": 2035,
      "Ġran": 2036,
      "pill": 2037,
      "Ġalbum": 2038,
      "ley": 2039,
      "morrow": 2040,
      "ĠGu": 2041,
      "ugust": 2042,
      "Ġmine": 2043,
      "Ġcreat": 2044,
      "Ġroad": 2045,
      "Ġgrand": 2046,
      "Ġmilk": 2047,
      "Ġlay": 2048,
      "ider": 2049,
      "Ġchange": 2050,
      "ĠDr": 2051,
      "Ġyourself": 2052,
      "Ġem": 2053,
      "Ġsqu": 2054,
      "ĠFe": 2055,
      "Ġhon": 2056,
      "Ġpull": 2057,
      "erv": 2058,
      "ears": 2059,
      "arent": 2060,
      "ments": 2061,
      "aterpill": 2062,
      "Ġpar": 2063,
      "rian": 2064,
      "els": 2065,
      "Ġexpl": 2066,
      "Ġtaking": 2067,
      "CHILD": 2068,
      "oth": 2069,
      "Ġprot": 2070,
      "range": 2071,
      "yep": 2072,
      "rap": 2073,
      "Ġgiven": 2074,
      "mother": 2075,
      "ĠMarch": 2076,
      "yup": 2077,
      "Ġmain": 2078,
      "ĠSha": 2079,
      "ĠAb": 2080,
      "What": 2081,
      "ĠEl": 2082,
      "Ġwin": 2083,
      "Ġdark": 2084,
      "ĠFr": 2085,
      "ĠPe": 2086,
      "Ġdream": 2087,
      "ches": 2088,
      "IC": 2089,
      "Ġoften": 2090,
      "uro": 2091,
      "Ġwish": 2092,
      "ĠWith": 2093,
      "Ġmark": 2094,
      "che": 2095,
      "Ġfifty": 2096,
      "Ġbody": 2097,
      "ĠHar": 2098,
      "Ġarea": 2099,
      "Ġtrans": 2100,
      "angu": 2101,
      "ane": 2102,
      "Ġones": 2103,
      "ĠYork": 2104,
      "ĠDav": 2105,
      "Ġprof": 2106,
      "And": 2107,
      "ĠYOU": 2108,
      "Ġfeet": 2109,
      "form": 2110,
      "point": 2111,
      "ked": 2112,
      "Ġsal": 2113,
      "Ġfunny": 2114,
      "Ġwife": 2115,
      "ilt": 2116,
      "iously": 2117,
      "cent": 2118,
      "ead": 2119,
      "GAI": 2120,
      "Ġhist": 2121,
      "ices": 2122,
      "ĠAugust": 2123,
      "Ġform": 2124,
      "fl": 2125,
      "ctober": 2126,
      "ĠFrench": 2127,
      "Ġchildes": 2128,
      "CHILDES": 2129,
      "Ġliving": 2130,
      "AL": 2131,
      "Ġhurt": 2132,
      "Ġâ": 2133,
      "ĠHere": 2134,
      "ĠSw": 2135,
      "Ġleast": 2136,
      "ĠCon": 2137,
      "aterpillar": 2138,
      "Ġworking": 2139,
      "ipp": 2140,
      "Ġpu": 2141,
      "Ġcold": 2142,
      "aur": 2143,
      "ĠWorld": 2144,
      "ĠSh": 2145,
      "Ġlarge": 2146,
      "Ġtried": 2147,
      "Ġfav": 2148,
      "fort": 2149,
      "ĠAdam": 2150,
      "rey": 2151,
      "because": 2152,
      "when": 2153,
      "Ġmill": 2154,
      "icip": 2155,
      "Ġnamed": 2156,
      "iam": 2157,
      "ĠJo": 2158,
      "mas": 2159,
      "rence": 2160,
      "rem": 2161,
      "Ġhorse": 2162,
      "GR": 2163,
      "good": 2164,
      "Ġfig": 2165,
      "Ġbuy": 2166,
      "ately": 2167,
      "Ġreason": 2168,
      "Ġcho": 2169,
      "Yes": 2170,
      "ummer": 2171,
      "ining": 2172,
      "ĠMe": 2173,
      "Ġfair": 2174,
      "Ġanswer": 2175,
      "rit": 2176,
      "aim": 2177,
      "ards": 2178,
      "ĠMom": 2179,
      "vision": 2180,
      "ara": 2181,
      "ĠPres": 2182,
      "Ġexpect": 2183,
      "ional": 2184,
      "Ġtree": 2185,
      "Ġbutter": 2186,
      "ĠBecause": 2187,
      "rict": 2188,
      "Ġwear": 2189,
      "ĠApril": 2190,
      "Ġpast": 2191,
      "Ġothers": 2192,
      "ĠPl": 2193,
      "ww": 2194,
      "bl": 2195,
      "Ġgrow": 2196,
      "Ġocc": 2197,
      "ĠOctober": 2198,
      "Ġdraw": 2199,
      "Ġeither": 2200,
      "ĠOf": 2201,
      "20": 2202,
      "Ġline": 2203,
      "ently": 2204,
      "Ġimportant": 2205,
      "Ġsea": 2206,
      "Ġlangu": 2207,
      "Ġlives": 2208,
      "alth": 2209,
      "itten": 2210,
      "Ġclass": 2211,
      "hold": 2212,
      "RE": 2213,
      "Ġbat": 2214,
      "ament": 2215,
      "Ġadv": 2216,
      "ĠWar": 2217,
      "Ġ17": 2218,
      "ĠTr": 2219,
      "rie": 2220,
      "Ġmember": 2221,
      "Ġattack": 2222,
      "ature": 2223,
      "Ġtill": 2224,
      "ï¿½ï¿½ï¿½ï¿½": 2225,
      "ĠChar": 2226,
      "ĠGeor": 2227,
      "Ġmess": 2228,
      "Ġreport": 2229,
      "Ġsend": 2230,
      "ĠEvery": 2231,
      "ai": 2232,
      "raid": 2233,
      "Ġ?": 2234,
      "Ġrece": 2235,
      "ula": 2236,
      "ĠPlease": 2237,
      "Ļª": 2238,
      "Ġgra": 2239,
      "Ġsold": 2240,
      "000": 2241,
      "Ġblock": 2242,
      "Ġkids": 2243,
      "ĠSe": 2244,
      "No": 2245,
      "enn": 2246,
      "Ġcompany": 2247,
      "Ġtea": 2248,
      "ĠâĻª": 2249,
      "gue": 2250,
      "Ġkilled": 2251,
      "ĠRep": 2252,
      "Ġfree": 2253,
      "arch": 2254,
      "osp": 2255,
      "Ġanimals": 2256,
      "cer": 2257,
      "ĠAN": 2258,
      "ained": 2259,
      "ement": 2260,
      "Ġglad": 2261,
      "Ġbecome": 2262,
      "Ġ15": 2263,
      "Ġorder": 2264,
      "Ġexp": 2265,
      "ĠAm": 2266,
      "ĠPaul": 2267,
      "Ġquiet": 2268,
      "Ġacross": 2269,
      "ĠBar": 2270,
      "ality": 2271,
      "lo": 2272,
      "Ġins": 2273,
      "Ġheld": 2274,
      "ĠEuro": 2275,
      "Ġcamp": 2276,
      "Ġpur": 2277,
      "Ġamong": 2278,
      "Ġearly": 2279,
      "icks": 2280,
      "Ġdro": 2281,
      "Ġcried": 2282,
      "Ġsn": 2283,
      "ls": 2284,
      "Ġjump": 2285,
      "Ġ2017": 2286,
      "Ġteac": 2287,
      "ĠRuss": 2288,
      "Ġthinking": 2289,
      "Ġmoon": 2290,
      "Ġmis": 2291,
      "Ġvisit": 2292,
      "ges": 2293,
      "Ġstar": 2294,
      "ĠBro": 2295,
      "Ġconst": 2296,
      "Ġobject": 2297,
      "ffee": 2298,
      "may": 2299,
      "Ġmer": 2300,
      "Ġworked": 2301,
      "ached": 2302,
      "AS": 2303,
      "ĠMm": 2304,
      "Ġproblem": 2305,
      "Ġtoys": 2306,
      "Ġgovernment": 2307,
      "ler": 2308,
      "Ġreleased": 2309,
      "Ġ12": 2310,
      "Ġgroup": 2311,
      "Ġgets": 2312,
      "Ġsoft": 2313,
      "Ġwall": 2314,
      "itty": 2315,
      "Ġfast": 2316,
      "ĠUniversity": 2317,
      "Ġcor": 2318,
      "Ġbirthday": 2319,
      "Ġnoise": 2320,
      "aced": 2321,
      "We": 2322,
      "HS": 2323,
      "Ġrepl": 2324,
      "Ġ193": 2325,
      "iddle": 2326,
      "bs": 2327,
      "Ġclean": 2328,
      "Ġill": 2329,
      "ived": 2330,
      "Ġband": 2331,
      "Ġopp": 2332,
      "stem": 2333,
      "Ġnine": 2334,
      "cy": 2335,
      "ott": 2336,
      "laughing": 2337,
      "ĠMin": 2338,
      "But": 2339,
      "dy": 2340,
      "Ġafraid": 2341,
      "Ġmarried": 2342,
      "dden": 2343,
      "Ġsometimes": 2344,
      "Ġcheck": 2345,
      "ED": 2346,
      "Ġtrouble": 2347,
      "Ġsingle": 2348,
      "ĠDavid": 2349,
      "Ġ16": 2350,
      "Ġfing": 2351,
      "urch": 2352,
      "Ġcompet": 2353,
      "inning": 2354,
      "Ġdem": 2355,
      "ĠDaddy": 2356,
      "sc": 2357,
      "Ġ...": 2358,
      "ility": 2359,
      "entle": 2360,
      "raz": 2361,
      "Ġadm": 2362,
      "Ġbooks": 2363,
      "ĠItal": 2364,
      "ician": 2365,
      "Ġfinished": 2366,
      "music": 2367,
      "ened": 2368,
      "duc": 2369,
      "Ġtomorrow": 2370,
      "illy": 2371,
      "king": 2372,
      "ĠTO": 2373,
      "ĠEngland": 2374,
      "owed": 2375,
      "Ġfly": 2376,
      "AUN": 2377,
      "Ġhit": 2378,
      "ically": 2379,
      "two": 2380,
      "ĠEar": 2381,
      "Ġton": 2382,
      "Ġce": 2383,
      "fic": 2384,
      "Ġpos": 2385,
      "Ġsudden": 2386,
      "cient": 2387,
      "Ġfix": 2388,
      "ĠCol": 2389,
      "Ġchance": 2390,
      "nock": 2391,
      "Ġeating": 2392,
      "Ġsever": 2393,
      "play": 2394,
      "Ġresp": 2395,
      "ering": 2396,
      "ĠâĢĺ": 2397,
      "iver": 2398,
      "Ġdaughter": 2399,
      "band": 2400,
      "Ġvill": 2401,
      "Ġkept": 2402,
      "ĠMother": 2403,
      "Ġpublic": 2404,
      "Ġeng": 2405,
      "ana": 2406,
      "iny": 2407,
      "Ġforget": 2408,
      "ode": 2409,
      "ging": 2410,
      "'.": 2411,
      "ox": 2412,
      "phan": 2413,
      "Ġbag": 2414,
      "hanks": 2415,
      "Mom": 2416,
      "He": 2417,
      "ising": 2418,
      "ĠBritish": 2419,
      "oman": 2420,
      "eared": 2421,
      "Ġthemselves": 2422,
      "itchen": 2423,
      "night": 2424,
      "Ġnin": 2425,
      "Ġprov": 2426,
      "Ġsweet": 2427,
      "Ġz": 2428,
      "Ġtoy": 2429,
      "anger": 2430,
      "Ġcorn": 2431,
      "ĠWas": 2432,
      "Ġmonths": 2433,
      "Ġmot": 2434,
      "ĠThese": 2435,
      "Ġsca": 2436,
      "owers": 2437,
      "ories": 2438,
      "Ġnor": 2439,
      "Ġseveral": 2440,
      "ĠSir": 2441,
      "Ġstore": 2442,
      "Ġwithin": 2443,
      "Ġdepart": 2444,
      "ĠChristmas": 2445,
      "Ġpot": 2446,
      "Ġnational": 2447,
      "Ġground": 2448,
      "Ġeye": 2449,
      "Ġsurpr": 2450,
      "Ġwindow": 2451,
      "Ġwa": 2452,
      "Ġmur": 2453,
      "Ġevent": 2454,
      "bed": 2455,
      "idge": 2456,
      "Ġdinner": 2457,
      "ĠEurope": 2458,
      "ajor": 2459,
      "Ġgold": 2460,
      "ello": 2461,
      "ains": 2462,
      "velop": 2463,
      "Ġkitchen": 2464,
      "Ġfish": 2465,
      "ĠJuly": 2466,
      "Ġice": 2467,
      "ued": 2468,
      "]?": 2469,
      "Ġmouth": 2470,
      "Ġ11": 2471,
      "ĠComm": 2472,
      "Ġstood": 2473,
      "ĠPresident": 2474,
      "Ġknows": 2475,
      "Ross": 2476,
      "Ġfil": 2477,
      "ĠCity": 2478,
      "Ġgoin": 2479,
      "overed": 2480,
      "Ġtouch": 2481,
      "does": 2482,
      "âĢĵ": 2483,
      "iding": 2484,
      "iron": 2485,
      "ovember": 2486,
      "gram": 2487,
      ",--": 2488,
      "Ġbath": 2489,
      "Ġrain": 2490,
      "Ġcoffee": 2491,
      "ĠAh": 2492,
      "EX": 2493,
      "Ġwhether": 2494,
      "Well": 2495,
      "Ġclot": 2496,
      "iday": 2497,
      "Ġorgan": 2498,
      "actly": 2499,
      "Ġgun": 2500,
      "bruary": 2501,
      "Ġhors": 2502,
      "cember": 2503,
      "points": 2504,
      "ET": 2505,
      "Ġforgot": 2506,
      "col": 2507,
      "nes": 2508,
      "ĠTe": 2509,
      "ude": 2510,
      "Ġabove": 2511,
      "Ġsecret": 2512,
      "Ġrunning": 2513,
      "Ġtem": 2514,
      "ĠMary": 2515,
      "Ġcaterpillar": 2516,
      "ĠBy": 2517,
      "Ġarm": 2518,
      "con": 2519,
      ".'": 2520,
      "Ġ2021": 2521,
      "aint": 2522,
      "Ġsomebody": 2523,
      "teen": 2524,
      "ccess": 2525,
      "Ġexper": 2526,
      "Ġeasy": 2527,
      "yl": 2528,
      "Ġmist": 2529,
      "Ġseries": 2530,
      "Ġtreat": 2531,
      "oof": 2532,
      "ĠCap": 2533,
      "urg": 2534,
      "ĠDor": 2535,
      "Ġblood": 2536,
      "ĠPart": 2537,
      "ĠCal": 2538,
      "Ġdoctor": 2539,
      "Ġsitting": 2540,
      "Ġpleas": 2541,
      "Ġcross": 2542,
      "Ġlonger": 2543,
      "ric": 2544,
      "Ġwrote": 2545,
      "ĠX": 2546,
      "Ġty": 2547,
      "irt": 2548,
      "Ġcomple": 2549,
      "Ġsystem": 2550,
      "Ġleng": 2551,
      "Ġhoney": 2552,
      "ĠJack": 2553,
      "Ġseems": 2554,
      "Ġpage": 2555,
      "Ġgentle": 2556,
      "ird": 2557,
      "HV": 2558,
      "Mark": 2559,
      "Ġ!": 2560,
      "Ġ2019": 2561,
      "Ġfa": 2562,
      "que": 2563,
      "Ġest": 2564,
      "Ġperhaps": 2565,
      "Ġhuman": 2566,
      "Ġspecial": 2567,
      "Ġinde": 2568,
      "Ġhop": 2569,
      "ĠGet": 2570,
      "ium": 2571,
      "LLD": 2572,
      "Ġdef": 2573,
      "HSLLD": 2574,
      "oon": 2575,
      "Ġoffice": 2576,
      "mpions": 2577,
      "Ġtonight": 2578,
      "astic": 2579,
      "Ġhours": 2580,
      "dom": 2581,
      "ounced": 2582,
      "ract": 2583,
      "Ġfootball": 2584,
      "ushed": 2585,
      "Ġalright": 2586,
      "bye": 2587,
      "ĠNational": 2588,
      "Ġprofess": 2589,
      "Ġtelling": 2590,
      "joy": 2591,
      "ĠAg": 2592,
      "Ġdoub": 2593,
      "essie": 2594,
      "Ġtelevision": 2595,
      "Ġhang": 2596,
      "ĠNovember": 2597,
      "Ġmeant": 2598,
      "phone": 2599,
      "ager": 2600,
      "reed": 2601,
      "Ġstra": 2602,
      "Ġstreet": 2603,
      "Ġdra": 2604,
      "gar": 2605,
      "with": 2606,
      "Ġevening": 2607,
      "Ġahead": 2608,
      "Ġya": 2609,
      "Ġ13": 2610,
      "Ġ14": 2611,
      "uthor": 2612,
      "Ġmod": 2613,
      "unk": 2614,
      "unity": 2615,
      "Ġhowever": 2616,
      "ĠFebruary": 2617,
      "mbers": 2618,
      "Ġstep": 2619,
      "ondon": 2620,
      "ĠHave": 2621,
      "Ġpartic": 2622,
      "ĠChe": 2623,
      "Ġdad": 2624,
      "ĠJune": 2625,
      "Ġyours": 2626,
      "Ġboat": 2627,
      "Ġthird": 2628,
      "ots": 2629,
      "avy": 2630,
      "ced": 2631,
      "thank": 2632,
      "usband": 2633,
      "Ġcake": 2634,
      "ĠGreat": 2635,
      "itch": 2636,
      "Ġdi": 2637,
      "Ġaren": 2638,
      "Ġroll": 2639,
      "Ġ2016": 2640,
      "Ġnews": 2641,
      "ĠDecember": 2642,
      "ouncil": 2643,
      "Ġgod": 2644,
      "Ġslow": 2645,
      "Ġanymore": 2646,
      "ĠSouth": 2647,
      "ĠFrom": 2648,
      "Ġmillion": 2649,
      "wait": 2650,
      "Ġhar": 2651,
      "Ġwhom": 2652,
      "ĠNor": 2653,
      "Ġsafe": 2654,
      "Ġperfect": 2655,
      "was": 2656,
      "Ġsupport": 2657,
      "TER": 2658,
      "rat": 2659,
      "Ġride": 2660,
      "Ġpresident": 2661,
      "Ġbuilding": 2662,
      "ĠMaybe": 2663,
      "af": 2664,
      "cri": 2665,
      "Ġsounds": 2666,
      "ĠLondon": 2667,
      "Ġanyone": 2668,
      "Ġprison": 2669,
      "fly": 2670,
      "Ġmoved": 2671,
      "Ġbird": 2672,
      "Ġinstead": 2673,
      "Ġlad": 2674,
      "sha": 2675,
      "Ġpassed": 2676,
      "ror": 2677,
      "Ġann": 2678,
      "Ġwritten": 2679,
      "ĠGeorge": 2680,
      "Ġring": 2681,
      "ron": 2682,
      "some": 2683,
      "rigin": 2684,
      "ilver": 2685,
      "Ġclos": 2686,
      "Ġbuilt": 2687,
      "Ġstanding": 2688,
      "Ġthirty": 2689,
      "Ġ192": 2690,
      "ĠHouse": 2691,
      "llustr": 2692,
      "Ġnoises": 2693,
      "Ġtired": 2694,
      "Ġdefe": 2695,
      "Ġcontro": 2696,
      "Ġcoup": 2697,
      "ĠEdna": 2698,
      "ĠIN": 2699,
      "Ġhistory": 2700,
      "ov": 2701,
      "anta": 2702,
      "Ġ2015": 2703,
      "Ġeverybody": 2704,
      "Ġweeks": 2705,
      "ange": 2706,
      "ĠAny": 2707,
      "Ġglass": 2708,
      "bit": 2709,
      "ĠDad": 2710,
      "fer": 2711,
      "Ġpark": 2712,
      "terday": 2713,
      "Ġcharac": 2714,
      "Ġmount": 2715,
      "Ġabs": 2716,
      "Ġloud": 2717,
      "Ġhusband": 2718,
      "Ġthrow": 2719,
      "ĠSec": 2720,
      "Ġtakes": 2721,
      "ressed": 2722,
      "Ġwaiting": 2723,
      "Ġsave": 2724,
      "Ġfle": 2725,
      "thened": 2726,
      "Ġsick": 2727,
      "Ġdiv": 2728,
      "Ġdaddy": 2729,
      "Ġdanger": 2730,
      "Ġtruck": 2731,
      "Ġcirc": 2732,
      "unicip": 2733,
      "ored": 2734,
      "ĠSee": 2735,
      "Ġ2020": 2736,
      "Ġtrees": 2737,
      "Ġcop": 2738,
      "ĠNorth": 2739,
      "ping": 2740,
      "Ġclim": 2741,
      "Ġpossible": 2742,
      "dat": 2743,
      "Ġcost": 2744,
      "Ġlunch": 2745,
      "Ġdeep": 2746,
      "emy": 2747,
      "ground": 2748,
      "Ġcand": 2749,
      "Ġdevelop": 2750,
      "ency": 2751,
      "IT": 2752,
      "Ġbreat": 2753,
      "Ġsnow": 2754,
      "Ġfit": 2755,
      "estern": 2756,
      "Ġdep": 2757,
      "ended": 2758,
      "hin": 2759,
      "Ġwhatever": 2760,
      "resent": 2761,
      "Ġparent": 2762,
      "Ġfear": 2763,
      "Ġformer": 2764,
      "Ġknock": 2765,
      "Ġcast": 2766,
      "eal": 2767,
      "iter": 2768,
      "ĠCH": 2769,
      "ternational": 2770,
      "stairs": 2771,
      "Ġteacher": 2772,
      "tom": 2773,
      "idence": 2774,
      "par": 2775,
      "Ġsand": 2776,
      "Ġsuppose": 2777,
      "amb": 2778,
      "Ġbroke": 2779,
      "Ġbow": 2780,
      "att": 2781,
      ",'": 2782,
      "AY": 2783,
      "Ġreturned": 2784,
      "Ġmembers": 2785,
      "Ġcertainly": 2786,
      "Ġve": 2787,
      "Ġfur": 2788,
      "Ġindeed": 2789,
      "Ġstraight": 2790,
      "Ġtest": 2791,
      "ĠEm": 2792,
      "iled": 2793,
      "Ġplaces": 2794,
      "Ġswim": 2795,
      "Ġcannot": 2796,
      "Ġspace": 2797,
      "noon": 2798,
      "Ġru": 2799,
      "Ġfeeling": 2800,
      "ky": 2801,
      "unday": 2802,
      "Ġriver": 2803,
      "ospital": 2804,
      "That": 2805,
      "Ġenjoy": 2806,
      "Ġsuccess": 2807,
      "Ġwriting": 2808,
      "uel": 2809,
      "Ġterri": 2810,
      "Ġpost": 2811,
      "ĠLord": 2812,
      "Ġarri": 2813,
      "Ġwarm": 2814,
      "Ġfellow": 2815,
      "OM": 2816,
      "ior": 2817,
      "ulation": 2818,
      "ĠKe": 2819,
      "Ġpuzz": 2820,
      "Ġclothes": 2821,
      "Ġvar": 2822,
      "ĠWilliam": 2823,
      "Ġluck": 2824,
      "ĠLike": 2825,
      "Ġparticular": 2826,
      "oul": 2827,
      "Ġspell": 2828,
      "Ġsupposed": 2829,
      "Ġpolice": 2830,
      "LE": 2831,
      "Ġcry": 2832,
      "Ġoper": 2833,
      "ĠThanks": 2834,
      "Ġworks": 2835,
      "Ġprotect": 2836,
      "Ġcaught": 2837,
      "Ġda": 2838,
      "llo": 2839,
      "Ġstri": 2840,
      "Ġspec": 2841,
      "Ġmiddle": 2842,
      "ĠDan": 2843,
      "Ġexactly": 2844,
      "ĠMarky": 2845,
      "Ġlow": 2846,
      "though": 2847,
      "ĠLea": 2848,
      "arden": 2849,
      "Ġarms": 2850,
      "Ġ30": 2851,
      "Ġdet": 2852,
      "oose": 2853,
      "Ġdisapp": 2854,
      "Ġdecided": 2855,
      "Ã¡": 2856,
      "ral": 2857,
      "Ġprogram": 2858,
      "maybe": 2859,
      "Ġtruth": 2860,
      "Ġdiffic": 2861,
      "Ġpen": 2862,
      "Ġprodu": 2863,
      "Ġeveryone": 2864,
      "Ġvict": 2865,
      "ĠIndian": 2866,
      "ĠHello": 2867,
      "empt": 2868,
      "Ġval": 2869,
      "llustration": 2870,
      "Ġcouple": 2871,
      "time": 2872,
      "Ġdest": 2873,
      "Ġusually": 2874,
      "Ġclub": 2875,
      "Ġchanged": 2876,
      "Ġkiss": 2877,
      "Ġlanguage": 2878,
      "Ġ)": 2879,
      "Ġpieces": 2880,
      "Ġorigin": 2881,
      "ID": 2882,
      "Ġcool": 2883,
      "ĠOK": 2884,
      "Illustration": 2885,
      "Ġbright": 2886,
      "uri": 2887,
      "Ġmunicip": 2888,
      "ask": 2889,
      "ĠAld": 2890,
      "ĠMer": 2891,
      "Ġsell": 2892,
      "igg": 2893,
      "Ġdistrict": 2894,
      "Ġpictures": 2895,
      "US": 2896,
      "ĠEle": 2897,
      "ĠAND": 2898,
      "Ġyesterday": 2899,
      "Ġpolitician": 2900,
      "ichard": 2901,
      "Ġwild": 2902,
      "Ġsouth": 2903,
      "hile": 2904,
      "Ġafternoon": 2905,
      "Ġwhose": 2906,
      "Ġdrive": 2907,
      "II": 2908,
      "Ġcal": 2909,
      "ctions": 2910,
      "hire": 2911,
      "over": 2912,
      "aser": 2913,
      "icy": 2914,
      "Ġbes": 2915,
      "ĠSm": 2916,
      "Ġï¿½": 2917,
      "ĠWal": 2918,
      "ĠWest": 2919,
      "ĠUh": 2920,
      "ĠHi": 2921,
      "Ġgeneral": 2922,
      "cher": 2923,
      "Ġfollowing": 2924,
      "lin": 2925,
      "Ġforward": 2926,
      "Ġcars": 2927,
      "Ġcommon": 2928,
      "Ġfinish": 2929,
      "Ġcream": 2930,
      "Ġow": 2931,
      "oops": 2932,
      "ĠBessie": 2933,
      "silver": 2934,
      "ourn": 2935,
      "Ġvillage": 2936,
      "Ġuncle": 2937,
      "Ġbroken": 2938,
      "Ġlevel": 2939,
      "Ġnorth": 2940,
      "Ġappro": 2941,
      "ding": 2942,
      "Ġlearn": 2943,
      "Ġcomplete": 2944,
      "yy": 2945,
      "iger": 2946,
      "ĠParty": 2947,
      "Ġbra": 2948,
      "Ġvide": 2949,
      "nce": 2950,
      "wered": 2951,
      "Ġdoubt": 2952,
      "ĠHen": 2953,
      "Ġserved": 2954,
      "ris": 2955,
      "Ġliked": 2956,
      "Ġarmy": 2957,
      "Ġfavor": 2958,
      "Ġdepartment": 2959,
      "Ġbur": 2960,
      "ĠSunday": 2961,
      "omb": 2962,
      "Ġhole": 2963,
      "Ġrul": 2964,
      "encil": 2965,
      "ĠPol": 2966,
      "ighb": 2967,
      "Ġearth": 2968,
      "Ġju": 2969,
      "Ġ25": 2970,
      "Ġpoints": 2971,
      "Ġself": 2972,
      "Ġsuper": 2973,
      "Ġputting": 2974,
      "Ġneeds": 2975,
      "amer": 2976,
      "ffic": 2977,
      "Ġsus": 2978,
      "Ġprop": 2979,
      "LL": 2980,
      "Ġequ": 2981,
      "Ġpract": 2982,
      "whis": 2983,
      "Ġstopped": 2984,
      "dam": 2985,
      "chan": 2986,
      "Ġain": 2987,
      "Ġfail": 2988,
      "Ġfigure": 2989,
      "ĠQue": 2990,
      "AP": 2991,
      "ĠCanad": 2992,
      "ĠPeter": 2993,
      "Ġimag": 2994,
      "Ġcareer": 2995,
      "Ġhappens": 2996,
      "lex": 2997,
      "ĠOF": 2998,
      "Ġopened": 2999,
      "hel": 3000,
      "Ġpencil": 3001,
      "Ġanswered": 3002,
      "Ġesc": 3003,
      "Ġang": 3004,
      "aged": 3005,
      "Ġmatch": 3006,
      "Ġfield": 3007,
      "ording": 3008,
      "fast": 3009,
      "watch": 3010,
      "Ġhast": 3011,
      "ĠSorry": 3012,
      "ĠGermany": 3013,
      "Ġ]": 3014,
      "ĠGl": 3015,
      "nel": 3016,
      "Ġanybody": 3017,
      "Ġusing": 3018,
      "ĠAnge": 3019,
      "ribut": 3020,
      "Ġstre": 3021,
      "mo": 3022,
      "Ġauthor": 3023,
      "ĠTed": 3024,
      "Ġstrange": 3025,
      "Ġleaf": 3026,
      "Ġdie": 3027,
      "othy": 3028,
      "olved": 3029,
      "tell": 3030,
      "Ġworth": 3031,
      "Ġproper": 3032,
      "ample": 3033,
      "Ġeighty": 3034,
      "lt": 3035,
      "ti": 3036,
      "Ġtowards": 3037,
      "ĠRichard": 3038,
      "Ġsummer": 3039,
      "acy": 3040,
      "ogn": 3041,
      "Ġav": 3042,
      "Ġwhis": 3043,
      "Ġbelong": 3044,
      "Ġfill": 3045,
      "Ġled": 3046,
      "Ġ23": 3047,
      "ustral": 3048,
      "Ġhorses": 3049,
      "Ġtur": 3050,
      "ceed": 3051,
      "Ġdev": 3052,
      "min": 3053,
      "ege": 3054,
      "Ġcatch": 3055,
      "Ġgrew": 3056,
      "Ġworry": 3057,
      "uke": 3058,
      "give": 3059,
      "Ġdesign": 3060,
      "ĠÃ": 3061,
      "Ġnose": 3062,
      "Ġtrust": 3063,
      "which": 3064,
      "ĠSy": 3065,
      "Ġreceived": 3066,
      "cuse": 3067,
      "ĠCo": 3068,
      "Ġ24": 3069,
      "Ġgiving": 3070,
      "mon": 3071,
      "ya": 3072,
      "Ġprin": 3073,
      "ays": 3074,
      "iew": 3075,
      "Ġshot": 3076,
      "iced": 3077,
      "Ġforty": 3078,
      "Ġhig": 3079,
      "Ġcheese": 3080,
      "Ġmeeting": 3081,
      "MA": 3082,
      "ĠTom": 3083,
      "uts": 3084,
      "ums": 3085,
      "Ġbeat": 3086,
      "Ġparents": 3087,
      "ino": 3088,
      "Ġproduc": 3089,
      "Ġlose": 3090,
      "ĠAustral": 3091,
      "Ġseat": 3092,
      "Ġlaughing": 3093,
      "Ġcre": 3094,
      "cell": 3095,
      "âĢĺ": 3096,
      "Ġchick": 3097,
      "lands": 3098,
      "field": 3099,
      "Ġlau": 3100,
      "uit": 3101,
      "Ġtot": 3102,
      "Ġheavy": 3103,
      "view": 3104,
      "inos": 3105,
      "oura": 3106,
      "Ġburn": 3107,
      "olute": 3108,
      "order": 3109,
      "Ġholding": 3110,
      "uture": 3111,
      "Ġ21": 3112,
      "cially": 3113,
      "Ġcover": 3114,
      "uce": 3115,
      "ichael": 3116,
      "ille": 3117,
      "olution": 3118,
      "apan": 3119,
      "gest": 3120,
      "Ġlab": 3121,
      "Ġrequ": 3122,
      "ffect": 3123,
      "Ġmaster": 3124,
      "Ġpack": 3125,
      "GRA": 3126,
      "Ġneighb": 3127,
      "Ġquickly": 3128,
      "Ġanyway": 3129,
      "Ġhospital": 3130,
      "Ġship": 3131,
      "Ġreached": 3132,
      "Ġstation": 3133,
      "Ġelephan": 3134,
      "ĠJeff": 3135,
      "his": 3136,
      "ills": 3137,
      "iers": 3138,
      "Ġpat": 3139,
      "ĠCent": 3140,
      "ified": 3141,
      "ggest": 3142,
      "Ġsuggest": 3143,
      "ĠâĢľâĢĺ": 3144,
      "Ġposition": 3145,
      "ius": 3146,
      "ira": 3147,
      "Ġrad": 3148,
      "CH": 3149,
      "Ġreading": 3150,
      "ĠErm": 3151,
      "yn": 3152,
      "ĠIT": 3153,
      "work": 3154,
      "ĠDorothy": 3155,
      "ances": 3156,
      "Ġspir": 3157,
      "Ġshop": 3158,
      "Ġsol": 3159,
      "Ġpretend": 3160,
      "Ġconsider": 3161,
      "iol": 3162,
      "Ġtit": 3163,
      "ips": 3164,
      "Ġsight": 3165,
      "ander": 3166,
      "AM": 3167,
      "ĠTwo": 3168,
      "Ġthou": 3169,
      "Ġfort": 3170,
      "Ġexcl": 3171,
      "ization": 3172,
      "OW": 3173,
      "rup": 3174,
      "ĠBear": 3175,
      "Ġsense": 3176,
      "ĠNet": 3177,
      "Ġloved": 3178,
      "viously": 3179,
      "ROG": 3180,
      "Ġseason": 3181,
      "iling": 3182,
      "Ġapple": 3183,
      "Ġforest": 3184,
      "Ġmad": 3185,
      "Ġstarts": 3186,
      "por": 3187,
      "Ġsevent": 3188,
      "Ġfollowed": 3189,
      "Ġwonderful": 3190,
      "itz": 3191,
      "Ġcond": 3192,
      "Ġemp": 3193,
      "ĠEven": 3194,
      "Ġjuice": 3195,
      "oe": 3196,
      "would": 3197,
      "Ġinform": 3198,
      "Ġcommune": 3199,
      "singing": 3200,
      "yer": 3201,
      "Ġla": 3202,
      "ĠPark": 3203,
      "Ġquar": 3204,
      "--------": 3205,
      "Ġeduc": 3206,
      "ĠBaby": 3207,
      "Ġapart": 3208,
      "Ġscared": 3209,
      "Ġshoes": 3210,
      "Ġletters": 3211,
      "aimed": 3212,
      "your": 3213,
      "Ġtast": 3214,
      "ĠMc": 3215,
      "Ġplate": 3216,
      "Ġexcept": 3217,
      "Ġhous": 3218,
      "Ġneck": 3219,
      "Ġflowers": 3220,
      "ĠPeople": 3221,
      "ĠJane": 3222,
      "makes": 3223,
      "ĠTell": 3224,
      "ĠList": 3225,
      "Ġdanc": 3226,
      "Ġhol": 3227,
      "ĠWait": 3228,
      "Ġgarden": 3229,
      "riage": 3230,
      "Ġtail": 3231,
      "ishing": 3232,
      "Ġeffect": 3233,
      "rill": 3234,
      "ĠJapan": 3235,
      "Ġsuddenly": 3236,
      "ences": 3237,
      "ĠAfr": 3238,
      "lymp": 3239,
      "RIC": 3240,
      "sy": 3241,
      "ives": 3242,
      "ugg": 3243,
      "?âĢĿ": 3244,
      "ience": 3245,
      "Ġactiv": 3246,
      "Ġaccept": 3247,
      "Ġwat": 3248,
      "ĠTur": 3249,
      "ĠAust": 3250,
      "of": 3251,
      "Ġsad": 3252,
      "Ġlovely": 3253,
      "VE": 3254,
      "Ġban": 3255,
      "Ġbeginning": 3256,
      "Ġpriv": 3257,
      "ĠCaptain": 3258,
      "Ġpress": 3259,
      "Ġcause": 3260,
      "aus": 3261,
      "worth": 3262,
      "Ġservice": 3263,
      "aturday": 3264,
      "pers": 3265,
      "vin": 3266,
      "ĠTake": 3267,
      "ĠOlymp": 3268,
      "Ġcharacter": 3269,
      "Ġoffe": 3270,
      "Ġview": 3271,
      "ugs": 3272,
      "Ġrecogn": 3273,
      "dis": 3274,
      "Ġstat": 3275,
      "ĠLou": 3276,
      "Ġkn": 3277,
      "Ġsupper": 3278,
      "board": 3279,
      "Ġjud": 3280,
      "soci": 3281,
      "oke": 3282,
      "sey": 3283,
      "Why": 3284,
      "Ġfuture": 3285,
      "Ġhealth": 3286,
      "Ġcircle": 3287,
      "ĠRepubl": 3288,
      "iff": 3289,
      "ĠRed": 3290,
      "Ġbread": 3291,
      "Ġincluding": 3292,
      "ĠTex": 3293,
      "ift": 3294,
      "ĠFirst": 3295,
      "Ġmoving": 3296,
      "ĠWH": 3297,
      "ĠOx": 3298,
      "Ġproblems": 3299,
      "Ġgas": 3300,
      "ray": 3301,
      "Ġmajor": 3302,
      "Ġ22": 3303,
      "ĠAmerica": 3304,
      "Ġcorner": 3305,
      "ĠSomet": 3306,
      "Ġboard": 3307,
      "puts": 3308,
      "Ġcurrent": 3309,
      "Ġdance": 3310,
      "Ġspend": 3311,
      "iod": 3312,
      "sit": 3313,
      "ĠSis": 3314,
      "Ġvideo": 3315,
      "Ġought": 3316,
      "Ġinvest": 3317,
      "Ġcollect": 3318,
      "Ġnina": 3319,
      "unny": 3320,
      "ummy": 3321,
      "AD": 3322,
      "ograp": 3323,
      "IG": 3324,
      "Ġgen": 3325,
      "Ġiss": 3326,
      "urse": 3327,
      "Ġleaving": 3328,
      "Ġspoke": 3329,
      "Ġcreated": 3330,
      "Ġdifficult": 3331,
      "Ġappear": 3332,
      "ĠSanta": 3333,
      "ĠEve": 3334,
      "Ġbased": 3335,
      "Ġ&": 3336,
      "Ġmommy": 3337,
      "Ġcompl": 3338,
      "Ġcomfort": 3339,
      "eder": 3340,
      "Ġnames": 3341,
      "ĠEn": 3342,
      "itted": 3343,
      "omin": 3344,
      "Sarah": 3345,
      "ĠMa": 3346,
      "ĠMad": 3347,
      "ĠQueen": 3348,
      "ply": 3349,
      "Ġsugar": 3350,
      "Ġbrown": 3351,
      "tered": 3352,
      "val": 3353,
      "Ġexample": 3354,
      "Ġcompan": 3355,
      "ades": 3356,
      "iforn": 3357,
      "ĠSte": 3358,
      "ission": 3359,
      "Ġreplied": 3360,
      "Ġseeing": 3361,
      "Ġchurch": 3362,
      "ruction": 3363,
      "pered": 3364,
      "Ġbusy": 3365,
      "Ġdelight": 3366,
      "itions": 3367,
      "picks": 3368,
      "ĠSaturday": 3369,
      "]!": 3370,
      "Ġmention": 3371,
      "ĠUrs": 3372,
      "ifornia": 3373,
      "wood": 3374,
      "Ġcow": 3375,
      "Ġbank": 3376,
      "Ġlocal": 3377,
      "Home": 3378,
      "ient": 3379,
      "itched": 3380,
      "Ġcrying": 3381,
      "ests": 3382,
      "Ġvol": 3383,
      "Ġbreakfast": 3384,
      "ĠMichael": 3385,
      "Ġlie": 3386,
      "ĠRoman": 3387,
      "Ġbottom": 3388,
      "ancy": 3389,
      "Ġblocks": 3390,
      "pper": 3391,
      "Ġcalling": 3392,
      "ĠVisit": 3393,
      "oop": 3394,
      "Ġregion": 3395,
      "ĠQu": 3396,
      "ĠItaly": 3397,
      "ĠSchool": 3398,
      "ument": 3399,
      "Ġfinger": 3400,
      "Ġdecl": 3401,
      "Ġshar": 3402,
      "Ġphot": 3403,
      "Ġmunicipality": 3404,
      "hys": 3405,
      "Ġtiny": 3406,
      "ĠHist": 3407,
      "Ġcareful": 3408,
      "CK": 3409,
      "mond": 3410,
      "nic": 3411,
      "Ġrepresent": 3412,
      "kin": 3413,
      "Ġdiscuss": 3414,
      "Ġgames": 3415,
      "Ġpopulation": 3416,
      "rer": 3417,
      "Ġnobody": 3418,
      "Ġcarried": 3419,
      "Ġquestions": 3420,
      "ĠMinister": 3421,
      "bers": 3422,
      "ĠJer": 3423,
      "resh": 3424,
      "ĠFlore": 3425,
      "Ġfurther": 3426,
      "Ġitself": 3427,
      "boy": 3428,
      "Ġanx": 3429,
      "Ġcrit": 3430,
      "Ġwatching": 3431,
      "Ġcard": 3432,
      "irm": 3433,
      "ĠGree": 3434,
      "Ġhate": 3435,
      "Ġlegs": 3436,
      "ĠCalifornia": 3437,
      "ĠChan": 3438,
      "Ġwan": 3439,
      "ĠStop": 3440,
      "Ġsixty": 3441,
      "ĠChampions": 3442,
      "Ġpuzzle": 3443,
      "Ġbell": 3444,
      "ĠMart": 3445,
      "Ġappeared": 3446,
      "Ġep": 3447,
      "raft": 3448,
      "Ġalive": 3449,
      "Ġanimal": 3450,
      "Ġasking": 3451,
      "Ġhelped": 3452,
      "ĠHowever": 3453,
      "Ġbottle": 3454,
      "Ġaccount": 3455,
      "apa": 3456,
      "ĠTexas": 3457,
      "Ġputs": 3458,
      "itary": 3459,
      "ĠHa": 3460,
      "ĠColl": 3461,
      "ĠJim": 3462,
      "ĠTony": 3463,
      "Ġflat": 3464,
      "Ġperfor": 3465,
      "Ġentire": 3466,
      "ĠNina": 3467,
      "Ġdere": 3468,
      "She": 3469,
      "ĠSan": 3470,
      "Ġcarry": 3471,
      "cket": 3472,
      "turn": 3473,
      "str": 3474,
      "Ġtrack": 3475,
      "Ġstuck": 3476,
      "ĠState": 3477,
      "Ġobjects": 3478,
      "AK": 3479,
      "Ġlock": 3480,
      "omen": 3481,
      "Ġrelig": 3482,
      "ĠMon": 3483,
      "ĠCr": 3484,
      "ourt": 3485,
      "Ġproud": 3486,
      "yed": 3487,
      "Ġmid": 3488,
      "ico": 3489,
      "ĠRober": 3490,
      "Ġstudio": 3491,
      "Don": 3492,
      "Ġbought": 3493,
      "ĠRob": 3494,
      "Ġwalked": 3495,
      "ĠIndia": 3496,
      "ĠVery": 3497,
      "Ġbigger": 3498,
      "ĠReally": 3499,
      "hood": 3500,
      "off": 3501,
      "uation": 3502,
      "epend": 3503,
      "liament": 3504,
      "Ġpromise": 3505,
      "acing": 3506,
      "take": 3507,
      "Ġallowed": 3508,
      "pecially": 3509,
      "want": 3510,
      "Ġhall": 3511,
      "ĠFather": 3512,
      "Ġrace": 3513,
      "Ġsomewhere": 3514,
      "Ġbackground": 3515,
      "Ġnearly": 3516,
      "will": 3517,
      "Ġmix": 3518,
      "ĠSam": 3519,
      "ĠAunt": 3520,
      "cience": 3521,
      "iment": 3522,
      "Ġsubject": 3523,
      "ĠAlex": 3524,
      "utch": 3525,
      "ume": 3526,
      "ference": 3527,
      "Ġtall": 3528,
      "umph": 3529,
      "Ġspoon": 3530,
      "Ġcapital": 3531,
      "ĠRussian": 3532,
      "know": 3533,
      "Ġfinal": 3534,
      "Ġcharge": 3535,
      "Ġmiles": 3536,
      "Ġtoward": 3537,
      "ĠMarc": 3538,
      "Ġcourt": 3539,
      "ĠOxford": 3540,
      "va": 3541,
      "Ġvers": 3542,
      "Ġweren": 3543,
      "Ġpolitical": 3544,
      "ghed": 3545,
      "ket": 3546,
      "pping": 3547,
      "Ġ191": 3548,
      "ause": 3549,
      "Ġtor": 3550,
      "ĠLady": 3551,
      "Ġlearned": 3552,
      "het": 3553,
      "ploy": 3554,
      "say": 3555,
      "ĠHenry": 3556,
      "gon": 3557,
      "cious": 3558,
      "Ġstars": 3559,
      "Ġpeace": 3560,
      "Ġeggs": 3561,
      "BR": 3562,
      "round": 3563,
      "ĠCor": 3564,
      "Ġplayer": 3565,
      "Ġattention": 3566,
      "Ġinformation": 3567,
      "Ġwel": 3568,
      "ĠWould": 3569,
      "ĠAnn": 3570,
      "COU": 3571,
      "Ġlim": 3572,
      "ĠLittle": 3573,
      "uge": 3574,
      "ĠPort": 3575,
      "Ġ26": 3576,
      "Ġaccident": 3577,
      "Ġnatur": 3578,
      "ki": 3579,
      "EW": 3580,
      "Ġshout": 3581,
      "Ġgrass": 3582,
      "Ġshouldn": 3583,
      "Ġcontrol": 3584,
      "ĠMag": 3585,
      "ĠBel": 3586,
      "roat": 3587,
      "ĠJames": 3588,
      "Ġcentury": 3589,
      "ĠBlack": 3590,
      "ĠFlorence": 3591,
      "ida": 3592,
      "aff": 3593,
      "talk": 3594,
      "Ġmach": 3595,
      "ases": 3596,
      "Ġlift": 3597,
      "ils": 3598,
      "Ġ27": 3599,
      "clock": 3600,
      "Adam": 3601,
      "Ġorange": 3602,
      "har": 3603,
      "Ġboo": 3604,
      "ria": 3605,
      "urity": 3606,
      "raph": 3607,
      "Ġplastic": 3608,
      "osta": 3609,
      "Ġaff": 3610,
      "ANN": 3611,
      "NG": 3612,
      "gu": 3613,
      "house": 3614,
      "Ġparts": 3615,
      "There": 3616,
      "under": 3617,
      "Ġgar": 3618,
      "ĠLi": 3619,
      "Ġdescri": 3620,
      "FA": 3621,
      "ires": 3622,
      "Ġdinos": 3623,
      "Ġ28": 3624,
      "Ġengine": 3625,
      "Ġsticks": 3626,
      "ek": 3627,
      "uty": 3628,
      "ĠCouncil": 3629,
      "Ġrespect": 3630,
      "Ġdropped": 3631,
      "Ġflew": 3632,
      "Ġsna": 3633,
      "Ġbirds": 3634,
      "ology": 3635,
      ",âĢĻ": 3636,
      "eg": 3637,
      "medi": 3638,
      "ased": 3639,
      "ĠON": 3640,
      "Ġshut": 3641,
      "Ġextra": 3642,
      "ĠWhite": 3643,
      "rect": 3644,
      "ĠAct": 3645,
      "Ġshowed": 3646,
      "Ġpi": 3647,
      "Ġinteresting": 3648,
      "ĠRam": 3649,
      "ĠUS": 3650,
      "ĠGrand": 3651,
      "Ġincre": 3652,
      "\")": 3653,
      "set": 3654,
      "have": 3655,
      "Ġchief": 3656,
      "ĠMond": 3657,
      "ĠSpan": 3658,
      "Ġfilm": 3659,
      "HIS": 3660,
      "ĠTw": 3661,
      "Ġfright": 3662,
      "Ġhost": 3663,
      "Ġsex": 3664,
      "Ġjoined": 3665,
      "GMA": 3666,
      "ĠMor": 3667,
      "ords": 3668,
      "father": 3669,
      "Ġrid": 3670,
      "esta": 3671,
      "inal": 3672,
      "Ġrese": 3673,
      "Ġmem": 3674,
      "Ġfeed": 3675,
      "ffie": 3676,
      "Ġdirected": 3677,
      "Ġbattle": 3678,
      "Ġlaughed": 3679,
      "olutely": 3680,
      "Ġ$": 3681,
      "Ġbeach": 3682,
      "ĠPat": 3683,
      "Ġbutterfly": 3684,
      "Ġdue": 3685,
      "Ġonto": 3686,
      "Ġpopular": 3687,
      "ĠThom": 3688,
      "dog": 3689,
      "has": 3690,
      "ĠAnt": 3691,
      "irty": 3692,
      "ĠLot": 3693,
      "Ġviol": 3694,
      "aud": 3695,
      "Ġut": 3696,
      "Ġpati": 3697,
      "Ġfem": 3698,
      "Ġpaid": 3699,
      "eneral": 3700,
      "antly": 3701,
      "ivil": 3702,
      "Ġrepe": 3703,
      "Ġord": 3704,
      "Ġperiod": 3705,
      "ĠNothing": 3706,
      "Ġlengthened": 3707,
      "ĠCup": 3708,
      "Ġdogg": 3709,
      "ĠUncle": 3710,
      "Ġearli": 3711,
      "ĠFriday": 3712,
      "UT": 3713,
      "Ġcountries": 3714,
      "Ġfarm": 3715,
      "ĠLaw": 3716,
      "yle": 3717,
      "Ã¼": 3718,
      "Ġwide": 3719,
      "Ġdar": 3720,
      "ids": 3721,
      "Ġears": 3722,
      "Ġspent": 3723,
      "plane": 3724,
      "Ġleaves": 3725,
      "ppy": 3726,
      "Ġwalking": 3727,
      "Ġneeded": 3728,
      "dered": 3729,
      "Ġstudy": 3730,
      "rab": 3731,
      "romer": 3732,
      "ĠEast": 3733,
      "Ġcomb": 3734,
      "Ġdestro": 3735,
      "Ġchicken": 3736,
      "Ġreach": 3737,
      "Ġworse": 3738,
      "Ġconne": 3739,
      "light": 3740,
      "Ġduck": 3741,
      "anor": 3742,
      "ston": 3743,
      "Ġrose": 3744,
      "Ġtalked": 3745,
      "Ġdam": 3746,
      "Ġforth": 3747,
      "ĠEffie": 3748,
      "Ġdirect": 3749,
      "ĠRobert": 3750,
      "OO": 3751,
      "itive": 3752,
      "Ġstage": 3753,
      "Ġdrop": 3754,
      "ĠBet": 3755,
      "ili": 3756,
      "aker": 3757,
      "Ġfinally": 3758,
      "Ġsurprise": 3759,
      "omes": 3760,
      "ĠOur": 3761,
      "Ġturning": 3762,
      "Ġattempt": 3763,
      "Ġchocol": 3764,
      "conom": 3765,
      "hand": 3766,
      "Ġmus": 3767,
      "Ġforce": 3768,
      "Ġsleeping": 3769,
      "arm": 3770,
      "Ġblank": 3771,
      "ination": 3772,
      "ĠDem": 3773,
      "Ġleader": 3774,
      "rel": 3775,
      "Ġcell": 3776,
      ".âĢĻ": 3777,
      "bre": 3778,
      "ĠMil": 3779,
      "Ġnecess": 3780,
      "ours": 3781,
      "Ġsky": 3782,
      "line": 3783,
      "Ġaged": 3784,
      "Ġshare": 3785,
      "ĠEuropean": 3786,
      "eds": 3787,
      "ĠBo": 3788,
      "ĠHel": 3789,
      "ousin": 3790,
      "ĠReg": 3791,
      "Ġcontinued": 3792,
      "St": 3793,
      "Ġnone": 3794,
      "ĠHung": 3795,
      "these": 3796,
      "Ġprofessional": 3797,
      "Ġangry": 3798,
      "Ġrich": 3799,
      "Ġpray": 3800,
      "Ġcoco": 3801,
      "Ġslice": 3802,
      "Ġterrible": 3803,
      "Ġoffered": 3804,
      "ĠMed": 3805,
      "Ġstories": 3806,
      "olf": 3807,
      "ously": 3808,
      "Ġhy": 3809,
      "uses": 3810,
      "ĠRiver": 3811,
      "Ġclosed": 3812,
      "Ġpossib": 3813,
      "reme": 3814,
      "Ġbab": 3815,
      "ĠDuring": 3816,
      "ĠVer": 3817,
      "ĠKingdom": 3818,
      "Ġadded": 3819,
      "stit": 3820,
      "icked": 3821,
      "Ġenemy": 3822,
      "Ġlots": 3823,
      "Ġbene": 3824,
      "ĠSer": 3825,
      "mat": 3826,
      "Ġgrad": 3827,
      "Ġbegin": 3828,
      "cast": 3829,
      "Ġ100": 3830,
      "ression": 3831,
      "Ġelection": 3832,
      "'?": 3833,
      "ĠPet": 3834,
      "elve": 3835,
      "Ġkey": 3836,
      "Ġelect": 3837,
      "Ġ(\"": 3838,
      "Ġfalls": 3839,
      "Ġexcit": 3840,
      "ĠHam": 3841,
      "vernor": 3842,
      "Ġsimply": 3843,
      "Ġninety": 3844,
      "ĠSal": 3845,
      "Ġfavorite": 3846,
      "ville": 3847,
      "Ġcos": 3848,
      "Ġport": 3849,
      "Ġlying": 3850,
      "Ġweap": 3851,
      "Ġtype": 3852,
      "aft": 3853,
      "ĠBer": 3854,
      "Ġmeat": 3855,
      "cture": 3856,
      "Ġclock": 3857,
      "ĠStreet": 3858,
      "Ġrabb": 3859,
      "Ġslowly": 3860,
      "ĠMex": 3861,
      "ĠNesta": 3862,
      "yond": 3863,
      "Ġdogs": 3864,
      "Ġshows": 3865,
      "Ġcaused": 3866,
      "Ġbrave": 3867,
      "song": 3868,
      "Ġpush": 3869,
      "ĠBob": 3870,
      "ilar": 3871,
      "three": 3872,
      "How": 3873,
      "pha": 3874,
      "ĠDolly": 3875,
      "Ġspot": 3876,
      "oyal": 3877,
      "Ġcrow": 3878,
      "ka": 3879,
      "Ġwasher": 3880,
      "Ġrub": 3881,
      "Ġmagnets": 3882,
      "ĠHall": 3883,
      "ĠPal": 3884,
      "Ġimmedi": 3885,
      "Ġcommand": 3886,
      "Ġprep": 3887,
      "Ġbasket": 3888,
      "ĠHigh": 3889,
      "ĠCharles": 3890,
      "Ġchocolate": 3891,
      "ĠJes": 3892,
      "Ġconvers": 3893,
      "Ġenc": 3894,
      "Ġremark": 3895,
      "Ġhero": 3896,
      "ami": 3897,
      "Ġlikes": 3898,
      "Ġvarious": 3899,
      "Ġ29": 3900,
      "bert": 3901,
      "Ġserious": 3902,
      "Ġfighting": 3903,
      "Ġpleasure": 3904,
      "ĠHE": 3905,
      "Ġ[?": 3906,
      "Ġvan": 3907,
      "isf": 3908,
      "Ġtower": 3909,
      "ĠSch": 3910,
      "ĠSup": 3911,
      "Ġthanks": 3912,
      "ĠHistory": 3913,
      "ially": 3914,
      "somet": 3915,
      "Ġpers": 3916,
      "Ġstayed": 3917,
      "bles": 3918,
      "pin": 3919,
      "Ġconc": 3920,
      "ĠFrank": 3921,
      "Ġspeaking": 3922,
      "ses": 3923,
      "ĠRod": 3924,
      "Ġthinks": 3925,
      "van": 3926,
      "hello": 3927,
      "Ġsle": 3928,
      "Ġfresh": 3929,
      "ĠCourt": 3930,
      "Ġprocess": 3931,
      "Ġsinger": 3932,
      "Ġrelations": 3933,
      "Ġindust": 3934,
      "Ġowl": 3935,
      "Ġpal": 3936,
      "ĠMic": 3937,
      "Ġblow": 3938,
      "razy": 3939,
      "ĠBE": 3940,
      "burg": 3941,
      "ere": 3942,
      "Ġcab": 3943,
      "ĠMass": 3944,
      "Ġways": 3945,
      "car": 3946,
      "Ġaut": 3947,
      "Ġ2018": 3948,
      "Ġmarket": 3949,
      "ration": 3950,
      "ĠBrian": 3951,
      "Ġap": 3952,
      "Ġspring": 3953,
      "ival": 3954,
      "ĠDoes": 3955,
      "RI": 3956,
      "rael": 3957,
      "Ġtrad": 3958,
      "Ġlaughs": 3959,
      "Ġespecially": 3960,
      "ĠMonday": 3961,
      "pret": 3962,
      "Ġdry": 3963,
      "Ġsoldiers": 3964,
      "Ġhide": 3965,
      "ĠEX": 3966,
      "Ġscar": 3967,
      "Ġbreath": 3968,
      "ĠSure": 3969,
      "Ġcomput": 3970,
      "Ġsinging": 3971,
      "Ġofficer": 3972,
      "Ġtitle": 3973,
      "soft": 3974,
      "ashed": 3975,
      "ĠAbout": 3976,
      "ĠLeague": 3977,
      "inary": 3978,
      "Ġmir": 3979,
      "nope": 3980,
      "Ġupstairs": 3981,
      "Ġiron": 3982,
      "Ġbite": 3983,
      "ĠRos": 3984,
      "Ġrole": 3985,
      "Ġtech": 3986,
      "They": 3987,
      "Ġdressed": 3988,
      "ĠCHAP": 3989,
      "HE": 3990,
      "Ġbud": 3991,
      "Ġthreat": 3992,
      "ĠDes": 3993,
      "ĠDis": 3994,
      "Ġsocial": 3995,
      "Ġhouses": 3996,
      "ĠLouis": 3997,
      "hington": 3998,
      "Ġobs": 3999,
      "Ġtelephone": 4000,
      "ĠCHAPTER": 4001,
      "gi": 4002,
      "Ġmass": 4003,
      "Ġpun": 4004,
      "Ġinfl": 4005,
      "ĠST": 4006,
      "andy": 4007,
      "Ġspirit": 4008,
      "SS": 4009,
      "writ": 4010,
      "Ġlikely": 4011,
      "rawber": 4012,
      "rec": 4013,
      "erve": 4014,
      "ooper": 4015,
      "ural": 4016,
      "My": 4017,
      "Ġphys": 4018,
      "Ġhey": 4019,
      "Ġwash": 4020,
      "Ġnorm": 4021,
      "Ġexist": 4022,
      "Ġexec": 4023,
      "Ġenv": 4024,
      "Ġamaz": 4025,
      "Ġteeth": 4026,
      "ERE": 4027,
      "rief": 4028,
      "Ġestab": 4029,
      "Ġexclaimed": 4030,
      "mag": 4031,
      "ĠII": 4032,
      "Ġisland": 4033,
      "Ġallow": 4034,
      "uhuh": 4035,
      "ĠĠĠĠĠĠ": 4036,
      "Ġdollars": 4037,
      "Ġfat": 4038,
      "Ġstone": 4039,
      "ĠGeneral": 4040,
      "ĠWhich": 4041,
      "Ġwelcome": 4042,
      "ĠJul": 4043,
      "Ġspread": 4044,
      "Ġcommun": 4045,
      "!'": 4046,
      "Ã¶": 4047,
      "iance": 4048,
      "ĠParis": 4049,
      "Ġsoftly": 4050,
      "fin": 4051,
      "oly": 4052,
      "aps": 4053,
      "ĠTHAT": 4054,
      "Ġfingers": 4055,
      "ĠEleanor": 4056,
      "Ġcompletely": 4057,
      "ergy": 4058,
      "Ġsuff": 4059,
      "Ġcrack": 4060,
      "Ġlawyer": 4061,
      "Ġdate": 4062,
      "Ġsmile": 4063,
      "oted": 4064,
      "Ġplays": 4065,
      "Ġguard": 4066,
      "ĠEliz": 4067,
      "10": 4068,
      "host": 4069,
      "ĠMel": 4070,
      "Ġdifference": 4071,
      "Ġballs": 4072,
      "ĠWashington": 4073,
      "ĠSmith": 4074,
      "lect": 4075,
      "ĠPri": 4076,
      "ĠRo": 4077,
      "Ġchim": 4078,
      "Ġfamous": 4079,
      "Ġspoken": 4080,
      "sure": 4081,
      "oring": 4082,
      "Ġbeyond": 4083,
      "ĠSu": 4084,
      "Ġrights": 4085,
      "ashion": 4086,
      "ĠScot": 4087,
      "ew": 4088,
      "Ġthroat": 4089,
      "Ġbrain": 4090,
      "met": 4091,
      "ĠDutch": 4092,
      "iles": 4093,
      "ustom": 4094,
      "Ġalthough": 4095,
      "Ġarrest": 4096,
      "Ġrefer": 4097,
      "Ġinclude": 4098,
      "four": 4099,
      "ĠSince": 4100,
      "ĠMal": 4101,
      "Ġjour": 4102,
      "ĠJose": 4103,
      "ples": 4104,
      "Ġwet": 4105,
      "icle": 4106,
      "Ġslight": 4107,
      "Ġfalling": 4108,
      "Ġvictim": 4109,
      "ĠGive": 4110,
      "oughs": 4111,
      "Ġentered": 4112,
      "ĠJoe": 4113,
      "Ġpurp": 4114,
      "Ġrule": 4115,
      "18": 4116,
      "ĠHumph": 4117,
      "Ġris": 4118,
      "ography": 4119,
      "Ġepis": 4120,
      "Ġtick": 4121,
      "ĠCare": 4122,
      "aine": 4123,
      "Ġbroad": 4124,
      "ĠFraser": 4125,
      "ĠThomas": 4126,
      "asion": 4127,
      "apers": 4128,
      "Ġ2012": 4129,
      "Ġ2014": 4130,
      "ighs": 4131,
      "Ġ2023": 4132,
      "Ġsearch": 4133,
      "ĠPen": 4134,
      "ila": 4135,
      "ĠOnly": 4136,
      "ĠJew": 4137,
      "ĠMost": 4138,
      "Ġrev": 4139,
      "Ġsepar": 4140,
      "Ġraised": 4141,
      "ĠMore": 4142,
      "ĠMany": 4143,
      "Ġevidence": 4144,
      "Ġwinter": 4145,
      "ĠIre": 4146,
      "Ġgall": 4147,
      "oming": 4148,
      "Ġdeg": 4149,
      "Ġproject": 4150,
      "Ġpicked": 4151,
      "gigg": 4152,
      "ok": 4153,
      "Ġide": 4154,
      "those": 4155,
      "Ġ2011": 4156,
      "Ġpublished": 4157,
      "bu": 4158,
      "ĠEll": 4159,
      "ables": 4160,
      "Ġrespons": 4161,
      "ironment": 4162,
      "ĠHumphrey": 4163,
      "Then": 4164,
      "eat": 4165,
      "Ġhun": 4166,
      "Ġvis": 4167,
      "ĠCanada": 4168,
      "hum": 4169,
      "wise": 4170,
      "arr": 4171,
      "vi": 4172,
      "Ġver": 4173,
      "Ġsli": 4174,
      "Ġinvolved": 4175,
      "holds": 4176,
      "Ġmurder": 4177,
      "ĠAustralia": 4178,
      "Ġcrazy": 4179,
      "ĠAc": 4180,
      "Ġeast": 4181,
      "ooth": 4182,
      "remember": 4183,
      "ĠListen": 4184,
      "wich": 4185,
      "wanna": 4186,
      "ĠCong": 4187,
      "ĠBraz": 4188,
      "aining": 4189,
      "Ġairplane": 4190,
      "Ġjoin": 4191,
      "Ġintro": 4192,
      "tr": 4193,
      "Ġarrived": 4194,
      "Ġden": 4195,
      "Ġkitty": 4196,
      "herry": 4197,
      "Ġ()": 4198,
      "Ġturns": 4199,
      "Ġannounced": 4200,
      "Ġsum": 4201,
      "asure": 4202,
      "ĠTheir": 4203,
      "Ġasleep": 4204,
      "orts": 4205,
      "ĠExcuse": 4206,
      "Ġelephant": 4207,
      "ession": 4208,
      "Ġlistening": 4209,
      "baby": 4210,
      "wow": 4211,
      "Ġcute": 4212,
      "ĠMac": 4213,
      "ĠKitty": 4214,
      "Ġscr": 4215,
      "Ġdriving": 4216,
      "onounced": 4217,
      "aret": 4218,
      "bing": 4219,
      "lie": 4220,
      "Ġdeter": 4221,
      "Ġnon": 4222,
      "ĠBert": 4223,
      "Ġhappening": 4224,
      "ĠIsrael": 4225,
      "Ġdirector": 4226,
      "lam": 4227,
      "ĠTri": 4228,
      "abeth": 4229,
      "ĠChristian": 4230,
      "ĠPrince": 4231,
      "ss": 4232,
      "Ġscient": 4233,
      "Ġsposta": 4234,
      "eless": 4235,
      "Ġpocket": 4236,
      "Ġbelow": 4237,
      "Ġcounty": 4238,
      "Ġmilitary": 4239,
      "Ġmessage": 4240,
      "Ġtaught": 4241,
      "Ġgives": 4242,
      "Ġterm": 4243,
      "Ġmetal": 4244,
      "ĠScott": 4245,
      "lor": 4246,
      "net": 4247,
      "please": 4248,
      "Ġident": 4249,
      "Ġwise": 4250,
      "Ġtwelve": 4251,
      "Ġended": 4252,
      "ĠParliament": 4253,
      "Ġprivate": 4254,
      "pes": 4255,
      "vies": 4256,
      "Ġconcer": 4257,
      "--\"": 4258,
      "Ġcocoon": 4259,
      "Ġpet": 4260,
      "Ġsimple": 4261,
      "Now": 4262,
      "Ġtears": 4263,
      "Ġtiger": 4264,
      "erved": 4265,
      "ites": 4266,
      "ĠWomen": 4267,
      "Ġhigher": 4268,
      "LY": 4269,
      "gie": 4270,
      "ux": 4271,
      "ĠMike": 4272,
      "Ġstom": 4273,
      "ĠIts": 4274,
      "Ġaccom": 4275,
      "Ġdelic": 4276,
      "Ġjourney": 4277,
      "make": 4278,
      "Ã³": 4279,
      "Ġfool": 4280,
      "Ġinternational": 4281,
      "ĠMo": 4282,
      "ota": 4283,
      "ĠDO": 4284,
      "Ġjoy": 4285,
      "ption": 4286,
      "Ġladies": 4287,
      "HT": 4288,
      "Ġï¿½ï¿½ï¿½ï¿½": 4289,
      "Ġhasn": 4290,
      "Ġ2013": 4291,
      "Ġwoods": 4292,
      "ĠMarcia": 4293,
      "ĠBrazil": 4294,
      "Ġmm": 4295,
      "Ġlines": 4296,
      "Ġlaid": 4297,
      "asons": 4298,
      "ĠDar": 4299,
      "antic": 4300,
      "Ġconside": 4301,
      "Ġolder": 4302,
      "Ġaction": 4303,
      "ocrat": 4304,
      "Ġconsidered": 4305,
      "Ġbound": 4306,
      "itor": 4307,
      "Ġoffer": 4308,
      "Ġinterested": 4309,
      "Ġnatural": 4310,
      "Ġearlier": 4311,
      "ĠBat": 4312,
      "atives": 4313,
      "Ġmountain": 4314,
      "Ġexam": 4315,
      "looking": 4316,
      "gypt": 4317,
      "ĠItalian": 4318,
      "ja": 4319,
      "Ġbill": 4320,
      "Ġnut": 4321,
      "ĠHug": 4322,
      "Ġbelieved": 4323,
      "Ġund": 4324,
      "abel": 4325,
      "Ġanywhere": 4326,
      "Ġmanage": 4327,
      "Ġmovies": 4328,
      "Ġstarting": 4329,
      "Ġsatisf": 4330,
      "Ġchoice": 4331,
      "ban": 4332,
      "Ġwag": 4333,
      "Ġyyy": 4334,
      "ĠCould": 4335,
      "ĠRes": 4336,
      "Ġfounded": 4337,
      "bet": 4338,
      "ĠSen": 4339,
      "ĠFred": 4340,
      "osing": 4341,
      "ĠAcc": 4342,
      "ails": 4343,
      "Ġmagic": 4344,
      "ursday": 4345,
      "Ġconversation": 4346,
      "!âĢĿ": 4347,
      "Ġ..": 4348,
      "Ġpic": 4349,
      "Ġawful": 4350,
      "Ġemploy": 4351,
      "11": 4352,
      "Ġsoul": 4353,
      "ushing": 4354,
      "Ġeducation": 4355,
      "bes": 4356,
      "dd": 4357,
      "Ġyell": 4358,
      "ari": 4359,
      "elle": 4360,
      "ĠGot": 4361,
      "AU": 4362,
      "If": 4363,
      "ato": 4364,
      "Ġsmell": 4365,
      "Ġactor": 4366,
      "gged": 4367,
      "Ġhurry": 4368,
      "Ġhonest": 4369,
      "KEN": 4370,
      "ĠME": 4371,
      "Ġnurse": 4372,
      "Ġstairs": 4373,
      "Ġsail": 4374,
      "ĠUnion": 4375,
      "ointed": 4376,
      "Ġfaith": 4377,
      "lim": 4378,
      "Ġtend": 4379,
      "Ġwww": 4380,
      "Ġmouse": 4381,
      "ĠUp": 4382,
      "Ġscream": 4383,
      "Ġninet": 4384,
      "Ġtaste": 4385,
      "Ġpath": 4386,
      "ĠGold": 4387,
      "ciety": 4388,
      "Ġterms": 4389,
      "IR": 4390,
      "Ġinj": 4391,
      "keep": 4392,
      "aded": 4393,
      "Ġnote": 4394,
      "Ġafterwards": 4395,
      "ĠRepublic": 4396,
      "ĠBoy": 4397,
      "ĠLuc": 4398,
      "Ġplaced": 4399,
      "Ġnumbers": 4400,
      "Ġmotor": 4401,
      "Ġfault": 4402,
      "Ġswimming": 4403,
      "Ġcovered": 4404,
      "ĠTV": 4405,
      "ĠDep": 4406,
      "ulf": 4407,
      "ĠThree": 4408,
      "ĠBefore": 4409,
      "Ġsituation": 4410,
      "itude": 4411,
      "ednes": 4412,
      "Ġclaim": 4413,
      "ednesday": 4414,
      "tape": 4415,
      "Ġdrew": 4416,
      "ĠLat": 4417,
      "Ġwheel": 4418,
      "thern": 4419,
      "Ġamount": 4420,
      "Ġshowing": 4421,
      "isc": 4422,
      "arian": 4423,
      "acks": 4424,
      "Ġbye": 4425,
      "Ġspee": 4426,
      "Ġfourth": 4427,
      "Ġdistance": 4428,
      "uk": 4429,
      "Ġthee": 4430,
      "ales": 4431,
      "Ġsettle": 4432,
      "Ġlocated": 4433,
      "jo": 4434,
      "arrow": 4435,
      "Ġeff": 4436,
      "Ġeconom": 4437,
      "ads": 4438,
      "ĠWood": 4439,
      "ishop": 4440,
      "Ġ2010": 4441,
      "Ġhuge": 4442,
      "lebr": 4443,
      "ĠLab": 4444,
      "Ġregard": 4445,
      "Ġaddress": 4446,
      "Ġmachine": 4447,
      "Ġdinosaur": 4448,
      "Yeah": 4449,
      "vere": 4450,
      "Ġthrew": 4451,
      "olt": 4452,
      "ĠChurch": 4453,
      "Ġexpected": 4454,
      "oved": 4455,
      "pro": 4456,
      "Ġpleased": 4457,
      "Ġnature": 4458,
      "cean": 4459,
      "ella": 4460,
      "Ġagreed": 4461,
      "ĠInternational": 4462,
      "Ġsimilar": 4463,
      "Ġbull": 4464,
      "Ġcamer": 4465,
      "Ġcivil": 4466,
      "Ġopport": 4467,
      "ĠOlympics": 4468,
      "So": 4469,
      "ram": 4470,
      "ĠCamp": 4471,
      "Ġtraining": 4472,
      "from": 4473,
      "vey": 4474,
      "uckles": 4475,
      "Ġmissing": 4476,
      "Ġmissed": 4477,
      "call": 4478,
      "Ġtone": 4479,
      "Ġsens": 4480,
      "Ġpill": 4481,
      "uset": 4482,
      "ache": 4483,
      "roll": 4484,
      "looks": 4485,
      "Ġskin": 4486,
      "Ġgentleman": 4487,
      "ĠCromer": 4488,
      "Ġcommunity": 4489,
      "Ġsett": 4490,
      "whining": 4491,
      "ourage": 4492,
      "Ġcrowd": 4493,
      "every": 4494,
      "Ġaward": 4495,
      "asc": 4496,
      "ĠSummer": 4497,
      "ĠAye": 4498,
      "Ġplain": 4499,
      "Ġagree": 4500,
      "sm": 4501,
      "reys": 4502,
      "Ġdread": 4503,
      "ĠRose": 4504,
      "ĠFox": 4505,
      "Ġ(;": 4506,
      "uesday": 4507,
      "Ġseventy": 4508,
      "Ġimmediately": 4509,
      "sl": 4510,
      "ĠDist": 4511,
      "Ġsuit": 4512,
      "ossible": 4513,
      "giggles": 4514,
      "17": 4515,
      "Do": 4516,
      "ĠWhile": 4517,
      "Ġhadn": 4518,
      "Ġcalls": 4519,
      "Ġmistake": 4520,
      "ĠUrsula": 4521,
      "Ġrabbit": 4522,
      "Ġsize": 4523,
      "Ġmovement": 4524,
      "Ġrecorder": 4525,
      "Ġwatched": 4526,
      "ĠWE": 4527,
      "ĠDa": 4528,
      "ago": 4529,
      "Ġvote": 4530,
      "enced": 4531,
      "Ġexcited": 4532,
      "itan": 4533,
      "Ġur": 4534,
      "outher": 4535,
      "Ġnotice": 4536,
      "ĠGreen": 4537,
      "high": 4538,
      "Ġmanner": 4539,
      "ledge": 4540,
      "ĠJean": 4541,
      "Ġwearing": 4542,
      "Ġinvestig": 4543,
      "log": 4544,
      "mel": 4545,
      "real": 4546,
      "ĠBill": 4547,
      "urt": 4548,
      "ĠRome": 4549,
      "Ġgrown": 4550,
      "achuset": 4551,
      "ingly": 4552,
      "Ġpair": 4553,
      "ĠSpanish": 4554,
      "achusetts": 4555,
      "book": 4556,
      "ators": 4557,
      "Ġfilled": 4558,
      "Ġdancing": 4559,
      "inct": 4560,
      "Ġremem": 4561,
      "Ġcollege": 4562,
      "Ġimagine": 4563,
      "ials": 4564,
      "Ġnap": 4565,
      "Ġshad": 4566,
      "Ġproduced": 4567,
      "sociation": 4568,
      "cis": 4569,
      "hered": 4570,
      "vell": 4571,
      "Ġstran": 4572,
      "action": 4573,
      "Ġsmart": 4574,
      "Ġsongs": 4575,
      "Ġcapt": 4576,
      "Ġassist": 4577,
      "ĠRussia": 4578,
      "ĠAldred": 4579,
      "Ġstreng": 4580,
      "mom": 4581,
      "try": 4582,
      "Ġcart": 4583,
      "Ġfre": 4584,
      "ĠAir": 4585,
      "elly": 4586,
      "Ġtherefore": 4587,
      "ĠJud": 4588,
      "Ġspeed": 4589,
      "bel": 4590,
      "Ġwest": 4591,
      "Ġdig": 4592,
      "Ġfol": 4593,
      "bered": 4594,
      "Ġdiscovered": 4595,
      "Ġflying": 4596,
      "outhern": 4597,
      "da": 4598,
      "five": 4599,
      "hest": 4600,
      "ĠOver": 4601,
      "Ġdise": 4602,
      "Ġteach": 4603,
      "ELL": 4604,
      "www": 4605,
      "mommy": 4606,
      "Ġbal": 4607,
      "ĠFin": 4608,
      "ults": 4609,
      "Ġcolors": 4610,
      "Ġstudied": 4611,
      "Ġrocket": 4612,
      "Ġoriginal": 4613,
      "ĠMassachusetts": 4614,
      "ĠEgypt": 4615,
      "Ġbridge": 4616,
      "Ġresult": 4617,
      "Ġbeside": 4618,
      "ini": 4619,
      "ĠDel": 4620,
      "hips": 4621,
      "Ġspl": 4622,
      "Ġlanguages": 4623,
      "Ġknife": 4624,
      "30": 4625,
      "big": 4626,
      "itely": 4627,
      "Ġdecision": 4628,
      "Ġsentence": 4629,
      "Ġcloser": 4630,
      "Ġquarter": 4631,
      "ien": 4632,
      "oups": 4633,
      "umber": 4634,
      "cks": 4635,
      "Ġregular": 4636,
      "asy": 4637,
      "ĠOther": 4638,
      "Ġsurv": 4639,
      "Ġturtle": 4640,
      "ĠElizabeth": 4641,
      "Ġcousin": 4642,
      "Ġpink": 4643,
      "anda": 4644,
      "andra": 4645,
      "Ġdebut": 4646,
      "olic": 4647,
      "ittee": 4648,
      "ĠThursday": 4649,
      "Ġmedic": 4650,
      "Ġchimney": 4651,
      "takes": 4652,
      "zen": 4653,
      "ĠMet": 4654,
      "ĠMont": 4655,
      "oph": 4656,
      "Ġunless": 4657,
      "ANT": 4658,
      "Ġhardly": 4659,
      "Ġlargest": 4660,
      "Paul": 4661,
      "Ġhi": 4662,
      "ivid": 4663,
      "Ġfavour": 4664,
      "Ġdangerous": 4665,
      "ĠWednesday": 4666,
      "Ġshirt": 4667,
      "ĠArmy": 4668,
      "Ġhonor": 4669,
      "Ġhistor": 4670,
      "ĠSecret": 4671,
      "pa": 4672,
      "HING": 4673,
      "Ġemb": 4674,
      "Ġdeli": 4675,
      "Ġfeat": 4676,
      "Ġzoo": 4677,
      "Ġlength": 4678,
      "Ġpicnic": 4679,
      "dad": 4680,
      "gl": 4681,
      "ns": 4682,
      "Ġcult": 4683,
      "anced": 4684,
      "Ġindepend": 4685,
      "Ġcorrect": 4686,
      "itzer": 4687,
      "mont": 4688,
      "vious": 4689,
      "Ġcoun": 4690,
      "ĠWil": 4691,
      "ĠLa": 4692,
      "Ġcondu": 4693,
      "ĠBrad": 4694,
      "Ġexperience": 4695,
      "Ġparticularly": 4696,
      "ba": 4697,
      "nie": 4698,
      "usion": 4699,
      "ĠHan": 4700,
      "ĠNever": 4701,
      "Is": 4702,
      "Ġstock": 4703,
      "tering": 4704,
      "Ġplant": 4705,
      "Ġworried": 4706,
      "Ġmonkey": 4707,
      "Ġpromised": 4708,
      "Ġsquare": 4709,
      "Ġcastle": 4710,
      "ĠJesus": 4711,
      "Ġdirty": 4712,
      "Ġthus": 4713,
      "Ġmeaning": 4714,
      "ensus": 4715,
      "Ġsurprised": 4716,
      "ĠJeffreys": 4717,
      "eer": 4718,
      "Ġhid": 4719,
      "Ġtwice": 4720,
      "ĠClaus": 4721,
      "Ġcelebr": 4722,
      "down": 4723,
      "ois": 4724,
      "ita": 4725,
      "inger": 4726,
      "Ġnet": 4727,
      "stop": 4728,
      "ify": 4729,
      "Ġsaved": 4730,
      "Ġcoach": 4731,
      "mpion": 4732,
      "Ġbrothers": 4733,
      "Ġimpro": 4734,
      "Marky": 4735,
      "Ġtotal": 4736,
      "bout": 4737,
      "pan": 4738,
      "Ġaud": 4739,
      "Ġlat": 4740,
      "Ġneither": 4741,
      "Ġpicks": 4742,
      "ĠEric": 4743,
      "ournal": 4744,
      "Ġlap": 4745,
      "ĠApp": 4746,
      "ĠAward": 4747,
      "ĠMolly": 4748,
      "Ġdeb": 4749,
      "Ġstrugg": 4750,
      "Ġartist": 4751,
      "Ġtemper": 4752,
      "Ġtou": 4753,
      "Ġpushed": 4754,
      "atic": 4755,
      "Ġgods": 4756,
      "Ġoppos": 4757,
      "cellent": 4758,
      "Ġmult": 4759,
      "ĠCast": 4760,
      "ellig": 4761,
      "Ġusual": 4762,
      "Ġcheer": 4763,
      "ĠSpain": 4764,
      "Ġdefin": 4765,
      "Ġfemale": 4766,
      "ĠIS": 4767,
      "ĠMaster": 4768,
      "Ġareas": 4769,
      "Ġcoat": 4770,
      "Ġescape": 4771,
      "ĠTer": 4772,
      "ĠRem": 4773,
      "Ġplenty": 4774,
      "oday": 4775,
      ".,": 4776,
      "AB": 4777,
      "Th": 4778,
      "cul": 4779,
      "gent": 4780,
      "ĠMur": 4781,
      "inda": 4782,
      "Ġ190": 4783,
      "ĠBrown": 4784,
      "Ġexplain": 4785,
      "Ġinflu": 4786,
      "back": 4787,
      "isy": 4788,
      "ĠSim": 4789,
      "ÃŃs": 4790,
      "bur": 4791,
      "cut": 4792,
      "ĠDuke": 4793,
      "Ġneat": 4794,
      "Ġflight": 4795,
      "ĠEarth": 4796,
      "shall": 4797,
      "Ġabsolutely": 4798,
      "bor": 4799,
      "Ġhill": 4800,
      "ĠCath": 4801,
      "Ġspeech": 4802,
      "Bro": 4803,
      "rid": 4804,
      "icated": 4805,
      "alley": 4806,
      "rance": 4807,
      "Ġruns": 4808,
      "Ġobviously": 4809,
      "Ġpurpose": 4810,
      "Ġcouch": 4811,
      "vert": 4812,
      "Ġgroups": 4813,
      "Ġappre": 4814,
      "Ġpersonal": 4815,
      "inese": 4816,
      "Ġspecies": 4817,
      "Ġcalm": 4818,
      "ĠSuper": 4819,
      "ners": 4820,
      "sings": 4821,
      "Ġtax": 4822,
      "Ġble": 4823,
      "Ġeager": 4824,
      "ĠOut": 4825,
      "ĠGar": 4826,
      "Ġrough": 4827,
      "Ġsharp": 4828,
      "mar": 4829,
      "Ġduty": 4830,
      "Ġhell": 4831,
      "chie": 4832,
      "Ġbless": 4833,
      "Ġlucky": 4834,
      "Ġnineteen": 4835,
      "hod": 4836,
      "show": 4837,
      "Ġwake": 4838,
      "Ġmater": 4839,
      "Ġfirm": 4840,
      "Ġinqu": 4841,
      "ĠChief": 4842,
      "Ġbeauty": 4843,
      "ĠHugo": 4844,
      "aign": 4845,
      "oid": 4846,
      "rank": 4847,
      "Ġrap": 4848,
      "ĠFrancis": 4849,
      "Ġtravel": 4850,
      "Ġbathroom": 4851,
      "Ġempty": 4852,
      "Ġcomputer": 4853,
      "Ġwound": 4854,
      "ĠTuesday": 4855,
      "ĠSus": 4856,
      "enth": 4857,
      "Ġstrawber": 4858,
      "Ġdrinking": 4859,
      "Ġsuspect": 4860,
      "Ġlips": 4861,
      "ĠRec": 4862,
      "Ġtrip": 4863,
      "Ġclearly": 4864,
      "Ġquietly": 4865,
      "Ġradio": 4866,
      "Ġresearch": 4867,
      "Ġdarling": 4868,
      "ĠJoseph": 4869,
      "50": 4870,
      "CE": 4871,
      "Ġtap": 4872,
      "Ġfro": 4873,
      "using": 4874,
      "ĠDay": 4875,
      "Ġroof": 4876,
      "Ġshoot": 4877,
      "Ġimpossible": 4878,
      "ocratic": 4879,
      "In": 4880,
      "ship": 4881,
      "ĠMus": 4882,
      "Ġdoin": 4883,
      "ferent": 4884,
      "Ġeasily": 4885,
      "Ġwriter": 4886,
      "EXP": 4887,
      "viet": 4888,
      "ĠFire": 4889,
      "ograph": 4890,
      "IGHT": 4891,
      "ker": 4892,
      "Ġ50": 4893,
      "ENT": 4894,
      "Ġpulled": 4895,
      "**": 4896,
      "ST": 4897,
      "ĠÂ": 4898,
      "Ġwit": 4899,
      "Ġdouble": 4900,
      "Ġelected": 4901,
      "ĠĠĠĠĠĠĠĠĠĠĠĠĠĠĠĠĠĠĠĠĠĠĠĠĠĠĠĠĠĠĠĠ": 4902,
      "Ġcontinue": 4903,
      "Ġepisode": 4904,
      "vince": 4905,
      "oured": 4906,
      "onse": 4907,
      "oms": 4908,
      "Ġweather": 4909,
      "iana": 4910,
      "Ġpercent": 4911,
      "cat": 4912,
      "Ġsour": 4913,
      "ĠMat": 4914,
      "ĠLove": 4915,
      "iece": 4916,
      "Ġwalks": 4917,
      "Ġholiday": 4918,
      "rough": 4919,
      "Ġpool": 4920,
      "ĠMabel": 4921,
      "ĠCam": 4922,
      "Ġscene": 4923,
      "softly": 4924,
      "cake": 4925,
      "Ġcouncil": 4926,
      "Ġgate": 4927,
      "ively": 4928,
      "Ġtrick": 4929,
      "ĠSoviet": 4930,
      "Ġdistribut": 4931,
      "Ġconstruction": 4932,
      "Ġharm": 4933,
      "Ġloss": 4934,
      "Ġexcuse": 4935,
      "Ġjudge": 4936,
      "iant": 4937,
      "Ġstruck": 4938,
      "Ġdecide": 4939,
      "Ġsandwich": 4940,
      "little": 4941,
      "ishes": 4942,
      "cely": 4943,
      "Ġshoo": 4944,
      "Ġmonster": 4945,
      "Ġaccording": 4946,
      "Ġstudents": 4947,
      "Ġsoup": 4948,
      "Ġfought": 4949,
      "urry": 4950,
      "Ġshown": 4951,
      "Ġheads": 4952,
      "Ġsecurity": 4953,
      "ĠPerhaps": 4954,
      "_,": 4955,
      "gas": 4956,
      "loud": 4957,
      "pet": 4958,
      "Ġtight": 4959,
      "only": 4960,
      "Ġtells": 4961,
      "itzerland": 4962,
      "leng": 4963,
      "Ã¨": 4964,
      "rees": 4965,
      "Ġpour": 4966,
      "Ġliter": 4967,
      "ĠCont": 4968,
      "Ġflower": 4969,
      "Ġcrime": 4970,
      "Ġ40": 4971,
      "Ġperfectly": 4972,
      "Ġblanket": 4973,
      "coughs": 4974,
      "gen": 4975,
      "lig": 4976,
      "Ġtar": 4977,
      "Ġtong": 4978,
      "Ġoil": 4979,
      "oma": 4980,
      "ste": 4981,
      "ching": 4982,
      "cend": 4983,
      "ĠOld": 4984,
      "Ġoccur": 4985,
      "Ġgentlemen": 4986,
      "Ġprincess": 4987,
      "Ġdeclared": 4988,
      "Ġnecessary": 4989,
      "bury": 4990,
      "first": 4991,
      "eta": 4992,
      "aled": 4993,
      "isted": 4994,
      "ĠOnce": 4995,
      "ĠSwitzerland": 4996,
      "Ġfixed": 4997,
      "Ġbowl": 4998,
      "ala": 4999,
      "ĠHapp": 5000,
      "ĠLife": 5001,
      "Ġ31": 5002,
      "ĠBeck": 5003,
      "Ġkeeping": 5004,
      "Ġcaptain": 5005,
      "Ġpaint": 5006,
      "after": 5007,
      "Ġah": 5008,
      "aches": 5009,
      "ĠUm": 5010,
      "whispers": 5011,
      "Ġanxious": 5012,
      "ĠScotland": 5013,
      "All": 5014,
      "Nina": 5015,
      "Ġmic": 5016,
      "Ġrate": 5017,
      "Ġgreatest": 5018,
      "Ġdemand": 5019,
      "mit": 5020,
      "ona": 5021,
      "aries": 5022,
      "ĠCat": 5023,
      "ĠJos": 5024,
      "ĠChina": 5025,
      "Ġdesp": 5026,
      "Ġearn": 5027,
      "Ġoccup": 5028,
      "Ġdefend": 5029,
      "Ġfruit": 5030,
      "Ġholds": 5031,
      "Ġdevelopment": 5032,
      "ĠAfrican": 5033,
      "Ġenvironment": 5034,
      "mes": 5035,
      "Ġfashion": 5036,
      "ĠEmp": 5037,
      "hoe": 5038,
      "Ġdisco": 5039,
      "ĠPrin": 5040,
      "ĠAngela": 5041,
      "?'": 5042,
      "Ġhotel": 5043,
      "ĠChampionship": 5044,
      "Ġfrightened": 5045,
      "aven": 5046,
      "nods": 5047,
      "Ġarrow": 5048,
      "Ġimm": 5049,
      "Ġjumped": 5050,
      "Ġcompeted": 5051,
      "Ġavail": 5052,
      "tin": 5053,
      "tles": 5054,
      "atoes": 5055,
      "ĠMajor": 5056,
      "Ġweak": 5057,
      "ĠCle": 5058,
      "cts": 5059,
      "esty": 5060,
      "ĠMaria": 5061,
      "gn": 5062,
      "Ġinf": 5063,
      "ĠWind": 5064,
      "Ġchampions": 5065,
      "ĠPercy": 5066,
      "Ġpleasant": 5067,
      "ique": 5068,
      "roo": 5069,
      "Ġtv": 5070,
      "Ġfund": 5071,
      "ĠSing": 5072,
      "ĠDra": 5073,
      "Ġcamera": 5074,
      "fit": 5075,
      "Ġfoc": 5076,
      "Ġham": 5077,
      "Ġthy": 5078,
      "ĠGO": 5079,
      "ĠFOR": 5080,
      "Ġappl": 5081,
      "rupt": 5082,
      "Ġpossibly": 5083,
      "could": 5084,
      "Ġopin": 5085,
      "Ġdoc": 5086,
      "ĠIsland": 5087,
      "Ġwooden": 5088,
      "200": 5089,
      "vis": 5090,
      "inist": 5091,
      "Ġbi": 5092,
      "Ġfancy": 5093,
      "ĠBu": 5094,
      "Ġjack": 5095,
      "Ġmanaged": 5096,
      "iction": 5097,
      "Ġscary": 5098,
      "Ġcontact": 5099,
      "Ġgrave": 5100,
      "ĠEarly": 5101,
      "Ġscience": 5102,
      "ĠSaint": 5103,
      "Ġvac": 5104,
      "Ġqueen": 5105,
      "ĠThose": 5106,
      "Ġcoast": 5107,
      "ava": 5108,
      "Ġsilence": 5109,
      "Ġcompetition": 5110,
      "Ġcant": 5111,
      "Ġcustom": 5112,
      "irgin": 5113,
      "ĠRay": 5114,
      "Ġmarriage": 5115,
      "Ġcircus": 5116,
      "Ġsusp": 5117,
      "recorder": 5118,
      "Ġcuri": 5119,
      "ĠBig": 5120,
      "Ġmeal": 5121,
      "Ġenergy": 5122,
      "Ġcontinues": 5123,
      "Ġsac": 5124,
      "Ġthick": 5125,
      "Ġwilln": 5126,
      "Ġrail": 5127,
      "Ġdisease": 5128,
      "Ch": 5129,
      "Ġcred": 5130,
      "ĠIran": 5131,
      "Ġbeha": 5132,
      "Ġdishes": 5133,
      "Ġremained": 5134,
      "Ġleading": 5135,
      "icycle": 5136,
      "Ġir": 5137,
      "Ġnurs": 5138,
      "berg": 5139,
      "Ġadvent": 5140,
      "Sis": 5141,
      "enny": 5142,
      "illa": 5143,
      "ĠRock": 5144,
      "ĠFore": 5145,
      "ĠFour": 5146,
      "Ġchannel": 5147,
      "ĠZara": 5148,
      "UST": 5149,
      "Ġdoggie": 5150,
      "Ġpitched": 5151,
      "lected": 5152,
      "Ġlibr": 5153,
      "ĠNO": 5154,
      "Ġprepared": 5155,
      "Ġdeterm": 5156,
      "sighs": 5157,
      "water": 5158,
      "Ġnovel": 5159,
      "umps": 5160,
      "cip": 5161,
      "Ġnewsp": 5162,
      "Ġacqu": 5163,
      "Ġdolly": 5164,
      "ĠWalter": 5165,
      "Ġrom": 5166,
      "Ġyouth": 5167,
      "rig": 5168,
      "Ġnoticed": 5169,
      "Ġrow": 5170,
      "Ġattract": 5171,
      "Ġdirection": 5172,
      "ĠSomething": 5173,
      "Ġestabl": 5174,
      "ĠAccording": 5175,
      "Ġstrength": 5176,
      "Ġmut": 5177,
      "Ġtow": 5178,
      "ĠHon": 5179,
      "ĠNat": 5180,
      "Ġcontract": 5181,
      "ilda": 5182,
      "ildred": 5183,
      "Ġcentre": 5184,
      "Ġcenter": 5185,
      "ĠGuy": 5186,
      "ĠKeep": 5187,
      "CT": 5188,
      "heart": 5189,
      "ĠSk": 5190,
      "ĠCons": 5191,
      "Ġcancer": 5192,
      "useum": 5193,
      "aked": 5194,
      "Ġgiant": 5195,
      "fall": 5196,
      "Ġstret": 5197,
      "peror": 5198,
      "Ġseconds": 5199,
      "bell": 5200,
      "oves": 5201,
      "ĠTim": 5202,
      "ĠDi": 5203,
      "Ġourselves": 5204,
      "pens": 5205,
      "Ġsword": 5206,
      "Ġ2005": 5207,
      "Ġ2008": 5208,
      "ederal": 5209,
      "Ġbang": 5210,
      "Ġstream": 5211,
      "ĠBye": 5212,
      "Ġarch": 5213,
      "anges": 5214,
      "Ġhelping": 5215,
      "ĠEverything": 5216,
      "ĠJapanese": 5217,
      "aves": 5218,
      "last": 5219,
      "Ġma": 5220,
      "orks": 5221,
      "Ġlower": 5222,
      "ĠSay": 5223,
      "imate": 5224,
      "ĠBur": 5225,
      "eaks": 5226,
      "ĠLee": 5227,
      "Ġremind": 5228,
      "Ġcarefully": 5229,
      "Ġ2009": 5230,
      "Ġcandy": 5231,
      "ouri": 5232,
      "Ġsides": 5233,
      "ĠFar": 5234,
      "ĠIslam": 5235,
      "Ġ2007": 5236,
      "known": 5237,
      "ĠHol": 5238,
      "ĠBas": 5239,
      "Ġbutton": 5240,
      "Ġshore": 5241,
      "istan": 5242,
      "ĠGerald": 5243,
      "Ġpractice": 5244,
      "ĠAfrica": 5245,
      "Ġopportunity": 5246,
      "?]": 5247,
      "eks": 5248,
      "reg": 5249,
      "really": 5250,
      "had": 5251,
      "itation": 5252,
      "Ġgro": 5253,
      "Ġgaz": 5254,
      "ĠSun": 5255,
      "Ġhandle": 5256,
      "ĠChinese": 5257,
      "\"]": 5258,
      "ĠMhm": 5259,
      "ademy": 5260,
      "Ġsaf": 5261,
      "Ġofficial": 5262,
      "ĠRobin": 5263,
      "bly": 5264,
      "run": 5265,
      "ĠCHI": 5266,
      "erg": 5267,
      "Ġfurn": 5268,
      "ĠMos": 5269,
      "Ġnea": 5270,
      "Ġstorm": 5271,
      "outs": 5272,
      "ez": 5273,
      "Ġweird": 5274,
      "Ġformed": 5275,
      "ĠRel": 5276,
      "Ġdisp": 5277,
      "Ġgreater": 5278,
      "ĠChris": 5279,
      "Ġcrown": 5280,
      "Ġopening": 5281,
      "ĠEdward": 5282,
      "Ġplane": 5283,
      "Ġfifteen": 5284,
      "Mother": 5285,
      "uz": 5286,
      "ĠMildred": 5287,
      "aching": 5288,
      "ĠCO": 5289,
      "ura": 5290,
      "ĠStill": 5291,
      "Ġprice": 5292,
      "Ġ2004": 5293,
      "Ġdriver": 5294,
      "Ġextreme": 5295,
      "Ġmotion": 5296,
      "Ġboots": 5297,
      "IM": 5298,
      "ĠIr": 5299,
      "iring": 5300,
      "ĠHor": 5301,
      "Ġinterview": 5302,
      "ĠBritain": 5303,
      "ĠCongress": 5304,
      "This": 5305,
      "kins": 5306,
      "aning": 5307,
      "Ġpan": 5308,
      "uten": 5309,
      "ĠHold": 5310,
      "chuckles": 5311,
      "Ġsmiled": 5312,
      "Ġpainting": 5313,
      "Ġsouthw": 5314,
      "ilies": 5315,
      "Ġlights": 5316,
      "Ġcampaign": 5317,
      "ĠNether": 5318,
      "Ġmentioned": 5319,
      "Ġmemory": 5320,
      "An": 5321,
      "Ġwrest": 5322,
      "Ġcherry": 5323,
      "Ġlion": 5324,
      "ication": 5325,
      "ĠTran": 5326,
      "Ġchoose": 5327,
      "whoa": 5328,
      "Ġ2006": 5329,
      "Ġsteps": 5330,
      "face": 5331,
      "gress": 5332,
      "Ġbare": 5333,
      "Ġpin": 5334,
      "etch": 5335,
      "ĠMY": 5336,
      "ĠMinn": 5337,
      "ĠDen": 5338,
      "ĠZeal": 5339,
      "ĠCollege": 5340,
      "ĠEXP": 5341,
      "Ġstomach": 5342,
      "Ġappreci": 5343,
      "15": 5344,
      "ij": 5345,
      "wr": 5346,
      "yellow": 5347,
      "inet": 5348,
      "Ġdying": 5349,
      "Ġge": 5350,
      "Ġlog": 5351,
      "ĠCall": 5352,
      "ĠPapa": 5353,
      "ĠVal": 5354,
      "ippi": 5355,
      "EA": 5356,
      "cr": 5357,
      "Ġye": 5358,
      "ĠHot": 5359,
      "ĠFil": 5360,
      "Ġdownstairs": 5361,
      "Ġsoldier": 5362,
      "Ġhanging": 5363,
      "Ġorders": 5364,
      "Ġtries": 5365,
      "ero": 5366,
      "Ġboss": 5367,
      "ĠTown": 5368,
      "Ġweight": 5369,
      "ĠWestern": 5370,
      "Ġunc": 5371,
      "Ġkinds": 5372,
      "Ġchanges": 5373,
      "Ġstring": 5374,
      "Ġofficers": 5375,
      "ification": 5376,
      "Ġmerry": 5377,
      "Ġevents": 5378,
      "rooge": 5379,
      "Ġcam": 5380,
      "Ġfold": 5381,
      "Ġpig": 5382,
      "Ġmere": 5383,
      "ilities": 5384,
      "ĠJake": 5385,
      "Ġprevent": 5386,
      "Ġphil": 5387,
      "Ġgrowing": 5388,
      "Ġtongue": 5389,
      "Ġfra": 5390,
      "ĠServ": 5391,
      "Ġeld": 5392,
      "kel": 5393,
      "iel": 5394,
      "Ġplans": 5395,
      "eman": 5396,
      "Ġprim": 5397,
      "Ġprint": 5398,
      "Ġsisters": 5399,
      "ĠPlay": 5400,
      "ĠNetherlands": 5401,
      "Eve": 5402,
      "ION": 5403,
      "mark": 5404,
      "ardon": 5405,
      "Ġmoves": 5406,
      "Ġowned": 5407,
      "Ġfeels": 5408,
      "Ġfallen": 5409,
      "Ġterror": 5410,
      "ĠSometimes": 5411,
      "Ġversion": 5412,
      "ouds": 5413,
      "Ġsch": 5414,
      "Ġdare": 5415,
      "imb": 5416,
      "ĠRoyal": 5417,
      "ĠKat": 5418,
      "ends": 5419,
      "Ġactress": 5420,
      "ĠScrooge": 5421,
      "Ġsettled": 5422,
      "mn": 5423,
      "Ġpapers": 5424,
      "Ġnoble": 5425,
      "Ġnerv": 5426,
      "Ġknowing": 5427,
      "ĠJenn": 5428,
      "Ġshr": 5429,
      "ocal": 5430,
      "ĠWHAT": 5431,
      "ĠGreek": 5432,
      "Come": 5433,
      "ae": 5434,
      "draw": 5435,
      "anch": 5436,
      "ening": 5437,
      "ĠWel": 5438,
      "Ġrings": 5439,
      "ems": 5440,
      "Ġkeeps": 5441,
      "Ġ2003": 5442,
      "Ġkiller": 5443,
      "box": 5444,
      "Ġresponse": 5445,
      "ĠAgnes": 5446,
      "ĠDistrict": 5447,
      "ĠZealand": 5448,
      "Ġwings": 5449,
      "erc": 5450,
      "Ġlord": 5451,
      "ĠTHIS": 5452,
      "ador": 5453,
      "sequ": 5454,
      "Ġknowledge": 5455,
      "Ġtrade": 5456,
      "Ġsmaller": 5457,
      "Ġgolden": 5458,
      "Ġwed": 5459,
      "kend": 5460,
      "cel": 5461,
      "Ġtext": 5462,
      "Ġcarrying": 5463,
      "Ġchem": 5464,
      "ĠDoctor": 5465,
      "Ġindivid": 5466,
      "ĠFlor": 5467,
      "Ġneighbor": 5468,
      "Ġnormal": 5469,
      "ĠIreland": 5470,
      "Ġnomin": 5471,
      "ĠRy": 5472,
      "Ġuses": 5473,
      "iano": 5474,
      "Ġblind": 5475,
      "Ġpoet": 5476,
      "Ġmodern": 5477,
      "dr": 5478,
      "sed": 5479,
      "Ġbump": 5480,
      "Ġbrief": 5481,
      "Ġpound": 5482,
      "ĠMount": 5483,
      "ĠMississ": 5484,
      "Ġ1990": 5485,
      "Ġteams": 5486,
      "Ġdreams": 5487,
      "Ġconcerned": 5488,
      "lengthened": 5489,
      "isn": 5490,
      "lend": 5491,
      "ĠJac": 5492,
      "Ġsuc": 5493,
      "Ġqual": 5494,
      "place": 5495,
      "ucky": 5496,
      "Ġremain": 5497,
      "izing": 5498,
      "Ġtrial": 5499,
      "melon": 5500,
      "16": 5501,
      "Not": 5502,
      "low": 5503,
      "omm": 5504,
      "ĠFort": 5505,
      "Ġideas": 5506,
      "ĠEmpire": 5507,
      "another": 5508,
      "ĠMama": 5509,
      "amin": 5510,
      "oston": 5511,
      "Ġcruel": 5512,
      "ĠAssociation": 5513,
      "Ġmarry": 5514,
      "Ġwindows": 5515,
      "Ġeasier": 5516,
      "Ġjoke": 5517,
      "Ġfigures": 5518,
      "Ġoccasion": 5519,
      "Ġwaited": 5520,
      "Ġrules": 5521,
      "ĠAustrian": 5522,
      "ĠMississippi": 5523,
      "OUR": 5524,
      "Ġess": 5525,
      "Ġmail": 5526,
      "ading": 5527,
      "ĠWay": 5528,
      "ĠWow": 5529,
      "ops": 5530,
      "Ġplat": 5531,
      "aki": 5532,
      "Ġ2000": 5533,
      "pering": 5534,
      "Ġretired": 5535,
      "fortun": 5536,
      "Ġdrawing": 5537,
      "ĠWilliams": 5538,
      "Ġwhispered": 5539,
      "Ġsucceed": 5540,
      "ĠHum": 5541,
      "Ġsake": 5542,
      "Ġfrogs": 5543,
      "ĠSwed": 5544,
      "Daddy": 5545,
      "asing": 5546,
      "Ġemer": 5547,
      "ĠWAS": 5548,
      "ĠBud": 5549,
      "Ġschools": 5550,
      "Ġmatches": 5551,
      "ĠHappy": 5552,
      "Ġdish": 5553,
      "Ġflag": 5554,
      "Ġhelmet": 5555,
      "Ġswing": 5556,
      "Ġbedroom": 5557,
      "Ġburst": 5558,
      "Ġestablished": 5559,
      "too": 5560,
      "otion": 5561,
      "Ġstro": 5562,
      "ĠLos": 5563,
      "Ġwheels": 5564,
      "Ġuseta": 5565,
      "Ġmostly": 5566,
      "iety": 5567,
      "arently": 5568,
      "Ġsafety": 5569,
      "bon": 5570,
      "craft": 5571,
      "llen": 5572,
      "aria": 5573,
      "Ġinno": 5574,
      "ĠNice": 5575,
      "ĠRom": 5576,
      "ĠFine": 5577,
      "Ġworst": 5578,
      "ollip": 5579,
      "199": 5580,
      "Ġrocks": 5581,
      "Ġwalls": 5582,
      "Ġexecut": 5583,
      "gt": 5584,
      "oons": 5585,
      "yell": 5586,
      "ĠHI": 5587,
      "Ġfond": 5588,
      "ĠHA": 5589,
      "ĠStan": 5590,
      "Ġtalks": 5591,
      "Ġshape": 5592,
      "pronounced": 5593,
      "Ġforever": 5594,
      "Ġconstit": 5595,
      "Ġforgotten": 5596,
      "ĠCanadian": 5597,
      "VER": 5598,
      "vo": 5599,
      "Ġsen": 5600,
      "nothing": 5601,
      "Ġvot": 5602,
      "Ġwished": 5603,
      "Ġplants": 5604,
      "Ġarg": 5605,
      "ĠMissouri": 5606,
      "Ġsigned": 5607,
      "Ġbabies": 5608,
      "ĠMexico": 5609,
      "ĠCatholic": 5610,
      "eed": 5611,
      "Ġhug": 5612,
      "rif": 5613,
      "Ġforces": 5614,
      "Ġmel": 5615,
      "ĠKent": 5616,
      "Ġyounger": 5617,
      "ĠBarb": 5618,
      "Ġmodel": 5619,
      "ĠSecond": 5620,
      "Ġrepeated": 5621,
      "ĠCareer": 5622,
      "12": 5623,
      "Ġbomb": 5624,
      "lla": 5625,
      "nolog": 5626,
      "ĠTy": 5627,
      "ĠSur": 5628,
      "Ġnuts": 5629,
      "Ġant": 5630,
      "ĠPope": 5631,
      "Ġwilling": 5632,
      "Ġproceed": 5633,
      "ĠMarg": 5634,
      "Ġattend": 5635,
      "Ġloves": 5636,
      "ule": 5637,
      "Ġbike": 5638,
      "Ġlone": 5639,
      "Ġwaste": 5640,
      "ado": 5641,
      "ĠBan": 5642,
      "ĠDou": 5643,
      "Ġupset": 5644,
      "Ġcomed": 5645,
      "Ġleaders": 5646,
      "Ġpowerful": 5647,
      "aura": 5648,
      "aun": 5649,
      "while": 5650,
      "onia": 5651,
      "hal": 5652,
      "Ġple": 5653,
      "Ġghost": 5654,
      "ĠMill": 5655,
      "ĠCooper": 5656,
      "ĠPolly": 5657,
      "Ġsociety": 5658,
      "Ġmanager": 5659,
      "Ġsomethin": 5660,
      "Ġ32": 5661,
      "Ġpresents": 5662,
      "Ġaware": 5663,
      "ĠEarl": 5664,
      "OME": 5665,
      "sych": 5666,
      "Ġrapid": 5667,
      "fess": 5668,
      "Ġtheory": 5669,
      "ĠMaj": 5670,
      "ĠMax": 5671,
      "Ġjournal": 5672,
      "Ġrise": 5673,
      "olars": 5674,
      "Ġ2001": 5675,
      "gery": 5676,
      "Ġhighest": 5677,
      "BC": 5678,
      "Ġfaces": 5679,
      "arily": 5680,
      "ĠHome": 5681,
      "Ġunion": 5682,
      "ĠPrime": 5683,
      "----------------": 5684,
      "ĠSecretary": 5685,
      "Ġavailable": 5686,
      "happy": 5687,
      "Ġbother": 5688,
      "Ġcases": 5689,
      "Ġcensus": 5690,
      "Ġpurs": 5691,
      "semb": 5692,
      "stood": 5693,
      "ĠOk": 5694,
      "ĠUnder": 5695,
      "Ġpeas": 5696,
      "Ġfinding": 5697,
      "AND": 5698,
      "Ġstrawberries": 5699,
      "uan": 5700,
      "year": 5701,
      "Ġho": 5702,
      "ĠPict": 5703,
      "ĠFC": 5704,
      "ĠKore": 5705,
      "Ġclouds": 5706,
      "Ġcarriage": 5707,
      "Ġeleven": 5708,
      "Ġmedical": 5709,
      "ĠAlexander": 5710,
      "EP": 5711,
      "Ġcy": 5712,
      "ushes": 5713,
      "rial": 5714,
      "aming": 5715,
      "ĠPut": 5716,
      "avis": 5717,
      "Ġfeelings": 5718,
      "ĠGovernment": 5719,
      "Ġtotally": 5720,
      "Ġreligious": 5721,
      "Be": 5722,
      "Ġfal": 5723,
      "icles": 5724,
      "Ġordered": 5725,
      "uhoh": 5726,
      "Ġpolicy": 5727,
      "Ġfifth": 5728,
      "Ġstreets": 5729,
      "uf": 5730,
      "ĠJon": 5731,
      "Ġparticip": 5732,
      "Ġshoulder": 5733,
      "Ġvoices": 5734,
      "Ġbringing": 5735,
      "ĠCarol": 5736,
      "Ġpurple": 5737,
      "Ġutter": 5738,
      "walk": 5739,
      "Ġwore": 5740,
      "Ġfac": 5741,
      "Ġrising": 5742,
      "Ġshock": 5743,
      "ĠUk": 5744,
      "Ġprove": 5745,
      "ĠIsn": 5746,
      "ological": 5747,
      "duced": 5748,
      "Ġdegree": 5749,
      "Ġsite": 5750,
      "Ġpages": 5751,
      "Ġheaven": 5752,
      "ada": 5753,
      "Ġnic": 5754,
      "riff": 5755,
      "Ġshoe": 5756,
      "Ġgoodness": 5757,
      "Ġreported": 5758,
      "ollipop": 5759,
      "ube": 5760,
      "ented": 5761,
      "Ġstates": 5762,
      "ĠBoston": 5763,
      "places": 5764,
      "Ġneedta": 5765,
      "ansas": 5766,
      "Ġdeveloped": 5767,
      "MAL": 5768,
      "ele": 5769,
      "wing": 5770,
      "ena": 5771,
      "Ġinvent": 5772,
      "arts": 5773,
      "Ġsomewhat": 5774,
      "ĠStar": 5775,
      "Ġaffe": 5776,
      "Ġcondition": 5777,
      "Ġgradu": 5778,
      "Ġrelationship": 5779,
      "zo": 5780,
      "ĠShi": 5781,
      "ĠWall": 5782,
      "ential": 5783,
      "ĠRon": 5784,
      "Ġconqu": 5785,
      "Ġrode": 5786,
      "Ġcups": 5787,
      "pir": 5788,
      "Ġted": 5789,
      "Ġcong": 5790,
      "ĠSix": 5791,
      "ĠScient": 5792,
      "ĠBack": 5793,
      "ĠPan": 5794,
      "opher": 5795,
      "Ġfamilies": 5796,
      "Ġevil": 5797,
      "Ġprotest": 5798,
      "playing": 5799,
      "Ġsuccessful": 5800,
      "ĠAustria": 5801,
      "ĠActually": 5802,
      "ĠDemocratic": 5803,
      "14": 5804,
      "tries": 5805,
      "Ġbod": 5806,
      "ĠTime": 5807,
      "rible": 5808,
      "Ġforced": 5809,
      "asty": 5810,
      "ucking": 5811,
      "ĠMarie": 5812,
      "Ġweekend": 5813,
      "Ġ189": 5814,
      "ĠJohnson": 5815,
      "Ġcentral": 5816,
      "Ġsteal": 5817,
      "ĠProvince": 5818,
      "Ġcomfortable": 5819,
      "Ġremembered": 5820,
      "Ġmedicine": 5821,
      "ĠMuslim": 5822,
      "Ġcit": 5823,
      "Ġcities": 5824,
      "Ġfence": 5825,
      "Ġintern": 5826,
      "Ġnarrow": 5827,
      "Ġships": 5828,
      "rences": 5829,
      "zza": 5830,
      "Ġchest": 5831,
      "ĠAlthough": 5832,
      "Ġaddition": 5833,
      "oria": 5834,
      "ications": 5835,
      "ĠSol": 5836,
      "acher": 5837,
      "Ġreign": 5838,
      "ĠHal": 5839,
      "ĠCos": 5840,
      "ĠBre": 5841,
      "thur": 5842,
      "ĠEv": 5843,
      "Ġeverywhere": 5844,
      "Ġmagaz": 5845,
      "Ġgrandfather": 5846,
      "Ġcompanies": 5847,
      "Ġapolog": 5848,
      "Ġmud": 5849,
      "Ġbecoming": 5850,
      "something": 5851,
      "Ġscarcely": 5852,
      "mission": 5853,
      "Ġocean": 5854,
      "Ġpor": 5855,
      "estival": 5856,
      "ĠAndrew": 5857,
      "Ġtroub": 5858,
      "going": 5859,
      "Ġwondering": 5860,
      "Ġincluded": 5861,
      "Ġservices": 5862,
      "Ġreligion": 5863,
      "Ġrisk": 5864,
      "Good": 5865,
      "PE": 5866,
      "friend": 5867,
      "Ġet": 5868,
      "Ġgift": 5869,
      "ĠLI": 5870,
      "ols": 5871,
      "ĠUN": 5872,
      "ishment": 5873,
      "Ġminister": 5874,
      "Ġglasses": 5875,
      "Ġcircum": 5876,
      "Ġfailed": 5877,
      "Ġsilly": 5878,
      "Ġstyle": 5879,
      "ĠBest": 5880,
      "ĠStep": 5881,
      "Ġserve": 5882,
      "Ġplanning": 5883,
      "Ġforeign": 5884,
      "Ġlaws": 5885,
      "ĠAngeles": 5886,
      "Ġnervous": 5887,
      "war": 5888,
      "Ġtourn": 5889,
      "Ġbunch": 5890,
      "Ġmale": 5891,
      "Ġdun": 5892,
      "aring": 5893,
      "ĠSar": 5894,
      "ĠBund": 5895,
      "Ġsmoke": 5896,
      "Ġserving": 5897,
      "Ġenter": 5898,
      "Ġholes": 5899,
      "zer": 5900,
      "Ġbone": 5901,
      "Ġmor": 5902,
      "ĠSpe": 5903,
      "ĠAnother": 5904,
      "Ġrelease": 5905,
      "ctors": 5906,
      "Ġrice": 5907,
      "Ġstaying": 5908,
      "ĠGovernor": 5909,
      "ĠTor": 5910,
      "ental": 5911,
      "ĠDonald": 5912,
      "Ġmatters": 5913,
      "ibility": 5914,
      "ĠMerle": 5915,
      "ga": 5916,
      "ĠWent": 5917,
      "Ġfork": 5918,
      "Ġliber": 5919,
      "ĠGirl": 5920,
      "Ġroy": 5921,
      "Ġamb": 5922,
      "ĠArt": 5923,
      "Ġsurround": 5924,
      "goes": 5925,
      "Ġveget": 5926,
      "Ġshadow": 5927,
      "Ġtour": 5928,
      "Ġwond": 5929,
      "Ġkm": 5930,
      "road": 5931,
      "think": 5932,
      "Ġmedal": 5933,
      "Ġtarget": 5934,
      "rick": 5935,
      "itar": 5936,
      "ĠAEW": 5937,
      "Ġsection": 5938,
      "ĠNick": 5939,
      "Ġoranges": 5940,
      "ĠVan": 5941,
      "Ġ188": 5942,
      "Ġbarn": 5943,
      "Ġguns": 5944,
      "Ġprisoners": 5945,
      "Ġcandid": 5946,
      "\"?": 5947,
      "Al": 5948,
      "daddy": 5949,
      "atory": 5950,
      "ĠLaura": 5951,
      "Ġsplend": 5952,
      "Ġthroughout": 5953,
      "ailed": 5954,
      "Ġgrandmother": 5955,
      "Ġperforman": 5956,
      "law": 5957,
      "wan": 5958,
      "Ġaunt": 5959,
      "Ġheat": 5960,
      "Ġhello": 5961,
      "Ġreve": 5962,
      "ĠVirgin": 5963,
      "Ġadop": 5964,
      "Ġhearts": 5965,
      "Ġplanet": 5966,
      "Ġedge": 5967,
      "ĠHarry": 5968,
      "Ġadvice": 5969,
      "Ġstrike": 5970,
      "Ġamazing": 5971,
      "HER": 5972,
      "ĠSqu": 5973,
      "ĠBa": 5974,
      "Ġpatient": 5975,
      "ĠBecky": 5976,
      "ĠIll": 5977,
      "esome": 5978,
      "ĠMavis": 5979,
      "open": 5980,
      "ola": 5981,
      "quar": 5982,
      "Ġsurely": 5983,
      "Ġtraffic": 5984,
      "Ġgenerally": 5985,
      "Ġissue": 5986,
      "Ġshooting": 5987,
      "Ġ/": 5988,
      "Ġmaid": 5989,
      "Ġinit": 5990,
      "ĠHu": 5991,
      "ĠHy": 5992,
      "ĠRog": 5993,
      "ĠNext": 5994,
      "ĠComp": 5995,
      "Ġsorts": 5996,
      "writer": 5997,
      "ĠAcademy": 5998,
      "Ġopinion": 5999,
      "nan": 6000,
      "ima": 6001,
      "acon": 6002,
      "Ġflo": 6003,
      "Ġmountains": 6004,
      "Ġcopy": 6005,
      "Ġteddy": 6006,
      "Ma": 6007,
      "cow": 6008,
      "Ġfaster": 6009,
      "amma": 6010,
      "Ġune": 6011,
      "ĠOff": 6012,
      "Ġdeck": 6013,
      "icking": 6014,
      "Ġdesk": 6015,
      "ĠAlright": 6016,
      "clears": 6017,
      "ĠAtl": 6018,
      "engers": 6019,
      "Ġcookie": 6020,
      "Ġsalt": 6021,
      "Ġsalad": 6022,
      "Ġvalue": 6023,
      "ĠMargaret": 6024,
      "Ġachie": 6025,
      "orough": 6026,
      "alt": 6027,
      "ĠBea": 6028,
      "ĠFair": 6029,
      "Ġplums": 6030,
      "Ġhearing": 6031,
      "Ġadminist": 6032,
      "Ġappearance": 6033,
      "ault": 6034,
      "ĠBook": 6035,
      "ĠPers": 6036,
      "Ġriding": 6037,
      "ability": 6038,
      "Ġexcellent": 6039,
      "Ġblame": 6040,
      "ĠThink": 6041,
      "Ġpreschool": 6042,
      "Ġstru": 6043,
      "ĠZe": 6044,
      "Ġkidding": 6045,
      "Ġ1980": 6046,
      "Ġsnake": 6047,
      "Ġcritic": 6048,
      "bour": 6049,
      "cont": 6050,
      "Ġwinning": 6051,
      "Ġpred": 6052,
      "astern": 6053,
      "Ġancient": 6054,
      "ĠVict": 6055,
      "Ġpartner": 6056,
      "Ġthoughts": 6057,
      "Ġactive": 6058,
      "Ġleague": 6059,
      "Ġpolic": 6060,
      "blue": 6061,
      "Ġrespond": 6062,
      "Ġcurrently": 6063,
      "13": 6064,
      "case": 6065,
      "ĠArab": 6066,
      "Ġstir": 6067,
      "Ġdoors": 6068,
      "cho": 6069,
      "Ġlies": 6070,
      "ulous": 6071,
      "ĠKar": 6072,
      "Ġoblig": 6073,
      "Ġorganization": 6074,
      "ILL": 6075,
      "long": 6076,
      "sounds": 6077,
      "Ġbug": 6078,
      "Ġcards": 6079,
      "essel": 6080,
      "ĠSO": 6081,
      "ĠMi": 6082,
      "Ġnest": 6083,
      "Ġuniversity": 6084,
      "ĠScar": 6085,
      "Ġdrawn": 6086,
      "Ġweapons": 6087,
      "chief": 6088,
      "ĠLo": 6089,
      "Ġentertain": 6090,
      "Ġunclear": 6091,
      "Ġelephants": 6092,
      "ĠLabour": 6093,
      "FF": 6094,
      "vest": 6095,
      "isions": 6096,
      "ĠSHE": 6097,
      "ĠBav": 6098,
      "Ġshell": 6099,
      "Ġpros": 6100,
      "Ġcloud": 6101,
      "ĠArgent": 6102,
      "Ġ1960": 6103,
      "ĠProfess": 6104,
      "Ġcreature": 6105,
      "Ġhasta": 6106,
      "Ġcourage": 6107,
      "Ġpears": 6108,
      "Ġhm": 6109,
      "Ġhiding": 6110,
      "Ġnation": 6111,
      "ĠYear": 6112,
      "Ġgoal": 6113,
      "Ġrob": 6114,
      "Ġscrew": 6115,
      "Ġresc": 6116,
      "ĠBruce": 6117,
      "Ġ1995": 6118,
      "Ġkingdom": 6119,
      "Ġindustry": 6120,
      "Ġpillow": 6121,
      "Ġtouched": 6122,
      "60": 6123,
      "bled": 6124,
      "Ġyard": 6125,
      "ĠMaine": 6126,
      "Ġjun": 6127,
      "ĠNobody": 6128,
      "Ġfriendly": 6129,
      "ounce": 6130,
      "Ġplanned": 6131,
      "ÃŃt": 6132,
      "Ġproperty": 6133,
      "Ġwagon": 6134,
      "Ġopposite": 6135,
      "Urs": 6136,
      "Ġbub": 6137,
      "ashing": 6138,
      "leg": 6139,
      "ĠEst": 6140,
      "Ġhadta": 6141,
      "Ġsomehow": 6142,
      "Ġarran": 6143,
      "Ġbegins": 6144,
      "black": 6145,
      "Ġmispronounced": 6146,
      "scream": 6147,
      "Ġdisappeared": 6148,
      "Ġmixed": 6149,
      "Ġarrested": 6150,
      "Mr": 6151,
      "rant": 6152,
      "erable": 6153,
      "isher": 6154,
      "ĠSea": 6155,
      "ĠGers": 6156,
      "Ġrug": 6157,
      "odes": 6158,
      "ĠEveryone": 6159,
      "Ġdrove": 6160,
      "Ġpotatoes": 6161,
      "Ġclimb": 6162,
      "Ġclimate": 6163,
      "ĠAustralian": 6164,
      "Ġmirror": 6165,
      "ni": 6166,
      "pull": 6167,
      "su": 6168,
      "Ġcad": 6169,
      "Ġexerc": 6170,
      "ĠCharlie": 6171,
      "ĠColumb": 6172,
      "ĠMartin": 6173,
      "ĠLatin": 6174,
      "Fr": 6175,
      "bra": 6176,
      "Ġdim": 6177,
      "Ġthin": 6178,
      "Ġforgive": 6179,
      "Ġneg": 6180,
      "Ġalpha": 6181,
      "Ġvir": 6182,
      "Ġpresence": 6183,
      "Ġsilent": 6184,
      "ension": 6185,
      "Ġbuildings": 6186,
      "Ġlegal": 6187,
      "reedom": 6188,
      "ĠTurk": 6189,
      "ĠBir": 6190,
      "stead": 6191,
      "Ġvessel": 6192,
      "Ġarrange": 6193,
      "Ġgrace": 6194,
      "Ġuseful": 6195,
      "Ġ1998": 6196,
      "six": 6197,
      "ware": 6198,
      "Ġsink": 6199,
      "irlf": 6200,
      "ĠOoh": 6201,
      "Ġrushed": 6202,
      "Ġbiggest": 6203,
      "Ġsmiling": 6204,
      "Ġ2002": 6205,
      "Ġspecific": 6206,
      "Ġdetect": 6207,
      "moves": 6208,
      "ĠCentral": 6209,
      "Ġpressure": 6210,
      "phe": 6211,
      "Ġbunny": 6212,
      "Ġpale": 6213,
      "ĠTra": 6214,
      "ĠLong": 6215,
      "Ġcomment": 6216,
      "ARD": 6217,
      "ĠStud": 6218,
      "Ġowner": 6219,
      "Ġfairly": 6220,
      "Ġweapon": 6221,
      "ĠSusan": 6222,
      "Let": 6223,
      "Where": 6224,
      "oom": 6225,
      "{\\": 6226,
      "ĠToday": 6227,
      "ĠBes": 6228,
      "ĠNOT": 6229,
      "Ġspill": 6230,
      "Ġadvert": 6231,
      "Ġhurried": 6232,
      "ĠĠĠĠĠĠĠĠĠĠĠĠĠĠĠĠĠĠĠĠĠĠĠĠ": 6233,
      "Ġmedia": 6234,
      "Ġservant": 6235,
      "Ġburning": 6236,
      "ĠScientists": 6237,
      "Of": 6238,
      "die": 6239,
      "uries": 6240,
      "Ġchat": 6241,
      "ancial": 6242,
      "Ġgrey": 6243,
      "ette": 6244,
      "ĠBoth": 6245,
      "ĠRad": 6246,
      "ĠLu": 6247,
      "ĠKim": 6248,
      "ĠWhatever": 6249,
      "ĠAtt": 6250,
      "Ġdolls": 6251,
      "ĠDisney": 6252,
      "onstr": 6253,
      "ani": 6254,
      "ĠLater": 6255,
      "Ġrank": 6256,
      "icket": 6257,
      "ĠâĢĻ": 6258,
      "Ġshoulders": 6259,
      "Ġscore": 6260,
      "ĠRev": 6261,
      "Ġ1994": 6262,
      "Ġescap": 6263,
      "Ġdestroyed": 6264,
      "irlfriend": 6265,
      "Mama": 6266,
      "SE": 6267,
      "Ġtear": 6268,
      "Ġpra": 6269,
      "ĠTre": 6270,
      "ĠShow": 6271,
      "Ġnative": 6272,
      "ĠWhe": 6273,
      "artment": 6274,
      "care": 6275,
      "aren": 6276,
      "Ġcrim": 6277,
      "ĠAmeric": 6278,
      "Ġrare": 6279,
      "Ġaccess": 6280,
      "Ġ1999": 6281,
      "ĠGroup": 6282,
      "ropol": 6283,
      "Ġnorthern": 6284,
      "Ġproduction": 6285,
      "yr": 6286,
      "Ġborder": 6287,
      "ĠBad": 6288,
      "ĠNic": 6289,
      "Ġupside": 6290,
      "uments": 6291,
      "Ġrout": 6292,
      "Ġpregn": 6293,
      "Ġrealize": 6294,
      "ĠJohnny": 6295,
      "Ġdarkness": 6296,
      "40": 6297,
      "ipped": 6298,
      "sk": 6299,
      "Ġfier": 6300,
      "ĠSE": 6301,
      "ĠHas": 6302,
      "Ġnotes": 6303,
      "Ġsheep": 6304,
      "Ġcontribut": 6305,
      "Ġboats": 6306,
      "Ġ1996": 6307,
      "Ġinvited": 6308,
      "Ġevident": 6309,
      "ĠPortug": 6310,
      "Ġexcitement": 6311,
      "Ġlibrary": 6312,
      "ĠIrish": 6313,
      "aron": 6314,
      "ata": 6315,
      "ĠMen": 6316,
      "acha": 6317,
      "achel": 6318,
      "Ġrecording": 6319,
      "Ġtreated": 6320,
      "Ġveh": 6321,
      "Ġtradition": 6322,
      "cup": 6323,
      "Ġpsych": 6324,
      "ĠAri": 6325,
      "Ġreasons": 6326,
      "Ġstaff": 6327,
      "...?": 6328,
      "Ġagre": 6329,
      "Ġchap": 6330,
      "Ġburied": 6331,
      "ĠChild": 6332,
      "Ġends": 6333,
      "Ġrelated": 6334,
      "Tilda": 6335,
      "Ġtun": 6336,
      "Ġwine": 6337,
      "Ġheight": 6338,
      "Ġcloth": 6339,
      "ĠSocial": 6340,
      "Ġdescend": 6341,
      "Ġpassing": 6342,
      "Ġmainly": 6343,
      "Ġtransport": 6344,
      "Ġeffort": 6345,
      "utenant": 6346,
      "ĠFlorida": 6347,
      "Ġtournament": 6348,
      "Ġroyal": 6349,
      "IA": 6350,
      "tt": 6351,
      "Ġcott": 6352,
      "Ġfired": 6353,
      "ĠBra": 6354,
      "Ġknight": 6355,
      "Ġanti": 6356,
      "dere": 6357,
      "Ġtowns": 6358,
      "Ġ1970": 6359,
      "Ġdefinitely": 6360,
      "ĠRecords": 6361,
      "Ġsouthwestern": 6362,
      "fire": 6363,
      "za": 6364,
      "Ġtie": 6365,
      "Ġtip": 6366,
      "Ġfan": 6367,
      "Ġpony": 6368,
      "Ġlosing": 6369,
      "ĠTurn": 6370,
      "ader": 6371,
      "ĠWork": 6372,
      "ĠOli": 6373,
      "Ġsole": 6374,
      "angar": 6375,
      "Ġsetting": 6376,
      "Ġthousands": 6377,
      "Ġloudly": 6378,
      "Ġvictory": 6379,
      "ua": 6380,
      "Ġaver": 6381,
      "Ġlollipop": 6382,
      "Ġsaus": 6383,
      "ague": 6384,
      "angle": 6385,
      "ĠArthur": 6386,
      "Ġhandsome": 6387,
      "Ġcats": 6388,
      "ĠShar": 6389,
      "Ġfairy": 6390,
      "Ġexpression": 6391,
      "Ġprofessor": 6392,
      "ĠEmperor": 6393,
      "Ġapartment": 6394,
      "Amer": 6395,
      "Ġsang": 6396,
      "Ġpa": 6397,
      "ĠHea": 6398,
      "ĠFI": 6399,
      "Ġdrug": 6400,
      "bridge": 6401,
      "Ġintellig": 6402,
      "Ġdivor": 6403,
      "ITH": 6404,
      "Ġknocked": 6405,
      "whispered": 6406,
      "Ġdelicious": 6407,
      "nology": 6408,
      "Ġ0": 6409,
      "Ġwra": 6410,
      "anut": 6411,
      "ĠBi": 6412,
      "urance": 6413,
      "ĠNik": 6414,
      "ĠJung": 6415,
      "osen": 6416,
      "ateg": 6417,
      "Ġafford": 6418,
      "angers": 6419,
      "Ġremoved": 6420,
      "Ġslide": 6421,
      "ĠGeorg": 6422,
      "inc": 6423,
      "Ġtooth": 6424,
      "ĠFive": 6425,
      "pton": 6426,
      "Ġbreaking": 6427,
      "Ġclever": 6428,
      "Ġballoon": 6429,
      "Ġ1992": 6430,
      "Ġcookies": 6431,
      "Ġphilos": 6432,
      "tery": 6433,
      "ĠLake": 6434,
      "ĠYoung": 6435,
      "Ġtruly": 6436,
      "ĠVo": 6437,
      "Ġcompos": 6438,
      "Ġlistened": 6439,
      "Ġpriest": 6440,
      "ĠIra": 6441,
      "ĠAT": 6442,
      "ĠDiv": 6443,
      "ĠRE": 6444,
      "istry": 6445,
      "Ġacting": 6446,
      "ĠClub": 6447,
      "Ġlarger": 6448,
      "ĠDidn": 6449,
      "ropri": 6450,
      "Ġenjoyed": 6451,
      "Ġcitiz": 6452,
      "Ġpity": 6453,
      "Ġloose": 6454,
      "ĠMummy": 6455,
      "ĠYet": 6456,
      "ĠRa": 6457,
      "Ġpoison": 6458,
      "Ġunderstood": 6459,
      "onsense": 6460,
      "Ġpresently": 6461,
      "Ġrecorded": 6462,
      "Ġlearning": 6463,
      "Ġexchan": 6464,
      "Ġlessons": 6465,
      "Ġpupp": 6466,
      "Ġwedding": 6467,
      "Ġbodies": 6468,
      "Ġcircumst": 6469,
      "iture": 6470,
      "ĠMake": 6471,
      "Ġreview": 6472,
      "ĠHuh": 6473,
      "ĠBay": 6474,
      "ĠBull": 6475,
      "ĠNaz": 6476,
      "weet": 6477,
      "ĠBrook": 6478,
      "Ġprevious": 6479,
      "Ġpositive": 6480,
      "Ġcreate": 6481,
      "ĠRemember": 6482,
      "Ġwitness": 6483,
      "wers": 6484,
      "oos": 6485,
      "Ġsuffe": 6486,
      "Ġcray": 6487,
      "Ġprefer": 6488,
      "ĠArch": 6489,
      "ĠSomeone": 6490,
      "Ġexpress": 6491,
      "Ġbesides": 6492,
      "ĠAuntie": 6493,
      "Ġdirectly": 6494,
      "Ġexciting": 6495,
      "Ġsettlement": 6496,
      "icide": 6497,
      "ĠAmy": 6498,
      "ĠHill": 6499,
      "ĠRO": 6500,
      "ulk": 6501,
      "ulty": 6502,
      "essert": 6503,
      "eping": 6504,
      "Ġconcent": 6505,
      "Ġadult": 6506,
      "Ġhoping": 6507,
      "Ġfields": 6508,
      "iliar": 6509,
      "rand": 6510,
      "Ġlake": 6511,
      "still": 6512,
      "ilty": 6513,
      "ĠLin": 6514,
      "ĠLand": 6515,
      "Ġprogress": 6516,
      "Ġkilling": 6517,
      "iraffe": 6518,
      "ĠWentworth": 6519,
      "Ġsplendid": 6520,
      "cles": 6521,
      "ingu": 6522,
      "ano": 6523,
      "orge": 6524,
      "....": 6525,
      "unts": 6526,
      "ĠLast": 6527,
      "Ġshook": 6528,
      "Ġsports": 6529,
      "Ġclown": 6530,
      "Ġthrown": 6531,
      "ERS": 6532,
      "Ġrefused": 6533,
      "Ġcreatures": 6534,
      "ervation": 6535,
      "Ġfortune": 6536,
      "stein": 6537,
      "!âĢĻ": 6538,
      "'...": 6539,
      "gers": 6540,
      "mine": 6541,
      "ras": 6542,
      "Ġyo": 6543,
      "Ġgovernor": 6544,
      "onel": 6545,
      "Ġshame": 6546,
      "Ġformula": 6547,
      "iamond": 6548,
      "Ġteaching": 6549,
      "Ġindependent": 6550,
      "UCK": 6551,
      "Ġpause": 6552,
      "ĠSpr": 6553,
      "ending": 6554,
      "ĠInstit": 6555,
      "Ġchain": 6556,
      "Ġseriously": 6557,
      "Ġfinds": 6558,
      "Ġbadly": 6559,
      "Ġlocation": 6560,
      "Ġrequest": 6561,
      "Ġbuddy": 6562,
      "Ġ{\\": 6563,
      "ĠTommy": 6564,
      "ĠBren": 6565,
      "ĠPre": 6566,
      "Ġvent": 6567,
      "Ġchosen": 6568,
      "ĠBrother": 6569,
      "Ġresponsible": 6570,
      "Ġmicro": 6571,
      "cope": 6572,
      "Ġsons": 6573,
      "oned": 6574,
      "isa": 6575,
      "Ġpants": 6576,
      "lear": 6577,
      "Ġbee": 6578,
      "ĠBilly": 6579,
      "ĠPop": 6580,
      "gel": 6581,
      "istic": 6582,
      "ĠKN": 6583,
      "ĠAsian": 6584,
      "Ġpickle": 6585,
      "ointment": 6586,
      "Ġsymp": 6587,
      "Ġincludes": 6588,
      "Ġchecked": 6589,
      "Ġpenny": 6590,
      "ĠRamsey": 6591,
      "Ġpalace": 6592,
      "Ġdistributed": 6593,
      "ipe": 6594,
      "sound": 6595,
      "Ġ:": 6596,
      "Ġtough": 6597,
      "Ġbuck": 6598,
      "acle": 6599,
      "Ġprepar": 6600,
      "Ġpicking": 6601,
      "Ġmethod": 6602,
      "Ġsnap": 6603,
      "Ġmaterial": 6604,
      "ĠMajesty": 6605,
      "ĠBavaria": 6606,
      "22": 6607,
      "Ġtim": 6608,
      "Ġpil": 6609,
      "emic": 6610,
      "Ġchampion": 6611,
      "Ġscreen": 6612,
      "Ġchop": 6613,
      "Ġcontr": 6614,
      "Ġresults": 6615,
      "ANG": 6616,
      "Ġmission": 6617,
      "Ġ60": 6618,
      "ĠPhilip": 6619,
      "Ġadvant": 6620,
      "Ġconcern": 6621,
      "ĠRodger": 6622,
      "AUG": 6623,
      "Ġaim": 6624,
      "iner": 6625,
      "Ġgirlfriend": 6626,
      "bey": 6627,
      "formed": 6628,
      "ancing": 6629,
      "anches": 6630,
      "ception": 6631,
      "Ġtransfer": 6632,
      "Ġprovince": 6633,
      "Ġentirely": 6634,
      "Ġnewspaper": 6635,
      "bow": 6636,
      "vy": 6637,
      "Ġbicycle": 6638,
      "ĠSto": 6639,
      "ĠAlf": 6640,
      "ĠWild": 6641,
      "stone": 6642,
      "ĠDet": 6643,
      "ocks": 6644,
      "Ġdesert": 6645,
      "Ġwatermelon": 6646,
      "OUT": 6647,
      "ĠTeam": 6648,
      "Ġconditions": 6649,
      "Ġinnocent": 6650,
      "cries": 6651,
      "fle": 6652,
      "mouth": 6653,
      "Ġtal": 6654,
      "hamed": 6655,
      "Ġmort": 6656,
      "Ġpit": 6657,
      "Ġhomes": 6658,
      "Ġbeer": 6659,
      "ĠGi": 6660,
      "ĠEach": 6661,
      "elia": 6662,
      "Ġtroops": 6663,
      "Ġfeather": 6664,
      "Ġapples": 6665,
      "Ġpaying": 6666,
      "Ġjobs": 6667,
      "Ġreceive": 6668,
      "name": 6669,
      "rot": 6670,
      "whe": 6671,
      "Ġmap": 6672,
      "Ġdessert": 6673,
      "ĠDire": 6674,
      "Ġrat": 6675,
      "Ġsche": 6676,
      "ESS": 6677,
      "Ġterrit": 6678,
      "Ġ1991": 6679,
      "Ġdelay": 6680,
      "ĠShould": 6681,
      "Ġdefeated": 6682,
      "Ġpipe": 6683,
      "Ġcredit": 6684,
      "ĠHAVE": 6685,
      "angaroo": 6686,
      ")}": 6687,
      "IE": 6688,
      "Ġbold": 6689,
      "sters": 6690,
      "thel": 6691,
      "Ġstands": 6692,
      "Ġrange": 6693,
      "Ġselling": 6694,
      "Ġdetermined": 6695,
      "Who": 6696,
      "Ġwestern": 6697,
      "referent": 6698,
      "Ġbon": 6699,
      "Ġcode": 6700,
      "ĠUK": 6701,
      "Ġcontent": 6702,
      "Ġrecently": 6703,
      "Ġraise": 6704,
      "Ġmeters": 6705,
      "Ġpainted": 6706,
      "umbling": 6707,
      "Ġcooking": 6708,
      "Ġdocument": 6709,
      "Ġjacket": 6710,
      "dess": 6711,
      "ios": 6712,
      "hem": 6713,
      "ĠTam": 6714,
      "Ġdozen": 6715,
      "ĠEs": 6716,
      "ĠJam": 6717,
      "Ġappointed": 6718,
      "Ġcutting": 6719,
      "Ġwaves": 6720,
      "Ġkissed": 6721,
      "talking": 6722,
      "Ġdescribed": 6723,
      "ĠHelp": 6724,
      "Ġslept": 6725,
      "Ġextremely": 6726,
      "Ġlonely": 6727,
      ".--": 6728,
      "Cause": 6729,
      "green": 6730,
      "Ġaid": 6731,
      "Ġcrew": 6732,
      "ĠInt": 6733,
      "ĠLy": 6734,
      "ĠEaster": 6735,
      "ulations": 6736,
      "Ġquit": 6737,
      "Ġguilty": 6738,
      "Ġtransl": 6739,
      "Ġcloset": 6740,
      "Ġsuggested": 6741,
      "Ġcollection": 6742,
      "Ġsuffered": 6743,
      "Ġwid": 6744,
      "ann": 6745,
      "Ġpure": 6746,
      "ĠSil": 6747,
      "Ġrent": 6748,
      "ĠWITH": 6749,
      "ĠHad": 6750,
      "ĠGal": 6751,
      "Ġrush": 6752,
      "ART": 6753,
      "igned": 6754,
      "Ġdesper": 6755,
      "Ġdrama": 6756,
      "Ġ1981": 6757,
      "ALL": 6758,
      "Ġcharacters": 6759,
      "Ġast": 6760,
      "Ġpiano": 6761,
      "athered": 6762,
      "ĠSH": 6763,
      "ĠWatch": 6764,
      "ĠHoney": 6765,
      "Ġ--": 6766,
      "ĠLie": 6767,
      "ĠFoot": 6768,
      "Ġresist": 6769,
      "Ġ186": 6770,
      "Ġsignific": 6771,
      "Ġdivided": 6772,
      "Ġissues": 6773,
      "Ġlocked": 6774,
      "ĠVermont": 6775,
      "ĠDepartment": 6776,
      "ĠCastle": 6777,
      "Ġsuspic": 6778,
      "Ġappreciate": 6779,
      "Whin": 6780,
      "iest": 6781,
      "Ã¦": 6782,
      "Ġwha": 6783,
      "ĠSub": 6784,
      "ĠALL": 6785,
      "Ġdose": 6786,
      "Ġshel": 6787,
      "Ġbranches": 6788,
      "issa": 6789,
      "Ġeaten": 6790,
      "Ġcrash": 6791,
      "Ġstudent": 6792,
      "Ġintrodu": 6793,
      "Ġperformance": 6794,
      "Ġsausage": 6795,
      "Ġsorrow": 6796,
      "Ġdump": 6797,
      "Ġbend": 6798,
      "ĠWin": 6799,
      "ĠNight": 6800,
      "ĠKen": 6801,
      "Ġotherwise": 6802,
      "Ġguitar": 6803,
      "Ġbitter": 6804,
      "Ġreports": 6805,
      "Ġtender": 6806,
      "ĠPrincess": 6807,
      "25": 6808,
      "ture": 6809,
      "Ġsigh": 6810,
      "Ġbid": 6811,
      "Ġhorn": 6812,
      "Ġbeast": 6813,
      "ĠBern": 6814,
      "ĠDown": 6815,
      "ĠGra": 6816,
      "Ġconv": 6817,
      "Ġconference": 6818,
      "Ġclip": 6819,
      "Ġmighty": 6820,
      "whoops": 6821,
      "Ġpulling": 6822,
      "Ġhorsie": 6823,
      "Ġshouted": 6824,
      "Ġhidden": 6825,
      "RY": 6826,
      "To": 6827,
      "Ġdust": 6828,
      "Ġaside": 6829,
      "Ġsees": 6830,
      "ĠEthel": 6831,
      "ateful": 6832,
      "Ġroles": 6833,
      "Ġswear": 6834,
      "ĠAnne": 6835,
      "Ġairport": 6836,
      "ĠProt": 6837,
      "UNC": 6838,
      "ĠCarl": 6839,
      "Ġavoid": 6840,
      "Ġdesigned": 6841,
      "Ġincrease": 6842,
      "Ġrubber": 6843,
      "ĠJacob": 6844,
      "De": 6845,
      "RA": 6846,
      "pol": 6847,
      "Ġtask": 6848,
      "Ġpile": 6849,
      "Ġinsp": 6850,
      "Ġgrant": 6851,
      "Ġglance": 6852,
      "Ġhurts": 6853,
      "Ġcereal": 6854,
      "ĠAnyway": 6855,
      "break": 6856,
      "ĠHungry": 6857,
      "MT": 6858,
      "Mac": 6859,
      "Uh": 6860,
      "cream": 6861,
      "Ġcone": 6862,
      "umn": 6863,
      "emies": 6864,
      "new": 6865,
      "ĠâĢĶ": 6866,
      "ĠAlice": 6867,
      "whines": 6868,
      "Ġhorrible": 6869,
      "Ġadmit": 6870,
      "Ġfellows": 6871,
      "Ġauthority": 6872,
      "Ġproducer": 6873,
      "Ġmagazine": 6874,
      "Ursula": 6875,
      "Whinney": 6876,
      "coh": 6877,
      "dear": 6878,
      "nuhhuh": 6879,
      "Ġtied": 6880,
      "noise": 6881,
      "ĠPL": 6882,
      "ĠOw": 6883,
      "ĠJones": 6884,
      "Ġplates": 6885,
      "were": 6886,
      "Ġbranch": 6887,
      "Ġ1993": 6888,
      "Ġpossess": 6889,
      "Ġincident": 6890,
      "Ġprize": 6891,
      "Ġhonour": 6892,
      "Ġsales": 6893,
      "Ġprovide": 6894,
      "Ġcrossed": 6895,
      "piece": 6896,
      "Ġpump": 6897,
      "aly": 6898,
      "ĠMusic": 6899,
      "Ġwealth": 6900,
      "rib": 6901,
      "amily": 6902,
      "stra": 6903,
      "Ġassoci": 6904,
      "ĠPra": 6905,
      "Ġrac": 6906,
      "ĠKansas": 6907,
      "Ġeats": 6908,
      "Ġfourteen": 6909,
      "Ġbecomes": 6910,
      "anche": 6911,
      "Ġdistur": 6912,
      "apping": 6913,
      "Ġattacked": 6914,
      "Ġprogramme": 6915,
      "Ġaffair": 6916,
      "Ġscratch": 6917,
      "Ġcounter": 6918,
      "Ġfalse": 6919,
      "KE": 6920,
      "Ġgy": 6921,
      "ĠYOUR": 6922,
      "ĠOpen": 6923,
      "Ġplus": 6924,
      "Ġfamiliar": 6925,
      "Ġ187": 6926,
      "Ġ1987": 6927,
      "comune": 6928,
      "ĠRepublican": 6929,
      "Ġseparate": 6930,
      "21": 6931,
      "esota": 6932,
      "owder": 6933,
      "imp": 6934,
      "Ġdey": 6935,
      "Ġspare": 6936,
      "Ġours": 6937,
      "ggy": 6938,
      "Ġsurface": 6939,
      "chair": 6940,
      "Ġ1997": 6941,
      "Ġinvol": 6942,
      "ĠBlue": 6943,
      "umbled": 6944,
      "ĠDanny": 6945,
      "Ġfailure": 6946,
      "Ġbeneath": 6947,
      "ĠMickey": 6948,
      "ĠSenate": 6949,
      "Did": 6950,
      "ko": 6951,
      "Ġbones": 6952,
      "Ġgather": 6953,
      "ĠAng": 6954,
      "Ġvalley": 6955,
      "Ġthrone": 6956,
      "ĠChic": 6957,
      "Ġchoo": 6958,
      "Ġfinancial": 6959,
      "eaking": 6960,
      "ĠJersey": 6961,
      "Ġstranger": 6962,
      "write": 6963,
      "ĠProfessor": 6964,
      "May": 6965,
      "foot": 6966,
      "Ġfart": 6967,
      "Ġgay": 6968,
      "raine": 6969,
      "eps": 6970,
      "Ġconce": 6971,
      "Ġoldest": 6972,
      "leted": 6973,
      "Ġrestaur": 6974,
      "Ġsymb": 6975,
      "Ġconfl": 6976,
      "Ġproposed": 6977,
      "Ġfolks": 6978,
      "bar": 6979,
      "him": 6980,
      "Ġfant": 6981,
      "Ġlic": 6982,
      "ali": 6983,
      "ĠSuch": 6984,
      "Ġspite": 6985,
      "Ġchase": 6986,
      "Ġtreasure": 6987,
      "ĠReport": 6988,
      "Here": 6989,
      "Ġpackage": 6990,
      "giving": 6991,
      "ĠMinnesota": 6992,
      "wide": 6993,
      "owing": 6994,
      "ĠHaw": 6995,
      "rol": 6996,
      "ĠLar": 6997,
      "ĠVol": 6998,
      "Ġremains": 6999,
      "ĠAsh": 7000,
      "Ġdrugs": 7001,
      "Ġanswers": 7002,
      "Ġ1972": 7003,
      "Ġexplained": 7004,
      "Ġoriginally": 7005,
      "Ġburned": 7006,
      "Ġactivist": 7007,
      "Ġcanton": 7008,
      "Ġnearer": 7009,
      "Ah": 7010,
      "GFA": 7011,
      "works": 7012,
      "ĠAwards": 7013,
      "Ġforms": 7014,
      "Ġstove": 7015,
      "Ġseats": 7016,
      "ĠFree": 7017,
      "Ġconsequ": 7018,
      "ĠUr": 7019,
      "Ġclay": 7020,
      "Ġcovers": 7021,
      "Ġobtain": 7022,
      "Ġ1988": 7023,
      "ĠLeon": 7024,
      "bbed": 7025,
      "ĠEverybody": 7026,
      "Ġtreatment": 7027,
      "Ġbelongs": 7028,
      "pensive": 7029,
      "Ġcottage": 7030,
      "Brian": 7031,
      "pitched": 7032,
      "Ġgained": 7033,
      "Ġgathered": 7034,
      "Ġnail": 7035,
      "about": 7036,
      "ĠLooks": 7037,
      "Ġstepped": 7038,
      "Ġdreadful": 7039,
      "Ġcomedy": 7040,
      "Ġobliged": 7041,
      "Ġder": 7042,
      "ora": 7043,
      "lyn": 7044,
      "ĠBon": 7045,
      "ĠDON": 7046,
      "ĠKnow": 7047,
      "Ġparties": 7048,
      "Ġattached": 7049,
      "Ġmoments": 7050,
      "Ġ1950": 7051,
      "inois": 7052,
      "Ġcompanion": 7053,
      "Ġperformed": 7054,
      "Ġdestroy": 7055,
      "Ġchampionship": 7056,
      "Ġchemical": 7057,
      "Ġstructure": 7058,
      "_.": 7059,
      "pick": 7060,
      "Ġhabit": 7061,
      "icate": 7062,
      "Ġbeans": 7063,
      "ĠAk": 7064,
      "sec": 7065,
      "ĠPo": 7066,
      "geon": 7067,
      "ĠHealth": 7068,
      "olar": 7069,
      "ĠStand": 7070,
      "Ġunp": 7071,
      "Ġcheeks": 7072,
      "uclear": 7073,
      "Ġhated": 7074,
      "ĠSpir": 7075,
      "ika": 7076,
      "ĠBenj": 7077,
      "Ġslightly": 7078,
      "Ġalphabet": 7079,
      "great": 7080,
      "Ġdough": 7081,
      "ĠSa": 7082,
      "Ġrefe": 7083,
      "ĠWater": 7084,
      "ĠWrest": 7085,
      "Ġsevere": 7086,
      "Ġracing": 7087,
      "Ġrooms": 7088,
      "Ġpassengers": 7089,
      "Ġreplaced": 7090,
      "Ġmurdered": 7091,
      "Ġsafely": 7092,
      "ĠAnton": 7093,
      "ĠTrans": 7094,
      "Ġdunno": 7095,
      "Ġaverage": 7096,
      "lings": 7097,
      "Ġfaint": 7098,
      "Ġlack": 7099,
      "Ġlink": 7100,
      "Ġheav": 7101,
      "ĠTon": 7102,
      "ĠRun": 7103,
      "Ġshake": 7104,
      "Ġhelps": 7105,
      "Ġrelief": 7106,
      "Ġstudies": 7107,
      "Ġ1989": 7108,
      "ĠTrump": 7109,
      "iverse": 7110,
      "ĠSteve": 7111,
      "ĠBertha": 7112,
      "Ġinfluence": 7113,
      "American": 7114,
      "Br": 7115,
      "WE": 7116,
      "Ġzzz": 7117,
      "orious": 7118,
      "ĠSC": 7119,
      "urd": 7120,
      "ĠPower": 7121,
      "ĠPerson": 7122,
      "usted": 7123,
      "igan": 7124,
      "ela": 7125,
      "Ġvain": 7126,
      "Ġjustice": 7127,
      "Ġgotten": 7128,
      "Ġproved": 7129,
      "Ġqueer": 7130,
      "bef": 7131,
      "Ġchallen": 7132,
      "Ġswall": 7133,
      "Ġcupcake": 7134,
      "ĠAgain": 7135,
      "Ġproperly": 7136,
      "Ġfeatures": 7137,
      "ĠIllinois": 7138,
      "pot": 7139,
      "wa": 7140,
      "Ã¤": 7141,
      "Ġwicked": 7142,
      "Ġmate": 7143,
      "icing": 7144,
      "Ġreck": 7145,
      "Ġmeasure": 7146,
      "akin": 7147,
      "issors": 7148,
      "Ġguests": 7149,
      "Ġchose": 7150,
      "Ġreality": 7151,
      "ĠEduc": 7152,
      "OULD": 7153,
      "Ġrepresented": 7154,
      "Ġwashers": 7155,
      "Ġindividual": 7156,
      "ĠAmericans": 7157,
      "ĠChicago": 7158,
      "bal": 7159,
      "hemat": 7160,
      "ĠSong": 7161,
      "uties": 7162,
      "Ġnick": 7163,
      "eable": 7164,
      "ĠOH": 7165,
      "ĠOl": 7166,
      "Ġcommer": 7167,
      "Ġenemies": 7168,
      "Ġdism": 7169,
      "Ġdisplay": 7170,
      "Ġpride": 7171,
      "Ġproof": 7172,
      "Ġhappiness": 7173,
      "iley": 7174,
      "Ġ35": 7175,
      "Ġ1985": 7176,
      "Ġconfess": 7177,
      "ĠSwiss": 7178,
      "Ġexperi": 7179,
      "ĠPolice": 7180,
      "Ġpropos": 7181,
      "Ġhunting": 7182,
      "ĠService": 7183,
      "Ġetc": 7184,
      "Fraser": 7185,
      "count": 7186,
      "Ġfreedom": 7187,
      "Ġrear": 7188,
      "Ġreward": 7189,
      "ĠHmm": 7190,
      "together": 7191,
      "ĠĠĠĠĠ": 7192,
      "ocr": 7193,
      "Ġknees": 7194,
      "ĠIndians": 7195,
      "ĠTele": 7196,
      "Ġlifted": 7197,
      "Ġobserved": 7198,
      "Ġbroadcast": 7199,
      "Ġsource": 7200,
      "Ġromantic": 7201,
      "Ġpregnant": 7202,
      "Ġsympat": 7203,
      "Ġeh": 7204,
      "ĠBang": 7205,
      "apt": 7206,
      "Ġunfortun": 7207,
      "Ġrecomm": 7208,
      "Ġsits": 7209,
      "Ġregret": 7210,
      "Ġsooner": 7211,
      "198": 7212,
      "Ġtaperecorder": 7213,
      "Ġrecognize": 7214,
      "Ġfurniture": 7215,
      "gly": 7216,
      "iation": 7217,
      "Ġsouthern": 7218,
      "erves": 7219,
      "ĠIII": 7220,
      "Ġgently": 7221,
      "ooke": 7222,
      "umes": 7223,
      "Ġability": 7224,
      "Ġsport": 7225,
      "owned": 7226,
      "rane": 7227,
      "Ġresident": 7228,
      "Ġwarri": 7229,
      "didn": 7230,
      "Ġsquee": 7231,
      "pointing": 7232,
      "Ġdelighted": 7233,
      "ĠMexican": 7234,
      "ĠVirginia": 7235,
      "Ġcircumstances": 7236,
      "MacWhinney": 7237,
      "When": 7238,
      "mpt": 7239,
      "Ġaston": 7240,
      "orter": 7241,
      "ĠIm": 7242,
      "Ġinn": 7243,
      "omed": 7244,
      "ĠHER": 7245,
      "Ġanno": 7246,
      "Ġbrush": 7247,
      "Ġplayers": 7248,
      "Ġguest": 7249,
      "iple": 7250,
      "Ġbegun": 7251,
      "Ġpointed": 7252,
      "Ġribb": 7253,
      "Ġmiserable": 7254,
      "Ġstatement": 7255,
      "Ġcowboy": 7256,
      "ĠJerry": 7257,
      "ĠStephen": 7258,
      "ropolitan": 7259,
      "ghan": 7260,
      "ju": 7261,
      "Ġwitch": 7262,
      "ĠTry": 7263,
      "oots": 7264,
      "ĠCub": 7265,
      "ĠPac": 7266,
      "ĠGames": 7267,
      "Ġgettin": 7268,
      "Ġagent": 7269,
      "neath": 7270,
      "Ġclient": 7271,
      "Ġappears": 7272,
      "Ġknee": 7273,
      "Ġbaseball": 7274,
      "Ġmarked": 7275,
      "Ġsplit": 7276,
      "ĠInstitute": 7277,
      "BER": 7278,
      "UM": 7279,
      "dro": 7280,
      "mi": 7281,
      "san": 7282,
      "rose": 7283,
      "umed": 7284,
      "ĠJr": 7285,
      "Ġcris": 7286,
      "Ġrelax": 7287,
      "ĠGrace": 7288,
      "Ġ1979": 7289,
      "Ġruled": 7290,
      "Ġdiscussion": 7291,
      "Ġintroduced": 7292,
      "olarship": 7293,
      "fish": 7294,
      "making": 7295,
      "Ġgang": 7296,
      "ĠSant": 7297,
      "Ġnib": 7298,
      "ĠWoo": 7299,
      "ĠBour": 7300,
      "ĠOb": 7301,
      "ĠHead": 7302,
      "Ġalarm": 7303,
      "berry": 7304,
      "Ġexpensive": 7305,
      "Ġmayor": 7306,
      "Ġbreast": 7307,
      "Ġwarning": 7308,
      "inson": 7309,
      "should": 7310,
      "Ġ1984": 7311,
      "197": 7312,
      "ĠPhilipp": 7313,
      "Ġsupported": 7314,
      "ĠRoad": 7315,
      "Ġassistant": 7316,
      "Ġoccurred": 7317,
      "As": 7318,
      "tes": 7319,
      "rels": 7320,
      "Ġgain": 7321,
      "ĠTar": 7322,
      "ĠShan": 7323,
      "Ġkick": 7324,
      "Ġjew": 7325,
      "ĠJUST": 7326,
      "Ġspark": 7327,
      "ĠKir": 7328,
      "ĠAndy": 7329,
      "pshire": 7330,
      "icted": 7331,
      "Ġresour": 7332,
      "ĠArmen": 7333,
      "Ġ1986": 7334,
      "Ġtravell": 7335,
      "Ġwaved": 7336,
      "ylvan": 7337,
      "ĠIraq": 7338,
      "ropriate": 7339,
      "!--": 7340,
      "win": 7341,
      "Ġign": 7342,
      "Ġtire": 7343,
      "Ġlob": 7344,
      "Ġstole": 7345,
      "ĠHurry": 7346,
      "Ġspect": 7347,
      "Ġwhenever": 7348,
      "ONE": 7349,
      "Ġ90": 7350,
      "ĠDaniel": 7351,
      "ĠMaggie": 7352,
      "ĠBelg": 7353,
      "ĠBrennan": 7354,
      "ĠBenjamin": 7355,
      "Are": 7356,
      "bab": 7357,
      "Ġx": 7358,
      "orne": 7359,
      "Ġmeas": 7360,
      "ĠDE": 7361,
      "ĠGro": 7362,
      "Ġaffect": 7363,
      "Ġfever": 7364,
      "atherine": 7365,
      "gets": 7366,
      "Ġcriter": 7367,
      "Ġreply": 7368,
      "Ġpolitics": 7369,
      "GRF": 7370,
      "ĠÃĸ": 7371,
      "ĠJewish": 7372,
      "ĠHeaven": 7373,
      "gues": 7374,
      "hun": 7375,
      "upp": 7376,
      "onies": 7377,
      "Ġfully": 7378,
      "ĠIan": 7379,
      "Ġthorough": 7380,
      "Ġwashed": 7381,
      "ĠFound": 7382,
      "Ġrang": 7383,
      "hib": 7384,
      "Ġawake": 7385,
      "Ġproduct": 7386,
      "turns": 7387,
      "ĠBetty": 7388,
      "ĠBesides": 7389,
      "OP": 7390,
      "cest": 7391,
      "heim": 7392,
      "ĠMove": 7393,
      "vering": 7394,
      "ĠKate": 7395,
      "udd": 7396,
      "ĠWere": 7397,
      "ĠInter": 7398,
      "rang": 7399,
      "adder": 7400,
      "aws": 7401,
      "Ġattended": 7402,
      "Ġdrunk": 7403,
      "dey": 7404,
      "Ġapproach": 7405,
      "Ġrequired": 7406,
      "Ġaccepted": 7407,
      "Ġtechn": 7408,
      "ĠFootball": 7409,
      "ev": 7410,
      "Ġwave": 7411,
      "rier": 7412,
      "Ġashamed": 7413,
      "elled": 7414,
      "gend": 7415,
      "intend": 7416,
      "shine": 7417,
      "Ġboxes": 7418,
      "Ġroads": 7419,
      "Ġdefeat": 7420,
      "Ġeffects": 7421,
      "Ġsuffering": 7422,
      "Ġimprove": 7423,
      "ĠJennie": 7424,
      "Ġneighborhood": 7425,
      "Ġarranged": 7426,
      "ĠKNOW": 7427,
      "SI": 7428,
      "Ġmuseum": 7429,
      "Ġfishing": 7430,
      "ĠSouthern": 7431,
      "ĠWalk": 7432,
      "ĠGun": 7433,
      "Ġimpl": 7434,
      "excuse": 7435,
      "Ġtribe": 7436,
      "Ġhorror": 7437,
      "Ġlanded": 7438,
      "196": 7439,
      "Ġlately": 7440,
      "Ġsending": 7441,
      "Ġprovided": 7442,
      "ĠLeave": 7443,
      "keeper": 7444,
      "nels": 7445,
      "hara": 7446,
      "Ġbrill": 7447,
      "Ġgreet": 7448,
      "Ġstack": 7449,
      "ĠCy": 7450,
      "ĠBus": 7451,
      "Ġash": 7452,
      "Ġwhist": 7453,
      "Ġjeal": 7454,
      "ĠJun": 7455,
      "Ġcomr": 7456,
      "Ġdollar": 7457,
      "Ġservants": 7458,
      "Ġoperation": 7459,
      "Ġphotograph": 7460,
      "Ġrapidly": 7461,
      "Ġjournalist": 7462,
      "LA": 7463,
      "nut": 7464,
      "Ġcraw": 7465,
      "Ġhesit": 7466,
      "ĠTay": 7467,
      "ĠARE": 7468,
      "ĠRIGHT": 7469,
      "osh": 7470,
      "oses": 7471,
      "ĠStella": 7472,
      "Ġdesire": 7473,
      "Ġtrem": 7474,
      "Ġwrites": 7475,
      "Ġillustr": 7476,
      "ĠCommittee": 7477,
      "ĠJackson": 7478,
      "Ġpresidential": 7479,
      "Ġcritical": 7480,
      "Ġbalance": 7481,
      "Ġconduct": 7482,
      "sembly": 7483,
      "erman": 7484,
      "Ġfile": 7485,
      "Ġpant": 7486,
      "arc": 7487,
      "ĠAB": 7488,
      "Ġsaving": 7489,
      "ques": 7490,
      "Ġgoodbye": 7491,
      "ender": 7492,
      "ĠVen": 7493,
      "ubs": 7494,
      "ĠAlso": 7495,
      "Ġsticking": 7496,
      "Ġinstit": 7497,
      "kesp": 7498,
      "Ġlesson": 7499,
      "Ġsalami": 7500,
      "doesn": 7501,
      "Ġhoped": 7502,
      "ĠNorway": 7503,
      "Ġrecognized": 7504,
      "Ġpersu": 7505,
      "Ġawarded": 7506,
      "Ġlatter": 7507,
      "Ġarchite": 7508,
      "gency": 7509,
      "hot": 7510,
      "Ġze": 7511,
      "ĠMiddle": 7512,
      "Ġugly": 7513,
      "Ġgoals": 7514,
      "ĠPoor": 7515,
      "Ġ(,": 7516,
      "Ġbrand": 7517,
      "Ġgray": 7518,
      "Ġkeys": 7519,
      "ĠAlan": 7520,
      "ĠClara": 7521,
      "Ġfleet": 7522,
      "Ġdamage": 7523,
      "Ġrevolution": 7524,
      "Ġvirus": 7525,
      "ĠOliver": 7526,
      "Ġmicrophone": 7527,
      "erry": 7528,
      "Ġox": 7529,
      "Ġbears": 7530,
      "ĠWat": 7531,
      "ĠWonder": 7532,
      "Ġstared": 7533,
      "ĠUP": 7534,
      "Ġrope": 7535,
      "Ġscissors": 7536,
      "Ġsecure": 7537,
      "Ġminor": 7538,
      "alend": 7539,
      "Ġaircraft": 7540,
      "Ġrecords": 7541,
      "Ġincred": 7542,
      "REAM": 7543,
      "Ġdaily": 7544,
      "Ġforests": 7545,
      "Ġautom": 7546,
      "ĠBattle": 7547,
      "Ġelder": 7548,
      "aunton": 7549,
      "contin": 7550,
      "',": 7551,
      "nice": 7552,
      "Ġbark": 7553,
      "iting": 7554,
      "Ġ[\"": 7555,
      "through": 7556,
      "olen": 7557,
      "cked": 7558,
      "ĠUs": 7559,
      "ints": 7560,
      "ĠLeo": 7561,
      "ĠFloss": 7562,
      "ĠWhoa": 7563,
      "Ġeventually": 7564,
      "Ġestate": 7565,
      "Ġslipped": 7566,
      "ĠScottish": 7567,
      "Ã³n": 7568,
      "Ġinvestigation": 7569,
      "ĠUkraine": 7570,
      "ĠBundle": 7571,
      "Ġwondered": 7572,
      "careful": 7573,
      "gment": 7574,
      "kind": 7575,
      "Ġtale": 7576,
      "Ġaye": 7577,
      "Ġodd": 7578,
      "Ġinha": 7579,
      "also": 7580,
      "ĠSpen": 7581,
      "ĠWars": 7582,
      "entine": 7583,
      "ĠBab": 7584,
      "ĠGET": 7585,
      "never": 7586,
      "Ġapparently": 7587,
      "Ġcommittee": 7588,
      "Ġprecious": 7589,
      "Ġstops": 7590,
      "Ġadvance": 7591,
      "Ġthrowing": 7592,
      "Ġhorseshoe": 7593,
      "OOK": 7594,
      "Ġmusical": 7595,
      "ĠJews": 7596,
      "Ġadvantage": 7597,
      "Ġconflict": 7598,
      "Ġjealous": 7599,
      "23": 7600,
      "TH": 7601,
      "hus": 7602,
      "nam": 7603,
      "pos": 7604,
      "zing": 7605,
      "Ġtoast": 7606,
      "Ġhook": 7607,
      "Ġthrill": 7608,
      "ĠSon": 7609,
      "ĠAthen": 7610,
      "sell": 7611,
      "ĠDam": 7612,
      "Ġbron": 7613,
      "Ġappeal": 7614,
      "Ġkindly": 7615,
      "Ġsupply": 7616,
      "Ġbelief": 7617,
      "ouncill": 7618,
      "Ġsounded": 7619,
      "Ġengaged": 7620,
      "Ġmunicipal": 7621,
      "Ġnetwork": 7622,
      "ylvania": 7623,
      "?âĢĻ": 7624,
      "Can": 7625,
      "UE": 7626,
      "lav": 7627,
      "shire": 7628,
      "Ġopt": 7629,
      "ĠTen": 7630,
      "Ġanger": 7631,
      "ĠNa": 7632,
      "Ġmyst": 7633,
      "ĠUE": 7634,
      "Ġstandard": 7635,
      "Ġ80": 7636,
      "hands": 7637,
      "Ġearnest": 7638,
      "Ġadventure": 7639,
      "ĠRevolution": 7640,
      "JAK": 7641,
      "uj": 7642,
      "Ġgiraffe": 7643,
      "ĠTem": 7644,
      "ĠJa": 7645,
      "ulate": 7646,
      "Ġseek": 7647,
      "ĠStone": 7648,
      "ĠStaunton": 7649,
      "Ġcompleted": 7650,
      "Ġgreatly": 7651,
      "door": 7652,
      "Ġadmir": 7653,
      "Ġequal": 7654,
      "Ġordinary": 7655,
      "Ġconnected": 7656,
      "ĠPrize": 7657,
      "Ġfocus": 7658,
      "ĠPictures": 7659,
      "Ġgraduated": 7660,
      "rac": 7661,
      "rate": 7662,
      "Ġpup": 7663,
      "asm": 7664,
      "Ġhunt": 7665,
      "riger": 7666,
      "Ġseized": 7667,
      "ĠPier": 7668,
      "ĠRangers": 7669,
      "ardy": 7670,
      "Ġunhappy": 7671,
      "zzy": 7672,
      "Ġ38": 7673,
      "Ġtrained": 7674,
      "Ġ1978": 7675,
      "coming": 7676,
      "Ġilleg": 7677,
      "Ġrolling": 7678,
      "ĠHampshire": 7679,
      "ĠFrancisco": 7680,
      "Ġescaped": 7681,
      "Just": 7682,
      "__": 7683,
      "sal": 7684,
      "Ġwow": 7685,
      "Ġfederal": 7686,
      "Ġstones": 7687,
      "ĠOs": 7688,
      "Ġtrunk": 7689,
      "upid": 7690,
      "Ġunf": 7691,
      "Ġdrum": 7692,
      "EST": 7693,
      "Ġcauses": 7694,
      "Ġstronger": 7695,
      "GRM": 7696,
      "Ġprisoner": 7697,
      "Ġtorn": 7698,
      "ĠRegion": 7699,
      "Ġelectric": 7700,
      "Ġsuffer": 7701,
      "Ġsatisfied": 7702,
      "gasps": 7703,
      "cohol": 7704,
      "ĠWrestling": 7705,
      "BAB": 7706,
      "ND": 7707,
      "oise": 7708,
      "thanks": 7709,
      "Ġsought": 7710,
      "Ġowe": 7711,
      "Ġhers": 7712,
      "Ġaltern": 7713,
      "ollo": 7714,
      "Ġflood": 7715,
      "Ġcontain": 7716,
      "Ġshower": 7717,
      "ensive": 7718,
      "Ġpassage": 7719,
      "ĠJanet": 7720,
      "Ġtremb": 7721,
      "Ġattacks": 7722,
      "Ġmurm": 7723,
      "Ġcosts": 7724,
      "hetti": 7725,
      "Ġwounded": 7726,
      "LI": 7727,
      "Mrs": 7728,
      "Thank": 7729,
      "iving": 7730,
      "lies": 7731,
      "ties": 7732,
      "Ġwoke": 7733,
      "Ġborrow": 7734,
      "ithe": 7735,
      "Ġnaught": 7736,
      "Ġnonsense": 7737,
      "amen": 7738,
      "ĠBow": 7739,
      "Ġdoctors": 7740,
      "Ġ\"'": 7741,
      "ĠPenn": 7742,
      "Ġupper": 7743,
      "Ġspr": 7744,
      "Ġboyfriend": 7745,
      "Ġsched": 7746,
      "ĠMayor": 7747,
      "Ġ1976": 7748,
      "Ġmagnetic": 7749,
      "Ġjumping": 7750,
      "Ġsecretary": 7751,
      "Ġsystems": 7752,
      "Ġequip": 7753,
      "ĠSweden": 7754,
      "Ġwing": 7755,
      "eding": 7756,
      "Ġpowers": 7757,
      "Ġhills": 7758,
      "ĠTower": 7759,
      "ript": 7760,
      "Ġseated": 7761,
      "ĠOrd": 7762,
      "ĠFre": 7763,
      "Ġsocks": 7764,
      "Ġspin": 7765,
      "ĠStay": 7766,
      "izes": 7767,
      "Ġunderneath": 7768,
      "Ġresolved": 7769,
      "ublic": 7770,
      "Ġfollows": 7771,
      "Ġinstru": 7772,
      "Ġawfully": 7773,
      "Ġclosely": 7774,
      "ĠGuard": 7775,
      "Ġdemonstr": 7776,
      "ĠAldworth": 7777,
      "Ġgarage": 7778,
      "Ġpizza": 7779,
      "sometimes": 7780,
      "bus": 7781,
      "even": 7782,
      "Ġcro": 7783,
      "Ġcash": 7784,
      "Ġpitch": 7785,
      "lets": 7786,
      "keys": 7787,
      "seven": 7788,
      "ĠHolly": 7789,
      "ĠCON": 7790,
      "ĠBam": 7791,
      "ĠBooth": 7792,
      "outhe": 7793,
      "ĠNurse": 7794,
      "ĠLight": 7795,
      "ĠĠĠ": 7796,
      "aka": 7797,
      "venue": 7798,
      "Ġpeanut": 7799,
      "Ġarmed": 7800,
      "Ġworkers": 7801,
      "Ġprince": 7802,
      "Ġrecall": 7803,
      "Ġconfidence": 7804,
      "ĠShall": 7805,
      "ĠRepresent": 7806,
      "Ġ1930": 7807,
      "Ġshopping": 7808,
      "Ġencoura": 7809,
      "Ġfarther": 7810,
      "iot": 7811,
      "west": 7812,
      "Ġdiss": 7813,
      "Ġdull": 7814,
      "Ġthirst": 7815,
      "ams": 7816,
      "ĠCaterpillar": 7817,
      "eare": 7818,
      "child": 7819,
      "ĠDog": 7820,
      "throw": 7821,
      "umble": 7822,
      "Ġhanded": 7823,
      "ĠBrooke": 7824,
      "Ġaccused": 7825,
      "Ġ1983": 7826,
      "ologist": 7827,
      "Ġmercy": 7828,
      "ĠEmily": 7829,
      "ĠCentre": 7830,
      "ĠIslamic": 7831,
      "Ar": 7832,
      "NON": 7833,
      "gle": 7834,
      "list": 7835,
      "Ġdom": 7836,
      "ĠAyl": 7837,
      "Ġtricks": 7838,
      "IST": 7839,
      "ĠTHERE": 7840,
      "Ġeighteen": 7841,
      "Ġanimated": 7842,
      "Ġsympt": 7843,
      "Ġeastern": 7844,
      "Ġ1969": 7845,
      "Ġofficially": 7846,
      "Ġdivision": 7847,
      "Ġplatform": 7848,
      "quarters": 7849,
      "Ġexchange": 7850,
      "ĠEducation": 7851,
      "ees": 7852,
      "iser": 7853,
      "Ġfenc": 7854,
      "orney": 7855,
      "ĠTha": 7856,
      "ĠWant": 7857,
      "ĠYep": 7858,
      "Ġsauce": 7859,
      "Ġarcher": 7860,
      "next": 7861,
      "Ġgrade": 7862,
      "alem": 7863,
      "Ġdecor": 7864,
      "Ġbloody": 7865,
      "ĠBerlin": 7866,
      "Ġfavourite": 7867,
      "Ġcurious": 7868,
      "rigerator": 7869,
      "On": 7870,
      "nis": 7871,
      "Ġcries": 7872,
      "Ġpushing": 7873,
      "ĠAub": 7874,
      "stant": 7875,
      "Ġkings": 7876,
      "ĠLau": 7877,
      "Ġjury": 7878,
      "gee": 7879,
      "ardo": 7880,
      "Ġspy": 7881,
      "ockey": 7882,
      "Ġrecent": 7883,
      "ï¿½ï¿½ï¿½": 7884,
      "Ġfarmer": 7885,
      "Ġache": 7886,
      "Ġchart": 7887,
      "ĠCla": 7888,
      "Ġdata": 7889,
      "Ġfactory": 7890,
      "Ġexplan": 7891,
      "Ġdrops": 7892,
      "Ġdisappointed": 7893,
      "Ġdifficulty": 7894,
      "ĠWales": 7895,
      "ynam": 7896,
      "Ġdelightful": 7897,
      "Ġbasketball": 7898,
      "Ġmanagement": 7899,
      "Ġmultiple": 7900,
      "Ġenvironmental": 7901,
      "NE": 7902,
      "aurs": 7903,
      "dri": 7904,
      "gra": 7905,
      "Ġwashing": 7906,
      "ĠCorn": 7907,
      "ĠBall": 7908,
      "ĠRaj": 7909,
      "ĠLes": 7910,
      "ieve": 7911,
      "quiet": 7912,
      "Ġprem": 7913,
      "Ġfunction": 7914,
      "Ġinstance": 7915,
      "Ġtrains": 7916,
      "Ġdrinks": 7917,
      "Ġ1968": 7918,
      "ĠAgent": 7919,
      "Ġdragon": 7920,
      "Ġhousing": 7921,
      "pretty": 7922,
      "ĠWelcome": 7923,
      "ĠSpirit": 7924,
      "ĠUEFA": 7925,
      "Com": 7926,
      "Go": 7927,
      "eight": 7928,
      "girl": 7929,
      "pher": 7930,
      "press": 7931,
      "said": 7932,
      "Ġlung": 7933,
      "ĠMouse": 7934,
      "Ġjail": 7935,
      "uls": 7936,
      "ĠKong": 7937,
      "ĠThus": 7938,
      "Ġbrings": 7939,
      "Ġpermission": 7940,
      "arson": 7941,
      "ĠDev": 7942,
      "ĠDeath": 7943,
      "aughters": 7944,
      "Ġinstr": 7945,
      "Ġ1982": 7946,
      "Ã¡n": 7947,
      "Ġvictims": 7948,
      "ĠAylmer": 7949,
      "OL": 7950,
      "bling": 7951,
      "Ġsings": 7952,
      "Ġben": 7953,
      "ington": 7954,
      "Ġgle": 7955,
      "ĠDun": 7956,
      "ĠRub": 7957,
      "Ġslip": 7958,
      "Ġcharged": 7959,
      "Ġhighly": 7960,
      "Ġsignal": 7961,
      "Ġsquir": 7962,
      "Ġtypes": 7963,
      "Ġbillion": 7964,
      "ĠSpencer": 7965,
      "fr": 7966,
      "hell": 7967,
      "erk": 7968,
      "Ġmac": 7969,
      "Ġmood": 7970,
      "orse": 7971,
      "atre": 7972,
      "ĠTilly": 7973,
      "ĠAra": 7974,
      "ĠHoo": 7975,
      "ĠBol": 7976,
      "ifts": 7977,
      "ĠRail": 7978,
      "Ġworn": 7979,
      "ĠKu": 7980,
      "Ġgrateful": 7981,
      "Ġunus": 7982,
      "Ġimage": 7983,
      "whose": 7984,
      "Ġpassion": 7985,
      "Ġreturns": 7986,
      "ĠGram": 7987,
      "ĠCarle": 7988,
      "ĠSomebody": 7989,
      "Ġmaintain": 7990,
      "Ġexperiment": 7991,
      "Ġprinci": 7992,
      "Ġspirits": 7993,
      "Ġscreaming": 7994,
      "ĠGolden": 7995,
      "Ġfrequ": 7996,
      "Ġnominated": 7997,
      "pur": 7998,
      "tw": 7999,
      "hall": 8000,
      "iry": 8001,
      "ĠBible": 8002,
      "ĠEnd": 8003,
      "resp": 8004,
      "Ġsmo": 8005,
      "Ġdese": 8006,
      "inned": 8007,
      "Ġhundreds": 8008,
      "Ġ1971": 8009,
      "Ġchairs": 8010,
      "Ġprior": 8011,
      "Ġamongst": 8012,
      "ĠNorthern": 8013,
      "ĠGreece": 8014,
      "ĠRyan": 8015,
      "ĠCompany": 8016,
      "Ġexercise": 8017,
      "Un": 8018,
      "mil": 8019,
      "Ġeth": 8020,
      "Ġlaughter": 8021,
      "ĠSel": 8022,
      "Ġforb": 8023,
      "ĠBell": 8024,
      "ĠYo": 8025,
      "opy": 8026,
      "ĠJO": 8027,
      "ĠJenny": 8028,
      "Ġaltogether": 8029,
      "ups": 8030,
      "Ġrealized": 8031,
      "ĠAfghan": 8032,
      "Ġinstant": 8033,
      "Ġintended": 8034,
      "Ġtempt": 8035,
      "Ġringing": 8036,
      "Ġteachers": 8037,
      "Ġfortun": 8038,
      "ĠHelen": 8039,
      "Ġphysical": 8040,
      "ĠRoger": 8041,
      "gins": 8042,
      "uits": 8043,
      "wis": 8044,
      "Ġgal": 8045,
      "ĠSister": 8046,
      "rily": 8047,
      "ĠHong": 8048,
      "ĠHoly": 8049,
      "ĠCa": 8050,
      "ĠNations": 8051,
      "ĠLuke": 8052,
      "Ġsav": 8053,
      "oli": 8054,
      "hant": 8055,
      "agon": 8056,
      "Ġfeast": 8057,
      "ĠSoon": 8058,
      "Ġflash": 8059,
      "Ġ37": 8060,
      "Ġcheap": 8061,
      "Ġcommitted": 8062,
      "Ġhumans": 8063,
      "reading": 8064,
      "Ġ1945": 8065,
      "Ġprotection": 8066,
      "Ġdetails": 8067,
      "Ġpattern": 8068,
      "Ġvolume": 8069,
      "ĠBasil": 8070,
      "ĠMoscow": 8071,
      "Ġagreement": 8072,
      "ĠLieutenant": 8073,
      "Ġequipment": 8074,
      "Bill": 8075,
      "GE": 8076,
      "Miss": 8077,
      "PS": 8078,
      "des": 8079,
      "mings": 8080,
      "och": 8081,
      "py": 8082,
      "vard": 8083,
      "Ġboot": 8084,
      "anny": 8085,
      "omi": 8086,
      "omer": 8087,
      "ĠAha": 8088,
      "ĠMAN": 8089,
      "ĠNana": 8090,
      "unting": 8091,
      "ĠGriff": 8092,
      "ĠFle": 8093,
      "Ġplot": 8094,
      "Ġsuffic": 8095,
      "actor": 8096,
      "Ġcolored": 8097,
      "ibly": 8098,
      "Ġconsult": 8099,
      "iversal": 8100,
      "Ġsigns": 8101,
      "ĠAbs": 8102,
      "Ġmillions": 8103,
      "Ġmistress": 8104,
      "ĠSecurity": 8105,
      "Ġstruggle": 8106,
      "ĠFilm": 8107,
      "ufact": 8108,
      "bird": 8109,
      "paper": 8110,
      "Ġwinner": 8111,
      "Ġwolf": 8112,
      "Ġdiamond": 8113,
      "lying": 8114,
      "ĠRap": 8115,
      "ĠJay": 8116,
      "Ġrude": 8117,
      "Ġshy": 8118,
      "Ġcarpet": 8119,
      "uced": 8120,
      "Ġevolution": 8121,
      "Ġcorpor": 8122,
      "shakes": 8123,
      "gro": 8124,
      "uing": 8125,
      "Ġpond": 8126,
      "Ġlem": 8127,
      "Ġhipp": 8128,
      "ĠTa": 8129,
      "ĠSud": 8130,
      "Ġlif": 8131,
      "ĠEastern": 8132,
      "ieur": 8133,
      "Ġdece": 8134,
      "Ġvast": 8135,
      "obal": 8136,
      "Ġelev": 8137,
      "Ġminds": 8138,
      "Ġinterrup": 8139,
      "Ġfootballer": 8140,
      "yyy": 8141,
      "Ġauthorities": 8142,
      "Ġwhisper": 8143,
      "Ġlabel": 8144,
      "Ġincreased": 8145,
      "Ġsexual": 8146,
      "Ġconnection": 8147,
      "ĠMelissa": 8148,
      "Ġscientific": 8149,
      "kespeare": 8150,
      "belt": 8151,
      "gives": 8152,
      "vet": 8153,
      "Ġbore": 8154,
      "Ġdrain": 8155,
      "Ġdirt": 8156,
      "Ġgum": 8157,
      "Ġlamb": 8158,
      "ĠSky": 8159,
      "Ġwebs": 8160,
      "amm": 8161,
      "ĠDie": 8162,
      "ĠFriend": 8163,
      "ĠFestival": 8164,
      "Ġvice": 8165,
      "ferences": 8166,
      "venge": 8167,
      "Ġcricket": 8168,
      "Ġnights": 8169,
      "ĠAss": 8170,
      "ĠAsia": 8171,
      "Ġearned": 8172,
      "Ġimportance": 8173,
      "Ġillness": 8174,
      "Ġcerem": 8175,
      "Ġdisappear": 8176,
      "Ġbelonged": 8177,
      "Ġneighbour": 8178,
      "porary": 8179,
      "Ġresponsibility": 8180,
      "Ġeagerly": 8181,
      "ĠRaymond": 8182,
      "Ġrescue": 8183,
      "Ġdivorce": 8184,
      "ĠTaylor": 8185,
      "KID": 8186,
      "TV": 8187,
      "kitty": 8188,
      "ĠHIS": 8189,
      "Ġdu": 8190,
      "Ġdining": 8191,
      "ĠSand": 8192,
      "ĠSweet": 8193,
      "ĠAmb": 8194,
      "ĠBird": 8195,
      "Ġancest": 8196,
      "ĠDale": 8197,
      "ifer": 8198,
      "ĠFer": 8199,
      "ĠFat": 8200,
      "Ġjoint": 8201,
      "ulated": 8202,
      "ĠVaud": 8203,
      "Ġletting": 8204,
      "onscious": 8205,
      "Ġactual": 8206,
      "Ġ34": 8207,
      "Ġsets": 8208,
      "ĠNewman": 8209,
      "Ġmathemat": 8210,
      "Ġfriendship": 8211,
      "Ġimpact": 8212,
      "ĠSyrian": 8213,
      "Ġtechnology": 8214,
      "ĠDesmond": 8215,
      "Ġscientists": 8216,
      "Ġaccompl": 8217,
      "Ġfolk": 8218,
      "ĠHuman": 8219,
      "Ġstroke": 8220,
      "Ġbrilliant": 8221,
      "ĠFlossie": 8222,
      "fa": 8223,
      "sylvania": 8224,
      "ugh": 8225,
      "uous": 8226,
      "Ġtent": 8227,
      "isl": 8228,
      "ĠAS": 8229,
      "ĠOUT": 8230,
      "ĠRi": 8231,
      "ĠRimb": 8232,
      "Ġsoap": 8233,
      "ppers": 8234,
      "Ġalcohol": 8235,
      "issy": 8236,
      "Ġsixth": 8237,
      "Ġ500": 8238,
      "ĠChampionships": 8239,
      "Donald": 8240,
      "Ġbenefit": 8241,
      "Ġcabin": 8242,
      "Ġaudience": 8243,
      "Ġoccupied": 8244,
      "ĠDougl": 8245,
      "ĠOffice": 8246,
      "Per": 8247,
      "yard": 8248,
      "zy": 8249,
      "Ġta": 8250,
      "Ġpoll": 8251,
      "amas": 8252,
      "ĠCAN": 8253,
      "Ġ\"_": 8254,
      "icken": 8255,
      "agger": 8256,
      "aghetti": 8257,
      "Ġunknown": 8258,
      "Ġ44": 8259,
      "Ġdistingu": 8260,
      "Ġdriven": 8261,
      "Ġimpati": 8262,
      "Ġ1977": 8263,
      "zech": 8264,
      "Ġ1964": 8265,
      "ĠConf": 8266,
      "Ġclimbed": 8267,
      "III": 8268,
      "ĠJimmy": 8269,
      "ĠBobby": 8270,
      "arrass": 8271,
      "Ġmotorcy": 8272,
      "Ġvotes": 8273,
      "phew": 8274,
      "ĠPortugal": 8275,
      "ĠGeorgia": 8276,
      "bi": 8277,
      "Ġ;": 8278,
      "ito": 8279,
      "Ġmas": 8280,
      "Ġpanc": 8281,
      "ĠCOM": 8282,
      "ĠDuck": 8283,
      "ĠPoint": 8284,
      "ĠEp": 8285,
      "geant": 8286,
      "ivity": 8287,
      "ĠNews": 8288,
      "Ġretire": 8289,
      "Ġcolour": 8290,
      "standing": 8291,
      "Ġskill": 8292,
      "Ġsunshine": 8293,
      "ĠKeith": 8294,
      "stitution": 8295,
      "Ġindustrial": 8296,
      "Ġsenior": 8297,
      "Ġrestaurant": 8298,
      "Ġnibbled": 8299,
      "bie": 8300,
      "tons": 8301,
      "Ġwire": 8302,
      "enes": 8303,
      "ĠMans": 8304,
      "adium": 8305,
      "iro": 8306,
      "Ġstupid": 8307,
      "ĠBishop": 8308,
      "Ġnephew": 8309,
      "ighed": 8310,
      "Ġvoted": 8311,
      "ĠUnt": 8312,
      "ordan": 8313,
      "Ġcoal": 8314,
      "Ġ36": 8315,
      "Ġsurgery": 8316,
      "Ġentrance": 8317,
      "Ġawesome": 8318,
      "Ġgrandma": 8319,
      "Ġexpecting": 8320,
      "Ġstarring": 8321,
      "ĠDora": 8322,
      "somebody": 8323,
      "Ġdawn": 8324,
      "Ġproduce": 8325,
      "ĠTwenty": 8326,
      "Ġdoggy": 8327,
      "Ġargument": 8328,
      "ĠBarbara": 8329,
      "Ġevidently": 8330,
      "lace": 8331,
      "Ġward": 8332,
      "ĠTrain": 8333,
      "ĠMust": 8334,
      "Ġnuclear": 8335,
      "Ġmechan": 8336,
      "Ġseasons": 8337,
      "ĠGor": 8338,
      "quick": 8339,
      "ivered": 8340,
      "Ġunit": 8341,
      "aval": 8342,
      "ĠChuck": 8343,
      "Ġslave": 8344,
      "lessly": 8345,
      "Ġvisitors": 8346,
      "kyo": 8347,
      "Ġworthy": 8348,
      "Ġaffairs": 8349,
      "Ġfoolish": 8350,
      "Ġinjured": 8351,
      "Ġapologize": 8352,
      "God": 8353,
      "]...": 8354,
      "sn": 8355,
      "Ġax": 8356,
      "eral": 8357,
      "nda": 8358,
      "Ġmile": 8359,
      "Ġcig": 8360,
      "lly": 8361,
      "aned": 8362,
      "Ġincome": 8363,
      "Ġbeings": 8364,
      "Ġstolen": 8365,
      "Ġkangaroo": 8366,
      "Ġselected": 8367,
      "ĠIslands": 8368,
      "Ġswift": 8369,
      "Ġ45": 8370,
      "Ġ185": 8371,
      "ĠIndepend": 8372,
      "Ġshortly": 8373,
      "Ġ1946": 8374,
      "Ġcurtain": 8375,
      "ervative": 8376,
      "Ġpurse": 8377,
      "ĠGreater": 8378,
      "Ġhealthy": 8379,
      "ĠOxfordshire": 8380,
      "hetic": 8381,
      "ĠCambridge": 8382,
      "Ġsucceeded": 8383,
      "Ġconstitu": 8384,
      "Ġchallenge": 8385,
      "Ġsymptoms": 8386,
      "ĠDouglas": 8387,
      "AC": 8388,
      "bro": 8389,
      "Ġcert": 8390,
      "Ġfate": 8391,
      "Ġlod": 8392,
      "utions": 8393,
      "ĠBunny": 8394,
      "stick": 8395,
      "ĠPass": 8396,
      "ĠNE": 8397,
      "them": 8398,
      "ĠVill": 8399,
      "Ġ33": 8400,
      "Ġharder": 8401,
      "Ġconfused": 8402,
      "Ġsteel": 8403,
      "ĠMean": 8404,
      "Ġcontroll": 8405,
      "Ġviolence": 8406,
      "Ġconcert": 8407,
      "probably": 8408,
      "Ġholidays": 8409,
      "ĠArgentina": 8410,
      "Ġsolemn": 8411,
      "Ġcrisis": 8412,
      "24": 8413,
      "Your": 8414,
      "sw": 8415,
      "sur": 8416,
      "Ġtrop": 8417,
      "Ġbent": 8418,
      "Ġyer": 8419,
      "Ġloyal": 8420,
      "ĠMod": 8421,
      "ĠWolf": 8422,
      "Ġshed": 8423,
      "hia": 8424,
      "Ġconcl": 8425,
      "Ġmanufact": 8426,
      "agno": 8427,
      "Ġmob": 8428,
      "Ġmothers": 8429,
      "Ġbelt": 8430,
      "Ġslaves": 8431,
      "Ġ1959": 8432,
      "Ġrequire": 8433,
      "Ġmajority": 8434,
      "OOD": 8435,
      "ĠRomans": 8436,
      "ĠRimbolt": 8437,
      "JO": 8438,
      "gs": 8439,
      "Ġwre": 8440,
      "Ġfuss": 8441,
      "enger": 8442,
      "arms": 8443,
      "ĠAuthor": 8444,
      "Ġrejo": 8445,
      "Ġstool": 8446,
      "Ġgolf": 8447,
      "Ġshit": 8448,
      "Ġuncom": 8449,
      "Ġremove": 8450,
      "Ġasks": 8451,
      "Ġsmooth": 8452,
      "Ġboom": 8453,
      "Ġsixteen": 8454,
      "pected": 8455,
      "Ġconscious": 8456,
      "Ġdirections": 8457,
      "Ġtrail": 8458,
      "Ġ1974": 8459,
      "Ġconfir": 8460,
      "Ġpurcha": 8461,
      "ĠRussians": 8462,
      "ĠCommun": 8463,
      "Ġorganized": 8464,
      "Ġactivity": 8465,
      "Ġcaptured": 8466,
      "Ġculture": 8467,
      "Ġnursery": 8468,
      "rifice": 8469,
      "Ġadopted": 8470,
      "Ġcitizens": 8471,
      "Ġresources": 8472,
      "Look": 8473,
      "TP": 8474,
      "won": 8475,
      "Ã±": 8476,
      "ĠTop": 8477,
      "Ġdeer": 8478,
      "Ġrhy": 8479,
      "aging": 8480,
      "uckle": 8481,
      "Ġacted": 8482,
      "ection": 8483,
      "Ġpreviously": 8484,
      "Ġartists": 8485,
      "ĠShakespeare": 8486,
      "Ġoccas": 8487,
      "Ġpretending": 8488,
      "magnet": 8489,
      "Ġembarrass": 8490,
      "Ġscheme": 8491,
      "Dad": 8492,
      "sorry": 8493,
      "Ġcord": 8494,
      "Ġfox": 8495,
      "Ġpressed": 8496,
      "Ġpardon": 8497,
      "Ġonline": 8498,
      "ĠTalk": 8499,
      "ĠOffic": 8500,
      "abor": 8501,
      "Ġsprang": 8502,
      "Ġcliff": 8503,
      "Ġfled": 8504,
      "Ġperform": 8505,
      "Ġconsist": 8506,
      "Ġloving": 8507,
      "ĠTokyo": 8508,
      "UNT": 8509,
      "Ġpresented": 8510,
      "Ġproducts": 8511,
      "Ġfaithful": 8512,
      "Ġeconomic": 8513,
      "ĠHIM": 8514,
      "ĠColumbia": 8515,
      "Fran": 8516,
      "ji": 8517,
      "lon": 8518,
      "pre": 8519,
      "pal": 8520,
      "uv": 8521,
      "Ġpapa": 8522,
      "Ġinfe": 8523,
      "ĠSnow": 8524,
      "enters": 8525,
      "ĠHay": 8526,
      "ĠCher": 8527,
      "ĠCzech": 8528,
      "ĠNich": 8529,
      "Ġconvin": 8530,
      "Ġunable": 8531,
      "gedy": 8532,
      "Ġindign": 8533,
      "Ġthirteen": 8534,
      "Ġlands": 8535,
      "Ġ1975": 8536,
      "ipper": 8537,
      "ASE": 8538,
      "Ġtemple": 8539,
      "Ġrolled": 8540,
      "ĠAnything": 8541,
      "Ġpretends": 8542,
      "Ġdelicate": 8543,
      "burgh": 8544,
      "ĠDragon": 8545,
      "ĠReliance": 8546,
      "Ġcamps": 8547,
      "80": 8548,
      "For": 8549,
      "hop": 8550,
      "jump": 8551,
      "uals": 8552,
      "Ġduties": 8553,
      "ĠToo": 8554,
      "ĠBY": 8555,
      "Ġkil": 8556,
      "ĠRus": 8557,
      "ĠRuth": 8558,
      "ĠLad": 8559,
      "Ġshining": 8560,
      "Ġcomin": 8561,
      "Ġcommit": 8562,
      "ĠForm": 8563,
      "Ġhath": 8564,
      "Ġpops": 8565,
      "Ġarticle": 8566,
      "Ġ1947": 8567,
      "flies": 8568,
      "ĠXX": 8569,
      "ferring": 8570,
      "Ġbanks": 8571,
      "Ġhistorical": 8572,
      "Ġcheerful": 8573,
      "screams": 8574,
      "Ġheavily": 8575,
      "BI": 8576,
      "LING": 8577,
      "cing": 8578,
      "mitted": 8579,
      "rad": 8580,
      "sun": 8581,
      "Ġfo": 8582,
      "alo": 8583,
      "riam": 8584,
      "ĠPak": 8585,
      "ĠNep": 8586,
      "ĠKira": 8587,
      "Ġpepper": 8588,
      "Ġquality": 8589,
      "Ġfounder": 8590,
      "ports": 8591,
      "Ġopens": 8592,
      "ĠAnth": 8593,
      "Ġbeds": 8594,
      "Ġcharges": 8595,
      "Ġsyll": 8596,
      "Ġchairman": 8597,
      "ĠDrum": 8598,
      "ĠWithout": 8599,
      "ĠCenter": 8600,
      "Ġanxiety": 8601,
      "Ġpossibility": 8602,
      "Ġhammer": 8603,
      "Ġgazed": 8604,
      "Ġemergency": 8605,
      "ĠTurkish": 8606,
      "Ġcage": 8607,
      "Ġgrain": 8608,
      "ĠTak": 8609,
      "uto": 8610,
      "Ġstrain": 8611,
      "ĠCart": 8612,
      "eau": 8613,
      "Ġvirt": 8614,
      "ogne": 8615,
      "Ġteen": 8616,
      "Ġkeen": 8617,
      "Ġkinda": 8618,
      "Ġcommission": 8619,
      "Ġmarble": 8620,
      "ĠTHEY": 8621,
      "Ġbasis": 8622,
      "Ġmarks": 8623,
      "Ġclasses": 8624,
      "Ġadvanced": 8625,
      "Ġpacked": 8626,
      "Ġcompanions": 8627,
      "adesh": 8628,
      "Ġpersons": 8629,
      "Ġblew": 8630,
      "Ġcandidate": 8631,
      "Ġsymbol": 8632,
      "MAN": 8633,
      "SC": 8634,
      "iber": 8635,
      "jack": 8636,
      "lock": 8637,
      "Ãª": 8638,
      "otton": 8639,
      "ĠHit": 8640,
      "Ġje": 8641,
      "Ġspeaks": 8642,
      "Ġflu": 8643,
      "ogue": 8644,
      "Ġchanging": 8645,
      "ĠChristopher": 8646,
      "Ġdressing": 8647,
      "Ġpuppy": 8648,
      "Ġdrawer": 8649,
      "holding": 8650,
      "Ġorganis": 8651,
      "ĠMilan": 8652,
      "ĠÂ¶": 8653,
      "ĠEsther": 8654,
      "ACK": 8655,
      "UL": 8656,
      "bad": 8657,
      "Ġsore": 8658,
      "Ġinse": 8659,
      "Ġincl": 8660,
      "ĠHank": 8661,
      "starts": 8662,
      "ĠNord": 8663,
      "Ġsheet": 8664,
      "olas": 8665,
      "Ġshove": 8666,
      "ĠThrough": 8667,
      "Ġdisag": 8668,
      "Ġbottles": 8669,
      "ĠChampion": 8670,
      "Ġpointing": 8671,
      "Ġ1956": 8672,
      "ĠSeven": 8673,
      "ĠColin": 8674,
      "Ġcomplex": 8675,
      "Ġbreathe": 8676,
      "ĠPolish": 8677,
      "Ġlaunch": 8678,
      "Ġactivities": 8679,
      "ĠScholarship": 8680,
      "Ġticket": 8681,
      "ĠBrazilian": 8682,
      "elephan": 8683,
      "Ġthoroughly": 8684,
      "LIN": 8685,
      "zburg": 8686,
      "Ġcents": 8687,
      "Ġcows": 8688,
      "Ġdared": 8689,
      "arant": 8690,
      "ĠThing": 8691,
      "almost": 8692,
      "ĠSit": 8693,
      "ĠMid": 8694,
      "ĠBal": 8695,
      "unte": 8696,
      "nah": 8697,
      "Ġvic": 8698,
      "Ġtray": 8699,
      "Ġpronounced": 8700,
      "Ġflies": 8701,
      "Ġcompared": 8702,
      "Ġbuying": 8703,
      "ĠReady": 8704,
      "Ġumbre": 8705,
      "Ġstays": 8706,
      "ĠChair": 8707,
      "Ġyoungest": 8708,
      "ĠJustice": 8709,
      "ĠPlan": 8710,
      "ĠColonel": 8711,
      "Ġtouching": 8712,
      "Ġmistakes": 8713,
      "Ġprograms": 8714,
      "Ġestablish": 8715,
      "Ġclaims": 8716,
      "Ġefforts": 8717,
      "Ġinquired": 8718,
      "Ġdiscover": 8719,
      "ĠPersonal": 8720,
      "ĠPennsylvania": 8721,
      "FE": 8722,
      "find": 8723,
      "iar": 8724,
      "Ġmum": 8725,
      "Ġcalend": 8726,
      "Ġdea": 8727,
      "Ġfed": 8728,
      "Ġfare": 8729,
      "Ġpunch": 8730,
      "Ġpoured": 8731,
      "Ġhom": 8732,
      "ĠSab": 8733,
      "ĠAD": 8734,
      "ĠAren": 8735,
      "ĠBart": 8736,
      "unched": 8737,
      "Ġfee": 8738,
      "Ġdisg": 8739,
      "Ġ39": 8740,
      "ĠAnna": 8741,
      "Ġelections": 8742,
      "Ġcapable": 8743,
      "Ġbasically": 8744,
      "ruct": 8745,
      "Ġ1967": 8746,
      "Ġ1940": 8747,
      "Ġstores": 8748,
      "ĠCommission": 8749,
      "Ġvalu": 8750,
      "Ġwaters": 8751,
      "ĠTurkey": 8752,
      "Ġthreatened": 8753,
      "Ġdegrees": 8754,
      "Ġï¿½ï¿½ï¿½ï¿½ï¿½ï¿½ï¿½ï¿½": 8755,
      "ĠKorea": 8756,
      "ĠScarfe": 8757,
      "away": 8758,
      "tie": 8759,
      "Ġmamma": 8760,
      "Ġdaughters": 8761,
      "Ġfits": 8762,
      "Ġtoe": 8763,
      "Ġlit": 8764,
      "ĠCe": 8765,
      "ĠDear": 8766,
      "ĠFÃ¼": 8767,
      "Ġnegot": 8768,
      "Ġaloud": 8769,
      "Ġvision": 8770,
      "cipl": 8771,
      "Ġbetray": 8772,
      "teenth": 8773,
      "Ġmarch": 8774,
      "ĠApollo": 8775,
      "comm": 8776,
      "Ġ1948": 8777,
      "Ġcops": 8778,
      "Ġlabor": 8779,
      "ĠPatrick": 8780,
      "cipal": 8781,
      "Ġachieve": 8782,
      "Ġprospect": 8783,
      "ĠDirector": 8784,
      "ĠUntil": 8785,
      "found": 8786,
      "hors": 8787,
      "lar": 8788,
      "lers": 8789,
      "pat": 8790,
      "rend": 8791,
      "Ġbishop": 8792,
      "Ġpenn": 8793,
      "asp": 8794,
      "Ġbegged": 8795,
      "ĠMem": 8796,
      "ademic": 8797,
      "sex": 8798,
      "ĠHur": 8799,
      "ĠDoub": 8800,
      "ĠLO": 8801,
      "ĠEight": 8802,
      "ousins": 8803,
      "ARS": 8804,
      "Ġunits": 8805,
      "Ġframe": 8806,
      "Ġtriangle": 8807,
      "Ġhorrid": 8808,
      "Ġeditor": 8809,
      "Ġcleaning": 8810,
      "Ġhopes": 8811,
      "ĠPoland": 8812,
      "Ġstatue": 8813,
      "Ġspending": 8814,
      "ĠIrene": 8815,
      "ĠMetropolitan": 8816,
      "Ġtroubles": 8817,
      "ĠGirls": 8818,
      "Ġfierce": 8819,
      "ĠJungle": 8820,
      "ĠLincol": 8821,
      "ĠPLAY": 8822,
      "26": 8823,
      "zes": 8824,
      "Ġtales": 8825,
      "ndry": 8826,
      "Ġbay": 8827,
      "Ġbord": 8828,
      "Ġdomin": 8829,
      "Ġladder": 8830,
      "Ġthief": 8831,
      "ĠPy": 8832,
      "igen": 8833,
      "eline": 8834,
      "thew": 8835,
      "mann": 8836,
      "Ġending": 8837,
      "Ġprec": 8838,
      "Ġbits": 8839,
      "Ġenthus": 8840,
      "Ġbearing": 8841,
      "Ġgrape": 8842,
      "Ġadmitted": 8843,
      "Ġpotato": 8844,
      "Ġraining": 8845,
      "Ġclothing": 8846,
      "Ġbreathing": 8847,
      "ĠMcC": 8848,
      "Ġdinosaurs": 8849,
      "ĠSingh": 8850,
      "Ġmerely": 8851,
      "continues": 8852,
      "ĠDrummond": 8853,
      "Ġenthusi": 8854,
      "LES": 8855,
      "lay": 8856,
      "life": 8857,
      "referring": 8858,
      "Ġsne": 8859,
      "Ġbree": 8860,
      "Ġded": 8861,
      "Ġdign": 8862,
      "aling": 8863,
      "ĠMoon": 8864,
      "amps": 8865,
      "ĠRaby": 8866,
      "ophy": 8867,
      "oples": 8868,
      "ĠFind": 8869,
      "ummhm": 8870,
      "Ġjam": 8871,
      "Ġrum": 8872,
      "istics": 8873,
      "Ġexha": 8874,
      "people": 8875,
      "bec": 8876,
      "Ġhappily": 8877,
      "addle": 8878,
      "Ġimpr": 8879,
      "Ġchildhood": 8880,
      "onsieur": 8881,
      "Ġglanced": 8882,
      "Ġdistinct": 8883,
      "ĠClare": 8884,
      "Ġ1973": 8885,
      "Ġparliament": 8886,
      "Ġfigured": 8887,
      "Ġsneak": 8888,
      "Ġdrag": 8889,
      "someone": 8890,
      "help": 8891,
      "Ġsubjects": 8892,
      "ĠLiber": 8893,
      "ĠHungary": 8894,
      "Ġexistence": 8895,
      "ĠWindows": 8896,
      "Ġvacation": 8897,
      "ĠForest": 8898,
      "Ġdesperate": 8899,
      "Ġcommercial": 8900,
      "Ġignor": 8901,
      "pie": 8902,
      "sa": 8903,
      "squ": 8904,
      "ĠIce": 8905,
      "utiful": 8906,
      "ĠCad": 8907,
      "ĠBUT": 8908,
      "Ġsector": 8909,
      "ĠRh": 8910,
      "ĠRoy": 8911,
      "ths": 8912,
      "Ġaband": 8913,
      "Ġanyhow": 8914,
      "Ġchill": 8915,
      "ĠMargot": 8916,
      "awa": 8917,
      "gging": 8918,
      "force": 8919,
      "Ġrelative": 8920,
      "ÃŃn": 8921,
      "Ġ1965": 8922,
      "Ġviews": 8923,
      "Ġrepeat": 8924,
      "ĠSupp": 8925,
      "Ġaffected": 8926,
      "pulls": 8927,
      "Ġfeathers": 8928,
      "Ġbronze": 8929,
      "Ġillegal": 8930,
      "At": 8931,
      "eh": 8932,
      "Ġtummy": 8933,
      "Ġsin": 8934,
      "Ġbrie": 8935,
      "Ġcas": 8936,
      "Ġfucking": 8937,
      "Ġtox": 8938,
      "Ġbeating": 8939,
      "ĠHand": 8940,
      "ĠHERE": 8941,
      "ando": 8942,
      "Ġath": 8943,
      "igno": 8944,
      "eling": 8945,
      "ĠVien": 8946,
      "Ġenorm": 8947,
      "Ġcru": 8948,
      "Ġkidna": 8949,
      "exits": 8950,
      "ĠLeg": 8951,
      "ĠWilly": 8952,
      "Ġaddressed": 8953,
      "Ġpossession": 8954,
      "Ġconfident": 8955,
      "ĠJohan": 8956,
      "Ġestim": 8957,
      "Ġgoddess": 8958,
      "Ġcommonly": 8959,
      "Ġviolent": 8960,
      "Ġpunishment": 8961,
      "ĠIsraeli": 8962,
      "Ġtemperature": 8963,
      "Ġrailway": 8964,
      "Ġsurrounded": 8965,
      "home": 8966,
      "woman": 8967,
      "Ġcave": 8968,
      "orf": 8969,
      "Ġpul": 8970,
      "ĠSandra": 8971,
      "ĠMir": 8972,
      "ĠMall": 8973,
      "ĠWoman": 8974,
      "ĠCD": 8975,
      "ĠRA": 8976,
      "Ġcann": 8977,
      "Ġsuicide": 8978,
      "Ġpee": 8979,
      "Ġbackwards": 8980,
      "Ġclo": 8981,
      "ĠVin": 8982,
      "Ġrage": 8983,
      "Ġelement": 8984,
      "Ġdistant": 8985,
      "Ġcuts": 8986,
      "Ġrepro": 8987,
      "ĠProbably": 8988,
      "Ġ1942": 8989,
      "Ġexpert": 8990,
      "ĠCheck": 8991,
      "ĠINV": 8992,
      "ITT": 8993,
      "Ġruler": 8994,
      "Ġconsiderable": 8995,
      "ederation": 8996,
      "rafton": 8997,
      "ĠHaving": 8998,
      "Ġextraord": 8999,
      "Ġnormally": 9000,
      "Ġbarely": 9001,
      "Ġaffection": 9002,
      "ĠSpecial": 9003,
      "Ġexplanation": 9004,
      "ĠPakistan": 9005,
      "28": 9006,
      "45": 9007,
      "AA": 9008,
      "LW": 9009,
      "made": 9010,
      "poor": 9011,
      "haw": 9012,
      "ĠMas": 9013,
      "otam": 9014,
      "riot": 9015,
      "ĠHard": 9016,
      "ĠBO": 9017,
      "ĠNap": 9018,
      "Ġspider": 9019,
      "orted": 9020,
      "IND": 9021,
      "Ġnowhere": 9022,
      "Ġquant": 9023,
      "Ġfeature": 9024,
      "ĠThough": 9025,
      "ĠIns": 9026,
      "Ġdeserve": 9027,
      "ulture": 9028,
      "ĠAlbert": 9029,
      "Ġcollea": 9030,
      "Ġdreamed": 9031,
      "Ġinsurance": 9032,
      "Ġscare": 9033,
      "Ġtyp": 9034,
      "AKE": 9035,
      "Ġnaturally": 9036,
      "ĠHungarian": 9037,
      "Ġblowing": 9038,
      "Ġnapkin": 9039,
      "Ġvehicle": 9040,
      "Ġsignificant": 9041,
      "ĠAubrey": 9042,
      "Dear": 9043,
      "grow": 9044,
      "mic": 9045,
      "ridge": 9046,
      "Ãĸ": 9047,
      "Ġmars": 9048,
      "Ġcakes": 9049,
      "Ġok": 9050,
      "anes": 9051,
      "Ġinten": 9052,
      "ĠSad": 9053,
      "ĠMmm": 9054,
      "ĠBurg": 9055,
      "stay": 9056,
      "ĠGall": 9057,
      "ĠFederal": 9058,
      "ĠEh": 9059,
      "asses": 9060,
      "ccer": 9061,
      "Ġactions": 9062,
      "Ġchannels": 9063,
      "Ġcounting": 9064,
      "ĠLewis": 9065,
      "ĠCarter": 9066,
      "Ġ1943": 9067,
      "ĠSpani": 9068,
      "ĠMorgan": 9069,
      "ĠLucy": 9070,
      "Ġexecutive": 9071,
      "Ġrevealed": 9072,
      "ĠChildren": 9073,
      "Ġnaughty": 9074,
      "ĠAbsolutely": 9075,
      "Ġcalendar": 9076,
      "Ġintense": 9077,
      "Mar": 9078,
      "tree": 9079,
      "nded": 9080,
      "Ġpir": 9081,
      "ĠBor": 9082,
      "olk": 9083,
      "Ġabo": 9084,
      "ĠValley": 9085,
      "ROM": 9086,
      "Ġguarant": 9087,
      "Ġprime": 9088,
      "Ġshared": 9089,
      "ĠDean": 9090,
      "Ġspoons": 9091,
      "ĠHarvard": 9092,
      "Ġdragged": 9093,
      "Ġburnt": 9094,
      "chant": 9095,
      "Ġremarked": 9096,
      "build": 9097,
      "Ġbriefly": 9098,
      "Ind": 9099,
      "azz": 9100,
      "hol": 9101,
      "lic": 9102,
      "rim": 9103,
      "Ã£": 9104,
      "ĠMOT": 9105,
      "Ġcou": 9106,
      "Ġgrief": 9107,
      "noises": 9108,
      "ĠTHI": 9109,
      "ĠMun": 9110,
      "imately": 9111,
      "acious": 9112,
      "Ġreference": 9113,
      "secut": 9114,
      "ĠCur": 9115,
      "ĠDID": 9116,
      "ĠGrafton": 9117,
      "opotam": 9118,
      "ĠFollow": 9119,
      "ĠJordan": 9120,
      "estic": 9121,
      "Ġagents": 9122,
      "Ġclaimed": 9123,
      "Ġchin": 9124,
      "ĠAnim": 9125,
      "Ġstopping": 9126,
      "Ġcleared": 9127,
      "pector": 9128,
      "Ġcharts": 9129,
      "Ġdrift": 9130,
      "shh": 9131,
      "Ã©e": 9132,
      "Ġparade": 9133,
      "Ġdropping": 9134,
      "Ġdipl": 9135,
      "Ġbeaten": 9136,
      "Ġmidst": 9137,
      "called": 9138,
      "ĠSimon": 9139,
      "Christ": 9140,
      "drink": 9141,
      "ĠFIFA": 9142,
      "Ne": 9143,
      "cu": 9144,
      "crying": 9145,
      "erest": 9146,
      "Ġcooper": 9147,
      "Ġdial": 9148,
      "ashes": 9149,
      "iceless": 9150,
      "ĠWWE": 9151,
      "ĠHim": 9152,
      "ĠCelia": 9153,
      "ĠBank": 9154,
      "ĠPret": 9155,
      "ĠGulf": 9156,
      "Ġexact": 9157,
      "ranch": 9158,
      "izations": 9159,
      "Ġeatin": 9160,
      "Ġnumer": 9161,
      "ĠAssembly": 9162,
      "Ġphr": 9163,
      "ĠEdie": 9164,
      "enez": 9165,
      "ĠExactly": 9166,
      "Ġ1951": 9167,
      "ICE": 9168,
      "ĠTrust": 9169,
      "Ġgrab": 9170,
      "Ġenjoying": 9171,
      "ĠParker": 9172,
      "ĠCrown": 9173,
      "ĠNikki": 9174,
      "ught": 9175,
      "via": 9176,
      "Ġboring": 9177,
      "orange": 9178,
      "Ġpoo": 9179,
      "arse": 9180,
      "ĠSyl": 9181,
      "ĠHope": 9182,
      "hers": 9183,
      "ĠGhost": 9184,
      "ĠKrist": 9185,
      "Ġgrat": 9186,
      "Ġpartly": 9187,
      "URE": 9188,
      "Ġcommander": 9189,
      "ĠArts": 9190,
      "grand": 9191,
      "boat": 9192,
      "Ġ1952": 9193,
      "Ġabsor": 9194,
      "Ġlouder": 9195,
      "Ġcrept": 9196,
      "Ġsolid": 9197,
      "Ġvisited": 9198,
      "Ġaccompan": 9199,
      "Ġprimary": 9200,
      "yelling": 9201,
      "Ġcriminal": 9202,
      "ĠHoover": 9203,
      "milk": 9204,
      "27": 9205,
      "BS": 9206,
      "brew": 9207,
      "both": 9208,
      "kun": 9209,
      "uzz": 9210,
      "Ã§": 9211,
      "Ġbars": 9212,
      "Ġcough": 9213,
      "Ġfetch": 9214,
      "eness": 9215,
      "ĠSum": 9216,
      "ĠSav": 9217,
      "ĠAP": 9218,
      "ATE": 9219,
      "ĠFur": 9220,
      "ĠEver": 9221,
      "Ġdonkey": 9222,
      "osity": 9223,
      "icky": 9224,
      "ĠStu": 9225,
      "Ġlegend": 9226,
      "Ġguide": 9227,
      "adys": 9228,
      "retched": 9229,
      "vention": 9230,
      "Ġimpression": 9231,
      "itches": 9232,
      "Ġgreenbelt": 9233,
      "ĠHarvey": 9234,
      "Ġridic": 9235,
      "ĠPeters": 9236,
      "ergus": 9237,
      "Ġvegetables": 9238,
      "Ġnegative": 9239,
      "Ġthirsty": 9240,
      "knock": 9241,
      "Ġcaut": 9242,
      "orpor": 9243,
      "ĠMich": 9244,
      "ĠMuseum": 9245,
      "oto": 9246,
      "start": 9247,
      "stream": 9248,
      "teries": 9249,
      "ĠNOW": 9250,
      "iform": 9251,
      "unks": 9252,
      "ĠRab": 9253,
      "Ġsauc": 9254,
      "ourse": 9255,
      "Ġrot": 9256,
      "igers": 9257,
      "ements": 9258,
      "Ġsuitc": 9259,
      "theless": 9260,
      "ĠKaz": 9261,
      "Ġimit": 9262,
      "ucks": 9263,
      "iped": 9264,
      "Ġlasted": 9265,
      "Ġperce": 9266,
      "Ġperman": 9267,
      "Ġcheek": 9268,
      "Ġattorney": 9269,
      "Ġstrict": 9270,
      "Ġstuffed": 9271,
      "Ġfacts": 9272,
      "----\"": 9273,
      "Ġmusician": 9274,
      "Ġstaring": 9275,
      "ĠTech": 9276,
      "Ġdeeply": 9277,
      "Ġarrive": 9278,
      "Ġdetail": 9279,
      "ynasty": 9280,
      "Ġvolunte": 9281,
      "Ġdescribe": 9282,
      "Ġpatients": 9283,
      "Ġindependence": 9284,
      "ĠIranian": 9285,
      "outheast": 9286,
      "Ġunusual": 9287,
      "iac": 9288,
      "phy": 9289,
      "trying": 9290,
      "Äĩ": 9291,
      "Ġcousins": 9292,
      "lection": 9293,
      "ĠAw": 9294,
      "iments": 9295,
      "aman": 9296,
      "ĠCamer": 9297,
      "ĠPost": 9298,
      "resents": 9299,
      "aste": 9300,
      "Ġwanting": 9301,
      "ĠVava": 9302,
      "Ġthrust": 9303,
      "Ġpron": 9304,
      "Ġ300": 9305,
      "Ġswitch": 9306,
      "char": 9307,
      "Ġconsum": 9308,
      "Ġsleepy": 9309,
      "Ġunderstanding": 9310,
      "Ġleads": 9311,
      "umbles": 9312,
      "Ġicecream": 9313,
      "Ġlevels": 9314,
      "Ġbelly": 9315,
      "ĠDoesn": 9316,
      "Ġdebt": 9317,
      "Ġdiscovery": 9318,
      "Ġacquaint": 9319,
      "Ġtowel": 9320,
      "ĠSkinner": 9321,
      "Ġstretched": 9322,
      "Ġribbon": 9323,
      "Billboard": 9324,
      "KING": 9325,
      "mate": 9326,
      "move": 9327,
      "mates": 9328,
      "Ġwishes": 9329,
      "aru": 9330,
      "ario": 9331,
      "ĠSene": 9332,
      "oting": 9333,
      "ĠHang": 9334,
      "ĠBBC": 9335,
      "Ġwithdraw": 9336,
      "ctic": 9337,
      "ĠLinda": 9338,
      "ĠFif": 9339,
      "ĠFight": 9340,
      "Ġalt": 9341,
      "Ġven": 9342,
      "agement": 9343,
      "Ġmustn": 9344,
      "ĠBring": 9345,
      "Ġmarched": 9346,
      "ĠEddie": 9347,
      "Ġhats": 9348,
      "ertainly": 9349,
      "axy": 9350,
      "Ġalongside": 9351,
      "Ġreturning": 9352,
      "Ġrefrigerator": 9353,
      "Ġ1966": 9354,
      "Ġ1944": 9355,
      "Ġexplos": 9356,
      "Ġbags": 9357,
      "urious": 9358,
      "ĠChannel": 9359,
      "Ġsurvive": 9360,
      "Ġliterature": 9361,
      "EAH": 9362,
      "Ġpoliceman": 9363,
      "Ġcrayon": 9364,
      "ouncillor": 9365,
      "ĠGriffith": 9366,
      ";\"": 9367,
      "mail": 9368,
      "top": 9369,
      "vant": 9370,
      "haha": 9371,
      "Ġdrank": 9372,
      "note": 9373,
      "ĠTag": 9374,
      "Ġseal": 9375,
      "ATION": 9376,
      "ĠLill": 9377,
      "Ġsale": 9378,
      "umper": 9379,
      "olate": 9380,
      "quis": 9381,
      "aug": 9382,
      "Ġprob": 9383,
      "Ġblaz": 9384,
      "Ġreads": 9385,
      "ĠBeat": 9386,
      "Ġnearby": 9387,
      "denly": 9388,
      "Ġcared": 9389,
      "Ġ70": 9390,
      "Ġsubs": 9391,
      "ĠGeography": 9392,
      "Ġsquad": 9393,
      "removes": 9394,
      "Ġgrowth": 9395,
      "Ġsecrets": 9396,
      "ronic": 9397,
      "Ġparking": 9398,
      "talks": 9399,
      "Ġprayer": 9400,
[...]
