{
  "version": "1.0",
  "truncation": {
    "direction": "Right",
    "max_length": 231,
    "strategy": "LongestFirst",
    "stride": 0
  },
  "padding": null,
  "added_tokens": [
    {
      "id": 0,
      "content": "<unk>",
      "single_word": false,
      "lstrip": false,
      "rstrip": false,
      "normalized": false,
      "special": true
    },
    {
      "id": 1,
      "content": "<s>",
      "single_word": false,
      "lstrip": false,
      "rstrip": false,
      "normalized": false,
      "special": true
    },
    {
      "id": 2,
      "content": "</s>",
      "single_word": false,
      "lstrip": false,
      "rstrip": false,
      "normalized": false,
      "special": true
    },
    {
      "id": 3,
      "content": "<pad>",
      "single_word": false,
      "lstrip": false,
      "rstrip": false,
      "normalized": false,
      "special": true
    },
    {
      "id": 4,
      "content": "<mask>",
      "single_word": false,
      "lstrip": false,
      "rstrip": false,
      "normalized": false,
      "special": true
    }
  ],
  "normalizer": {
    "type": "Sequence",
    "normalizers": [
      {
        "type": "Prepend",
        "prepend": " "
      },
      {
        "type": "NFKC"
      },
      {
        "type": "Replace",
        "pattern": {
          "Regex": "\\n"
        },
        "content": "\n "
      },
      {
        "type": "Replace",
        "pattern": {
          "Regex": " *\\n"
        },
        "content": "\n"
      }
    ]
  },
  "pre_tokenizer": {
    "type": "Sequence",
    "pretokenizers": [
      {
        "type": "Split",
        "pattern": {
          "Regex": "[^\\r\\n\\p{L}\\p{N}]?[\\p{Lu}\\p{Lt}\\p{Lm}\\p{Lo}\\p{M}]*[\\p{Ll}\\p{Lm}\\p{Lo}\\p{M}]+|[^\\r\\n\\p{L}\\p{N}]?[\\p{Lu}\\p{Lt}\\p{Lm}\\p{Lo}\\p{M}]+[\\p{Ll}\\p{Lm}\\p{Lo}\\p{M}]*|\\p{N}| ?[^\\s\\p{L}\\p{N}]+[\\r\\n/]*|\\s*[\\r\\n]+|\\s+(?!\\S)|\\s+"
        },
        "behavior": "Isolated",
        "invert": false
      },
      {
        "type": "ByteLevel",
        "add_prefix_space": false,
        "trim_offsets": true,
        "use_regex": false
      },
      {
        "type": "Split",
        "pattern": {
          "Regex": ".{1,24}"
        },
        "behavior": "Isolated",
        "invert": false
      }
    ]
  },
  "post_processor": {
    "type": "TemplateProcessing",
    "single": [
      {
        "SpecialToken": {
          "id": "<s>",
          "type_id": 0
        }
      },
      {
        "Sequence": {
          "id": "A",
          "type_id": 0
        }
      },
      {
        "SpecialToken": {
          "id": "</s>",
          "type_id": 0
        }
      }
    ],
    "pair": [
      {
        "SpecialToken": {
          "id": "<s>",
          "type_id": 0
        }
      },
      {
        "Sequence": {
          "id": "A",
          "type_id": 0
        }
      },
      {
        "SpecialToken": {
          "id": "</s>",
          "type_id": 0
        }
      },
      {
        "SpecialToken": {
          "id": "<s>",
          "type_id": 0
        }
      },
      {
        "Sequence": {
          "id": "B",
          "type_id": 0
        }
      },
      {
        "SpecialToken": {
          "id": "</s>",
          "type_id": 0
        }
      }
    ],
    "special_tokens": {
      "</s>": {
        "id": "</s>",
        "ids": [
          2
        ],
        "tokens": [
          "</s>"
        ]
      },
      "<s>": {
        "id": "<s>",
        "ids": [
          1
        ],
        "tokens": [
          "<s>"
        ]
      }
    }
  },
  "decoder": {
    "type": "Sequence",
    "decoders": [
      {
        "type": "ByteLevel",
        "add_prefix_space": true,
        "trim_offsets": true,
        "use_regex": true
      },
      {
        "type": "Strip",
        "content": " ",
        "start": 1,
        "stop": 0
      },
      {
        "type": "Replace",
        "pattern": {
          "String": "\n "
        },
        "content": "\n"
      }
    ]
  },
  "model": {
    "type": "BPE",
    "dropout": null,
    "unk_token": "<unk>",
    "continuing_subword_prefix": null,
    "end_of_word_suffix": null,
    "fuse_unk": false,
    "byte_fallback": false,
    "ignore_merges": false,
    "vocab": {
      "<unk>": 0,
      "<s>": 1,
      "</s>": 2,
      "<pad>": 3,
      "<mask>": 4,
      "!": 5,
      "\"": 6,
      "#": 7,
      "$": 8,
      "%": 9,
      "&": 10,
      "'": 11,
      "(": 12,
      ")": 13,
      "*": 14,
      "+": 15,
      ",": 16,
      "-": 17,
      ".": 18,
      "/": 19,
      "0": 20,
      "1": 21,
      "2": 22,
      "3": 23,
      "4": 24,
      "5": 25,
      "6": 26,
      "7": 27,
      "8": 28,
      "9": 29,
      ":": 30,
      ";": 31,
      "<": 32,
      "=": 33,
      ">": 34,
      "?": 35,
      "@": 36,
      "A": 37,
      "B": 38,
      "C": 39,
      "D": 40,
      "E": 41,
      "F": 42,
      "G": 43,
      "H": 44,
      "I": 45,
      "J": 46,
      "K": 47,
      "L": 48,
      "M": 49,
      "N": 50,
      "O": 51,
      "P": 52,
      "Q": 53,
      "R": 54,
      "S": 55,
      "T": 56,
      "U": 57,
      "V": 58,
      "W": 59,
      "X": 60,
      "Y": 61,
      "Z": 62,
      "[": 63,
      "\\": 64,
      "]": 65,
      "^": 66,
      "_": 67,
      "`": 68,
      "a": 69,
      "b": 70,
      "c": 71,
      "d": 72,
      "e": 73,
      "f": 74,
      "g": 75,
      "h": 76,
      "i": 77,
      "j": 78,
      "k": 79,
      "l": 80,
      "m": 81,
      "n": 82,
      "o": 83,
      "p": 84,
      "q": 85,
      "r": 86,
      "s": 87,
      "t": 88,
      "u": 89,
      "v": 90,
      "w": 91,
      "x": 92,
      "y": 93,
      "z": 94,
      "{": 95,
      "|": 96,
      "}": 97,
      "~": 98,
      "¡": 99,
      "¢": 100,
      "£": 101,
      "¤": 102,
      "¥": 103,
      "¦": 104,
      "§": 105,
      "¨": 106,
      "©": 107,
      "ª": 108,
      "«": 109,
      "¬": 110,
      "®": 111,
      "¯": 112,
      "°": 113,
      "±": 114,
      "²": 115,
      "³": 116,
      "´": 117,
      "µ": 118,
      "¶": 119,
      "·": 120,
      "¸": 121,
      "¹": 122,
      "º": 123,
      "»": 124,
      "¼": 125,
      "½": 126,
      "¾": 127,
      "¿": 128,
      "Â": 129,
      "Ã": 130,
      "Ä": 131,
      "Å": 132,
      "Æ": 133,
      "Ç": 134,
      "È": 135,
      "É": 136,
      "Ê": 137,
      "Ë": 138,
      "Ì": 139,
      "Î": 140,
      "Ð": 141,
      "Ñ": 142,
      "Ö": 143,
      "×": 144,
      "Ø": 145,
      "Ù": 146,
      "Û": 147,
      "à": 148,
      "á": 149,
      "â": 150,
      "ã": 151,
      "ê": 152,
      "î": 153,
      "ï": 154,
      "ð": 155,
      "ó": 156,
      "ô": 157,
      "Ċ": 158,
      "Ġ": 159,
      "ġ": 160,
      "Ģ": 161,
      "ģ": 162,
      "Ĥ": 163,
      "ĥ": 164,
      "Ħ": 165,
      "ħ": 166,
      "Ĩ": 167,
      "ĩ": 168,
      "Ī": 169,
      "ī": 170,
      "Ĭ": 171,
      "ĭ": 172,
      "Į": 173,
      "į": 174,
      "İ": 175,
      "ı": 176,
      "Ĳ": 177,
      "ĳ": 178,
      "Ĵ": 179,
      "ĵ": 180,
      "Ķ": 181,
      "ķ": 182,
      "ĸ": 183,
      "Ĺ": 184,
      "ĺ": 185,
      "Ļ": 186,
      "ļ": 187,
      "Ľ": 188,
      "ľ": 189,
      "Ŀ": 190,
      "ŀ": 191,
      "Ł": 192,
      "ł": 193,
      "Ń": 194,
      "Ġt": 195,
      "he": 196,
      "Ġa": 197,
      ".Ċ": 198,
      "in": 199,
      "Ġw": 200,
      "Ġ*": 201,
      "Ġthe": 202,
      "ou": 203,
      "re": 204,
      "Ġs": 205,
      "Ġo": 206,
      "ha": 207,
      "er": 208,
      "Ġb": 209,
      "nd": 210,
      "it": 211,
      "is": 212,
      "Ġc": 213,
      "Ġm": 214,
      "Ġy": 215,
      "Ġd": 216,
      "on": 217,
      "ĠI": 218,
      "ing": 219,
      "Ġf": 220,
      "ll": 221,
      "OT": 222,
      "MOT": 223,
      "Ġto": 224,
      "Ġyou": 225,
      "an": 226,
      "es": 227,
      "or": 228,
      "ed": 229,
      "Ġp": 230,
      "hat": 231,
      "Ġg": 232,
      "en": 233,
      "?Ċ": 234,
      "Ġl": 235,
      "CH": 236,
      "CHI": 237,
      "Ġand": 238,
      "Ġn": 239,
      "ar": 240,
      "Ġof": 241,
      "Ġin": 242,
      "as": 243,
      "om": 244,
      "at": 245,
      "Ġhe": 246,
      "ow": 247,
      "'s": 248,
      "Ġh": 249,
      "Ġit": 250,
      "ot": 251,
      "Ġha": 252,
      "et": 253,
      "ve": 254,
      "Ġthat": 255,
      "ay": 256,
      "Ġth": 257,
      "le": 258,
      "Ġon": 259,
      "ĠT": 260,
      "ic": 261,
      "us": 262,
      "gh": 263,
      "Ġbe": 264,
      "id": 265,
      "Ġis": 266,
      "ĠA": 267,
      "Ġwe": 268,
      "al": 269,
      "Ġe": 270,
      "ĠS": 271,
      "oo": 272,
      "ut": 273,
      "ld": 274,
      "Ġwas": 275,
      "'t": 276,
      "ĠM": 277,
      "im": 278,
      "ac": 279,
      "Ġ=": 280,
      "ke": 281,
      "Ġdo": 282,
      "ad": 283,
      "ĠW": 284,
      "Ġ[": 285,
      "ver": 286,
      "Ġre": 287,
      "Ġr": 288,
      "Ġu": 289,
      "ght": 290,
      "ĠB": 291,
      "Ġfor": 292,
      "ir": 293,
      "ĠH": 294,
      "se": 295,
      "Ġst": 296,
      "ent": 297,
      "ly": 298,
      "ion": 299,
      "am": 300,
      "out": 301,
      "ĠC": 302,
      "Ġk": 303,
      "st": 304,
      "Ġme": 305,
      "ith": 306,
      "ight": 307,
      "ea": 308,
      "Ġwhat": 309,
      "ĠThe": 310,
      "Ġ\"": 311,
      "Ġan": 312,
      "her": 313,
      "Ġwith": 314,
      "ome": 315,
      "Ġwh": 316,
      "Ġgo": 317,
      "ur": 318,
      "!Ċ": 319,
      "Ġse": 320,
      "..": 321,
      "all": 322,
      "ĠY": 323,
      "âĢ": 324,
      "Ġthis": 325,
      "Ġ-": 326,
      "]Ċ": 327,
      "Ġli": 328,
      "Ġnot": 329,
      "Ġas": 330,
      "ter": 331,
      "ch": 332,
      "Ġat": 333,
      "ill": 334,
      "Ġhave": 335,
      "Ġare": 336,
      "ĠD": 337,
      "ro": 338,
      "Ġno": 339,
      "ould": 340,
      "Ġkn": 341,
      "ĠN": 342,
      "Ġthere": 343,
      "ce": 344,
      "Ġcan": 345,
      "ĠP": 346,
      "ook": 347,
      "ri": 348,
      "ust": 349,
      "Ġthey": 350,
      "ĠO": 351,
      "if": 352,
      "ant": 353,
      "Ġone": 354,
      "il": 355,
      "un": 356,
      "ct": 357,
      "Ġwhe": 358,
      "Ġknow": 359,
      "ĠG": 360,
      "ain": 361,
      "Ġj": 362,
      "eah": 363,
      "ĠL": 364,
      "Ġhis": 365,
      "Ġdon": 366,
      "Ġso": 367,
      "op": 368,
      "ell": 369,
      "Ġup": 370,
      "xx": 371,
      "um": 372,
      "and": 373,
      "Ġshe": 374,
      "Ġne": 375,
      "ore": 376,
      "IN": 377,
      "Ġyour": 378,
      "ĠF": 379,
      "Ġher": 380,
      "Ġall": 381,
      "Ġmy": 382,
      "ie": 383,
      "ĠR": 384,
      "ge": 385,
      "Ġfr": 386,
      "pp": 387,
      "our": 388,
      "ĠJ": 389,
      "Ġlike": 390,
      "Ġhad": 391,
      "Ġsh": 392,
      "ab": 393,
      "Ġbut": 394,
      "INV": 395,
      "ĠHe": 396,
      "ack": 397,
      "ĠE": 398,
      "ĠIt": 399,
      "ol": 400,
      "Ġout": 401,
      "ood": 402,
      "Ġsa": 403,
      "Ġde": 404,
      "th": 405,
      "ink": 406,
      "Ġget": 407,
      "Ġpl": 408,
      "Ġal": 409,
      "ul": 410,
      "ry": 411,
      "ake": 412,
      "...Ċ": 413,
      "Ġab": 414,
      "'re": 415,
      "Ġhim": 416,
      "Ġdid": 417,
      "Ġsee": 418,
      "art": 419,
      "ig": 420,
      "Ġlook": 421,
      "Ġfrom": 422,
      "Ġhere": 423,
      "ers": 424,
      "han": 425,
      "Ġor": 426,
      "el": 427,
      "AT": 428,
      "very": 429,
      "Ġoh": 430,
      "ation": 431,
      "Ġyeah": 432,
      "'m": 433,
      "ĠYou": 434,
      "red": 435,
      "ck": 436,
      "ound": 437,
      "est": 438,
      "Ġwere": 439,
      "ist": 440,
      "ess": 441,
      "Ġby": 442,
      "ra": 443,
      "os": 444,
      "ind": 445,
      "qu": 446,
      "ame": 447,
      "Ġsu": 448,
      "Ġgot": 449,
      "ard": 450,
      "ong": 451,
      "Ġthem": 452,
      "nt": 453,
      "own": 454,
      "Ġsome": 455,
      "one": 456,
      "Ġjust": 457,
      "ak": 458,
      "Ġthink": 459,
      "Ġwant": 460,
      "Ġcom": 461,
      "Ġabout": 462,
      "itt": 463,
      "Ġright": 464,
      "use": 465,
      "na": 466,
      "Ġwor": 467,
      "Ġwho": 468,
      "'ll": 469,
      "ast": 470,
      "Ġsp": 471,
      "ally": 472,
      "ive": 473,
      "res": 474,
      "Ġ(": 475,
      "Ġnow": 476,
      "FAT": 477,
      "ep": 478,
      "em": 479,
      "].Ċ": 480,
      "ice": 481,
      "od": 482,
      "Ġwould": 483,
      "ap": 484,
      "Ġv": 485,
      "Ġif": 486,
      "ate": 487,
      "\"Ċ": 488,
      "Ġthen": 489,
      "ber": 490,
      "Ġsaid": 491,
      "ĠâĢ": 492,
      "Ġwhen": 493,
      "Ġany": 494,
      "ick": 495,
      "Ġex": 496,
      "Ġcon": 497,
      "Ġsay": 498,
      "ime": 499,
      "Ġtw": 500,
      "kay": 501,
      "ort": 502,
      "ine": 503,
      "hing": 504,
      "Ġus": 505,
      "Ġman": 506,
      "ough": 507,
      "fe": 508,
      "xxx": 509,
      "ven": 510,
      "Ġxxx": 511,
      "Ġput": 512,
      "ich": 513,
      "Ġwhere": 514,
      "ĠAnd": 515,
      "Ġwill": 516,
      "ide": 517,
      "other": 518,
      "Ġtr": 519,
      "Ġbo": 520,
      "'ve": 521,
      "hi": 522,
      "Ġgood": 523,
      "ĠK": 524,
      "ear": 525,
      "Ġdown": 526,
      "ag": 527,
      "ies": 528,
      "Ġback": 529,
      "ca": 530,
      "Ġint": 531,
      "ther": 532,
      "Ġgoing": 533,
      "Ġag": 534,
      "way": 535,
      "ittle": 536,
      "Ġpro": 537,
      "au": 538,
      "ous": 539,
      "ost": 540,
      "Ġcl": 541,
      "Ġwell": 542,
      "Ġhas": 543,
      "ose": 544,
      "ĠU": 545,
      "Ġbeen": 546,
      "Ġtime": 547,
      "Ġmore": 548,
      "Ġlittle": 549,
      "Ġcome": 550,
      "Ġcould": 551,
      "Ġar": 552,
      "Ġ'": 553,
      "ĠâĢľ": 554,
      "Ġover": 555,
      "ĠWhat": 556,
      "Ġbr": 557,
      "âĢĿ": 558,
      "Ġokay": 559,
      "end": 560,
      "Ġtwo": 561,
      "Ġvery": 562,
      "Ġtoo": 563,
      "Ġoff": 564,
      "ove": 565,
      "ity": 566,
      "Ġpe": 567,
      "Ġwhich": 568,
      "ace": 569,
      "cause": 570,
      "ĠTh": 571,
      "ree": 572,
      "Ġhow": 573,
      "Ġtheir": 574,
      "âĢĻ": 575,
      "Ġplay": 576,
      "lf": 577,
      "ite": 578,
      "Ġ=Ċ": 579,
      "Ġyes": 580,
      "Ġother": 581,
      "Ġqu": 582,
      ".\"Ċ": 583,
      "Ġlet": 584,
      "ure": 585,
      "ish": 586,
      "--": 587,
      "are": 588,
      "Ġthing": 589,
      "ft": 590,
      "Ġfe": 591,
      "ond": 592,
      "Ġle": 593,
      "ud": 594,
      "alk": 595,
      "ĠNo": 596,
      "ĠSt": 597,
      "ĠWe": 598,
      "Ġgr": 599,
      "my": 600,
      "ĠIn": 601,
      "Ġaf": 602,
      "ue": 603,
      "omet": 604,
      "orn": 605,
      "Ġbl": 606,
      "Ġdoes": 607,
      "Ġthan": 608,
      "age": 609,
      "ĠBut": 610,
      "reat": 611,
      "Ġro": 612,
      "urn": 613,
      "Ġer": 614,
      "AR": 615,
      "ment": 616,
      "ian": 617,
      "ĠYeah": 618,
      "...": 619,
      "ople": 620,
      "ĠOh": 621,
      "hed": 622,
      "irst": 623,
      "iv": 624,
      "pl": 625,
      "Ġagain": 626,
      "Ġinto": 627,
      "ought": 628,
      "ass": 629,
      "ia": 630,
      "onna": 631,
      "Ġmake": 632,
      "Ġway": 633,
      "ase": 634,
      "ĠShe": 635,
      "Ġsomet": 636,
      "Ġtell": 637,
      "Ġgonna": 638,
      "ade": 639,
      "Ġwork": 640,
      "ire": 641,
      "ps": 642,
      "Ġpeople": 643,
      "ater": 644,
      "ble": 645,
      "Ġtake": 646,
      "Ġen": 647,
      "ect": 648,
      "ty": 649,
      "ary": 650,
      ",\"": 651,
      "ount": 652,
      "add": 653,
      "Ġcall": 654,
      "ĠThat": 655,
      "iss": 656,
      "Ġpr": 657,
      "ov": 658,
      "Ġcar": 659,
      "Ġsha": 660,
      "Ġco": 661,
      "int": 662,
      "Ġfl": 663,
      "Ġuh": 664,
      "Ġfirst": 665,
      "Ġneed": 666,
      "Ġday": 667,
      "ĠThey": 668,
      "ci": 669,
      "Ġam": 670,
      "Ġmean": 671,
      "per": 672,
      "ys": 673,
      "Ġbecause": 674,
      "ord": 675,
      "uh": 676,
      ",Ċ": 677,
      "pt": 678,
      "Ġbet": 679,
      "ran": 680,
      "ĠV": 681,
      "ise": 682,
      "ne": 683,
      "Ġafter": 684,
      "Ġpart": 685,
      "ng": 686,
      "Ġour": 687,
      "Ġonly": 688,
      "Ġthr": 689,
      "Ġhand": 690,
      "mer": 691,
      "so": 692,
      "Ġdidn": 693,
      "Ġevery": 694,
      "uch": 695,
      "ff": 696,
      "ĠSo": 697,
      "ĠWell": 698,
      "act": 699,
      "Ġshould": 700,
      "nder": 701,
      "iz": 702,
      "Ġch": 703,
      "wn": 704,
      "ull": 705,
      "fore": 706,
      "ouse": 707,
      "ark": 708,
      "Ġthese": 709,
      "self": 710,
      "ather": 711,
      "av": 712,
      "ach": 713,
      "ĠMr": 714,
      "augh": 715,
      "Ġsomething": 716,
      "ub": 717,
      "uck": 718,
      "ĠWh": 719,
      "Ġhapp": 720,
      "ob": 721,
      "thing": 722,
      "we": 723,
      "Ġcha": 724,
      "Ġun": 725,
      "ock": 726,
      "Ġbig": 727,
      "Ġreally": 728,
      "les": 729,
      "ady": 730,
      "Ġmuch": 731,
      "Ġpre": 732,
      "ress": 733,
      "Ġyear": 734,
      "able": 735,
      "Ġte": 736,
      "Ġgu": 737,
      "ting": 738,
      "ren": 739,
      "Ġwhy": 740,
      "man": 741,
      "day": 742,
      "ool": 743,
      "Ġmade": 744,
      "og": 745,
      "ĠThis": 746,
      "oc": 747,
      "old": 748,
      "Ġlong": 749,
      "Ġtalk": 750,
      "Ġad": 751,
      "ile": 752,
      "anna": 753,
      "be": 754,
      "'d": 755,
      "ory": 756,
      "Ġchi": 757,
      "ict": 758,
      "ip": 759,
      "irl": 760,
      "Ġaway": 761,
      "ew": 762,
      "hes": 763,
      "Ġsm": 764,
      "Ġpo": 765,
      "ated": 766,
      "Ġke": 767,
      "ied": 768,
      "Ġdis": 769,
      "ions": 770,
      "Ġmay": 771,
      "Ġwr": 772,
      "cl": 773,
      "ody": 774,
      "Ġunder": 775,
      "Ġbefore": 776,
      "cc": 777,
      "ang": 778,
      "Ġrem": 779,
      "Ġwanna": 780,
      "Ġwent": 781,
      "Ġsec": 782,
      "Ġum": 783,
      "PAR": 784,
      "ving": 785,
      "Ġhel": 786,
      "ĠThere": 787,
      "Ġsc": 788,
      "Ġim": 789,
      "ence": 790,
      "hen": 791,
      "Ġdoing": 792,
      "ix": 793,
      "Ġthree": 794,
      "Ġcr": 795,
      "ĠYes": 796,
      "Ġthose": 797,
      "Ġact": 798,
      "Ġalso": 799,
      "Ġturn": 800,
      "oll": 801,
      "Ġnever": 802,
      "ward": 803,
      "Ġbab": 804,
      "riend": 805,
      "here": 806,
      "Ġgirl": 807,
      "Ġold": 808,
      "ny": 809,
      "atch": 810,
      "hm": 811,
      "Ġhome": 812,
      "Ġeat": 813,
      "Ġchild": 814,
      "Ġapp": 815,
      "ĠCh": 816,
      "tain": 817,
      "EX": 818,
      "Ġask": 819,
      "ful": 820,
      "Ġbook": 821,
      "Ġper": 822,
      "Ġthought": 823,
      "Ġcame": 824,
      "ens": 825,
      "akes": 826,
      "Ġnew": 827,
      "Ġanother": 828,
      "Ġthings": 829,
      "EXP": 830,
      "ons": 831,
      "Ġfind": 832,
      "ors": 833,
      "lease": 834,
      "ath": 835,
      "Ġmust": 836,
      "ks": 837,
      "Ġbu": 838,
      "Ġgive": 839,
      "Ġeven": 840,
      "Ġhouse": 841,
      "gg": 842,
      "Ġthrough": 843,
      "Ġstart": 844,
      "Ġhelp": 845,
      "Ġâ": 846,
      "ried": 847,
      "Ġcomp": 848,
      "ance": 849,
      "ait": 850,
      "ings": 851,
      "Ġmany": 852,
      "Ġwon": 853,
      "Ġhead": 854,
      ":Ċ": 855,
      "Ġstill": 856,
      "ans": 857,
      "laugh": 858,
      "Ġgreat": 859,
      "Ġ%": 860,
      "get": 861,
      "ious": 862,
      "land": 863,
      "oh": 864,
      "Ġlea": 865,
      "ĠUn": 866,
      "ved": 867,
      "âĢĿĊ": 868,
      "pe": 869,
      "Ġlast": 870,
      "Ġlove": 871,
      "ily": 872,
      "Ġtry": 873,
      "ail": 874,
      "ave": 875,
      "ĠHow": 876,
      "ened": 877,
      "ru": 878,
      "ign": 879,
      "Ġdone": 880,
      "Ġshow": 881,
      "TE": 882,
      "Ġisn": 883,
      "Ġlot": 884,
      "Ġbit": 885,
      "Ġsl": 886,
      "igh": 887,
      "oot": 888,
      "Ġnight": 889,
      "Ġmom": 890,
      "Ġcalled": 891,
      "Ġfound": 892,
      "aking": 893,
      "Ġel": 894,
      "Ġop": 895,
      "oy": 896,
      "Ġbaby": 897,
      "up": 898,
      "Ġcont": 899,
      "Ġboy": 900,
      "ĠMum": 901,
      "xt": 902,
      "Ġmin": 903,
      "Ġname": 904,
      "air": 905,
      "Ġser": 906,
      "rd": 907,
      "body": 908,
      "Ġchan": 909,
      "ves": 910,
      "Ġmight": 911,
      "ult": 912,
      "Ġbel": 913,
      "Ġres": 914,
      "ates": 915,
      "side": 916,
      "ling": 917,
      "ms": 918,
      "ually": 919,
      "âĢĻs": 920,
      "Ġbot": 921,
      "Ġdif": 922,
      "Ġaround": 923,
      ".]Ċ": 924,
      "Ġche": 925,
      "als": 926,
      "ild": 927,
      "aw": 928,
      "ee": 929,
      "Ġmov": 930,
      "iver": 931,
      "Ġfriend": 932,
      "oney": 933,
      "ĠIf": 934,
      "ah": 935,
      "ars": 936,
      "ember": 937,
      "chool": 938,
      "ĠBr": 939,
      "Ġmhm": 940,
      "oss": 941,
      "ĠAl": 942,
      "Ġcare": 943,
      "Ġbetter": 944,
      "IS": 945,
      "te": 946,
      "Ġkind": 947,
      "Ġits": 948,
      "Ġwater": 949,
      "ĠIs": 950,
      "med": 951,
      "Ġnice": 952,
      "rent": 953,
      "Ġcomm": 954,
      "ĠAn": 955,
      "ĠDo": 956,
      "Ġcount": 957,
      "Ġown": 958,
      "Ġrec": 959,
      "Ġmost": 960,
      "Ġsure": 961,
      "yes": 962,
      "Ġfour": 963,
      "ww": 964,
      "Ġend": 965,
      "ical": 966,
      "Ġyears": 967,
      "ces": 968,
      "Ġlooks": 969,
      "Ġdoesn": 970,
      "Ġgl": 971,
      "ph": 972,
      "Ġused": 973,
      "Ġanything": 974,
      "port": 975,
      "ope": 976,
      "imes": 977,
      "Ġfeel": 978,
      "Ġkeep": 979,
      "ever": 980,
      "AN": 981,
      "Ġplace": 982,
      "ĠAs": 983,
      "ways": 984,
      "ĠAll": 985,
      "ited": 986,
      "Ġelse": 987,
      "laughs": 988,
      "ince": 989,
      "ont": 990,
      "Ġcour": 991,
      "Ġsit": 992,
      "Ġbeing": 993,
      "Ġdr": 994,
      "inn": 995,
      "Ġfin": 996,
      "ĠMar": 997,
      "Ġlife": 998,
      "orry": 999,
      "Ġsame": 1000,
      "Ġatt": 1001,
      "ute": 1002,
      "Ġrun": 1003,
      "Ġwait": 1004,
      "Ġbre": 1005,
      "AD": 1006,
      "amp": 1007,
      "ĠBe": 1008,
      "RO": 1009,
      "Ġplease": 1010,
      "ere": 1011,
      "Ġmother": 1012,
      "Ġroom": 1013,
      "Ġnext": 1014,
      "Ġdes": 1015,
      "Ġsupp": 1016,
      "Ġwhile": 1017,
      "Ġshall": 1018,
      "Ġsw": 1019,
      "Ġschool": 1020,
      "Ġbus": 1021,
      "addy": 1022,
      "Ġbeg": 1023,
      "Ġsuch": 1024,
      "Ġear": 1025,
      "row": 1026,
      "led": 1027,
      "Ġstop": 1028,
      "ations": 1029,
      "orm": 1030,
      "ĠTH": 1031,
      "ird": 1032,
      "Ġhold": 1033,
      "Ġbec": 1034,
      "ĠMummy": 1035,
      "Ġtold": 1036,
      "atter": 1037,
      "ĠNow": 1038,
      "ĠDon": 1039,
      "Ġleft": 1040,
      "ition": 1041,
      "Ġalways": 1042,
      "ĠWhy": 1043,
      "Ġwee": 1044,
      "Ġsaw": 1045,
      "uc": 1046,
      "Ġcle": 1047,
      ",âĢĿ": 1048,
      "Ġset": 1049,
      "ican": 1050,
      "und": 1051,
      "ident": 1052,
      "Ġread": 1053,
      "Ġah": 1054,
      "Ġdiffe": 1055,
      "Ġfar": 1056,
      "ss": 1057,
      "Ġnum": 1058,
      "ta": 1059,
      "Ġpret": 1060,
      "Ġword": 1061,
      "leep": 1062,
      "Ġcol": 1063,
      "ï¿": 1064,
      "ye": 1065,
      "ĠAr": 1066,
      "Ġmon": 1067,
      "Ġele": 1068,
      "aught": 1069,
      "oon": 1070,
      "outh": 1071,
      "ins": 1072,
      "Ġfun": 1073,
      "Ġball": 1074,
      "Ġgone": 1075,
      "Ġerm": 1076,
      ".âĢĿĊ": 1077,
      "Ġfam": 1078,
      "ï¿½": 1079,
      "ream": 1080,
      "Ġuse": 1081,
      "mp": 1082,
      "ug": 1083,
      "Ġhuh": 1084,
      "ction": 1085,
      "ĠAmer": 1086,
      "ĠThen": 1087,
      "oun": 1088,
      "ung": 1089,
      "Ġgoes": 1090,
      "Ġmen": 1091,
      "Ġpol": 1092,
      "Ġever": 1093,
      "Ġpoint": 1094,
      "Ġopen": 1095,
      "Ġhard": 1096,
      "Ġfather": 1097,
      "ister": 1098,
      "vel": 1099,
      "raw": 1100,
      "ĠCha": 1101,
      "Ġunt": 1102,
      "ĠWhen": 1103,
      "Ġcoming": 1104,
      "Ġmoney": 1105,
      "mber": 1106,
      "Ġpres": 1107,
      "Ġfive": 1108,
      "Ġbox": 1109,
      "ump": 1110,
      "Ġbed": 1111,
      "Ġdoor": 1112,
      "right": 1113,
      "Ġtook": 1114,
      "Ġsays": 1115,
      "Ġhear": 1116,
      "Ġwalk": 1117,
      "Ġgre": 1118,
      "erson": 1119,
      "orning": 1120,
      "ness": 1121,
      "vent": 1122,
      "Ġsing": 1123,
      "Ġhm": 1124,
      "ĠOn": 1125,
      "Ļª": 1126,
      "Ġac": 1127,
      "ts": 1128,
      "anc": 1129,
      "Ġenough": 1130,
      "Ġmar": 1131,
      "ower": 1132,
      "ĠFran": 1133,
      "ec": 1134,
      "ished": 1135,
      "ib": 1136,
      "Ġind": 1137,
      "ĠCome": 1138,
      "Ġsur": 1139,
      "ows": 1140,
      "Ġwatch": 1141,
      "TEA": 1142,
      "Ġreal": 1143,
      "Ġnothing": 1144,
      "Ġthank": 1145,
      "oup": 1146,
      "Ġob": 1147,
      "Ġwar": 1148,
      "Ġret": 1149,
      "uff": 1150,
      "pect": 1151,
      "Ġph": 1152,
      "az": 1153,
      "Ġstand": 1154,
      "The": 1155,
      "ier": 1156,
      "Ġacc": 1157,
      "Ġuntil": 1158,
      "Ġpick": 1159,
      "ĠMy": 1160,
      "Ġwom": 1161,
      "Ġred": 1162,
      "Ġside": 1163,
      "Ġthough": 1164,
      "ĠLet": 1165,
      "Ġstay": 1166,
      "ĠDe": 1167,
      "ER": 1168,
      "Ġmorning": 1169,
      "Ġremember": 1170,
      "the": 1171,
      "bab": 1172,
      "Ġbelie": 1173,
      "ger": 1174,
      "gr": 1175,
      "Ġsix": 1176,
      "ES": 1177,
      "Ġlooking": 1178,
      "ĠâĻª": 1179,
      "Ġreg": 1180,
      "Ġstr": 1181,
      "Ġdifferent": 1182,
      "Ġlight": 1183,
      "ets": 1184,
      "Ġcourse": 1185,
      "?\"Ċ": 1186,
      "Ġseen": 1187,
      "MA": 1188,
      "Ġsecond": 1189,
      "Ġeyes": 1190,
      "ial": 1191,
      "une": 1192,
      "ational": 1193,
      "MCH": 1194,
      "ret": 1195,
      "ross": 1196,
      "Ġquite": 1197,
      "ĠGr": 1198,
      "ĠNot": 1199,
      "Ġtoday": 1200,
      "ired": 1201,
      "ased": 1202,
      "Ġpass": 1203,
      "SIS": 1204,
      "Ġworld": 1205,
      "huh": 1206,
      "oor": 1207,
      "ĠAt": 1208,
      "Ġround": 1209,
      "ĠFor": 1210,
      "Ġyoung": 1211,
      "Ġdist": 1212,
      "Ġleave": 1213,
      "gether": 1214,
      "Ġnear": 1215,
      "Ġtogether": 1216,
      "Ġsound": 1217,
      "Ġdog": 1218,
      "Ġmm": 1219,
      "tle": 1220,
      "Ġpie": 1221,
      "Ġsorry": 1222,
      "ible": 1223,
      "ike": 1224,
      "ĠSp": 1225,
      "ween": 1226,
      "Ġfew": 1227,
      "Ġbest": 1228,
      "Ġmil": 1229,
      "ank": 1230,
      "Ġknown": 1231,
      "Ġsmall": 1232,
      "ĠOkay": 1233,
      "eak": 1234,
      "Ġgetting": 1235,
      "Ġlist": 1236,
      "Ġhur": 1237,
      ")Ċ": 1238,
      "uring": 1239,
      "ĠThan": 1240,
      "ton": 1241,
      "tern": 1242,
      "ctor": 1243,
      "Ġsleep": 1244,
      "mb": 1245,
      "fta": 1246,
      "Ġent": 1247,
      "Ġonce": 1248,
      "Ġhafta": 1249,
      "Ġfall": 1250,
      "Ġasked": 1251,
      "ĠCan": 1252,
      "Ġdear": 1253,
      "Ġnumber": 1254,
      "),": 1255,
      "OU": 1256,
      "Ġtrain": 1257,
      "ning": 1258,
      "Ġrel": 1259,
      "Ġter": 1260,
      "ents": 1261,
      "Ġsk": 1262,
      "Ġwind": 1263,
      "Ġchar": 1264,
      "Ġfire": 1265,
      "Ġboth": 1266,
      "ĠMay": 1267,
      "ush": 1268,
      "Ġyet": 1269,
      "Ġfell": 1270,
      "ĠEr": 1271,
      "Ġhands": 1272,
      "ener": 1273,
      "Ġcap": 1274,
      "Ġbro": 1275,
      "Ġeach": 1276,
      "Ġheard": 1277,
      "Ġmind": 1278,
      "ries": 1279,
      "Ġface": 1280,
      "ĠHey": 1281,
      "ash": 1282,
      "ics": 1283,
      "ures": 1284,
      "Ġ_": 1285,
      "ten": 1286,
      "Ġpict": 1287,
      "Ġbetween": 1288,
      "Ġsn": 1289,
      "ollow": 1290,
      "Ġready": 1291,
      "Ġhaven": 1292,
      "ason": 1293,
      "Ġhappened": 1294,
      "ject": 1295,
      "ĠNew": 1296,
      "ĠChr": 1297,
      "Ġbad": 1298,
      "Ġsoon": 1299,
      "Ġdri": 1300,
      "ĠCl": 1301,
      "Ġperson": 1302,
      "Ġchildren": 1303,
      "Ġwanted": 1304,
      "âĢĻt": 1305,
      "Ġhat": 1306,
      "ĠCar": 1307,
      "orth": 1308,
      "Ġrest": 1309,
      "ĠEng": 1310,
      "Ġfoot": 1311,
      "ating": 1312,
      "ina": 1313,
      "eter": 1314,
      "Ġca": 1315,
      "GMA": 1316,
      "Ġwithout": 1317,
      "ĠAf": 1318,
      "its": 1319,
      "ines": 1320,
      "any": 1321,
      "ames": 1322,
      "ered": 1323,
      "eth": 1324,
      "io": 1325,
      "fect": 1326,
      "ĠFr": 1327,
      "ular": 1328,
      "ife": 1329,
      "der": 1330,
      "Ġmus": 1331,
      "Ġlater": 1332,
      "ged": 1333,
      "BRO": 1334,
      "Ġtalking": 1335,
      "ĠMm": 1336,
      "Ġmove": 1337,
      "Ġhaving": 1338,
      "Ġpop": 1339,
      "ĠMiss": 1340,
      "Ġhigh": 1341,
      "ohn": 1342,
      "Ġdec": 1343,
      "oe": 1344,
      "ĠJust": 1345,
      "Ġmaybe": 1346,
      "ĠGod": 1347,
      "Ġeverything": 1348,
      "ĠMom": 1349,
      "Ġhimself": 1350,
      "Ġsort": 1351,
      "aper": 1352,
      "Ġhalf": 1353,
      "iet": 1354,
      "Ġtop": 1355,
      "ĠUnited": 1356,
      "ats": 1357,
      "Ġstory": 1358,
      "Ġmatter": 1359,
      "Ġupon": 1360,
      "ork": 1361,
      "stand": 1362,
      "Ġdep": 1363,
      "Ġair": 1364,
      "cle": 1365,
      "ane": 1366,
      "Ġinst": 1367,
      "pped": 1368,
      "oice": 1369,
      "ĠMrs": 1370,
      "ĠZ": 1371,
      "cha": 1372,
      "Ġalong": 1373,
      "ĠUh": 1374,
      "ball": 1375,
      "Ġalright": 1376,
      "ĠAmerican": 1377,
      "ĠBl": 1378,
      "ĠGo": 1379,
      "cial": 1380,
      "ĠDaddy": 1381,
      "ĠRe": 1382,
      "ale": 1383,
      "Ġlar": 1384,
      "Ġpretty": 1385,
      "osed": 1386,
      "most": 1387,
      "Ġdrink": 1388,
      "\",": 1389,
      "sel": 1390,
      "Ġlooked": 1391,
      "ĠJohn": 1392,
      "Ġwasn": 1393,
      "ters": 1394,
      "Ġwond": 1395,
      "Ġmaking": 1396,
      "me": 1397,
      "ĠWhere": 1398,
      "Ġknew": 1399,
      "Ġfollow": 1400,
      "Ġlive": 1401,
      "Ġhor": 1402,
      "ĠTHE": 1403,
      "ched": 1404,
      "Ġtable": 1405,
      "Ġcity": 1406,
      "Ġcons": 1407,
      "ĠRight": 1408,
      "ĠInd": 1409,
      "Ġbring": 1410,
      "Ġhour": 1411,
      "Ġdays": 1412,
      "Ġbreak": 1413,
      "ertain": 1414,
      "ubl": 1415,
      "vers": 1416,
      "Ġdire": 1417,
      "Ġagainst": 1418,
      "idd": 1419,
      "Ġmiss": 1420,
      "ĠWho": 1421,
      "aut": 1422,
      "Ġanim": 1423,
      "Ġdied": 1424,
      "Ġheart": 1425,
      "ING": 1426,
      "Ġinv": 1427,
      "dd": 1428,
      "less": 1429,
      "ĠPr": 1430,
      "Ġtra": 1431,
      "rew": 1432,
      "bo": 1433,
      "ma": 1434,
      "iness": 1435,
      "cept": 1436,
      "by": 1437,
      "Ġgave": 1438,
      "Ġblue": 1439,
      "clud": 1440,
      "Ġfamily": 1441,
      "ual": 1442,
      "Ġsy": 1443,
      "Ġborn": 1444,
      "unt": 1445,
      "Ġnoise": 1446,
      "Ġactually": 1447,
      "ision": 1448,
      "Ġkill": 1449,
      "ither": 1450,
      "Ġsir": 1451,
      "ĠChrist": 1452,
      "oint": 1453,
      "Ġbelieve": 1454,
      "Ġans": 1455,
      "ĠMa": 1456,
      "Ġsince": 1457,
      "ĠGood": 1458,
      "!\"": 1459,
      "Ġcut": 1460,
      "Ġboys": 1461,
      "Ġsaying": 1462,
      "br": 1463,
      "ok": 1464,
      "uth": 1465,
      "Ġwhole": 1466,
      "Ġid": 1467,
      "Ġstud": 1468,
      "Ġaw": 1469,
      "enty": 1470,
      "Ġstarted": 1471,
      "Ġhey": 1472,
      "Ġfood": 1473,
      "ĠAre": 1474,
      "ern": 1475,
      "sh": 1476,
      "to": 1477,
      "?\"": 1478,
      "Ġeas": 1479,
      "ĠThom": 1480,
      "ĠGer": 1481,
      "vern": 1482,
      "ĠHis": 1483,
      "Ġchair": 1484,
      "orrow": 1485,
      "ĠCHI": 1486,
      "pr": 1487,
      "Ġclose": 1488,
      "wards": 1489,
      "Ġsong": 1490,
      "Ġtown": 1491,
      "bably": 1492,
      "Ġwouldn": 1493,
      "Ġtrying": 1494,
      "ised": 1495,
      "Ġcent": 1496,
      "||": 1497,
      "Ġmeet": 1498,
      "ped": 1499,
      "erest": 1500,
      "ready": 1501,
      "ĠQ": 1502,
      "Ã©": 1503,
      "ced": 1504,
      "Ġswe": 1505,
      "ery": 1506,
      "oud": 1507,
      "Ġtri": 1508,
      "Ġcomes": 1509,
      "hip": 1510,
      "Ġadd": 1511,
      "Ġreturn": 1512,
      "Ġhot": 1513,
      "Ġdoll": 1514,
      "Ġsub": 1515,
      "Ġlaugh": 1516,
      "ole": 1517,
      "aster": 1518,
      "ĠCom": 1519,
      "Ġbuild": 1520,
      "ote": 1521,
      "Ġcur": 1522,
      "uss": 1523,
      "Ġfloor": 1524,
      "Ġunderstand": 1525,
      "ocal": 1526,
      "Ġwrong": 1527,
      "ĠLook": 1528,
      "Ġmoment": 1529,
      "Ġplaying": 1530,
      "Ġste": 1531,
      "ĠOne": 1532,
      "Ġjob": 1533,
      "Ġcat": 1534,
      "Ġeight": 1535,
      "www": 1536,
      "ully": 1537,
      "âĢĶ": 1538,
      "zz": 1539,
      "Ġgreen": 1540,
      "Ġblack": 1541,
      "Ġwonder": 1542,
      "Ġland": 1543,
      "Ġwhite": 1544,
      "ches": 1545,
      "ony": 1546,
      "ĠThomas": 1547,
      "Ġpull": 1548,
      "Ġquest": 1549,
      "Ġminute": 1550,
      "Ġdel": 1551,
      "Ġbrother": 1552,
      "EN": 1553,
      "Ġinf": 1554,
      "ĠStates": 1555,
      "Ġalready": 1556,
      "ative": 1557,
      "Ġdro": 1558,
      "ield": 1559,
      "cess": 1560,
      "oke": 1561,
      "ï¿½ï¿½": 1562,
      "Ġgame": 1563,
      "Ġteam": 1564,
      "ĠSh": 1565,
      "Ġinterest": 1566,
      "ĠDid": 1567,
      "Ġdraw": 1568,
      "Ġfriends": 1569,
      "Ġsqu": 1570,
      "ĠMe": 1571,
      "Ġdisc": 1572,
      "oes": 1573,
      "Ġbecame": 1574,
      "Ġmet": 1575,
      "Ġkid": 1576,
      "Ġalmost": 1577,
      "aces": 1578,
      "Ġgotta": 1579,
      "eb": 1580,
      "ĠBob": 1581,
      "Ġsign": 1582,
      "ants": 1583,
      "ama": 1584,
      "You": 1585,
      "ON": 1586,
      "Ġimp": 1587,
      "Ġten": 1588,
      "app": 1589,
      "Ġhair": 1590,
      "Ġref": 1591,
      "read": 1592,
      "ĠâĢĵ": 1593,
      "Ġfeet": 1594,
      "Ġrep": 1595,
      "Ġbeaut": 1596,
      "ives": 1597,
      "Ġguess": 1598,
      "Ġpain": 1599,
      "aken": 1600,
      "Ġson": 1601,
      "Ġcountry": 1602,
      "Ġplayed": 1603,
      "ues": 1604,
      "Ġpay": 1605,
      "Ġinclud": 1606,
      "ined": 1607,
      "Ġhappy": 1608,
      "Ġidea": 1609,
      "ize": 1610,
      "aid": 1611,
      "Ġpaper": 1612,
      "Ġtimes": 1613,
      "Ġposs": 1614,
      "where": 1615,
      "oth": 1616,
      "ĠTo": 1617,
      "Ġsent": 1618,
      "ison": 1619,
      "ital": 1620,
      "undred": 1621,
      "Ġsil": 1622,
      "Ġprobably": 1623,
      "Ġbeh": 1624,
      "ĠWill": 1625,
      "olog": 1626,
      "ying": 1627,
      "Ġpicture": 1628,
      "ustr": 1629,
      "Ġyell": 1630,
      "ĠSc": 1631,
      "ĠJack": 1632,
      "no": 1633,
      "ted": 1634,
      "Ġlost": 1635,
      "Ġcolor": 1636,
      "Ġquick": 1637,
      "ages": 1638,
      "ik": 1639,
      "eed": 1640,
      "ities": 1641,
      "Ġfact": 1642,
      "Ġmusic": 1643,
      "ivers": 1644,
      "ĠThank": 1645,
      "ĠMOT": 1646,
      "ises": 1647,
      "Ġspeak": 1648,
      "Ġleg": 1649,
      "Ġlead": 1650,
      "Ġmakes": 1651,
      "Ġfront": 1652,
      "Ġpur": 1653,
      "Ġaren": 1654,
      "Ġfine": 1655,
      "ster": 1656,
      "Ġmine": 1657,
      "ober": 1658,
      "Ġstuff": 1659,
      "Ġbegan": 1660,
      "ene": 1661,
      "Ġexc": 1662,
      "\".": 1663,
      "Ġcook": 1664,
      "ape": 1665,
      "ots": 1666,
      "ring": 1667,
      "Ġfight": 1668,
      "Ġass": 1669,
      "Ġmovie": 1670,
      "ouch": 1671,
      "Ġgi": 1672,
      "ĠKing": 1673,
      "rib": 1674,
      "Ġduring": 1675,
      "Ġcoll": 1676,
      "airs": 1677,
      "Ġinter": 1678,
      "Ġhundred": 1679,
      "Ġoutside": 1680,
      "Ġtre": 1681,
      "LL": 1682,
      "ury": 1683,
      "ipp": 1684,
      "Ġbehind": 1685,
      "RA": 1686,
      "Ġwoman": 1687,
      "ense": 1688,
      "Ġhum": 1689,
      "Ġplan": 1690,
      "ĠTom": 1691,
      "ey": 1692,
      "ple": 1693,
      "Ġwants": 1694,
      "Ġmeans": 1695,
      "Ġmonth": 1696,
      "-s": 1697,
      "Ġcontin": 1698,
      "Ġhell": 1699,
      "Ġproble": 1700,
      "ica": 1701,
      "ner": 1702,
      "cy": 1703,
      "utes": 1704,
      "key": 1705,
      "Ġweek": 1706,
      "ax": 1707,
      "Ġstick": 1708,
      "wer": 1709,
      "Ġcup": 1710,
      "Ġparty": 1711,
      "Ġcouldn": 1712,
      "elt": 1713,
      "ĠHar": 1714,
      "Ġext": 1715,
      "ĠSome": 1716,
      "ete": 1717,
      "Ġcertain": 1718,
      "Ġhope": 1719,
      "OR": 1720,
      "Ġbrought": 1721,
      "ared": 1722,
      "Ġrecord": 1723,
      "Ġi": 1724,
      "Ġconf": 1725,
      "Ġfull": 1726,
      "itting": 1727,
      "ese": 1728,
      "ĠAfter": 1729,
      "Ġinc": 1730,
      "iful": 1731,
      "Ġexpl": 1732,
      "unch": 1733,
      "Ġdead": 1734,
      "lish": 1735,
      "ently": 1736,
      "Ġcompl": 1737,
      "----": 1738,
      "Ġable": 1739,
      "haps": 1740,
      "Ġvoice": 1741,
      "Ġimport": 1742,
      "Ġoffic": 1743,
      "room": 1744,
      "Ġsim": 1745,
      "ĠYour": 1746,
      "ouble": 1747,
      "Ġpiece": 1748,
      ").": 1749,
      "Ġlate": 1750,
      "ĠHer": 1751,
      "ĠGerman": 1752,
      "Ġshort": 1753,
      "Ġran": 1754,
      "Ġbar": 1755,
      "Ġprod": 1756,
      "Ġgener": 1757,
      "Ġones": 1758,
      "NAN": 1759,
      "Ġform": 1760,
      "rog": 1761,
      "Ġprom": 1762,
      "Ġpu": 1763,
      "Ġhappen": 1764,
      "Ġbird": 1765,
      "Ġlear": 1766,
      "Ġlisten": 1767,
      "ards": 1768,
      "inner": 1769,
      "ĠGe": 1770,
      "son": 1771,
      "rying": 1772,
      "Ġturned": 1773,
      "Ġsun": 1774,
      "ided": 1775,
      "Ġhorse": 1776,
      "irth": 1777,
      "aur": 1778,
      "iam": 1779,
      "Ġfore": 1780,
      "Ġrock": 1781,
      "ĠLe": 1782,
      "ĠChi": 1783,
      "ĠHere": 1784,
      "LO": 1785,
      "Ġsat": 1786,
      "Ġgirls": 1787,
      "ĠPh": 1788,
      "Ġoften": 1789,
      "Ġtaken": 1790,
      "Ġmyself": 1791,
      "cted": 1792,
      "iew": 1793,
      "for": 1794,
      "Ġpoor": 1795,
      "ides": 1796,
      "ured": 1797,
      "ments": 1798,
      "Ġes": 1799,
      "Ġyourself": 1800,
      "Ġbusiness": 1801,
      "wh": 1802,
      "Ġinside": 1803,
      "Ġminutes": 1804,
      "ĠAb": 1805,
      "gan": 1806,
      "Ġmag": 1807,
      "Ġline": 1808,
      "ĠPro": 1809,
      "ald": 1810,
      "ned": 1811,
      "Ġtaking": 1812,
      "It": 1813,
      "ĠEx": 1814,
      "ĠWith": 1815,
      "Ġdress": 1816,
      "Ġbear": 1817,
      "Ġmed": 1818,
      "Ġdeath": 1819,
      "Ġtele": 1820,
      "Ġguy": 1821,
      "ief": 1822,
      "Ġeng": 1823,
      "-b": 1824,
      "Ġwords": 1825,
      ".\"": 1826,
      "Ġtoys": 1827,
      "ized": 1828,
      "Ġmain": 1829,
      "Ġpen": 1830,
      "Ġvis": 1831,
      "Ġyellow": 1832,
      "ask": 1833,
      "Ġed": 1834,
      "dy": 1835,
      "ĠFl": 1836,
      "Ġstre": 1837,
      "ific": 1838,
      "Ġsister": 1839,
      "LD": 1840,
      "Ġseemed": 1841,
      "Ġart": 1842,
      "men": 1843,
      "leased": 1844,
      "Ġexp": 1845,
      "Ġage": 1846,
      "Ġsomeone": 1847,
      "Ġgrand": 1848,
      "Ġcold": 1849,
      "head": 1850,
      "Ġfunny": 1851,
      "ming": 1852,
      "Ġless": 1853,
      "Ġago": 1854,
      "Ġcase": 1855,
      "ones": 1856,
      "ze": 1857,
      "Ġlarge": 1858,
      "arent": 1859,
      "Ġtom": 1860,
      "gin": 1861,
      "used": 1862,
      "ĠYOU": 1863,
      "ĠAd": 1864,
      "ention": 1865,
      "Ġbeautiful": 1866,
      "-d": 1867,
      "ĠCount": 1868,
      "Ġsometimes": 1869,
      "aj": 1870,
      "bit": 1871,
      "Ġdark": 1872,
      "DS": 1873,
      "ider": 1874,
      "ĠOr": 1875,
      "ator": 1876,
      "ution": 1877,
      "Ġpage": 1878,
      "amed": 1879,
      "Ġwife": 1880,
      "Ġlady": 1881,
      "ĠTe": 1882,
      "aughter": 1883,
      "Ġev": 1884,
      "ists": 1885,
      "ĠChar": 1886,
      "Ġbirth": 1887,
      "Ġrepl": 1888,
      "ney": 1889,
      "els": 1890,
      "selves": 1891,
      "ĠJan": 1892,
      "Ġtree": 1893,
      "Ġsweet": 1894,
      "Ġroad": 1895,
      "fully": 1896,
      "ert": 1897,
      "Ġchange": 1898,
      "ĠPe": 1899,
      "Ġstate": 1900,
      "Ġboat": 1901,
      "Ġcir": 1902,
      "Ġmilk": 1903,
      "Ġmommy": 1904,
      "rench": 1905,
      "Ġalone": 1906,
      "Ġpower": 1907,
      "Ġimportant": 1908,
      "ĠEd": 1909,
      "Ġtwenty": 1910,
      "Ġrather": 1911,
      "DAD": 1912,
      "rest": 1913,
      "Ġhello": 1914,
      "kes": 1915,
      "Ġmess": 1916,
      "Ġbag": 1917,
      "artment": 1918,
      "Ġpresent": 1919,
      "Ġtill": 1920,
      "Ġreac": 1921,
      "What": 1922,
      "not": 1923,
      "ĠMommy": 1924,
      "Ġeither": 1925,
      "Ġgiven": 1926,
      "Ġwear": 1927,
      "ĠEnglish": 1928,
      "Ġserv": 1929,
      "UR": 1930,
      "Ġuhhuh": 1931,
      "Ġpubl": 1932,
      "Ġstrong": 1933,
      "Ġbody": 1934,
      "ĠGrand": 1935,
      "born": 1936,
      "\".Ċ": 1937,
      "Ġmark": 1938,
      "ffe": 1939,
      "icha": 1940,
      "Ġpar": 1941,
      "Ġgets": 1942,
      "Ġpast": 1943,
      "Ġdar": 1944,
      "oub": 1945,
      "ĠPl": 1946,
      "Ġins": 1947,
      "Ġgovern": 1948,
      "Ġtea": 1949,
      "Oh": 1950,
      "Ġseven": 1951,
      "Ġtrue": 1952,
      "ham": 1953,
      "gy": 1954,
      "Ġworking": 1955,
      "Ġfish": 1956,
      "Ġtrans": 1957,
      "Ġfelt": 1958,
      "!\"Ċ": 1959,
      "-huh": 1960,
      "owing": 1961,
      "Ġ#": 1962,
      "Ġbuy": 1963,
      "ising": 1964,
      "Ġclass": 1965,
      "Ġem": 1966,
      "Ġfif": 1967,
      "ĠBar": 1968,
      "Ġpri": 1969,
      "Ġwood": 1970,
      "ians": 1971,
      "ĠIN": 1972,
      "Ġarea": 1973,
      "-l": 1974,
      "ops": 1975,
      "Ġclear": 1976,
      "ello": 1977,
      "ĠFrance": 1978,
      "Ġfav": 1979,
      "range": 1980,
      "ism": 1981,
      "ĠTr": 1982,
      "Ġhurt": 1983,
      "MAR": 1984,
      "ĠPer": 1985,
      "Ġacross": 1986,
      "aim": 1987,
      "pri": 1988,
      "Ġmot": 1989,
      "Ġleast": 1990,
      "Ġty": 1991,
      "ĠSha": 1992,
      "ĠHel": 1993,
      "idge": 1994,
      "Ġorder": 1995,
      "Ġothers": 1996,
      "Ġfast": 1997,
      "ges": 1998,
      "ĠBrit": 1999,
      "Ġground": 2000,
      "Ġhon": 2001,
      "Ġprov": 2002,
      "atur": 2003,
      "iving": 2004,
      "Ġquestion": 2005,
      "ĠPar": 2006,
      "Ġclean": 2007,
      "ĠWor": 2008,
      "Ġz": 2009,
      "Ġguys": 2010,
      "iously": 2011,
      "umb": 2012,
      "Ġnews": 2013,
      "Ġfinished": 2014,
      "Ġearly": 2015,
      "ĠEvery": 2016,
      "Ġocc": 2017,
      "ĠCon": 2018,
      "ley": 2019,
      "ature": 2020,
      "ĠEl": 2021,
      "Ġanimals": 2022,
      "]?Ċ": 2023,
      "ken": 2024,
      "Ġsomebody": 2025,
      "Ġjump": 2026,
      "Ġlaw": 2027,
      "Ġforg": 2028,
      "Ġsea": 2029,
      "ety": 2030,
      "PAT": 2031,
      "Ġdaddy": 2032,
      "Ġwish": 2033,
      "Ġgroup": 2034,
      "stem": 2035,
      "iting": 2036,
      "hy": 2037,
      "ĠCap": 2038,
      "Ġcreat": 2039,
      "Ġice": 2040,
      "ĠBecause": 2041,
      "itc": 2042,
      "rence": 2043,
      "Ġfair": 2044,
      "Ġdeal": 2045,
      "Ġstar": 2046,
      "Ġgun": 2047,
      "Ġtoy": 2048,
      "ana": 2049,
      "iding": 2050,
      "ĠTw": 2051,
      "ĠX": 2052,
      "fic": 2053,
      "ĠWar": 2054,
      "Ġlay": 2055,
      "Ġegg": 2056,
      "ately": 2057,
      "Ġadv": 2058,
      "Ġsever": 2059,
      "ĠAh": 2060,
      "Ġdinner": 2061,
      "-c": 2062,
      "We": 2063,
      "Ġmill": 2064,
      "Ġclot": 2065,
      "sing": 2066,
      "uary": 2067,
      "irty": 2068,
      "Ġprot": 2069,
      "Ġwin": 2070,
      "ĠSe": 2071,
      "Ġwrite": 2072,
      "att": 2073,
      "ilt": 2074,
      "Ġpos": 2075,
      "Ġlo": 2076,
      "-f": 2077,
      "ept": 2078,
      "Ġwall": 2079,
      "Ġfree": 2080,
      "Ġfig": 2081,
      "ĠâĮ": 2082,
      "Ġpolit": 2083,
      "ained": 2084,
      "Ġda": 2085,
      "ummer": 2086,
      "erv": 2087,
      "Ġtakes": 2088,
      "uly": 2089,
      "Ġroll": 2090,
      "Ġseveral": 2091,
      "illy": 2092,
      "isc": 2093,
      "ĠAm": 2094,
      "enn": 2095,
      "iter": 2096,
      "Ġthinking": 2097,
      "ara": 2098,
      "ains": 2099,
      "angu": 2100,
      "Ġphone": 2101,
      "Ġhung": 2102,
      "Ġcompany": 2103,
      "Ġsold": 2104,
      "ĠJap": 2105,
      "rict": 2106,
      "Ġwomen": 2107,
      "eng": 2108,
      "ĠMan": 2109,
      "Ġspe": 2110,
      "Ġmod": 2111,
      "Ġrece": 2112,
      "iff": 2113,
      "ĠFrench": 2114,
      "Ġtomorrow": 2115,
      "Ġmouth": 2116,
      "ĠDad": 2117,
      "âĮ": 2118,
      "raid": 2119,
      "ĠBy": 2120,
      "icks": 2121,
      "Ġjo": 2122,
      "Ġhi": 2123,
      "Ġtruck": 2124,
      "ices": 2125,
      "Ġpot": 2126,
      "Ġreason": 2127,
      "EL": 2128,
      "raph": 2129,
      "sc": 2130,
      "osp": 2131,
      "Ġtried": 2132,
      "urch": 2133,
      "acher": 2134,
      "ĠOf": 2135,
      "Ġexpect": 2136,
      "Ġdarling": 2137,
      "ering": 2138,
      "ounds": 2139,
      "Ġfootball": 2140,
      "ĠThese": 2141,
      "ric": 2142,
      "ĠYork": 2143,
      "Ġju": 2144,
      "Ġstra": 2145,
      "imb": 2146,
      "iversity": 2147,
      "ĠPlease": 2148,
      "Ġbur": 2149,
      "Ġliving": 2150,
      "ĠDr": 2151,
      "Ġsal": 2152,
      "-t": 2153,
      "Ġpartic": 2154,
      "ĠâĻªĊ": 2155,
      "Ġcamp": 2156,
      "Ġsend": 2157,
      "ium": 2158,
      "Ġopp": 2159,
      "Ġsitting": 2160,
      "fess": 2161,
      "ousand": 2162,
      "Ġconc": 2163,
      "Ġap": 2164,
      "ĠJapan": 2165,
      "Ġpat": 2166,
      "ĠGet": 2167,
      "ead": 2168,
      "oof": 2169,
      "Ġbecome": 2170,
      "Ġbooks": 2171,
      "ĠHave": 2172,
      "Ġhit": 2173,
      "ls": 2174,
      "fort": 2175,
      "CDS": 2176,
      "ĠCounty": 2177,
      "overed": 2178,
      "UN": 2179,
      "ĠGeor": 2180,
      "Ġchance": 2181,
      "ĠWorld": 2182,
      "Yes": 2183,
      "LOI": 2184,
      "Ġbirthday": 2185,
      "Ġfix": 2186,
      "yl": 2187,
      "Ġfrog": 2188,
      "Ġya": 2189,
      "Ġquiet": 2190,
      "Ġdef": 2191,
      "Ġfly": 2192,
      "owed": 2193,
      "onight": 2194,
      "Ġrunning": 2195,
      "Ġusually": 2196,
      "ĠDav": 2197,
      "Ġdoctor": 2198,
      "Ġcor": 2199,
      "cil": 2200,
      "Ġmarried": 2201,
      "aced": 2202,
      "Ġlived": 2203,
      "ĠMarch": 2204,
      "ĠJanuary": 2205,
      "Ġdad": 2206,
      "band": 2207,
      "Ġglad": 2208,
      "irt": 2209,
      "Ġbath": 2210,
      "ange": 2211,
      "Ġherself": 2212,
      "Ġfing": 2213,
      "ĠJune": 2214,
      "RI": 2215,
      "Ġra": 2216,
      "ived": 2217,
      "Ġsystem": 2218,
      "Ġcorn": 2219,
      "Ġshop": 2220,
      "ping": 2221,
      "Ġproblem": 2222,
      "Ġfil": 2223,
      "ued": 2224,
      "ĠAN": 2225,
      "Ġheld": 2226,
      "Ġband": 2227,
      "arch": 2228,
      "Ġattack": 2229,
      "Ġcried": 2230,
      "Ġtrouble": 2231,
      "Ġstep": 2232,
      "ĠEur": 2233,
      "eared": 2234,
      "Ġcheck": 2235,
      "ode": 2236,
      "bum": 2237,
      "Ġchoo": 2238,
      "Ġresp": 2239,
      "Ġring": 2240,
      "Ġsand": 2241,
      "Ġafraid": 2242,
      "Ġthousand": 2243,
      "ĠGu": 2244,
      "inning": 2245,
      "II": 2246,
      "Ġlots": 2247,
      "Ġvill": 2248,
      "Ġcatch": 2249,
      "mon": 2250,
      "anger": 2251,
      "ĠSw": 2252,
      "Ġwindow": 2253,
      "alth": 2254,
      "Ġamong": 2255,
      "olly": 2256,
      "ĠHello": 2257,
      "Ġnine": 2258,
      "Ġsoft": 2259,
      "GRA": 2260,
      "Ġfur": 2261,
      "Ġletter": 2262,
      "Ġtouch": 2263,
      "ically": 2264,
      "itten": 2265,
      "ional": 2266,
      "Ġlov": 2267,
      "ĠSam": 2268,
      "Ġblock": 2269,
      "unk": 2270,
      "Ġhist": 2271,
      "Ġship": 2272,
      "ox": 2273,
      "aul": 2274,
      "Ġkept": 2275,
      "Ġcond": 2276,
      "Ġadm": 2277,
      "entle": 2278,
      "Ġple": 2279,
      "Ġspecial": 2280,
      "ford": 2281,
      "ĠTO": 2282,
      "Ġhours": 2283,
      "mas": 2284,
      "Ġsurpr": 2285,
      "Ġarm": 2286,
      "ADU": 2287,
      "Ġlangu": 2288,
      "Ġpoints": 2289,
      "pril": 2290,
      "Ġanswer": 2291,
      "Ġnamed": 2292,
      "iddle": 2293,
      "teen": 2294,
      "Ġmum": 2295,
      "point": 2296,
      "Ġreport": 2297,
      "raz": 2298,
      "Ġobject": 2299,
      "Ġnorth": 2300,
      "Ġkiss": 2301,
      "No": 2302,
      "rie": 2303,
      "Ġdaughter": 2304,
      "owers": 2305,
      "ugust": 2306,
      "Ġreleased": 2307,
      "ĠNe": 2308,
      "ĠErm": 2309,
      "ility": 2310,
      "oman": 2311,
      "Ġcross": 2312,
      "Ġord": 2313,
      "ality": 2314,
      "Ġexper": 2315,
      "Ġdat": 2316,
      "Ġyours": 2317,
      "vision": 2318,
      "ĠCol": 2319,
      "makes": 2320,
      "ract": 2321,
      "ement": 2322,
      "And": 2323,
      "Ġkilled": 2324,
      "Ġann": 2325,
      "Ġeating": 2326,
      "ears": 2327,
      "FCH": 2328,
      "Ġeverybody": 2329,
      "Ġheav": 2330,
      "Ġpress": 2331,
      "but": 2332,
      "ĠSouth": 2333,
      "RE": 2334,
      "Ġseems": 2335,
      "Ġclothes": 2336,
      "ĠAny": 2337,
      "ĠCal": 2338,
      "Ġtired": 2339,
      "Ġtonight": 2340,
      "Ġking": 2341,
      "ĠPres": 2342,
      "Ġseries": 2343,
      "ron": 2344,
      "more": 2345,
      "Ġdream": 2346,
      "dden": 2347,
      "Ġpost": 2348,
      "Ġblood": 2349,
      "TER": 2350,
      "lly": 2351,
      "Ġperhaps": 2352,
      "Ġknows": 2353,
      "Ġalbum": 2354,
      "velop": 2355,
      "Ġhus": 2356,
      "Ġkids": 2357,
      "Ġmount": 2358,
      "amer": 2359,
      "Ġthrow": 2360,
      "ccess": 2361,
      "Ġcoup": 2362,
      "over": 2363,
      "Ġrain": 2364,
      "rol": 2365,
      "Ġtem": 2366,
      "Ġlovely": 2367,
      "Ġforget": 2368,
      "Ġjuice": 2369,
      "Ġappro": 2370,
      "Ġsounds": 2371,
      "ient": 2372,
      "Ġlad": 2373,
      "Ġshoes": 2374,
      "Ġgovernment": 2375,
      "Ġmer": 2376,
      "Ġmonths": 2377,
      ").Ċ": 2378,
      "Ġeasy": 2379,
      "gue": 2380,
      "Ġsudden": 2381,
      "ctober": 2382,
      "Ġlives": 2383,
      "Ġsuppose": 2384,
      "ĠBritish": 2385,
      "actly": 2386,
      "aint": 2387,
      "Ġduck": 2388,
      "ĠJim": 2389,
      "ude": 2390,
      "ays": 2391,
      "Ġdra": 2392,
      "Ġspec": 2393,
      "unic": 2394,
      "NA": 2395,
      "-m": 2396,
      "ories": 2397,
      "Ġwaiting": 2398,
      "ĠSte": 2399,
      "Ġstraight": 2400,
      "ored": 2401,
      "ĠAugust": 2402,
      "ler": 2403,
      "Ġhang": 2404,
      "Ġfit": 2405,
      "Ġcareful": 2406,
      "Well": 2407,
      "asure": 2408,
      "Ġpolice": 2409,
      "Ġain": 2410,
      "que": 2411,
      "ĠNorth": 2412,
      "Ġnose": 2413,
      "Ġsca": 2414,
      "Ġworked": 2415,
      "Ġdiv": 2416,
      "But": 2417,
      "though": 2418,
      "Ã¡": 2419,
      "Ġnoises": 2420,
      "ovember": 2421,
      "stairs": 2422,
      "Ġeye": 2423,
      "uit": 2424,
      "ĠPhil": 2425,
      "let": 2426,
      "Ġmoved": 2427,
      "urs": 2428,
      "CHILD": 2429,
      "cient": 2430,
      "Ġgra": 2431,
      "uts": 2432,
      "Ġcow": 2433,
      "Ġhusband": 2434,
      "Ġstood": 2435,
      ".cha": 2436,
      "ott": 2437,
      "Ġputs": 2438,
      "/CHILD": 2439,
      "Ġchildes": 2440,
      "/CHILDES": 2441,
      "Ġhors": 2442,
      "ĠMaybe": 2443,
      "ulation": 2444,
      "Ġcharac": 2445,
      "?âĢĿĊ": 2446,
      "eptember": 2447,
      "Ġwithin": 2448,
      "itch": 2449,
      "Ġputting": 2450,
      "Ġgold": 2451,
      "Ġthemselves": 2452,
      "urd": 2453,
      "Ġlow": 2454,
      "cember": 2455,
      "ek": 2456,
      "Ġevent": 2457,
      "Ġcouple": 2458,
      "pes": 2459,
      "omb": 2460,
      "ĠPeter": 2461,
      "Ġwhether": 2462,
      "ĠMin": 2463,
      "ĠApril": 2464,
      "unny": 2465,
      "Ġill": 2466,
      "arden": 2467,
      "hant": 2468,
      "ĠCaptain": 2469,
      "ardon": 2470,
      "Ġsingle": 2471,
      "amb": 2472,
      "ĠOctober": 2473,
      "par": 2474,
      "ĠJe": 2475,
      "friend": 2476,
      "gas": 2477,
      "ĠEurope": 2478,
      "Ġpossible": 2479,
      "Ġhop": 2480,
      "ai": 2481,
      "aser": 2482,
      "hern": 2483,
      "Ġmember": 2484,
      "!âĢĿ": 2485,
      "Ġhar": 2486,
      "Ġluck": 2487,
      "ĠDan": 2488,
      "rigin": 2489,
      "ĠWas": 2490,
      "AS": 2491,
      "Ġpretend": 2492,
      "Ġgentle": 2493,
      "AL": 2494,
      "Ġwow": 2495,
      "lex": 2496,
      "Ġnational": 2497,
      "ruary": 2498,
      "Ġcos": 2499,
      "ebruary": 2500,
      "Ġsail": 2501,
      "Ġproper": 2502,
      "Ġforgot": 2503,
      "Ġdanger": 2504,
      "gram": 2505,
      "fast": 2506,
      "Ġdeep": 2507,
      "Ġchick": 2508,
      "ĠNovember": 2509,
      "Ġorange": 2510,
      "ances": 2511,
      "Ġoffice": 2512,
      "aged": 2513,
      "Ġdiffic": 2514,
      "Ġbroken": 2515,
      "ĠEngland": 2516,
      "Ġanyway": 2517,
      "Ġfavor": 2518,
      "Ġcannot": 2519,
      "ĠJuly": 2520,
      "che": 2521,
      "Ġriver": 2522,
      "Ġneeds": 2523,
      "Ġfield": 2524,
      "ĠQu": 2525,
      "net": 2526,
      "Ġconst": 2527,
      "Ġsafe": 2528,
      "-p": 2529,
      "Ġsol": 2530,
      "Ġla": 2531,
      "ĠSeptember": 2532,
      "Ġlonger": 2533,
      "ĠSee": 2534,
      "ĠMc": 2535,
      "ral": 2536,
      "Ġshot": 2537,
      "Ġknock": 2538,
      "Ġbott": 2539,
      "Ġelect": 2540,
      "Ġtowards": 2541,
      "Ġsuccess": 2542,
      "igg": 2543,
      "Ġmillion": 2544,
      "Ġdepartment": 2545,
      "com": 2546,
      "ĠLea": 2547,
      "Ġfa": 2548,
      "look": 2549,
      "ĠDecember": 2550,
      "ffect": 2551,
      "Ġbuilding": 2552,
      "Ġforward": 2553,
      "ĠEar": 2554,
      "phone": 2555,
      "reed": 2556,
      "ĠSu": 2557,
      "Ġreplied": 2558,
      "Ġoper": 2559,
      "wered": 2560,
      "ĠFrank": 2561,
      "?âĢĿ": 2562,
      "attle": 2563,
      "Ġpassed": 2564,
      "Ġglass": 2565,
      "rat": 2566,
      "ĠCH": 2567,
      "Ġabove": 2568,
      "ager": 2569,
      "Ġcray": 2570,
      "vocal": 2571,
      "joy": 2572,
      "Ġquickly": 2573,
      "Ġarms": 2574,
      "Ġdet": 2575,
      "âĢĵ": 2576,
      "fer": 2577,
      "Ġvar": 2578,
      "come": 2579,
      "terday": 2580,
      "ĠBen": 2581,
      "Ġtelevision": 2582,
      "Ġslow": 2583,
      "ĠMart": 2584,
      "rod": 2585,
      "Ġcool": 2586,
      "Ġdoub": 2587,
      "That": 2588,
      "udd": 2589,
      "Ġseem": 2590,
      "..Ċ": 2591,
      "ĠFebruary": 2592,
      "Ġdrive": 2593,
      "ĠDavid": 2594,
      "Ġgrow": 2595,
      "Ġcommon": 2596,
      "Ġbreat": 2597,
      "ĠChristmas": 2598,
      "Ġseat": 2599,
      "Ġboard": 2600,
      "rop": 2601,
      "ograph": 2602,
      "Ġthird": 2603,
      "yn": 2604,
      "Ġworry": 2605,
      "Ġengine": 2606,
      "Ġclos": 2607,
      "ĠRep": 2608,
      "Ġequ": 2609,
      "gest": 2610,
      "ior": 2611,
      "Ġahead": 2612,
      "Ġbye": 2613,
      "Ġanswered": 2614,
      "ining": 2615,
      "ĠKe": 2616,
      "Ġve": 2617,
      "itchen": 2618,
      "Ġformer": 2619,
      "ĠCarl": 2620,
      "Ġcake": 2621,
      "Ġarri": 2622,
      "Ġstat": 2623,
      "Ġstation": 2624,
      "ample": 2625,
      "ience": 2626,
      "Ġabs": 2627,
      "Ġdest": 2628,
      "Ġdevelop": 2629,
      "ĠComm": 2630,
      "ĠUniversity": 2631,
      "ĠPaul": 2632,
      "Ġeh": 2633,
      "Ġwhatever": 2634,
      "Ġanyone": 2635,
      "Ġmist": 2636,
      "Ġtreat": 2637,
      "Ġparent": 2638,
      "Ġpush": 2639,
      "Ġwat": 2640,
      "Ġtelling": 2641,
      "ĠFrom": 2642,
      "ondon": 2643,
      "Ġcover": 2644,
      "Ġreached": 2645,
      "IC": 2646,
      "AP": 2647,
      "Ġcry": 2648,
      "Ġevening": 2649,
      "Ġsnow": 2650,
      "Ġhuman": 2651,
      "Ġlie": 2652,
      "Ġhungry": 2653,
      "ĠGl": 2654,
      "Ġpupp": 2655,
      "Ġplaces": 2656,
      "Ġtoward": 2657,
      "Ġchanged": 2658,
      "ĠThanks": 2659,
      "Ġtape": 2660,
      "ĠChe": 2661,
      "Ġregion": 2662,
      "Ġorgan": 2663,
      "ien": 2664,
      "ills": 2665,
      "Ġplayer": 2666,
      "ĠHelen": 2667,
      "ĠMark": 2668,
      "Ġpublic": 2669,
      "Ġfeeling": 2670,
      "Ġclub": 2671,
      "Ġwhose": 2672,
      "ĠMary": 2673,
      "Ġtick": 2674,
      "Ġvisit": 2675,
      "Ġeffect": 2676,
      "Ġcause": 2677,
      "Ġcaught": 2678,
      "ĠSir": 2679,
      "ĠEm": 2680,
      "'S": 2681,
      "Ġprodu": 2682,
      "Ġnearly": 2683,
      "Ġkitchen": 2684,
      "Ġbuilt": 2685,
      "Ġesc": 2686,
      "con": 2687,
      "ips": 2688,
      "Ġride": 2689,
      "ked": 2690,
      "ED": 2691,
      "uced": 2692,
      "Ġshar": 2693,
      "ĠEle": 2694,
      "oops": 2695,
      "ĠFraser": 2696,
      "ology": 2697,
      "emy": 2698,
      "ustral": 2699,
      "Ġtrees": 2700,
      "Ġbow": 2701,
      "een": 2702,
      "ĠOF": 2703,
      "Ġcareer": 2704,
      "ĠLondon": 2705,
      "Ġyesterday": 2706,
      "Ġhowever": 2707,
      "âĢĻll": 2708,
      "Ġbread": 2709,
      "Ġbroke": 2710,
      "Ġorigin": 2711,
      "Ġcost": 2712,
      "Ġnin": 2713,
      "Ġsupport": 2714,
      "you": 2715,
      "Ġswim": 2716,
      "Ġcal": 2717,
      "Ġtest": 2718,
      "iny": 2719,
      "ggest": 2720,
      "Ġval": 2721,
      "Ġclimb": 2722,
      "Ġinstead": 2723,
      "Ġest": 2724,
      "Ġsuper": 2725,
      "Ġstanding": 2726,
      "ander": 2727,
      "Ġbutter": 2728,
      "ffic": 2729,
      "Ġisland": 2730,
      "ĠItal": 2731,
      "Ġprofess": 2732,
      "Ġturns": 2733,
      "ĠJoe": 2734,
      "Ġsave": 2735,
      "Ġsupposed": 2736,
      "omin": 2737,
      "Ġcirc": 2738,
      "IT": 2739,
      "Ġview": 2740,
      "rible": 2741,
      "Ġteacher": 2742,
      "ause": 2743,
      "Ġsight": 2744,
      "Ġsuggest": 2745,
      "ĠMother": 2746,
      "Ġbreakfast": 2747,
      "Ġstri": 2748,
      "ĠGreat": 2749,
      "Ġexactly": 2750,
      "He": 2751,
      "Ġshout": 2752,
      "Ġwritten": 2753,
      "mbers": 2754,
      "ĠAustral": 2755,
      "Ġpark": 2756,
      "Ġtrack": 2757,
      "Ġreturned": 2758,
      "reen": 2759,
      "--Ċ": 2760,
      "Ġwarm": 2761,
      "ĠTake": 2762,
      "-w": 2763,
      "ospital": 2764,
      "ĠLike": 2765,
      "unity": 2766,
      "Ġworks": 2767,
      "Ġstore": 2768,
      "ĠRuss": 2769,
      "vol": 2770,
      "ĠCity": 2771,
      "ffee": 2772,
      "Ġenjoy": 2773,
      "Ġow": 2774,
      "Ġmeant": 2775,
      "Ġrad": 2776,
      "Ġstopped": 2777,
      "Ġusing": 2778,
      "Ġprison": 2779,
      "ĠWait": 2780,
      "ĠHi": 2781,
      "Ġpieces": 2782,
      "Ġcarry": 2783,
      "Ġstrange": 2784,
      "ĠWest": 2785,
      "Ġdirect": 2786,
      "Ġseason": 2787,
      "ĠNational": 2788,
      "Ġ\"Ċ": 2789,
      "Ġexcl": 2790,
      "bles": 2791,
      "ĠFirst": 2792,
      "ĠCr": 2793,
      "ET": 2794,
      "Ġhappens": 2795,
      "Ġban": 2796,
      "Ġprotect": 2797,
      "ĠMad": 2798,
      "Ġvillage": 2799,
      "Ġav": 2800,
      "aimed": 2801,
      "Ġhasn": 2802,
      "cially": 2803,
      "Ġopened": 2804,
      "Ġdem": 2805,
      "ror": 2806,
      "Ġdecided": 2807,
      "Ġfear": 2808,
      "ĠPat": 2809,
      "Ġfill": 2810,
      "hile": 2811,
      "go": 2812,
      "Ġprogram": 2813,
      "ician": 2814,
      "noon": 2815,
      "Ġdisapp": 2816,
      "ula": 2817,
      "ĠSm": 2818,
      "Ġmiddle": 2819,
      "Ġpardon": 2820,
      "Ġstuck": 2821,
      "iron": 2822,
      "Ġmaj": 2823,
      "Ġfinish": 2824,
      "Ġbought": 2825,
      "ĠPresident": 2826,
      "Ġperfect": 2827,
      "ĠTwo": 2828,
      "Ġweeks": 2829,
      "OM": 2830,
      "gar": 2831,
      "Ġdi": 2832,
      "ĠGeorge": 2833,
      "Ġinform": 2834,
      "Ġbas": 2835,
      "Ġpack": 2836,
      "Ġdesc": 2837,
      "co": 2838,
      "Ġbrown": 2839,
      "Ġgarden": 2840,
      "ĠOK": 2841,
      "ency": 2842,
      "bor": 2843,
      "GH": 2844,
      "mother": 2845,
      "idence": 2846,
      "Ġlearn": 2847,
      "Ġposition": 2848,
      "ales": 2849,
      "singing": 2850,
      "Ġfollowing": 2851,
      "ground": 2852,
      "Ġcre": 2853,
      "Ġcomplete": 2854,
      "uel": 2855,
      "uk": 2856,
      "Ġooh": 2857,
      "Ġafternoon": 2858,
      "ichael": 2859,
      "ĠList": 2860,
      "Ġparticular": 2861,
      "oul": 2862,
      "Ġsecret": 2863,
      "Ġheavy": 2864,
      "Ġsick": 2865,
      "Ġrequ": 2866,
      "Ġled": 2867,
      "Ġlunch": 2868,
      "ĠPart": 2869,
      "Ġru": 2870,
      "Ġfarm": 2871,
      "ÃŃ": 2872,
      "Ġwild": 2873,
      "iday": 2874,
      "Ġlanguage": 2875,
      "Ġindeed": 2876,
      "Ġbottom": 2877,
      "Ġdistrict": 2878,
      "ĠAND": 2879,
      "uthor": 2880,
      "Ġtruth": 2881,
      "nel": 2882,
      "Ġhoney": 2883,
      "Ġsomewhere": 2884,
      "ĠLord": 2885,
      "ĠPol": 2886,
      "Ġbes": 2887,
      "gu": 2888,
      "board": 2889,
      "ĠNor": 2890,
      "LE": 2891,
      "Ġmiles": 2892,
      "Ġgiving": 2893,
      "child": 2894,
      "Ġbelong": 2895,
      "Ġcast": 2896,
      "Ġanymore": 2897,
      "ĠSorry": 2898,
      "Ġanybody": 2899,
      "Ġeveryone": 2900,
      "Ġexcept": 2901,
      "Ġexample": 2902,
      "Ġwrote": 2903,
      "Ġsouth": 2904,
      "ouncil": 2905,
      "ging": 2906,
      "Ġut": 2907,
      "Ġshoot": 2908,
      "Ġcertainly": 2909,
      "Ġquar": 2910,
      "'Ċ": 2911,
      "ceed": 2912,
      "box": 2913,
      "Ġsus": 2914,
      "Ġholding": 2915,
      "Ġfollowed": 2916,
      "Ġcoffee": 2917,
      "Ġlevel": 2918,
      "Ġcand": 2919,
      "Ġmembers": 2920,
      "Ġwatching": 2921,
      "Ġloc": 2922,
      "Ġlaughs": 2923,
      "+Ċ": 2924,
      "ternational": 2925,
      "SI": 2926,
      "Ġwhis": 2927,
      "Ġmad": 2928,
      "Ġce": 2929,
      "ended": 2930,
      "empt": 2931,
      "Ġfigure": 2932,
      "Ġfellow": 2933,
      "ĠSomet": 2934,
      "night": 2935,
      "Ġ$": 2936,
      "Ġhol": 2937,
      "Ġcop": 2938,
      "Ġsell": 2939,
      "Ġservice": 2940,
      "ĠIndian": 2941,
      "Ġwhom": 2942,
      "Ġvi": 2943,
      "ases": 2944,
      "bur": 2945,
      "Ġchurch": 2946,
      "resent": 2947,
      "Ġearth": 2948,
      "Ġtast": 2949,
      "lie": 2950,
      "ĠHowever": 2951,
      "ege": 2952,
      "Ġgeneral": 2953,
      "Ġhistory": 2954,
      "izz": 2955,
      "Ġmach": 2956,
      "Ġworth": 2957,
      "ray": 2958,
      "ĠTell": 2959,
      "Ġspace": 2960,
      "Ġfort": 2961,
      "Ġleaving": 2962,
      "Ġemp": 2963,
      "Ġelep": 2964,
      "Ġstreet": 2965,
      "eal": 2966,
      "ĠRea": 2967,
      "Ġhig": 2968,
      "Ġpract": 2969,
      "Ġappear": 2970,
      "iers": 2971,
      "dom": 2972,
      "Ġlegs": 2973,
      "Ġdev": 2974,
      "af": 2975,
      "Ġbase": 2976,
      "Ġcommune": 2977,
      "Ġmoving": 2978,
      "ishing": 2979,
      "Ġ.Ċ": 2980,
      "Ġmis": 2981,
      "ushed": 2982,
      "aff": 2983,
      "ĠRober": 2984,
      "US": 2985,
      "Ġincluding": 2986,
      "hold": 2987,
      "Ġcheese": 2988,
      "Ġpictures": 2989,
      "ĠEven": 2990,
      "Ġdifficult": 2991,
      "Ġsmil": 2992,
      "-C": 2993,
      "Ġthirty": 2994,
      "Ġthanks": 2995,
      "Ġdefe": 2996,
      "ĠMichael": 2997,
      "Ġang": 2998,
      "Ġcars": 2999,
      "ounter": 3000,
      "oop": 3001,
      "Ġprop": 3002,
      "ogn": 3003,
      "Ġcharacter": 3004,
      "king": 3005,
      "Ġbright": 3006,
      "Ġweren": 3007,
      "Ġdecl": 3008,
      "Ġflowers": 3009,
      "ĠWH": 3010,
      "Ġtot": 3011,
      "ĠCent": 3012,
      "Ġyep": 3013,
      "'.Ċ": 3014,
      "Ġlift": 3015,
      "Ġbottle": 3016,
      "Ġbusy": 3017,
      "nect": 3018,
      "mpions": 3019,
      "ĠHen": 3020,
      "Ġ]Ċ": 3021,
      "Ġpopulation": 3022,
      "Ġparents": 3023,
      "Ġhospital": 3024,
      "Ġcard": 3025,
      "Ġmajor": 3026,
      "Ġfifty": 3027,
      "Ġcaptain": 3028,
      "ino": 3029,
      "ille": 3030,
      "Ġchicken": 3031,
      "eddy": 3032,
      "Ġfail": 3033,
      "ada": 3034,
      "ocol": 3035,
      "Ġhole": 3036,
      "Ġadded": 3037,
      "ĠLou": 3038,
      "Ġplays": 3039,
      "points": 3040,
      "ĠâĢĺ": 3041,
      "Ġimag": 3042,
      "Ġneck": 3043,
      "ĠMama": 3044,
      "ified": 3045,
      "Ġrising": 3046,
      "ĠAmerica": 3047,
      "Ġdoubt": 3048,
      "llustr": 3049,
      "Ġcompet": 3050,
      "ording": 3051,
      "Ġresult": 3052,
      "gasps": 3053,
      "ruct": 3054,
      "ancy": 3055,
      "Ġtail": 3056,
      "iger": 3057,
      "ĠAnn": 3058,
      "Ġneigh": 3059,
      "ĠMon": 3060,
      "Ġmix": 3061,
      "sings": 3062,
      "ĠBrown": 3063,
      "AY": 3064,
      "Ġreach": 3065,
      "Ġtrust": 3066,
      "ĠSar": 3067,
      "itted": 3068,
      "Ġreceived": 3069,
      "Ġsummer": 3070,
      "itty": 3071,
      "ky": 3072,
      "Ġmat": 3073,
      "hel": 3074,
      ".S": 3075,
      "Ġvide": 3076,
      "Ġpink": 3077,
      "ĠJames": 3078,
      "ĠIT": 3079,
      "uation": 3080,
      "Ġcab": 3081,
      "Ġgod": 3082,
      "Th": 3083,
      "bers": 3084,
      "ĠWilliam": 3085,
      "bed": 3086,
      "Ġdesign": 3087,
      "Ġconsider": 3088,
      "Ġburn": 3089,
      "Ġcurrent": 3090,
      "view": 3091,
      "Ġlau": 3092,
      "Ġcamer": 3093,
      "ĠNin": 3094,
      "Ġrab": 3095,
      "ization": 3096,
      "cer": 3097,
      "-h": 3098,
      "Ġought": 3099,
      "Ġaccept": 3100,
      "ti": 3101,
      "_NA": 3102,
      "Ġpounds": 3103,
      "pecially": 3104,
      "Ġanimal": 3105,
      "ya": 3106,
      "Ġrul": 3107,
      "Ġlikes": 3108,
      "iod": 3109,
      "estern": 3110,
      "ift": 3111,
      "OW": 3112,
      "Ġsad": 3113,
      "Ġlock": 3114,
      "ĠAg": 3115,
      "Ġpuzz": 3116,
      "Ġcrying": 3117,
      "Ġcontain": 3118,
      "ĠBlack": 3119,
      "ĠEn": 3120,
      "Ġwalking": 3121,
      "ressed": 3122,
      "Ġloud": 3123,
      "izes": 3124,
      "Ġfeed": 3125,
      "ĠSer": 3126,
      "Ġdam": 3127,
      "rel": 3128,
      "Ġsense": 3129,
      "Ġpicks": 3130,
      "Ġport": 3131,
      "erry": 3132,
      "Ġbeginning": 3133,
      "ĠSec": 3134,
      "Ġconvers": 3135,
      "Ġrace": 3136,
      "uty": 3137,
      "Ġwash": 3138,
      "fl": 3139,
      "tered": 3140,
      "rupt": 3141,
      "Ġapple": 3142,
      "har": 3143,
      "whis": 3144,
      "unicip": 3145,
      "Ġcollect": 3146,
      "Ġpresident": 3147,
      "Ġterm": 3148,
      "work": 3149,
      "Ġholds": 3150,
      "ination": 3151,
      "Ġcarried": 3152,
      "Ġcompan": 3153,
      "mm": 3154,
      "ĠMot": 3155,
      "Ġfurther": 3156,
      "acing": 3157,
      "ggy": 3158,
      "Ġrecogn": 3159,
      "Ġallowed": 3160,
      "Ġbank": 3161,
      "Ġsuddenly": 3162,
      "Ġcreated": 3163,
      "ids": 3164,
      "ĠRoman": 3165,
      "Ġspot": 3166,
      "Ġlose": 3167,
      "Ġcounty": 3168,
      "rit": 3169,
      "acy": 3170,
      "ades": 3171,
      "ida": 3172,
      "Ġbased": 3173,
      "Ġpopular": 3174,
      "Ġyum": 3175,
      "ĠQue": 3176,
      "ĠHarry": 3177,
      "roll": 3178,
      "Ġlocal": 3179,
      "ĠPeople": 3180,
      "gel": 3181,
      "play": 3182,
      "asket": 3183,
      "ID": 3184,
      "Ġmeeting": 3185,
      "Ġate": 3186,
      "Ġgames": 3187,
      "Ġgas": 3188,
      "Ġmoon": 3189,
      "iced": 3190,
      "Ġspir": 3191,
      "olute": 3192,
      "Ġcentury": 3193,
      "roy": 3194,
      "Ġcream": 3195,
      "Ġjack": 3196,
      ".âĢĿ": 3197,
      "Ġvol": 3198,
      "Ġuhoh": 3199,
      "Ġdance": 3200,
      "Ġletters": 3201,
      "Ġdry": 3202,
      "ĠSpan": 3203,
      "Ġ!Ċ": 3204,
      "Ġseeing": 3205,
      "form": 3206,
      "Ġtype": 3207,
      "ilar": 3208,
      "ĠGermany": 3209,
      "ĠJul": 3210,
      "Ġpriv": 3211,
      "Ġappeared": 3212,
      "ala": 3213,
      "Ġdropped": 3214,
      "noise": 3215,
      "riage": 3216,
      "Ġshape": 3217,
      "Ġinformation": 3218,
      "Ġshouldn": 3219,
      "ume": 3220,
      "Ġbeat": 3221,
      "ĠStop": 3222,
      "rian": 3223,
      "Ġgen": 3224,
      "ĠAfr": 3225,
      "Ġhast": 3226,
      "Ġnobody": 3227,
      "Ġnatur": 3228,
      "Ġteeth": 3229,
      "Ġspend": 3230,
      "ĠReally": 3231,
      "Ġauthor": 3232,
      "Ġgrass": 3233,
      "Ġwet": 3234,
      "AM": 3235,
      "ĠFather": 3236,
      "Ġmatch": 3237,
      "Ġvict": 3238,
      "Ġcontrol": 3239,
      "Ġself": 3240,
      "looks": 3241,
      "Ġgar": 3242,
      "Ġhorses": 3243,
      "mie": 3244,
      "uture": 3245,
      "Ġtor": 3246,
      "ounced": 3247,
      "uce": 3248,
      "Ġfavorite": 3249,
      "Ġjour": 3250,
      "off": 3251,
      "Ġplate": 3252,
      "wood": 3253,
      "ĠMor": 3254,
      "itions": 3255,
      "chn": 3256,
      "ĠBill": 3257,
      "Ġcorner": 3258,
      "Ġprin": 3259,
      "ript": 3260,
      "ĠEll": 3261,
      "Ġcapital": 3262,
      "Ġtall": 3263,
      "resh": 3264,
      "Ġdanc": 3265,
      "vin": 3266,
      "Ġalthough": 3267,
      "Ġentire": 3268,
      "cell": 3269,
      "Ġeggs": 3270,
      "Ġvers": 3271,
      "osaur": 3272,
      "por": 3273,
      "clock": 3274,
      "ission": 3275,
      "Ġwriting": 3276,
      "ius": 3277,
      "ĠBet": 3278,
      "ĠNothing": 3279,
      "now": 3280,
      "olved": 3281,
      "bert": 3282,
      "Ġwide": 3283,
      "Ġnorm": 3284,
      "lin": 3285,
      "iller": 3286,
      "Ġcrayon": 3287,
      "Why": 3288,
      "Ġlab": 3289,
      "Ġaccount": 3290,
      "ann": 3291,
      "CAR": 3292,
      "Ġleaves": 3293,
      "Ġhealth": 3294,
      "Ġattention": 3295,
      "Ġperiod": 3296,
      "Ġfle": 3297,
      "Ġchocol": 3298,
      "Ġwonderful": 3299,
      "Ġspoke": 3300,
      "VE": 3301,
      "ĠGive": 3302,
      "ĠMag": 3303,
      "ĠRob": 3304,
      "Ġpock": 3305,
      "itz": 3306,
      "ĠÂ": 3307,
      "elve": 3308,
      "Ġkey": 3309,
      "Ġmaster": 3310,
      "aves": 3311,
      "Ġstarts": 3312,
      "icro": 3313,
      "ato": 3314,
      "Ġwalked": 3315,
      "Ġcontinued": 3316,
      "ĠBobby": 3317,
      "Ġexclaimed": 3318,
      "icy": 3319,
      "oose": 3320,
      "--------": 3321,
      "RY": 3322,
      "cher": 3323,
      "Ġitself": 3324,
      "Ġfamous": 3325,
      "Ġbra": 3326,
      "Ġhide": 3327,
      "Ġphot": 3328,
      "lo": 3329,
      "Ġarmy": 3330,
      "aps": 3331,
      "raft": 3332,
      "that": 3333,
      "Ġcomfort": 3334,
      "itive": 3335,
      "Ġparts": 3336,
      "well": 3337,
      "Ġsilver": 3338,
      "Ġinteresting": 3339,
      "lt": 3340,
      "ĠJo": 3341,
      "ĠSure": 3342,
      "ĠRobert": 3343,
      "Ġcell": 3344,
      "ĠâĮĬ": 3345,
      "name": 3346,
      "bs": 3347,
      "ĠPark": 3348,
      "ĠAlex": 3349,
      "ads": 3350,
      "Ġperfor": 3351,
      "astic": 3352,
      "Ġsilence": 3353,
      "ĠINV": 3354,
      "ĠAct": 3355,
      "ĠâĨ": 3356,
      "uge": 3357,
      "str": 3358,
      "ĠAnt": 3359,
      "ĠSy": 3360,
      "Ġdistance": 3361,
      "APTER": 3362,
      "Ġrespect": 3363,
      "Ġdrop": 3364,
      "Ġinterested": 3365,
      "Ġliked": 3366,
      "Ġnecess": 3367,
      "ĠJwww": 3368,
      "Ġforce": 3369,
      "Ġears": 3370,
      "ivil": 3371,
      "het": 3372,
      "âĮĭ": 3373,
      "iforn": 3374,
      "ĠâĮĪ": 3375,
      "Ġwel": 3376,
      "Ġcamera": 3377,
      "Ġmention": 3378,
      "ĠListen": 3379,
      "medi": 3380,
      "Ġobs": 3381,
      "Ġnames": 3382,
      "light": 3383,
      "Ġdie": 3384,
      "Ġnor": 3385,
      "ĠWould": 3386,
      "Ġsky": 3387,
      "cent": 3388,
      "Ġfuture": 3389,
      "Ġshut": 3390,
      "viously": 3391,
      "ĠAunt": 3392,
      "ĠRed": 3393,
      "ipe": 3394,
      "eneral": 3395,
      "Ġquestions": 3396,
      "Ġsinging": 3397,
      "Ġgives": 3398,
      "Ġcomput": 3399,
      "Ġsmell": 3400,
      "Ġfilm": 3401,
      "ĠHouse": 3402,
      "pers": 3403,
      "rs": 3404,
      "va": 3405,
      "Ġï¿½": 3406,
      "ression": 3407,
      "âĮī": 3408,
      "Ġalive": 3409,
      "Ġjud": 3410,
      "ĠCaliforn": 3411,
      "Ġserious": 3412,
      "ĠCHAPTER": 3413,
      "Ġbridge": 3414,
      "Ġincre": 3415,
      "how": 3416,
      "itary": 3417,
      "aven": 3418,
      "oom": 3419,
      "Ġclever": 3420,
      "Ġpaid": 3421,
      "Ġreading": 3422,
      "Ġtrad": 3423,
      "ĠHist": 3424,
      "soci": 3425,
      "Ġvideo": 3426,
      "Ġelephant": 3427,
      "ounded": 3428,
      "Ġspl": 3429,
      "ĠBlue": 3430,
      "Ġlaughing": 3431,
      "Ġbigger": 3432,
      "what": 3433,
      "Ġbell": 3434,
      "Ġplant": 3435,
      "iment": 3436,
      "Ġleng": 3437,
      "Ġneeded": 3438,
      "Ġscared": 3439,
      "Ġfinally": 3440,
      "ires": 3441,
      "Ġhous": 3442,
      "Ġpet": 3443,
      "reg": 3444,
      "Ġproblems": 3445,
      "anor": 3446,
      "Ġtur": 3447,
      "ashed": 3448,
      "Ġofficer": 3449,
      "rap": 3450,
      "Ġhall": 3451,
      "ply": 3452,
      "Ġgrew": 3453,
      "Ġfinger": 3454,
      "Ġmem": 3455,
      "lymp": 3456,
      "Ġexam": 3457,
      "ĠCalifornia": 3458,
      "ATT": 3459,
      "Ġmunicip": 3460,
      "Ġbang": 3461,
      "ĠUS": 3462,
      "Ġdin": 3463,
      "Ġbirds": 3464,
      "ghed": 3465,
      "ĠMany": 3466,
      "There": 3467,
      "ument": 3468,
      "ĠCor": 3469,
      "Ġnone": 3470,
      "Ġcommand": 3471,
      "ĠAmy": 3472,
      "Ġmid": 3473,
      "Ġhy": 3474,
      "ival": 3475,
      "eder": 3476,
      "Ġinvest": 3477,
      "ĠUncle": 3478,
      "Ġaccident": 3479,
      "-M": 3480,
      "Ġlying": 3481,
      "imin": 3482,
      "Ġthou": 3483,
      "Ġiss": 3484,
      "ĠCo": 3485,
      "ĠParty": 3486,
      "Ġclosed": 3487,
      "Ġcharge": 3488,
      "Ġstars": 3489,
      "\")": 3490,
      "ĠOur": 3491,
      "Ġasking": 3492,
      "pered": 3493,
      "ĠSant": 3494,
      "ĠMat": 3495,
      "Ġmur": 3496,
      "Ġspoon": 3497,
      "ston": 3498,
      "ĠRiver": 3499,
      "Ġchocolate": 3500,
      "Ġtit": 3501,
      "Ġwheel": 3502,
      "Ġremark": 3503,
      "Ġsheep": 3504,
      "Ġactiv": 3505,
      "ĠBon": 3506,
      "ites": 3507,
      "Ġrub": 3508,
      "Ġshows": 3509,
      "chan": 3510,
      "Ġep": 3511,
      "val": 3512,
      "ploy": 3513,
      "ĠOlymp": 3514,
      "Ġattempt": 3515,
      "ĠDor": 3516,
      "Ġshare": 3517,
      "Ġconnect": 3518,
      "rief": 3519,
      "ĠMost": 3520,
      "Ġ(\"": 3521,
      "Ġspecies": 3522,
      "ĠHenry": 3523,
      "Ġbasket": 3524,
      "Ġhost": 3525,
      "ipped": 3526,
      "ustom": 3527,
      "Ġloved": 3528,
      "Ġaut": 3529,
      "ĴĊ": 3530,
      "Ġcountries": 3531,
      "Ġshowed": 3532,
      "yle": 3533,
      "asant": 3534,
      "Ġadult": 3535,
      "Ġsle": 3536,
      "Ġespecially": 3537,
      "Ġtow": 3538,
      "de": 3539,
      "cuse": 3540,
      "Ġdue": 3541,
      "orts": 3542,
      "sy": 3543,
      "ichard": 3544,
      "ĠBel": 3545,
      "omes": 3546,
      "irm": 3547,
      "Ġcourt": 3548,
      "ico": 3549,
      "ĠRos": 3550,
      "ĠJes": 3551,
      "-Ċ": 3552,
      "Ġspeed": 3553,
      "iles": 3554,
      "Ġsleeping": 3555,
      "Ġcomb": 3556,
      "Ġtwelve": 3557,
      "Ġmass": 3558,
      "Ġconversation": 3559,
      "Ġpig": 3560,
      "ĠMaj": 3561,
      "Ġviol": 3562,
      "Ġcapt": 3563,
      "Ġinn": 3564,
      "ĠLa": 3565,
      "Ġterrible": 3566,
      "ï¿½ï¿½ï¿½ï¿½": 3567,
      "ĠLuc": 3568,
      "ĠEast": 3569,
      "FAD": 3570,
      "Ġasleep": 3571,
      "Ġbelow": 3572,
      "Ġlaughed": 3573,
      "Don": 3574,
      "ĠColl": 3575,
      "ods": 3576,
      "Ġeduc": 3577,
      "ĠBo": 3578,
      "Ġstage": 3579,
      "Ġpolitician": 3580,
      "Illustr": 3581,
      "Ġpal": 3582,
      "Ġprep": 3583,
      "nes": 3584,
      "Ġinfl": 3585,
      "ĠMus": 3586,
      "rey": 3587,
      "Ġsubject": 3588,
      "Ġinclude": 3589,
      "ĠFred": 3590,
      "Ġsurprise": 3591,
      "ĠDoes": 3592,
      "._": 3593,
      "Ġdelight": 3594,
      "Ġbene": 3595,
      "Ġsepar": 3596,
      "set": 3597,
      "Ġtour": 3598,
      "Ġmachine": 3599,
      "Ġvan": 3600,
      "hood": 3601,
      "alley": 3602,
      "Ġserved": 3603,
      "ĠSund": 3604,
      "Ġpap": 3605,
      "ili": 3606,
      "isted": 3607,
      "rug": 3608,
      "kin": 3609,
      "aching": 3610,
      "ĠOnly": 3611,
      "ĠLittle": 3612,
      "Illustration": 3613,
      "field": 3614,
      "Ġye": 3615,
      "Ġcircle": 3616,
      "-A": 3617,
      "conom": 3618,
      "Ġextra": 3619,
      "Ġpeace": 3620,
      "Ġcoat": 3621,
      "Ġpromise": 3622,
      "ris": 3623,
      "cious": 3624,
      "ĠRichard": 3625,
      "ĠGovern": 3626,
      "ĠVery": 3627,
      "How": 3628,
      "Ġwest": 3629,
      "inite": 3630,
      "ether": 3631,
      "Ġearl": 3632,
      "Ġpicked": 3633,
      "'clock": 3634,
      "iant": 3635,
      "epend": 3636,
      "ĠIndia": 3637,
      "ka": 3638,
      "Ġstraw": 3639,
      "arr": 3640,
      "Ġrepresent": 3641,
      "uses": 3642,
      "Ġsimilar": 3643,
      "kn": 3644,
      "Ġupstairs": 3645,
      "uten": 3646,
      "ĠSue": 3647,
      "owd": 3648,
      "Ġhelped": 3649,
      "lands": 3650,
      "Ġfingers": 3651,
      "Ġremain": 3652,
      "illa": 3653,
      "Ġimmedi": 3654,
      "ĠMal": 3655,
      "Ġmonkey": 3656,
      "ĠSan": 3657,
      "Ġprocess": 3658,
      "oly": 3659,
      "edd": 3660,
      "Ġpray": 3661,
      "ĠJapanese": 3662,
      "ĠLeague": 3663,
      "St": 3664,
      "hire": 3665,
      "Ġoops": 3666,
      "Ġthee": 3667,
      "Ġamount": 3668,
      "under": 3669,
      "Ġanx": 3670,
      "Ġchief": 3671,
      "Ġdirection": 3672,
      "Ġrob": 3673,
      "Ġslowly": 3674,
      "olutely": 3675,
      "UNK": 3676,
      "ĠEleanor": 3677,
      "ex": 3678,
      "ĠMer": 3679,
      "ĠRepubl": 3680,
      "Ġforty": 3681,
      "outs": 3682,
      "cience": 3683,
      "ĠAnne": 3684,
      "ĠParis": 3685,
      "Ġjoined": 3686,
      "Ġfem": 3687,
      "ĠDuring": 3688,
      "Ġrepe": 3689,
      "Ġblank": 3690,
      "ĠGeneral": 3691,
      "TUR": 3692,
      "Ġfresh": 3693,
      "If": 3694,
      "Ġsmile": 3695,
      "Ġrabbit": 3696,
      "ita": 3697,
      "isf": 3698,
      "Ġrose": 3699,
      "Ġsituation": 3700,
      "ĠMed": 3701,
      "rect": 3702,
      "ensus": 3703,
      "Ġdig": 3704,
      "Ġforest": 3705,
      "Ġcaused": 3706,
      "ĠSarah": 3707,
      "ĠBig": 3708,
      "Ġbattle": 3709,
      "Ġsevent": 3710,
      "Ġdrawing": 3711,
      "ĠON": 3712,
      "time": 3713,
      "Ġspent": 3714,
      "Ġshore": 3715,
      "ĠUm": 3716,
      "Ġtalked": 3717,
      "ĠTony": 3718,
      "Ġkick": 3719,
      "Ġways": 3720,
      "Ġ&": 3721,
      "ĠOther": 3722,
      "ĠBro": 3723,
      "Ġpocket": 3724,
      "Ġconcern": 3725,
      "house": 3726,
      "Ġfol": 3727,
      "ĠMinister": 3728,
      "ils": 3729,
      "order": 3730,
      "aker": 3731,
      "Ġolder": 3732,
      "pping": 3733,
      "uted": 3734,
      "!âĢĿĊ": 3735,
      "Ġslight": 3736,
      "Ġexcuse": 3737,
      "Ġstudy": 3738,
      "Ġrid": 3739,
      "ĠOl": 3740,
      "Ġfright": 3741,
      "Ġwelcome": 3742,
      "bour": 3743,
      "ĠAust": 3744,
      "Ġcalling": 3745,
      "Ġsna": 3746,
      "ĠHigh": 3747,
      "Ġspread": 3748,
      "'?Ċ": 3749,
      "ĠIts": 3750,
      "UT": 3751,
      "Ġsilly": 3752,
      "ville": 3753,
      "wise": 3754,
      "Ġrap": 3755,
      "Ġrole": 3756,
      "Ġturning": 3757,
      "Ġsex": 3758,
      "anda": 3759,
      "reek": 3760,
      "Ġbreath": 3761,
      "Ġsandw": 3762,
      "Ġaccom": 3763,
      "SO": 3764,
      "of": 3765,
      "ĠBab": 3766,
      "ĠAustralia": 3767,
      "Ġcovered": 3768,
      "Ġver": 3769,
      "razy": 3770,
      "atives": 3771,
      "ĠCarol": 3772,
      "URS": 3773,
      "ĠBur": 3774,
      "Ġpurp": 3775,
      "Ġmovies": 3776,
      "yond": 3777,
      "Ġhardly": 3778,
      "ĠWE": 3779,
      "Ġrese": 3780,
      "ĠSay": 3781,
      "Ġhurry": 3782,
      "Ġsize": 3783,
      "Ġdriving": 3784,
      "Ġsum": 3785,
      "laughing": 3786,
      "'T": 3787,
      "Ġhiding": 3788,
      "ĠLaur": 3789,
      "ably": 3790,
      "Ġmeat": 3791,
      "ĠWhich": 3792,
      "Ġsquare": 3793,
      "Ġteddy": 3794,
      "Ġnaught": 3795,
      "]!Ċ": 3796,
      "LA": 3797,
      "Ġjoin": 3798,
      "ĠII": 3799,
      "ĠLo": 3800,
      "olf": 3801,
      "ference": 3802,
      "Ġclock": 3803,
      "Ġblocks": 3804,
      "Ġmountain": 3805,
      "ergy": 3806,
      "ests": 3807,
      "ĠBer": 3808,
      "inary": 3809,
      "reet": 3810,
      "ĠMac": 3811,
      "...?Ċ": 3812,
      "Ġris": 3813,
      "Ġstories": 3814,
      "Ġfinal": 3815,
      "ĠHistory": 3816,
      "ĠSince": 3817,
      "ĠDoctor": 3818,
      "nam": 3819,
      "Ġuncle": 3820,
      ",--": 3821,
      "orthern": 3822,
      "ĠState": 3823,
      "oyal": 3824,
      "Ġlargest": 3825,
      "Ġmissing": 3826,
      "Ġdogs": 3827,
      "Ġlearned": 3828,
      "hal": 3829,
      "isy": 3830,
      "ails": 3831,
      "ushing": 3832,
      "Ġlikely": 3833,
      "Ġexplain": 3834,
      "ography": 3835,
      ".'Ċ": 3836,
      "reme": 3837,
      "Ġrelig": 3838,
      "ĠExcuse": 3839,
      "Ġnatural": 3840,
      "Ġlines": 3841,
      "ĠGot": 3842,
      "Ġdirected": 3843,
      "Ġfre": 3844,
      "gged": 3845,
      "counter": 3846,
      "Ġdiscuss": 3847,
      "Ġhappening": 3848,
      "aches": 3849,
      "Ġapart": 3850,
      "ĠAir": 3851,
      "uct": 3852,
      "ĠAdam": 3853,
      "Ġlim": 3854,
      "Ġnumbers": 3855,
      "ĠBE": 3856,
      "Ġsearch": 3857,
      "lect": 3858,
      "Ġrespons": 3859,
      "Ġfighting": 3860,
      "Ġcloud": 3861,
      "Ġbeha": 3862,
      "Ġforth": 3863,
      "Ġpossib": 3864,
      "ĠHall": 3865,
      "ĠStan": 3866,
      "ĠChild": 3867,
      "Ġden": 3868,
      "ĠCup": 3869,
      "ĠSchool": 3870,
      "hin": 3871,
      "erve": 3872,
      "Ġstone": 3873,
      "CK": 3874,
      "ĠTheir": 3875,
      "ĠOld": 3876,
      "Ġcrack": 3877,
      "cul": 3878,
      "ĠâĨĴĊ": 3879,
      "ĠJane": 3880,
      "Ġguard": 3881,
      "Ġdestroy": 3882,
      "ĠWal": 3883,
      "ĠSpanish": 3884,
      "Ġbite": 3885,
      "andy": 3886,
      "ĠTur": 3887,
      "ĠSim": 3888,
      "hem": 3889,
      "Ġpuzzle": 3890,
      "Ġenemy": 3891,
      "ĠRo": 3892,
      "ribed": 3893,
      "Ġbroad": 3894,
      "Ġhate": 3895,
      "Ġleader": 3896,
      "Ġworse": 3897,
      "Ġtax": 3898,
      "Ġscr": 3899,
      "ĠAbout": 3900,
      "Ġemb": 3901,
      "ena": 3902,
      "ĠAc": 3903,
      "oses": 3904,
      "ĠThree": 3905,
      "ĠBefore": 3906,
      "Ġeast": 3907,
      "imate": 3908,
      "IR": 3909,
      "ĠTHAT": 3910,
      "Ġonto": 3911,
      "inc": 3912,
      "Ġphys": 3913,
      "âĢĻm": 3914,
      "_,": 3915,
      "Ġplane": 3916,
      "Ġwake": 3917,
      "Ġshoe": 3918,
      "uke": 3919,
      "Ġpers": 3920,
      "Ġaff": 3921,
      "Ġspring": 3922,
      "Ġide": 3923,
      "Ġintrod": 3924,
      "ĠMhm": 3925,
      "Ġrefer": 3926,
      "Ġcult": 3927,
      "Ġfalling": 3928,
      "Ġdifference": 3929,
      "Ġdinosaur": 3930,
      "Ġbud": 3931,
      "atic": 3932,
      "Ġcolors": 3933,
      "Ġbabies": 3934,
      "Ġspell": 3935,
      "ĠWhite": 3936,
      "Ġvarious": 3937,
      "mit": 3938,
      "iel": 3939,
      "ux": 3940,
      "enny": 3941,
      "ns": 3942,
      "Ġtend": 3943,
      "Ġdangerous": 3944,
      "ĠSunday": 3945,
      "elle": 3946,
      "Ġma": 3947,
      "Ġaction": 3948,
      "Ġdressed": 3949,
      "gie": 3950,
      "Ġutter": 3951,
      ",'": 3952,
      "ially": 3953,
      "Ġentered": 3954,
      "Ġtrip": 3955,
      "gl": 3956,
      "asion": 3957,
      "elly": 3958,
      "Ġcrowd": 3959,
      "Ġtiny": 3960,
      "Ġlength": 3961,
      "Ġbill": 3962,
      "Ġsett": 3963,
      "Ġscar": 3964,
      "Ġhandle": 3965,
      "arm": 3966,
      "Ġpath": 3967,
      "sidered": 3968,
      "Ġwha": 3969,
      "Ġconsidered": 3970,
      "Ġsoldiers": 3971,
      "Ġsharp": 3972,
      "Ġflying": 3973,
      "Ġmissed": 3974,
      "Ġmoves": 3975,
      "ĠNever": 3976,
      "Ġrelations": 3977,
      "Ġwearing": 3978,
      "Ġrich": 3979,
      "Ġtight": 3980,
      "Ġwinter": 3981,
      "Ġur": 3982,
      "ural": 3983,
      "Ġeff": 3984,
      "aded": 3985,
      "OO": 3986,
      "ĠJesus": 3987,
      "ĠQueen": 3988,
      "ĠHam": 3989,
      "Ġlid": 3990,
      "aturday": 3991,
      "vocalizes": 3992,
      "Ġmarket": 3993,
      "utenant": 3994,
      "Ġpaint": 3995,
      "ĠST": 3996,
      "Ġbackground": 3997,
      "antic": 3998,
      "inct": 3999,
      "Ġmicro": 4000,
      "Ġsimple": 4001,
      "Ġtechn": 4002,
      "Ġdriver": 4003,
      "ĠMex": 4004,
      "ighs": 4005,
      "Ġsuit": 4006,
      "Ġsteps": 4007,
      "LY": 4008,
      "Ġbuck": 4009,
      "ĠTod": 4010,
      "ĠMore": 4011,
      "ĠChampions": 4012,
      "Ġbull": 4013,
      "Ġradio": 4014,
      "ĠCharles": 4015,
      "Ġarrived": 4016,
      "Ġprofessional": 4017,
      "Ġcomputer": 4018,
      "ĠHa": 4019,
      "Ġmedic": 4020,
      "Ġgoin": 4021,
      "Ã¼": 4022,
      "Ġspeaking": 4023,
      "Ġsatisf": 4024,
      "ples": 4025,
      "action": 4026,
      "Ġpuppet": 4027,
      "antly": 4028,
      "Ġlion": 4029,
      "ago": 4030,
      "ĠTex": 4031,
      "Ġangry": 4032,
      "Ġbeyond": 4033,
      "ĠBu": 4034,
      "aud": 4035,
      "icious": 4036,
      "ables": 4037,
      "asons": 4038,
      "ups": 4039,
      "Ġtou": 4040,
      "Ġstarting": 4041,
      "Ġhun": 4042,
      "ĠFin": 4043,
      "ĠMic": 4044,
      "Ġmir": 4045,
      "Ġham": 4046,
      "Ġshirt": 4047,
      "oles": 4048,
      "ingly": 4049,
      "stit": 4050,
      "Ġanywhere": 4051,
      "ciety": 4052,
      "Ġdeclared": 4053,
      "fit": 4054,
      "Ġtaste": 4055,
      "Ġstreng": 4056,
      "Ġunless": 4057,
      "ĠBunny": 4058,
      "Ġtap": 4059,
      "ira": 4060,
      "zen": 4061,
      "Ġcompletely": 4062,
      "Ġweap": 4063,
      "Ġthinks": 4064,
      "Ġgoodness": 4065,
      "sp": 4066,
      "Ġhonest": 4067,
      "Ġhouses": 4068,
      "cks": 4069,
      "Ġhill": 4070,
      "Ġcrit": 4071,
      "Ġrail": 4072,
      "ĠAnna": 4073,
      "Ġcrazy": 4074,
      "ĠHE": 4075,
      "Ġdiscovered": 4076,
      "ĠSl": 4077,
      "Ġneedta": 4078,
      "ĠChristian": 4079,
      "picks": 4080,
      "SIB": 4081,
      "sey": 4082,
      "ums": 4083,
      "OTH": 4084,
      "Ġgrad": 4085,
      "They": 4086,
      "Ġdeter": 4087,
      "Ġformed": 4088,
      "Ġmanage": 4089,
      "oves": 4090,
      "-S": 4091,
      "Ġflat": 4092,
      "Ġsens": 4093,
      "ĠTV": 4094,
      "ĠRem": 4095,
      "ences": 4096,
      "Ġactor": 4097,
      "Ġsocial": 4098,
      "Ġnaughty": 4099,
      "-de": 4100,
      "Ġraised": 4101,
      "ĠÃ": 4102,
      "Ġpurple": 4103,
      "Ġhadn": 4104,
      "Ġrough": 4105,
      "Now": 4106,
      "Ġdate": 4107,
      "Ġmater": 4108,
      "Ġarrest": 4109,
      "Ġempty": 4110,
      "ees": 4111,
      "ivid": 4112,
      "Ġwit": 4113,
      "oring": 4114,
      "Ġskin": 4115,
      "vi": 4116,
      "Ġbrush": 4117,
      "Ġoppos": 4118,
      "Ġdollars": 4119,
      "ĠFoot": 4120,
      "Ġiron": 4121,
      "-in": 4122,
      "outhern": 4123,
      "oken": 4124,
      "Ġweather": 4125,
      "Ġagreed": 4126,
      "IM": 4127,
      "Ġthy": 4128,
      "Ġproud": 4129,
      "azing": 4130,
      "ĠSteven": 4131,
      "Ġappl": 4132,
      "ĠPort": 4133,
      "Ġregular": 4134,
      "oph": 4135,
      "Ġtemper": 4136,
      "Ġsurv": 4137,
      "Ġthrew": 4138,
      "Ġcivil": 4139,
      "ĠTim": 4140,
      "rer": 4141,
      "ĠNic": 4142,
      "hand": 4143,
      "Ġtower": 4144,
      "icle": 4145,
      "ĠSaturday": 4146,
      "ĠCould": 4147,
      "ĠInternational": 4148,
      "heart": 4149,
      "Ġemploy": 4150,
      "arrow": 4151,
      "Ġfool": 4152,
      "Ġboo": 4153,
      "itude": 4154,
      "ĠSal": 4155,
      "bl": 4156,
      "Ġescape": 4157,
      "ensive": 4158,
      "bre": 4159,
      "puts": 4160,
      "asc": 4161,
      "Ġpolitical": 4162,
      "ĠEarth": 4163,
      "Ġfat": 4164,
      "Ġplaced": 4165,
      "Ġthick": 4166,
      "aine": 4167,
      "sil": 4168,
      "ĠEuropean": 4169,
      "Ġbegin": 4170,
      "istan": 4171,
      "ĠGrandma": 4172,
      "idden": 4173,
      "Ġtiger": 4174,
      "Ġcollege": 4175,
      "Ġfruit": 4176,
      "Ġlaid": 4177,
      "ached": 4178,
      "Ġwhoops": 4179,
      "Ġended": 4180,
      "hered": 4181,
      "Ġroof": 4182,
      "Ġproject": 4183,
      "ĠNat": 4184,
      "Ġagree": 4185,
      "vious": 4186,
      "cean": 4187,
      "ously": 4188,
      "ĠPre": 4189,
      "ĠSch": 4190,
      "lend": 4191,
      "Ġkitty": 4192,
      "Ġsinger": 4193,
      "bye": 4194,
      "Ġmilitary": 4195,
      "Ġbeside": 4196,
      "Ġund": 4197,
      "ERE": 4198,
      "Ġwatched": 4199,
      "Ġsongs": 4200,
      "ĠDem": 4201,
      "Ġeconom": 4202,
      "Ġdeg": 4203,
      "Ġsurf": 4204,
      "ĠWhile": 4205,
      "Ġpun": 4206,
      "ĠPri": 4207,
      "oved": 4208,
      "ĠCath": 4209,
      "Ġeasily": 4210,
      "Ġoriginal": 4211,
      "Ġpulled": 4212,
      "Ġcere": 4213,
      "Ġsugar": 4214,
      "Ġpainting": 4215,
      "Ġenergy": 4216,
      "can": 4217,
      "Ġscene": 4218,
      "ousin": 4219,
      "Ġcrew": 4220,
      "Ġflower": 4221,
      "erved": 4222,
      "Ġhuge": 4223,
      "Ġpleasure": 4224,
      "Ġquarter": 4225,
      "Ġmunicipality": 4226,
      "Ġaud": 4227,
      "essel": 4228,
      "Ġmodern": 4229,
      "Ġthreat": 4230,
      "yer": 4231,
      "ĠMel": 4232,
      "pa": 4233,
      "utch": 4234,
      "Ġmeaning": 4235,
      "Ġdemand": 4236,
      "ĠPerhaps": 4237,
      "ords": 4238,
      "Ġhigher": 4239,
      "cast": 4240,
      "Ġmotor": 4241,
      "Ġhaha": 4242,
      "Ġbee": 4243,
      "ĠLouis": 4244,
      "ki": 4245,
      "Ġcro": 4246,
      "ashion": 4247,
      "ĠCharlie": 4248,
      "la": 4249,
      "rom": 4250,
      "Ġfault": 4251,
      "min": 4252,
      "berry": 4253,
      "ho": 4254,
      "hest": 4255,
      "Ġgate": 4256,
      "Ġlog": 4257,
      "Ġlights": 4258,
      "Ġident": 4259,
      "takes": 4260,
      "Ġspirit": 4261,
      "Ġimmediately": 4262,
      "ĠCouncil": 4263,
      "roat": 4264,
      "Ġlucky": 4265,
      "Ġsmart": 4266,
      "Ġprivate": 4267,
      "Ġhero": 4268,
      "ĠDes": 4269,
      "Ġcabin": 4270,
      "ĠMartin": 4271,
      "Ġsurprised": 4272,
      "iest": 4273,
      "ems": 4274,
      "ushes": 4275,
      "Ġjoy": 4276,
      "Ġpan": 4277,
      "ria": 4278,
      "Ġmostly": 4279,
      "Ġannounced": 4280,
      "vell": 4281,
      "Ġduty": 4282,
      "Ġfallen": 4283,
      "Ġsimply": 4284,
      "-day": 4285,
      "Ġinflu": 4286,
      "father": 4287,
      "Ġinj": 4288,
      "ĠDar": 4289,
      "brother": 4290,
      "Ġoffe": 4291,
      "Ġge": 4292,
      "âĢĻve": 4293,
      "Ġnet": 4294,
      "Ġdrug": 4295,
      "itor": 4296,
      "cries": 4297,
      "gon": 4298,
      "iled": 4299,
      "Ġcookie": 4300,
      "mond": 4301,
      "Ã¶": 4302,
      "Ġswimming": 4303,
      "van": 4304,
      "ĠSen": 4305,
      "hips": 4306,
      "Ġnature": 4307,
      "ĠSummer": 4308,
      "ĠLee": 4309,
      "Ġwoods": 4310,
      "oups": 4311,
      "pper": 4312,
      "My": 4313,
      "ĠGold": 4314,
      "ĠJose": 4315,
      "ĠTexas": 4316,
      "Ġmouse": 4317,
      "Ġtwice": 4318,
      "Ġenc": 4319,
      "ĠUnion": 4320,
      "ours": 4321,
      "ĠScott": 4322,
      "Ġsettle": 4323,
      "Ġgrab": 4324,
      "Ġcoast": 4325,
      "ĠChan": 4326,
      "Ġfro": 4327,
      "Ġsuff": 4328,
      "Ġopport": 4329,
      "FRI": 4330,
      "Ġvessel": 4331,
      "ĠLaura": 4332,
      "Ġcustom": 4333,
      "ĠComp": 4334,
      "ration": 4335,
      "Ġindust": 4336,
      "Ġallow": 4337,
      "Ġmagic": 4338,
      "Ġnotice": 4339,
      "Ġexperience": 4340,
      "ening": 4341,
      "Ġfilled": 4342,
      "Ġdrew": 4343,
      "Ġfeat": 4344,
      "Ġproduced": 4345,
      "ae": 4346,
      "Ġdust": 4347,
      ".,": 4348,
      "line": 4349,
      "Ġsnake": 4350,
      "SOA": 4351,
      "ruction": 4352,
      "Ġbound": 4353,
      "anch": 4354,
      "Ġlower": 4355,
      "Ġoffer": 4356,
      "ĠOver": 4357,
      "Ġbelieved": 4358,
      "Ġcensus": 4359,
      "uckles": 4360,
      "Ġdepend": 4361,
      "Ġbrief": 4362,
      "ĠRussian": 4363,
      "ett": 4364,
      "Ġexcited": 4365,
      "Ġearlier": 4366,
      "Ġstream": 4367,
      "Ġterms": 4368,
      "initely": 4369,
      "ession": 4370,
      "ĠHon": 4371,
      "ĠPut": 4372,
      "Ġexist": 4373,
      "Ġelection": 4374,
      "like": 4375,
      "Ġslide": 4376,
      "ĠPal": 4377,
      "Ġbeach": 4378,
      "urse": 4379,
      "Ġtotal": 4380,
      "-g": 4381,
      "ĠMil": 4382,
      "cip": 4383,
      "ledge": 4384,
      "Ġruns": 4385,
      "Ġswing": 4386,
      "Ġnecessary": 4387,
      "ette": 4388,
      "-y": 4389,
      "Ġtravel": 4390,
      "oid": 4391,
      "Ġseconds": 4392,
      "rugg": 4393,
      "mar": 4394,
      "Ġtherefore": 4395,
      "ĠKingdom": 4396,
      "ĠReg": 4397,
      "iber": 4398,
      "ators": 4399,
      "Ġregard": 4400,
      "Ġmummy": 4401,
      "GHT": 4402,
      "All": 4403,
      "Ġdisp": 4404,
      "Ġawful": 4405,
      "Ġcart": 4406,
      "Ġsupper": 4407,
      "Ġstran": 4408,
      "Ġbless": 4409,
      "eds": 4410,
      "Ġevidence": 4411,
      "Ġpound": 4412,
      "Ġchoice": 4413,
      "vey": 4414,
      "bon": 4415,
      "Ġsoul": 4416,
      "Ġlake": 4417,
      "Ġimagine": 4418,
      "Ġinvolved": 4419,
      "Ġexpected": 4420,
      "known": 4421,
      "Ġneg": 4422,
      "hington": 4423,
      "Ġtrick": 4424,
      "ĠME": 4425,
      "inese": 4426,
      "Ġlistening": 4427,
      "ĠDel": 4428,
      "eg": 4429,
      "ĠPlay": 4430,
      "Ġpurpose": 4431,
      "ĠArab": 4432,
      "ĠStreet": 4433,
      "ĠCos": 4434,
      "lebr": 4435,
      "RYA": 4436,
      "Ġplenty": 4437,
      "Ġbutton": 4438,
      "Ġmessage": 4439,
      "Ġnon": 4440,
      "Ġgrown": 4441,
      "osing": 4442,
      "Ġdirty": 4443,
      "Ġepis": 4444,
      "ij": 4445,
      "ĠHur": 4446,
      "Ġdownstairs": 4447,
      "oons": 4448,
      "ram": 4449,
      "ossible": 4450,
      "Ġblow": 4451,
      "Ġchem": 4452,
      "Ġopening": 4453,
      "Ġpin": 4454,
      "Ġappoint": 4455,
      "OL": 4456,
      "ĠCanada": 4457,
      "CE": 4458,
      "CAT": 4459,
      "Ġeager": 4460,
      "Ġedge": 4461,
      "ggie": 4462,
      "Ġpause": 4463,
      "ĠItalian": 4464,
      "Ġnurs": 4465,
      "ĠDO": 4466,
      "has": 4467,
      "ĠGar": 4468,
      "ĠItaly": 4469,
      "ishes": 4470,
      "nie": 4471,
      "Ġfaith": 4472,
      "Ġtv": 4473,
      "oming": 4474,
      "ĠChina": 4475,
      "burg": 4476,
      "In": 4477,
      "Ġdeterm": 4478,
      "ĠPurd": 4479,
      "ĠRoss": 4480,
      "istics": 4481,
      "Ġpromised": 4482,
      "Ġmistake": 4483,
      "Ġbomb": 4484,
      "Ġcards": 4485,
      "ĠBye": 4486,
      "ĠScot": 4487,
      "Ġofficers": 4488,
      "ĠJud": 4489,
      "ĠGra": 4490,
      "don": 4491,
      "Ġwhoa": 4492,
      "Ġimpro": 4493,
      "Ġant": 4494,
      "anced": 4495,
      "Ġguns": 4496,
      "Ġsusp": 4497,
      "izza": 4498,
      "Ġareas": 4499,
      "rig": 4500,
      "Ġcontinues": 4501,
      "aret": 4502,
      "Ġwalks": 4503,
      "kins": 4504,
      "ĠMax": 4505,
      "ĠSometimes": 4506,
      "Ġknife": 4507,
      "Ġmarry": 4508,
      "ols": 4509,
      "bing": 4510,
      "nal": 4511,
      "Ġnewsp": 4512,
      "Ġbowl": 4513,
      "ĠAcc": 4514,
      "Ġstorm": 4515,
      "ola": 4516,
      "Ġsaved": 4517,
      "ĠHold": 4518,
      "Ġflag": 4519,
      "oted": 4520,
      "Ġnoticed": 4521,
      "Ġinterrupt": 4522,
      "Ġestab": 4523,
      "ĠClub": 4524,
      "Ġdouble": 4525,
      "Ġweight": 4526,
      "eaks": 4527,
      "Ġchoose": 4528,
      "ĠLove": 4529,
      "Ġpersonal": 4530,
      "Ġimm": 4531,
      "Ġscream": 4532,
      "Ġgroups": 4533,
      "AK": 4534,
      "ugg": 4535,
      "Ġpublished": 4536,
      "ĠIre": 4537,
      "Ġtelephone": 4538,
      "usion": 4539,
      "ĠCong": 4540,
      "Ġsmoke": 4541,
      "ĠWashington": 4542,
      "onel": 4543,
      "Ġcheer": 4544,
      "ĠPurdie": 4545,
      "berg": 4546,
      "Ġ[?": 4547,
      "Do": 4548,
      "urity": 4549,
      "ĠKen": 4550,
      "Ġbegins": 4551,
      "chie": 4552,
      "Ġassist": 4553,
      "Ġorders": 4554,
      "Ġscient": 4555,
      "JEN": 4556,
      "Ġjourney": 4557,
      "Ġstrength": 4558,
      "Ġgrowing": 4559,
      "ontin": 4560,
      "yy": 4561,
      "Ġordered": 4562,
      "ĠBraz": 4563,
      "Ġplain": 4564,
      "ĠDist": 4565,
      "actor": 4566,
      "Ġcalls": 4567,
      "ĠDep": 4568,
      "bered": 4569,
      "Ġbedroom": 4570,
      "ĠLady": 4571,
      "Ġmurder": 4572,
      "ĠChurch": 4573,
      "omen": 4574,
      "ners": 4575,
      "Ġmanner": 4576,
      "Ġfounded": 4577,
      "Ġamb": 4578,
      "Ġcarefully": 4579,
      "ental": 4580,
      "Ġbother": 4581,
      "ĠApp": 4582,
      "ĠFriday": 4583,
      "Ġtells": 4584,
      "ify": 4585,
      "ĠThose": 4586,
      "âĮī.Ċ": 4587,
      "Ġusual": 4588,
      "Ġdirector": 4589,
      "She": 4590,
      "Ġworried": 4591,
      "ucky": 4592,
      "Ġadvent": 4593,
      "Ġtries": 4594,
      "Ġattract": 4595,
      "hah": 4596,
      "ĠBoy": 4597,
      "Ġtrail": 4598,
      "bie": 4599,
      "Ġpleased": 4600,
      "Ġtoast": 4601,
      "vere": 4602,
      "Ġplants": 4603,
      "rance": 4604,
      "ĠFlor": 4605,
      "Ġbrave": 4606,
      "Ġcommunity": 4607,
      "ĠSH": 4608,
      "Ġshake": 4609,
      "Ġrule": 4610,
      "ĠSanta": 4611,
      "jo": 4612,
      "Ġet": 4613,
      "ero": 4614,
      "icated": 4615,
      "ĠWil": 4616,
      "ĠOoh": 4617,
      "ĠOut": 4618,
      "Ġwand": 4619,
      "ĠMont": 4620,
      "VAL": 4621,
      "Ġnote": 4622,
      "Ġtone": 4623,
      "itation": 4624,
      "Ġspee": 4625,
      "Ã¨": 4626,
      "Ġkeeping": 4627,
      "Ġreaches": 4628,
      "Ġstret": 4629,
      "Ġpair": 4630,
      "agon": 4631,
      "ĠEverything": 4632,
      "Peter": 4633,
      "Ġthus": 4634,
      "This": 4635,
      "ule": 4636,
      "ĠBrazil": 4637,
      "igs": 4638,
      "âĮĭ.Ċ": 4639,
      "eer": 4640,
      "Ġdancing": 4641,
      "Ġaged": 4642,
      "ĠSpain": 4643,
      "ĠKeep": 4644,
      "Ġbunny": 4645,
      "Ġtitle": 4646,
      "iction": 4647,
      "ĠDay": 4648,
      "Ġdeck": 4649,
      "Ġindepend": 4650,
      "Ġcenter": 4651,
      "lor": 4652,
      "Ġremind": 4653,
      "Ġheads": 4654,
      "umber": 4655,
      "Ġ()": 4656,
      "Ġwedd": 4657,
      "ĠRog": 4658,
      "ez": 4659,
      "ique": 4660,
      "Ġdise": 4661,
      "ĠRock": 4662,
      "Ġtaught": 4663,
      "-st": 4664,
      "Ġflight": 4665,
      "Ġabsolutely": 4666,
      "Ġversion": 4667,
      "Ġrow": 4668,
      "Ġaddress": 4669,
      "Ġstairs": 4670,
      "Ġmeal": 4671,
      "ĠIS": 4672,
      "Ġtun": 4673,
      "ittee": 4674,
      "Ġnest": 4675,
      "ĠCare": 4676,
      "ĠRay": 4677,
      "ĠOnce": 4678,
      "ĠFOR": 4679,
      "ĠEve": 4680,
      "Ġchanges": 4681,
      "ĠPrince": 4682,
      "Ġcalm": 4683,
      "Ġoccur": 4684,
      "Ġoccup": 4685,
      "Ġsmaller": 4686,
      "Ġstrugg": 4687,
      "Ġble": 4688,
      "Ġcloser": 4689,
      "ĠCle": 4690,
      "Ġhotel": 4691,
      "Ġninete": 4692,
      "ulf": 4693,
      "Ġuhuh": 4694,
      "Then": 4695,
      "asp": 4696,
      "Ã³": 4697,
      "Ġvo": 4698,
      "Ġboss": 4699,
      "using": 4700,
      "Ġnormal": 4701,
      "ĠIr": 4702,
      "Ġlocated": 4703,
      "isa": 4704,
      "Ġfifteen": 4705,
      "ĠGreen": 4706,
      "ĠRes": 4707,
      "oughs": 4708,
      "Not": 4709,
      "Ġsandwich": 4710,
      "liam": 4711,
      "Ġyouth": 4712,
      "ĠMount": 4713,
      "babbles": 4714,
      "ĠIsland": 4715,
      "-P": 4716,
      "Ġlem": 4717,
      "Ġprice": 4718,
      "Ġsour": 4719,
      "lected": 4720,
      "Ġpour": 4721,
      "Ġpleasant": 4722,
      "ĠChinese": 4723,
      "edy": 4724,
      "Ġmult": 4725,
      "eman": 4726,
      "Ġsides": 4727,
      "ĠUp": 4728,
      "eless": 4729,
      "Ġenv": 4730,
      "pet": 4731,
      "Ġpit": 4732,
      "ĠFour": 4733,
      "Ġloves": 4734,
      "ĠMo": 4735,
      "Ġtong": 4736,
      "rot": 4737,
      "Ġdrinking": 4738,
      "Ġgentleman": 4739,
      "urns": 4740,
      "ĠMaster": 4741,
      "Ġbump": 4742,
      "ari": 4743,
      "Ġmarriage": 4744,
      "Ġshown": 4745,
      "ĠFranc": 4746,
      "ĠWin": 4747,
      "Ġstock": 4748,
      "Ġspoken": 4749,
      "TH": 4750,
      "ĠCour": 4751,
      "VER": 4752,
      "aked": 4753,
      "Ġpool": 4754,
      "Ġwheels": 4755,
      "Ġbrain": 4756,
      "ĠAM": 4757,
      "ĠBear": 4758,
      "ĠCat": 4759,
      "ĠAfrica": 4760,
      "Ġinvestig": 4761,
      "Ġsurr": 4762,
      "Ġweak": 4763,
      "ĠFort": 4764,
      "mo": 4765,
      "Ġteach": 4766,
      "liament": 4767,
      "Ġvac": 4768,
      "Ġladies": 4769,
      "Ġcelebr": 4770,
      "Ġbike": 4771,
      "Ġmovement": 4772,
      "Ġclaim": 4773,
      "ĠAward": 4774,
      "Ġstruck": 4775,
      "Is": 4776,
      "ively": 4777,
      "Ġactress": 4778,
      "Ġtraining": 4779,
      "Ġ#Ċ": 4780,
      "Ġshad": 4781,
      "Ġcorrect": 4782,
      "Ġshoulder": 4783,
      "ĠVer": 4784,
      "Ġpeas": 4785,
      "Ġtears": 4786,
      "âĢĻd": 4787,
      "Ġenter": 4788,
      "iring": 4789,
      "gypt": 4790,
      "Ġpizza": 4791,
      "ĠRepublic": 4792,
      "ĠSing": 4793,
      "Ġremem": 4794,
      "Ġnea": 4795,
      "ĠMond": 4796,
      "ĠSwed": 4797,
      "Ġcontract": 4798,
      "atin": 4799,
      "Ġchap": 4800,
      "Ġrocks": 4801,
      "ĠMike": 4802,
      "bel": 4803,
      "ĠJew": 4804,
      "fly": 4805,
      "ĠKore": 4806,
      "Ġfixed": 4807,
      "ooh": 4808,
      "ella": 4809,
      "osta": 4810,
      "ĠOlympics": 4811,
      "Ġeleven": 4812,
      "Ġpercent": 4813,
      "Ġmagaz": 4814,
      "Ġemer": 4815,
      "Ġheat": 4816,
      "Ġpil": 4817,
      "ordon": 4818,
      "Ġgall": 4819,
      "Ġeducation": 4820,
      "-e": 4821,
      "Ġsac": 4822,
      "Ġbeep": 4823,
      "Ġfalls": 4824,
      "Ġappre": 4825,
      "Ġproduct": 4826,
      "Ġlap": 4827,
      "Ġeverywhere": 4828,
      "Ġlips": 4829,
      "Ġcrime": 4830,
      "Ġprovince": 4831,
      "Ġbub": 4832,
      "Ġyyy": 4833,
      "Ġobviously": 4834,
      "aft": 4835,
      "Ġbatter": 4836,
      "Ġunc": 4837,
      "ĠAnother": 4838,
      "ata": 4839,
      "ĠWind": 4840,
      "Ġtum": 4841,
      "ashing": 4842,
      "oms": 4843,
      "Ġhonor": 4844,
      "Ġelectric": 4845,
      "ĠLaw": 4846,
      "Ġimpossible": 4847,
      "ĠChief": 4848,
      "-up": 4849,
      "oured": 4850,
      "Ġcases": 4851,
      "Ġdolly": 4852,
      "Ġpeek": 4853,
      "ams": 4854,
      "Ġfemale": 4855,
      "Ġindivid": 4856,
      "Ġgro": 4857,
      "Ġninety": 4858,
      "Ġprepared": 4859,
      "Ġrate": 4860,
      "Ġbits": 4861,
      "Ġta": 4862,
      "Ġoo": 4863,
      "ĠHal": 4864,
      "-B": 4865,
      "host": 4866,
      "ĠBeck": 4867,
      "omm": 4868,
      "ĠDis": 4869,
      "ĠRec": 4870,
      "Ġharm": 4871,
      "ĠBilly": 4872,
      "Ġfirm": 4873,
      "Ġstayed": 4874,
      "Ġho": 4875,
      "Ġtrade": 4876,
      "aning": 4877,
      "Ġavail": 4878,
      "Ġrout": 4879,
      "itional": 4880,
      "Ġrapid": 4881,
      "Ġbal": 4882,
      "ĠOk": 4883,
      "Ġ...": 4884,
      "Ġloss": 4885,
      "Ġfourth": 4886,
      "osh": 4887,
      "Ġkinds": 4888,
      "Ġplans": 4889,
      "Ġmail": 4890,
      "ĠSomething": 4891,
      "ĠSmith": 4892,
      "anche": 4893,
      "Ġupset": 4894,
      "ĠEgypt": 4895,
      "Ġexec": 4896,
      "Ġrules": 4897,
      "llen": 4898,
      "Ġpill": 4899,
      "Ġforgotten": 4900,
      "Ġjumped": 4901,
      "Ġshowing": 4902,
      "Ġmanaged": 4903,
      "ching": 4904,
      "Ġstudio": 4905,
      "volution": 4906,
      "Ġprim": 4907,
      "cend": 4908,
      "âĢĻre": 4909,
      "ĠVir": 4910,
      "Ġballoon": 4911,
      "Ġsits": 4912,
      "Ġtowel": 4913,
      "Ġsurface": 4914,
      "aving": 4915,
      "ĠIsn": 4916,
      "ĠPet": 4917,
      "aries": 4918,
      "Ġcarrying": 4919,
      "ĠAcad": 4920,
      "Ġneither": 4921,
      "ĠHuh": 4922,
      "Ġgentlemen": 4923,
      "aa": 4924,
      "ĠNed": 4925,
      "Ġdesp": 4926,
      "Ġrange": 4927,
      "Ġmicrophone": 4928,
      "ĠSuper": 4929,
      "Ġprint": 4930,
      "ĠVict": 4931,
      "ĠSun": 4932,
      "Ġassoci": 4933,
      "note": 4934,
      "Ġmam": 4935,
      "Ġcontinue": 4936,
      "ios": 4937,
      "Ġuses": 4938,
      "Ġcred": 4939,
      "nce": 4940,
      "ocrat": 4941,
      "Ġnovel": 4942,
      "ĠLie": 4943,
      "Ġglasses": 4944,
      "iana": 4945,
      "Ġoil": 4946,
      "Ġcontact": 4947,
      "arently": 4948,
      "UK": 4949,
      "filler": 4950,
      "nic": 4951,
      "Ġancient": 4952,
      "Ġmedicine": 4953,
      "Ġartist": 4954,
      "Ġwedding": 4955,
      "cing": 4956,
      "Ġsixty": 4957,
      "ĠChris": 4958,
      "Ġdecision": 4959,
      "ĠWow": 4960,
      "gen": 4961,
      "useum": 4962,
      "Ġacqu": 4963,
      "Ġopportunity": 4964,
      "Ġliter": 4965,
      "Ġhelping": 4966,
      "Ġtie": 4967,
      "ĠJess": 4968,
      "Ġspeech": 4969,
      "OS": 4970,
      "ials": 4971,
      "Ġpolic": 4972,
      "Ġearn": 4973,
      "lyn": 4974,
      "Ġships": 4975,
      "ĠRose": 4976,
      "Ġstands": 4977,
      "Ġsch": 4978,
      "back": 4979,
      "onse": 4980,
      "ĠKar": 4981,
      "Ġperm": 4982,
      "illed": 4983,
      "Ġwine": 4984,
      "hab": 4985,
      "GR": 4986,
      "rees": 4987,
      "Ġdoors": 4988,
      "she": 4989,
      "Ġnineteen": 4990,
      "rist": 4991,
      "ĠAlice": 4992,
      "Ġfinding": 4993,
      "Ġbrothers": 4994,
      "nods": 4995,
      "inger": 4996,
      "Ġvocal": 4997,
      "Ġevents": 4998,
      "Ġtar": 4999,
      "Ġsees": 5000,
      "ĠSaint": 5001,
      "Ġtent": 5002,
      "Ġeasier": 5003,
      "Ġcouncil": 5004,
      "Ġhistor": 5005,
      "olic": 5006,
      "ĠBert": 5007,
      "Ġmodel": 5008,
      "Ġpapers": 5009,
      "Ġrights": 5010,
      "Ġzoo": 5011,
      "Ġcy": 5012,
      "urt": 5013,
      "ĠEmp": 5014,
      "Ġcraw": 5015,
      "Ġshopping": 5016,
      "Ġshell": 5017,
      "ounce": 5018,
      "Ġwalls": 5019,
      "Ġsaf": 5020,
      "Ġcentre": 5021,
      "ĠEliz": 5022,
      "Ġthroat": 5023,
      "abeth": 5024,
      "Ġbisc": 5025,
      "GE": 5026,
      "Ġourselves": 5027,
      "Ġir": 5028,
      "ĠTer": 5029,
      "Ġ*Ċ": 5030,
      "Ġdoin": 5031,
      "Ġleading": 5032,
      "ipper": 5033,
      "ker": 5034,
      "Ġcousin": 5035,
      "Ġvictim": 5036,
      "Ġairpl": 5037,
      "Ġdun": 5038,
      "Ġfellows": 5039,
      "Ġbathroom": 5040,
      "ĠFire": 5041,
      "Ġdefinitely": 5042,
      "ĠBonnet": 5043,
      "silence": 5044,
      "Ġkeeps": 5045,
      "Ġpa": 5046,
      "ĠFar": 5047,
      "Ġaward": 5048,
      "illiant": 5049,
      "ĠOp": 5050,
      "ĠAlright": 5051,
      "Ġpump": 5052,
      "ota": 5053,
      "abel": 5054,
      "Ġaver": 5055,
      "Ġgenerally": 5056,
      "cellent": 5057,
      "Ġprevent": 5058,
      "Ġideas": 5059,
      "Ġdoc": 5060,
      "ĠHas": 5061,
      "Ġquietly": 5062,
      "Ġcrash": 5063,
      "Ġopin": 5064,
      "ĠâĢĻ": 5065,
      "Ġopposite": 5066,
      "Ġbin": 5067,
      "Ġsuccessful": 5068,
      "Ġsuspect": 5069,
      "Ġladd": 5070,
      "Ġofficial": 5071,
      "Ġcities": 5072,
      "eted": 5073,
      "Ġremained": 5074,
      "ores": 5075,
      "vest": 5076,
      "itar": 5077,
      "Ġox": 5078,
      "aled": 5079,
      "asy": 5080,
      "rid": 5081,
      "Ġsoftly": 5082,
      "sych": 5083,
      "Ġretired": 5084,
      "Ġstudents": 5085,
      "Ġmountains": 5086,
      "gress": 5087,
      "ache": 5088,
      "Ġextreme": 5089,
      "Ġbat": 5090,
      "ĠJer": 5091,
      "ĠKim": 5092,
      "iano": 5093,
      "Ġcondition": 5094,
      "Ġfashion": 5095,
      "ĠArt": 5096,
      "Ġdeb": 5097,
      "rem": 5098,
      "Ġduh": 5099,
      "ini": 5100,
      "ellig": 5101,
      "bout": 5102,
      "Ġaffect": 5103,
      "Ġrope": 5104,
      "ĠGordon": 5105,
      "pan": 5106,
      "Ġaccording": 5107,
      "oking": 5108,
      "sha": 5109,
      "ĠStill": 5110,
      "Ġheaven": 5111,
      "ĠSea": 5112,
      "Ġshr": 5113,
      "ĠJean": 5114,
      "Ġknee": 5115,
      "Ġsake": 5116,
      "Ġoccasion": 5117,
      "Ġincluded": 5118,
      "Ġbiggest": 5119,
      "iety": 5120,
      "ĠDutch": 5121,
      "Ġboats": 5122,
      "izing": 5123,
      "Ġresc": 5124,
      "ĠRome": 5125,
      "Ġholiday": 5126,
      "Ġyup": 5127,
      "STE": 5128,
      "Ġdecide": 5129,
      "ĠWel": 5130,
      "Ġfaces": 5131,
      "Ġnap": 5132,
      "esty": 5133,
      "Ġclown": 5134,
      "Ġstyle": 5135,
      "odes": 5136,
      "Ġpractice": 5137,
      "ii": 5138,
      "Ġmotion": 5139,
      "ĠDa": 5140,
      "ĠUnder": 5141,
      "atory": 5142,
      "Ġbi": 5143,
      "idding": 5144,
      "Ġneighbor": 5145,
      "ĠBea": 5146,
      "ĠNice": 5147,
      "Ġevident": 5148,
      "Ġdefend": 5149,
      "ĠArmy": 5150,
      "cise": 5151,
      "Ġgreatest": 5152,
      "ification": 5153,
      "ĠChic": 5154,
      "ĠLake": 5155,
      "Ġflo": 5156,
      "IGHT": 5157,
      "ĠRuth": 5158,
      "ĠSil": 5159,
      "Ġtongue": 5160,
      "ĠSus": 5161,
      "Ġdesk": 5162,
      "ĠJeff": 5163,
      "ĠJoseph": 5164,
      "ĠMonday": 5165,
      "Ġblind": 5166,
      "Ġkinda": 5167,
      "Ġdetect": 5168,
      "ĠMarg": 5169,
      "Ġyounger": 5170,
      "Ġstring": 5171,
      "ĠLife": 5172,
      "Ġwashing": 5173,
      "ĠNick": 5174,
      "Ġdeveloped": 5175,
      "Ġpossibly": 5176,
      "ĠBay": 5177,
      "ĠRy": 5178,
      "Ġsuggested": 5179,
      "Ġoffered": 5180,
      "Ġstir": 5181,
      "inist": 5182,
      "ĠWood": 5183,
      "Ġnursery": 5184,
      "Ġpencil": 5185,
      "Come": 5186,
      "ĠCO": 5187,
      "arily": 5188,
      "Ġschools": 5189,
      "Ġmentioned": 5190,
      "CT": 5191,
      "eping": 5192,
      "Ġriding": 5193,
      "Ġrealize": 5194,
      "Ġbeauty": 5195,
      "ĠStep": 5196,
      "Ġstudied": 5197,
      "gn": 5198,
      "ĠAccording": 5199,
      "ste": 5200,
      "kend": 5201,
      ";Ċ": 5202,
      "Ġfavour": 5203,
      "Ġscience": 5204,
      "Ġbringing": 5205,
      "uits": 5206,
      "Ġstruct": 5207,
      "ga": 5208,
      "Ġcute": 5209,
      "Ġmut": 5210,
      "Ġmurd": 5211,
      "ĠPost": 5212,
      "Ġnomin": 5213,
      "Ġmonster": 5214,
      "Ġjudge": 5215,
      "ĠPop": 5216,
      "Ġmeth": 5217,
      "Ġpages": 5218,
      "isions": 5219,
      "Ġrisk": 5220,
      "ĠAlthough": 5221,
      "Ġhighest": 5222,
      "just": 5223,
      "Ġrings": 5224,
      "ĠKat": 5225,
      "west": 5226,
      "Ġwriter": 5227,
      "Ġeighty": 5228,
      "semb": 5229,
      "asing": 5230,
      "Ġforced": 5231,
      "ĠâĢĶ": 5232,
      "ENT": 5233,
      "Ġalt": 5234,
      "Ġeaten": 5235,
      "Ġwindows": 5236,
      "Ġfeels": 5237,
      "ockey": 5238,
      "cream": 5239,
      "aws": 5240,
      "aly": 5241,
      "Ġblanket": 5242,
      "uf": 5243,
      "Ġinqu": 5244,
      "ĠAndy": 5245,
      "ading": 5246,
      "Ġhorsie": 5247,
      "Ġproperly": 5248,
      "Ġmemory": 5249,
      "rick": 5250,
      "Ġreck": 5251,
      "Ġchat": 5252,
      "Ġcong": 5253,
      "Ġsociety": 5254,
      "Ġtalks": 5255,
      "\"]Ċ": 5256,
      "Let": 5257,
      "uction": 5258,
      "Ġarch": 5259,
      "othy": 5260,
      "Ġder": 5261,
      "vince": 5262,
      "Ġcastle": 5263,
      "Ġdare": 5264,
      "Ġshouted": 5265,
      "ĠRon": 5266,
      "Ġproceed": 5267,
      "stood": 5268,
      "ĠBre": 5269,
      "Ġfund": 5270,
      "Ġpurs": 5271,
      "Ġperforman": 5272,
      "Ġcit": 5273,
      "Ġsigned": 5274,
      "opher": 5275,
      "Ġotherwise": 5276,
      "ĠRussia": 5277,
      "Ġsuc": 5278,
      "ĠFlorida": 5279,
      "ĠLara": 5280,
      "Ġattend": 5281,
      "Ġresearch": 5282,
      "oos": 5283,
      "Ġmetal": 5284,
      "Ġpoet": 5285,
      "Ġsteal": 5286,
      "ĠPo": 5287,
      "Ġdevelopment": 5288,
      "Ġtid": 5289,
      "rans": 5290,
      "Ġfrightened": 5291,
      "Ġbark": 5292,
      "ĠYoung": 5293,
      "ube": 5294,
      "Ġtext": 5295,
      "imit": 5296,
      "Ġodd": 5297,
      "ship": 5298,
      "ĠDen": 5299,
      "worth": 5300,
      "'M": 5301,
      "atoes": 5302,
      "da": 5303,
      "Ġsoup": 5304,
      "tering": 5305,
      "Ġdirectly": 5306,
      "ym": 5307,
      "acks": 5308,
      "JES": 5309,
      "Ġvote": 5310,
      "Ġparticularly": 5311,
      "Ġproduc": 5312,
      "eta": 5313,
      "Ġstates": 5314,
      "Ġbrilliant": 5315,
      "Ġgrave": 5316,
      "rif": 5317,
      "ĠGO": 5318,
      "Ġtractor": 5319,
      "Ġsalt": 5320,
      "Ġcomfortable": 5321,
      "Ġsucceed": 5322,
      "Ġwhist": 5323,
      "Ġcoach": 5324,
      "ĠLind": 5325,
      "ĠToday": 5326,
      "ĠLast": 5327,
      "Ġnurse": 5328,
      "ĠMass": 5329,
      "uments": 5330,
      "Ġprove": 5331,
      "Ġlawyer": 5332,
      "Ġign": 5333,
      "Ġelected": 5334,
      "Ġmission": 5335,
      "Ġdisease": 5336,
      "Ġwave": 5337,
      "Ġpowerful": 5338,
      "Ġperfectly": 5339,
      "holds": 5340,
      "ĠCanad": 5341,
      "Ġappearance": 5342,
      "then": 5343,
      "ansas": 5344,
      "Ġmate": 5345,
      "Ġrust": 5346,
      "IF": 5347,
      "ĠMur": 5348,
      "fortun": 5349,
      "Ġhug": 5350,
      "Ġappreci": 5351,
      "tr": 5352,
      "ĠRoyal": 5353,
      "Ġsafety": 5354,
      "Ġavailable": 5355,
      "Ġinternational": 5356,
      "Ġdistrib": 5357,
      "Ġneat": 5358,
      "ĠSov": 5359,
      "ĠHA": 5360,
      "ĠFine": 5361,
      "Ġdebut": 5362,
      "Ġfurn": 5363,
      "Ġshel": 5364,
      "ĠFe": 5365,
      "Ch": 5366,
      "Ġkeys": 5367,
      "with": 5368,
      "Ġwan": 5369,
      "Ġwa": 5370,
      "ingu": 5371,
      "ĠCast": 5372,
      "icles": 5373,
      "-R": 5374,
      "aign": 5375,
      "Ġafterwards": 5376,
      "Ġhanging": 5377,
      "ilies": 5378,
      "Ġservices": 5379,
      "Ġwaste": 5380,
      "Ġwilling": 5381,
      "Ġdoggie": 5382,
      "Ġscrew": 5383,
      "wing": 5384,
      "itan": 5385,
      "astern": 5386,
      "yr": 5387,
      "ĠBoth": 5388,
      "ĠEs": 5389,
      "ĠCall": 5390,
      "Ġnope": 5391,
      "ĠEarly": 5392,
      "Ġknowledge": 5393,
      "Ġgoal": 5394,
      "ironment": 5395,
      "Ġteams": 5396,
      "icans": 5397,
      "umps": 5398,
      "ooth": 5399,
      "Ġlarger": 5400,
      "Ġnarrow": 5401,
      "lder": 5402,
      "Ġresponse": 5403,
      "ĠVictor": 5404,
      "oned": 5405,
      "Ġpoo": 5406,
      "ĠSteve": 5407,
      "Ġsettled": 5408,
      "Ġbare": 5409,
      "vert": 5410,
      "Ġinvent": 5411,
      "ĠProfess": 5412,
      "Ġfence": 5413,
      "iling": 5414,
      "iggles": 5415,
      "Ġserve": 5416,
      "Ġflew": 5417,
      "Ġconcerned": 5418,
      "Ġmale": 5419,
      "Ġweekend": 5420,
      "Ġdisappoint": 5421,
      "ension": 5422,
      "Ġsoldier": 5423,
      "Ġpressure": 5424,
      "place": 5425,
      "Ġwhispered": 5426,
      "Ġopens": 5427,
      "Ġdread": 5428,
      "Ġ[$": 5429,
      "Ġrib": 5430,
      "sequ": 5431,
      "ĠGreek": 5432,
      "Ġmanager": 5433,
      "ĠEllie": 5434,
      "orter": 5435,
      "Ġpir": 5436,
      "Ġhook": 5437,
      "orough": 5438,
      "ĠAnge": 5439,
      "Ġyay": 5440,
      "Ġforever": 5441,
      "ĠAustralian": 5442,
      "Ġ]": 5443,
      "Ġmud": 5444,
      "Ġfoc": 5445,
      "ĠRoger": 5446,
      "pill": 5447,
      "Ġaunt": 5448,
      "Ġfought": 5449,
      "Ġlanguages": 5450,
      "ĠTime": 5451,
      "Ġdere": 5452,
      "Ġobl": 5453,
      "fall": 5454,
      "Ġweird": 5455,
      "Ġwaited": 5456,
      "ĠIm": 5457,
      "ĠHot": 5458,
      "ĠAcademy": 5459,
      "-n": 5460,
      "pering": 5461,
      "wr": 5462,
      "ĠVal": 5463,
      "ĠGab": 5464,
      "rows": 5465,
      "Ġcancer": 5466,
      "ĠChicago": 5467,
      "So": 5468,
      "Ġahhah": 5469,
      "ĠPrin": 5470,
      "itzer": 5471,
      "Ġafford": 5472,
      "gent": 5473,
      "amps": 5474,
      "rant": 5475,
      "ona": 5476,
      "ĠLong": 5477,
      "Ġboots": 5478,
      "ogether": 5479,
      "ĠThink": 5480,
      "ription": 5481,
      "sec": 5482,
      "Ġforces": 5483,
      "-I": 5484,
      "ĠVan": 5485,
      "ological": 5486,
      "ban": 5487,
      "Ġshock": 5488,
      "ses": 5489,
      "achel": 5490,
      "ented": 5491,
      "Ġrespond": 5492,
      "ients": 5493,
      "vo": 5494,
      "Ġmel": 5495,
      "Ġpred": 5496,
      "Ġprefer": 5497,
      "Ġrelationship": 5498,
      "ĠSecret": 5499,
      "Ġescap": 5500,
      "__": 5501,
      "ĠBern": 5502,
      "Ġfairly": 5503,
      "Where": 5504,
      "ĠLab": 5505,
      "ĠÂ¶": 5506,
      "ĠBa": 5507,
      "ĠMexico": 5508,
      "Ġsen": 5509,
      "Ġrelated": 5510,
      "ĠDistrict": 5511,
      "ĠDidn": 5512,
      "ĠPak": 5513,
      "Ġsposta": 5514,
      "Ġpushed": 5515,
      "lla": 5516,
      "ĠPrime": 5517,
      "etch": 5518,
      "ĠOs": 5519,
      "BC": 5520,
      "Ġsite": 5521,
      "Ġexer": 5522,
      "Ġcooking": 5523,
      "Ġknowing": 5524,
      "ĠEdward": 5525,
      "ĠNight": 5526,
      "ĠHy": 5527,
      "-G": 5528,
      "ĠMake": 5529,
      "fection": 5530,
      "ĠAtl": 5531,
      "ĠWestern": 5532,
      "Ġfired": 5533,
      "Ġsink": 5534,
      "Ġaye": 5535,
      "Ġairplane": 5536,
      "aterpill": 5537,
      "ĠHum": 5538,
      "ĠMajor": 5539,
      "Ġveget": 5540,
      "âĢĿ.Ċ": 5541,
      "ĠBaby": 5542,
      "craft": 5543,
      "ĠVirgin": 5544,
      "Ġreply": 5545,
      "Ġtroops": 5546,
      "Ġevil": 5547,
      "Ġsomewhat": 5548,
      "Ġvalue": 5549,
      "Ġtim": 5550,
      "Ġplayers": 5551,
      "zzz": 5552,
      "ĠCollege": 5553,
      "Ġchest": 5554,
      "ALL": 5555,
      "Ġstaff": 5556,
      "ĠNobody": 5557,
      "Ġsmiled": 5558,
      "Ġanxious": 5559,
      "Ġwings": 5560,
      "whispers": 5561,
      "Ġexplained": 5562,
      "ĠSix": 5563,
      "+in": 5564,
      "Ġgarage": 5565,
      "+box": 5566,
      "Ġaverage": 5567,
      "Ġcloth": 5568,
      "+the": 5569,
      "Ġmatters": 5570,
      "Ġclearly": 5571,
      "tons": 5572,
      "Ġreve": 5573,
      "Ġtheory": 5574,
      "Ġwitness": 5575,
      "orks": 5576,
      "Ġcircum": 5577,
      "ĠRom": 5578,
      "Ġcookies": 5579,
      "ĠDiv": 5580,
      "Ġcrayons": 5581,
      "ĠCentral": 5582,
      "Ġrelease": 5583,
      "ĠIreland": 5584,
      "Ġwondering": 5585,
      "Ġstaying": 5586,
      "gers": 5587,
      "ĠIndians": 5588,
      "Ġknocked": 5589,
      "Ġbarn": 5590,
      "ĠBack": 5591,
      "Ġbod": 5592,
      "Ġfishing": 5593,
      "Ġmere": 5594,
      "Ġmaterial": 5595,
      "ĠBal": 5596,
      "peror": 5597,
      "anny": 5598,
      "Ġpassing": 5599,
      "quar": 5600,
      "Ġwise": 5601,
      "Ġshook": 5602,
      "appy": 5603,
      "Ġepisode": 5604,
      "Ġqueen": 5605,
      "isher": 5606,
      "ropical": 5607,
      "onder": 5608,
      "Ġplastic": 5609,
      "Ġsilent": 5610,
      "ĠAye": 5611,
      "Ġpositive": 5612,
      "ĠBest": 5613,
      "Ġthrown": 5614,
      "ĠAp": 5615,
      "Ġaware": 5616,
      "Ġdisappeared": 5617,
      "hell": 5618,
      "Ġdrops": 5619,
      "mark": 5620,
      "Ġfeelings": 5621,
      "rael": 5622,
      "Ġmagnet": 5623,
      "ĠLos": 5624,
      "Ġtypes": 5625,
      "ION": 5626,
      "Ġrare": 5627,
      "Ġqual": 5628,
      "Ġcentral": 5629,
      "Ġmagn": 5630,
      "-bye": 5631,
      "reedom": 5632,
      "Ġeffort": 5633,
      "ĠWHAT": 5634,
      "ĠSqu": 5635,
      "icked": 5636,
      "ĠRE": 5637,
      "den": 5638,
      "ĠGovernor": 5639,
      "ĠElizabeth": 5640,
      "Ġtough": 5641,
      "Ġaft": 5642,
      "iliar": 5643,
      "Ġnerv": 5644,
      "asty": 5645,
      "ware": 5646,
      "Ġfaster": 5647,
      "Ġmor": 5648,
      "ilities": 5649,
      "rate": 5650,
      "Ġthoughts": 5651,
      "Ġformula": 5652,
      "ĠAfrican": 5653,
      "Ġsocks": 5654,
      "EE": 5655,
      "Ġincludes": 5656,
      "uan": 5657,
      "ĠScotland": 5658,
      "Ġfarmer": 5659,
      "uns": 5660,
      "ĠFore": 5661,
      "ĠJones": 5662,
      "Ġfancy": 5663,
      "ĠSoviet": 5664,
      "ĠEach": 5665,
      "pret": 5666,
      "Ġbyeb": 5667,
      "Ġarg": 5668,
      "Ġnorthern": 5669,
      "Ġends": 5670,
      "Ġcris": 5671,
      "ĠHelp": 5672,
      "Ġopinion": 5673,
      "_UK": 5674,
      "istic": 5675,
      "Ġyummy": 5676,
      "Ġbend": 5677,
      "ibility": 5678,
      "bey": 5679,
      "ulations": 5680,
      "IK": 5681,
      "ulty": 5682,
      "ocratic": 5683,
      "apt": 5684,
      "Ġthrowing": 5685,
      "Ġprevious": 5686,
      "Ġacting": 5687,
      "Ġremembered": 5688,
      "ipping": 5689,
      "vis": 5690,
      "ĠPen": 5691,
      "Ġzzz": 5692,
      "Ġpsych": 5693,
      "ĠCons": 5694,
      "Ġ~": 5695,
      "Ġcups": 5696,
      "ĠMet": 5697,
      "Ġarrange": 5698,
      "ĠSol": 5699,
      "Ġquack": 5700,
      "isha": 5701,
      "Ġrank": 5702,
      "ĠLater": 5703,
      "Ġgreater": 5704,
      "ĠStar": 5705,
      "Ġreported": 5706,
      "IL": 5707,
      "Ġobjects": 5708,
      "Ġnewspaper": 5709,
      "Ġicecream": 5710,
      "Ġmo": 5711,
      "Ġpulls": 5712,
      "'am": 5713,
      "Ġrepeated": 5714,
      "thur": 5715,
      "Ġmixed": 5716,
      "inal": 5717,
      "ĠJon": 5718,
      "ĠTommy": 5719,
      "Ġdepart": 5720,
      "Ġsports": 5721,
      "Ġtoes": 5722,
      "Ġghost": 5723,
      "Ġnative": 5724,
      "road": 5725,
      "Ġ[.": 5726,
      "see": 5727,
      "ential": 5728,
      "ĠDick": 5729,
      "Ġfailed": 5730,
      "Ġmirror": 5731,
      "ĠPap": 5732,
      "Ġjoke": 5733,
      "ĠEdd": 5734,
      "Ġkm": 5735,
      "Ġshooting": 5736,
      "Ġveh": 5737,
      "Ġamazing": 5738,
      "Ġuniversity": 5739,
      "ĠOw": 5740,
      "._Ċ": 5741,
      "ĠFa": 5742,
      "Ġhearing": 5743,
      "Ġproperty": 5744,
      "ĠFive": 5745,
      "Ġtroub": 5746,
      "Ġsecurity": 5747,
      "ĠLes": 5748,
      "ĠRh": 5749,
      "ĠTra": 5750,
      "Ġstops": 5751,
      "-L": 5752,
      "Ġcats": 5753,
      "bits": 5754,
      "ĠBrian": 5755,
      "Ġestabl": 5756,
      "Ġsignal": 5757,
      "Ġreasons": 5758,
      "obile": 5759,
      "ANT": 5760,
      "Ġboxes": 5761,
      "Ġbug": 5762,
      "Ġadvant": 5763,
      "Ġsweetheart": 5764,
      "ias": 5765,
      "ĠCanadian": 5766,
      "Ġworst": 5767,
      "ĠChair": 5768,
      "Ġbyebye": 5769,
      "ĠMos": 5770,
      "Ġdrawn": 5771,
      "Ġgather": 5772,
      "ĠSpe": 5773,
      "sters": 5774,
      "Ġcampaign": 5775,
      "Ġplanet": 5776,
      "ĠNext": 5777,
      "aming": 5778,
      "Ġrom": 5779,
      "Ġexcellent": 5780,
      "Ġfigures": 5781,
      "they": 5782,
      "Ġthin": 5783,
      "oving": 5784,
      "vy": 5785,
      "ĠWhe": 5786,
      "olm": 5787,
      "Ġcrown": 5788,
      "Ġpatient": 5789,
      "ĠSa": 5790,
      "icate": 5791,
      "Ġtrains": 5792,
      "Ġstom": 5793,
      "cel": 5794,
      "Ġpuppy": 5795,
      "Ġocean": 5796,
      "ĠTed": 5797,
      "ĠBird": 5798,
      "ĠHmm": 5799,
      "Ġjigs": 5800,
      "UST": 5801,
      "omer": 5802,
      "ĠMY": 5803,
      "Ġdamage": 5804,
      "ĠEmpire": 5805,
      "igned": 5806,
      "tt": 5807,
      "Ġbecoming": 5808,
      "Ġfamilies": 5809,
      "ĠLieutenant": 5810,
      "angle": 5811,
      "Ġcharacters": 5812,
      "Ġtip": 5813,
      "Ġmile": 5814,
      "Ġminister": 5815,
      "aging": 5816,
      "Ġpolicy": 5817,
      "Ġmatches": 5818,
      "Ã¤": 5819,
      "lam": 5820,
      "Ġlibr": 5821,
      "/H": 5822,
      "ĠWomen": 5823,
      "Who": 5824,
      "Ġpaying": 5825,
      "Ġreb": 5826,
      "spect": 5827,
      "ROZ": 5828,
      "aring": 5829,
      "Ġdozen": 5830,
      "OME": 5831,
      "sung": 5832,
      "ands": 5833,
      "put": 5834,
      "hess": 5835,
      "Ġfully": 5836,
      "Ġmagazine": 5837,
      "-F": 5838,
      "pir": 5839,
      "ĠMars": 5840,
      "Ġscreen": 5841,
      "Ġentirely": 5842,
      "Ġpulling": 5843,
      "Ġburied": 5844,
      "unts": 5845,
      "Ġbutterfly": 5846,
      "-room": 5847,
      "otion": 5848,
      "Ġfold": 5849,
      "ois": 5850,
      "ĠSon": 5851,
      "Ġjumping": 5852,
      "ĠBrother": 5853,
      "ĠBes": 5854,
      "Ġfriendly": 5855,
      "ĠAngel": 5856,
      "bury": 5857,
      "ĠMove": 5858,
      "ĠSyl": 5859,
      "Ġune": 5860,
      "Ġknees": 5861,
      "Ġvir": 5862,
      "Ġcutting": 5863,
      "ĠChampionship": 5864,
      "Ġvoices": 5865,
      "Ġgift": 5866,
      "ĠHill": 5867,
      "vocalize": 5868,
      "bow": 5869,
      "Ġactivity": 5870,
      "Ġstro": 5871,
      "ishment": 5872,
      "ĠWay": 5873,
      "Ġpointing": 5874,
      "-D": 5875,
      "cely": 5876,
      "ĠCla": 5877,
      "Ġdoggy": 5878,
      "Ġsaus": 5879,
      "Ġdegree": 5880,
      "ooper": 5881,
      "ima": 5882,
      "Ġdescribed": 5883,
      "ĠCorn": 5884,
      "Ġpartner": 5885,
      "Ġburst": 5886,
      "ederal": 5887,
      "Ġsmiling": 5888,
      "ĠAgain": 5889,
      "Ġlies": 5890,
      "ctors": 5891,
      "ĠJulia": 5892,
      "ila": 5893,
      "berries": 5894,
      "ba": 5895,
      "Ġfan": 5896,
      "ĠBad": 5897,
      "Ġdism": 5898,
      "Ġtied": 5899,
      "Ġdrama": 5900,
      "ppy": 5901,
      "Ġadminist": 5902,
      "alled": 5903,
      "Ġ(;": 5904,
      "Ġmedical": 5905,
      "Ġhorn": 5906,
      "Ġrealized": 5907,
      "Ġwrest": 5908,
      "Ġpean": 5909,
      "Ġpresence": 5910,
      "ĠGirl": 5911,
      "ĠRod": 5912,
      "ĠIsrael": 5913,
      "Ġsouthern": 5914,
      "ITH": 5915,
      "Ġladder": 5916,
      "ja": 5917,
      "ĠBarb": 5918,
      "fa": 5919,
      "Ġhurried": 5920,
      "Ġforms": 5921,
      "ĠLu": 5922,
      "Ġsword": 5923,
      "Ġcopy": 5924,
      "An": 5925,
      "Ġperform": 5926,
      "Ġfolks": 5927,
      "Ġfrequ": 5928,
      "Ġdistur": 5929,
      "ĠIrish": 5930,
      "lem": 5931,
      "Ġthroughout": 5932,
      "Good": 5933,
      "Ġcheek": 5934,
      "Ġcurrently": 5935,
      "\"?Ċ": 5936,
      "iverse": 5937,
      "AND": 5938,
      "Ġplat": 5939,
      "ĠAnyway": 5940,
      "icking": 5941,
      "Ġcommunic": 5942,
      "dad": 5943,
      "ucle": 5944,
      "Ġshoulders": 5945,
      "ĠLisa": 5946,
      "ĠHaw": 5947,
      "ĠTHIS": 5948,
      "Ġgently": 5949,
      "-year": 5950,
      "do": 5951,
      "ribe": 5952,
      "Ġlocked": 5953,
      "ĠWater": 5954,
      "ĠTy": 5955,
      "igan": 5956,
      "uesday": 5957,
      "Ġmaid": 5958,
      "Ġcomment": 5959,
      "Ġwestern": 5960,
      "ĠTurn": 5961,
      "Ġcitiz": 5962,
      "Ġloose": 5963,
      "Ġprepar": 5964,
      "Ġfac": 5965,
      "ishop": 5966,
      "sighs": 5967,
      "Ġrecorded": 5968,
      "Ġpic": 5969,
      "Ġcandy": 5970,
      "Ġissue": 5971,
      "Ġdying": 5972,
      "Ġdestroyed": 5973,
      "Ġleaf": 5974,
      "Ġgat": 5975,
      "Ġtotally": 5976,
      "IA": 5977,
      "Ġsymb": 5978,
      "Ġpra": 5979,
      "Ġdarkness": 5980,
      "Ġwaves": 5981,
      "ĠProfessor": 5982,
      "oma": 5983,
      "neath": 5984,
      "iot": 5985,
      "Ġtoil": 5986,
      "Ġeffects": 5987,
      "ĠAngeles": 5988,
      "Ġlatter": 5989,
      "Ġfamiliar": 5990,
      "ĠFil": 5991,
      "Ġast": 5992,
      "Ġrecorder": 5993,
      "ĠLeave": 5994,
      "Ġstatistics": 5995,
      "Ġmeas": 5996,
      "avy": 5997,
      "Ġbuildings": 5998,
      "Ġseparate": 5999,
      "ado": 6000,
      "hum": 6001,
      "Ġstones": 6002,
      "sm": 6003,
      "sed": 6004,
      "Ġdrove": 6005,
      "Ġchampions": 6006,
      "Ġadvice": 6007,
      "itzerland": 6008,
      "',": 6009,
      "ĠBus": 6010,
      "ights": 6011,
      "aboo": 6012,
      "EW": 6013,
      "Ġconstit": 6014,
      "ulous": 6015,
      "tained": 6016,
      "CA": 6017,
      "Ġboom": 6018,
      "Ġrecently": 6019,
      "Ġpicking": 6020,
      "ĠMaggie": 6021,
      "ĠRemember": 6022,
      "Ġapartment": 6023,
      "Ġdata": 6024,
      "Ġdiam": 6025,
      "Ġï¿½ï¿½ï¿½ï¿½": 6026,
      "Ġchannel": 6027,
      "Ġrise": 6028,
      "ĠShow": 6029,
      "ĠFox": 6030,
      "osition": 6031,
      "iance": 6032,
      "aval": 6033,
      "Ġtooth": 6034,
      "Ġinit": 6035,
      "-night": 6036,
      "Ġgiant": 6037,
      "hh": 6038,
      "ĠDorothy": 6039,
      "ĠSwitzerland": 6040,
      "ua": 6041,
      "Ġmainly": 6042,
      "Ġsport": 6043,
      "ILL": 6044,
      "za": 6045,
      "Ġphil": 6046,
      "Ġtouched": 6047,
      "mus": 6048,
      "ĠEric": 6049,
      "essed": 6050,
      "Ġhelps": 6051,
      "Ġinterview": 6052,
      "Ġforeign": 6053,
      "Ġfox": 6054,
      "org": 6055,
      "chief": 6056,
      "ĠOx": 6057,
      "umper": 6058,
      "Ġhammer": 6059,
      "ĠPakistan": 6060,
      "Ġtask": 6061,
      "Ġyard": 6062,
      "aining": 6063,
      "voc": 6064,
      "Ġachie": 6065,
      "Ġtraffic": 6066,
      "Ġdreams": 6067,
      ".'": 6068,
      "Ġyards": 6069,
      "Ġunderstood": 6070,
      "Ġslightly": 6071,
      "Ġpants": 6072,
      "Ġhidden": 6073,
      "Ġinstr": 6074,
      "Ġentertain": 6075,
      "Ġenvironment": 6076,
      "Ġfrogs": 6077,
      "ĠJimmy": 6078,
      "Ġgaz": 6079,
      "ĠShould": 6080,
      "ursday": 6081,
      "Ġmoo": 6082,
      "ĠDire": 6083,
      "ĠAT": 6084,
      "umn": 6085,
      "Ġ)Ċ": 6086,
      "ĠSecond": 6087,
      "ĠCourt": 6088,
      "Ġaim": 6089,
      "stances": 6090,
      "Ġhonour": 6091,
      "Ġapparently": 6092,
      "Ġowned": 6093,
      "Ġess": 6094,
      "ĠNO": 6095,
      "untary": 6096,
      "Ġremarked": 6097,
      "Ġdetermined": 6098,
      "Ġopt": 6099,
      "Ġtravell": 6100,
      "-H": 6101,
      "Ġdish": 6102,
      "ĠBud": 6103,
      "ĠPooh": 6104,
      "ĠBra": 6105,
      "Ġcourage": 6106,
      "Ġslept": 6107,
      "Ġmeasure": 6108,
      "Ġwid": 6109,
      "rane": 6110,
      "Ġchairs": 6111,
      "urance": 6112,
      "gend": 6113,
      "aterpillar": 6114,
      "Ġcash": 6115,
      "Ġbricks": 6116,
      "bird": 6117,
      "Ġlaws": 6118,
      "ĠGeorg": 6119,
      "was": 6120,
      "ĠAmericans": 6121,
      "-r": 6122,
      "Ġreceive": 6123,
      "anchester": 6124,
      "ĠServ": 6125,
      "Ġrestaur": 6126,
      "ĠDada": 6127,
      "Ġcompanies": 6128,
      "heast": 6129,
      "Ġestablished": 6130,
      "ĠHor": 6131,
      "ĠZeal": 6132,
      "cod": 6133,
      "Ġpor": 6134,
      "ĠMen": 6135,
      "Ġcreate": 6136,
      "Ġlone": 6137,
      "ĠAMY": 6138,
      "Ġperformance": 6139,
      "Ġwished": 6140,
      "Ġrecording": 6141,
      "enced": 6142,
      "oston": 6143,
      "Ġactive": 6144,
      "ĠSk": 6145,
      "ĠAng": 6146,
      "ĠLatin": 6147,
      "Ġgradu": 6148,
      "ĠCam": 6149,
      "Ġbanana": 6150,
      "ERS": 6151,
      "Ġpow": 6152,
      "Ġtreasure": 6153,
      "Ġnormally": 6154,
      "ĠNicole": 6155,
      "Ġchips": 6156,
      "Ġinnoc": 6157,
      "ĠLar": 6158,
      "ĠBas": 6159,
      "Ġmap": 6160,
      "ĠArthur": 6161,
      "ĠOff": 6162,
      "Ġprogress": 6163,
      "ilty": 6164,
      "Ġexcit": 6165,
      "Ġgor": 6166,
      "ĠSur": 6167,
      "ĠLy": 6168,
      "Ġproduction": 6169,
      "ĠCa": 6170,
      "Ġholes": 6171,
      "ĠIll": 6172,
      "ĠHad": 6173,
      "ĠStay": 6174,
      "Ġmama": 6175,
      "Ġbecomes": 6176,
      "ĠEverybody": 6177,
      "Ġowner": 6178,
      "ano": 6179,
      "Ġpointed": 6180,
      "ĠTor": 6181,
      "Ġsurely": 6182,
      "uries": 6183,
      "ĠGil": 6184,
      "ĠLand": 6185,
      "estival": 6186,
      "Ġtarget": 6187,
      "ednes": 6188,
      "met": 6189,
      "aren": 6190,
      "ĠDun": 6191,
      "Ġgrandma": 6192,
      "book": 6193,
      "Ġbunch": 6194,
      "Ġhunt": 6195,
      "ĠFre": 6196,
      "Ġcompeted": 6197,
      "Ġdunno": 6198,
      "arts": 6199,
      "LAU": 6200,
      "Ġwore": 6201,
      "ĠZealand": 6202,
      "Ġblame": 6203,
      "Ġnervous": 6204,
      ".âĢĻ": 6205,
      "Ġpatter": 6206,
      "Ġsore": 6207,
      "Ġtrial": 6208,
      "Ġ--": 6209,
      "Ġdesper": 6210,
      "Ġstudent": 6211,
      "Ġsweetie": 6212,
      "Ġunderneath": 6213,
      "ĠAssoci": 6214,
      "Ġexpression": 6215,
      "Ġwooden": 6216,
      "ĠGovernment": 6217,
      "ĠWAS": 6218,
      "ednesday": 6219,
      "via": 6220,
      "ĠBritain": 6221,
      "Ġresponsible": 6222,
      "ĠFif": 6223,
      "Ġours": 6224,
      "Ġdivided": 6225,
      "Ġsection": 6226,
      "win": 6227,
      "chuckles": 6228,
      "illing": 6229,
      "Ġfairy": 6230,
      "Ġperformed": 6231,
      "Ġweapons": 6232,
      "ĠJerry": 6233,
      "Ġjigsaw": 6234,
      "Ġpurse": 6235,
      "Ġnation": 6236,
      "Ġbreaking": 6237,
      "Ġplanning": 6238,
      "Ġairport": 6239,
      "ĠSom": 6240,
      "Ġrif": 6241,
      "May": 6242,
      "Ġreview": 6243,
      "geant": 6244,
      "Ġuseful": 6245,
      "pointing": 6246,
      "Ġstranger": 6247,
      "Ġfond": 6248,
      "-morrow": 6249,
      "turns": 6250,
      "Ġseventy": 6251,
      "Ġwhee": 6252,
      "istry": 6253,
      "Ġjacket": 6254,
      "Ġaer": 6255,
      "Ġaside": 6256,
      "Ġgathered": 6257,
      "Ġraise": 6258,
      "Ġspecific": 6259,
      "coughs": 6260,
      "ĠHu": 6261,
      "ĠPolly": 6262,
      "Ġstreets": 6263,
      "Ġrent": 6264,
      "Ġbloody": 6265,
      "Ġspr": 6266,
      "ĠParliament": 6267,
      "enth": 6268,
      "Ġvent": 6269,
      "apping": 6270,
      "ĠCharl": 6271,
      "ELL": 6272,
      "Ġdesire": 6273,
      "Ġrequest": 6274,
      "ko": 6275,
      "Ġkidding": 6276,
      "Ġborder": 6277,
      "ĠAz": 6278,
      "Ã©e": 6279,
      "thew": 6280,
      "Ġterrit": 6281,
      "ĠWhoa": 6282,
      "Ġtransl": 6283,
      "ĠEv": 6284,
      "IE": 6285,
      "Ġprisoners": 6286,
      "Ġsoap": 6287,
      "hib": 6288,
      "Ġhorrible": 6289,
      "Ġencour": 6290,
      "ĠRad": 6291,
      "Ġfeather": 6292,
      "Ġexpress": 6293,
      "overy": 6294,
      "Ġsav": 6295,
      "ĠCamp": 6296,
      "ault": 6297,
      "Ġspider": 6298,
      "Ġrush": 6299,
      "Ġscore": 6300,
      "Ġjobs": 6301,
      "icing": 6302,
      "ĠFer": 6303,
      "Ġlorry": 6304,
      "ĠMister": 6305,
      "ĠWatch": 6306,
      "Ġbesides": 6307,
      "Ġinstant": 6308,
      "Ġbranch": 6309,
      "ĠSand": 6310,
      "Ġrang": 6311,
      "innie": 6312,
      "ĠAwards": 6313,
      "amin": 6314,
      "ura": 6315,
      "Ġcontr": 6316,
      "ares": 6317,
      "ication": 6318,
      "Ġguitar": 6319,
      "Ġcredit": 6320,
      "Ġetc": 6321,
      "ĠInt": 6322,
      "ĠBoston": 6323,
      "Ġ\"'": 6324,
      "ĠXX": 6325,
      "Ġbodies": 6326,
      "Ġlord": 6327,
      "Ġcraft": 6328,
      "ador": 6329,
      "ĠColonel": 6330,
      "ĠHurry": 6331,
      "Ġwounded": 6332,
      "ĠAlexander": 6333,
      "Ġclouds": 6334,
      "Ġswear": 6335,
      "Ġresults": 6336,
      "Ġleaders": 6337,
      "ĠTrans": 6338,
      "Ġstrike": 6339,
      "erves": 6340,
      "Ġtrib": 6341,
      "ĠLucy": 6342,
      "Ġtrous": 6343,
      "giggles": 6344,
      "Ġdump": 6345,
      "igator": 6346,
      "Ġtransport": 6347,
      "Ġexcitement": 6348,
      "stein": 6349,
      "Ġgoodbye": 6350,
      "ĠSomeone": 6351,
      "iation": 6352,
      "Ġborrow": 6353,
      "Ġadop": 6354,
      "ouri": 6355,
      "Ġdeliver": 6356,
      "Ġexciting": 6357,
      "Ġcommun": 6358,
      "Ġtowns": 6359,
      ".C": 6360,
      "IV": 6361,
      "ocks": 6362,
      "Ġcouch": 6363,
      "ĠJac": 6364,
      "Ġinvited": 6365,
      "Ġbeast": 6366,
      "Ġinfluence": 6367,
      "bec": 6368,
      "ĠPot": 6369,
      "anches": 6370,
      "Ġshower": 6371,
      "Ġcompetition": 6372,
      "Ġmort": 6373,
      "Ġliber": 6374,
      "Ġyo": 6375,
      "ĠTuesday": 6376,
      "Ġarran": 6377,
      "Ġremoved": 6378,
      "ELA": 6379,
      "Ġspo": 6380,
      "Ġcolour": 6381,
      "ĠPeggy": 6382,
      "Ġcarriage": 6383,
      "ailed": 6384,
      "Ġapolog": 6385,
      "Ġaccess": 6386,
      "while": 6387,
      "Ġwire": 6388,
      "ĠBow": 6389,
      "Ġbrings": 6390,
      "ĠDaniel": 6391,
      "Ġawake": 6392,
      "ĠJenny": 6393,
      "Be": 6394,
      "ĠOrd": 6395,
      "icket": 6396,
      "Ġhunting": 6397,
      "ĠSel": 6398,
      "Ġfart": 6399,
      "ĠNancy": 6400,
      "Ġ..": 6401,
      "Ġgang": 6402,
      "ĠCatholic": 6403,
      "Ġpiano": 6404,
      "Ġsomehow": 6405,
      "ĠStand": 6406,
      "Ġfeatures": 6407,
      "ĠAllah": 6408,
      "GA": 6409,
      "Ġwashed": 6410,
      "ĠThursday": 6411,
      "ĠOliver": 6412,
      "ds": 6413,
      "Ġunknown": 6414,
      "Ġwondered": 6415,
      "Ġlosing": 6416,
      "Ġeats": 6417,
      "gency": 6418,
      "yo": 6419,
      "Ġburning": 6420,
      "Ġlearning": 6421,
      "ĠAlf": 6422,
      "kee": 6423,
      "Ġsticks": 6424,
      "Ġcurious": 6425,
      "KAR": 6426,
      "wo": 6427,
      "arian": 6428,
      "Ġlamb": 6429,
      "ĠYet": 6430,
      "Ġsorts": 6431,
      "Ġcompanion": 6432,
      "ĠEveryone": 6433,
      "Ġlanded": 6434,
      "Ġbags": 6435,
      "-like": 6436,
      "Ġindustry": 6437,
      "ĠTre": 6438,
      "Ġgosh": 6439,
      "Ġresist": 6440,
      "ĠTen": 6441,
      "Ġsquee": 6442,
      "ĠUN": 6443,
      "Ġparticip": 6444,
      "PE": 6445,
      "-sh": 6446,
      "eral": 6447,
      "osen": 6448,
      "Ġprincess": 6449,
      "Ġunif": 6450,
      "ĠFirstname": 6451,
      "Ġgir": 6452,
      "ĠGal": 6453,
      "ĠRam": 6454,
      "Ġgray": 6455,
      "Ġwoof": 6456,
      "Ġupside": 6457,
      "ĠWhatever": 6458,
      "Ġstepped": 6459,
      "Ġhabit": 6460,
      "Ġoriginally": 6461,
      "ĠCaroline": 6462,
      "Ġreplaced": 6463,
      "Ġtal": 6464,
      "ĠDou": 6465,
      "Ġrear": 6466,
      "ĠMusic": 6467,
      "Ġlou": 6468,
      "ĠTown": 6469,
      "ĠDi": 6470,
      "ĠMatthew": 6471,
      "-T": 6472,
      "ties": 6473,
      "Ġtrunk": 6474,
      "Ġgolden": 6475,
      "ateg": 6476,
      "Ġrolling": 6477,
      "Ġadvantage": 6478,
      "Ġlink": 6479,
      "Ġbears": 6480,
      "DE": 6481,
      "Ġpond": 6482,
      "ĠMAN": 6483,
      "Ġintellig": 6484,
      "Ġenjoyed": 6485,
      "ends": 6486,
      "war": 6487,
      "Ġchamp": 6488,
      "ĠActually": 6489,
      "kel": 6490,
      "Ġgrant": 6491,
      "Ġexchan": 6492,
      "Ġfields": 6493,
      "Ġtear": 6494,
      "Ġmustn": 6495,
      "Ġterror": 6496,
      "Ġforgive": 6497,
      "Ġreligion": 6498,
      "ĠGames": 6499,
      "Ġindividual": 6500,
      "ĠMajesty": 6501,
      "AB": 6502,
      "tin": 6503,
      "ĠWITH": 6504,
      "Ġunus": 6505,
      "Ġcot": 6506,
      "ĠALL": 6507,
      "Ġlistened": 6508,
      "Ġmusical": 6509,
      "Ġdivor": 6510,
      "Ġhasta": 6511,
      "mhm": 6512,
      "Ġjam": 6513,
      "Ġstomach": 6514,
      "ĠDet": 6515,
      "ĠGran": 6516,
      "ĠMadame": 6517,
      "ĠBook": 6518,
      "Ġchanging": 6519,
      "ĠProvince": 6520,
      "Ġrapidly": 6521,
      "ĠOpen": 6522,
      "ani": 6523,
      "fish": 6524,
      "ĠTri": 6525,
      "ĠBi": 6526,
      "Ġtummy": 6527,
      "ĠAlso": 6528,
      "Ġhurts": 6529,
      "ĠBesides": 6530,
      "Ġequal": 6531,
      "Ġindependent": 6532,
      "ĠWednesday": 6533,
      "Ġwra": 6534,
      "Ġintern": 6535,
      "Ġsets": 6536,
      "Ġsplit": 6537,
      "Ġdeer": 6538,
      "...\"Ċ": 6539,
      "Ġautom": 6540,
      "-E": 6541,
      "Ġconv": 6542,
      "ï¿½ï¿½ï¿½": 6543,
      "Ġbeans": 6544,
      "iece": 6545,
      "rank": 6546,
      "Ġguilty": 6547,
      "Ġfant": 6548,
      "ati": 6549,
      "Ġstack": 6550,
      "ĠAndrew": 6551,
      "Ġhandsome": 6552,
      "Ġpalace": 6553,
      "Ġengaged": 6554,
      "ĠEddie": 6555,
      "ĠCongress": 6556,
      "ĠDown": 6557,
      "yal": 6558,
      "Ġbeer": 6559,
      "Ġalarm": 6560,
      "Ġinvol": 6561,
      "Ġupper": 6562,
      "Ġsisters": 6563,
      "Ġtemperature": 6564,
      "Ġexperien": 6565,
      "Ġcoal": 6566,
      "Ġrooms": 6567,
      "Ġshame": 6568,
      "Ġclosely": 6569,
      "Ġrecords": 6570,
      "ELS": 6571,
      "bling": 6572,
      "lim": 6573,
      "Ġbone": 6574,
      "ĠMaria": 6575,
      "Ġcomedy": 6576,
      "Ġproved": 6577,
      "Ġpresents": 6578,
      "cture": 6579,
      "Ġlibrary": 6580,
      "Ġfifth": 6581,
      "-time": 6582,
      "Ġtickle": 6583,
      "Ġfortune": 6584,
      "oli": 6585,
      "Ġballs": 6586,
      "eaking": 6587,
      "Ġhomes": 6588,
      "Ã±": 6589,
      "ava": 6590,
      "ĠJackson": 6591,
      "Ġordinary": 6592,
      "usted": 6593,
      "Ġsupply": 6594,
      "Ġjelly": 6595,
      "ception": 6596,
      "Ġfolk": 6597,
      "ĠRoad": 6598,
      "ĠPrincess": 6599,
      "Ġthrows": 6600,
      "Ġteaching": 6601,
      "-W": 6602,
      "isl": 6603,
      "Ġinha": 6604,
      "ĠDonald": 6605,
      "Ġtrousers": 6606,
      "ĠBell": 6607,
      "Ġexpensive": 6608,
      "stead": 6609,
      "Ġprisoner": 6610,
      "ĠUs": 6611,
      "Ġattacked": 6612,
      "ĠSecretary": 6613,
      "Ġcandid": 6614,
      "iraffe": 6615,
      "low": 6616,
      "Ġlack": 6617,
      "Ġcommer": 6618,
      "Ġspare": 6619,
      "inson": 6620,
      "Ġcrocod": 6621,
      "COL": 6622,
      "ĠCont": 6623,
      "ĠKN": 6624,
      "ĠKent": 6625,
      "boy": 6626,
      "alking": 6627,
      "Ġhills": 6628,
      "Ġdolls": 6629,
      "Ġreligious": 6630,
      "Ġreckon": 6631,
      "Ġapples": 6632,
      "Ġguest": 6633,
      "ĠMarie": 6634,
      "ĠJun": 6635,
      "Ġbranches": 6636,
      "Ġquality": 6637,
      "Here": 6638,
      "ĠDomin": 6639,
      "Ġdecor": 6640,
      "hall": 6641,
      "Ġmechan": 6642,
      "Ġseriously": 6643,
      "Ġmummie": 6644,
      "Ġbelongs": 6645,
      "Ġdelicious": 6646,
      "ĠHea": 6647,
      "Ġwinning": 6648,
      "Ġtreated": 6649,
      "Ġuseta": 6650,
      "Ġprize": 6651,
      "Ġconditions": 6652,
      "Ġaccepted": 6653,
      "ĠBecky": 6654,
      "Ġx": 6655,
      "ĠSally": 6656,
      "Ġthousands": 6657,
      "Ġspeaks": 6658,
      "scream": 6659,
      "Ġvictory": 6660,
      "otte": 6661,
      "Ġfier": 6662,
      "rences": 6663,
      "Ġadmit": 6664,
      "ĠPhilip": 6665,
      "Ġculture": 6666,
      "stitute": 6667,
      "Chi": 6668,
      "Ġpilot": 6669,
      "rang": 6670,
      "Ġsetting": 6671,
      "Ġbon": 6672,
      "Ġfal": 6673,
      "Ġdesigned": 6674,
      "Ġpony": 6675,
      "Ġben": 6676,
      "Ġchim": 6677,
      "Ġscary": 6678,
      "emic": 6679,
      "Ġpicnic": 6680,
      "-le": 6681,
      "acle": 6682,
      "opter": 6683,
      "Ġdivision": 6684,
      "ĠMolly": 6685,
      "Ġanti": 6686,
      "ĠFlore": 6687,
      "ĠBrook": 6688,
      "Ġdescend": 6689,
      "Ġbadly": 6690,
      "ĠRel": 6691,
      "actually": 6692,
      "ros": 6693,
      "Ġincident": 6694,
      "Ġchain": 6695,
      "Ġdishes": 6696,
      "Ġweapon": 6697,
      "ĠEX": 6698,
      "Ġcounter": 6699,
      "ĠSO": 6700,
      "Ġlonely": 6701,
      "Ġbones": 6702,
      "Ġcows": 6703,
      "Ġsigns": 6704,
      "engers": 6705,
      "sell": 6706,
      "Ġsource": 6707,
      "Ġdifficulty": 6708,
      "ĠHead": 6709,
      "Ġintroduced": 6710,
      "ĠHind": 6711,
      "Ġchallen": 6712,
      "Ġswitch": 6713,
      "alds": 6714,
      "ĠHard": 6715,
      "Ġlegal": 6716,
      "Ġhoping": 6717,
      "Ġpure": 6718,
      "umed": 6719,
      "Ġcaptured": 6720,
      "Ġavoid": 6721,
      "----------------": 6722,
      "Ġplanned": 6723,
      "Ġsystems": 6724,
      "Åį": 6725,
      "Ġcher": 6726,
      "ĠOb": 6727,
      "ĠFootnote": 6728,
      "hetti": 6729,
      "ĠWalter": 6730,
      "utive": 6731,
      "Ġdemon": 6732,
      "Ġobserved": 6733,
      "VID": 6734,
      "Ġoblig": 6735,
      "KAT": 6736,
      "Ġbucket": 6737,
      "utions": 6738,
      "eps": 6739,
      "ST": 6740,
      "ĠSher": 6741,
      "Ġlifted": 6742,
      "ĠJeann": 6743,
      "Ġoven": 6744,
      "ĠJenn": 6745,
      "issa": 6746,
      "ami": 6747,
      "Ġremains": 6748,
      "ĠShall": 6749,
      "Ġcode": 6750,
      "Ġchosen": 6751,
      "Ġadvance": 6752,
      "Ġparties": 6753,
      "Ġrequired": 6754,
      "Ġpile": 6755,
      "ĠMarc": 6756,
      "ĠVirginia": 6757,
      "Ġdu": 6758,
      "ĠNorthern": 6759,
      "Ġsuffe": 6760,
      "Ġcurtain": 6761,
      "Ġneighbour": 6762,
      "ĠFair": 6763,
      "hank": 6764,
      "ivity": 6765,
      "Ġactual": 6766,
      "shouts": 6767,
      "Ġsentence": 6768,
      "playing": 6769,
      "Ġstructure": 6770,
      "sembly": 6771,
      "uous": 6772,
      "this": 6773,
      "Ġtyp": 6774,
      "Ġnic": 6775,
      "ĠHome": 6776,
      "Ġagre": 6777,
      "Ġfunction": 6778,
      "ĠMickey": 6779,
      "water": 6780,
      "ĠSn": 6781,
      "Ġmyst": 6782,
      "Ġconcent": 6783,
      "Ġbac": 6784,
      "Ġowl": 6785,
      "ability": 6786,
      "olution": 6787,
      "Ġquit": 6788,
      "Ġdrunk": 6789,
      "Ġrot": 6790,
      "emies": 6791,
      "Ġfinds": 6792,
      "ĠYOUR": 6793,
      "Ġdawn": 6794,
      "Ġtin": 6795,
      "Ġrode": 6796,
      "Ġprovide": 6797,
      "reck": 6798,
      "Ġrecomm": 6799,
      "âĻª": 6800,
      "Ġcaterpillar": 6801,
      "ĠBat": 6802,
      "Ġwoke": 6803,
      "Ġwolf": 6804,
      "Ġgreatly": 6805,
      "ech": 6806,
      "Ġgrandfather": 6807,
      "ĠDemocratic": 6808,
      "Ġtiss": 6809,
      "elled": 6810,
      "Ġbeneath": 6811,
      "Ġpeekaboo": 6812,
      "ĠNana": 6813,
      "ending": 6814,
      "When": 6815,
      "ĠHung": 6816,
      "Ġroyal": 6817,
      "Ġeighteen": 6818,
      "Ġprofessor": 6819,
      "Ġappointed": 6820,
      "esh": 6821,
      "Ġhes": 6822,
      "Ġdelay": 6823,
      "Ġrhy": 6824,
      "ĠDON": 6825,
      "Ġhadta": 6826,
      "Ġsteam": 6827,
      "Ġtransfer": 6828,
      "lers": 6829,
      "Ġsings": 6830,
      "Ġpushing": 6831,
      "Ġgiraffe": 6832,
      "Ġcritic": 6833,
      "non": 6834,
      "ĠChairman": 6835,
      "ĠMatt": 6836,
      "Ġracing": 6837,
      "Ġroles": 6838,
      "Ġeventually": 6839,
      "ĠSweden": 6840,
      "ĠAwww": 6841,
      "Ġsignific": 6842,
      "soft": 6843,
      "Ġslipped": 6844,
      "azz": 6845,
      "ĠStud": 6846,
      "Ġlit": 6847,
      "Ġthir": 6848,
      "Ġcontent": 6849,
      "iture": 6850,
      "Ġplus": 6851,
      "Ġchop": 6852,
      "ĠCompany": 6853,
      "ĠCook": 6854,
      "ĠBetty": 6855,
      "ĠRun": 6856,
      "Ġcomr": 6857,
      "Ġspite": 6858,
      "Ġappears": 6859,
      "Ġdrown": 6860,
      "Ġstandard": 6861,
      "Ġrecognize": 6862,
      "EF": 6863,
      "car": 6864,
      "ĠDeb": 6865,
      "Ġnearer": 6866,
      "rots": 6867,
      "Ġjail": 6868,
      "Ġprotest": 6869,
      "rican": 6870,
      "Ġrice": 6871,
      "Ġsmooth": 6872,
      "inned": 6873,
      "rough": 6874,
      "Ġfaint": 6875,
      "iser": 6876,
      "rific": 6877,
      "ĠBomb": 6878,
      "Ġlets": 6879,
      "Ġrug": 6880,
      "Ġnotes": 6881,
      "Ġwatches": 6882,
      "Ġproduce": 6883,
      "Ġclimbing": 6884,
      "ĠPier": 6885,
      "Ġmerc": 6886,
      "-a": 6887,
      "Ġash": 6888,
      "Ġreact": 6889,
      "Ġliqu": 6890,
      "Ġsplend": 6891,
      "awa": 6892,
      "Ġsquir": 6893,
      "Ġmerry": 6894,
      "SC": 6895,
      "Ġflash": 6896,
      "icted": 6897,
      "wa": 6898,
      "enger": 6899,
      "ĠHan": 6900,
      "Ġhearts": 6901,
      "Ġsteady": 6902,
      "Ġtunnel": 6903,
      "Ġvot": 6904,
      "Ġoldest": 6905,
      "ĠBru": 6906,
      "Ġpoliceman": 6907,
      "ĠAssociation": 6908,
      "Did": 6909,
      "Ġaid": 6910,
      "gt": 6911,
      "rain": 6912,
      "Ġnucle": 6913,
      "Ġcreature": 6914,
      "Ġarrested": 6915,
      "Ġ)": 6916,
      "ĠIII": 6917,
      "ĠAld": 6918,
      "ĠRachel": 6919,
      "III": 6920,
      "Ġequip": 6921,
      "ĠDisney": 6922,
      "Ġwhenever": 6923,
      "Ġpoison": 6924,
      "Ġevidently": 6925,
      "ĠHAVE": 6926,
      "mouth": 6927,
      "rose": 6928,
      "Ġrefused": 6929,
      "Ġrecognized": 6930,
      "ĠAtt": 6931,
      "Ġbaseball": 6932,
      "rison": 6933,
      "Ġbuddy": 6934,
      "ĠUK": 6935,
      "Ġkilling": 6936,
      "Ġpale": 6937,
      "Ġcru": 6938,
      "Ġsixteen": 6939,
      "Ġrelief": 6940,
      "Ġmedal": 6941,
      "Ġgrandmother": 6942,
      "Ġpipe": 6943,
      "ĠWales": 6944,
      "Ġconqu": 6945,
      "Ġselling": 6946,
      "Ġextremely": 6947,
      "ĠSit": 6948,
      "Ġsem": 6949,
      "Ġ-Ċ": 6950,
      "Ġapproach": 6951,
      "ĠMir": 6952,
      "....": 6953,
      "umes": 6954,
      "ader": 6955,
      "Ġincrease": 6956,
      "Ġdrugs": 6957,
      "fers": 6958,
      "ĠBor": 6959,
      "olk": 6960,
      "Ġcircumstances": 6961,
      "ĠJam": 6962,
      "Ġmighty": 6963,
      "rier": 6964,
      "Ġmarks": 6965,
      "wald": 6966,
      "ĠWall": 6967,
      "alais": 6968,
      "eks": 6969,
      "Ġprovided": 6970,
      "atre": 6971,
      "fficient": 6972,
      "hia": 6973,
      "ĠStone": 6974,
      "Ġhath": 6975,
      "Ġrushed": 6976,
      "invol": 6977,
      "lection": 6978,
      "Ġcrossed": 6979,
      "Ġsevere": 6980,
      "Ġgained": 6981,
      "Ġcig": 6982,
      "Ġconnected": 6983,
      "Ġphilos": 6984,
      "ĠAL": 6985,
      "Ġescaped": 6986,
      "Ġwipe": 6987,
      "Ġwagon": 6988,
      "ĠMu": 6989,
      "Ġpenny": 6990,
      "Ġannoy": 6991,
      "ĠAustria": 6992,
      "Ġmedia": 6993,
      "Ġgrace": 6994,
      "Ġguide": 6995,
      "Ġshops": 6996,
      "Ġadventure": 6997,
      "ĠNether": 6998,
      "aghetti": 6999,
      "Ġuns": 7000,
      "chair": 7001,
      "Ġauthority": 7002,
      "ĠJohnny": 7003,
      "Ġpity": 7004,
      "Ġselected": 7005,
      "Ġcave": 7006,
      "Ġfourteen": 7007,
      "ĠDanny": 7008,
      "ĠWilliams": 7009,
      "Ġboun": 7010,
      "Ġbuttons": 7011,
      "ĠPac": 7012,
      "Ġgotten": 7013,
      "kiss": 7014,
      "Ġstatement": 7015,
      "Ġfile": 7016,
      "Ġcontrib": 7017,
      "Ġtoilet": 7018,
      "quarters": 7019,
      "involuntary": 7020,
      "ĠJason": 7021,
      "Ġrelax": 7022,
      "atsy": 7023,
      "Ġlads": 7024,
      "ĠDave": 7025,
      "ulance": 7026,
      "gery": 7027,
      "Ġpassage": 7028,
      "],": 7029,
      "Ġplates": 7030,
      "Ġwaters": 7031,
      "Ġshapes": 7032,
      "Al": 7033,
      "py": 7034,
      "Ġfoll": 7035,
      "Ġrescue": 7036,
      "Ġfuss": 7037,
      "Ġgrapes": 7038,
      "isco": 7039,
      "ĠRab": 7040,
      "Ġpresently": 7041,
      "Ġentrance": 7042,
      "Ġmoments": 7043,
      "Ġexplos": 7044,
      "ĠPan": 7045,
      "Ġgovernor": 7046,
      "Of": 7047,
      "SE": 7048,
      "Ġnetwork": 7049,
      "Ġlod": 7050,
      "Ġthirst": 7051,
      "ĠLooks": 7052,
      "KF": 7053,
      "Ġbelt": 7054,
      "Ġglance": 7055,
      "Ġdoo": 7056,
      "ĠDer": 7057,
      "Ġsymp": 7058,
      "cies": 7059,
      "ĠBart": 7060,
      "Ġfork": 7061,
      "Ġsuppl": 7062,
      "Ġtrem": 7063,
      "Ġappreciate": 7064,
      "Ar": 7065,
      "ĠPenn": 7066,
      "Ġhumans": 7067,
      "Ġticket": 7068,
      "ji": 7069,
      "ĠSIS": 7070,
      "Ġhyd": 7071,
      "bin": 7072,
      "ĠFAT": 7073,
      "ĠIran": 7074,
      "ĠRen": 7075,
      "ĠEst": 7076,
      "Ġoperation": 7077,
      "ĠFlorence": 7078,
      "ĠWant": 7079,
      "Ġjournal": 7080,
      "Ġscarcely": 7081,
      "ancing": 7082,
      "rial": 7083,
      "hew": 7084,
      "making": 7085,
      "draw": 7086,
      "eding": 7087,
      "keep": 7088,
      "shine": 7089,
      "-hm": 7090,
      "ĠYear": 7091,
      "OUT": 7092,
      "Ġscratch": 7093,
      "contin": 7094,
      "lfriend": 7095,
      "Ġcrimin": 7096,
      "ĠHappy": 7097,
      "Ġspots": 7098,
      "Ġcells": 7099,
      "ĠSuch": 7100,
      "ĠCy": 7101,
      "okes": 7102,
      "Ġpoorly": 7103,
      "-and": 7104,
      "Ġtruly": 7105,
      "Ġaddition": 7106,
      "Ġjew": 7107,
      "ĠFam": 7108,
      "Ġpotatoes": 7109,
      "ĠAnnie": 7110,
      "Ġnut": 7111,
      "Ġelimin": 7112,
      "ora": 7113,
      "Ġbelief": 7114,
      "Ġload": 7115,
      "whispered": 7116,
      "unting": 7117,
      "Ġenemies": 7118,
      "Ġhoped": 7119,
      "Ġcircus": 7120,
      "Ġincreased": 7121,
      "Ġsaving": 7122,
      "ĠAnything": 7123,
      "GER": 7124,
      "ĠPers": 7125,
      "Ġleans": 7126,
      "Ġtracks": 7127,
      "Ġstrawberry": 7128,
      "rr": 7129,
      "Ġwound": 7130,
      "Ġcam": 7131,
      "adium": 7132,
      "Ġhipp": 7133,
      "ooking": 7134,
      "agn": 7135,
      "Ġdocument": 7136,
      "ito": 7137,
      "Ġgrey": 7138,
      "Ġshouting": 7139,
      "there": 7140,
      "Ġkil": 7141,
      "Ġshadow": 7142,
      "ĠFaith": 7143,
      "ĠBull": 7144,
      "ĠNOT": 7145,
      "ĠGina": 7146,
      "Ġgrate": 7147,
      "ĠAsh": 7148,
      "Ġpeanut": 7149,
      "nament": 7150,
      "Ġlesson": 7151,
      "ĠPortug": 7152,
      "ĠNetherlands": 7153,
      "Ġowe": 7154,
      "Ġpron": 7155,
      "ĠSoon": 7156,
      "ĠAsia": 7157,
      "Ġraining": 7158,
      "Ġsequ": 7159,
      "onsense": 7160,
      "athy": 7161,
      "Ġkingdom": 7162,
      "Ġsnap": 7163,
      "Ġsatisfied": 7164,
      "Ġwarning": 7165,
      "Ġsending": 7166,
      "Ġsang": 7167,
      "Ġfreedom": 7168,
      "Ġbrand": 7169,
      "Ġprince": 7170,
      "Ġbuying": 7171,
      "Ġdiamond": 7172,
      "ĠCur": 7173,
      "Ġbreast": 7174,
      "OULD": 7175,
      "Ġgay": 7176,
      "....Ċ": 7177,
      "Ġoccurred": 7178,
      "Ġfarther": 7179,
      "addle": 7180,
      "Ġdiscover": 7181,
      "ĠJimmie": 7182,
      "Ġouch": 7183,
      "ques": 7184,
      "Ġadmir": 7185,
      "Ġintended": 7186,
      "Ġturtle": 7187,
      "JO": 7188,
      "Ġconce": 7189,
      "ĠBang": 7190,
      "Ġslip": 7191,
      "Ġkissed": 7192,
      "Ġceased": 7193,
      "aki": 7194,
      "Ġpant": 7195,
      "oto": 7196,
      "Ġrat": 7197,
      "Ġclap": 7198,
      "ĠConf": 7199,
      "ervation": 7200,
      "Ġclimbed": 7201,
      "ĠCAN": 7202,
      "Ġbackwards": 7203,
      "Ġhighly": 7204,
      "ĠWarren": 7205,
      "ture": 7206,
      "Ġhappiness": 7207,
      "Ġpregn": 7208,
      "Ġdiss": 7209,
      "New": 7210,
      "Ġproducer": 7211,
      "Ġunfortun": 7212,
      "ĠAnton": 7213,
      "ĠRoy": 7214,
      "ĠMissouri": 7215,
      "ige": 7216,
      "ĠHoney": 7217,
      "stra": 7218,
      "Ġincred": 7219,
      "Ġrolled": 7220,
      "ĠPolice": 7221,
      "zo": 7222,
      "Ġseek": 7223,
      "ela": 7224,
      "ĠAuntie": 7225,
      "hamed": 7226,
      "Ġinhabit": 7227,
      "ĠBO": 7228,
      "ĠCop": 7229,
      "Ġbasically": 7230,
      "eau": 7231,
      "Ġcruel": 7232,
      "Ġqueer": 7233,
      "Ġtale": 7234,
      "Ġtender": 7235,
      "Ġsuffered": 7236,
      "ĠTry": 7237,
      "Ġshining": 7238,
      "ĠConst": 7239,
      "ĠDuke": 7240,
      "Ġharder": 7241,
      "Ġpengu": 7242,
      "Ġcompos": 7243,
      "Ġducks": 7244,
      "Ġfleet": 7245,
      "Ġtoss": 7246,
      "Ġsooner": 7247,
      "Ãº": 7248,
      "Ġnoble": 7249,
      "ifts": 7250,
      "Ġstole": 7251,
      "ieve": 7252,
      "Ġspaghetti": 7253,
      "Ġtrucks": 7254,
      "ĠRyan": 7255,
      "Ġunit": 7256,
      "Ġtreatment": 7257,
      "Ġequipment": 7258,
      "refer": 7259,
      "ĠDam": 7260,
      "Ġhay": 7261,
      "Ġagent": 7262,
      "Ġprof": 7263,
      "Ġsomethin": 7264,
      "nina": 7265,
      "-ha": 7266,
      "Ġwealth": 7267,
      "Ġcough": 7268,
      "Ġmyth": 7269,
      "ĠGroup": 7270,
      "Ġdetails": 7271,
      "Ġcompanions": 7272,
      "SS": 7273,
      "Ġfate": 7274,
      "Ġshh": 7275,
      "Ġcheap": 7276,
      "Ġeastern": 7277,
      "Ġimprove": 7278,
      "ĠYep": 7279,
      "Ġthorough": 7280,
      "Ġspin": 7281,
      "opl": 7282,
      "ĠInter": 7283,
      "uzz": 7284,
      "Ġtank": 7285,
      "ĠGi": 7286,
      "Ġnights": 7287,
      "Ġlessons": 7288,
      "ĠChristopher": 7289,
      "Ġcomplex": 7290,
      "Ġislands": 7291,
      "Ġdim": 7292,
      "ĠWere": 7293,
      "umbling": 7294,
      "Ġissues": 7295,
      "Ġcereal": 7296,
      "Ġjustice": 7297,
      "Ġconsequ": 7298,
      "Ġbuzz": 7299,
      "Ġpriest": 7300,
      "Ġrequire": 7301,
      "Ġchemical": 7302,
      "Ġrum": 7303,
      "Ġwitch": 7304,
      "Ġlat": 7305,
      "Ġseats": 7306,
      "Ġconfir": 7307,
      "Ġclimate": 7308,
      "Ġmole": 7309,
      "Ġpear": 7310,
      "ĠKorea": 7311,
      "Ġinnocent": 7312,
      "stone": 7313,
      "Ġhelic": 7314,
      "Ġorganization": 7315,
      "ĠHim": 7316,
      "Ġleague": 7317,
      "Ġpushes": 7318,
      "ĠBall": 7319,
      "Ġcoun": 7320,
      "pot": 7321,
      "Ġjun": 7322,
      "Ġ/": 7323,
      "aria": 7324,
      "shakes": 7325,
      "Ġstor": 7326,
      "ĠLois": 7327,
      "Ġheight": 7328,
      "Ġsolid": 7329,
      "tes": 7330,
      "ĠTok": 7331,
      "ulate": 7332,
      "Ġdrinks": 7333,
      "wers": 7334,
      "Ġrailway": 7335,
      "char": 7336,
      "Ġambulance": 7337,
      "Ġchose": 7338,
      "Ġflood": 7339,
      "necess": 7340,
      "Ġelev": 7341,
      "amas": 7342,
      "ĠCross": 7343,
      "Ġnodd": 7344,
      "ĠDepartment": 7345,
      "ĠMod": 7346,
      "icide": 7347,
      "inois": 7348,
      "ĠAB": 7349,
      "Ġcontroll": 7350,
      "ESS": 7351,
      "Ġscare": 7352,
      "Ġbitter": 7353,
      "ĠRa": 7354,
      "Ġbush": 7355,
      "ĠFootball": 7356,
      "ĠGree": 7357,
      "ĠEastern": 7358,
      "Ġbay": 7359,
      "Ġguests": 7360,
      "ĠToo": 7361,
      "ONE": 7362,
      "Ġdragon": 7363,
      "Cause": 7364,
      "Ġteachers": 7365,
      "Ġburned": 7366,
      "Ġphotograph": 7367,
      "lock": 7368,
      "upp": 7369,
      "ĠBelg": 7370,
      "ĠJeannine": 7371,
      "Ġvocalises": 7372,
      "Ġwoo": 7373,
      "Ġpillow": 7374,
      "PS": 7375,
      "Ġwing": 7376,
      "Ġtools": 7377,
      "ĠEh": 7378,
      "Ġna": 7379,
      "Ġrestaurant": 7380,
      "/M": 7381,
      "ĠKitty": 7382,
      "Ġpainted": 7383,
      "June": 7384,
      "hus": 7385,
      "ĠDev": 7386,
      "Ġaffair": 7387,
      "Ġjeal": 7388,
      "Ġphysical": 7389,
      "Ġcries": 7390,
      "Ġlegend": 7391,
      "Ġregret": 7392,
      "ĠPict": 7393,
      "Ġnoisy": 7394,
      "ĠGrace": 7395,
      "ĠCenter": 7396,
      "about": 7397,
      "ungle": 7398,
      "Ġmarked": 7399,
      "ĠIllinois": 7400,
      "uing": 7401,
      "Ġrecent": 7402,
      "Ġvalley": 7403,
      "ĠColumb": 7404,
      "referring": 7405,
      "Ġbreathing": 7406,
      "Ġtub": 7407,
      "ĠAbe": 7408,
      "Ġspark": 7409,
      "leg": 7410,
      "ĠClass": 7411,
      "EA": 7412,
      "itcher": 7413,
      "ctions": 7414,
      "ĠKNOW": 7415,
      "Ġelder": 7416,
      "ĠSylvia": 7417,
      "Ġpowers": 7418,
      "Ġgoods": 7419,
      "venue": 7420,
      "weet": 7421,
      "ĠSister": 7422,
      "iffs": 7423,
      "cipal": 7424,
      "ĠMargaret": 7425,
      "Ġcompleted": 7426,
      "Ġexperiment": 7427,
      "ĠPerson": 7428,
      "Ġunf": 7429,
      "Ġcollection": 7430,
      "-th": 7431,
      "Ġlic": 7432,
      "sex": 7433,
      "Ġprotection": 7434,
      "'RE": 7435,
      "ĠOxford": 7436,
      "ĠGre": 7437,
      "Ġarranged": 7438,
      "cest": 7439,
      "ĠLight": 7440,
      "Ġability": 7441,
      "Ġba": 7442,
      "Ġcas": 7443,
      "ĠPostman": 7444,
      "/B": 7445,
      "Ġcommander": 7446,
      "cles": 7447,
      "iy": 7448,
      "Ġexercise": 7449,
      "Ġsons": 7450,
      "ĠWork": 7451,
      "-to": 7452,
      "Ġdoctors": 7453,
      "Ġaccompl": 7454,
      "Ġworkers": 7455,
      "Ġfailure": 7456,
      "Ġcott": 7457,
      "Ġseated": 7458,
      "Ġconduct": 7459,
      "atherine": 7460,
      "Ġcauses": 7461,
      "Ġthirteen": 7462,
      "Ã¡n": 7463,
      "olt": 7464,
      "umbled": 7465,
      "Ġlieutenant": 7466,
      "Ġemergency": 7467,
      "Ġchase": 7468,
      "ellow": 7469,
      "Ġcanoe": 7470,
      "Ġblowing": 7471,
      "GLO": 7472,
      "Ġax": 7473,
      "Ġshed": 7474,
      "olen": 7475,
      "Ġsofa": 7476,
      "Ġdemanded": 7477,
      "ev": 7478,
      "Ġaltogether": 7479,
      "To": 7480,
      "happy": 7481,
      "Ġfed": 7482,
      "Ġstronger": 7483,
      "-Calais": 7484,
      "Ġresponsibility": 7485,
      "ĠFord": 7486,
      "Ġaltern": 7487,
      "inky": 7488,
      "Ġcommittee": 7489,
      "Ġfinan": 7490,
      "ĠCarolina": 7491,
      "Ġeagerly": 7492,
      "ĠBRO": 7493,
      "ĠOffic": 7494,
      "ĠLot": 7495,
      "ĠRail": 7496,
      "ĠDef": 7497,
      "babble": 7498,
      "ĠTa": 7499,
      "Ġpresented": 7500,
      "writer": 7501,
      "Ġspect": 7502,
      "Ġarmed": 7503,
      "atively": 7504,
      "Ġbriefly": 7505,
      "etts": 7506,
      "ĠTurk": 7507,
      "Ġunusual": 7508,
      "ĠAD": 7509,
      "Ġcovers": 7510,
      "Ġdisappear": 7511,
      "Are": 7512,
      "ĠCareer": 7513,
      "aka": 7514,
      "ĠBuild": 7515,
      "Ġjealous": 7516,
      "heim": 7517,
      "pton": 7518,
      "Ġunion": 7519,
      "Ġslipp": 7520,
      "Ġpassengers": 7521,
      "AU": 7522,
      "Ġpitch": 7523,
      "athan": 7524,
      "Ġdelighted": 7525,
      "erous": 7526,
      "ĠJohnson": 7527,
      "ĠWithout": 7528,
      "music": 7529,
      "ĠTha": 7530,
      "ĠLew": 7531,
      "li": 7532,
      "Ġproof": 7533,
      "Ġdistant": 7534,
      "ĠGeorgia": 7535,
      "ĠSouthern": 7536,
      "Ġlif": 7537,
      "ĠKate": 7538,
      "burgh": 7539,
      "aved": 7540,
      "hemat": 7541,
      "Ġaudience": 7542,
      "ĠWindows": 7543,
      ".A": 7544,
      "iens": 7545,
      "Ġbent": 7546,
      "Ġadvert": 7547,
      "Ġcondu": 7548,
      "Ġgirlfriend": 7549,
      "Ġsauce": 7550,
      "Ġworn": 7551,
      "Ġnominated": 7552,
      "Ġbeads": 7553,
      "ĠAren": 7554,
      "ĠShi": 7555,
      "ĠMust": 7556,
      "ĠCra": 7557,
      "iffe": 7558,
      "ĠGro": 7559,
      "ĠKir": 7560,
      "rels": 7561,
      "Ġletting": 7562,
      "Ġtorn": 7563,
      "Ġhundreds": 7564,
      "ĠSenate": 7565,
      "Ġsplendid": 7566,
      "Ġdom": 7567,
      "alo": 7568,
      "Ġdrum": 7569,
      "Ġpermission": 7570,
      "sn": 7571,
      "Ġdough": 7572,
      "-cl": 7573,
      "ĠMem": 7574,
      "ĠAlbert": 7575,
      "ĠArk": 7576,
      "ĠTwenty": 7577,
      "ĠTem": 7578,
      "ĠSub": 7579,
      "inder": 7580,
      "-looking": 7581,
      "Go": 7582,
      "ĠAS": 7583,
      "ĠHoly": 7584,
      "Ġcarpet": 7585,
      "EST": 7586,
      "Ġsurround": 7587,
      "gly": 7588,
      "Ġunable": 7589,
      "iped": 7590,
      "ĠCommittee": 7591,
      "Ġsettlement": 7592,
      "Ġbalance": 7593,
      "ĠPoor": 7594,
      "bell": 7595,
      "ĠRobin": 7596,
      "icycle": 7597,
      "Ġutterances": 7598,
      "Ġfo": 7599,
      "ĠGreg": 7600,
      "ĠRick": 7601,
      "Ġmood": 7602,
      "Ġlately": 7603,
      "Ġmultip": 7604,
      "mont": 7605,
      "Ġfits": 7606,
      "Ġfollows": 7607,
      "cho": 7608,
      "Ġroute": 7609,
      "Ġgoals": 7610,
      "Ġdriven": 7611,
      "Ġinspect": 7612,
      "Ġsymbol": 7613,
      "Ġoop": 7614,
      "Ġcage": 7615,
      "Ġincl": 7616,
      "elet": 7617,
      "ĠUnt": 7618,
      "Ġsecure": 7619,
      "ĠIslam": 7620,
      "Ġchecked": 7621,
      "Ġbubbles": 7622,
      "Ġpowder": 7623,
      ".--": 7624,
      "ĠTam": 7625,
      "Ġbrick": 7626,
      "Ġstudies": 7627,
      "ĠHolly": 7628,
      "ĠMartine": 7629,
      "Ġgods": 7630,
      "MEL": 7631,
      "uddle": 7632,
      "ĠProt": 7633,
      "ĠProbably": 7634,
      "Ġdaily": 7635,
      "ufact": 7636,
      "reaches": 7637,
      "Ġexha": 7638,
      "necessary": 7639,
      "Ġuniform": 7640,
      "Just": 7641,
      "Ġsounded": 7642,
      "Ġbeds": 7643,
      "anas": 7644,
      "Ġgain": 7645,
      "Ġanch": 7646,
      "ĠMich": 7647,
      "ĠWelcome": 7648,
      "ĠUk": 7649,
      "Ġminor": 7650,
      "Ġarchite": 7651,
      "Ġswall": 7652,
      "Ġcrocodile": 7653,
      "Ġobey": 7654,
      "annah": 7655,
      "-law": 7656,
      "ĶĢ": 7657,
      "Ġalp": 7658,
      "ĠLeon": 7659,
      "Ġbasketball": 7660,
      "Ġtropical": 7661,
      "aron": 7662,
      "merican": 7663,
      "Ġcolon": 7664,
      "aska": 7665,
      "ali": 7666,
      "imp": 7667,
      "Ġsock": 7668,
      "uz": 7669,
      "sect": 7670,
      "Ġscra": 7671,
      "ulated": 7672,
      "Ġconfl": 7673,
      "rich": 7674,
      "iches": 7675,
      "ĠTeam": 7676,
      "keys": 7677,
      "Ġfrag": 7678,
      "ĠAsian": 7679,
      "Ġcontains": 7680,
      "ĠâĶĢ": 7681,
      "aned": 7682,
      "ications": 7683,
      "enes": 7684,
      "ĠOH": 7685,
      "oard": 7686,
      "Ġconvin": 7687,
      "achus": 7688,
      "ĠAtlantic": 7689,
      "Ġinhabitants": 7690,
      "iar": 7691,
      "eme": 7692,
      "incol": 7693,
      "Ġthunder": 7694,
      "Ġchuck": 7695,
      "AUN": 7696,
      "As": 7697,
      "ĠDE": 7698,
      "ĠMorgan": 7699,
      "Ġboot": 7700,
      "ricane": 7701,
      "Ġpride": 7702,
      "lace": 7703,
      "Ġsorrow": 7704,
      "aks": 7705,
      "Ġinstance": 7706,
      "alls": 7707,
      "Ġbatt": 7708,
      "Ġmuseum": 7709,
      "Ġmyster": 7710,
      "Ġcleaning": 7711,
      "arrass": 7712,
      "Ġdepends": 7713,
      "ĠSC": 7714,
      "elling": 7715,
      "Ġsales": 7716,
      "ĠDivision": 7717,
      "enly": 7718,
      "Ġunits": 7719,
      "ĠCOVID": 7720,
      "ĠMiddle": 7721,
      "Ġtray": 7722,
      "ologist": 7723,
      "Ġhers": 7724,
      "ĠEnd": 7725,
      "Ġasks": 7726,
      "toys": 7727,
      "down": 7728,
      "Ġprecious": 7729,
      "ĠClare": 7730,
      "Ġconfidence": 7731,
      "Ġsucceeded": 7732,
      "Ġwww": 7733,
      "Ġexplan": 7734,
      "Ġsigh": 7735,
      "Ġaston": 7736,
      "iments": 7737,
      "una": 7738,
      "Ġlocation": 7739,
      "Ġproposed": 7740,
      "Ġwhoo": 7741,
      "Ġslave": 7742,
      "ĠSeven": 7743,
      "ĠCharlotte": 7744,
      "Ġrude": 7745,
      "Ġbond": 7746,
      "LYN": 7747,
      "voice": 7748,
      "Ġhanded": 7749,
      "LI": 7750,
      "ĠAnth": 7751,
      "ylvan": 7752,
      "Ġhealthy": 7753,
      "Ġtraditional": 7754,
      "Ġengines": 7755,
      "Ġsurrounded": 7756,
      "Ġmethod": 7757,
      "aling": 7758,
      "Ġje": 7759,
      "Ġsexual": 7760,
      "Ġsuffering": 7761,
      "ocr": 7762,
      "Ġvolume": 7763,
      "Ġcupboard": 7764,
      "Ġillustr": 7765,
      "elp": 7766,
      "ĠGoodbye": 7767,
      "Ġconstruction": 7768,
      "Ġfacing": 7769,
      "urg": 7770,
      "Ġbushes": 7771,
      "eable": 7772,
      "Ġexped": 7773,
      "Ġshark": 7774,
      "ĠFrancis": 7775,
      "'II": 7776,
      "Ġkindly": 7777,
      "Ġstruggle": 7778,
      "ĠPas": 7779,
      "ĠJoy": 7780,
      "ĠBrad": 7781,
      "Ġspirits": 7782,
      "Ġbillion": 7783,
      "Ġger": 7784,
      "Ġath": 7785,
      "Ġroads": 7786,
      "Ġloudly": 7787,
      "-old": 7788,
      "Ġcakes": 7789,
      "Ġresour": 7790,
      "ĠAlan": 7791,
      "Ġsunshine": 7792,
      "Ġbiscuits": 7793,
      "Ġchess": 7794,
      "Ġdyn": 7795,
      "Ġconsult": 7796,
      "ĠBY": 7797,
      "Ġinstruct": 7798,
      "Ġearnest": 7799,
      "ĠTeddy": 7800,
      "ĠAri": 7801,
      "Ġrolls": 7802,
      "ĠJewish": 7803,
      "Ġcitizens": 7804,
      "omed": 7805,
      "Ġreality": 7806,
      "Ġlemon": 7807,
      "VA": 7808,
      "Ġnick": 7809,
      "ograp": 7810,
      "ĠStephen": 7811,
      "Ġdistributed": 7812,
      "Ġreturns": 7813,
      "Ġreturning": 7814,
      "ĠPatrick": 7815,
      "Ġoccupied": 7816,
      ",âĢĻ": 7817,
      "ĠHoll": 7818,
      "ĠCub": 7819,
      "Ġtechnology": 7820,
      "phy": 7821,
      "Ġtidy": 7822,
      "ĠGabri": 7823,
      "Ah": 7824,
      "Ġsteel": 7825,
      "Ġreports": 7826,
      "Ġfurniture": 7827,
      "Look": 7828,
      "ĠMid": 7829,
      "Ġsprang": 7830,
      "ivered": 7831,
      "Ġhockey": 7832,
      "Ġtissue": 7833,
      "Ġshelter": 7834,
      "Ġjoint": 7835,
      "Ġfireman": 7836,
      "Ġlanding": 7837,
      "Ġcontainer": 7838,
      "ĠLincol": 7839,
      "Ġcents": 7840,
      "ieur": 7841,
      "geous": 7842,
      "Ġstove": 7843,
      "Ġfever": 7844,
      "Ġattached": 7845,
      "Ġadvanced": 7846,
      "Ġembarrass": 7847,
      "ĠWilson": 7848,
      "Ġconfirmed": 7849,
      "ĠPhilipp": 7850,
      "Ġbroadcast": 7851,
      "achusetts": 7852,
      "ĠTar": 7853,
      "mann": 7854,
      "Can": 7855,
      "Ġloo": 7856,
      "ĠTay": 7857,
      "Ġexpecting": 7858,
      "Ġdesert": 7859,
      "Ġrifle": 7860,
      "Ġshaking": 7861,
      "ĠMam": 7862,
      "Ġaboard": 7863,
      "ague": 7864,
      "Ġelement": 7865,
      "Ġkiller": 7866,
      "ĠSomebody": 7867,
      "Ġsalad": 7868,
      "Ġrejo": 7869,
      "ĠGuy": 7870,
      "Ġcalcul": 7871,
      "zy": 7872,
      "ĠId": 7873,
      "Ġwarri": 7874,
      "Ġcosts": 7875,
      ".D": 7876,
      "Ġpitcher": 7877,
      "boat": 7878,
      "Ġfortun": 7879,
      "Ġaband": 7880,
      "ĠOrder": 7881,
      "Ġashamed": 7882,
      "Ġdisplay": 7883,
      "IST": 7884,
      "-five": 7885,
      "ĠBerlin": 7886,
      "Ġschol": 7887,
      "Ġsleepy": 7888,
      "Ġ?Ċ": 7889,
      "ĠARE": 7890,
      "ĠThing": 7891,
      "ĠNi": 7892,
      "ARD": 7893,
      "new": 7894,
      "which": 7895,
      "Ġcontro": 7896,
      "Ġdistinct": 7897,
      "Ġromantic": 7898,
      "Ġfalse": 7899,
      "ĠAle": 7900,
      "ĠNina": 7901,
      "Ġtrave": 7902,
      "Ġancest": 7903,
      "ĠArmen": 7904,
      "Ġpretending": 7905,
      "anks": 7906,
      "Ġstern": 7907,
      "Ġstiff": 7908,
      "ĠBring": 7909,
      "omi": 7910,
      "umble": 7911,
      "uties": 7912,
      "Ġfactory": 7913,
      "ĠPercy": 7914,
      "isse": 7915,
      "ibly": 7916,
      "unched": 7917,
      "ICE": 7918,
      "ĠExactly": 7919,
      "Ġringing": 7920,
      "ĠSyd": 7921,
      "IG": 7922,
      "ĠAha": 7923,
      "ĠSong": 7924,
      "ransc": 7925,
      "Ġmarch": 7926,
      "Ġbudget": 7927,
      "Ġswift": 7928,
      "Ġblew": 7929,
      "ylvania": 7930,
      "rand": 7931,
      "Ġbul": 7932,
      "Ġclient": 7933,
      "ĠBUT": 7934,
      "ĠClark": 7935,
      "ĠSimon": 7936,
      "ĠGrandpa": 7937,
      "ĠService": 7938,
      "UM": 7939,
      "Ġforb": 7940,
      "ĠPass": 7941,
      "ĠKansas": 7942,
      "Ġconnection": 7943,
      "ĠWinter": 7944,
      "Ġsheet": 7945,
      "Ġamaz": 7946,
      "rets": 7947,
      "BS": 7948,
      "crying": 7949,
      "sque": 7950,
      "Ġflour": 7951,
      "Ġdescribe": 7952,
      "Ġmajority": 7953,
      "ĠValley": 7954,
      "onia": 7955,
      "ĠPacific": 7956,
      "Ġhelicopter": 7957,
      "Ġlaughter": 7958,
      "Ġquant": 7959,
      "standing": 7960,
      "Ġservant": 7961,
      "hants": 7962,
      "Ġbegun": 7963,
      "ĠNap": 7964,
      "ĠMassachusetts": 7965,
      "Ġded": 7966,
      "uls": 7967,
      "Ġcheeks": 7968,
      "Ġclothing": 7969,
      "Ġreward": 7970,
      "Ġscored": 7971,
      "Ġbees": 7972,
      "erk": 7973,
      "Ġstolen": 7974,
      "Ġseized": 7975,
      "Ġvalu": 7976,
      "ĠDirector": 7977,
      "Ġframe": 7978,
      "ints": 7979,
      "Ġflu": 7980,
      "Ġsupported": 7981,
      "Ġhesit": 7982,
      "ario": 7983,
      "Ġslaves": 7984,
      "Ġneighborhood": 7985,
      "ĠBarbara": 7986,
      "hara": 7987,
      "Ġrivers": 7988,
      "Ġsticker": 7989,
      "MAD": 7990,
      "ĠHope": 7991,
      "Ġrevol": 7992,
      "eline": 7993,
      "Ġefforts": 7994,
      "Ġmystery": 7995,
      "erable": 7996,
      "ĠSport": 7997,
      "iro": 7998,
      "Ġstopping": 7999,
      "ĠGolden": 8000,
      "Ġsausage": 8001,
      "For": 8002,
      "Ġbree": 8003,
      "ĠNet": 8004,
      "Ġaircraft": 8005,
      "Ġcommonly": 8006,
      "Ġactions": 8007,
      "Ġscale": 8008,
      "Ġsplash": 8009,
      "Ġumbre": 8010,
      "Ġpurcha": 8011,
      "RIC": 8012,
      "Ġheaded": 8013,
      "Ġsuffer": 8014,
      "Ġwhistle": 8015,
      "umm": 8016,
      "Ġvisited": 8017,
      "Ġcreatures": 8018,
      "Per": 8019,
      "Ġteen": 8020,
      "Ġheavily": 8021,
      "Ġeliminated": 8022,
      "Ġmanufact": 8023,
      "OOK": 8024,
      "ĠLiber": 8025,
      "Ġconscious": 8026,
      "ĠTele": 8027,
      "ĠBudd": 8028,
      "ĠSocial": 8029,
      "Ġstroke": 8030,
      "ĠArgent": 8031,
      "Ġdefeated": 8032,
      "rad": 8033,
      "ĠNord": 8034,
      "ĠInstitute": 8035,
      "ĠBattle": 8036,
      "obe": 8037,
      "ĠCass": 8038,
      "ĠDog": 8039,
      "gging": 8040,
      "ĠCommander": 8041,
      "ĠEmperor": 8042,
      "Ġmurm": 8043,
      "imme": 8044,
      "Ġbold": 8045,
      "ĠThus": 8046,
      "Ġboyfriend": 8047,
      "ribly": 8048,
      "esc": 8049,
      "Ġgoat": 8050,
      "Ġsoil": 8051,
      "Ġconfused": 8052,
      "Ġseasons": 8053,
      "ĠLouise": 8054,
      "Ġitems": 8055,
      "Ġdey": 8056,
      "ĠCON": 8057,
      "FF": 8058,
      "ĠProd": 8059,
      "Ġsmiles": 8060,
      "lying": 8061,
      "Ġvehicle": 8062,
      "Ġwreck": 8063,
      "allas": 8064,
      "resp": 8065,
      "Ġroar": 8066,
      "nis": 8067,
      "Ġcoloring": 8068,
      "WE": 8069,
      "ĠLau": 8070,
      "ĠViet": 8071,
      "Ġarticle": 8072,
      "Ġlemme": 8073,
      "ĠPete": 8074,
      "Ġsched": 8075,
      "ĠSupp": 8076,
      "-hmm": 8077,
      "wan": 8078,
      "venge": 8079,
      "ĠKaren": 8080,
      "ĠStory": 8081,
      "Ġpassion": 8082,
      "ĠThough": 8083,
      "ĠRepresent": 8084,
      "ridge": 8085,
      "ĠJr": 8086,
      "ĠKn": 8087,
      "Ġtradition": 8088,
      "ĠSusan": 8089,
      "Ġdollar": 8090,
      "Ġconcer": 8091,
      "ĠTob": 8092,
      "Ġuniverse": 8093,
      "Ġadmitted": 8094,
      "ĠFrancisco": 8095,
      "Ġearned": 8096,
      "Ġbenefit": 8097,
      "Ġmanagement": 8098,
      "bot": 8099,
      "Ġwinner": 8100,
      "also": 8101,
      "opes": 8102,
      "ĠEight": 8103,
      "ugs": 8104,
      "ropol": 8105,
      "-N": 8106,
      "ington": 8107,
      "ĠTop": 8108,
      "Ġuncom": 8109,
      "Ġdrag": 8110,
      "Ġquarters": 8111,
      "Ġappeal": 8112,
      "Ġawarded": 8113,
      "uals": 8114,
      "ĠNaz": 8115,
      "Ġimage": 8116,
      "ĠMuslim": 8117,
      "ĠMouse": 8118,
      "Ġprinci": 8119,
      "ĠMuseum": 8120,
      "Ġseas": 8121,
      "ĠGET": 8122,
      "ĠLib": 8123,
      "ĠForm": 8124,
      "Ġtrap": 8125,
      "Ġbiscuit": 8126,
      "screams": 8127,
      "Ġcord": 8128,
      "Ġren": 8129,
      "Ġages": 8130,
      "ĠVis": 8131,
      "Ġcricket": 8132,
      "ĠPrize": 8133,
      "iders": 8134,
      "Ġseeds": 8135,
      "ĠCathy": 8136,
      "Ġstations": 8137,
      "Ġjar": 8138,
      "Ġconclud": 8139,
      "Ġserving": 8140,
      "Ġretire": 8141,
      "Ġeconomic": 8142,
      "och": 8143,
      "ĠMmm": 8144,
      "ĠJersey": 8145,
      "ĠMoon": 8146,
      "Ġstamp": 8147,
      "ĠOUT": 8148,
      "Ġsche": 8149,
      "ras": 8150,
      "orious": 8151,
      "Ġremove": 8152,
      "Ġanswers": 8153,
      "Ġsailor": 8154,
      "Ġterritory": 8155,
      "Ġmeow": 8156,
      "Ġtempt": 8157,
      "ĠIllustr": 8158,
      "Ġrev": 8159,
      "ĠIslands": 8160,
      "Ġee": 8161,
      "ĠPL": 8162,
      "Ġlands": 8163,
      "Ġinjured": 8164,
      "ender": 8165,
      "ulls": 8166,
      "Ġheadquarters": 8167,
      "Ġacid": 8168,
      "looking": 8169,
      "Ġdegrees": 8170,
      "ĠRepublican": 8171,
      "ĠShan": 8172,
      "ĠNan": 8173,
      "Ġcolored": 8174,
      "Ġsafely": 8175,
      "Ġhee": 8176,
      "Ġratt": 8177,
      "ĠCwww": 8178,
      "Ġ{": 8179,
      "Ġsin": 8180,
      "Ġinches": 8181,
      "ĠOcean": 8182,
      "ĠJake": 8183,
      "Ġrac": 8184,
      "Ġwebs": 8185,
      "Ġauthorities": 8186,
      "Ġrustling": 8187,
      "alie": 8188,
      "Ġacted": 8189,
      "Ġsne": 8190,
      "imum": 8191,
      "ĠHit": 8192,
      "ifer": 8193,
      "Ġspy": 8194,
      "Ġunderstanding": 8195,
      "Ġhits": 8196,
      "ĠTs": 8197,
      "Ġpossession": 8198,
      "Ġassistant": 8199,
      "mosp": 8200,
      "ĠWalk": 8201,
      "ĠDear": 8202,
      "ĠVen": 8203,
      "Ġamongst": 8204,
      "Ġplatform": 8205,
      "ĠHealth": 8206,
      "ĠZorg": 8207,
      "Ġincome": 8208,
      "Ġelectron": 8209,
      "nda": 8210,
      "Ġrevolution": 8211,
      "hens": 8212,
      "unning": 8213,
      "Ġnicely": 8214,
      "Ġstores": 8215,
      "Ġlamp": 8216,
      "ĠAk": 8217,
      "ilst": 8218,
      "Ġprogramme": 8219,
      "Ġdrift": 8220,
      "ĠUntil": 8221,
      "--\"": 8222,
      "ĠBeat": 8223,
      "Ġdemonstr": 8224,
      "ĠArn": 8225,
      "Ġofficially": 8226,
      "Ġelectr": 8227,
      "Ġconsiderable": 8228,
      "ĠOlympic": 8229,
      "Ġtab": 8230,
      "ĠAw": 8231,
      "irts": 8232,
      "ĠArch": 8233,
      "Ġclasses": 8234,
      "Ġbattery": 8235,
      "agger": 8236,
      "Ġenthus": 8237,
      "Ġcompared": 8238,
      "Ġcottage": 8239,
      "ĠHay": 8240,
      "Ġcock": 8241,
      "Ġcuts": 8242,
      "Ġâľ": 8243,
      "Mr": 8244,
      "hio": 8245,
      "ĠXV": 8246,
      "Ġangel": 8247,
      "Ġbasic": 8248,
      "Ġbullet": 8249,
      "ĠPenns": 8250,
      "ĠSever": 8251,
      "Ġtrained": 8252,
      "Ġpolitics": 8253,
      "keeper": 8254,
      "ĠBess": 8255,
      "bridge": 8256,
      "Ġpersons": 8257,
      "ĠGall": 8258,
      "rogen": 8259,
      "ĠPapa": 8260,
      "iner": 8261,
      "ament": 8262,
      "Ġanal": 8263,
      "ĠMexican": 8264,
      "Ġâľ¿": 8265,
      "Mother": 8266,
      "walk": 8267,
      "ophy": 8268,
      "Ġinstit": 8269,
      "Ġcapture": 8270,
      "ĠAustrian": 8271,
      "ĠDuck": 8272,
      "Ġwrit": 8273,
      "ĠLinda": 8274,
      "Ġmerely": 8275,
      "ĠVol": 8276,
      "Ġreaction": 8277,
      "ighed": 8278,
      "Ġreaching": 8279,
      "Ġachieve": 8280,
      "coh": 8281,
      "ĠNik": 8282,
      "ĠLeg": 8283,
      "Ġpressed": 8284,
      ",I": 8285,
      "ĠIce": 8286,
      "ĠFC": 8287,
      "inkle": 8288,
      "Ġens": 8289,
      "Ġwishes": 8290,
      "ĠInstead": 8291,
      "igging": 8292,
      "ĠPatsy": 8293,
      "Ġpotato": 8294,
      "ĠMadam": 8295,
      "Ġstup": 8296,
      "Ġvast": 8297,
      "Ġprincipal": 8298,
      "Ġaffairs": 8299,
      "eling": 8300,
      "Ġchew": 8301,
      "Ġimportance": 8302,
      "itched": 8303,
      "ĠMill": 8304,
      "onsieur": 8305,
      "ĠAli": 8306,
      "Ġsurvive": 8307,
      "Ġoy": 8308,
      "Ġreferred": 8309,
      "ĠMas": 8310,
      "ĠAbs": 8311,
      "Ġstarring": 8312,
      "Ġrepresented": 8313,
      "-se": 8314,
      "zing": 8315,
      "zes": 8316,
      "owa": 8317,
      "rett": 8318,
      "Ġfigured": 8319,
      "Ġpup": 8320,
      "ĠBible": 8321,
      "Ġanger": 8322,
      "Ġremaining": 8323,
      "Ġfinancial": 8324,
      "Ġwanting": 8325,
      "Ġfuneral": 8326,
      "Ġmurdered": 8327,
      "ova": 8328,
      "Ġbord": 8329,
      "ĠDra": 8330,
      "HL": 8331,
      "oir": 8332,
      "Ã´": 8333,
      "inging": 8334,
      "imately": 8335,
      "ĠMichigan": 8336,
      "ef": 8337,
      "ele": 8338,
      "Ġelephants": 8339,
      "Ġfeeding": 8340,
      "Ġtournament": 8341,
      "ĠBomba": 8342,
      "-off": 8343,
      "rob": 8344,
      "Ġsale": 8345,
      "Ġestate": 8346,
      "Thank": 8347,
      "Ġward": 8348,
      "orial": 8349,
      "ĠChap": 8350,
      "Ġcommitted": 8351,
      "ratulations": 8352,
      "ĠSat": 8353,
      "Ġcrab": 8354,
      "Ġstrawberries": 8355,
      "ĠRaymond": 8356,
      "Ġchampion": 8357,
      "porary": 8358,
      "Ġpersu": 8359,
      "Ġhut": 8360,
      "ĠTour": 8361,
      "Ġexact": 8362,
      "ĠNathan": 8363,
      "Ġoink": 8364,
      "estic": 8365,
      "Ġchip": 8366,
      "On": 8367,
      "rated": 8368,
      "Ġillness": 8369,
      "Ġpitched": 8370,
      "Ġfocus": 8371,
      "Ġexchange": 8372,
      "Ġcontest": 8373,
      "Ġartists": 8374,
      "Ġinsurance": 8375,
      "Ġpiggy": 8376,
      "ĠInc": 8377,
      "Ġgrateful": 8378,
      "LES": 8379,
      "agement": 8380,
      "Ġcarrot": 8381,
      "ĠPennsylvania": 8382,
      "Ġmeters": 8383,
      "Ġconcert": 8384,
      "Ġdining": 8385,
      "ĠManchester": 8386,
      "ĠJord": 8387,
      "Ġseparated": 8388,
      "Ġhid": 8389,
      "ĠGray": 8390,
      "Ġtickets": 8391,
      "Ġviolence": 8392,
      "ĠPil": 8393,
      "Ġalongside": 8394,
      "Ġbasis": 8395,
      "ĠLewis": 8396,
      "ĠFel": 8397,
      "ĠKenn": 8398,
      "Ġapproaching": 8399,
      "rah": 8400,
      "Ġlob": 8401,
      "--_": 8402,
      "Ġvariety": 8403,
      "mony": 8404,
      "Ġeth": 8405,
      "Ġattended": 8406,
      "Ġprimary": 8407,
      "Ġthirsty": 8408,
      "'LL": 8409,
      "ĠJUST": 8410,
      "--\"Ċ": 8411,
      "Ġretreat": 8412,
      "ebra": 8413,
      "ĠSydney": 8414,
      "TA": 8415,
      "Ġbetray": 8416,
      "Ġdistingu": 8417,
      "pron": 8418,
      "Ġdrawer": 8419,
      "ĠKevin": 8420,
      "wide": 8421,
      "Ġgri": 8422,
      "Ġpartly": 8423,
      "ĠMoo": 8424,
      "Ġconcl": 8425,
      "Ġresident": 8426,
      "ĠSpider": 8427,
      "agged": 8428,
      "ĠLincoln": 8429,
      "Ġumbrella": 8430,
      "works": 8431,
      "Ġeconomy": 8432,
      "Ġdirt": 8433,
      "Ġsixth": 8434,
      "ĠHeaven": 8435,
      "Ġcarbon": 8436,
      "Ġtriangle": 8437,
      "ĠBrazilian": 8438,
      "Ġcommercial": 8439,
      "Ġloyal": 8440,
      "urches": 8441,
      "Ġvacation": 8442,
      "isp": 8443,
      "Ġlt": 8444,
      "ĠFollow": 8445,
      "Ġsubst": 8446,
      "ĠSpani": 8447,
      "Ġagreement": 8448,
      "verse": 8449,
      "Ġcounting": 8450,
      "ĠGermans": 8451,
      "Yeah": 8452,
      "eting": 8453,
      "Ġsciss": 8454,
      "Ġnearby": 8455,
      "ĠHonor": 8456,
      "Ġpartners": 8457,
      "Ġgrowth": 8458,
      "Ġinnit": 8459,
      "ĠScottish": 8460,
      "Ġpregnant": 8461,
      "Ġsurgery": 8462,
      "-one": 8463,
      "Ġinsect": 8464,
      "ĠWild": 8465,
      "Ġarrive": 8466,
      "Ġdisappointed": 8467,
      "Ġugly": 8468,
      "aughters": 8469,
      "ertainly": 8470,
      "Ġsticky": 8471,
      "Ġdinosaurs": 8472,
      "pre": 8473,
      "ught": 8474,
      "ĠMinn": 8475,
      "Ġplot": 8476,
      "inem": 8477,
      "had": 8478,
      "ĠTHERE": 8479,
      "Ġnuts": 8480,
      "Ġhorror": 8481,
      "Ġmathemat": 8482,
      "Ġmidnight": 8483,
      "Ġ(,": 8484,
      "onscious": 8485,
      "Ġrubber": 8486,
      "leton": 8487,
      "Ġscript": 8488,
      "Ġconflict": 8489,
      "ext": 8490,
      "gro": 8491,
      "Ġsym": 8492,
      "Ġrocket": 8493,
      "ĠBroad": 8494,
      "Ġdesperate": 8495,
      "lets": 8496,
      "Ġimpl": 8497,
      "ĠDavis": 8498,
      "ĠBetter": 8499,
      "Ġproducts": 8500,
      "Ġgym": 8501,
      "Ġsquad": 8502,
      "Ġdressing": 8503,
      "ĠAnthony": 8504,
      "Ġtoe": 8505,
      "Ġnoted": 8506,
      "ĠSociety": 8507,
      "Ġdefeat": 8508,
      "Wh": 8509,
      "aman": 8510,
      "Ġatmosp": 8511,
      "who": 8512,
      "Ġlevels": 8513,
      "Ġwhale": 8514,
      "OP": 8515,
      "ĠTal": 8516,
      "ĠSara": 8517,
      "Ġchimney": 8518,
      "ĠLad": 8519,
      "ublic": 8520,
      "Ġpirate": 8521,
      "Ġdraws": 8522,
      "Ġyeh": 8523,
      "ĠLoire": 8524,
      "ĠBruce": 8525,
      "bar": 8526,
      "ĠLwww": 8527,
      "upon": 8528,
      "ĠRecords": 8529,
      "erg": 8530,
      "ĠVin": 8531,
      "Ġthrone": 8532,
      "Ġgal": 8533,
      "orted": 8534,
      "Ġtribe": 8535,
      "ĠDallas": 8536,
      "Ġmunicipal": 8537,
      "Ġnowhere": 8538,
      "ĠJoey": 8539,
      "Ġscientists": 8540,
      "cur": 8541,
      "ĠDiana": 8542,
      "'...Ċ": 8543,
      "Ġdomin": 8544,
      "Ġcloses": 8545,
      "ĠMean": 8546,
      "Ġrefers": 8547,
      "ĠLabour": 8548,
      "Ġmal": 8549,
      "ĠPope": 8550,
      "ĠEver": 8551,
      "agle": 8552,
      "Ġblows": 8553,
      "intend": 8554,
      "Ġclosing": 8555,
      "Ġnaturally": 8556,
      "Ġvessels": 8557,
      "Ã³n": 8558,
      "Ġsenior": 8559,
      "Ġprograms": 8560,
      "ĠMs": 8561,
      "ĠUP": 8562,
      "ĠGrandad": 8563,
      "gment": 8564,
      "Ġ!": 8565,
      "Ġcompar": 8566,
      "ĠGrant": 8567,
      "inity": 8568,
      "Ġapproached": 8569,
      "Ġprepare": 8570,
      "ĠVictoria": 8571,
      "ĠFilm": 8572,
      "inea": 8573,
      "Ġchart": 8574,
      "Ġservants": 8575,
      "Ġattacks": 8576,
      "Ġfasc": 8577,
      "Ġhal": 8578,
      "places": 8579,
      "Ġcapable": 8580,
      "Ġconfident": 8581,
      "Ġnodded": 8582,
      "onge": 8583,
      "Ġlimited": 8584,
      "Ġobliged": 8585,
      "Ġlung": 8586,
      "Ġpoll": 8587,
      "ĠGraeme": 8588,
      "zer": 8589,
      "Ġbelly": 8590,
      "Ġreign": 8591,
      "angar": 8592,
      "Ġelements": 8593,
      "idays": 8594,
      "ĠWinnie": 8595,
      "Ġwilln": 8596,
      "ulture": 8597,
      "Ġinsp": 8598,
      "Ġloads": 8599,
      "ĠEnter": 8600,
      "continues": 8601,
      "INE": 8602,
      "Ġopera": 8603,
      "ĠPoland": 8604,
      "Ġnuclear": 8605,
      "Ġoccas": 8606,
      "Ġcigaret": 8607,
      "sname": 8608,
      "ĠRich": 8609,
      "apers": 8610,
      "Ġvirt": 8611,
      "Ġdeeply": 8612,
      "Ġdreadful": 8613,
      "ĠMind": 8614,
      "olves": 8615,
      "Ġlabor": 8616,
      "ĠâĢĶâĢĶ": 8617,
      "ĠHol": 8618,
      "raine": 8619,
      "Ġcub": 8620,
      "Ġdea": 8621,
      "ĠBuck": 8622,
      "Ġstable": 8623,
      "ĠSergeant": 8624,
      "Ġpumpkin": 8625,
      "pool": 8626,
      "ANN": 8627,
      "Ġnearest": 8628,
      "Ġcommission": 8629,
      "Ġscheme": 8630,
      "Ġshy": 8631,
      "Ġnecklace": 8632,
      "-hand": 8633,
      "ygen": 8634,
      "ĠKa": 8635,
      "ĠKelly": 8636,
      "Ġsuspic": 8637,
      "habet": 8638,
      "ĠSis": 8639,
      "ĠGranddad": 8640,
      "Ġscientific": 8641,
      "iga": 8642,
      "Ġsticking": 8643,
      "Ġtouches": 8644,
      "ĠSab": 8645,
      "ĠOsc": 8646,
      "Ġaccompan": 8647,
      "Ġargument": 8648,
      "GAI": 8649,
      "some": 8650,
      "Ġtool": 8651,
      "obal": 8652,
      "ĠZe": 8653,
      "Ġfeathers": 8654,
      "ĠDu": 8655,
      "ĠKay": 8656,
      "pson": 8657,
      "Ġcarrots": 8658,
      "ĠFrances": 8659,
      "lessly": 8660,
      "UL": 8661,
      "âĢĺ": 8662,
      "ceived": 8663,
      "Ġchrist": 8664,
      "Ġstrict": 8665,
      "Ġtouching": 8666,
      "Ġpattern": 8667,
      "Ġsought": 8668,
      "ĠBeth": 8669,
      "inda": 8670,
      "long": 8671,
      "ĠWr": 8672,
      "ĠWon": 8673,
      "Ġwhisper": 8674,
      "ĠMorning": 8675,
      "ĠCivil": 8676,
      "Ġcanton": 8677,
      "Ġpole": 8678,
      "Ġbaba": 8679,
      "Ġactivities": 8680,
      "di": 8681,
      "Ġprior": 8682,
      "Ġpatients": 8683,
      "Ġvaluable": 8684,
      "Your": 8685,
      "Ġgard": 8686,
      "ĠSE": 8687,
      "ĠBank": 8688,
      "ĠCOM": 8689,
      "Ġtremb": 8690,
      "SH": 8691,
      "cow": 8692,
      "mel": 8693,
      "Ġwherever": 8694,
      "Ġpeep": 8695,
      "peech": 8696,
      "ĠHug": 8697,
      "Ġvain": 8698,
      "Ġdiscovery": 8699,
      "Ġlaunched": 8700,
      "vocalization": 8701,
      "adu": 8702,
      "Ġstated": 8703,
      "ĠIntern": 8704,
      "Ġimit": 8705,
      "ĠWend": 8706,
      "pent": 8707,
      "itter": 8708,
      "ĠFriend": 8709,
      "ĠUt": 8710,
      "Ġlover": 8711,
      "Ġashore": 8712,
      "iven": 8713,
      "ĠRaj": 8714,
      "Ġchamber": 8715,
      "Ġminds": 8716,
      "IKE": 8717,
      "Ġhired": 8718,
      "ĠHans": 8719,
      "Ġmamma": 8720,
      "Ġmister": 8721,
      "ĠSid": 8722,
      "ĠRus": 8723,
      "olph": 8724,
      "asses": 8725,
      "Ġgeneration": 8726,
      "Ġprompt": 8727,
      "Ġtemple": 8728,
      "ĠChildsname": 8729,
      "ĠFinally": 8730,
      "AKE": 8731,
      "ĠKong": 8732,
      "Ġkeen": 8733,
      "Ġmayor": 8734,
      "Ġsneak": 8735,
      "Ġlaunch": 8736,
      "Ġcone": 8737,
      "ĠSnow": 8738,
      "Ġconsist": 8739,
      "uddenly": 8740,
      "ĠCheck": 8741,
      "ĠTokyo": 8742,
      "Ã§": 8743,
      "Ġdull": 8744,
      "Ġilleg": 8745,
      "Ġarrival": 8746,
      "Ġtune": 8747,
      "Ġrit": 8748,
      "ĠAss": 8749,
      "ĠEarl": 8750,
      "Ġsecretary": 8751,
      "OOD": 8752,
      "TS": 8753,
      "Ġding": 8754,
      "ĠMain": 8755,
      "ĠPower": 8756,
      "IND": 8757,
      "Ġcharged": 8758,
      "Ġspending": 8759,
      "Ġhousehold": 8760,
      "teacher": 8761,
      "Ġnumerous": 8762,
      "Ġstays": 8763,
      "Ġstretched": 8764,
      "ccer": 8765,
      "olley": 8766,
      "Ġstudying": 8767,
      "unks": 8768,
      "Ġglanced": 8769,
      "angers": 8770,
      "Ġzebra": 8771,
      "Ġruled": 8772,
      "ĠTaylor": 8773,
      "haw": 8774,
      "ĠCher": 8775,
      "Ġvoy": 8776,
      "ĠFamily": 8777,
      "Ġfuel": 8778,
      "Ġfederal": 8779,
      "Ġpanc": 8780,
      "Ġgum": 8781,
      "Ġrattle": 8782,
      "ĠNa": 8783,
      "ĠEduc": 8784,
      "ĠRevolution": 8785,
      "erted": 8786,
      "etic": 8787,
      "utation": 8788,
      "ĠSpring": 8789,
      "dog": 8790,
      "ĠHang": 8791,
      "Ġfilms": 8792,
      "Ġcotton": 8793,
      "sound": 8794,
      "inated": 8795,
      "Ġwo": 8796,
      "ĠScient": 8797,
      "Ġregions": 8798,
      "ĠDoesn": 8799,
      "ĠKorean": 8800,
      "Ġbid": 8801,
      "Ġcou": 8802,
      "&gt": 8803,
      "Ġdisci": 8804,
      "rm": 8805,
      "Ġmend": 8806,
      "Ġshots": 8807,
      "Ġcattle": 8808,
      "Ġsailing": 8809,
      "ormed": 8810,
      "ĠAllen": 8811,
      "ĠForget": 8812,
      "Ġnort": 8813,
      "ĠPic": 8814,
      "Ġvig": 8815,
      "ĠKy": 8816,
      "Ġbelonged": 8817,
      "corn": 8818,
      "Ġmas": 8819,
      "ĠDora": 8820,
      "Ġslee": 8821,
      "give": 8822,
      "ags": 8823,
      "Ġdetective": 8824,
      "Ġinstrument": 8825,
      "Ġconvinced": 8826,
      "ĠNone": 8827,
      "ĠNorman": 8828,
      "Ġmultiple": 8829,
      "ĠBav": 8830,
      "Ġvegetables": 8831,
      "ĠLeslie": 8832,
      "Ġfare": 8833,
      "anes": 8834,
      "ĠSav": 8835,
      "ĠIndeed": 8836,
      "Ġawait": 8837,
      "iscilla": 8838,
      "ĠEmily": 8839,
      "-house": 8840,
      "cription": 8841,
      "akin": 8842,
      "Ġsnack": 8843,
      "Ġcooked": 8844,
      "ĠLawrence": 8845,
      "Ġtomato": 8846,
      "Ġflow": 8847,
      "ĠForce": 8848,
      "Ġbreathe": 8849,
      "Ġadventures": 8850,
      "Ġvision": 8851,
      "ĠCommission": 8852,
      "HER": 8853,
      "mate": 8854,
      "Ġcriminal": 8855,
      "ĠEngine": 8856,
      "ĠRol": 8857,
      "Ġdistricts": 8858,
      "Ġbench": 8859,
      "ĠJordan": 8860,
      "otal": 8861,
      "vention": 8862,
      "Ġbanks": 8863,
      "Ġconference": 8864,
      "Ġprayer": 8865,
      "Ġexplanation": 8866,
      "ĠPret": 8867,
      "ĠThrough": 8868,
      "Ġdevice": 8869,
      "Ġtremend": 8870,
      "refers": 8871,
      "ĠHannah": 8872,
      "Ġalcoh": 8873,
      "Ġextent": 8874,
      "TLE": 8875,
      "gues": 8876,
      "omy": 8877,
      "ĠCas": 8878,
      "iley": 8879,
      "Ġmachines": 8880,
      "bly": 8881,
      "ettle": 8882,
      "ĠBC": 8883,
      "ĠJos": 8884,
      "Ġvisitors": 8885,
      "Ġgle": 8886,
      "Ġgimme": 8887,
      "iden": 8888,
      "Ġcleared": 8889,
      "Ġunhappy": 8890,
      "ĠSHE": 8891,
      "Ġnonsense": 8892,
      "Ġhoo": 8893,
      "INK": 8894,
      "inners": 8895,
      "ĠCastle": 8896,
      "force": 8897,
      "Ġbicycle": 8898,
      "ĠFree": 8899,
      "Ġintention": 8900,
      "Ġloft": 8901,
      "ĠEmma": 8902,
      "ĠEaster": 8903,
      "ption": 8904,
      "Ġbottles": 8905,
      "BO": 8906,
      "Ġcharges": 8907,
      "Ġmadam": 8908,
      "lemn": 8909,
      "Ġrecommend": 8910,
      "nor": 8911,
      "ĠEN": 8912,
      "Ġwinds": 8913,
      "whines": 8914,
      "Ġvillages": 8915,
      "Ġalbums": 8916,
      "bage": 8917,
      "Ġpunishment": 8918,
      "wick": 8919,
      "ĠOt": 8920,
      "priate": 8921,
      "acious": 8922,
      "Ġskill": 8923,
      "Ġanimated": 8924,
      "ika": 8925,
      "Ġmistress": 8926,
      "Ġscissors": 8927,
      "lap": 8928,
      "break": 8929,
      "Ġshortly": 8930,
      "chestra": 8931,
      "/T": 8932,
      "ĠRub": 8933,
      "Ġven": 8934,
      "Ġchances": 8935,
      "Ġcycl": 8936,
      "\"),": 8937,
      "Ġaah": 8938,
      "ĠRO": 8939,
      "Ġcharming": 8940,
      "ĠMayor": 8941,
      "Ġpackage": 8942,
      "Ġseal": 8943,
      "Ġintense": 8944,
      "Ġbuff": 8945,
      "Ġsailed": 8946,
      "Ġdepth": 8947,
      "Ġparish": 8948,
      "Ġemot": 8949,
      "Ġridic": 8950,
      "Ġadopted": 8951,
      "moves": 8952,
      "Ġweb": 8953,
      "ĠStart": 8954,
      "Ġaffection": 8955,
      "Ġestim": 8956,
      "ĠMun": 8957,
      "Ġpropos": 8958,
      "Ġcomposed": 8959,
      "Ġlawn": 8960,
      "Ġrabbits": 8961,
      "Ġinquired": 8962,
      "Â°": 8963,
      "arson": 8964,
      "yard": 8965,
      "anges": 8966,
      "ĠPriscilla": 8967,
      "Ġpossess": 8968,
      "ĠKenneth": 8969,
      "lings": 8970,
      "Ġfetch": 8971,
      "Ġshared": 8972,
      "pected": 8973,
      "Ġpacked": 8974,
      "Ġpapa": 8975,
      "Ġthumb": 8976,
      "ĠLi": 8977,
      "Ġperman": 8978,
      "Ġdaughters": 8979,
      "Ġjer": 8980,
      "Ġjungle": 8981,
      "mes": 8982,
      "ĠDie": 8983,
      "Ġprime": 8984,
      "ysis": 8985,
      "Ġenjoying": 8986,
      "Ġportion": 8987,
      "Ġsandwiches": 8988,
      "Ġgenus": 8989,
      "Ġaeropl": 8990,
      "bors": 8991,
      "Ġwicked": 8992,
      "Ġcops": 8993,
      "Ġmuff": 8994,
      "ĠSuddenly": 8995,
      "Ġsatisfaction": 8996,
      "inking": 8997,
      "Ġzero": 8998,
      "ĠPa": 8999,
      "Ġprospect": 9000,
      "ĠNumber": 9001,
      "Ġfled": 9002,
      "Ġflies": 9003,
      "Ġcommit": 9004,
      "ĠChampionships": 9005,
      "Ġceremony": 9006,
      "Ġbeef": 9007,
      "Ġtack": 9008,
      "Ġbore": 9009,
      "esome": 9010,
      "ĠNE": 9011,
      "ĠAssembly": 9012,
      "onic": 9013,
      "Ġfires": 9014,
      "ĠFind": 9015,
      "ĠSpot": 9016,
      "Ġphoto": 9017,
      "Ġinterrupted": 9018,
      "Ġhed": 9019,
      "ĠHERE": 9020,
      "ipes": 9021,
      "ĠDeath": 9022,
      "ippi": 9023,
      "Ġdried": 9024,
      "____": 9025,
      "mun": 9026,
      "ĠSax": 9027,
      "ĠPoint": 9028,
      "Ġnesting": 9029,
      "ranscribed": 9030,
      "tries": 9031,
      "ĠHoward": 9032,
      "acity": 9033,
      "ĠWolf": 9034,
      "ĠTrust": 9035,
      "Ġtroubles": 9036,
      "Ġtide": 9037,
      "Ġbob": 9038,
      "Ġrepeat": 9039,
      "Ġintroduce": 9040,
      "rative": 9041,
      "Ġpist": 9042,
      "arn": 9043,
      "Ġfridge": 9044,
      "Ġimpress": 9045,
      "Ġexpert": 9046,
      "ĠQuick": 9047,
      "iat": 9048,
      "rily": 9049,
      "thened": 9050,
      "Ġnatives": 9051,
      "ogue": 9052,
      "Ġsurre": 9053,
      "stitution": 9054,
      "uled": 9055,
      "Ġengineer": 9056,
      "Ġstupid": 9057,
      "ĠRal": 9058,
      "ĠArm": 9059,
      "attered": 9060,
      "ĠJosh": 9061,
      "Ġbeating": 9062,
      "ĠCatherine": 9063,
      "Ġexpedition": 9064,
      "rings": 9065,
      "ĠSeth": 9066,
      "ĠClar": 9067,
      "ĠBoys": 9068,
      "Ġsumm": 9069,
      "Ġlimit": 9070,
      "Ġscreaming": 9071,
      "ĠConfeder": 9072,
      "Bl": 9073,
      "Ġmike": 9074,
      "Ġchurches": 9075,
      "Ġslice": 9076,
      "ĠChildren": 9077,
      "Ġresponded": 9078,
      "ĠAdd": 9079,
      "urger": 9080,
      "grim": 9081,
      "Ġbatteries": 9082,
      "helle": 9083,
      "UD": 9084,
      "iable": 9085,
      "Ġsolemn": 9086,
      "ĠRand": 9087,
      "Ġgorgeous": 9088,
      "ĠCut": 9089,
      "Ġshove": 9090,
      "Ġsignificant": 9091,
      "ĠAy": 9092,
      "ĠAmanda": 9093,
      "Ġturkey": 9094,
      "Ġsout": 9095,
      "ĠLyn": 9096,
      "Ġlabel": 9097,
      "Ġattempts": 9098,
      "Ġere": 9099,
      "ĠJulie": 9100,
      "ĠHalf": 9101,
      "ĠPardon": 9102,
      "ĠOhio": 9103,
      "ĠGeoff": 9104,
      "Ġthreatened": 9105,
      "Ġnegative": 9106,
      "JW": 9107,
      "One": 9108,
      "Ġdies": 9109,
      "ĠAud": 9110,
      "ĠJa": 9111,
      "ĠVe": 9112,
      "-known": 9113,
      "ĠCind": 9114,
      "Ġaspect": 9115,
      "ĠNavy": 9116,
      "Ġfriendship": 9117,
      "bi": 9118,
      "ĠEdna": 9119,
      "Ġconstant": 9120,
      "Ġok": 9121,
      "ĠWrest": 9122,
      "Ġjury": 9123,
      "ĠJay": 9124,
      "ĠVill": 9125,
      "Ġdevil": 9126,
      "Ġanxiety": 9127,
      "UCK": 9128,
      "pher": 9129,
      "stal": 9130,
      "Ġwhilst": 9131,
      "ĠGram": 9132,
      "ĠGeography": 9133,
      "culiar": 9134,
      ".âĢĻĊ": 9135,
      "vior": 9136,
      "ĠSweet": 9137,
      "ĠMAR": 9138,
      "Ġstress": 9139,
      "Ġstatus": 9140,
      "sk": 9141,
      "ĠWonder": 9142,
      "Ġterribly": 9143,
      "oked": 9144,
      "Ġfeast": 9145,
      "Ġglue": 9146,
      "Ġsweets": 9147,
      "Ġstaring": 9148,
      "Ġthoroughly": 9149,
      "ĠFound": 9150,
      "oria": 9151,
      "eness": 9152,
      "Ġclay": 9153,
      "ĠMississ": 9154,
      "arant": 9155,
      "ainted": 9156,
      "abor": 9157,
      "Ġunivers": 9158,
      "Ġundert": 9159,
      "Ġstead": 9160,
      "ĠPu": 9161,
      "Ġlasted": 9162,
      "Ġcopies": 9163,
      "Ġaffected": 9164,
      "Ġpeak": 9165,
      "Ġpeculiar": 9166,
      "ĠNews": 9167,
      "whispering": 9168,
      "Ġseventeen": 9169,
      "Ġunex": 9170,
      "Ġsqueeze": 9171,
      "Ġalphabet": 9172,
      "ĠHart": 9173,
      "uma": 9174,
      "Ġloving": 9175,
      "âĨ": 9176,
      "Un": 9177,
      "isation": 9178,
      "ĠSin": 9179,
      "Ġfeature": 9180,
      "Ġcatching": 9181,
      "Ġenorm": 9182,
      "ĠGuard": 9183,
      "TV": 9184,
      "ĠBA": 9185,
      "ĠLine": 9186,
      "ĠStra": 9187,
      "Ġsubs": 9188,
      "Ġkisses": 9189,
      "Ġmercy": 9190,
      "Ġacts": 9191,
      "Ġrecovered": 9192,
      "Ġattitude": 9193,
      "ĠJoan": 9194,
      "river": 9195,
      "Ġutterance": 9196,
      "Ġchallenge": 9197,
      "Ġkilomet": 9198,
      "Ġwaving": 9199,
      "icip": 9200,
      "ĠBir": 9201,
      "Ġconcept": 9202,
      "Ġbron": 9203,
      "Ġthrust": 9204,
      "Ġunw": 9205,
      "ĠZoe": 9206,
      "ifying": 9207,
      "Ġkidna": 9208,
      "Ġvolcan": 9209,
      "-American": 9210,
      "ĠHell": 9211,
      "Ġprovin": 9212,
      "Ġinvestigation": 9213,
      "ĠJen": 9214,
      "Ġspaces": 9215,
      "Ġvisible": 9216,
      "Ġatmosphere": 9217,
      "OUN": 9218,
      "ĠArkansas": 9219,
      "Ġholy": 9220,
      "ervative": 9221,
      "ĠRobinson": 9222,
      "Ġpossibility": 9223,
      "ront": 9224,
      "Ġaliens": 9225,
      "Ġgrade": 9226,
      "Ġhats": 9227,
      "Ġleads": 9228,
      "Ġexistence": 9229,
      "Ġliquid": 9230,
      "Ġinstructions": 9231,
      "ĠTenn": 9232,
      "ĠHir": 9233,
      "Ġprem": 9234,
      "ĠBarry": 9235,
      "ĠLarry": 9236,
      "ĠKhan": 9237,
      "Ġclaimed": 9238,
      "ĠAlab": 9239,
      "brush": 9240,
      "Ġbearing": 9241,
      "Ġorganized": 9242,
      "orney": 9243,
      "ooray": 9244,
      "GHS": 9245,
      "Ġcandle": 9246,
      "Ġpaused": 9247,
      "Cl": 9248,
      "ipt": 9249,
      "Ġcush": 9250,
      "Ġsufficient": 9251,
      "Ġdisg": 9252,
      "ĠMissus": 9253,
      "Ġsolution": 9254,
      "hetic": 9255,
      "Ġassociated": 9256,
[...]
