{
  "version": "1.0",
  "truncation": {
    "direction": "Right",
    "max_length": 256,
    "strategy": "LongestFirst",
    "stride": 0
  },
  "padding": {
    "strategy": {
      "Fixed": 256
    },
    "direction": "Right",
    "pad_to_multiple_of": null,
    "pad_id": 3,
    "pad_type_id": 0,
    "pad_token": "<pad>"
  },
  "added_tokens": [
    {
      "id": 0,
      "content": "<unk>",
      "single_word": false,
      "lstrip": false,
      "rstrip": false,
      "normalized": false,
      "special": true
    },
    {
      "id": 1,
      "content": "<s>",
      "single_word": false,
      "lstrip": false,
      "rstrip": false,
      "normalized": false,
      "special": true
    },
    {
      "id": 2,
      "content": "</s>",
      "single_word": false,
      "lstrip": false,
      "rstrip": false,
      "normalized": false,
      "special": true
    },
    {
      "id": 3,
      "content": "<pad>",
      "single_word": false,
      "lstrip": false,
      "rstrip": false,
      "normalized": false,
      "special": true
    },
    {
      "id": 4,
      "content": "<mask>",
      "single_word": false,
      "lstrip": false,
      "rstrip": false,
      "normalized": false,
      "special": true
    }
  ],
  "normalizer": {
    "type": "Sequence",
    "normalizers": [
      {
        "type": "Prepend",
        "prepend": " "
      },
      {
        "type": "NFKC"
      },
      {
        "type": "Replace",
        "pattern": {
          "Regex": "\\n"
        },
        "content": "\n "
      },
      {
        "type": "Replace",
        "pattern": {
          "Regex": " *\\n"
        },
        "content": "\n"
      }
    ]
  },
  "pre_tokenizer": {
    "type": "Sequence",
    "pretokenizers": [
      {
        "type": "Split",
        "pattern": {
          "Regex": "[^\\r\\n\\p{L}\\p{N}]?[\\p{Lu}\\p{Lt}\\p{Lm}\\p{Lo}\\p{M}]*[\\p{Ll}\\p{Lm}\\p{Lo}\\p{M}]+|[^\\r\\n\\p{L}\\p{N}]?[\\p{Lu}\\p{Lt}\\p{Lm}\\p{Lo}\\p{M}]+[\\p{Ll}\\p{Lm}\\p{Lo}\\p{M}]*|\\p{N}| ?[^\\s\\p{L}\\p{N}]+[\\r\\n/]*|\\s*[\\r\\n]+|\\s+(?!\\S)|\\s+"
        },
        "behavior": "Isolated",
        "invert": false
      },
      {
        "type": "ByteLevel",
        "add_prefix_space": false,
        "trim_offsets": true,
        "use_regex": false
      },
      {
        "type": "Split",
        "pattern": {
          "Regex": ".{1,24}"
        },
        "behavior": "Isolated",
        "invert": false
      }
    ]
  },
  "post_processor": {
    "type": "TemplateProcessing",
    "single": [
      {
        "SpecialToken": {
          "id": "<s>",
          "type_id": 0
        }
      },
      {
        "Sequence": {
          "id": "A",
          "type_id": 0
        }
      },
      {
        "SpecialToken": {
          "id": "</s>",
          "type_id": 0
        }
      }
    ],
    "pair": [
      {
        "SpecialToken": {
          "id": "<s>",
          "type_id": 0
        }
      },
      {
        "Sequence": {
          "id": "A",
          "type_id": 0
        }
      },
      {
        "SpecialToken": {
          "id": "</s>",
          "type_id": 0
        }
      },
      {
        "SpecialToken": {
          "id": "<s>",
          "type_id": 0
        }
      },
      {
        "Sequence": {
          "id": "B",
          "type_id": 0
        }
      },
      {
        "SpecialToken": {
          "id": "</s>",
          "type_id": 0
        }
      }
    ],
    "special_tokens": {
      "</s>": {
        "id": "</s>",
        "ids": [
          2
        ],
        "tokens": [
          "</s>"
        ]
      },
      "<s>": {
        "id": "<s>",
        "ids": [
          1
        ],
        "tokens": [
          "<s>"
        ]
      }
    }
  },
  "decoder": {
    "type": "Sequence",
    "decoders": [
      {
        "type": "ByteLevel",
        "add_prefix_space": true,
        "trim_offsets": true,
        "use_regex": true
      },
      {
        "type": "Strip",
        "content": " ",
        "start": 1,
        "stop": 0
      },
      {
        "type": "Replace",
        "pattern": {
          "String": "\n "
        },
        "content": "\n"
      }
    ]
  },
  "model": {
    "type": "BPE",
    "dropout": null,
    "unk_token": "<unk>",
    "continuing_subword_prefix": null,
    "end_of_word_suffix": null,
    "fuse_unk": false,
    "byte_fallback": false,
    "ignore_merges": false,
    "vocab": {
      "<unk>": 0,
      "<s>": 1,
      "</s>": 2,
      "<pad>": 3,
      "<mask>": 4,
      "!": 5,
      "\"": 6,
      "#": 7,
      "$": 8,
      "%": 9,
      "&": 10,
      "'": 11,
      "(": 12,
      ")": 13,
      "*": 14,
      "+": 15,
      ",": 16,
      "-": 17,
      ".": 18,
      "/": 19,
      "0": 20,
      "1": 21,
      "2": 22,
      "3": 23,
      "4": 24,
      "5": 25,
      "6": 26,
      "7": 27,
      "8": 28,
      "9": 29,
      ":": 30,
      ";": 31,
      "<": 32,
      "=": 33,
      ">": 34,
      "?": 35,
      "@": 36,
      "A": 37,
      "B": 38,
      "C": 39,
      "D": 40,
      "E": 41,
      "F": 42,
      "G": 43,
      "H": 44,
      "I": 45,
      "J": 46,
      "K": 47,
      "L": 48,
      "M": 49,
      "N": 50,
      "O": 51,
      "P": 52,
      "Q": 53,
      "R": 54,
      "S": 55,
      "T": 56,
      "U": 57,
      "V": 58,
      "W": 59,
      "X": 60,
      "Y": 61,
      "Z": 62,
      "[": 63,
      "\\": 64,
      "]": 65,
      "^": 66,
      "_": 67,
      "`": 68,
      "a": 69,
      "b": 70,
      "c": 71,
      "d": 72,
      "e": 73,
      "f": 74,
      "g": 75,
      "h": 76,
      "i": 77,
      "j": 78,
      "k": 79,
      "l": 80,
      "m": 81,
      "n": 82,
      "o": 83,
      "p": 84,
      "q": 85,
      "r": 86,
      "s": 87,
      "t": 88,
      "u": 89,
      "v": 90,
      "w": 91,
      "x": 92,
      "y": 93,
      "z": 94,
      "{": 95,
      "|": 96,
      "}": 97,
      "~": 98,
      "¡": 99,
      "¢": 100,
      "£": 101,
      "¤": 102,
      "¥": 103,
      "¦": 104,
      "§": 105,
      "¨": 106,
      "©": 107,
      "ª": 108,
      "«": 109,
      "¬": 110,
      "®": 111,
      "¯": 112,
      "°": 113,
      "±": 114,
      "²": 115,
      "³": 116,
      "´": 117,
      "µ": 118,
      "¶": 119,
      "·": 120,
      "¸": 121,
      "¹": 122,
      "º": 123,
      "»": 124,
      "¼": 125,
      "½": 126,
      "¾": 127,
      "¿": 128,
      "À": 129,
      "Á": 130,
      "Â": 131,
      "Ã": 132,
      "Ä": 133,
      "Å": 134,
      "Æ": 135,
      "Ç": 136,
      "È": 137,
      "É": 138,
      "Ê": 139,
      "Ë": 140,
      "Ì": 141,
      "Í": 142,
      "Î": 143,
      "Ï": 144,
      "Ð": 145,
      "Ñ": 146,
      "Ò": 147,
      "Ó": 148,
      "Ô": 149,
      "Õ": 150,
      "Ö": 151,
      "×": 152,
      "Ø": 153,
      "Ù": 154,
      "Ú": 155,
      "Û": 156,
      "Ü": 157,
      "Ý": 158,
      "Þ": 159,
      "ß": 160,
      "à": 161,
      "á": 162,
      "â": 163,
      "ã": 164,
      "ä": 165,
      "å": 166,
      "æ": 167,
      "ç": 168,
      "è": 169,
      "é": 170,
      "ê": 171,
      "ë": 172,
      "ì": 173,
      "í": 174,
      "î": 175,
      "ï": 176,
      "ð": 177,
      "ñ": 178,
      "ò": 179,
      "ó": 180,
      "ô": 181,
      "õ": 182,
      "ö": 183,
      "÷": 184,
      "ø": 185,
      "ù": 186,
      "ú": 187,
      "û": 188,
      "ü": 189,
      "ý": 190,
      "þ": 191,
      "ÿ": 192,
      "Ā": 193,
      "ā": 194,
      "Ă": 195,
      "ă": 196,
      "Ą": 197,
      "ą": 198,
      "Ć": 199,
      "ć": 200,
      "Ĉ": 201,
      "ĉ": 202,
      "Ċ": 203,
      "ċ": 204,
      "Č": 205,
      "č": 206,
      "Ď": 207,
      "ď": 208,
      "Đ": 209,
      "đ": 210,
      "Ē": 211,
      "ē": 212,
      "Ĕ": 213,
      "ĕ": 214,
      "Ė": 215,
      "ė": 216,
      "Ę": 217,
      "ę": 218,
      "Ě": 219,
      "ě": 220,
      "Ĝ": 221,
      "ĝ": 222,
      "Ğ": 223,
      "ğ": 224,
      "Ġ": 225,
      "ġ": 226,
      "Ģ": 227,
      "ģ": 228,
      "Ĥ": 229,
      "ĥ": 230,
      "Ħ": 231,
      "ħ": 232,
      "Ĩ": 233,
      "ĩ": 234,
      "Ī": 235,
      "ī": 236,
      "Ĭ": 237,
      "ĭ": 238,
      "Į": 239,
      "į": 240,
      "İ": 241,
      "ı": 242,
      "Ĳ": 243,
      "ĳ": 244,
      "Ĵ": 245,
      "ĵ": 246,
      "Ķ": 247,
      "ķ": 248,
      "ĸ": 249,
      "Ĺ": 250,
      "ĺ": 251,
      "Ļ": 252,
      "ļ": 253,
      "Ľ": 254,
      "ľ": 255,
      "Ŀ": 256,
      "ŀ": 257,
      "Ł": 258,
      "ł": 259,
      "Ń": 260,
      "Ġt": 261,
      "he": 262,
      "Ġa": 263,
      "in": 264,
      "Ġw": 265,
      "Ġthe": 266,
      "re": 267,
      "Ġs": 268,
      "ou": 269,
      "Ġ*": 270,
      "Ġo": 271,
      "ha": 272,
      "er": 273,
      "nd": 274,
      "Ġb": 275,
      "it": 276,
      "is": 277,
      "Ġc": 278,
      "Ġm": 279,
      "on": 280,
      "Ġd": 281,
      "Ġf": 282,
      "ing": 283,
      "Ġy": 284,
      "ĠI": 285,
      "Ġto": 286,
      "ed": 287,
      "ll": 288,
      "or": 289,
      "an": 290,
      "es": 291,
      "en": 292,
      "Ġp": 293,
      "Ġand": 294,
      "Ġyou": 295,
      "hat": 296,
      "Ġl": 297,
      "ar": 298,
      "HI": 299,
      "Ġg": 300,
      "Ġof": 301,
      "CHI": 302,
      "Ġin": 303,
      "at": 304,
      "Ġn": 305,
      "as": 306,
      "OT": 307,
      "MOT": 308,
      "om": 309,
      "Ġhe": 310,
      "Ġh": 311,
      "ow": 312,
      "le": 313,
      "ot": 314,
      "ic": 315,
      "Ġha": 316,
      "Ġit": 317,
      "'s": 318,
      "et": 319,
      "ve": 320,
      "ay": 321,
      "Ġon": 322,
      "Ġth": 323,
      "Ġthat": 324,
      "us": 325,
      "ĠT": 326,
      "id": 327,
      "gh": 328,
      "al": 329,
      "Ġbe": 330,
      "Ġe": 331,
      "Ġis": 332,
      "ĠS": 333,
      "ĠA": 334,
      "ld": 335,
      "Ġwas": 336,
      "ut": 337,
      "Ġwe": 338,
      "ĠM": 339,
      "Ġre": 340,
      "ac": 341,
      "im": 342,
      "ent": 343,
      "Ġ=": 344,
      "ver": 345,
      "ion": 346,
      "oo": 347,
      "ad": 348,
      "..": 349,
      "Ġfor": 350,
      "ke": 351,
      "ri": 352,
      "ir": 353,
      "Ġ[": 354,
      "ĠC": 355,
      "Ġst": 356,
      "ly": 357,
      "Ġu": 358,
      "'t": 359,
      "se": 360,
      "ĠW": 361,
      "am": 362,
      "ght": 363,
      "Ġdo": 364,
      "st": 365,
      "ro": 366,
      "ĠH": 367,
      "ĠB": 368,
      "ith": 369,
      "out": 370,
      "her": 371,
      "Ġk": 372,
      "Ġwh": 373,
      "Ġme": 374,
      "Ġwhat": 375,
      "Ġan": 376,
      "Ġwith": 377,
      "Ġ\"": 378,
      "ĠThe": 379,
      "ur": 380,
      "all": 381,
      "Ġse": 382,
      "Ġas": 383,
      "ome": 384,
      "ch": 385,
      "Ġat": 386,
      "ter": 387,
      "ea": 388,
      "Ġli": 389,
      "ce": 390,
      "ill": 391,
      "Ġthis": 392,
      "Ġgo": 393,
      "Ġnot": 394,
      "il": 395,
      "ould": 396,
      "ĠP": 397,
      "ĠD": 398,
      "Ġhave": 399,
      "ct": 400,
      "AT": 401,
      "ĠY": 402,
      "Ġare": 403,
      "xx": 404,
      "ĠN": 405,
      "FAT": 406,
      "ra": 407,
      "Ġkn": 408,
      "if": 409,
      "Ġno": 410,
      "un": 411,
      "Ġher": 412,
      "ust": 413,
      "Ġ-": 414,
      "ant": 415,
      "Ġone": 416,
      "Ġhis": 417,
      "Ġthey": 418,
      "ĠR": 419,
      "...": 420,
      "Ġwhe": 421,
      "ĠO": 422,
      "ore": 423,
      "op": 424,
      "Ġshe": 425,
      "ĠG": 426,
      "Ġso": 427,
      "Ġcan": 428,
      "ĠL": 429,
      "ĠF": 430,
      "Ġknow": 431,
      "rom": 432,
      "Ġne": 433,
      "ell": 434,
      "Ġup": 435,
      "ge": 436,
      "ĠE": 437,
      "Ġj": 438,
      "and": 439,
      "Ġmy": 440,
      "Ġde": 441,
      "Ġall": 442,
      "Ġdon": 443,
      "pp": 444,
      "um": 445,
      "ook": 446,
      "Ġthere": 447,
      "our": 448,
      "Ġsa": 449,
      "Ġhad": 450,
      "ie": 451,
      "ul": 452,
      "ation": 453,
      "ain": 454,
      "th": 455,
      "âĢ": 456,
      "ol": 457,
      "eah": 458,
      "Ġyour": 459,
      "Ġr": 460,
      "Ġbut": 461,
      "Ġal": 462,
      "ĠJ": 463,
      "Ġfrom": 464,
      "red": 465,
      "ry": 466,
      "Ġdid": 467,
      "art": 468,
      "ack": 469,
      "Ġlike": 470,
      "ood": 471,
      "ab": 472,
      "Ġsh": 473,
      "Ġab": 474,
      "ers": 475,
      "est": 476,
      "ig": 477,
      "Ġpl": 478,
      "Ġout": 479,
      "os": 480,
      "ake": 481,
      "Ġby": 482,
      "ight": 483,
      "ĠHe": 484,
      "ess": 485,
      "Ġhim": 486,
      "ĠIt": 487,
      "em": 488,
      "ist": 489,
      "han": 490,
      "el": 491,
      "Ġsu": 492,
      "very": 493,
      "Ġor": 494,
      "Ġwere": 495,
      "ound": 496,
      "qu": 497,
      "right": 498,
      "Ġget": 499,
      "ong": 500,
      "hi": 501,
      "res": 502,
      "'re": 503,
      "ink": 504,
      "Ġwho": 505,
      "nt": 506,
      "ame": 507,
      "'m": 508,
      "itt": 509,
      "ck": 510,
      "Ġcom": 511,
      "ive": 512,
      "one": 513,
      "Ġwor": 514,
      "ast": 515,
      "Ġyeah": 516,
      "ind": 517,
      "Ġsp": 518,
      "Ġv": 519,
      "na": 520,
      "ate": 521,
      "Ġcon": 522,
      "Ġsaid": 523,
      "use": 524,
      "Ġsome": 525,
      "Ġthem": 526,
      "ard": 527,
      "Ġhere": 528,
      "ĠYou": 529,
      "Ġabout": 530,
      "ber": 531,
      "Ġsee": 532,
      "xxx": 533,
      "Ġxxx": 534,
      "ally": 535,
      "Ġ(": 536,
      "ep": 537,
      "Ġex": 538,
      "own": 539,
      "ak": 540,
      "Ġjust": 541,
      "ear": 542,
      "fe": 543,
      "Ġwant": 544,
      "ice": 545,
      "ough": 546,
      "Ġtw": 547,
      "au": 548,
      "Ġwould": 549,
      "od": 550,
      "Ġlook": 551,
      "ap": 552,
      "other": 553,
      "Ġright": 554,
      "Ġwhen": 555,
      "Ġman": 556,
      "Ġthink": 557,
      "ich": 558,
      "ort": 559,
      "Ġif": 560,
      "ag": 561,
      "kay": 562,
      "Ġany": 563,
      "ime": 564,
      "Ġpro": 565,
      "ick": 566,
      "Ġnow": 567,
      "Ġoh": 568,
      "ĠK": 569,
      "Ġus": 570,
      "'ll": 571,
      "ide": 572,
      "hing": 573,
      "ine": 574,
      "ous": 575,
      "ity": 576,
      "Ġwill": 577,
      "ies": 578,
      "ther": 579,
      "].": 580,
      "ittle": 581,
      "Ġsay": 582,
      "Ġgot": 583,
      "ĠU": 584,
      "ven": 585,
      "Ġint": 586,
      "ost": 587,
      "ca": 588,
      "Ġlittle": 589,
      "AR": 590,
      "Ġar": 591,
      "Ġhow": 592,
      "IN": 593,
      "int": 594,
      "Ġthen": 595,
      "ĠAnd": 596,
      "Ġcl": 597,
      "Ġwhere": 598,
      "Ġtheir": 599,
      "Ġmore": 600,
      "Ġwhich": 601,
      "Ġtwo": 602,
      "Ġag": 603,
      "ite": 604,
      "Ġhas": 605,
      "Ġgood": 606,
      "Ġtoo": 607,
      "Ġpe": 608,
      "Ġbeen": 609,
      "Ġtime": 610,
      "way": 611,
      ".\"": 612,
      "ace": 613,
      "Ġokay": 614,
      "ment": 615,
      "ree": 616,
      "Ġcould": 617,
      "Ġback": 618,
      "ud": 619,
      "Ġput": 620,
      "reat": 621,
      "Ġro": 622,
      "lf": 623,
      "ure": 624,
      "Ġdown": 625,
      "ond": 626,
      "Ġover": 627,
      "ose": 628,
      "Ġ'": 629,
      "ish": 630,
      "--": 631,
      "Ġvery": 632,
      "MAR": 633,
      "Ġgoing": 634,
      "Ġother": 635,
      "Ġtr": 636,
      "end": 637,
      "ove": 638,
      "ian": 639,
      "Ġoff": 640,
      "cause": 641,
      "ĠSt": 642,
      "Ġbo": 643,
      "Ġbl": 644,
      "ĠIn": 645,
      "Ġaf": 646,
      "ĠâĢ": 647,
      "ase": 648,
      "hed": 649,
      "ft": 650,
      "ia": 651,
      "Ġle": 652,
      "Ġqu": 653,
      "ark": 654,
      "ople": 655,
      "alk": 656,
      "ings": 657,
      "Ġwell": 658,
      "augh": 659,
      "Ġfe": 660,
      "are": 661,
      "ved": 662,
      "ect": 663,
      "Ġcome": 664,
      "ĠWhat": 665,
      "ater": 666,
      "Ġlet": 667,
      "Ġthan": 668,
      "ue": 669,
      "ĠTh": 670,
      "ary": 671,
      "ci": 672,
      "orn": 673,
      "ĠShe": 674,
      "ty": 675,
      "age": 676,
      "omet": 677,
      "irst": 678,
      ",\"": 679,
      "Ġpeople": 680,
      "urn": 681,
      "Ġinto": 682,
      "ass": 683,
      "INV": 684,
      "Ġbr": 685,
      "ade": 686,
      "ĠWe": 687,
      "Ġen": 688,
      "Ġdis": 689,
      "onna": 690,
      "Ġplay": 691,
      "ount": 692,
      "Ġmake": 693,
      "ble": 694,
      "'ve": 695,
      "ving": 696,
      "ĠV": 697,
      "Ġco": 698,
      "ought": 699,
      "pl": 700,
      "Ġcall": 701,
      "pt": 702,
      "ord": 703,
      "Ġgonna": 704,
      "Ġwork": 705,
      "ire": 706,
      "iss": 707,
      "per": 708,
      "Ġway": 709,
      "Ġgr": 710,
      "Ġ%": 711,
      "Ġday": 712,
      "Ġfirst": 713,
      "Ġtell": 714,
      "Ġsomet": 715,
      "Ġer": 716,
      "Ġpart": 717,
      "Ġthr": 718,
      "ren": 719,
      "ĠBut": 720,
      "Ġdoes": 721,
      "ff": 722,
      "Ġagain": 723,
      "my": 724,
      "ans": 725,
      "RO": 726,
      "Ġun": 727,
      "ĠNo": 728,
      "laugh": 729,
      "mer": 730,
      "IS": 731,
      "ves": 732,
      "Ġafter": 733,
      "Ġtake": 734,
      "Ġpr": 735,
      "Ġhu": 736,
      "ated": 737,
      "so": 738,
      "wn": 739,
      "Ġam": 740,
      "ach": 741,
      "Ġyear": 742,
      "Ġbet": 743,
      "Ġwr": 744,
      "act": 745,
      "ub": 746,
      "ps": 747,
      "self": 748,
      "Ġevery": 749,
      "ys": 750,
      "ool": 751,
      "ather": 752,
      "ng": 753,
      "Ġbecause": 754,
      "Ġwhy": 755,
      "Ġfl": 756,
      "able": 757,
      "ran": 758,
      "ions": 759,
      "Ġonly": 760,
      "Ġpre": 761,
      "fore": 762,
      "ew": 763,
      "ress": 764,
      "og": 765,
      "les": 766,
      "Ġneed": 767,
      "iz": 768,
      "Ġgu": 769,
      "Ġour": 770,
      "cc": 771,
      "nder": 772,
      "uch": 773,
      "ouse": 774,
      "Ġte": 775,
      "ru": 776,
      "ĠSo": 777,
      "SIS": 778,
      "laughs": 779,
      "Ġthese": 780,
      "Ġshould": 781,
      "Ġmade": 782,
      "day": 783,
      "âĢĻ": 784,
      "Ġdidn": 785,
      "ock": 786,
      "Ġcomp": 787,
      "Ġhapp": 788,
      "Ġad": 789,
      "ull": 790,
      "hen": 791,
      "ile": 792,
      "Ġcha": 793,
      "Ġim": 794,
      "oss": 795,
      "Ġcar": 796,
      "Ġrem": 797,
      "Ġsomething": 798,
      "we": 799,
      "Ġch": 800,
      "oll": 801,
      "ory": 802,
      "pe": 803,
      "ne": 804,
      "ĠThat": 805,
      "Ġthrough": 806,
      "ied": 807,
      "Ġchi": 808,
      "Ġmuch": 809,
      "ict": 810,
      "ady": 811,
      "Ġlong": 812,
      "thing": 813,
      "ĠThey": 814,
      "BRO": 815,
      "ĠâĢľ": 816,
      "oc": 817,
      "Ġhand": 818,
      "ĠOh": 819,
      "Ġapp": 820,
      "Ġtalk": 821,
      "cl": 822,
      "Ġthree": 823,
      "Ġsha": 824,
      "av": 825,
      "ĠMr": 826,
      "Ġwan": 827,
      "ang": 828,
      "be": 829,
      "man": 830,
      "ence": 831,
      "Ġchild": 832,
      "Ġeat": 833,
      "ĠMom": 834,
      "hy": 835,
      "old": 836,
      "ĠUn": 837,
      "Ġsc": 838,
      "ix": 839,
      "add": 840,
      "Ġuh": 841,
      "Ġmean": 842,
      "Ġper": 843,
      "irl": 844,
      "Ġbig": 845,
      "ĠThis": 846,
      "ĠYeah": 847,
      "yes": 848,
      "zz": 849,
      "Ġbefore": 850,
      "Ġreally": 851,
      "ign": 852,
      "Ġyes": 853,
      "Ġalso": 854,
      "ting": 855,
      "ise": 856,
      "Ġunder": 857,
      "Ġcont": 858,
      "Ġmay": 859,
      "Ġsm": 860,
      "Ġbu": 861,
      "ĠChi": 862,
      "Ġwent": 863,
      "ody": 864,
      "Ġgreat": 865,
      "ip": 866,
      "ons": 867,
      "Ġnever": 868,
      "Ġmo": 869,
      "Ġold": 870,
      "up": 871,
      "ks": 872,
      "Ġstill": 873,
      "Ġke": 874,
      "ĠCh": 875,
      "Ġpo": 876,
      "Ġact": 877,
      "ors": 878,
      "Ġwanna": 879,
      "Ġeven": 880,
      "Ġnew": 881,
      "Ġhel": 882,
      "'d": 883,
      "Ġthose": 884,
      "Ġres": 885,
      "ful": 886,
      "iv": 887,
      "ates": 888,
      "Ġaway": 889,
      "Ġcame": 890,
      "Ġum": 891,
      "gg": 892,
      "land": 893,
      "Ġgirl": 894,
      "ĠWell": 895,
      "atch": 896,
      "ï¿": 897,
      "ens": 898,
      "Ġturn": 899,
      "ited": 900,
      "Ġhome": 901,
      "ward": 902,
      "ath": 903,
      "ical": 904,
      "Ġser": 905,
      "get": 906,
      "Ġask": 907,
      "ï¿½": 908,
      "ily": 909,
      "ance": 910,
      "Ġthought": 911,
      "Ġmany": 912,
      "uck": 913,
      "Ġanother": 914,
      "?\"": 915,
      "hes": 916,
      "ĠThere": 917,
      "UR": 918,
      "Ġlast": 919,
      "igh": 920,
      "Ġlea": 921,
      "Ġname": 922,
      "Ġthing": 923,
      "chool": 924,
      "Ġbook": 925,
      "ob": 926,
      "Ġstart": 927,
      "ried": 928,
      "Ġgive": 929,
      "Ġra": 930,
      "ious": 931,
      "Ġwa": 932,
      ".]": 933,
      "ened": 934,
      "Ġhouse": 935,
      "Ġmust": 936,
      "ember": 937,
      "Ġdoing": 938,
      "ĠMar": 939,
      "riend": 940,
      "Ġsl": 941,
      "ung": 942,
      "Ġrec": 943,
      "âĢĿ": 944,
      "Ġcr": 945,
      "Ġsec": 946,
      "ult": 947,
      "oth": 948,
      "Ġthings": 949,
      "Ġmother": 950,
      "ina": 951,
      "oy": 952,
      "ail": 953,
      "Ġhelp": 954,
      "als": 955,
      "aby": 956,
      "Ġfind": 957,
      "Ġbel": 958,
      "Ġtry": 959,
      "ert": 960,
      "Ġfour": 961,
      "xt": 962,
      "te": 963,
      "Ġhead": 964,
      "here": 965,
      "Ġyears": 966,
      "Ġcomm": 967,
      "ny": 968,
      "Ġown": 969,
      "Ġits": 970,
      "orm": 971,
      "Ġshow": 972,
      "Ġfound": 973,
      "vers": 974,
      "air": 975,
      "hm": 976,
      "lease": 977,
      "vel": 978,
      "ces": 979,
      "Ġdes": 980,
      "Ġnight": 981,
      "ild": 982,
      "side": 983,
      "ations": 984,
      "Ġcalled": 985,
      "Ġmost": 986,
      "ars": 987,
      "ah": 988,
      "ince": 989,
      "Ġchan": 990,
      "URS": 991,
      "oney": 992,
      "Ġsuch": 993,
      "Ġatt": 994,
      "Ġche": 995,
      "Ġkind": 996,
      "Ġwon": 997,
      "Ġend": 998,
      "Ġnum": 999,
      "aking": 1000,
      "rd": 1001,
      "Ġmom": 1002,
      "Ġhuh": 1003,
      "Ġused": 1004,
      "Ġread": 1005,
      "Ġel": 1006,
      "ĠAs": 1007,
      "Ġwhile": 1008,
      "Ġlove": 1009,
      "port": 1010,
      "Ġcount": 1011,
      "Ġfriend": 1012,
      "ident": 1013,
      "ĠHow": 1014,
      "Ġaround": 1015,
      "ĠAl": 1016,
      "Ġtra": 1017,
      "Ġwater": 1018,
      "akes": 1019,
      "aw": 1020,
      "Ġmin": 1021,
      "uc": 1022,
      "Ġop": 1023,
      "Ġpres": 1024,
      "ever": 1025,
      "ĠIs": 1026,
      "Ġboy": 1027,
      "ition": 1028,
      "body": 1029,
      "Ġbeing": 1030,
      "Ġschool": 1031,
      "Ġbetter": 1032,
      "ction": 1033,
      "ec": 1034,
      "ave": 1035,
      "Ġdif": 1036,
      "Ġplace": 1037,
      "ĠMommy": 1038,
      "Ġgl": 1039,
      "Ġfin": 1040,
      "ĠBr": 1041,
      "Ġdone": 1042,
      "Ġsupp": 1043,
      "Ġmight": 1044,
      "Ġsure": 1045,
      "Ġroom": 1046,
      "amp": 1047,
      "ually": 1048,
      "Ġfeel": 1049,
      "ĠIf": 1050,
      "Ġbec": 1051,
      "rent": 1052,
      "Ġcare": 1053,
      "ER": 1054,
      "ont": 1055,
      "meric": 1056,
      "Ġind": 1057,
      "Ġear": 1058,
      "oh": 1059,
      "ĠYes": 1060,
      "ĠBe": 1061,
      "ways": 1062,
      "led": 1063,
      "ning": 1064,
      "ere": 1065,
      "ute": 1066,
      "Ġfive": 1067,
      "Ġword": 1068,
      "Ġph": 1069,
      "mp": 1070,
      "Ġbeg": 1071,
      "vent": 1072,
      "Ġkeep": 1073,
      "Ġlife": 1074,
      "Ġsame": 1075,
      "Ġnext": 1076,
      "Ġset": 1077,
      "ream": 1078,
      "Ġbaby": 1079,
      "tern": 1080,
      "Ġele": 1081,
      "Ġelse": 1082,
      "Ġcour": 1083,
      "ĠAmeric": 1084,
      "Ġsil": 1085,
      "ott": 1086,
      "imes": 1087,
      "Ġfather": 1088,
      "ial": 1089,
      "ĠAn": 1090,
      "ished": 1091,
      "Ġanything": 1092,
      "ĠMark": 1093,
      "Ġmon": 1094,
      "Ġmen": 1095,
      "ump": 1096,
      "Ġtold": 1097,
      "Ġmhm": 1098,
      "ug": 1099,
      "Ġsw": 1100,
      "ee": 1101,
      "ts": 1102,
      "row": 1103,
      "ird": 1104,
      "Ġwait": 1105,
      "ational": 1106,
      "ros": 1107,
      "Ġlot": 1108,
      "Ġsing": 1109,
      "ins": 1110,
      "ĠAll": 1111,
      "li": 1112,
      "uh": 1113,
      "Ġnumber": 1114,
      "Ġever": 1115,
      "oot": 1116,
      "ĠDo": 1117,
      "Ġpie": 1118,
      "outh": 1119,
      "Ġac": 1120,
      "Ġbre": 1121,
      "Ġob": 1122,
      "uring": 1123,
      "Ġnice": 1124,
      "ms": 1125,
      "Ġacc": 1126,
      "Ġtook": 1127,
      "Ġpol": 1128,
      "Ġfam": 1129,
      "Ġ.": 1130,
      "mber": 1131,
      "Ġalways": 1132,
      "Ġpret": 1133,
      "Ġuse": 1134,
      "Ġdoesn": 1135,
      "Ġwom": 1136,
      "Ġsaw": 1137,
      "ower": 1138,
      "ĠOn": 1139,
      "Ġmag": 1140,
      "ling": 1141,
      "Ġstop": 1142,
      "Ġdr": 1143,
      "gr": 1144,
      "Ġcle": 1145,
      "ween": 1146,
      "Ġunt": 1147,
      "Ġworld": 1148,
      "orry": 1149,
      "Ġsix": 1150,
      "Ġbus": 1151,
      "Ġfar": 1152,
      "Ġsit": 1153,
      "Ġret": 1154,
      "Ġrun": 1155,
      "Ġleft": 1156,
      "ters": 1157,
      "oun": 1158,
      "Ġfun": 1159,
      "ĠTH": 1160,
      "Ġdat": 1161,
      "Ġreal": 1162,
      "ents": 1163,
      "ness": 1164,
      "Ġdog": 1165,
      "Ġreg": 1166,
      "ries": 1167,
      "Ġexp": 1168,
      "ĠWh": 1169,
      "ĠAt": 1170,
      "Ġwar": 1171,
      "ĠAr": 1172,
      "Ġseem": 1173,
      "Ġbelie": 1174,
      "ounds": 1175,
      "ĠRe": 1176,
      "!\"": 1177,
      "AN": 1178,
      "ĠUnited": 1179,
      "Ġwee": 1180,
      "ject": 1181,
      "Ġsur": 1182,
      "ĠNew": 1183,
      "anc": 1184,
      "enc": 1185,
      "mb": 1186,
      "ner": 1187,
      "cle": 1188,
      "Ġpers": 1189,
      "Ġdiffe": 1190,
      "Ġbetween": 1191,
      "Ġgi": 1192,
      "ased": 1193,
      "lic": 1194,
      "Ġca": 1195,
      "Ġblack": 1196,
      "ph": 1197,
      "Ġcol": 1198,
      "Ġrel": 1199,
      "Ġstud": 1200,
      "Ġstay": 1201,
      "ye": 1202,
      "Ġuntil": 1203,
      "ets": 1204,
      "Ġhold": 1205,
      "aught": 1206,
      "ndred": 1207,
      "Ġremember": 1208,
      "ES": 1209,
      "the": 1210,
      "Ġent": 1211,
      "Ġgra": 1212,
      "ĠDe": 1213,
      "ures": 1214,
      "ger": 1215,
      "Ġmar": 1216,
      "Ġplease": 1217,
      "Ġboth": 1218,
      "Ġwatch": 1219,
      "ĠKing": 1220,
      "Ġgre": 1221,
      "ellow": 1222,
      "ret": 1223,
      "Ġhundred": 1224,
      "ib": 1225,
      "oup": 1226,
      "Ġmoney": 1227,
      "ĠEng": 1228,
      "ible": 1229,
      "Ġhard": 1230,
      "ĠCha": 1231,
      "ope": 1232,
      "gether": 1233,
      "Ġstand": 1234,
      "Ġchildren": 1235,
      "oon": 1236,
      "Ġtogether": 1237,
      "ĠWhen": 1238,
      "ĠWhy": 1239,
      "Ġstick": 1240,
      "Ġknown": 1241,
      "Ġyoung": 1242,
      "Ġsmall": 1243,
      "ollow": 1244,
      "CO": 1245,
      "Ġhigh": 1246,
      "Ġmil": 1247,
      "ĠAf": 1248,
      "ric": 1249,
      "Ġnothing": 1250,
      "leep": 1251,
      "Ġcons": 1252,
      "io": 1253,
      "Ġdist": 1254,
      "Ġsays": 1255,
      "Ġupon": 1256,
      "Ġsecond": 1257,
      "Ġenough": 1258,
      "rist": 1259,
      "usic": 1260,
      "ĠFran": 1261,
      "ĠFor": 1262,
      "Ġpoint": 1263,
      "ired": 1264,
      "Ġmat": 1265,
      "ĠAd": 1266,
      "Ġpass": 1267,
      "az": 1268,
      "fect": 1269,
      "LD": 1270,
      "Ġchar": 1271,
      "Ġbest": 1272,
      "Ġthough": 1273,
      "orth": 1274,
      "ĠDon": 1275,
      "ton": 1276,
      "Ġopen": 1277,
      "fta": 1278,
      "ister": 1279,
      "Ġlight": 1280,
      "ĠMy": 1281,
      "Ġwalk": 1282,
      "Ġpick": 1283,
      "orning": 1284,
      "ross": 1285,
      "Ġhappened": 1286,
      "Ġhafta": 1287,
      "ĠCan": 1288,
      "Ġred": 1289,
      "oud": 1290,
      "Ġhear": 1291,
      "ener": 1292,
      "ĠMiss": 1293,
      "Ġcourse": 1294,
      "Ġbad": 1295,
      "Ġalright": 1296,
      "cial": 1297,
      "ĠNow": 1298,
      "Ġball": 1299,
      "Ġfall": 1300,
      "Ġeyes": 1301,
      "eak": 1302,
      "ating": 1303,
      "Ġdoor": 1304,
      "EL": 1305,
      "its": 1306,
      "Ġmet": 1307,
      "ĠâĢĵ": 1308,
      "ork": 1309,
      "iet": 1310,
      "Ġsy": 1311,
      "ta": 1312,
      "Ġdied": 1313,
      "Ġside": 1314,
      "ered": 1315,
      "Ġbed": 1316,
      "Ġisn": 1317,
      "Ġonce": 1318,
      "Ġsilver": 1319,
      "ular": 1320,
      "clud": 1321,
      "ĠZ": 1322,
      "Ġeach": 1323,
      "),": 1324,
      "Ġinst": 1325,
      "Ġinv": 1326,
      "Ġfew": 1327,
      "Ġyet": 1328,
      "ĠOkay": 1329,
      "Ġagainst": 1330,
      "ĠSp": 1331,
      "Ġmorning": 1332,
      "Ġhimself": 1333,
      "oice": 1334,
      "The": 1335,
      "rib": 1336,
      "Ġdec": 1337,
      "Ġter": 1338,
      "âĢĻs": 1339,
      "ched": 1340,
      "ged": 1341,
      "uff": 1342,
      "Ġwithout": 1343,
      "Ġhm": 1344,
      "ĠAmerican": 1345,
      "ï¿½ï¿½": 1346,
      "Ġnear": 1347,
      "cha": 1348,
      "Ġlist": 1349,
      "ank": 1350,
      "Ġquite": 1351,
      "Ġstr": 1352,
      "Ġtop": 1353,
      "oint": 1354,
      "une": 1355,
      "Ġasked": 1356,
      "ined": 1357,
      "ohn": 1358,
      "form": 1359,
      "Ġrest": 1360,
      "Ġfood": 1361,
      "ale": 1362,
      "Ġhur": 1363,
      "addy": 1364,
      "ane": 1365,
      "Ġkill": 1366,
      "ĠStates": 1367,
      "Ġimp": 1368,
      "Ġsk": 1369,
      "ĠInd": 1370,
      "Ġtoday": 1371,
      "Ġleave": 1372,
      ").": 1373,
      "Ġdifferent": 1374,
      "Ġface": 1375,
      "Ġsorry": 1376,
      "Ġcoming": 1377,
      "aut": 1378,
      "ĠMrs": 1379,
      "ĠThen": 1380,
      "raw": 1381,
      "ĠCl": 1382,
      "Ġdri": 1383,
      "ics": 1384,
      "Ġinc": 1385,
      "ctor": 1386,
      "med": 1387,
      "Ġbase": 1388,
      "less": 1389,
      "Ġperson": 1390,
      "Ġ_": 1391,
      "Ġmind": 1392,
      "Ġfollow": 1393,
      "Ġseen": 1394,
      "Ġair": 1395,
      "ING": 1396,
      "Ġlater": 1397,
      "Ġbit": 1398,
      "Ġbro": 1399,
      "Ġstory": 1400,
      "Ġsince": 1401,
      "Ġhung": 1402,
      "aper": 1403,
      "uss": 1404,
      "vie": 1405,
      "Ġpop": 1406,
      "-s": 1407,
      "\".": 1408,
      "ĠNot": 1409,
      "ier": 1410,
      "Ġwanted": 1411,
      "Ġdisc": 1412,
      "osed": 1413,
      "ines": 1414,
      "Ġpretty": 1415,
      "Ġthank": 1416,
      "ĠThan": 1417,
      "Ġkid": 1418,
      "Ġeight": 1419,
      "ĠEd": 1420,
      "Ġfr": 1421,
      "Ġcat": 1422,
      "ĠChrist": 1423,
      "Ġtable": 1424,
      "Ġheart": 1425,
      "vern": 1426,
      "Ġlooking": 1427,
      "Ġknew": 1428,
      "ual": 1429,
      "enty": 1430,
      "Ġeverything": 1431,
      "most": 1432,
      "ĠJust": 1433,
      "Ġsub": 1434,
      "Ġdep": 1435,
      "cept": 1436,
      "Ġheard": 1437,
      "Ġmagn": 1438,
      "Ġcity": 1439,
      "ife": 1440,
      "Ġcap": 1441,
      "any": 1442,
      "ĠRoss": 1443,
      "ertain": 1444,
      "ĠJohn": 1445,
      "Ġdoll": 1446,
      "Ġmove": 1447,
      "Ġate": 1448,
      "ĠHey": 1449,
      "ason": 1450,
      "Ġfamily": 1451,
      "me": 1452,
      "Ġlar": 1453,
      "olog": 1454,
      "ames": 1455,
      "stand": 1456,
      "hip": 1457,
      "Ġsleep": 1458,
      "ĠGod": 1459,
      "Ġhat": 1460,
      "ative": 1461,
      "Ġwhole": 1462,
      "Ġhands": 1463,
      "ities": 1464,
      "und": 1465,
      "Ġgetting": 1466,
      "Ġcent": 1467,
      "Ġwind": 1468,
      "ĠMay": 1469,
      "Ġhaving": 1470,
      "Ġtown": 1471,
      "Ġshall": 1472,
      "Ġborn": 1473,
      "OU": 1474,
      "Ġwrite": 1475,
      "ific": 1476,
      "ok": 1477,
      "Ġtalking": 1478,
      "Ġfire": 1479,
      "Ġpict": 1480,
      "Ġdays": 1481,
      "ision": 1482,
      "aster": 1483,
      "ex": 1484,
      "der": 1485,
      "oor": 1486,
      "aj": 1487,
      "Ġass": 1488,
      "Ġadd": 1489,
      "ote": 1490,
      "ape": 1491,
      "Ġwasn": 1492,
      "Ġanim": 1493,
      "Ġalong": 1494,
      "Ġrep": 1495,
      "Ġmaybe": 1496,
      "ivers": 1497,
      "Ġgoes": 1498,
      "Ġinclud": 1499,
      "Ġlooked": 1500,
      "huh": 1501,
      "tle": 1502,
      "eng": 1503,
      "Ġsent": 1504,
      "Ġgave": 1505,
      "Ġsoon": 1506,
      "ĠTHE": 1507,
      "Ġzz": 1508,
      "Ġzzz": 1509,
      "Ġsong": 1510,
      "pped": 1511,
      "ned": 1512,
      "ĠSar": 1513,
      "ĠLet": 1514,
      "Ġmeet": 1515,
      "ably": 1516,
      "Ġhalf": 1517,
      "Ġsn": 1518,
      "ready": 1519,
      "ows": 1520,
      "cess": 1521,
      "uth": 1522,
      "Ġbelieve": 1523,
      "Ġbring": 1524,
      "Ġbeaut": 1525,
      "aint": 1526,
      "ully": 1527,
      "ounc": 1528,
      "ĠCom": 1529,
      "onder": 1530,
      "ĠSc": 1531,
      "ĠPr": 1532,
      "Ġref": 1533,
      "Ġdire": 1534,
      "sel": 1535,
      "br": 1536,
      "Ġquest": 1537,
      "Ġloc": 1538,
      "Ġpub": 1539,
      "iness": 1540,
      "Ġaw": 1541,
      "lish": 1542,
      "Ġsign": 1543,
      "ues": 1544,
      "Ġdrink": 1545,
      "ĠCome": 1546,
      "Ġalready": 1547,
      "Ġhum": 1548,
      "ike": 1549,
      "Ġreturn": 1550,
      "ash": 1551,
      "ĠGo": 1552,
      "Ġduring": 1553,
      "Ġgirls": 1554,
      "Ġland": 1555,
      "ither": 1556,
      "eter": 1557,
      "Ġmaking": 1558,
      "ene": 1559,
      "Ġmeans": 1560,
      "ield": 1561,
      "ants": 1562,
      "Ġbuild": 1563,
      "ury": 1564,
      "Ġbecame": 1565,
      "Ġhungry": 1566,
      "LO": 1567,
      "ists": 1568,
      "ĠPh": 1569,
      "Ġstarted": 1570,
      "rew": 1571,
      "Ġans": 1572,
      "Ġvoice": 1573,
      "den": 1574,
      "ney": 1575,
      "ining": 1576,
      "Ġhour": 1577,
      "Ġpiece": 1578,
      "Ġbrother": 1579,
      "Ġprod": 1580,
      "Ġready": 1581,
      "Ġcountry": 1582,
      "ital": 1583,
      "Ġcoll": 1584,
      "Ġlo": 1585,
      "ution": 1586,
      "Ġhor": 1587,
      "Ġgone": 1588,
      "Ġround": 1589,
      "orrow": 1590,
      "elt": 1591,
      "Ġlead": 1592,
      "Ġlive": 1593,
      "pr": 1594,
      "-b": 1595,
      "Ġmiss": 1596,
      "Ġerm": 1597,
      "ised": 1598,
      "Ġfif": 1599,
      "ustr": 1600,
      "Ġage": 1601,
      "Ġeas": 1602,
      "ĠTo": 1603,
      "ĠHis": 1604,
      "Ġson": 1605,
      "Ġhey": 1606,
      "Ġdear": 1607,
      "Ġri": 1608,
      "Ġcut": 1609,
      "ense": 1610,
      "aces": 1611,
      "Ġsound": 1612,
      "Ġbreak": 1613,
      "Ġid": 1614,
      "ster": 1615,
      "Ġalmost": 1616,
      "aken": 1617,
      "Ġhot": 1618,
      "Ġtri": 1619,
      "Ġposs": 1620,
      "ten": 1621,
      "ax": 1622,
      "Ġwrong": 1623,
      "COL": 1624,
      "Ġsaying": 1625,
      "ĠGer": 1626,
      "Ġext": 1627,
      "isit": 1628,
      "/H": 1629,
      "rop": 1630,
      "ently": 1631,
      "ison": 1632,
      "Ġexc": 1633,
      "Ġunderstand": 1634,
      "pect": 1635,
      "Ġfriends": 1636,
      "Ġfact": 1637,
      "ages": 1638,
      "Ġpaper": 1639,
      "Ġlaugh": 1640,
      "ey": 1641,
      "aid": 1642,
      "eth": 1643,
      "ately": 1644,
      "wer": 1645,
      "iful": 1646,
      "Ġtrying": 1647,
      "Ġtre": 1648,
      "Ġfight": 1649,
      "ized": 1650,
      "Ġconf": 1651,
      "Ġinter": 1652,
      "ush": 1653,
      "Ġprom": 1654,
      "ĠCount": 1655,
      "UN": 1656,
      "Ġwhite": 1657,
      "erest": 1658,
      "Ġfoot": 1659,
      "Ġwonder": 1660,
      "ball": 1661,
      "gan": 1662,
      "Ġfore": 1663,
      "cted": 1664,
      "ĠFl": 1665,
      "to": 1666,
      "app": 1667,
      "ments": 1668,
      "Ġlear": 1669,
      "Ġlooks": 1670,
      "Ã©": 1671,
      "Ġplan": 1672,
      "EN": 1673,
      "Ġcertain": 1674,
      "Ġactually": 1675,
      "Ġdeath": 1676,
      "Ġyellow": 1677,
      "ĠOne": 1678,
      "ĠAre": 1679,
      "ured": 1680,
      "ĠQ": 1681,
      "ple": 1682,
      "Ġbegan": 1683,
      "Ġrecord": 1684,
      "Ġmoment": 1685,
      "Ġmonth": 1686,
      "Ġproble": 1687,
      "ON": 1688,
      "Ġsun": 1689,
      "Ġclose": 1690,
      "Ġmm": 1691,
      "eed": 1692,
      "ained": 1693,
      "Ġmed": 1694,
      "\",": 1695,
      "Ġwin": 1696,
      "Ġtwenty": 1697,
      "Ġgener": 1698,
      "Ġwoman": 1699,
      "oke": 1700,
      "Ġspeak": 1701,
      "ĠSarah": 1702,
      "ĠJan": 1703,
      "Ġparty": 1704,
      "urs": 1705,
      "Ġgame": 1706,
      "aul": 1707,
      "eb": 1708,
      "Ġsim": 1709,
      "oes": 1710,
      "wards": 1711,
      "gin": 1712,
      "ĠCar": 1713,
      "ĠAfter": 1714,
      "Ġwouldn": 1715,
      "ony": 1716,
      "Ġten": 1717,
      "Ġweek": 1718,
      "ffe": 1719,
      "Ġart": 1720,
      "ring": 1721,
      "Ġi": 1722,
      "Ġfine": 1723,
      "unt": 1724,
      "ober": 1725,
      "ĠHer": 1726,
      "ped": 1727,
      "ole": 1728,
      "ĠAdam": 1729,
      "Ġtrans": 1730,
      "AI": 1731,
      "Ġdin": 1732,
      "ĠMot": 1733,
      "Ġbox": 1734,
      "Ġfull": 1735,
      "Ġguess": 1736,
      "ared": 1737,
      "ided": 1738,
      "Ġphone": 1739,
      "ĠEr": 1740,
      "rog": 1741,
      "Ġtimes": 1742,
      "Ġlost": 1743,
      "Ġsort": 1744,
      "Ġidea": 1745,
      "ouch": 1746,
      "Ġcontin": 1747,
      "Ġinterest": 1748,
      "ĠWill": 1749,
      "Ġguys": 1750,
      "Ġteam": 1751,
      "used": 1752,
      "ĠEnglish": 1753,
      "Ġbrought": 1754,
      "You": 1755,
      "Ġrock": 1756,
      "ĠLook": 1757,
      "Ġbeautiful": 1758,
      "Ġplaying": 1759,
      "ery": 1760,
      "Ġwords": 1761,
      "velop": 1762,
      "Ġstuff": 1763,
      "Ġuhhuh": 1764,
      "NA": 1765,
      "irth": 1766,
      "Ġturned": 1767,
      "ĠDid": 1768,
      "sh": 1769,
      "Ġguy": 1770,
      "no": 1771,
      "ĠWho": 1772,
      "amed": 1773,
      "ead": 1774,
      "Ġev": 1775,
      "Ġcomes": 1776,
      "Ġegg": 1777,
      "Ġpresent": 1778,
      "Ġtaken": 1779,
      "Ġcreat": 1780,
      "ept": 1781,
      "Ġbear": 1782,
      "Ġtele": 1783,
      "ize": 1784,
      "GLO": 1785,
      "ĠBl": 1786,
      "Ġblue": 1787,
      "oe": 1788,
      "fully": 1789,
      "Ġprov": 1790,
      "ouble": 1791,
      "unch": 1792,
      "Ġocc": 1793,
      "ati": 1794,
      "stem": 1795,
      "ming": 1796,
      "ĠPro": 1797,
      "Ġleg": 1798,
      "ĠWhere": 1799,
      "son": 1800,
      "Ġgovern": 1801,
      "wh": 1802,
      "ides": 1803,
      "Ġpay": 1804,
      "Ġhappy": 1805,
      ".âĢĿ": 1806,
      "ying": 1807,
      "iting": 1808,
      "Ġcur": 1809,
      "Ġstate": 1810,
      "hind": 1811,
      "ief": 1812,
      "Ġed": 1813,
      "Ġmatter": 1814,
      "Ġcir": 1815,
      "airs": 1816,
      "ains": 1817,
      "by": 1818,
      "idd": 1819,
      "Ġbar": 1820,
      "Ġgreen": 1821,
      "Ġjob": 1822,
      "Ġpoor": 1823,
      "ipp": 1824,
      "iversity": 1825,
      "Ġple": 1826,
      "room": 1827,
      "ises": 1828,
      "Ġlaw": 1829,
      "ze": 1830,
      "Ġwand": 1831,
      "ism": 1832,
      "ama": 1833,
      "Ġboys": 1834,
      "utes": 1835,
      "Ġpri": 1836,
      "iter": 1837,
      "Ġable": 1838,
      "erv": 1839,
      "MEL": 1840,
      "Ġpower": 1841,
      "ians": 1842,
      "Ġoffic": 1843,
      "bably": 1844,
      "Ġmagnet": 1845,
      "Ġpolit": 1846,
      "ern": 1847,
      "Ġem": 1848,
      "Ġclear": 1849,
      "Ġfell": 1850,
      "Ġless": 1851,
      "Ġprot": 1852,
      "Ġmark": 1853,
      "alth": 1854,
      "ĠThank": 1855,
      "reet": 1856,
      "Ġmusic": 1857,
      "Ġmilk": 1858,
      "ÃŃ": 1859,
      "Ġbra": 1860,
      "ats": 1861,
      "atur": 1862,
      "Ġshort": 1863,
      "Ġfelt": 1864,
      "Ġsomeone": 1865,
      "rench": 1866,
      "ĠAp": 1867,
      "ese": 1868,
      "ator": 1869,
      "Ġwomen": 1870,
      "Ġquick": 1871,
      "Ġcup": 1872,
      "Ġbird": 1873,
      "ik": 1874,
      "ĠFr": 1875,
      "ĠCounty": 1876,
      "Ġdress": 1877,
      "Ġhope": 1878,
      "ma": 1879,
      "key": 1880,
      "umb": 1881,
      "ĠSh": 1882,
      "ĠGe": 1883,
      "itc": 1884,
      "Ġplayed": 1885,
      "ĠPer": 1886,
      "ĠRight": 1887,
      "Ġsoft": 1888,
      "olly": 1889,
      ",âĢĿ": 1890,
      "Ġsal": 1891,
      "Ġbehind": 1892,
      "Ġletter": 1893,
      "where": 1894,
      "ĠCon": 1895,
      "Ġfloor": 1896,
      "Ġhair": 1897,
      "Ġarea": 1898,
      "Ġking": 1899,
      "Ġ#": 1900,
      "not": 1901,
      "Ġseven": 1902,
      "ĠTr": 1903,
      "Ġins": 1904,
      "Ġoutside": 1905,
      "Ġexpl": 1906,
      "Ġminute": 1907,
      "Ġbirth": 1908,
      "Ġmakes": 1909,
      "Ġlarge": 1910,
      "Ġgotta": 1911,
      "Ġmill": 1912,
      "Oh": 1913,
      "Ġwants": 1914,
      "Ġcolor": 1915,
      "Ġherself": 1916,
      "Ġchair": 1917,
      "Ġsat": 1918,
      "Ġsqu": 1919,
      "ety": 1920,
      "âĢĶ": 1921,
      "ots": 1922,
      "oub": 1923,
      "ature": 1924,
      "Ġimport": 1925,
      "read": 1926,
      "Ġmine": 1927,
      "Ġinside": 1928,
      "Ġfront": 1929,
      "itting": 1930,
      "ĠBrit": 1931,
      "Ġpounds": 1932,
      "Ġform": 1933,
      "gy": 1934,
      "Ġes": 1935,
      "ention": 1936,
      "Ġhappen": 1937,
      "Ġstrong": 1938,
      "ousand": 1939,
      "Ġpartic": 1940,
      "Ġago": 1941,
      "Ġwood": 1942,
      "arch": 1943,
      "Ġmyself": 1944,
      "ĠPaul": 1945,
      "Ġdead": 1946,
      "Ġdi": 1947,
      "rying": 1948,
      "ham": 1949,
      "Ġdevelop": 1950,
      "Ġoften": 1951,
      "ilt": 1952,
      "ĠWith": 1953,
      "nina": 1954,
      "icha": 1955,
      "ald": 1956,
      "Ġserv": 1957,
      "selves": 1958,
      "els": 1959,
      "ices": 1960,
      "ĠBro": 1961,
      "ĠEx": 1962,
      "uary": 1963,
      "Ġmovie": 1964,
      "-c": 1965,
      "haps": 1966,
      "ĠMin": 1967,
      "Ġlay": 1968,
      "ones": 1969,
      "ĠGood": 1970,
      "ider": 1971,
      "Ġswe": 1972,
      "Ġpar": 1973,
      "Ġconst": 1974,
      "Ġquestion": 1975,
      "Ġyep": 1976,
      "ĠLe": 1977,
      "ted": 1978,
      "Ġcook": 1979,
      "Ġcomple": 1980,
      "eptember": 1981,
      "uro": 1982,
      "Ġbody": 1983,
      "Ġbusiness": 1984,
      "OR": 1985,
      "head": 1986,
      "uly": 1987,
      "Ġthousand": 1988,
      "Ġcond": 1989,
      "Ġste": 1990,
      "ĠSome": 1991,
      "Ġhist": 1992,
      "âĢĻt": 1993,
      "-f": 1994,
      "Ġcouldn": 1995,
      "Ġsystem": 1996,
      "Ġpicture": 1997,
      "Ġrather": 1998,
      "morrow": 1999,
      "ears": 2000,
      "Ġtaking": 2001,
      "ility": 2002,
      "Ġminutes": 2003,
      "It": 2004,
      "Ġbott": 2005,
      "Ġran": 2006,
      "Ġrece": 2007,
      "Ġcase": 2008,
      "Ġpull": 2009,
      "Ġroad": 2010,
      "uts": 2011,
      "ĠPar": 2012,
      "ĠFrance": 2013,
      "pill": 2014,
      "ĠAb": 2015,
      "Ġconc": 2016,
      "Ġchange": 2017,
      "ask": 2018,
      "Ġwithin": 2019,
      "Ġlived": 2020,
      "Ġclass": 2021,
      "arent": 2022,
      "Ġ,": 2023,
      "rest": 2024,
      "Ġseemed": 2025,
      "Ġadv": 2026,
      "angu": 2027,
      "Ġsir": 2028,
      "Ġprobably": 2029,
      "ĠSeptember": 2030,
      "irty": 2031,
      "ĠGu": 2032,
      "Ġgrow": 2033,
      "Ġgiven": 2034,
      "----": 2035,
      "ĠWor": 2036,
      "ards": 2037,
      "Ġdeal": 2038,
      "rence": 2039,
      "ĠDaddy": 2040,
      "ox": 2041,
      "Ġest": 2042,
      "la": 2043,
      "ĠGerman": 2044,
      "Ġyup": 2045,
      "Ġtrue": 2046,
      "aterpill": 2047,
      "Ġprof": 2048,
      "Ġliving": 2049,
      "men": 2050,
      "Ġalone": 2051,
      "kes": 2052,
      "Ġlisten": 2053,
      "ĠOr": 2054,
      "bit": 2055,
      "ically": 2056,
      "Ġdark": 2057,
      "Ġleast": 2058,
      "IC": 2059,
      "ford": 2060,
      "ĠPhil": 2061,
      "ĠYork": 2062,
      "bum": 2063,
      "Ġlady": 2064,
      "Ġhon": 2065,
      "Ġlate": 2066,
      "een": 2067,
      "ĠYOU": 2068,
      "Ġhaven": 2069,
      "Ġworking": 2070,
      "Ġreport": 2071,
      "CHILD": 2072,
      "ls": 2073,
      "nes": 2074,
      "aughter": 2075,
      "Ġpur": 2076,
      "Ġothers": 2077,
      "ĠSha": 2078,
      "Ġgrand": 2079,
      "ĠJanuary": 2080,
      "ches": 2081,
      "Ġnamed": 2082,
      "Ġfeet": 2083,
      "Ġacross": 2084,
      "Ġbutter": 2085,
      "Ġdem": 2086,
      "Ġpu": 2087,
      "Ġty": 2088,
      "tain": 2089,
      "Ġleng": 2090,
      "Ġearly": 2091,
      "ley": 2092,
      "Ġsum": 2093,
      "osp": 2094,
      "ĠMan": 2095,
      "ĠYour": 2096,
      "ĠFrench": 2097,
      "aim": 2098,
      "Ġforg": 2099,
      "though": 2100,
      "rie": 2101,
      "gram": 2102,
      "ĠMarch": 2103,
      "ional": 2104,
      "Ġfunny": 2105,
      "Ġsister": 2106,
      "iously": 2107,
      "ugust": 2108,
      "Ġones": 2109,
      "Ġgroup": 2110,
      "Ġdraw": 2111,
      "mother": 2112,
      "ril": 2113,
      "ĠDav": 2114,
      "rs": 2115,
      "ached": 2116,
      "com": 2117,
      "Ġbat": 2118,
      "ĠHar": 2119,
      "aced": 2120,
      "artment": 2121,
      "cient": 2122,
      "rap": 2123,
      "GAI": 2124,
      "Ġcor": 2125,
      "Ġfifty": 2126,
      "Ġlangu": 2127,
      "point": 2128,
      "Ġfrog": 2129,
      "Ġdream": 2130,
      "Ġamong": 2131,
      "range": 2132,
      "Ġsever": 2133,
      "-t": 2134,
      "Ġmod": 2135,
      "ĠUniversity": 2136,
      "Ġyourself": 2137,
      "ement": 2138,
      "Ġz": 2139,
      "AL": 2140,
      "aterpillar": 2141,
      ".cha": 2142,
      "/CHILD": 2143,
      "_NA": 2144,
      "Ġchildes": 2145,
      "/CHILDES": 2146,
      "Ġpast": 2147,
      "ĠBen": 2148,
      "Ġhorse": 2149,
      "fl": 2150,
      "Ġtrain": 2151,
      "aur": 2152,
      "lished": 2153,
      "Ġtree": 2154,
      "rian": 2155,
      "Ġwish": 2156,
      "Ġresp": 2157,
      "-d": 2158,
      "Ġspec": 2159,
      "ived": 2160,
      "ges": 2161,
      "Ġfig": 2162,
      "ĠAm": 2163,
      "ĠGr": 2164,
      "Ġcold": 2165,
      "Ġobject": 2166,
      "Ġheld": 2167,
      "ĠPl": 2168,
      "Ġblock": 2169,
      "Ġeither": 2170,
      "Chi": 2171,
      "iron": 2172,
      "Ġhurt": 2173,
      "Ġexper": 2174,
      "Ġtape": 2175,
      "Ġfree": 2176,
      "Ġfav": 2177,
      "Ġdel": 2178,
      "Ġpos": 2179,
      "Ġgod": 2180,
      "Ġjump": 2181,
      "Ġeng": 2182,
      "Ġanimals": 2183,
      "Ġline": 2184,
      "ĠDr": 2185,
      "Ġbegin": 2186,
      "Ġbuy": 2187,
      "Ġalbum": 2188,
      "Ġrequ": 2189,
      "GR": 2190,
      "Ġjo": 2191,
      "Ġopp": 2192,
      "ament": 2193,
      "Ġvisit": 2194,
      "ĠEuro": 2195,
      "overed": 2196,
      "Ġwear": 2197,
      "more": 2198,
      "ering": 2199,
      "ĠAugust": 2200,
      "ĠSw": 2201,
      "ĠWar": 2202,
      "Ġquiet": 2203,
      "Ġbecome": 2204,
      "Ġseveral": 2205,
      "Ġwife": 2206,
      "Ġkids": 2207,
      "fic": 2208,
      "Ġcamp": 2209,
      "Ġreason": 2210,
      "Ġorgan": 2211,
      "itten": 2212,
      "ajor": 2213,
      "AS": 2214,
      "lo": 2215,
      "Ġill": 2216,
      "Ġwall": 2217,
      "Ġteac": 2218,
      "Ġevent": 2219,
      "Ġallow": 2220,
      "Ġexpect": 2221,
      "ality": 2222,
      "ĠWorld": 2223,
      "Ġattack": 2224,
      "Ġâ": 2225,
      "ĠHere": 2226,
      "fort": 2227,
      "mas": 2228,
      "ula": 2229,
      "Ġpublic": 2230,
      "ĠBecause": 2231,
      "Ġimportant": 2232,
      "Ġtreat": 2233,
      "Ġfair": 2234,
      "Ġstru": 2235,
      "Ġnews": 2236,
      "-p": 2237,
      "Ġorder": 2238,
      "Ġsometimes": 2239,
      "Ġtem": 2240,
      "iddle": 2241,
      "RE": 2242,
      "Ġice": 2243,
      "Ġann": 2244,
      "iver": 2245,
      "Ġtea": 2246,
      "Ġrepl": 2247,
      "Ġmoon": 2248,
      "rict": 2249,
      "ĠPe": 2250,
      "Ġgovernment": 2251,
      "co": 2252,
      "for": 2253,
      "unic": 2254,
      "Ġrele": 2255,
      "ĠMe": 2256,
      "ler": 2257,
      "Ġap": 2258,
      "ĠTw": 2259,
      "Ġsingle": 2260,
      "Ġclean": 2261,
      "ĠAN": 2262,
      "born": 2263,
      "ĠPres": 2264,
      "ĠGeor": 2265,
      "Ġspe": 2266,
      "Ġ?": 2267,
      "Ġsold": 2268,
      "Ġtried": 2269,
      "ĠApril": 2270,
      "Ġnine": 2271,
      "Ġmess": 2272,
      "ĠChar": 2273,
      "eared": 2274,
      "Ġhi": 2275,
      "but": 2276,
      "Ļª": 2277,
      "Ġtoys": 2278,
      "Ġsea": 2279,
      "ising": 2280,
      "Ġeating": 2281,
      "Ġfix": 2282,
      "ctober": 2283,
      "ai": 2284,
      "iny": 2285,
      "min": 2286,
      "Ġfish": 2287,
      "Ġmember": 2288,
      "ĠBar": 2289,
      "ĠâĻª": 2290,
      "Ġanswer": 2291,
      "Ġdro": 2292,
      "che": 2293,
      "Ġdef": 2294,
      "Ġcompany": 2295,
      "ium": 2296,
      "ĠRuss": 2297,
      "bs": 2298,
      "ued": 2299,
      "Ġstar": 2300,
      "What": 2301,
      "ĠNe": 2302,
      "ĠJe": 2303,
      "urch": 2304,
      "Ġdra": 2305,
      "Ġsend": 2306,
      "ken": 2307,
      "uct": 2308,
      "Ġmain": 2309,
      "Ġmer": 2310,
      "Ġfing": 2311,
      "Ġbooks": 2312,
      "ĠComm": 2313,
      "Ġtomorrow": 2314,
      "ffee": 2315,
      "Ġvar": 2316,
      "ĠEvery": 2317,
      "Ġhuman": 2318,
      "gue": 2319,
      "Ġnoise": 2320,
      "iding": 2321,
      "Ġstra": 2322,
      "Ġcheck": 2323,
      "vision": 2324,
      "Ġlives": 2325,
      "Ġproblem": 2326,
      "Ġdad": 2327,
      "Ġbirthday": 2328,
      "ĠMm": 2329,
      "Ġpot": 2330,
      "Ġhit": 2331,
      "ĠEar": 2332,
      "Ġmonths": 2333,
      "ĠPlease": 2334,
      "Ġfil": 2335,
      "Ġfly": 2336,
      "Ġtest": 2337,
      "Ġstore": 2338,
      "Ġappro": 2339,
      "ara": 2340,
      "ED": 2341,
      "ĠEngland": 2342,
      "ĠOctober": 2343,
      "ccess": 2344,
      "Ġcontro": 2345,
      "Ġcorn": 2346,
      "Ġfast": 2347,
      "ĠRep": 2348,
      "ĠMarky": 2349,
      "ĠOf": 2350,
      "ĠCol": 2351,
      "Ġblood": 2352,
      "ĠEurope": 2353,
      "Ġmis": 2354,
      "ĠDavid": 2355,
      "enn": 2356,
      "itty": 2357,
      "icks": 2358,
      "ays": 2359,
      "Ġah": 2360,
      "Ġgets": 2361,
      "uced": 2362,
      "ĠMother": 2363,
      "Ġband": 2364,
      "let": 2365,
      "ĠTO": 2366,
      "Ġcaterpillar": 2367,
      "ĠBy": 2368,
      "ĠBritish": 2369,
      "Ġloud": 2370,
      "Ġeye": 2371,
      "Ġkilled": 2372,
      "bo": 2373,
      "dden": 2374,
      "then": 2375,
      "Ġdesign": 2376,
      "ĠSouth": 2377,
      "Ġtill": 2378,
      "dy": 2379,
      "Ġground": 2380,
      "Ġfinished": 2381,
      "Ġcompet": 2382,
      "Yes": 2383,
      "Ġnational": 2384,
      "ana": 2385,
      "Ġgold": 2386,
      "Ġsca": 2387,
      "Ġtoy": 2388,
      "Ġcoffee": 2389,
      "ron": 2390,
      "mbers": 2391,
      "AUN": 2392,
      "ĠNational": 2393,
      "Ġwhether": 2394,
      "Ġya": 2395,
      "ories": 2396,
      "Ġmillion": 2397,
      "Ġton": 2398,
      "rigin": 2399,
      "Ġthinking": 2400,
      "Ġsupport": 2401,
      "ĠNorth": 2402,
      "Ġglad": 2403,
      "itchen": 2404,
      "ĠItal": 2405,
      "Ġvill": 2406,
      "Ġhell": 2407,
      "Ġsudden": 2408,
      "Ġmot": 2409,
      "Ġlow": 2410,
      "Ġbuilt": 2411,
      "Ġdaddy": 2412,
      "ĠMary": 2413,
      "ĠSe": 2414,
      "que": 2415,
      "asure": 2416,
      "cy": 2417,
      "unity": 2418,
      "Ġsomebody": 2419,
      "ended": 2420,
      "Ġinform": 2421,
      "rand": 2422,
      "oman": 2423,
      "Ġworked": 2424,
      "ced": 2425,
      "Ġprogram": 2426,
      "Ġarri": 2427,
      "Ġwindow": 2428,
      "And": 2429,
      "Ġcause": 2430,
      "Ġmouth": 2431,
      "Ġhors": 2432,
      "Ġkitchen": 2433,
      "ĠChristmas": 2434,
      "ĠâĢĺ": 2435,
      "Ġpassed": 2436,
      "raid": 2437,
      "Ġtrouble": 2438,
      "idge": 2439,
      "entle": 2440,
      "ĠThese": 2441,
      "'.": 2442,
      "con": 2443,
      "ked": 2444,
      "Ġbag": 2445,
      "Ġtouch": 2446,
      "Ġcried": 2447,
      "Ġnin": 2448,
      "ract": 2449,
      "Ġthemselves": 2450,
      "Ġhoney": 2451,
      "laughing": 2452,
      "Ġsweet": 2453,
      "gar": 2454,
      "phan": 2455,
      "ral": 2456,
      "ency": 2457,
      "ology": 2458,
      "anger": 2459,
      "ulation": 2460,
      "ov": 2461,
      "ored": 2462,
      "Ġchance": 2463,
      "Ġprotect": 2464,
      "sing": 2465,
      "Ġstep": 2466,
      "Ġbath": 2467,
      "irt": 2468,
      "ging": 2469,
      "ĠEl": 2470,
      "Ġgoin": 2471,
      "Ġhar": 2472,
      "Ġsurpr": 2473,
      "Ġeasy": 2474,
      "Ġmommy": 2475,
      "No": 2476,
      "Ġwhose": 2477,
      "ude": 2478,
      "ET": 2479,
      "Ġspecial": 2480,
      "ffect": 2481,
      "Ġow": 2482,
      "Ġreleased": 2483,
      "Ġcross": 2484,
      "Ġforget": 2485,
      "illy": 2486,
      "ĠTe": 2487,
      "ĠCity": 2488,
      "uthor": 2489,
      "hold": 2490,
      "ior": 2491,
      "music": 2492,
      "Ġkept": 2493,
      "SL": 2494,
      "ĠSis": 2495,
      "atic": 2496,
      "ĠCap": 2497,
      "empt": 2498,
      "iam": 2499,
      "owers": 2500,
      "âĢĵ": 2501,
      "Ġdinner": 2502,
      "]?": 2503,
      "Ġrunning": 2504,
      "ĠX": 2505,
      "Ġdaughter": 2506,
      "oof": 2507,
      "ĠWas": 2508,
      "Ġcommon": 2509,
      "Ġ...": 2510,
      "raz": 2511,
      "Ġlevel": 2512,
      "Ġusing": 2513,
      "band": 2514,
      "Ġwhis": 2515,
      "Ġincre": 2516,
      "par": 2517,
      "Ġafraid": 2518,
      "Ġslow": 2519,
      "fer": 2520,
      "Ġoper": 2521,
      "Ġpain": 2522,
      "Ġrese": 2523,
      "hile": 2524,
      "Ġmarried": 2525,
      "Ġpress": 2526,
      "Ġsitting": 2527,
      "imb": 2528,
      "Ġspace": 2529,
      "Ġinstead": 2530,
      "Ġmur": 2531,
      "Ġclot": 2532,
      "Ġabove": 2533,
      "ode": 2534,
      "-w": 2535,
      "resent": 2536,
      "Ġheav": 2537,
      "Ġmembers": 2538,
      "yl": 2539,
      "ĠSir": 2540,
      "Ġaren": 2541,
      "Ġarm": 2542,
      "Ġhowever": 2543,
      "ĠCal": 2544,
      "ĠDad": 2545,
      "Ġcake": 2546,
      "Ġhop": 2547,
      "ĠPart": 2548,
      "hern": 2549,
      "ĠPresident": 2550,
      "Ġpage": 2551,
      "Ġdeep": 2552,
      "points": 2553,
      "cember": 2554,
      "astic": 2555,
      "Ġexact": 2556,
      "Ġlonger": 2557,
      "Ġcost": 2558,
      "Ġfa": 2559,
      "Ġthird": 2560,
      "ĠIN": 2561,
      "Ġve": 2562,
      "Ġstreet": 2563,
      "ĠJuly": 2564,
      "Ġcharac": 2565,
      "ager": 2566,
      "Ġseries": 2567,
      "Ġdet": 2568,
      "idence": 2569,
      "Ġbuilding": 2570,
      "de": 2571,
      "ĠFrom": 2572,
      "hers": 2573,
      "Ġperhaps": 2574,
      "dom": 2575,
      "'S": 2576,
      "Ġhours": 2577,
      "itch": 2578,
      "Ġval": 2579,
      "Ġeverybody": 2580,
      "uce": 2581,
      "Ġabs": 2582,
      "Ġsuccess": 2583,
      "Ġmist": 2584,
      "Ġav": 2585,
      "Ġbow": 2586,
      "ases": 2587,
      "ĠChe": 2588,
      "Ġroll": 2589,
      "Ġserved": 2590,
      "Ġdoctor": 2591,
      "ovember": 2592,
      "Ġstood": 2593,
      "Ġorigin": 2594,
      "Ġknows": 2595,
      "Ġequ": 2596,
      "/HV": 2597,
      "/HSL": 2598,
      "/HSLLD": 2599,
      "urg": 2600,
      "ouncil": 2601,
      "Ġmount": 2602,
      "Ġgun": 2603,
      "Ġthrow": 2604,
      "Ġsounds": 2605,
      "Ġfur": 2606,
      "Ġsafe": 2607,
      "ĠTom": 2608,
      "Ġeffect": 2609,
      "chn": 2610,
      "ĠGreat": 2611,
      "ello": 2612,
      "Ġcand": 2613,
      "estern": 2614,
      "Ġtakes": 2615,
      "teen": 2616,
      "Ġtonight": 2617,
      "ruary": 2618,
      "ebruary": 2619,
      "Ġhang": 2620,
      "Ġclos": 2621,
      "We": 2622,
      "amb": 2623,
      "Ġride": 2624,
      "Ġhistory": 2625,
      "Ġanyone": 2626,
      "Ġcirc": 2627,
      "Ġstanding": 2628,
      "Ġincluding": 2629,
      "ushed": 2630,
      "joy": 2631,
      "Ġmoved": 2632,
      "Ġparticular": 2633,
      "Ġprofess": 2634,
      "ounced": 2635,
      "Ġring": 2636,
      "Ġweeks": 2637,
      "Ġseems": 2638,
      "ait": 2639,
      "sc": 2640,
      "Ġgentle": 2641,
      "ĠSant": 2642,
      "Ġoffice": 2643,
      "ĠEm": 2644,
      "ĠJune": 2645,
      "ĠDecember": 2646,
      "ĠJack": 2647,
      "Ġtruck": 2648,
      "Ġcool": 2649,
      "Ġahead": 2650,
      "Ġfle": 2651,
      "ange": 2652,
      "ĠHouse": 2653,
      "ĠEve": 2654,
      "you": 2655,
      "Ġsand": 2656,
      "ffic": 2657,
      "Ġevening": 2658,
      "come": 2659,
      "over": 2660,
      "rey": 2661,
      "Ġyours": 2662,
      "Ġda": 2663,
      "ĠAg": 2664,
      "Ġfollowing": 2665,
      "Ġcast": 2666,
      "Ġdoub": 2667,
      "ĠSec": 2668,
      "unk": 2669,
      "phone": 2670,
      "But": 2671,
      "Ġsouth": 2672,
      "Ġboat": 2673,
      "Ġcop": 2674,
      "ondon": 2675,
      "Ġcre": 2676,
      "ified": 2677,
      "Ġnoises": 2678,
      "Ġglass": 2679,
      "rod": 2680,
      "ĠDor": 2681,
      "Ġswim": 2682,
      "Ġwrote": 2683,
      "Ġwritten": 2684,
      "-l": 2685,
      "IT": 2686,
      "Ġfail": 2687,
      "ĠNovember": 2688,
      "ror": 2689,
      "Ġpark": 2690,
      "Ġhealth": 2691,
      "ĠSu": 2692,
      "Ġnorth": 2693,
      "Ġcoup": 2694,
      "Ġdiv": 2695,
      "ĠAh": 2696,
      "mpions": 2697,
      "Ġdest": 2698,
      "ospital": 2699,
      "Ġcomplete": 2700,
      "Ġprison": 2701,
      "Ġwarm": 2702,
      "Ġwhom": 2703,
      "ĠLondon": 2704,
      "ample": 2705,
      "Ġtrees": 2706,
      "Ġpost": 2707,
      "Ġusually": 2708,
      "ording": 2709,
      "thened": 2710,
      "Ġpen": 2711,
      "essie": 2712,
      "ĠUh": 2713,
      "ĠFebruary": 2714,
      "Ġpract": 2715,
      "Ġeveryone": 2716,
      "ww": 2717,
      "ĠMa": 2718,
      "Ġprop": 2719,
      "Ġcal": 2720,
      "Ġparent": 2721,
      "Ġmeant": 2722,
      "Ġ!": 2723,
      "ternational": 2724,
      "Ġlanguage": 2725,
      "fly": 2726,
      "Ġjour": 2727,
      "Ġdiffic": 2728,
      "ground": 2729,
      "att": 2730,
      "Ġknock": 2731,
      "Ġru": 2732,
      ",--": 2733,
      "eal": 2734,
      "Ġstri": 2735,
      "Ġdev": 2736,
      "ping": 2737,
      "Ġled": 2738,
      "usband": 2739,
      "ĠGet": 2740,
      "Ġdefe": 2741,
      "Ġriver": 2742,
      "Ġperfect": 2743,
      "Ġthirty": 2744,
      "Ġanymore": 2745,
      "Ġtelling": 2746,
      "Ġelect": 2747,
      "lt": 2748,
      "Ġpresident": 2749,
      "-m": 2750,
      "ĠWest": 2751,
      "Ġspell": 2752,
      "cent": 2753,
      "Ġvict": 2754,
      "ĠUrs": 2755,
      "ublic": 2756,
      "ĠCanad": 2757,
      "Ġcannot": 2758,
      "Ġlunch": 2759,
      "iod": 2760,
      "Ġdue": 2761,
      "ician": 2762,
      "ĠHowever": 2763,
      "Ġbreat": 2764,
      "ogn": 2765,
      "ĠCent": 2766,
      "Ġsave": 2767,
      "Ġtelevision": 2768,
      "ĠSund": 2769,
      "Ġfit": 2770,
      "Ġiss": 2771,
      "Ġworks": 2772,
      "Ġsnow": 2773,
      "ĠGeorge": 2774,
      "Ġformer": 2775,
      "Ġwhatever": 2776,
      "Ġwriting": 2777,
      "Ġentire": 2778,
      "Well": 2779,
      "iled": 2780,
      "ĠAfric": 2781,
      "Ġreturned": 2782,
      "Ġju": 2783,
      "Ġproper": 2784,
      "Ġpossible": 2785,
      "Ġwaiting": 2786,
      "hin": 2787,
      "rit": 2788,
      "Ġdanger": 2789,
      "Ġsick": 2790,
      "Ġmajor": 2791,
      "reed": 2792,
      "iew": 2793,
      "Ġenjoy": 2794,
      "Ġhig": 2795,
      "ceed": 2796,
      "emy": 2797,
      "oose": 2798,
      "ĠHave": 2799,
      "Ġreceived": 2800,
      "Ġmiddle": 2801,
      "Ġgeneral": 2802,
      ".'": 2803,
      "terday": 2804,
      "Ġresult": 2805,
      "Ġpuzz": 2806,
      "Ġfinish": 2807,
      "Ġlengthened": 2808,
      "aged": 2809,
      "Ġsuper": 2810,
      "Ġarms": 2811,
      "icy": 2812,
      "ĠEdna": 2813,
      "Ġcars": 2814,
      "Ġfootball": 2815,
      "Ġcry": 2816,
      "Ġfear": 2817,
      "Ġfield": 2818,
      "Ġlab": 2819,
      "AY": 2820,
      "Ġhusband": 2821,
      "Ġcream": 2822,
      "nect": 2823,
      "Ġwild": 2824,
      "Ġpat": 2825,
      "Ġregion": 2826,
      "ilver": 2827,
      "Ġdere": 2828,
      "Ġpolice": 2829,
      "Ġsecret": 2830,
      "Ġdrive": 2831,
      "Ġsol": 2832,
      "ID": 2833,
      "Ġelephan": 2834,
      "lin": 2835,
      "mo": 2836,
      "Ġauthor": 2837,
      "Ġord": 2838,
      "encil": 2839,
      "Ġtired": 2840,
      "Ġrad": 2841,
      "Ġarmy": 2842,
      "Ġbroke": 2843,
      "Ġdirect": 2844,
      "Ġdisapp": 2845,
      "Ġadm": 2846,
      "stairs": 2847,
      "OM": 2848,
      "Ġlad": 2849,
      "Ġpieces": 2850,
      "Ġlearn": 2851,
      "Ġcreated": 2852,
      "aser": 2853,
      "Ġneeds": 2854,
      "ustral": 2855,
      "Ġplaces": 2856,
      "Ġstudy": 2857,
      "Ġexactly": 2858,
      "TER": 2859,
      "ĠLord": 2860,
      "ĠIndian": 2861,
      "Ġcertainly": 2862,
      "olved": 2863,
      "ĠMaybe": 2864,
      "ĠAny": 2865,
      "Ġfeeling": 2866,
      "Ġexcept": 2867,
      "ization": 2868,
      "iday": 2869,
      "Ġposition": 2870,
      "Ġstraight": 2871,
      "Ġcouple": 2872,
      "ĠEX": 2873,
      "LE": 2874,
      "Ġactiv": 2875,
      "Ġclothes": 2876,
      "ances": 2877,
      "ĠSee": 2878,
      "Ġkiss": 2879,
      "Ġestab": 2880,
      "Ġgen": 2881,
      "Ġfavor": 2882,
      "Ġcell": 2883,
      "Ġearth": 2884,
      "ination": 2885,
      "llustr": 2886,
      "ti": 2887,
      "Ġself": 2888,
      "Ġyesterday": 2889,
      "Ġpencil": 2890,
      "ĠPol": 2891,
      "Ġindeed": 2892,
      "Ġdecided": 2893,
      "Ġeduc": 2894,
      "por": 2895,
      "Ġpoints": 2896,
      "view": 2897,
      "Ġcheese": 2898,
      "Ġgard": 2899,
      "Ġreached": 2900,
      "Ġsus": 2901,
      "ĠLea": 2902,
      "ĠLike": 2903,
      "Ġrecogn": 2904,
      "Ġcaught": 2905,
      "Ġchick": 2906,
      "igg": 2907,
      "ĠWilliam": 2908,
      "Ġsummer": 2909,
      "olution": 2910,
      "ĠDan": 2911,
      "Ġcollect": 2912,
      "uri": 2913,
      "ient": 2914,
      "Ġbright": 2915,
      "order": 2916,
      "Ġleaf": 2917,
      "ĠAND": 2918,
      "ĠAustral": 2919,
      "acy": 2920,
      "lex": 2921,
      "cially": 2922,
      "go": 2923,
      "ĠSy": 2924,
      "ills": 2925,
      "Ġang": 2926,
      "gest": 2927,
      "Ġbes": 2928,
      "ressed": 2929,
      "Ġsoftly": 2930,
      "ĠSunday": 2931,
      "reen": 2932,
      "ĠBo": 2933,
      "Ġview": 2934,
      "unicip": 2935,
      "Ġrul": 2936,
      "Ġbelong": 2937,
      "Ġpictures": 2938,
      "itted": 2939,
      "Ġla": 2940,
      "Ġfellow": 2941,
      "ĠSm": 2942,
      "ĠKe": 2943,
      "ishing": 2944,
      "Ġluck": 2945,
      "Ġhole": 2946,
      "Ġforward": 2947,
      "ĠAmerica": 2948,
      "Ġquickly": 2949,
      "itions": 2950,
      "Ġprin": 2951,
      "Ġapple": 2952,
      "ggest": 2953,
      "Ġtur": 2954,
      "Ġtot": 2955,
      "Ġcareful": 2956,
      "ĠGl": 2957,
      "ĠEle": 2958,
      "Ġsuppose": 2959,
      "US": 2960,
      "Ġputting": 2961,
      "Ġcurrent": 2962,
      "Ġbroken": 2963,
      "ĠThanks": 2964,
      "Ġce": 2965,
      "Ġesc": 2966,
      "noon": 2967,
      "Ġemp": 2968,
      "Ġcover": 2969,
      "ĠHen": 2970,
      "Ġclub": 2971,
      "LL": 2972,
      "hire": 2973,
      "Ġtruth": 2974,
      "Ġfill": 2975,
      "Ġpack": 2976,
      "Ġsuggest": 2977,
      "Ġvide": 2978,
      "ĠWal": 2979,
      "Ġsell": 2980,
      "soci": 2981,
      "ives": 2982,
      "ï¿½ï¿½ï¿½ï¿½": 2983,
      "ience": 2984,
      "Ġopened": 2985,
      "Ġvillage": 2986,
      "Ġ)": 2987,
      "Ġbur": 2988,
      "ĠCH": 2989,
      "oul": 2990,
      "Ġexample": 2991,
      "Ġholding": 2992,
      "ĠOK": 2993,
      "Ġdepartment": 2994,
      "ege": 2995,
      "ĠAld": 2996,
      "Ġuncle": 2997,
      "ris": 2998,
      "ences": 2999,
      "omb": 3000,
      "Ġafternoon": 3001,
      "Ġimag": 3002,
      "II": 3003,
      "ĠMer": 3004,
      "Ġperiod": 3005,
      "amer": 3006,
      "iger": 3007,
      "ploy": 3008,
      "Ġappear": 3009,
      "lands": 3010,
      "chan": 3011,
      "Ã¡": 3012,
      "Ġgiving": 3013,
      "Ġlaughing": 3014,
      "val": 3015,
      "Ġpopulation": 3016,
      "mon": 3017,
      "Ġsupposed": 3018,
      "Ġheavy": 3019,
      "Ġwww": 3020,
      "Ġchanged": 3021,
      "Ġinvest": 3022,
      "ission": 3023,
      "Ġrepresent": 3024,
      "bb": 3025,
      "kin": 3026,
      "Ġhast": 3027,
      "rible": 3028,
      "rug": 3029,
      "Ġdistrict": 3030,
      "pers": 3031,
      "Ġlocal": 3032,
      "iol": 3033,
      "Ġpretend": 3034,
      "Ġhorses": 3035,
      "ĠHi": 3036,
      "Ġfigure": 3037,
      "MA": 3038,
      "Ġconsider": 3039,
      "Ġcatch": 3040,
      "Ġanyway": 3041,
      "Ġnose": 3042,
      "ruction": 3043,
      "oura": 3044,
      "Ġdiscuss": 3045,
      "Ġinformation": 3046,
      "Ġban": 3047,
      "uture": 3048,
      "ĠHello": 3049,
      "ichard": 3050,
      "Ġhospital": 3051,
      "cell": 3052,
      "Ġhappens": 3053,
      "Ġdoubt": 3054,
      "ĠQue": 3055,
      "iced": 3056,
      "ops": 3057,
      "Ġworth": 3058,
      "Ġbas": 3059,
      "Ġsugar": 3060,
      "night": 3061,
      "ding": 3062,
      "Ġmatch": 3063,
      "ument": 3064,
      "Ġprocess": 3065,
      "ĠParty": 3066,
      "king": 3067,
      "ply": 3068,
      "Ġtit": 3069,
      "ĠSanta": 3070,
      "Ġï¿½": 3071,
      "Ġain": 3072,
      "ĠBessie": 3073,
      "ĠAlthough": 3074,
      ",'": 3075,
      "Ġtechn": 3076,
      "ivid": 3077,
      "GH": 3078,
      "Ġhous": 3079,
      "ĠBaby": 3080,
      "Ġmeeting": 3081,
      "ĠOF": 3082,
      "Ġshoot": 3083,
      "Ġhello": 3084,
      "nel": 3085,
      "apan": 3086,
      "Ġforest": 3087,
      "Ġburn": 3088,
      "Ġtoward": 3089,
      "Ġletters": 3090,
      "Ġaccept": 3091,
      "Ġ]": 3092,
      "Ġcharacter": 3093,
      "Ġshot": 3094,
      "Ġappeared": 3095,
      "ires": 3096,
      "yn": 3097,
      "Ġstat": 3098,
      "raft": 3099,
      "Ġrain": 3100,
      "Ġstopped": 3101,
      "ĠIT": 3102,
      "str": 3103,
      "Ġanybody": 3104,
      "Ġattempt": 3105,
      "Ġparents": 3106,
      "work": 3107,
      "eder": 3108,
      "Ġfort": 3109,
      "Ġcomb": 3110,
      "Ġcow": 3111,
      "Ġmaster": 3112,
      "ĠPark": 3113,
      "cience": 3114,
      "ĠAnge": 3115,
      "ighb": 3116,
      "GRA": 3117,
      "Ġjuice": 3118,
      "llustration": 3119,
      "Ġreading": 3120,
      "ips": 3121,
      "Ġcareer": 3122,
      "Ġobs": 3123,
      "Ġcentury": 3124,
      "nce": 3125,
      "viron": 3126,
      "Ġship": 3127,
      "He": 3128,
      "uke": 3129,
      "Ġmunicip": 3130,
      "ĠPeter": 3131,
      "ĠRichard": 3132,
      "Ġeighty": 3133,
      "now": 3134,
      "Ġdifficult": 3135,
      "OW": 3136,
      "fast": 3137,
      "ius": 3138,
      "Ġtast": 3139,
      "Ġsense": 3140,
      "Ġseat": 3141,
      "Illustration": 3142,
      "Ġliked": 3143,
      "Ġcontrol": 3144,
      "Ġgrew": 3145,
      "viously": 3146,
      "Ġtiny": 3147,
      "Ġforty": 3148,
      "ocol": 3149,
      "Ġfurther": 3150,
      "Ġbased": 3151,
      "That": 3152,
      "Ġwat": 3153,
      "ĠNina": 3154,
      "Ġvol": 3155,
      "Ġtrust": 3156,
      "Ġspir": 3157,
      "iment": 3158,
      "ille": 3159,
      "ĠNor": 3160,
      "Ġdecl": 3161,
      "Ġbread": 3162,
      "Ġfollowed": 3163,
      "Ġdie": 3164,
      "Ġleaving": 3165,
      "Ġmiles": 3166,
      "uation": 3167,
      "ĠRiver": 3168,
      "field": 3169,
      "Ġpaint": 3170,
      "ĠEven": 3171,
      "Ġtail": 3172,
      "Ġhol": 3173,
      "othy": 3174,
      "iling": 3175,
      "medi": 3176,
      "Ġpriv": 3177,
      "iers": 3178,
      "resh": 3179,
      "ray": 3180,
      "Ġworry": 3181,
      "Ġservice": 3182,
      "ĠGermany": 3183,
      "silver": 3184,
      "Ġnor": 3185,
      "Ġstation": 3186,
      "Ġphot": 3187,
      "Ġdogg": 3188,
      "ROG": 3189,
      "-C": 3190,
      "Ġbeat": 3191,
      "ĠCo": 3192,
      "ums": 3193,
      "ĠJane": 3194,
      "epend": 3195,
      "CH": 3196,
      "Ġregard": 3197,
      "ky": 3198,
      "Ġtowards": 3199,
      "play": 3200,
      "Ġdesc": 3201,
      "ĠBear": 3202,
      "ĠJapan": 3203,
      "vin": 3204,
      "Ġgas": 3205,
      "ural": 3206,
      "Ġteacher": 3207,
      "ĠNet": 3208,
      "Ġnearly": 3209,
      "AP": 3210,
      "what": 3211,
      "ift": 3212,
      "ander": 3213,
      "Ġbrown": 3214,
      "Ġmoving": 3215,
      "EX": 3216,
      "Ġdanc": 3217,
      "Ġfuture": 3218,
      "Ġstrange": 3219,
      "olute": 3220,
      "Ġcapital": 3221,
      "AM": 3222,
      "Ġnatur": 3223,
      "Ġbeginning": 3224,
      "Ġsuddenly": 3225,
      "that": 3226,
      "Ġlau": 3227,
      "Ġspend": 3228,
      "vironment": 3229,
      "cer": 3230,
      "iff": 3231,
      "Ġforgot": 3232,
      "ĠTed": 3233,
      "wered": 3234,
      "ichael": 3235,
      "RIC": 3236,
      "Ġtap": 3237,
      "Ġplate": 3238,
      "Ġlose": 3239,
      "Ġshoes": 3240,
      "Ġlocated": 3241,
      "ĠTwo": 3242,
      "ites": 3243,
      "Ġneck": 3244,
      "Ġflowers": 3245,
      "ino": 3246,
      "ests": 3247,
      "ĠSorry": 3248,
      "Ġclaim": 3249,
      "rill": 3250,
      "riage": 3251,
      "Ġcompl": 3252,
      "Ġnobody": 3253,
      "Ġexcl": 3254,
      "Ġsight": 3255,
      "Ġitself": 3256,
      "ourt": 3257,
      "Ġproblems": 3258,
      "ĠTex": 3259,
      "Ġoffe": 3260,
      "ades": 3261,
      "Ġstarts": 3262,
      "Ġport": 3263,
      "ĠWH": 3264,
      "Ġboard": 3265,
      "ĠJeff": 3266,
      "Ġsevent": 3267,
      "ĠDuring": 3268,
      "ocr": 3269,
      "Ġlim": 3270,
      "ĠSince": 3271,
      "acing": 3272,
      "ption": 3273,
      "ograp": 3274,
      "aff": 3275,
      "Ġneighb": 3276,
      "Ġcompan": 3277,
      "Ġsupper": 3278,
      "-h": 3279,
      "itary": 3280,
      "iforn": 3281,
      "ference": 3282,
      "ĠCaptain": 3283,
      "ĠDes": 3284,
      "Ġjud": 3285,
      "Ġanimal": 3286,
      "ĠQu": 3287,
      "Ġut": 3288,
      "Ġorange": 3289,
      "Ġquar": 3290,
      "Ġscared": 3291,
      "ĠJo": 3292,
      "like": 3293,
      "worth": 3294,
      "bl": 3295,
      "ĠMc": 3296,
      "ĠUS": 3297,
      "Ġcrit": 3298,
      "Ġcaused": 3299,
      "VE": 3300,
      "ume": 3301,
      "Ġanswered": 3302,
      "uses": 3303,
      "stit": 3304,
      "Ġconnect": 3305,
      "AD": 3306,
      "ĠSchool": 3307,
      "uted": 3308,
      "ĠRoman": 3309,
      "Ġbene": 3310,
      "Ġcard": 3311,
      "Ġsubject": 3312,
      "well": 3313,
      "Ġdam": 3314,
      "Ġdance": 3315,
      "ĠFirst": 3316,
      "aturday": 3317,
      "Ġseason": 3318,
      "ifornia": 3319,
      "omes": 3320,
      "Ġenc": 3321,
      "Ġwonderful": 3322,
      "ĠTur": 3323,
      "cture": 3324,
      "oops": 3325,
      "pecially": 3326,
      "aining": 3327,
      "Ġshar": 3328,
      "ĠFraser": 3329,
      "Ġgarden": 3330,
      "Ġmad": 3331,
      "ĠLou": 3332,
      "Ġris": 3333,
      "Ġchurch": 3334,
      "Ġfinal": 3335,
      "Ġpublished": 3336,
      "ially": 3337,
      "Ġident": 3338,
      "Ġpati": 3339,
      "Ġcarried": 3340,
      "Ġvers": 3341,
      "ache": 3342,
      "Ġcircle": 3343,
      "Ġfinger": 3344,
      "uty": 3345,
      "ĠGree": 3346,
      "Ġengine": 3347,
      "Ġnina": 3348,
      "Ġtrack": 3349,
      "board": 3350,
      "puts": 3351,
      "ĠMichael": 3352,
      "Ġblocks": 3353,
      "ĠState": 3354,
      "ergy": 3355,
      "ids": 3356,
      "conom": 3357,
      "Ġ&": 3358,
      "Ġwide": 3359,
      "ĠFin": 3360,
      "ĠEn": 3361,
      "Ġvarious": 3362,
      "Ġcorner": 3363,
      "Ġdise": 3364,
      "itz": 3365,
      "Ġmention": 3366,
      "lymp": 3367,
      "ĠPeople": 3368,
      "ĠCalifornia": 3369,
      "ĠAct": 3370,
      "Ġep": 3371,
      "ĠCr": 3372,
      "ĠRed": 3373,
      "Ġbusy": 3374,
      "ĠDorothy": 3375,
      "-g": 3376,
      "ĠMed": 3377,
      "yer": 3378,
      "ĠÃ": 3379,
      "antly": 3380,
      "Ġcommune": 3381,
      "sy": 3382,
      "ĠHa": 3383,
      "Ġvideo": 3384,
      "Ġmix": 3385,
      "raph": 3386,
      "ĠOlymp": 3387,
      "Ġindivid": 3388,
      "imate": 3389,
      "Ġpolitical": 3390,
      "Ġbottom": 3391,
      "Ġaccount": 3392,
      "irm": 3393,
      "Ġchocol": 3394,
      "tered": 3395,
      "Ġloved": 3396,
      "Ġdinos": 3397,
      "ĠChan": 3398,
      "Ġpolitician": 3399,
      "uction": 3400,
      "rect": 3401,
      "Ġrelig": 3402,
      "makes": 3403,
      "itive": 3404,
      "ĠTake": 3405,
      "âĢĺ": 3406,
      "ĠJew": 3407,
      "Ġquestions": 3408,
      "itched": 3409,
      "Ġmid": 3410,
      "ĠMon": 3411,
      "ĠColl": 3412,
      "Ġparts": 3413,
      "Ġdeter": 3414,
      "ĠEast": 3415,
      "Ġlie": 3416,
      "Ġseeing": 3417,
      "Ġthanks": 3418,
      "Ġcalling": 3419,
      "pes": 3420,
      "ico": 3421,
      "ĠRob": 3422,
      "ummy": 3423,
      "Ġbye": 3424,
      "Ġcrying": 3425,
      "Ġhy": 3426,
      "ĠSan": 3427,
      "Ġlovely": 3428,
      "ĠSaturday": 3429,
      "ously": 3430,
      "ĠVisit": 3431,
      "yy": 3432,
      "ĠAunt": 3433,
      "Ġcountries": 3434,
      "ancy": 3435,
      "Ġfilm": 3436,
      "Ġfeed": 3437,
      "Ġobjects": 3438,
      "Ġdelight": 3439,
      "Ġreplied": 3440,
      "ĠRepublic": 3441,
      "Ġsixty": 3442,
      "ĠIndia": 3443,
      "bers": 3444,
      "Ġought": 3445,
      "Ġgar": 3446,
      "ĠAlex": 3447,
      "Ġpuzzle": 3448,
      "Ġfinally": 3449,
      ".S": 3450,
      "Ġimmedi": 3451,
      "ĠTexas": 3452,
      "ida": 3453,
      "ĠWhile": 3454,
      "ils": 3455,
      "]!": 3456,
      "Ġproject": 3457,
      "Ġbank": 3458,
      "Ġmus": 3459,
      "Ġgames": 3460,
      "Ġbackground": 3461,
      "ivil": 3462,
      "ĠAust": 3463,
      "Ġbreakfast": 3464,
      "het": 3465,
      "ĠErm": 3466,
      "Home": 3467,
      "Ġvis": 3468,
      "Ġtype": 3469,
      "ĠItaly": 3470,
      "CK": 3471,
      "Ġnames": 3472,
      "urity": 3473,
      "Ġinfl": 3474,
      "ĠList": 3475,
      "Ġsinging": 3476,
      "af": 3477,
      "Ġsad": 3478,
      "Ġbell": 3479,
      "look": 3480,
      "sey": 3481,
      "Ġbutterfly": 3482,
      "oring": 3483,
      "oop": 3484,
      "ĠOx": 3485,
      "ĠUrsula": 3486,
      "Ġchocolate": 3487,
      "omen": 3488,
      "ĠJer": 3489,
      "Ġclimb": 3490,
      "Ġlock": 3491,
      "Ġhall": 3492,
      "ira": 3493,
      "ĠCor": 3494,
      "Ġbottle": 3495,
      "Ġpush": 3496,
      "Ġwatching": 3497,
      "Ġchicken": 3498,
      "how": 3499,
      "round": 3500,
      "Ġonto": 3501,
      "Ġspoon": 3502,
      "ĠâĢľâĢĺ": 3503,
      "Ġpopular": 3504,
      "Ġlift": 3505,
      "Ġcarry": 3506,
      "ĠCrom": 3507,
      "Ġexist": 3508,
      "Ġlegs": 3509,
      "Ġyyy": 3510,
      "Ġkitty": 3511,
      "ilar": 3512,
      "pered": 3513,
      "Ġphys": 3514,
      "?âĢĿ": 3515,
      "ĠTell": 3516,
      "ĠMad": 3517,
      "Ġforce": 3518,
      "Ġrace": 3519,
      "Ġbigger": 3520,
      "AK": 3521,
      "Ġtall": 3522,
      "Ġwel": 3523,
      "Ġputs": 3524,
      "Ġfarm": 3525,
      "Ġwow": 3526,
      "Ġcomfort": 3527,
      "Ġspoke": 3528,
      "Ġviol": 3529,
      "Ġaccident": 3530,
      "Why": 3531,
      "ĠCouncil": 3532,
      "ĠRes": 3533,
      "Ġshop": 3534,
      "ression": 3535,
      "Th": 3536,
      "ĠMart": 3537,
      "liament": 3538,
      "RI": 3539,
      "rel": 3540,
      "ĠSomet": 3541,
      "Ġreach": 3542,
      "Ġplastic": 3543,
      "picks": 3544,
      "roy": 3545,
      "ĠFlore": 3546,
      "Ġsimply": 3547,
      "mond": 3548,
      "ration": 3549,
      "Ġmach": 3550,
      "ĠMic": 3551,
      "cher": 3552,
      "hood": 3553,
      "nie": 3554,
      "har": 3555,
      "Ġpeace": 3556,
      "ples": 3557,
      "Ġallowed": 3558,
      "ĠFather": 3559,
      "Ġgrass": 3560,
      "aud": 3561,
      "Ġneeded": 3562,
      "Ġkey": 3563,
      "Ġindust": 3564,
      "Ġdiscovered": 3565,
      "Ġattention": 3566,
      "Ġcourt": 3567,
      "omin": 3568,
      "Ġstars": 3569,
      "ĠWhite": 3570,
      "Ġbirds": 3571,
      "Ġscient": 3572,
      "Ġstuck": 3573,
      "Ġcomput": 3574,
      "ĠGovern": 3575,
      "Ġeggs": 3576,
      "Ġ$": 3577,
      "Ġbab": 3578,
      "Ġanx": 3579,
      "uel": 3580,
      "urse": 3581,
      "apa": 3582,
      "Ġremark": 3583,
      "Ġasking": 3584,
      "Ġdrop": 3585,
      "Ġperform": 3586,
      "Ġmem": 3587,
      "Ġshout": 3588,
      "Ġshare": 3589,
      "nal": 3590,
      "Ġtour": 3591,
      "Ġalive": 3592,
      "agn": 3593,
      "ubb": 3594,
      "ĠChampions": 3595,
      "reme": 3596,
      "ĠWait": 3597,
      "Ġtravel": 3598,
      "Ġsepar": 3599,
      "Ġsomewhere": 3600,
      "Ġflat": 3601,
      "COU": 3602,
      "-A": 3603,
      "Ġmass": 3604,
      "rab": 3605,
      "Ġtrad": 3606,
      "Ġresearch": 3607,
      "ĠCourt": 3608,
      "sequ": 3609,
      "Ġsocial": 3610,
      "ables": 3611,
      "Ġshowed": 3612,
      "asket": 3613,
      "Ġarrived": 3614,
      "Ġrespect": 3615,
      "Ġhost": 3616,
      "pping": 3617,
      "ĠHenry": 3618,
      "ĠQueen": 3619,
      "ili": 3620,
      "Ġfeat": 3621,
      "gon": 3622,
      "Ġbought": 3623,
      "Ġnecess": 3624,
      "ĠJim": 3625,
      "gged": 3626,
      "Ġslice": 3627,
      "Ġhate": 3628,
      "wood": 3629,
      "ĠSam": 3630,
      "ĠGrand": 3631,
      "eg": 3632,
      "Ġhelped": 3633,
      "ek": 3634,
      "Ġfresh": 3635,
      "Ġeff": 3636,
      "unny": 3637,
      "Ġgrad": 3638,
      "Ġpromise": 3639,
      "Ġduck": 3640,
      "Ġnorm": 3641,
      "icle": 3642,
      "ria": 3643,
      "Ġprep": 3644,
      "Ġcontinued": 3645,
      "erve": 3646,
      "Ġbeach": 3647,
      "ĠMond": 3648,
      "ĠLittle": 3649,
      "Ġcloud": 3650,
      "Ġespecially": 3651,
      "Ġthou": 3652,
      "ĠTony": 3653,
      "lect": 3654,
      "Ġstraw": 3655,
      "Ġrole": 3656,
      "Ġaccom": 3657,
      "Ġrefer": 3658,
      "Ġbattle": 3659,
      "ĠPort": 3660,
      "ĠJames": 3661,
      "ĠMinister": 3662,
      "ĠVery": 3663,
      "Ġwalked": 3664,
      "ĠEXP": 3665,
      "ĠBet": 3666,
      "line": 3667,
      "Ġsna": 3668,
      "ĠRober": 3669,
      "Ġproud": 3670,
      "ĠBlack": 3671,
      "Ġmeat": 3672,
      "Ġsticks": 3673,
      "nic": 3674,
      "ANN": 3675,
      "Ġspecies": 3676,
      "Ġaut": 3677,
      "Ġstage": 3678,
      "Ġexam": 3679,
      "Ġearli": 3680,
      "ĠCla": 3681,
      "Ġoccur": 3682,
      "Ġfre": 3683,
      "ĠHung": 3684,
      "Ġrelations": 3685,
      "Ġlearned": 3686,
      "Ġjoined": 3687,
      "ĠHist": 3688,
      "Ġpossess": 3689,
      "ĠRussian": 3690,
      "ĠAnt": 3691,
      "ĠMor": 3692,
      "Ġaff": 3693,
      "Ġemploy": 3694,
      "erved": 3695,
      "Ġrepe": 3696,
      "Ġweren": 3697,
      "Ġrights": 3698,
      "Ġleaves": 3699,
      "utch": 3700,
      "ĠWould": 3701,
      "ĠON": 3702,
      "Ġextra": 3703,
      "Ġshut": 3704,
      "ĠStop": 3705,
      "Ġblank": 3706,
      "ival": 3707,
      "ĠMarc": 3708,
      "ĠSpan": 3709,
      "oken": 3710,
      "Ġlots": 3711,
      "ĠReg": 3712,
      "Ġcult": 3713,
      "Ġlikely": 3714,
      "ods": 3715,
      "ĠSte": 3716,
      "Ġpercent": 3717,
      "ĠEuropean": 3718,
      "Ġwalking": 3719,
      "ĠPal": 3720,
      "Ġtor": 3721,
      "osta": 3722,
      "ĠUncle": 3723,
      "Ġcommand": 3724,
      "Ġairpl": 3725,
      "Ġsleeping": 3726,
      "Ġmarket": 3727,
      "ause": 3728,
      "Ġnon": 3729,
      "ĠPat": 3730,
      "Ġimm": 3731,
      "Ġturning": 3732,
      "Ġbelieved": 3733,
      "Ġsky": 3734,
      "Ġproduct": 3735,
      "Ġflew": 3736,
      "Ġspent": 3737,
      "Ġconvers": 3738,
      "ĠThom": 3739,
      "ĠFlorence": 3740,
      "GMA": 3741,
      "Ġshows": 3742,
      "Ġmater": 3743,
      "Ġspread": 3744,
      "Ġclock": 3745,
      "-y": 3746,
      "Ġinteresting": 3747,
      "Ġnone": 3748,
      "ĠLady": 3749,
      "orts": 3750,
      "Ġdropped": 3751,
      "Ġestablished": 3752,
      "NG": 3753,
      "Ġfem": 3754,
      "Ġscr": 3755,
      "Ġassist": 3756,
      "iving": 3757,
      "of": 3758,
      "va": 3759,
      "Ġremained": 3760,
      "light": 3761,
      "Ġcher": 3762,
      "Ġfat": 3763,
      "Ġclosed": 3764,
      "Ġenvironment": 3765,
      "Ġhigher": 3766,
      "ĠOxford": 3767,
      "ĠCromer": 3768,
      "FA": 3769,
      "yle": 3770,
      "Ġears": 3771,
      "ĠBel": 3772,
      "HIS": 3773,
      "ĠSum": 3774,
      "roat": 3775,
      "Ġstudents": 3776,
      "Ġcharge": 3777,
      "Ġinf": 3778,
      "Ġsex": 3779,
      "Ġplant": 3780,
      "singing": 3781,
      "ston": 3782,
      "Ġintrod": 3783,
      "Ġrespons": 3784,
      "Ġver": 3785,
      "ĠMama": 3786,
      "ĠLaw": 3787,
      "Ġrich": 3788,
      "Ġelection": 3789,
      "Ġdogs": 3790,
      "UT": 3791,
      "ya": 3792,
      "isc": 3793,
      "ato": 3794,
      "Ġdisease": 3795,
      "Ġamount": 3796,
      "yond": 3797,
      "Ġshouldn": 3798,
      "ĠKingdom": 3799,
      "ghed": 3800,
      "pha": 3801,
      "hem": 3802,
      "cious": 3803,
      "Ġslowly": 3804,
      "Ġdeveloped": 3805,
      "Ġweap": 3806,
      "Ġareas": 3807,
      "ĠFrank": 3808,
      "Ġcapt": 3809,
      "Ġoffered": 3810,
      "ners": 3811,
      "Ġsour": 3812,
      "Ġevidence": 3813,
      "Ġmunicipality": 3814,
      "off": 3815,
      "ses": 3816,
      "Ġpock": 3817,
      "Ġchief": 3818,
      "ĠReally": 3819,
      "Ġmagnets": 3820,
      "Ġeast": 3821,
      "Ġbeha": 3822,
      "Ġplaced": 3823,
      "Ġadded": 3824,
      "Ġoccas": 3825,
      "Ġnatural": 3826,
      "lor": 3827,
      "asant": 3828,
      "Ġwash": 3829,
      "Ġforth": 3830,
      "erson": 3831,
      "Ġvo": 3832,
      "umph": 3833,
      "Ġterm": 3834,
      "ĠCanada": 3835,
      "inal": 3836,
      "Ġisland": 3837,
      "Ġteeth": 3838,
      "eneral": 3839,
      "Ġinclude": 3840,
      "ĠFriday": 3841,
      "Ġdry": 3842,
      "ĠBob": 3843,
      "iance": 3844,
      "Ġdrug": 3845,
      "Ġtower": 3846,
      "Ġinj": 3847,
      "ĠHall": 3848,
      "Ġconside": 3849,
      "Ġconsidered": 3850,
      "Ross": 3851,
      "ĠMil": 3852,
      "ĠHam": 3853,
      "Ġstudio": 3854,
      "Ġimpro": 3855,
      "ĠMex": 3856,
      "Ġthreat": 3857,
      "Ġeconom": 3858,
      "OO": 3859,
      "uk": 3860,
      "inary": 3861,
      "Ġnope": 3862,
      "ords": 3863,
      "oyal": 3864,
      "oming": 3865,
      "Ġdevelopment": 3866,
      "'T": 3867,
      "ĠSer": 3868,
      "ĠMass": 3869,
      "ustom": 3870,
      "ĠOur": 3871,
      "olf": 3872,
      "Ġpossib": 3873,
      "Ġsurprise": 3874,
      "Ġdeg": 3875,
      "ĠStreet": 3876,
      "Ġbite": 3877,
      "Ġalthough": 3878,
      "She": 3879,
      "mm": 3880,
      "Ġpal": 3881,
      "Ġpath": 3882,
      "Ġemb": 3883,
      "Ġstayed": 3884,
      "Ġproduced": 3885,
      "Ġcous": 3886,
      "Ġ[?": 3887,
      "Ġstories": 3888,
      "ĠBrian": 3889,
      "Ġsearch": 3890,
      "Ġrid": 3891,
      "ciety": 3892,
      "set": 3893,
      "ĠSch": 3894,
      "'?": 3895,
      "Ġtiger": 3896,
      "vey": 3897,
      "ĠHigh": 3898,
      "Ġvan": 3899,
      "ĠDem": 3900,
      "Ġsuff": 3901,
      "Ġaddition": 3902,
      "Ġelephant": 3903,
      "Ġur": 3904,
      "Ġrose": 3905,
      "Ġexcuse": 3906,
      "oly": 3907,
      "ĠRam": 3908,
      "Ġcompletely": 3909,
      "pper": 3910,
      "Ġblow": 3911,
      "Ġprevent": 3912,
      "Ġcommunity": 3913,
      "Ġsignific": 3914,
      "ĠRobert": 3915,
      "oved": 3916,
      "Ġide": 3917,
      "ĠLot": 3918,
      "Ġplayer": 3919,
      "Ġways": 3920,
      "Ġninety": 3921,
      "ĠAustralia": 3922,
      "Ġangry": 3923,
      "Ġyell": 3924,
      "icked": 3925,
      "cuse": 3926,
      "Ġcoc": 3927,
      "olutely": 3928,
      "aft": 3929,
      "ĠMany": 3930,
      "ĠVer": 3931,
      "Ġbroad": 3932,
      "Ġfavorite": 3933,
      "Ġeducation": 3934,
      "BR": 3935,
      "Ġbrie": 3936,
      "ashed": 3937,
      "lend": 3938,
      "chie": 3939,
      "Ġskin": 3940,
      "Ġjourney": 3941,
      "Ġlaughed": 3942,
      "owd": 3943,
      "vere": 3944,
      "ĠSal": 3945,
      "ively": 3946,
      "Ġsens": 3947,
      "Ġhouses": 3948,
      "ials": 3949,
      "ĠJes": 3950,
      "Ġsituation": 3951,
      "Ġentered": 3952,
      "ĠMonday": 3953,
      "sp": 3954,
      "van": 3955,
      "Ã¼": 3956,
      "elve": 3957,
      "Ġimmediately": 3958,
      "Don": 3959,
      "Ġdate": 3960,
      "asing": 3961,
      "Ġserious": 3962,
      "ĠAnn": 3963,
      "Ġleader": 3964,
      "Ġsimilar": 3965,
      "Ġpaid": 3966,
      "Ġspring": 3967,
      "aker": 3968,
      "Ġenemy": 3969,
      "Ġpray": 3970,
      "izz": 3971,
      "Ġslight": 3972,
      "Ġterrible": 3973,
      "Ġowl": 3974,
      "Ġcos": 3975,
      "ĠMag": 3976,
      "ooper": 3977,
      "Ġspot": 3978,
      "Ġairplane": 3979,
      "Ġrev": 3980,
      "ĠCong": 3981,
      "atives": 3982,
      "ville": 3983,
      "Ġcru": 3984,
      "ĠAcc": 3985,
      "Ġdar": 3986,
      "anor": 3987,
      "Ġmanage": 3988,
      "oups": 3989,
      "ĠII": 3990,
      "Ġund": 3991,
      "Ġenergy": 3992,
      "Ġfighting": 3993,
      "Ġtelephone": 3994,
      "Ġhero": 3995,
      "ĠMost": 3996,
      "ĠHE": 3997,
      "rael": 3998,
      "Ġaction": 3999,
      "Ġpurp": 4000,
      "Ġavail": 4001,
      "clock": 4002,
      "Ġdirected": 4003,
      "EW": 4004,
      "fact": 4005,
      "Ġiron": 4006,
      "ĠMal": 4007,
      "ĠEff": 4008,
      "Ġuhuh": 4009,
      "Ġmilitary": 4010,
      "Ġtemper": 4011,
      "Ġdeterm": 4012,
      "Ġwelcome": 4013,
      "ators": 4014,
      "ĠBE": 4015,
      "Ġoffer": 4016,
      "--------": 4017,
      "-in": 4018,
      "bon": 4019,
      "Ġcab": 4020,
      "ĠST": 4021,
      "ĠPri": 4022,
      "Ġjoy": 4023,
      "ulf": 4024,
      "acks": 4025,
      "ledge": 4026,
      "Ġlaughs": 4027,
      "aimed": 4028,
      "cast": 4029,
      "ĠMel": 4030,
      "Ġexec": 4031,
      "SS": 4032,
      "ĠHan": 4033,
      "Ġworse": 4034,
      "Ġbelow": 4035,
      "Ġhurry": 4036,
      "she": 4037,
      "Ġinit": 4038,
      "Ġstom": 4039,
      "Ġmovement": 4040,
      "Ġaddress": 4041,
      "kn": 4042,
      "ami": 4043,
      "ĠDolly": 4044,
      "Ġdollars": 4045,
      "Ġpun": 4046,
      "Ġlying": 4047,
      "hington": 4048,
      "Ġfalls": 4049,
      "ĠParis": 4050,
      "bre": 4051,
      "Ġnature": 4052,
      "ims": 4053,
      "Ġneg": 4054,
      "Ġdisp": 4055,
      "ERE": 4056,
      "inct": 4057,
      "iles": 4058,
      "ĠHel": 4059,
      "ĠNothing": 4060,
      "ĠTHAT": 4061,
      "Ġsle": 4062,
      "Ġspeaking": 4063,
      "ĠBer": 4064,
      "esta": 4065,
      "Ġden": 4066,
      "ĠDep": 4067,
      "orthern": 4068,
      "Ġtalked": 4069,
      "Ġsoldiers": 4070,
      "Ġlines": 4071,
      "Ġlikes": 4072,
      "reng": 4073,
      "ĠEffie": 4074,
      "-S": 4075,
      "Ġbill": 4076,
      "Ġfru": 4077,
      "Ġdistance": 4078,
      "Ġprofessional": 4079,
      ",âĢĻ": 4080,
      "ups": 4081,
      "has": 4082,
      "Ġbud": 4083,
      "Ġfright": 4084,
      "Ġbeyond": 4085,
      "Ġbreath": 4086,
      "Ġstone": 4087,
      "Ġguard": 4088,
      "ĠWashington": 4089,
      "outhern": 4090,
      "Ġinvolved": 4091,
      "Ġfingers": 4092,
      "There": 4093,
      "cul": 4094,
      "ĠCup": 4095,
      "Ġcounty": 4096,
      "Ġsurv": 4097,
      "Ġmetal": 4098,
      "ĠLeague": 4099,
      "Ġtitle": 4100,
      "-day": 4101,
      "Ġupstairs": 4102,
      "Ġfamous": 4103,
      "Ġpleasure": 4104,
      "Ġbrain": 4105,
      "HE": 4106,
      "oted": 4107,
      "Ġfalling": 4108,
      "Ġspirit": 4109,
      "met": 4110,
      "using": 4111,
      "Ġsett": 4112,
      "whis": 4113,
      "Ġdestroy": 4114,
      "Ġwest": 4115,
      "Ġfund": 4116,
      "ĠUp": 4117,
      "Ġprim": 4118,
      "Ġrab": 4119,
      "Ġdifference": 4120,
      "Ġthinks": 4121,
      "Ġdinosaur": 4122,
      ".âĢĻ": 4123,
      "nded": 4124,
      "ĠAc": 4125,
      "aine": 4126,
      "aps": 4127,
      "Ġgroups": 4128,
      "enced": 4129,
      "Ġwinter": 4130,
      "ĠCharles": 4131,
      "Ġswimming": 4132,
      "Ġinflu": 4133,
      "ĠRo": 4134,
      "ĠBeck": 4135,
      "Ġhistor": 4136,
      "Ġspecific": 4137,
      "ential": 4138,
      "ĠGold": 4139,
      "Ġspoken": 4140,
      "oughs": 4141,
      "ĠChristian": 4142,
      "Ġlargest": 4143,
      "Ġmir": 4144,
      "rupt": 4145,
      "Ġopport": 4146,
      "ĠEarth": 4147,
      "lebr": 4148,
      "Ġcancer": 4149,
      "azing": 4150,
      "lam": 4151,
      "Ġbasket": 4152,
      "Ġnut": 4153,
      "ensive": 4154,
      "Ġindepend": 4155,
      "ĠThomas": 4156,
      "\")": 4157,
      "ipped": 4158,
      "Ġhide": 4159,
      "ours": 4160,
      "osing": 4161,
      "ography": 4162,
      "ĠLouis": 4163,
      "arm": 4164,
      "ĠMore": 4165,
      "antic": 4166,
      "apers": 4167,
      "Ġaged": 4168,
      "ĠOnly": 4169,
      "Ġmedic": 4170,
      "oid": 4171,
      "Ġwet": 4172,
      "Ġpet": 4173,
      "ails": 4174,
      "Ġinn": 4175,
      "Ġbound": 4176,
      "ify": 4177,
      "ĠGeneral": 4178,
      "Ġnumbers": 4179,
      "Ġballs": 4180,
      "ĠScot": 4181,
      "Ġdressed": 4182,
      "Ġparticularly": 4183,
      "Ġstrawber": 4184,
      "Ġstarting": 4185,
      "Ġprivate": 4186,
      "itude": 4187,
      "Ġfoc": 4188,
      "Ġhun": 4189,
      "usion": 4190,
      "ĠMike": 4191,
      "dd": 4192,
      "Ġtend": 4193,
      "Ġmic": 4194,
      "ĠRec": 4195,
      "Ġolder": 4196,
      "Ġofficer": 4197,
      "wich": 4198,
      "inc": 4199,
      "Ġsize": 4200,
      "itor": 4201,
      "ĠPet": 4202,
      "ĠIsrael": 4203,
      "Ġdriving": 4204,
      "holds": 4205,
      "ĠSmith": 4206,
      "Ġnar": 4207,
      "Ġscar": 4208,
      "ĠMac": 4209,
      "Ġformed": 4210,
      "Ġrule": 4211,
      "Ġdig": 4212,
      "cean": 4213,
      "Ġ(\"": 4214,
      "razy": 4215,
      "Ġscream": 4216,
      "Ġcrack": 4217,
      "Ġfounded": 4218,
      "Ġjoin": 4219,
      "'clock": 4220,
      "Ġtick": 4221,
      "oph": 4222,
      "ĠBefore": 4223,
      "ique": 4224,
      "ki": 4225,
      "Ġmeaning": 4226,
      "Ġsimple": 4227,
      "father": 4228,
      "Ġcivil": 4229,
      "Ġpink": 4230,
      "Ġthus": 4231,
      "ila": 4232,
      "ĠLat": 4233,
      "Ġcocoon": 4234,
      "bles": 4235,
      "ipe": 4236,
      "Ġmult": 4237,
      "ushing": 4238,
      "ĠJul": 4239,
      "Ġtwelve": 4240,
      "ĠUnion": 4241,
      "ighs": 4242,
      "Ġtraining": 4243,
      "anced": 4244,
      "ĠJoe": 4245,
      "Ġmagic": 4246,
      "aded": 4247,
      "ĠBat": 4248,
      "ĠDO": 4249,
      "Ġsposta": 4250,
      "Ġrap": 4251,
      "Ġraised": 4252,
      "Ġindic": 4253,
      "Ġapart": 4254,
      "-M": 4255,
      "Ġtaught": 4256,
      "Ġnet": 4257,
      "ĠDar": 4258,
      "Ġgives": 4259,
      "Ġmountain": 4260,
      "Ġinvestig": 4261,
      "Ġearlier": 4262,
      "Ġrabbit": 4263,
      "Ġoil": 4264,
      "onounced": 4265,
      "Ġmere": 4266,
      "Ġspeed": 4267,
      "ointed": 4268,
      "Ġbrave": 4269,
      "Ġmessage": 4270,
      "Ġtotal": 4271,
      "Ġcrowd": 4272,
      "ograph": 4273,
      "izing": 4274,
      "Ġchim": 4275,
      "Ġturns": 4276,
      "Ġmonkey": 4277,
      "Ġexperience": 4278,
      "ĠMOT": 4279,
      "Ġgall": 4280,
      "ĠRos": 4281,
      "Ġterms": 4282,
      "Ġdoggie": 4283,
      "How": 4284,
      "Ġbal": 4285,
      "Ġinternational": 4286,
      "cks": 4287,
      "Ġquietly": 4288,
      "oons": 4289,
      "vert": 4290,
      "Ġsmile": 4291,
      "Ġended": 4292,
      "ĠAbout": 4293,
      "Ġcomputer": 4294,
      "burg": 4295,
      "Ġmouse": 4296,
      "ĠSen": 4297,
      "isters": 4298,
      "bert": 4299,
      "Ġpicked": 4300,
      "Ġavailable": 4301,
      "gigg": 4302,
      "Ġstreng": 4303,
      "ĠWed": 4304,
      "Ġcorrect": 4305,
      "Ġpocket": 4306,
      "host": 4307,
      "mel": 4308,
      "sha": 4309,
      "Ġcere": 4310,
      "Ġremain": 4311,
      "ĠChurch": 4312,
      "Ġdepart": 4313,
      "Ġtaste": 4314,
      "Ġrisk": 4315,
      "Ġconversation": 4316,
      "wise": 4317,
      "Ġloss": 4318,
      "Ġplays": 4319,
      "ĠDoes": 4320,
      "ĠParliament": 4321,
      "Ã¶": 4322,
      "ĠNesta": 4323,
      "vious": 4324,
      "Ġfool": 4325,
      "asc": 4326,
      "ota": 4327,
      "etts": 4328,
      "Ġthroat": 4329,
      "ĠSure": 4330,
      "ĠBraz": 4331,
      "ĠDutch": 4332,
      "Ġdeli": 4333,
      "oms": 4334,
      "roll": 4335,
      "ĠPen": 4336,
      "ashion": 4337,
      "Ġsquare": 4338,
      "pan": 4339,
      "Ġcute": 4340,
      "Ġchoice": 4341,
      "Ġcelebr": 4342,
      "Ġepis": 4343,
      "ĠMarg": 4344,
      "ĠEliz": 4345,
      "ĠME": 4346,
      "ĠLab": 4347,
      "ĠFred": 4348,
      "Ġtherefore": 4349,
      "achus": 4350,
      "ological": 4351,
      "Ġoriginal": 4352,
      "pite": 4353,
      "ĠJose": 4354,
      "ĠInternational": 4355,
      "Ġmurder": 4356,
      "ourage": 4357,
      "Ġsharp": 4358,
      "ĠApp": 4359,
      "ĠRod": 4360,
      "Ġlength": 4361,
      "ĠAfrican": 4362,
      "LY": 4363,
      "ss": 4364,
      "inite": 4365,
      "arian": 4366,
      "ica": 4367,
      "ĠBert": 4368,
      "eds": 4369,
      "Ġdoc": 4370,
      "Ġshowing": 4371,
      "Ġsettle": 4372,
      "Ġlawyer": 4373,
      "nesday": 4374,
      "ĠBill": 4375,
      "Ġfaith": 4376,
      "GHT": 4377,
      "ĠEll": 4378,
      "ĠHistory": 4379,
      "achusetts": 4380,
      "ĠWomen": 4381,
      "Ġhuge": 4382,
      "ĠScott": 4383,
      "gypt": 4384,
      "Ġannounced": 4385,
      "Ġpin": 4386,
      "ĠTra": 4387,
      "Ġant": 4388,
      "Ġarrest": 4389,
      "ĠMassachusetts": 4390,
      "My": 4391,
      "Ġtears": 4392,
      "Ġaward": 4393,
      "rem": 4394,
      "Ġwheel": 4395,
      "hips": 4396,
      "Ġcoast": 4397,
      "Ġpushed": 4398,
      "Ġstates": 4399,
      "Ġvote": 4400,
      "Ġexpected": 4401,
      "Ġmotor": 4402,
      "AU": 4403,
      "rer": 4404,
      "Ġlower": 4405,
      "ĠAir": 4406,
      "agon": 4407,
      "aret": 4408,
      "Ġsinger": 4409,
      "Ġcolors": 4410,
      "ĠEleanor": 4411,
      "ĠMarcia": 4412,
      "Ġdelic": 4413,
      "Ġexcited": 4414,
      "ursday": 4415,
      "Ġfilled": 4416,
      "hest": 4417,
      "Ġcoun": 4418,
      "onse": 4419,
      "ales": 4420,
      "ĠMet": 4421,
      "Ġasleep": 4422,
      "ĠIts": 4423,
      "Ġaccording": 4424,
      "ees": 4425,
      "Ġbull": 4426,
      "Ġpill": 4427,
      "ads": 4428,
      "ĠCons": 4429,
      "abel": 4430,
      "ĠKitty": 4431,
      "Ġdirector": 4432,
      "ĠRussia": 4433,
      "ĠBrazil": 4434,
      "Ġpic": 4435,
      "asons": 4436,
      "aches": 4437,
      "ĠCould": 4438,
      "ĠOver": 4439,
      "ppy": 4440,
      "otten": 4441,
      "Ġoccup": 4442,
      "Ġsatis": 4443,
      "Ġcastle": 4444,
      ",I": 4445,
      "gn": 4446,
      "Ġwit": 4447,
      "Ġcovered": 4448,
      "Ġnap": 4449,
      "Ġstairs": 4450,
      "ĠDa": 4451,
      "eech": 4452,
      "ĠPrince": 4453,
      "Ġparticip": 4454,
      "ux": 4455,
      "Ġdrew": 4456,
      "Ġmanner": 4457,
      "Ġmissing": 4458,
      "Ġninet": 4459,
      "ĠListen": 4460,
      "Ġcamer": 4461,
      "ĠCast": 4462,
      "ĠWE": 4463,
      "ittee": 4464,
      "ĠThursday": 4465,
      "ĠWhich": 4466,
      "Ġcrazy": 4467,
      "ns": 4468,
      "ĠSand": 4469,
      "ĠTheir": 4470,
      "Ġnotice": 4471,
      "ĠGive": 4472,
      "Ġconcer": 4473,
      "Ġess": 4474,
      "Ġpair": 4475,
      "arc": 4476,
      "Ġshown": 4477,
      "Ġshad": 4478,
      "ĠWednesday": 4479,
      "vi": 4480,
      "Ġwoods": 4481,
      "Ġzoo": 4482,
      "Then": 4483,
      "Ġaud": 4484,
      "Ġeager": 4485,
      "Ġweight": 4486,
      "Ġcalls": 4487,
      "Ġpersonal": 4488,
      "Ġcontinue": 4489,
      "Ġhappening": 4490,
      "sociation": 4491,
      "aries": 4492,
      "aled": 4493,
      "aching": 4494,
      "Ġmachine": 4495,
      "face": 4496,
      "nds": 4497,
      "itation": 4498,
      "Ġliter": 4499,
      "omm": 4500,
      "urb": 4501,
      "ĠDi": 4502,
      "Ġneither": 4503,
      "Ġfault": 4504,
      "Ġexclaimed": 4505,
      "lie": 4506,
      "tering": 4507,
      "Ġaffect": 4508,
      "ĠChina": 4509,
      "Ġmeth": 4510,
      "Ġrecorder": 4511,
      "/M": 4512,
      "ka": 4513,
      "ois": 4514,
      "hered": 4515,
      "ĠOther": 4516,
      "Ġgrown": 4517,
      "Ġwise": 4518,
      "Ġknife": 4519,
      "ĠOnce": 4520,
      "Ġsentence": 4521,
      "Ġwearing": 4522,
      "Ġstrugg": 4523,
      "Ġthrew": 4524,
      "Ġvac": 4525,
      "Ġleading": 4526,
      "Ġmissed": 4527,
      "zen": 4528,
      "Ġachie": 4529,
      "atory": 4530,
      "Ġemer": 4531,
      "ĠDis": 4532,
      "Ġsuit": 4533,
      "Ġhasn": 4534,
      "ĠExcuse": 4535,
      "Ġcloser": 4536,
      "time": 4537,
      "ari": 4538,
      "Ġdey": 4539,
      "ĠThree": 4540,
      "They": 4541,
      "Ġdrinking": 4542,
      "Ġflying": 4543,
      "ĠItalian": 4544,
      "ĠCHI": 4545,
      "Ġsail": 4546,
      "Ġrate": 4547,
      "Ġplain": 4548,
      "Ġwhoa": 4549,
      "inese": 4550,
      "Ġinterested": 4551,
      "Ġoppos": 4552,
      "Ġwhispered": 4553,
      "ien": 4554,
      "ĠEric": 4555,
      "abeth": 4556,
      "Ġunless": 4557,
      "ĠIsland": 4558,
      "ĠFranc": 4559,
      "Ġdancing": 4560,
      "IR": 4561,
      "atoes": 4562,
      "Ġanywhere": 4563,
      "Ġacqu": 4564,
      "Ġconstruction": 4565,
      "Ġdemand": 4566,
      "Ġtone": 4567,
      "Ġcart": 4568,
      "Ġlat": 4569,
      "lected": 4570,
      "Ġplants": 4571,
      "ems": 4572,
      "Ġdata": 4573,
      "Ġcenter": 4574,
      "Ġcollege": 4575,
      "ĠTV": 4576,
      "ilities": 4577,
      "Ġsmell": 4578,
      "Ġdecision": 4579,
      "minist": 4580,
      "Ġlap": 4581,
      "Ġweather": 4582,
      "Ġstock": 4583,
      "anda": 4584,
      "Ġfourth": 4585,
      "Ġregular": 4586,
      "ribed": 4587,
      "Ġturtle": 4588,
      "Ã³": 4589,
      "Ġtar": 4590,
      "enth": 4591,
      "ĠOp": 4592,
      "Ġhonor": 4593,
      "Ġbeside": 4594,
      "ĠAccording": 4595,
      "Ġsoul": 4596,
      "ĠHug": 4597,
      "olic": 4598,
      "Ġadult": 4599,
      "Ġprovide": 4600,
      "Ġseventy": 4601,
      "Ġnecessary": 4602,
      "pir": 4603,
      "ellig": 4604,
      "Ġladies": 4605,
      "ĠSpanish": 4606,
      "ĠLa": 4607,
      "ability": 4608,
      "eless": 4609,
      "uesday": 4610,
      "St": 4611,
      "ĠMo": 4612,
      "ĠHumph": 4613,
      "ĠPapa": 4614,
      "ĠOld": 4615,
      "elle": 4616,
      "Ġhonest": 4617,
      "Ġdesigned": 4618,
      "ĠCHAP": 4619,
      "giggles": 4620,
      "itan": 4621,
      "Ġrough": 4622,
      "ago": 4623,
      "Ġcoat": 4624,
      "ĠArmy": 4625,
      "Ġclearly": 4626,
      "ĠMat": 4627,
      "cip": 4628,
      "Ġpractice": 4629,
      "ĠJesus": 4630,
      "under": 4631,
      "ĠMont": 4632,
      "ella": 4633,
      "Ġchem": 4634,
      "Ġrocket": 4635,
      "ĠSummer": 4636,
      "ĠCHAPTER": 4637,
      "onstr": 4638,
      "vell": 4639,
      "ĠWil": 4640,
      "ĠEgypt": 4641,
      "isted": 4642,
      "Ġsusp": 4643,
      "aign": 4644,
      "Ġsite": 4645,
      "Ġlaid": 4646,
      "ĠCare": 4647,
      "Ġdeb": 4648,
      "ensus": 4649,
      "Ġlistening": 4650,
      "ĠDemocr": 4651,
      "!'": 4652,
      "Ġtax": 4653,
      "hel": 4654,
      "Ġstorm": 4655,
      "ĠRome": 4656,
      "ANT": 4657,
      "Ġstudied": 4658,
      "KEN": 4659,
      "gu": 4660,
      "ishes": 4661,
      "Ġdirty": 4662,
      "alley": 4663,
      "Ġagreed": 4664,
      "ELL": 4665,
      "Ġmodel": 4666,
      "ĠAfrica": 4667,
      "ederal": 4668,
      "Now": 4669,
      "Ġsoup": 4670,
      "Ġfac": 4671,
      "ĠDist": 4672,
      "uckles": 4673,
      "AB": 4674,
      "Ġge": 4675,
      "ĠRose": 4676,
      "ights": 4677,
      "Ġarch": 4678,
      "Ġagree": 4679,
      "Ġthroughout": 4680,
      "Ġsmart": 4681,
      "Ġartist": 4682,
      "ĠHumphrey": 4683,
      "rid": 4684,
      "Ġ..": 4685,
      "irgin": 4686,
      "Ġeasily": 4687,
      "Ġlanguages": 4688,
      "ĠTuesday": 4689,
      "Ġrub": 4690,
      "ossible": 4691,
      "Ġpleased": 4692,
      "Ġgentleman": 4693,
      "Ġquarter": 4694,
      "Ġir": 4695,
      "ini": 4696,
      "ĠIS": 4697,
      "Ġnurse": 4698,
      "rif": 4699,
      "ĠCat": 4700,
      "--\"": 4701,
      "Ġheads": 4702,
      "Ġelected": 4703,
      "mit": 4704,
      "Ġdouble": 4705,
      "ĠDel": 4706,
      "ĠGreen": 4707,
      "Ġbridge": 4708,
      "ĠComp": 4709,
      "ĠJean": 4710,
      "Ġscience": 4711,
      "oma": 4712,
      "Ġnote": 4713,
      "Ġspeech": 4714,
      "Ġteach": 4715,
      "Ġdolly": 4716,
      "Ġincludes": 4717,
      "ĠÂ": 4718,
      "Ġinqu": 4719,
      "ĠCamp": 4720,
      "ĠNever": 4721,
      "Ġtext": 4722,
      "ruct": 4723,
      "Ġmov": 4724,
      "Ġpurpose": 4725,
      "Ġtrip": 4726,
      "Ġdangerous": 4727,
      "ĠOlympics": 4728,
      "!âĢĿ": 4729,
      "Ġpour": 4730,
      "ĠAye": 4731,
      "ram": 4732,
      "Ġpool": 4733,
      "ĠSim": 4734,
      "ĠMus": 4735,
      "imately": 4736,
      "ĠCle": 4737,
      "Ġroof": 4738,
      "ĠBrown": 4739,
      "ĠSuper": 4740,
      "Ġpicnic": 4741,
      "gress": 4742,
      "Ġfirm": 4743,
      "-st": 4744,
      "ĠLuc": 4745,
      "ĠEmp": 4746,
      "-song": 4747,
      "Ġcandy": 4748,
      "Ġcherry": 4749,
      "Ġrapid": 4750,
      "arily": 4751,
      "ĠTri": 4752,
      "ĠWood": 4753,
      "Ġflower": 4754,
      "Ġremem": 4755,
      "bered": 4756,
      "Ġperfor": 4757,
      "Ġbrothers": 4758,
      "Ġescape": 4759,
      "ĠAldred": 4760,
      "Ġcousin": 4761,
      "cise": 4762,
      "ĠSus": 4763,
      "ĠAward": 4764,
      "Ġknowledge": 4765,
      "useum": 4766,
      "Ġsecurity": 4767,
      "Ġradio": 4768,
      "-B": 4769,
      "rig": 4770,
      "ĠCO": 4771,
      "elly": 4772,
      "olt": 4773,
      "Ġusual": 4774,
      "Ġdread": 4775,
      "amin": 4776,
      "Ġhadn": 4777,
      "Ġrow": 4778,
      "Ġchimney": 4779,
      "Ġmovies": 4780,
      "mont": 4781,
      "Ġbi": 4782,
      "Ġstran": 4783,
      "rance": 4784,
      "Ġappre": 4785,
      "Ġwatched": 4786,
      "ĠClaus": 4787,
      "hum": 4788,
      "umber": 4789,
      "Ġspl": 4790,
      "Ġ()": 4791,
      "Ġtwice": 4792,
      "Ġscene": 4793,
      "Ġpicks": 4794,
      "cellent": 4795,
      "Ġprepared": 4796,
      "can": 4797,
      "just": 4798,
      "reys": 4799,
      "Ġmaint": 4800,
      "Ġneat": 4801,
      "Ġplenty": 4802,
      "Ġcontact": 4803,
      "Ġruns": 4804,
      "Ġawful": 4805,
      "Ġrequired": 4806,
      "Ġmistake": 4807,
      "ĠWind": 4808,
      "ĠRem": 4809,
      "Ġdistrib": 4810,
      "iety": 4811,
      "Ġsongs": 4812,
      "Ġextreme": 4813,
      "iant": 4814,
      "ja": 4815,
      "Ġcustom": 4816,
      "HING": 4817,
      "Ġdebut": 4818,
      "Ġshirt": 4819,
      "Ġbless": 4820,
      "Ġgreater": 4821,
      "Ġcheer": 4822,
      "Ġwalks": 4823,
      "Ġevents": 4824,
      "Ġdeclared": 4825,
      "-e": 4826,
      "takes": 4827,
      "ĠTer": 4828,
      "ĠProv": 4829,
      "Ġofficial": 4830,
      "Ġconstit": 4831,
      "If": 4832,
      "Ġwound": 4833,
      "Ġcouch": 4834,
      "Ġfol": 4835,
      "ĠBrad": 4836,
      "Ġaccess": 4837,
      "Ġholds": 4838,
      "Ġharm": 4839,
      "Ġincrease": 4840,
      "ching": 4841,
      "ĠDay": 4842,
      "Ġuses": 4843,
      "Ġafterwards": 4844,
      "ĠSecret": 4845,
      "Ġfemale": 4846,
      "ĠFrancis": 4847,
      "ĠIran": 4848,
      "Ġsaved": 4849,
      "Ġgods": 4850,
      "Ġnormal": 4851,
      "craft": 4852,
      "Ġnation": 4853,
      "Ġsole": 4854,
      "iction": 4855,
      "Ġkeeping": 4856,
      "Ġincluded": 4857,
      "Ġresponse": 4858,
      "moves": 4859,
      "ita": 4860,
      "Ġhill": 4861,
      "Ġempty": 4862,
      "Ġweak": 4863,
      "ript": 4864,
      "sec": 4865,
      "ĠFore": 4866,
      "Ġworried": 4867,
      "ification": 4868,
      "Ġbathroom": 4869,
      "Ġsandwich": 4870,
      "Ġhid": 4871,
      "Ġlibr": 4872,
      "Ġnovel": 4873,
      "Ġsaf": 4874,
      "Ġchall": 4875,
      "Ġsuspect": 4876,
      "bout": 4877,
      "Ġreve": 4878,
      "udd": 4879,
      "Ġens": 4880,
      "Ġmedical": 4881,
      "Ġwooden": 4882,
      "Ġmodern": 4883,
      "Ġimagine": 4884,
      ".,": 4885,
      "do": 4886,
      "jo": 4887,
      "Ġcases": 4888,
      "Ġgate": 4889,
      "Ġforces": 4890,
      "Ġchanges": 4891,
      "ĠSpain": 4892,
      "Ġexplain": 4893,
      "Ġeld": 4894,
      "ĠMount": 4895,
      "ĠBur": 4896,
      "oking": 4897,
      "Ġbowl": 4898,
      "gen": 4899,
      "Ġtong": 4900,
      "isy": 4901,
      "orough": 4902,
      "ĠCont": 4903,
      "Ġrising": 4904,
      "Ġdirection": 4905,
      "CT": 4906,
      "eer": 4907,
      "wr": 4908,
      "Ġduty": 4909,
      "ĠSaint": 4910,
      "amm": 4911,
      "Ġbeauty": 4912,
      "Ġfruit": 4913,
      "CE": 4914,
      "Ġtou": 4915,
      "Ġthick": 4916,
      "ala": 4917,
      "Ġdoin": 4918,
      "ĠHum": 4919,
      "ĠNat": 4920,
      "Ġpromised": 4921,
      "Ġcalm": 4922,
      "Ġblanket": 4923,
      "ĠElizabeth": 4924,
      "ĠChinese": 4925,
      "Ġopin": 4926,
      "Ġsmaller": 4927,
      "Ġreported": 4928,
      "Ġstruck": 4929,
      "uated": 4930,
      "Ġmanaged": 4931,
      "Ġattract": 4932,
      "Ġcarefully": 4933,
      "Ġearn": 4934,
      "Ġaware": 4935,
      "Ġleaders": 4936,
      "Ġsteps": 4937,
      "Ġmurd": 4938,
      "ho": 4939,
      "Ġmut": 4940,
      "ĠJud": 4941,
      "Ġcontinues": 4942,
      "Ġfixed": 4943,
      "ĠScotland": 4944,
      "house": 4945,
      "Ġtrib": 4946,
      "Ġwake": 4947,
      "Ġsac": 4948,
      "Ġcott": 4949,
      "ĠMaster": 4950,
      "ĠHur": 4951,
      "ĠDuke": 4952,
      "Ã¨": 4953,
      "ĠMur": 4954,
      "Ġstream": 4955,
      "ĠOut": 4956,
      "inda": 4957,
      "Ġdishes": 4958,
      "Ġtrial": 4959,
      "ĠCongress": 4960,
      "Ġnineteen": 4961,
      "Ġcred": 4962,
      "Ġlog": 4963,
      "ĠCath": 4964,
      "owned": 4965,
      "Ġcontract": 4966,
      "Ġstrength": 4967,
      "corder": 4968,
      "lig": 4969,
      "uals": 4970,
      "was": 4971,
      "Ġwha": 4972,
      "rial": 4973,
      "Ġrail": 4974,
      "Ġmonster": 4975,
      "ĠFlor": 4976,
      "Ġmentioned": 4977,
      "ware": 4978,
      "Ġlion": 4979,
      "ĠSing": 4980,
      "ilies": 4981,
      "Ġshore": 4982,
      "Ġtells": 4983,
      "Ġcrime": 4984,
      "Ġoccasion": 4985,
      "bel": 4986,
      "viet": 4987,
      "Ġï¿½ï¿½ï¿½ï¿½": 4988,
      "odes": 4989,
      "Ġsurprised": 4990,
      "Ġabsolutely": 4991,
      "bury": 4992,
      "reg": 4993,
      "eta": 4994,
      "Ġstret": 4995,
      "ĠFire": 4996,
      "fection": 4997,
      "Ġimpossible": 4998,
      "Ġlocation": 4999,
      "Ġgrowing": 5000,
      "ĠRobin": 5001,
      "ĠWestern": 5002,
      "ĠGar": 5003,
      "Ġunc": 5004,
      "ĠPerhaps": 5005,
      "-year": 5006,
      "icles": 5007,
      "Ġham": 5008,
      "Ġstre": 5009,
      "ĠRock": 5010,
      "ĠUm": 5011,
      "erg": 5012,
      "Ġcouncil": 5013,
      "itzer": 5014,
      "ault": 5015,
      "gent": 5016,
      "Ġthee": 5017,
      "Ġyouth": 5018,
      "ĠMabel": 5019,
      "Ġgreatest": 5020,
      "ĠJeffreys": 5021,
      "ST": 5022,
      "coughs": 5023,
      "nods": 5024,
      "tin": 5025,
      "Ġfro": 5026,
      "Ġtow": 5027,
      "ste": 5028,
      "Ġcommun": 5029,
      "Ġpulled": 5030,
      "Ġstrawberries": 5031,
      "ening": 5032,
      "istan": 5033,
      "Ġloudly": 5034,
      "Ġjudge": 5035,
      "Ġstomach": 5036,
      "Ġheat": 5037,
      "utions": 5038,
      "Ġcoach": 5039,
      "Ġjumped": 5040,
      "-ha": 5041,
      "bye": 5042,
      "ez": 5043,
      "ĠLife": 5044,
      "Ġjack": 5045,
      "Ġproceed": 5046,
      "Ġwilling": 5047,
      "ava": 5048,
      "Ġactor": 5049,
      "Ġgiant": 5050,
      "ading": 5051,
      "semb": 5052,
      "iana": 5053,
      "ĠSoviet": 5054,
      "Ġremains": 5055,
      "Ġphil": 5056,
      "Ġtransport": 5057,
      "ĠTrans": 5058,
      "Ġpressure": 5059,
      "icycle": 5060,
      "Ġversion": 5061,
      "Ġopportunity": 5062,
      "Ġign": 5063,
      "rees": 5064,
      "oured": 5065,
      "Ġtrick": 5066,
      "Ġserve": 5067,
      "Ġcentral": 5068,
      "ĠGreek": 5069,
      "Ġcamera": 5070,
      "Ġfra": 5071,
      "Ġmeal": 5072,
      "Ġplans": 5073,
      "osc": 5074,
      "ending": 5075,
      "Ġprint": 5076,
      "Ġhandle": 5077,
      "Ġcondition": 5078,
      "ĠFox": 5079,
      "Ġwilln": 5080,
      "Ġobviously": 5081,
      "Ġfavour": 5082,
      "Ġfailed": 5083,
      "uit": 5084,
      "Ġcy": 5085,
      "orks": 5086,
      "Ġpan": 5087,
      "ĠNO": 5088,
      "ĠGO": 5089,
      "ĠFort": 5090,
      "ferent": 5091,
      "ENT": 5092,
      "Ġcampaign": 5093,
      "**": 5094,
      "inger": 5095,
      "ĠMolly": 5096,
      "Ġmel": 5097,
      "ĠFour": 5098,
      "Ġrob": 5099,
      "Ġtruly": 5100,
      "Ġlearning": 5101,
      "Ġmotion": 5102,
      "Ġveget": 5103,
      "Ġmemory": 5104,
      "Ġbrief": 5105,
      "known": 5106,
      "ship": 5107,
      "Ġtv": 5108,
      "ona": 5109,
      "ĠCam": 5110,
      "ĠUN": 5111,
      "ĠIslam": 5112,
      "ĠBritain": 5113,
      "Ġsouthw": 5114,
      "Ġissue": 5115,
      "bur": 5116,
      "Ġsch": 5117,
      "ĠMajor": 5118,
      "Ġforced": 5119,
      "ĠFe": 5120,
      "Ġarrow": 5121,
      "Ġboots": 5122,
      "Ġadvent": 5123,
      "ĠZeal": 5124,
      "Ġepisode": 5125,
      "iber": 5126,
      "icated": 5127,
      "ĠBu": 5128,
      "Ġnoticed": 5129,
      "ĠLove": 5130,
      "ĠFOR": 5131,
      "umps": 5132,
      "anges": 5133,
      "ĠChief": 5134,
      "Ġgenerally": 5135,
      "Ġcreate": 5136,
      "Ġprincess": 5137,
      "Ġperforman": 5138,
      "-n": 5139,
      "Do": 5140,
      "Ġbang": 5141,
      "ĠBig": 5142,
      "ĠBoy": 5143,
      "Ġmeas": 5144,
      "ĠRel": 5145,
      "ends": 5146,
      "action": 5147,
      "Ġcontent": 5148,
      "Ġdecide": 5149,
      "Ġfigures": 5150,
      "Ġperfectly": 5151,
      "Ġsignificant": 5152,
      "Ġsettled": 5153,
      "IGHT": 5154,
      "aven": 5155,
      "gas": 5156,
      "ule": 5157,
      "Ġtrade": 5158,
      "Ġqueen": 5159,
      "Ġhardly": 5160,
      "Ġproduc": 5161,
      "-up": 5162,
      "Is": 5163,
      "ouri": 5164,
      "ĠJos": 5165,
      "UST": 5166,
      "-room": 5167,
      "Ġcuri": 5168,
      "Ġpred": 5169,
      "ĠGot": 5170,
      "Ġscary": 5171,
      "ĠJoseph": 5172,
      "Ġplane": 5173,
      "Ġ(;": 5174,
      "Ġcarrying": 5175,
      "ension": 5176,
      "fit": 5177,
      "Ġbump": 5178,
      "Ġfold": 5179,
      "Ġpitched": 5180,
      "peror": 5181,
      "ĠMaria": 5182,
      "Ġnewsp": 5183,
      "Ġjournal": 5184,
      "Ġlucky": 5185,
      "fess": 5186,
      "Ġbare": 5187,
      "Ġbutton": 5188,
      "Ġgrave": 5189,
      "Ġmarriage": 5190,
      "Ġstring": 5191,
      "ĠCarol": 5192,
      "ippi": 5193,
      "Ġpurple": 5194,
      "ĠHugo": 5195,
      "erous": 5196,
      "Ġwaste": 5197,
      "Ġlips": 5198,
      "mpion": 5199,
      "ĠZealand": 5200,
      "Ġwed": 5201,
      "Ġlack": 5202,
      "ental": 5203,
      "verage": 5204,
      "ĠBas": 5205,
      "eaks": 5206,
      "Ġsuc": 5207,
      "aked": 5208,
      "Ġprice": 5209,
      "Ġrange": 5210,
      "Ġye": 5211,
      "ĠSun": 5212,
      "ĠDra": 5213,
      "Ġschools": 5214,
      "Ġswing": 5215,
      "Ġproduction": 5216,
      "stitute": 5217,
      "Ġsafety": 5218,
      "In": 5219,
      "bet": 5220,
      "ĠHI": 5221,
      "Ġtheory": 5222,
      "Ġfancy": 5223,
      "Ġnurs": 5224,
      "iring": 5225,
      "ĠHapp": 5226,
      "Ġancient": 5227,
      "Ġlights": 5228,
      "ervation": 5229,
      "Ġfashion": 5230,
      "anch": 5231,
      "Ġsword": 5232,
      "Ġfrequ": 5233,
      "Ġpossibly": 5234,
      "Ġsucceed": 5235,
      "?]": 5236,
      "Ġfurn": 5237,
      "ĠTim": 5238,
      "alled": 5239,
      "illa": 5240,
      "ĠEmpire": 5241,
      "Ġtongue": 5242,
      "\"]": 5243,
      "Ġfought": 5244,
      "ĠIr": 5245,
      "ademy": 5246,
      "kel": 5247,
      "ols": 5248,
      "Ġbecoming": 5249,
      "sych": 5250,
      "esty": 5251,
      "ishop": 5252,
      "Ġwriter": 5253,
      "hens": 5254,
      "Ġremind": 5255,
      "Ġactive": 5256,
      "Ġsilence": 5257,
      "ĠMississ": 5258,
      "Ġconditions": 5259,
      "Ġgentlemen": 5260,
      "ĠChampionship": 5261,
      "ĠMexico": 5262,
      "EA": 5263,
      "pet": 5264,
      "ĠSol": 5265,
      "ooks": 5266,
      "Ġsurround": 5267,
      "essel": 5268,
      "ĠTod": 5269,
      "ĠRoyal": 5270,
      "place": 5271,
      "Ġwalls": 5272,
      "ĠCollege": 5273,
      "Ġet": 5274,
      "Ġsociety": 5275,
      "Ġplums": 5276,
      "oston": 5277,
      "ĠThose": 5278,
      "Ġperm": 5279,
      "Ġkinds": 5280,
      "ï¿½ï¿½ï¿½": 5281,
      "Ġwindows": 5282,
      "Ġhotel": 5283,
      "Ġdemonstr": 5284,
      "Ġrules": 5285,
      "Ġindividual": 5286,
      "boy": 5287,
      "ero": 5288,
      "ĠTy": 5289,
      "imin": 5290,
      "Ġofficers": 5291,
      "ij": 5292,
      "enny": 5293,
      "ĠMY": 5294,
      "Ġstro": 5295,
      "berg": 5296,
      "ĠKore": 5297,
      "Ġmoves": 5298,
      "ĠAnother": 5299,
      "Ġpleasant": 5300,
      "Ġanxious": 5301,
      "gie": 5302,
      "uan": 5303,
      "vis": 5304,
      "Ġma": 5305,
      "Ġpig": 5306,
      "Ġpurs": 5307,
      "Ġlink": 5308,
      "etch": 5309,
      "ĠHol": 5310,
      "rain": 5311,
      "Ġvir": 5312,
      "ĠVirgin": 5313,
      "Ġchoose": 5314,
      "Ġcontrib": 5315,
      "Ġdriver": 5316,
      "Ġinterview": 5317,
      "IM": 5318,
      "talk": 5319,
      "Ġtight": 5320,
      "Ġsen": 5321,
      "ĠTown": 5322,
      "ĠHot": 5323,
      "outs": 5324,
      "Ġwheels": 5325,
      "Ġsomethin": 5326,
      "Ġresour": 5327,
      "ĠZara": 5328,
      "Ġcompetition": 5329,
      "ĠAngela": 5330,
      "Ġdarling": 5331,
      "ĠMississippi": 5332,
      "Ġsides": 5333,
      "asy": 5334,
      "ĠMill": 5335,
      "Ġshoe": 5336,
      "Ġvot": 5337,
      "Ġfamilies": 5338,
      "Ġopening": 5339,
      "Ġideas": 5340,
      "Ġmail": 5341,
      "ata": 5342,
      "Ġrout": 5343,
      "ocal": 5344,
      "igned": 5345,
      "Ġseconds": 5346,
      "ÃŃs": 5347,
      "ĠGuy": 5348,
      "dam": 5349,
      "ĠServ": 5350,
      "ĠUnder": 5351,
      "Ġsalt": 5352,
      "Ġcompeted": 5353,
      "Ġmaterial": 5354,
      "Ġdegree": 5355,
      "Ġtarget": 5356,
      "-L": 5357,
      "_,": 5358,
      "ef": 5359,
      "kins": 5360,
      "Ġbike": 5361,
      "amps": 5362,
      "odies": 5363,
      "Ġremoved": 5364,
      "erecorder": 5365,
      "Ġpowerful": 5366,
      "Ġcircus": 5367,
      "ĠCanadian": 5368,
      "ĠKeep": 5369,
      "aves": 5370,
      "sm": 5371,
      "Ġdying": 5372,
      "Ġnerv": 5373,
      "Ġlies": 5374,
      "ĠFar": 5375,
      "Ġrings": 5376,
      "Ġdownstairs": 5377,
      "Ġserving": 5378,
      "Ġfifteen": 5379,
      "Ġeasier": 5380,
      "mn": 5381,
      "edy": 5382,
      "Ġplat": 5383,
      "Ġadop": 5384,
      "Ġbecomes": 5385,
      "Ġsurface": 5386,
      "Ġdrawing": 5387,
      "Ġelephants": 5388,
      "Ġcompanies": 5389,
      "initely": 5390,
      "owed": 5391,
      "ession": 5392,
      "iano": 5393,
      "Ġchampions": 5394,
      "Ġmostly": 5395,
      "Ġrelationship": 5396,
      "-T": 5397,
      "SI": 5398,
      "So": 5399,
      "ae": 5400,
      "ban": 5401,
      "gs": 5402,
      "pa": 5403,
      "sighs": 5404,
      "Ġintern": 5405,
      "ĠArab": 5406,
      "Ġrelease": 5407,
      "Ġsaus": 5408,
      "Ġvessel": 5409,
      "rences": 5410,
      "Ġveh": 5411,
      "Ġvalue": 5412,
      "ĠWHAT": 5413,
      "rant": 5414,
      "Ġocean": 5415,
      "isions": 5416,
      "Ġpages": 5417,
      "Ġcentre": 5418,
      "Ġappreci": 5419,
      "ker": 5420,
      "arts": 5421,
      "abb": 5422,
      "urns": 5423,
      "Ġhelping": 5424,
      "ĠAssociation": 5425,
      "Ġplanet": 5426,
      "Ġservices": 5427,
      "Ġmerry": 5428,
      "ĠVal": 5429,
      "Ġrocks": 5430,
      "fortun": 5431,
      "Ġindustry": 5432,
      "Ġrepeated": 5433,
      "uries": 5434,
      "reland": 5435,
      "Ġpapers": 5436,
      "ĠBan": 5437,
      "cely": 5438,
      "Ġgoal": 5439,
      "ĠKent": 5440,
      "Ġchannel": 5441,
      "Ġfeels": 5442,
      "Ġrelated": 5443,
      "Ġprovided": 5444,
      "Ġneighbor": 5445,
      "Ġtradition": 5446,
      "Ġconcerned": 5447,
      "itzerland": 5448,
      "Ġinvent": 5449,
      "ĠArt": 5450,
      "Ġgolden": 5451,
      "ĠCentral": 5452,
      "ĠAlexander": 5453,
      "with": 5454,
      "ĠPope": 5455,
      "ĠDen": 5456,
      "ateg": 5457,
      "ĠDoctor": 5458,
      "ibility": 5459,
      "Ġtreatment": 5460,
      "ĠGovernment": 5461,
      "melon": 5462,
      "Ġloll": 5463,
      "Ġweird": 5464,
      "Ġren": 5465,
      "ĠLos": 5466,
      "iel": 5467,
      "pering": 5468,
      "Ġshape": 5469,
      "Ġeleven": 5470,
      "ĠAtl": 5471,
      "ĠPercy": 5472,
      "Ġconcent": 5473,
      "ĠPlay": 5474,
      "ĠSwitzerland": 5475,
      "Ġbabies": 5476,
      "Ġeffort": 5477,
      "Ġoccurred": 5478,
      "Ġble": 5479,
      "Ġthy": 5480,
      "ĠHon": 5481,
      "Ġsection": 5482,
      "ĠRay": 5483,
      "ola": 5484,
      "Ġexcellent": 5485,
      "Ġpolicy": 5486,
      "ĠPrin": 5487,
      "Ġfrogs": 5488,
      "ĠSwed": 5489,
      "Ġhighest": 5490,
      "OUR": 5491,
      "Ġgro": 5492,
      "Ġnic": 5493,
      "Ġnorthern": 5494,
      "ĠBoston": 5495,
      "Ġrise": 5496,
      "ĠStill": 5497,
      "Ġpoet": 5498,
      "Ġwaited": 5499,
      "Ġresults": 5500,
      "aning": 5501,
      "Ġnuts": 5502,
      "ĠBRO": 5503,
      "chuckles": 5504,
      "ĠJenn": 5505,
      "Ġexer": 5506,
      "ĠStud": 5507,
      "Ġhelmet": 5508,
      "Ġkeeps": 5509,
      "Ġyounger": 5510,
      "Ġforever": 5511,
      "Ġteams": 5512,
      "Ġcells": 5513,
      "ĠNether": 5514,
      "Ġboss": 5515,
      "astern": 5516,
      "keep": 5517,
      "Ġoranges": 5518,
      "Ġblind": 5519,
      "rank": 5520,
      "Ġourselves": 5521,
      "ilda": 5522,
      "Ġenter": 5523,
      "Ġcaptain": 5524,
      "ĠProfess": 5525,
      "Ġstructure": 5526,
      "ĠWalter": 5527,
      "Ġobserved": 5528,
      "ĠIreland": 5529,
      "ĠTHIS": 5530,
      "ĠSpe": 5531,
      "ĠScient": 5532,
      "Ġwasher": 5533,
      "ĠHA": 5534,
      "ĠBarb": 5535,
      "Ġentirely": 5536,
      "ĠJapanese": 5537,
      "bu": 5538,
      "Ġdish": 5539,
      "arah": 5540,
      "Ġpresence": 5541,
      "ĠScr": 5542,
      "Ġhanging": 5543,
      "BC": 5544,
      "ĠKat": 5545,
      "Ġflag": 5546,
      "Ġcarriage": 5547,
      "Ġowned": 5548,
      "Ġglo": 5549,
      "Ġcircum": 5550,
      "-night": 5551,
      "Ġcant": 5552,
      "Ġalt": 5553,
      "Ġconv": 5554,
      "Ġuseta": 5555,
      "Ġpresents": 5556,
      "azed": 5557,
      "Ġinvol": 5558,
      "Ġincreased": 5559,
      "Ġmedicine": 5560,
      "Mark": 5561,
      "nament": 5562,
      "Ġwings": 5563,
      "Ġcong": 5564,
      "Ġnative": 5565,
      "Ġreview": 5566,
      "ĠWin": 5567,
      "ĠHold": 5568,
      "ĠBye": 5569,
      "Ġassoci": 5570,
      "ĠLake": 5571,
      "elled": 5572,
      "olars": 5573,
      "Ġshr": 5574,
      "eman": 5575,
      "Ġuhoh": 5576,
      "Ġmatters": 5577,
      "ĠDonald": 5578,
      "Ġhearing": 5579,
      "ĠMissouri": 5580,
      "Ġbringing": 5581,
      "Ġedge": 5582,
      "Ġrequest": 5583,
      "ĠEverything": 5584,
      "ĠSomething": 5585,
      "ĠNetherlands": 5586,
      "VER": 5587,
      "lim": 5588,
      "Ġghost": 5589,
      "ada": 5590,
      "ĠWAS": 5591,
      "ulations": 5592,
      "ĠJake": 5593,
      "Ġadminist": 5594,
      "Ġwatermelon": 5595,
      "Ġbegins": 5596,
      "Ġdetect": 5597,
      "Ġclouds": 5598,
      "Ġlollip": 5599,
      "vest": 5600,
      "Ġpears": 5601,
      "utive": 5602,
      "ĠMummy": 5603,
      "Ġknowing": 5604,
      "ĠThr": 5605,
      "Ġgrant": 5606,
      "Ġfinding": 5607,
      "ĠEdward": 5608,
      "Ġfifth": 5609,
      "Ġissues": 5610,
      "All": 5611,
      "vy": 5612,
      "Ġted": 5613,
      "Ġbone": 5614,
      "aring": 5615,
      "ĠMi": 5616,
      "Ġstaff": 5617,
      "Ġdoct": 5618,
      "ĠHome": 5619,
      "Ġdism": 5620,
      "Ġunion": 5621,
      "Ġflight": 5622,
      "Ġwitness": 5623,
      "da": 5624,
      "uten": 5625,
      "Ġlaws": 5626,
      "ĠFlorida": 5627,
      "Ġthin": 5628,
      "Ġnoble": 5629,
      "Ġrice": 5630,
      "places": 5631,
      "Ġshoulder": 5632,
      "ĠChris": 5633,
      "ildred": 5634,
      "Ġpickle": 5635,
      "Ġbedroom": 5636,
      "Ġthousands": 5637,
      "ĠEarly": 5638,
      "Ġsuccessful": 5639,
      "sequently": 5640,
      "ancial": 5641,
      "ado": 5642,
      "cel": 5643,
      "asty": 5644,
      "Ġfallen": 5645,
      "Ġburst": 5646,
      "Ġpatient": 5647,
      "Ġreligious": 5648,
      "This": 5649,
      "Ġnarrow": 5650,
      "ĠDistrict": 5651,
      "nding": 5652,
      "Ġbomb": 5653,
      "arr": 5654,
      "ĠTen": 5655,
      "ĠRom": 5656,
      "ĠLee": 5657,
      "ĠFil": 5658,
      "ĠFollow": 5659,
      "umed": 5660,
      "ĠJac": 5661,
      "estival": 5662,
      "Ġprogress": 5663,
      "Ġdesce": 5664,
      "gery": 5665,
      "Ġdirectly": 5666,
      "?'": 5667,
      "iation": 5668,
      "Ġrom": 5669,
      "Ġtries": 5670,
      "Ġcups": 5671,
      "Ġmale": 5672,
      "aling": 5673,
      "Ġanti": 5674,
      "Ġterror": 5675,
      "pronounced": 5676,
      "ĠGerald": 5677,
      "Ġlegal": 5678,
      "Ġsoldier": 5679,
      "Ġholes": 5680,
      "Ġcabin": 5681,
      "Ġfrightened": 5682,
      "EP": 5683,
      "don": 5684,
      "Ġsisters": 5685,
      "ĠSea": 5686,
      "ĠCooper": 5687,
      "ĠRy": 5688,
      "ucky": 5689,
      "Ġtraffic": 5690,
      "Ġkiller": 5691,
      "Ġexperi": 5692,
      "Ġproperty": 5693,
      "OME": 5694,
      "Ġcurrently": 5695,
      "Ġreligion": 5696,
      "ĠBecky": 5697,
      "nam": 5698,
      "oug": 5699,
      "Ġpound": 5700,
      "otion": 5701,
      "Ġshock": 5702,
      "Ġrode": 5703,
      "Ġpolic": 5704,
      "Ġmatches": 5705,
      "Ġforeign": 5706,
      "Ġbarn": 5707,
      "Ġmountains": 5708,
      "Ġorders": 5709,
      "Ġmicro": 5710,
      "uz": 5711,
      "Ġcities": 5712,
      "Ġdose": 5713,
      "ĠHy": 5714,
      "ĠEach": 5715,
      "Ġsomewhat": 5716,
      "ube": 5717,
      "Ġchest": 5718,
      "ucle": 5719,
      "ĠPrime": 5720,
      "Ġplanning": 5721,
      "Ġordered": 5722,
      "Ġresponsible": 5723,
      "rat": 5724,
      "Ġaverage": 5725,
      "Ġheaven": 5726,
      "Ġho": 5727,
      "Ġfork": 5728,
      "ĠWel": 5729,
      "aming": 5730,
      "stood": 5731,
      "ĠFine": 5732,
      "uments": 5733,
      "ĠStan": 5734,
      "Ġqual": 5735,
      "AND": 5736,
      "Ġcolon": 5737,
      "Ġconcern": 5738,
      "Ġorganization": 5739,
      "ĠSecond": 5740,
      "Ġcruel": 5741,
      "ĠSecretary": 5742,
      "Ġcit": 5743,
      "ĠSay": 5744,
      "Ġ--": 5745,
      "Ġarg": 5746,
      "ĠSocial": 5747,
      "bey": 5748,
      "Ġloves": 5749,
      "Ġcollection": 5750,
      "ĠSometimes": 5751,
      "mes": 5752,
      "heart": 5753,
      "see": 5754,
      "Ġupset": 5755,
      "Ġjoke": 5756,
      "oses": 5757,
      "Ġconqu": 5758,
      "Ġmanager": 5759,
      "ishment": 5760,
      "Ġlarger": 5761,
      "Ġglasses": 5762,
      "Ġchemical": 5763,
      "MAL": 5764,
      "Ġmor": 5765,
      "ican": 5766,
      "ĠSur": 5767,
      "ĠMhm": 5768,
      "ĠMildred": 5769,
      "ardon": 5770,
      "ropri": 5771,
      "Ġsystems": 5772,
      "Ġforgotten": 5773,
      "Ġrespond": 5774,
      "Ġtreated": 5775,
      "Ġindividuals": 5776,
      "Ġfaces": 5777,
      "lla": 5778,
      "Ġnea": 5779,
      "ĠWow": 5780,
      "ĠOk": 5781,
      "Ġcommunic": 5782,
      "Ġsausage": 5783,
      "PE": 5784,
      "cake": 5785,
      "hoe": 5786,
      "Ġmud": 5787,
      "Ġfence": 5788,
      "ura": 5789,
      "ĠOff": 5790,
      "Ġdrawn": 5791,
      "Ġutter": 5792,
      "Ġshadow": 5793,
      "Ġlollipop": 5794,
      "eks": 5795,
      "Ġborder": 5796,
      "Ġtooth": 5797,
      "ĠPers": 5798,
      "oles": 5799,
      "Ġsource": 5800,
      "Ġopinion": 5801,
      "ĠCatholic": 5802,
      "Ġperformance": 5803,
      "Ġrib": 5804,
      "Ġcourage": 5805,
      "onia": 5806,
      "ingu": 5807,
      "ĠMax": 5808,
      "Ġstir": 5809,
      "Ġsake": 5810,
      "icking": 5811,
      "Ġpean": 5812,
      "Ġroy": 5813,
      "Ġsmiled": 5814,
      "Ġretired": 5815,
      "Ġsnake": 5816,
      "-time": 5817,
      "aura": 5818,
      "Ġappearance": 5819,
      "Ġteddy": 5820,
      "pret": 5821,
      "wo": 5822,
      "Ġgift": 5823,
      "Ġalpha": 5824,
      "Ġprevious": 5825,
      "Ġrare": 5826,
      "Ġrecent": 5827,
      "Ġexcit": 5828,
      "mark": 5829,
      "Ġfal": 5830,
      "ĠHu": 5831,
      "Ġliber": 5832,
      "ĠRon": 5833,
      "ĠStar": 5834,
      "Ġtalks": 5835,
      "Not": 5836,
      "Ġnest": 5837,
      "Ġkm": 5838,
      "ĠPan": 5839,
      "ĠLI": 5840,
      "ĠJon": 5841,
      "Ġships": 5842,
      "Ġworst": 5843,
      "Ġspin": 5844,
      "ĠInstitute": 5845,
      "Ġpartner": 5846,
      "Ġindependent": 5847,
      "ĠProvince": 5848,
      "Ġpa": 5849,
      "Ġgir": 5850,
      "ĠHor": 5851,
      "Ġmeasure": 5852,
      "Ġriding": 5853,
      "quar": 5854,
      "Ġgoodness": 5855,
      "Ġnumerous": 5856,
      "Ġfunction": 5857,
      "ĠAgnes": 5858,
      "reedom": 5859,
      "ĠWilliams": 5860,
      "Ġnervous": 5861,
      "Ġtask": 5862,
      "Ġwore": 5863,
      "Ġder": 5864,
      "Ġfaster": 5865,
      "ooge": 5866,
      "ĠCall": 5867,
      "ĠWall": 5868,
      "iece": 5869,
      "Ġpros": 5870,
      "ĠMarie": 5871,
      "Ġstudent": 5872,
      "Ġstudies": 5873,
      "Ġpassing": 5874,
      "Ġsalad": 5875,
      "Ġadvice": 5876,
      "Come": 5877,
      "zer": 5878,
      "ushes": 5879,
      "ĠWay": 5880,
      "ĠPolly": 5881,
      "ĠLo": 5882,
      "Ġneedta": 5883,
      "Ġvictory": 5884,
      "Ġdocument": 5885,
      "ĠHappy": 5886,
      "-P": 5887,
      "Ġlord": 5888,
      "amond": 5889,
      "ĠBre": 5890,
      "istic": 5891,
      "ansas": 5892,
      "Ġreceive": 5893,
      "Ġdamage": 5894,
      "Ġfeatures": 5895,
      "Ġdetermined": 5896,
      "Ġstreets": 5897,
      "tries": 5898,
      "Ġast": 5899,
      "Ġbother": 5900,
      "Ġbunny": 5901,
      "ether": 5902,
      "illed": 5903,
      "ocks": 5904,
      "Ġelectric": 5905,
      "ĠAngeles": 5906,
      "Ġcritic": 5907,
      "ĠJewish": 5908,
      "Ġvoices": 5909,
      "Ġimprove": 5910,
      "Ġsevere": 5911,
      "emic": 5912,
      "istry": 5913,
      "Ġclimate": 5914,
      "Ġtroub": 5915,
      "ĠâĢĶ": 5916,
      "ĠThus": 5917,
      "ailed": 5918,
      "Ġmedia": 5919,
      "ĠDemocratic": 5920,
      "rison": 5921,
      "while": 5922,
      "Ġwrest": 5923,
      "Ġcards": 5924,
      "Ġcensus": 5925,
      "Ġdare": 5926,
      "Ġstyle": 5927,
      "ĠNick": 5928,
      "Ġagre": 5929,
      "Ġsmoke": 5930,
      "Ġcreature": 5931,
      "arently": 5932,
      "Ġdreams": 5933,
      "Ġpotatoes": 5934,
      "Ġregarding": 5935,
      "lies": 5936,
      "sings": 5937,
      "there": 5938,
      "oria": 5939,
      "Ġpsych": 5940,
      "ĠShi": 5941,
      "ĠBra": 5942,
      "ĠFC": 5943,
      "ĠEv": 5944,
      "Ġpreschool": 5945,
      "Ġweeke": 5946,
      "Ġdescribed": 5947,
      "Ġlibrary": 5948,
      "Ġwished": 5949,
      "itar": 5950,
      "ĠBru": 5951,
      "Ġanal": 5952,
      "ĠNaz": 5953,
      "Ġshell": 5954,
      "Ġarrange": 5955,
      "Ġtransfer": 5956,
      "Ġvictim": 5957,
      "ĠAustria": 5958,
      "Ġperformed": 5959,
      "zo": 5960,
      "hal": 5961,
      "ĠTor": 5962,
      "ĠBal": 5963,
      "Ġamb": 5964,
      "Ġmarry": 5965,
      "Ġtyp": 5966,
      "ĠEarl": 5967,
      "Ġapprox": 5968,
      "Ġenvironmental": 5969,
      "Ġphilos": 5970,
      "Ġsilly": 5971,
      "Ġfond": 5972,
      "ena": 5973,
      "ett": 5974,
      "Ġintellig": 5975,
      "Ġprefer": 5976,
      "Ġcontr": 5977,
      "Ġcontains": 5978,
      "Ġthoughts": 5979,
      "Ġplanned": 5980,
      "Ġsalami": 5981,
      "Ġrequire": 5982,
      "Ġcopy": 5983,
      "ĠAcademy": 5984,
      "ĠLatin": 5985,
      "-I": 5986,
      "Ġdun": 5987,
      "Ġlake": 5988,
      "riff": 5989,
      "ĠHal": 5990,
      "ĠBay": 5991,
      "ĠNice": 5992,
      "uns": 5993,
      "Ġscore": 5994,
      "Ġcats": 5995,
      "Ġexchan": 5996,
      "ĠScrooge": 5997,
      "enge": 5998,
      "tery": 5999,
      "ĠYear": 6000,
      "Ġvent": 6001,
      "Ġfeelings": 6002,
      "ĠNext": 6003,
      "ĠActually": 6004,
      "Ġintroduced": 6005,
      "heast": 6006,
      "Ġattend": 6007,
      "Ġbuildings": 6008,
      "Ġprior": 6009,
      "Ġapproach": 6010,
      "Ġcandid": 6011,
      "Ġweapon": 6012,
      "Ġremembered": 6013,
      "-H": 6014,
      "ION": 6015,
      "tr": 6016,
      "Ġpil": 6017,
      "Ġpra": 6018,
      "ĠMaj": 6019,
      "ĠBest": 6020,
      "ĠStep": 6021,
      "obal": 6022,
      "Ġrecorded": 6023,
      "ĠGroup": 6024,
      "Ġcomfortable": 6025,
      "ĠDepartment": 6026,
      "Ġhabit": 6027,
      "Ġrat": 6028,
      "Ġeverywhere": 6029,
      "ucking": 6030,
      "Ġlessons": 6031,
      "Ġcookie": 6032,
      "Ġhasta": 6033,
      "ĠScientists": 6034,
      "fall": 6035,
      "stances": 6036,
      "ĠBund": 6037,
      "ctions": 6038,
      "ĠRh": 6039,
      "hib": 6040,
      "aki": 6041,
      "ĠAndrew": 6042,
      "Ġgoodbye": 6043,
      "ĠIsn": 6044,
      "Ġmission": 6045,
      "Ġwondering": 6046,
      "Ġevil": 6047,
      "Ġtotally": 6048,
      "ĠAuntie": 6049,
      "ga": 6050,
      "ĠSO": 6051,
      "ador": 6052,
      "ĠEst": 6053,
      "this": 6054,
      "Ġtroops": 6055,
      "Ġflo": 6056,
      "Ġdrugs": 6057,
      "Ġopposite": 6058,
      "mar": 6059,
      "Ġ/": 6060,
      "Ġaunt": 6061,
      "ĠLaura": 6062,
      "Ġjun": 6063,
      "Ġarran": 6064,
      "Ġsecure": 6065,
      "Ġevident": 6066,
      "Ġtaperecorder": 6067,
      "Ġweapons": 6068,
      "Ġinnoc": 6069,
      "-morrow": 6070,
      "Ġwond": 6071,
      "Ġlem": 6072,
      "Ġforms": 6073,
      "ulous": 6074,
      "ĠVan": 6075,
      "ĠChild": 6076,
      "ugs": 6077,
      "they": 6078,
      "Ġsigned": 6079,
      "Ġcookies": 6080,
      "Ġdestroyed": 6081,
      "ĠSusan": 6082,
      "mpt": 6083,
      "Ġyard": 6084,
      "Ġpony": 6085,
      "Ġstated": 6086,
      "urt": 6087,
      "ĠHealth": 6088,
      "Ġactress": 6089,
      "Ġrecently": 6090,
      "Ġsurely": 6091,
      "Ġstaying": 6092,
      "Ġimpact": 6093,
      "Ġmedal": 6094,
      "ĠHarry": 6095,
      "Ġmerely": 6096,
      "Ġroyal": 6097,
      "bell": 6098,
      "ĠIra": 6099,
      "ĠMaine": 6100,
      "ĠWater": 6101,
      "ĠRog": 6102,
      "osen": 6103,
      "Ġpregn": 6104,
      "ounce": 6105,
      "azine": 6106,
      "Ġterrit": 6107,
      "Ġhorsie": 6108,
      "iliar": 6109,
      "ugg": 6110,
      "Ġtear": 6111,
      "oned": 6112,
      "ette": 6113,
      "acon": 6114,
      "ĠThink": 6115,
      "Ġexpress": 6116,
      "Ġhearts": 6117,
      "Ġpositive": 6118,
      "Ġlevels": 6119,
      "back": 6120,
      "Ġfully": 6121,
      "ĠSHE": 6122,
      "ima": 6123,
      "Ġdoors": 6124,
      "ĠBack": 6125,
      "ĠLater": 6126,
      "Ġdeck": 6127,
      "thur": 6128,
      "Ġadvert": 6129,
      "Ġrecomm": 6130,
      "ĠColumb": 6131,
      "Ġprisoners": 6132,
      "Ġstrike": 6133,
      "Ġrecognized": 6134,
      "Ġseparate": 6135,
      "Ġexcitement": 6136,
      "-G": 6137,
      "put": 6138,
      "Ġsouthern": 6139,
      "ĠWork": 6140,
      "road": 6141,
      "ĠBa": 6142,
      "Ġamazing": 6143,
      "Ġcompos": 6144,
      "ĠAsian": 6145,
      "Ġexpression": 6146,
      "Ġgrey": 6147,
      "Ġcondu": 6148,
      "ĠGeorg": 6149,
      "Ġdisappeared": 6150,
      "Ġtechnology": 6151,
      "Ġslightly": 6152,
      "Ġfocus": 6153,
      "Mother": 6154,
      "low": 6155,
      "Ġwagon": 6156,
      "Ġgrie": 6157,
      "ĠBea": 6158,
      "Ġnotes": 6159,
      "ĠPre": 6160,
      "ĠPut": 6161,
      "ĠNOT": 6162,
      "ĠLong": 6163,
      "Ġhadta": 6164,
      "Ġchoo": 6165,
      "Ġsilent": 6166,
      "Ġballoon": 6167,
      "Ġteaching": 6168,
      "ĠAustrian": 6169,
      "gt": 6170,
      "ĠSix": 6171,
      "ĠWent": 6172,
      "ĠLand": 6173,
      "Ġapplic": 6174,
      "ĠJohnson": 6175,
      "Ġdolls": 6176,
      "ĠScar": 6177,
      "Ġshooting": 6178,
      "SE": 6179,
      "Sarah": 6180,
      "bled": 6181,
      "car": 6182,
      "Ġmap": 6183,
      "Ġpor": 6184,
      "ashing": 6185,
      "ĠSqu": 6186,
      "ĠYet": 6187,
      "opher": 6188,
      "Ġmyster": 6189,
      "ĠKar": 6190,
      "Ġcloth": 6191,
      "Ġprepar": 6192,
      "Ġfriendly": 6193,
      "Ġuseful": 6194,
      "Ġmispronounced": 6195,
      "Ġunclear": 6196,
      "Ġdescri": 6197,
      "Ġbeneath": 6198,
      "cles": 6199,
      "Ġaid": 6200,
      "ĠIll": 6201,
      "ĠBoth": 6202,
      "Ġsuffe": 6203,
      "Ġcomment": 6204,
      "Ġprove": 6205,
      "ĠKim": 6206,
      "Ġuns": 6207,
      "Ġappears": 6208,
      "Ġdesert": 6209,
      "Ġentertain": 6210,
      "Ġhurried": 6211,
      "Ġprotest": 6212,
      "Ġconduct": 6213,
      "ĠAustralian": 6214,
      "Ġmirror": 6215,
      "ĠCastle": 6216,
      "HER": 6217,
      "bour": 6218,
      "Ġtun": 6219,
      "ĠIm": 6220,
      "ĠPict": 6221,
      "andy": 6222,
      "Ġslide": 6223,
      "Ġrealize": 6224,
      "clears": 6225,
      "Ġinstit": 6226,
      "Ġburning": 6227,
      "Ġmixed": 6228,
      "ĠMickey": 6229,
      "-F": 6230,
      "Ġwestern": 6231,
      "Ġsink": 6232,
      "Ġopt": 6233,
      "Ġpale": 6234,
      "Ġupside": 6235,
      "apt": 6236,
      "ĠUK": 6237,
      "Ġgrace": 6238,
      "ogether": 6239,
      "Ġowner": 6240,
      "Ġincident": 6241,
      "Ġconfl": 6242,
      "Ġwinning": 6243,
      "Ġmainly": 6244,
      "Ġinfluence": 6245,
      "Ġpillow": 6246,
      "ĠIrish": 6247,
      "draw": 6248,
      "Ġtie": 6249,
      "Ġbunch": 6250,
      "Ġbodies": 6251,
      "ĠLy": 6252,
      "avis": 6253,
      "anches": 6254,
      "Ġgrandfather": 6255,
      "Ġapolog": 6256,
      "Ġdrove": 6257,
      "iven": 6258,
      "Ġwine": 6259,
      "iture": 6260,
      "etic": 6261,
      "ĠTre": 6262,
      "cho": 6263,
      "chief": 6264,
      "ĠLast": 6265,
      "Ġcommer": 6266,
      "Ġresc": 6267,
      "Ġdarkness": 6268,
      "Ġeventually": 6269,
      "ĠGovernor": 6270,
      "Ġbones": 6271,
      "Ġfier": 6272,
      "Ġhiding": 6273,
      "ĠTime": 6274,
      "ĠSIS": 6275,
      "rol": 6276,
      "Ġsheep": 6277,
      "Ġresist": 6278,
      "Ġcray": 6279,
      "ĠAlright": 6280,
      "Ġtowns": 6281,
      "Ġcupcake": 6282,
      "Ġfairly": 6283,
      "Ġprofessor": 6284,
      "Ġfields": 6285,
      "ĠVirginia": 6286,
      "phe": 6287,
      "Ġsings": 6288,
      "Ġmaid": 6289,
      "Ġpump": 6290,
      "Ġeh": 6291,
      "ĠMiddle": 6292,
      "ĠGirl": 6293,
      "Ġability": 6294,
      "Ġblame": 6295,
      "Ġkidding": 6296,
      "ĠCharlie": 6297,
      "Ġeffects": 6298,
      "iest": 6299,
      "las": 6300,
      "Ġbicycle": 6301,
      "ĠInt": 6302,
      "ĠCos": 6303,
      "ĠGers": 6304,
      "Ġsplend": 6305,
      "Ġapples": 6306,
      "Ġscrew": 6307,
      "Ġbiggest": 6308,
      "Ġfinancial": 6309,
      "Ġstands": 6310,
      "ropol": 6311,
      "Ġrecording": 6312,
      "Ġsorts": 6313,
      "Ġguns": 6314,
      "Ġactivity": 6315,
      "rick": 6316,
      "ĠAng": 6317,
      "ĠVict": 6318,
      "Ġimpl": 6319,
      "Ġprovince": 6320,
      "Ġgrandmother": 6321,
      "Ġtypes": 6322,
      "ĠEveryone": 6323,
      "ĠJews": 6324,
      "ĠMartin": 6325,
      "Good": 6326,
      "ILL": 6327,
      "Ġnuh": 6328,
      "amma": 6329,
      "ĠDiv": 6330,
      "ĠNic": 6331,
      "ĠEaster": 6332,
      "Ġunf": 6333,
      "Ġshoulders": 6334,
      "Ġappointed": 6335,
      "Ġdesk": 6336,
      "ĠRev": 6337,
      "Ġavoid": 6338,
      "ĠTurk": 6339,
      "Ġsouthwestern": 6340,
      "Ġresources": 6341,
      "overy": 6342,
      "tt": 6343,
      "iner": 6344,
      "Ġchat": 6345,
      "aria": 6346,
      "icide": 6347,
      "Ġwhining": 6348,
      "ĠRad": 6349,
      "ĠFair": 6350,
      "Ġconce": 6351,
      "angle": 6352,
      "Ġcrown": 6353,
      "Ġdrum": 6354,
      "Ġsymb": 6355,
      "Ġinvited": 6356,
      "Ġsettlement": 6357,
      "Ġaim": 6358,
      "Ġlosing": 6359,
      "verse": 6360,
      "stead": 6361,
      "ĠDire": 6362,
      "Ġrank": 6363,
      "Ġdisplay": 6364,
      "Ġdese": 6365,
      "ĠJohnny": 6366,
      "Ġdefinitely": 6367,
      "ĠToday": 6368,
      "Ġcitiz": 6369,
      "tape": 6370,
      "oni": 6371,
      "ĠDoug": 6372,
      "ĠOl": 6373,
      "Ġchosen": 6374,
      "whining": 6375,
      "Ġmarked": 6376,
      "Ġkingdom": 6377,
      "ĠSE": 6378,
      "lying": 6379,
      "Ġchap": 6380,
      "Ġwaves": 6381,
      "Ġoblig": 6382,
      "Ġmajority": 6383,
      "Ġcounter": 6384,
      "Ġrubber": 6385,
      "\"?": 6386,
      "-huh": 6387,
      "case": 6388,
      "Ġpoll": 6389,
      "Ġinha": 6390,
      "ĠWild": 6391,
      "ques": 6392,
      "Ġacting": 6393,
      "Ġsetting": 6394,
      "Ġcharacters": 6395,
      "ITH": 6396,
      "Ġscientists": 6397,
      "ĠMargaret": 6398,
      "aun": 6399,
      "za": 6400,
      "Ġgy": 6401,
      "Ġhomes": 6402,
      "acha": 6403,
      "icted": 6404,
      "Ġleague": 6405,
      "encer": 6406,
      "Ġpattern": 6407,
      "Ġscarcely": 6408,
      "Ġextremely": 6409,
      "Ġweekend": 6410,
      "ĠGal": 6411,
      "Ġrushed": 6412,
      "ĠKen": 6413,
      "ARD": 6414,
      "Ġboats": 6415,
      "Ġafford": 6416,
      "Ġbranches": 6417,
      "rane": 6418,
      "Ġends": 6419,
      "Ġstandard": 6420,
      "Ġreplaced": 6421,
      "Ġenjoyed": 6422,
      "Ġrapidly": 6423,
      "Ġsuffered": 6424,
      "sed": 6425,
      "Ġwealth": 6426,
      "ĠYoung": 6427,
      "Ġuniversity": 6428,
      "Ġunderstood": 6429,
      "Ġslipp": 6430,
      "Ġchew": 6431,
      "ĠAlso": 6432,
      "ĠArthur": 6433,
      "Ġpurcha": 6434,
      "Ġoriginally": 6435,
      "fficient": 6436,
      "Ġescap": 6437,
      "war": 6438,
      "wers": 6439,
      "Ġx": 6440,
      "Ġcad": 6441,
      "Ġloose": 6442,
      "ĠCher": 6443,
      "angar": 6444,
      "ivity": 6445,
      "Ġbreaking": 6446,
      "Ġkilling": 6447,
      "Ġhumans": 6448,
      "Ġtransl": 6449,
      "Ġapartment": 6450,
      "Ġdaily": 6451,
      "Ġfailure": 6452,
      "Ġphysical": 6453,
      "whispers": 6454,
      "last": 6455,
      "Ġyo": 6456,
      "ĠMen": 6457,
      "acher": 6458,
      "Ġplus": 6459,
      "essert": 6460,
      "ĠUk": 6461,
      "ĠAmericans": 6462,
      "bridge": 6463,
      "Ġpupp": 6464,
      "ĠPortug": 6465,
      "Ġmethod": 6466,
      "Ġtouched": 6467,
      "FF": 6468,
      "Nina": 6469,
      "Ġcrew": 6470,
      "Ġmort": 6471,
      "Ġfan": 6472,
      "Ġhunt": 6473,
      "ĠAT": 6474,
      "ĠMavis": 6475,
      "stone": 6476,
      "Ġintended": 6477,
      "Ġchop": 6478,
      "Ġhighly": 6479,
      "Ġservant": 6480,
      "Ġproposed": 6481,
      "Ġelder": 6482,
      "uclear": 6483,
      "-le": 6484,
      "goes": 6485,
      "rate": 6486,
      "Ġdessert": 6487,
      "Ġfired": 6488,
      "Ġpit": 6489,
      "ĠHuh": 6490,
      "urance": 6491,
      "Ġaltern": 6492,
      "Ġoldest": 6493,
      "Ġresident": 6494,
      "ontin": 6495,
      "looks": 6496,
      "iraffe": 6497,
      "Ġtournament": 6498,
      "ĠLabour": 6499,
      "Ġarrested": 6500,
      "ĠRemember": 6501,
      "die": 6502,
      "ios": 6503,
      "works": 6504,
      "Ġtim": 6505,
      "Ġcone": 6506,
      "Ġreign": 6507,
      "unts": 6508,
      "ĠLu": 6509,
      "ulty": 6510,
      "Ġclown": 6511,
      "Ġpeas": 6512,
      "Ġfeather": 6513,
      "Ġdistinct": 6514,
      "ĠProt": 6515,
      "Ġjobs": 6516,
      "Ġpainting": 6517,
      "Ġhoping": 6518,
      "ĠEmperor": 6519,
      "ĠCenter": 6520,
      "Ġtemperature": 6521,
      "stein": 6522,
      "IA": 6523,
      "some": 6524,
      "Ġgather": 6525,
      "Ġgained": 6526,
      "ĠWhe": 6527,
      "Ġshel": 6528,
      "Ġrug": 6529,
      "Ġsomehow": 6530,
      "Ġburied": 6531,
      "engers": 6532,
      "Ġdelay": 6533,
      "ev": 6534,
      "ufact": 6535,
      "Ġwra": 6536,
      "Ġsons": 6537,
      "ani": 6538,
      "ano": 6539,
      "owing": 6540,
      "ĠAri": 6541,
      "ĠHaw": 6542,
      "ĠRE": 6543,
      "Ġrac": 6544,
      "Ġworkers": 6545,
      "Ġparties": 6546,
      "Ġfinds": 6547,
      "Ġmeters": 6548,
      "ception": 6549,
      "Ġauthority": 6550,
      "'la": 6551,
      "Ġpipe": 6552,
      "ulk": 6553,
      "rene": 6554,
      "Ġcontain": 6555,
      "iple": 6556,
      "ĠArch": 6557,
      "Ġcooking": 6558,
      "Ġpenny": 6559,
      "Ġdelicious": 6560,
      "Ġconflict": 6561,
      "UCK": 6562,
      "Ġgain": 6563,
      "acle": 6564,
      "stant": 6565,
      "ĠHea": 6566,
      "ĠNana": 6567,
      "Ġplates": 6568,
      "ĠKN": 6569,
      "otted": 6570,
      "Ġalongside": 6571,
      "ĠShould": 6572,
      "Ġefforts": 6573,
      "Ġpalace": 6574,
      "ĠProfessor": 6575,
      "ropriate": 6576,
      "Ġhorn": 6577,
      "Ġrefe": 6578,
      "ĠHill": 6579,
      "ĠFI": 6580,
      "Ġfourteen": 6581,
      "Ġadvant": 6582,
      "Ġcosts": 6583,
      "ĠSenate": 6584,
      "Ġcredit": 6585,
      "Ġwedding": 6586,
      "Ġox": 6587,
      "Ġdump": 6588,
      "orge": 6589,
      "Ġpile": 6590,
      "Ġaside": 6591,
      "Ġsports": 6592,
      "Ġpoison": 6593,
      "ĠAtt": 6594,
      "ancing": 6595,
      "Ġpicking": 6596,
      "Ġhandsome": 6597,
      "Ġexciting": 6598,
      "Ġpatients": 6599,
      "Ġsnap": 6600,
      "Ġproducts": 6601,
      "Ġalphabet": 6602,
      "angaroo": 6603,
      "-and": 6604,
      "rot": 6605,
      "Ġboo": 6606,
      "Ġpure": 6607,
      "omy": 6608,
      "ĠMake": 6609,
      "Ġwhoops": 6610,
      "Ġmechan": 6611,
      "ĠRa": 6612,
      "ĠFound": 6613,
      "ĠJung": 6614,
      "eping": 6615,
      "Ġwhenever": 6616,
      "ague": 6617,
      "Ġproved": 6618,
      "Ġdesire": 6619,
      "ĠAnne": 6620,
      "aze": 6621,
      "Ġcreatures": 6622,
      "Ġexperiment": 6623,
      "Ġbesides": 6624,
      "Ġnetwork": 6625,
      "-se": 6626,
      "Ġselected": 6627,
      "ĠNav": 6628,
      "ĠNik": 6629,
      "umn": 6630,
      "Ġquality": 6631,
      "ĠNobody": 6632,
      "Ġscreen": 6633,
      "Ġattached": 6634,
      "Ġsympt": 6635,
      "Ġknocked": 6636,
      "Ġpackage": 6637,
      "Ġselling": 6638,
      "ua": 6639,
      "Ġpha": 6640,
      "Ġpants": 6641,
      "Ġpiano": 6642,
      "Ġbeer": 6643,
      "ĠAEW": 6644,
      "Ġreasons": 6645,
      "ĠBad": 6646,
      "Ġchain": 6647,
      "ERS": 6648,
      "Ġfamiliar": 6649,
      "Ġreality": 6650,
      "Ġdiscover": 6651,
      "Ġdivided": 6652,
      "Ġfortune": 6653,
      "Ġcereal": 6654,
      "ĠCareer": 6655,
      "ĠBruce": 6656,
      "'am": 6657,
      "RA": 6658,
      "ds": 6659,
      "Ġodd": 6660,
      "ented": 6661,
      "elling": 6662,
      "andra": 6663,
      "Ġotherwise": 6664,
      "ĠArgent": 6665,
      "okes": 6666,
      "Ġrefused": 6667,
      "friend": 6668,
      "Ġtal": 6669,
      "Ġwid": 6670,
      "Ġdough": 6671,
      "Ġtom": 6672,
      "athered": 6673,
      "Ġnib": 6674,
      "ĠBull": 6675,
      "ĠOoh": 6676,
      "umes": 6677,
      "abor": 6678,
      "lfriend": 6679,
      "Ġthrone": 6680,
      "Ġflu": 6681,
      "Ġfairy": 6682,
      "Ġmiser": 6683,
      "Ġsang": 6684,
      "Ġsorrow": 6685,
      "Ġpause": 6686,
      "Ġlone": 6687,
      "ĠPop": 6688,
      "ĠRO": 6689,
      "ĠWhatever": 6690,
      "ructed": 6691,
      "ggy": 6692,
      "ĠTommy": 6693,
      "Ġculture": 6694,
      "Ġmanagement": 6695,
      "Ġsatisf": 6696,
      "ĠHAVE": 6697,
      "ĠFollowing": 6698,
      "'...": 6699,
      "Let": 6700,
      "ĠBud": 6701,
      "ĠEs": 6702,
      "onsense": 6703,
      "Ġseriously": 6704,
      "Ġraise": 6705,
      "Ġsymp": 6706,
      "OUT": 6707,
      "ĠShar": 6708,
      "Ġannoy": 6709,
      "looking": 6710,
      ",you": 6711,
      "Ġcode": 6712,
      "Ġlob": 6713,
      "ĠALL": 6714,
      "ĠHad": 6715,
      "ĠBes": 6716,
      "ĠPac": 6717,
      "hank": 6718,
      "Ġmanufact": 6719,
      "ĠâĢĻ": 6720,
      "Ġbranch": 6721,
      "pton": 6722,
      "Ġsched": 6723,
      "Ġminister": 6724,
      "Ġpresently": 6725,
      "Ġaircraft": 6726,
      "Ġcutting": 6727,
      "Ġinterrupt": 6728,
      "Ġexplained": 6729,
      "ĠSomeone": 6730,
      "Ġprograms": 6731,
      "Ġdivor": 6732,
      "ĠHungry": 6733,
      "Ġprimary": 6734,
      "Ġarchite": 6735,
      ".C": 6736,
      "LA": 6737,
      "cries": 6738,
      "ige": 6739,
      "Ġdust": 6740,
      "Ġdesper": 6741,
      "aws": 6742,
      "ĠBrother": 6743,
      "Ġchecked": 6744,
      "ĠINV": 6745,
      "Ġlabor": 6746,
      "ĠResear": 6747,
      "gers": 6748,
      "Ġpow": 6749,
      "omed": 6750,
      "Ġrear": 6751,
      "ooking": 6752,
      "aging": 6753,
      "Ġthrown": 6754,
      "ĠAsia": 6755,
      "Ġrelief": 6756,
      "Ġscientific": 6757,
      "ĠVermont": 6758,
      "Ġvirus": 6759,
      "Ġnuhhuh": 6760,
      "lied": 6761,
      "wide": 6762,
      "erves": 6763,
      "Ġbeans": 6764,
      "uties": 6765,
      "eable": 6766,
      "ĠLar": 6767,
      "ulate": 6768,
      "Ġflood": 6769,
      "izes": 6770,
      "Ġsmiling": 6771,
      "Ġcrash": 6772,
      "Ġminor": 6773,
      "Ġpulling": 6774,
      "coh": 6775,
      "Ġfreedom": 6776,
      "Ġgiraffe": 6777,
      "ĠWITH": 6778,
      "Ġspect": 6779,
      "Ġvalley": 6780,
      "Ġcris": 6781,
      "Ġpaying": 6782,
      "Ġformula": 6783,
      "Ġforgive": 6784,
      "Ġengaged": 6785,
      "Ġdefeated": 6786,
      "Ġbelongs": 6787,
      "ĠDisney": 6788,
      "nan": 6789,
      "...?": 6790,
      "olar": 6791,
      "Ġshook": 6792,
      "Ġcovers": 6793,
      "ĠIndians": 6794,
      "Ġairport": 6795,
      "ĠDidn": 6796,
      "Ġreports": 6797,
      "izza": 6798,
      "Ġbuddy": 6799,
      "ĠRecords": 6800,
      "Ġnewspaper": 6801,
      "-D": 6802,
      "gment": 6803,
      "Ġtough": 6804,
      "ingly": 6805,
      "sters": 6806,
      "angers": 6807,
      "Ġbelief": 6808,
      "Ġlistened": 6809,
      "Ġcomplex": 6810,
      "Ġsuggested": 6811,
      "Ġcritical": 6812,
      "Ġcircumstances": 6813,
      "Tilda": 6814,
      "bor": 6815,
      "rier": 6816,
      "Ġug": 6817,
      "ĠBon": 6818,
      "gging": 6819,
      "Ġrealized": 6820,
      "Ġtreasure": 6821,
      "Ġpriest": 6822,
      "Ġcompleted": 6823,
      "Ġkissed": 6824,
      "utenant": 6825,
      "-a": 6826,
      "Ġgay": 6827,
      "Ġrent": 6828,
      "Ġdozen": 6829,
      "Ġconference": 6830,
      "Ġboot": 6831,
      "Ġpride": 6832,
      "Ġproof": 6833,
      "Ġchose": 6834,
      "Ġcauses": 6835,
      "Ġconsist": 6836,
      "Ġinstr": 6837,
      "ĠClub": 6838,
      "ĠSwiss": 6839,
      "Ġcontroll": 6840,
      "Ġhealthy": 6841,
      "Ġproperly": 6842,
      "Ġdiscussion": 6843,
      "Ġlocked": 6844,
      "Ġplatform": 6845,
      "ĠWentworth": 6846,
      "Ġsplendid": 6847,
      "book": 6848,
      "{\\": 6849,
      "Ġfederal": 6850,
      "stra": 6851,
      "ĠJun": 6852,
      "Ġbold": 6853,
      "Ġquit": 6854,
      "Ġeaten": 6855,
      "Ġdespite": 6856,
      "ĠAsh": 6857,
      "merican": 6858,
      "Ġreduce": 6859,
      "Ġrecords": 6860,
      "ĠMerle": 6861,
      "Ġslept": 6862,
      "Ġetc": 6863,
      "Ġpeanut": 6864,
      "ĠIraq": 6865,
      "Where": 6866,
      "ties": 6867,
      "isa": 6868,
      "isl": 6869,
      "Ġlic": 6870,
      "Ġhipp": 6871,
      "ĠSuch": 6872,
      "ilty": 6873,
      "ĠYOUR": 6874,
      "Ġjew": 6875,
      "elia": 6876,
      "âĢĻm": 6877,
      "Ġshame": 6878,
      "Ġrestaur": 6879,
      "ĠEduc": 6880,
      "-bye": 6881,
      "umbling": 6882,
      "Ġillustr": 6883,
      "Ġachieve": 6884,
      "ĠSong": 6885,
      "ĠMusic": 6886,
      "oos": 6887,
      "amily": 6888,
      "Ġclay": 6889,
      "Ġguitar": 6890,
      "âĢĻre": 6891,
      "Ġrooms": 6892,
      "ANG": 6893,
      "Ġprotection": 6894,
      "ylvan": 6895,
      "Ġpainted": 6896,
      "Ġsuffering": 6897,
      "zing": 6898,
      "inn": 6899,
      "esome": 6900,
      "ĠSub": 6901,
      "ĠBi": 6902,
      "ells": 6903,
      "Ġwrit": 6904,
      "Ġpreviously": 6905,
      "Ġsecured": 6906,
      "ointment": 6907,
      "apping": 6908,
      "Ġbalance": 6909,
      "Ġcottage": 6910,
      "walk": 6911,
      "ora": 6912,
      "ĠTem": 6913,
      "Ġbears": 6914,
      "ĠAlf": 6915,
      "ams": 6916,
      "ĠHoney": 6917,
      "ĠFive": 6918,
      "Ġsits": 6919,
      "Ġattacked": 6920,
      "Ġactivities": 6921,
      "Ġaccepted": 6922,
      "Ġwaters": 6923,
      "Ġphotograph": 6924,
      "ĠDespite": 6925,
      "Ġdistributed": 6926,
      "Ġjacket": 6927,
      "Ġbon": 6928,
      "esh": 6929,
      "Ġgathered": 6930,
      "asp": 6931,
      "ĠSH": 6932,
      "ĠSouthern": 6933,
      "Ġult": 6934,
      "ĠPenn": 6935,
      "Ġrang": 6936,
      "ĠVol": 6937,
      "Ġelev": 6938,
      "Ġclever": 6939,
      "Ġdisturb": 6940,
      "Ġbadly": 6941,
      "Ġteachers": 6942,
      "Ġprogramme": 6943,
      "Ġholiday": 6944,
      "Ġscratch": 6945,
      "sembly": 6946,
      "Ġapproximately": 6947,
      "KE": 6948,
      "RY": 6949,
      "upp": 6950,
      "Ġsigh": 6951,
      "Ġcro": 6952,
      "Ġfaint": 6953,
      "ĠSwe": 6954,
      "ĠHas": 6955,
      "ĠDet": 6956,
      "ĠFur": 6957,
      "Ġroles": 6958,
      "Ġbug": 6959,
      "nesota": 6960,
      "Ġcloset": 6961,
      "Ġhunting": 6962,
      "An": 6963,
      "Of": 6964,
      "Whin": 6965,
      "hamed": 6966,
      "Ġbid": 6967,
      "Ġdom": 6968,
      "Ġheight": 6969,
      "ĠSa": 6970,
      "Ġstove": 6971,
      "Ġspare": 6972,
      "Ġvast": 6973,
      "Ġhurts": 6974,
      "Ġadvance": 6975,
      "Ġgrowth": 6976,
      "Ġrequires": 6977,
      "Ġequal": 6978,
      "bbed": 6979,
      "playing": 6980,
      "stitution": 6981,
      "Ġtender": 6982,
      "Ġawarded": 6983,
      "ias": 6984,
      "Ġfart": 6985,
      "Ġnomin": 6986,
      "lection": 6987,
      "Ġkangaroo": 6988,
      "ĠGra": 6989,
      "ĠFoot": 6990,
      "Ġseek": 6991,
      "Ġsciss": 6992,
      "Ġconsum": 6993,
      "ĠCarl": 6994,
      "ĠLeon": 6995,
      "Ġsafely": 6996,
      "ĠMeliss": 6997,
      "Ġhidden": 6998,
      "Ġappreciate": 6999,
      "Ġgirlfriend": 7000,
      "Ġinnocent": 7001,
      "referent": 7002,
      "had": 7003,
      "Ġfile": 7004,
      "Ġfishing": 7005,
      "....": 7006,
      "ĠBook": 7007,
      "ĠBern": 7008,
      "ĠBilly": 7009,
      "Ġseats": 7010,
      "ĠPra": 7011,
      "ĠDown": 7012,
      "ulated": 7013,
      "Ġspo": 7014,
      "Ġspr": 7015,
      "Ġplayers": 7016,
      "Ġchase": 7017,
      "Ġbitter": 7018,
      "Ġprompt": 7019,
      "Ġgovernor": 7020,
      "Ġprize": 7021,
      "Ġequip": 7022,
      "Ġdefend": 7023,
      "Ġcowboy": 7024,
      "ĠPrincess": 7025,
      "ĠMajesty": 7026,
      "-th": 7027,
      "lings": 7028,
      "Ġpity": 7029,
      "imp": 7030,
      "ĠCy": 7031,
      "Ġstack": 7032,
      "ĠPower": 7033,
      "ĠDON": 7034,
      "igan": 7035,
      "Ġbrush": 7036,
      "Ġunit": 7037,
      "Ġarticle": 7038,
      "ĠMinnesota": 7039,
      "Ġcrossed": 7040,
      "Ġincreasing": 7041,
      "Ġburned": 7042,
      "Ġsuspic": 7043,
      "ĠJacob": 7044,
      "PA": 7045,
      "pass": 7046,
      "Ġ:": 7047,
      "Ġsin": 7048,
      "Ġinfect": 7049,
      "ĠSue": 7050,
      "Ġsees": 7051,
      "ĠOH": 7052,
      "Ġupper": 7053,
      "Ġallows": 7054,
      "ĠVen": 7055,
      "Ġdesp": 7056,
      "Ġmighty": 7057,
      "Ġbegun": 7058,
      "Ġinstance": 7059,
      "Ġanswers": 7060,
      "noise": 7061,
      "ĠBlue": 7062,
      "Ġsales": 7063,
      "Ġpotential": 7064,
      "Ġestablish": 7065,
      "Ġassistant": 7066,
      "-W": 7067,
      "-old": 7068,
      "ooth": 7069,
      "uing": 7070,
      "Ã¦": 7071,
      "isher": 7072,
      "ĠAmy": 7073,
      "Ġange": 7074,
      "Ġguests": 7075,
      "Ġhappiness": 7076,
      "Ġeats": 7077,
      "Ġhelps": 7078,
      "Ġattended": 7079,
      "Ġglance": 7080,
      "Ġswear": 7081,
      "Ġdrama": 7082,
      "Ġpersu": 7083,
      "Ġrelative": 7084,
      "thel": 7085,
      "Ġhundreds": 7086,
      "Ġevolution": 7087,
      "which": 7088,
      "ĠTrump": 7089,
      "Ġconcert": 7090,
      "ALL": 7091,
      "Ġadmit": 7092,
      "Ġrecognize": 7093,
      "Ġeconomic": 7094,
      "Ġbillion": 7095,
      "Whinney": 7096,
      "-R": 7097,
      "Ġnail": 7098,
      "Ġbeast": 7099,
      "ĠLie": 7100,
      "Ġunable": 7101,
      "Ġshared": 7102,
      "Ġwarning": 7103,
      "UNC": 7104,
      "-pitched": 7105,
      "Ġcommonly": 7106,
      "Ġrepresented": 7107,
      "Ġlifted": 7108,
      "Ġdunno": 7109,
      "!âĢĻ": 7110,
      "Be": 7111,
      "cest": 7112,
      "fle": 7113,
      "nels": 7114,
      "Ġtied": 7115,
      "Ġsam": 7116,
      "Ġded": 7117,
      "usted": 7118,
      "ĠOw": 7119,
      "icket": 7120,
      "ART": 7121,
      "ĠInter": 7122,
      "Ġshake": 7123,
      "Ġbreast": 7124,
      "ESS": 7125,
      "Ġproduce": 7126,
      "Ġroads": 7127,
      "iverse": 7128,
      "ĠJerry": 7129,
      "Ġmultiple": 7130,
      "Ġfurniture": 7131,
      "-to": 7132,
      ".--": 7133,
      "magn": 7134,
      "Ġtire": 7135,
      "ĠSC": 7136,
      "ĠPo": 7137,
      "unting": 7138,
      "oli": 7139,
      "emies": 7140,
      "ateful": 7141,
      "Ġconclud": 7142,
      "Ġconsequ": 7143,
      "Ġguilty": 7144,
      "Ġlands": 7145,
      "Ġpresented": 7146,
      "ÃŃt": 7147,
      "ĠDanny": 7148,
      "Ġcompanion": 7149,
      "Ġconnected": 7150,
      "Ġfalse": 7151,
      "dess": 7152,
      "orb": 7153,
      "ĠTurn": 7154,
      "ĠSk": 7155,
      "Ġrush": 7156,
      "Ġaband": 7157,
      "Ġgettin": 7158,
      "Ġjustice": 7159,
      "Ġboom": 7160,
      "ĠChic": 7161,
      "ĠAlice": 7162,
      "Ġearned": 7163,
      "anche": 7164,
      "ologist": 7165,
      "umbled": 7166,
      "Ġsquee": 7167,
      "Ġstepped": 7168,
      "Ġstatement": 7169,
      "Ġaccompl": 7170,
      "Ġadditional": 7171,
      "Ġsymptoms": 7172,
      "Ġlonely": 7173,
      "gues": 7174,
      "uate": 7175,
      "Ġaston": 7176,
      "ĠSil": 7177,
      "ĠBav": 7178,
      "Ġkick": 7179,
      "ĠEthel": 7180,
      "ĠHead": 7181,
      "ĠKansas": 7182,
      "ints": 7183,
      "Ġdiss": 7184,
      "Ġmoments": 7185,
      "Ġexpensive": 7186,
      "Ġoccupied": 7187,
      "Ġacquaint": 7188,
      "ĠOpen": 7189,
      "gency": 7190,
      "Ġmuseum": 7191,
      "ĠIII": 7192,
      "orter": 7193,
      "ĠTam": 7194,
      "Ġwashers": 7195,
      "ĠCub": 7196,
      "Ġracing": 7197,
      "eps": 7198,
      "ĠStand": 7199,
      "Ġwave": 7200,
      "Ġexpand": 7201,
      "Ġcausing": 7202,
      "OULD": 7203,
      "Ġestim": 7204,
      "Ġhonour": 7205,
      "Ġshouted": 7206,
      "ylvania": 7207,
      "-V": 7208,
      "IE": 7209,
      "Ġpizza": 7210,
      "Ġlung": 7211,
      "ĠShan": 7212,
      "ĠWatch": 7213,
      "ĠBren": 7214,
      "Ġeastern": 7215,
      "ĠShow": 7216,
      "Ġinspect": 7217,
      "scream": 7218,
      "ĠAgain": 7219,
      "ĠRodger": 7220,
      "ĠFrancisco": 7221,
      "writer": 7222,
      "Ġequipment": 7223,
      "Who": 7224,
      "name": 7225,
      "Ġyum": 7226,
      "ĠAk": 7227,
      "ĠOb": 7228,
      "ĠAnyway": 7229,
      "ĠPolice": 7230,
      "Ġindustrial": 7231,
      "ĠMaggie": 7232,
      "ĠService": 7233,
      "Ġsympat": 7234,
      "cing": 7235,
      "Ġanger": 7236,
      "Ġknee": 7237,
      "ĠJUST": 7238,
      "âĢĻll": 7239,
      "bef": 7240,
      "Ġpassage": 7241,
      "Ġnearby": 7242,
      "ĠPhilip": 7243,
      "Ġillness": 7244,
      "ĠCommittee": 7245,
      "ĠTele": 7246,
      "Ġpropos": 7247,
      "ĠRoad": 7248,
      "ĠHuman": 7249,
      "Cause": 7250,
      "mans": 7251,
      "Ġ{\\": 7252,
      "ĠGames": 7253,
      "ulting": 7254,
      "Ġalcoh": 7255,
      "akin": 7256,
      "Ġrope": 7257,
      "adder": 7258,
      "Ġactions": 7259,
      "Ġdecor": 7260,
      "Ġbaseball": 7261,
      "Ġdefeat": 7262,
      "porary": 7263,
      "Ġdelighted": 7264,
      "Ġautom": 7265,
      "Ġexercise": 7266,
      "ĠThrough": 7267,
      "'M": 7268,
      "ture": 7269,
      "uous": 7270,
      "Ġnick": 7271,
      "lyn": 7272,
      "Ġkil": 7273,
      "Ġknees": 7274,
      "ĠRun": 7275,
      "ĠGro": 7276,
      "ĠKnow": 7277,
      "Ġchampion": 7278,
      "ĠAss": 7279,
      "inson": 7280,
      "Ġdollar": 7281,
      "Ġclosely": 7282,
      "Ġboxes": 7283,
      "Ġsupported": 7284,
      "Ġdoggy": 7285,
      "Ġremarked": 7286,
      "ĠHelp": 7287,
      "Ġpregnant": 7288,
      "hus": 7289,
      "och": 7290,
      "Ġeth": 7291,
      "Ġoops": 7292,
      "omer": 7293,
      "ĠBour": 7294,
      "ĠOs": 7295,
      "ĠFree": 7296,
      "Ġsport": 7297,
      "Ġagent": 7298,
      "ection": 7299,
      "Ġswall": 7300,
      "Ġconfess": 7301,
      "Ġconnection": 7302,
      "ĠRamsey": 7303,
      "Ġstranger": 7304,
      "Ġagreement": 7305,
      "ghan": 7306,
      "mouth": 7307,
      "wan": 7308,
      "zy": 7309,
      "Ġwicked": 7310,
      "rels": 7311,
      "Ġfant": 7312,
      "Ġsav": 7313,
      "ĠJones": 7314,
      "Ġunfortun": 7315,
      "Ġhug": 7316,
      "Ġours": 7317,
      "Ġmob": 7318,
      "Ġcommittee": 7319,
      "Ġmagazine": 7320,
      "ĠZe": 7321,
      "Ġawake": 7322,
      "Ġilleg": 7323,
      "ronic": 7324,
      "Ġoperation": 7325,
      "ĠJersey": 7326,
      "Ġscissors": 7327,
      ")}": 7328,
      ".A": 7329,
      "hell": 7330,
      "Ġsought": 7331,
      "Ġdim": 7332,
      "icing": 7333,
      "Ġonline": 7334,
      "Ġreck": 7335,
      "urd": 7336,
      "uls": 7337,
      "Ġconcl": 7338,
      "venue": 7339,
      "Ġrecall": 7340,
      "ĠPhilipp": 7341,
      "pointing": 7342,
      "ĠEverybody": 7343,
      "Ġbroadcast": 7344,
      "ĠBertha": 7345,
      "Ġsatisfact": 7346,
      "GFA": 7347,
      "__": 7348,
      "water": 7349,
      "yo": 7350,
      "Ġmac": 7351,
      "Ġgal": 7352,
      "Ġthorough": 7353,
      "ĠTar": 7354,
      "Ġwebs": 7355,
      "ĠWat": 7356,
      "berry": 7357,
      "ĠKir": 7358,
      "Ġgotten": 7359,
      "ĠUs": 7360,
      "Ġclip": 7361,
      "ĠViet": 7362,
      "Ġchart": 7363,
      "iversal": 7364,
      "Ġlanded": 7365,
      "Ġmagnetic": 7366,
      "Ġimportance": 7367,
      "Ġprinci": 7368,
      "Ġscreaming": 7369,
      "Ġproducer": 7370,
      "Ġmicrophone": 7371,
      "ko": 7372,
      "enes": 7373,
      "Ġgently": 7374,
      "Ġnuclear": 7375,
      "ĠAB": 7376,
      "ĠARE": 7377,
      "Ġgoals": 7378,
      "Ġjoint": 7379,
      "Ġspark": 7380,
      "Ġcompared": 7381,
      "Ġimage": 7382,
      "Ġtravell": 7383,
      "Ġsupply": 7384,
      "eaking": 7385,
      "Ġpolitics": 7386,
      "Ġordinary": 7387,
      "Ġforests": 7388,
      "ĠSteve": 7389,
      "Ġexchange": 7390,
      "ropolitan": 7391,
      "ĠKNOW": 7392,
      "Ġhes": 7393,
      "entine": 7394,
      "pshire": 7395,
      "Ġremove": 7396,
      "Ġremaining": 7397,
      "Ġcriter": 7398,
      "Ġdistingu": 7399,
      "Ġhorrible": 7400,
      "Ġtemple": 7401,
      "Ġvictims": 7402,
      "Ġaffair": 7403,
      "Ġrevolution": 7404,
      "PS": 7405,
      "bar": 7406,
      "box": 7407,
      "ĠTay": 7408,
      "ela": 7409,
      "ĠSociety": 7410,
      "Ġtrained": 7411,
      "Ġdiamond": 7412,
      "GRF": 7413,
      "ĠBattle": 7414,
      "Ġinvestigation": 7415,
      "Ġdeparted": 7416,
      "Ġassociated": 7417,
      "ĠChicago": 7418,
      "sounds": 7419,
      "tles": 7420,
      "vo": 7421,
      "Ġtrop": 7422,
      "Ġcub": 7423,
      "ann": 7424,
      "Ġpant": 7425,
      "Ġ[\"": 7426,
      "ĠHER": 7427,
      "ĠRIGHT": 7428,
      "Ġglobal": 7429,
      "ĠProd": 7430,
      "Ġlesson": 7431,
      "inois": 7432,
      "Ġdoctors": 7433,
      "'RE": 7434,
      "-like": 7435,
      "/BR": 7436,
      "MB": 7437,
      "Ġtale": 7438,
      "Ġcraw": 7439,
      "ĠAwards": 7440,
      "ĠMove": 7441,
      "ĠCorn": 7442,
      "rose": 7443,
      "ĠBam": 7444,
      "Ġenemies": 7445,
      "ĠArmen": 7446,
      "Ġincred": 7447,
      "Ġmillions": 7448,
      "comune": 7449,
      "ĠCommission": 7450,
      "Ġfleet": 7451,
      "Ġarranged": 7452,
      "ĠIllinois": 7453,
      "Ġadvantage": 7454,
      "-r": 7455,
      "/ER": 7456,
      "Here": 7457,
      "Ġwitch": 7458,
      "Ġpushing": 7459,
      "ĠSl": 7460,
      "ĠBang": 7461,
      "ĠBible": 7462,
      "ĠKong": 7463,
      "Ġgreatly": 7464,
      "Ġkeys": 7465,
      "Ġgreet": 7466,
      "Ġorganized": 7467,
      "ĠTeam": 7468,
      "Ġdevice": 7469,
      "Ġruled": 7470,
      "ĠWales": 7471,
      "Ġsuffer": 7472,
      "/Mac": 7473,
      "ĠCompany": 7474,
      "Ġnibbled": 7475,
      "happy": 7476,
      "orpor": 7477,
      "atched": 7478,
      "ĠScience": 7479,
      "ĠGET": 7480,
      "Ġdrunk": 7481,
      "Ġrelax": 7482,
      "Ġinstant": 7483,
      "Ġjumping": 7484,
      "Ġdrops": 7485,
      "Ġdetails": 7486,
      "Ġhousing": 7487,
      "Ġviolence": 7488,
      "ĠAnton": 7489,
      "ĠBelg": 7490,
      "Ġdreadful": 7491,
      "Ġugly": 7492,
      "rets": 7493,
      "imer": 7494,
      "ĠHong": 7495,
      "Ġdece": 7496,
      "Ġcoal": 7497,
      "Ġunique": 7498,
      "Ġregret": 7499,
      "Ġpassengers": 7500,
      "Ġsooner": 7501,
      "Ġfactory": 7502,
      "ONE": 7503,
      "Ġadvanced": 7504,
      "ĠGrace": 7505,
      "Ġlabel": 7506,
      "Ġreferred": 7507,
      "Ġhistorical": 7508,
      "quarters": 7509,
      "contin": 7510,
      "yellow": 7511,
      "onel": 7512,
      "Ġdyn": 7513,
      "esc": 7514,
      "Ġbeep": 7515,
      "Ġwashing": 7516,
      "irteen": 7517,
      "ĠBird": 7518,
      "ĠNations": 7519,
      "Ġsocks": 7520,
      "ĠEastern": 7521,
      "ĠJam": 7522,
      "Ġspite": 7523,
      "Ġgray": 7524,
      "Ġactual": 7525,
      "Ġwaved": 7526,
      "Ġwarri": 7527,
      "Ġtribe": 7528,
      "Ġmarks": 7529,
      "Ġbrand": 7530,
      "ĠJackson": 7531,
      "Ġmurdered": 7532,
      "ĠIslamic": 7533,
      "olarship": 7534,
      "ĠTower": 7535,
      "ĠWalk": 7536,
      "ĠPL": 7537,
      "ĠForm": 7538,
      "orders": 7539,
      "Ġcheeks": 7540,
      "Ġcapable": 7541,
      "ĠLooks": 7542,
      "ika": 7543,
      "ĠBenj": 7544,
      "Ġfellows": 7545,
      "archers": 7546,
      "Ġfolks": 7547,
      "keeper": 7548,
      "ĠEducation": 7549,
      "To": 7550,
      "bow": 7551,
      "iot": 7552,
      "rown": 7553,
      "only": 7554,
      "Ġtox": 7555,
      "Ġgang": 7556,
      "ĠTry": 7557,
      "Ġstole": 7558,
      "Ġkings": 7559,
      "Ġash": 7560,
      "ifts": 7561,
      "Ġalarm": 7562,
      "ĠJa": 7563,
      "Ġvit": 7564,
      "Ġfeature": 7565,
      "Ġprem": 7566,
      "encing": 7567,
      "Ġsigns": 7568,
      "ĠSecurity": 7569,
      "Ġhorseshoe": 7570,
      "Ġvolume": 7571,
      "Ġhyp": 7572,
      "Ġgarage": 7573,
      "ĠBetty": 7574,
      "break": 7575,
      "ĠGolden": 7576,
      "Ġtip": 7577,
      "Ġbrill": 7578,
      "ington": 7579,
      "ĠIan": 7580,
      "Ġpond": 7581,
      "acter": 7582,
      "ĠWars": 7583,
      "ĠWonder": 7584,
      "osis": 7585,
      "intend": 7586,
      "Ġclient": 7587,
      "ĠStone": 7588,
      "ĠVo": 7589,
      "atherine": 7590,
      "Ġprecious": 7591,
      "ĠSpir": 7592,
      "Ġtrem": 7593,
      "ĠConf": 7594,
      "Ġsteal": 7595,
      "Ġwhispers": 7596,
      "Ġrolling": 7597,
      "Ġmunicipal": 7598,
      "ĠRepublican": 7599,
      "hetic": 7600,
      "Ġaccompan": 7601,
      "Ġfrequently": 7602,
      "ĠOffice": 7603,
      "TH": 7604,
      "WE": 7605,
      "Yeah": 7606,
      "mosp": 7607,
      "Ġsust": 7608,
      "orious": 7609,
      "Ġstones": 7610,
      "ĠNight": 7611,
      "unte": 7612,
      "ĠGard": 7613,
      "ĠLib": 7614,
      "ĠFre": 7615,
      "Ġguest": 7616,
      "neath": 7617,
      "Ġhanded": 7618,
      "rows": 7619,
      "Ġsending": 7620,
      "Ġresearchers": 7621,
      "Ġthrowing": 7622,
      "ĠHampshire": 7623,
      "Ġyelling": 7624,
      "ĠWindows": 7625,
      "When": 7626,
      "Ġwing": 7627,
      "Ġdull": 7628,
      "Ġpup": 7629,
      "Ġthrill": 7630,
      "ĠAra": 7631,
      "Ġreward": 7632,
      "riger": 7633,
      "ĠCaterpillar": 7634,
      "Ġancest": 7635,
      "Ġlif": 7636,
      "iform": 7637,
      "Ġtrunk": 7638,
      "Ġbrings": 7639,
      "izations": 7640,
      "Ġappeal": 7641,
      "Ġmathem": 7642,
      "Ġdriven": 7643,
      "Ġframe": 7644,
      "Ġsquir": 7645,
      "Ġdeeply": 7646,
      "Ġbasis": 7647,
      "Ġbasic": 7648,
      "Ġlimited": 7649,
      "Ġsources": 7650,
      "Ġsplit": 7651,
      "ĠHurry": 7652,
      "talking": 7653,
      "dro": 7654,
      "long": 7655,
      "turns": 7656,
      "Ġtoast": 7657,
      "Ġwashed": 7658,
      "ĠCa": 7659,
      "ĠDE": 7660,
      "resp": 7661,
      "aka": 7662,
      "Ġarmed": 7663,
      "Ġquant": 7664,
      "Ġprote": 7665,
      "Ġresolved": 7666,
      "EST": 7667,
      "Ġdrinks": 7668,
      "Ġconfir": 7669,
      "whines": 7670,
      "Ġattacks": 7671,
      "Ġtempt": 7672,
      "-law": 7673,
      "ĠDaniel": 7674,
      "hetti": 7675,
      "Ġstruggle": 7676,
      "Ġlatter": 7677,
      "Ġchampionship": 7678,
      "Ġneighborhood": 7679,
      "Did": 7680,
      "pro": 7681,
      "Ã¤": 7682,
      "Ġborrow": 7683,
      "Ġcert": 7684,
      "Ġdu": 7685,
      "eding": 7686,
      "Ġlamb": 7687,
      "ĠSn": 7688,
      "ĠSud": 7689,
      "ĠBus": 7690,
      "olen": 7691,
      "estic": 7692,
      "hant": 7693,
      "ĠWere": 7694,
      "ĠTherefore": 7695,
      "Ġshower": 7696,
      "Ġconsult": 7697,
      "Ġrefers": 7698,
      "Ġcorpor": 7699,
      "Ġorganis": 7700,
      "Ġencoura": 7701,
      "Ġmusical": 7702,
      "Ġexistence": 7703,
      "Ġshopping": 7704,
      "oscow": 7705,
      "ĠRevolution": 7706,
      "!--": 7707,
      "NON": 7708,
      "gle": 7709,
      "Ġaye": 7710,
      "Ġbark": 7711,
      "Ġpanc": 7712,
      "vering": 7713,
      "keys": 7714,
      "Ġjury": 7715,
      "hia": 7716,
      "ivered": 7717,
      "ĠKate": 7718,
      "ĠUE": 7719,
      "Ġwrites": 7720,
      "Ġteen": 7721,
      "Ġcommitted": 7722,
      "Ġelement": 7723,
      "Ġache": 7724,
      "Ġsticking": 7725,
      "Ġimpati": 7726,
      "Ġtremb": 7727,
      "shine": 7728,
      "who": 7729,
      "Ġstronger": 7730,
      "-five": 7731,
      "ĠMean": 7732,
      "Ġauthorities": 7733,
      "Ġmaterials": 7734,
      "Ġcaptured": 7735,
      "Ġobliged": 7736,
      "-N": 7737,
      "UE": 7738,
      "vard": 7739,
      "Ġfate": 7740,
      "Ġpowers": 7741,
      "ĠMoscow": 7742,
      "ĠWoo": 7743,
      "Ġintense": 7744,
      "ĠAndy": 7745,
      "ender": 7746,
      "Ġpointed": 7747,
      "Ġfollows": 7748,
      "ĠRepresent": 7749,
      "Ġscale": 7750,
      "Ġprisoner": 7751,
      "ĠNorway": 7752,
      "ĠMuslim": 7753,
      "Ġstroke": 7754,
      "Ġsenior": 7755,
      "ĠSweden": 7756,
      "nut": 7757,
      "Ġax": 7758,
      "Ġmate": 7759,
      "Ġthirst": 7760,
      "ĠHard": 7761,
      "ĠHoly": 7762,
      "ores": 7763,
      "ĠLau": 7764,
      "Ġvain": 7765,
      "mann": 7766,
      "Ġmayor": 7767,
      "Ġcommission": 7768,
      "ĠAlan": 7769,
      "ibly": 7770,
      "ĠClara": 7771,
      "ĠJanet": 7772,
      "ĠCarle": 7773,
      "-looking": 7774,
      "ĠPrize": 7775,
      "Ah": 7776,
      "rative": 7777,
      "Ġmama": 7778,
      "Ġfer": 7779,
      "Ġnah": 7780,
      "oti": 7781,
      "imum": 7782,
      "Ġforb": 7783,
      "Ġjeal": 7784,
      "igen": 7785,
      "Ġqueer": 7786,
      "Ġfever": 7787,
      "ĠThough": 7788,
      "Ġswift": 7789,
      "liver": 7790,
      "ĠTHERE": 7791,
      "Ġcolored": 7792,
      "aughters": 7793,
      "Ġartists": 7794,
      "-de": 7795,
      "ĠColin": 7796,
      "OOK": 7797,
      "ĠScottish": 7798,
      "Ġvegetables": 7799,
      "ĠBundle": 7800,
      "Ġcrisis": 7801,
      "',": 7802,
      "JAK": 7803,
      "lers": 7804,
      "Ġben": 7805,
      "Ġdirt": 7806,
      "Ġitems": 7807,
      "ĠHmm": 7808,
      "umble": 7809,
      "Ġbron": 7810,
      "ysis": 7811,
      "iley": 7812,
      "Ġtrail": 7813,
      "Ġsets": 7814,
      "REAM": 7815,
      "Ġstores": 7816,
      "Ġdivision": 7817,
      "ĠHaving": 7818,
      "Ġiniti": 7819,
      "Ġwounded": 7820,
      "Ġï¿½ï¿½ï¿½ï¿½ï¿½ï¿½ï¿½": 7821,
      "ĠBavaria": 7822,
      "wa": 7823,
      "Ġly": 7824,
      "ĠMem": 7825,
      "Ġwhist": 7826,
      "Ġatmosp": 7827,
      "eare": 7828,
      "ĠDam": 7829,
      "Ġshed": 7830,
      "Ġsauce": 7831,
      "uled": 7832,
      "Ġunderneath": 7833,
      "Ġentrance": 7834,
      "Ġconsists": 7835,
      "Ġunderstanding": 7836,
      "Ġconfidence": 7837,
      "Ġservants": 7838,
      "Ġestate": 7839,
      "Ġvariety": 7840,
      "Ġclaimed": 7841,
      "ĠUpon": 7842,
      "Ġadventure": 7843,
      "Ġcurious": 7844,
      "Ġsucceeded": 7845,
      "ĠHeaven": 7846,
      "Ġmiserable": 7847,
      "Ġalcohol": 7848,
      "tes": 7849,
      "Ġreact": 7850,
      "ĠNa": 7851,
      "unched": 7852,
      "ĠRaj": 7853,
      "Ġworn": 7854,
      "Ġvision": 7855,
      "ĠUP": 7856,
      "Ġcliff": 7857,
      "Ġunknown": 7858,
      "gets": 7859,
      "Ġsites": 7860,
      "ĠLeo": 7861,
      "Ġtests": 7862,
      "ĠEmily": 7863,
      "ĠCentre": 7864,
      "ĠMexican": 7865,
      "Ġaudience": 7866,
      "Ġrevealed": 7867,
      "ĠGeorgia": 7868,
      "Ġcommercial": 7869,
      "ĠBenjamin": 7870,
      "-k": 7871,
      "cream": 7872,
      "Ġmile": 7873,
      "Ġgum": 7874,
      "Ġhills": 7875,
      "ĠSon": 7876,
      "sect": 7877,
      "Ġseated": 7878,
      "Ġashamed": 7879,
      "ĠOrd": 7880,
      "Ġshh": 7881,
      "istics": 7882,
      "Ġcomr": 7883,
      "agers": 7884,
      "ĠIntern": 7885,
      "Ġunits": 7886,
      "ogue": 7887,
      "Ġcomposed": 7888,
      "Ġslipped": 7889,
      "Ġcrim": 7890,
      "Ġhorror": 7891,
      "Ġtransform": 7892,
      "ĠGuard": 7893,
      "Ġsecretary": 7894,
      "Ġlaunch": 7895,
      "Ġvehicle": 7896,
      "Ġsymbol": 7897,
      "Ġfarther": 7898,
      "-off": 7899,
      "fa": 7900,
      "oard": 7901,
      "rus": 7902,
      "Ġlately": 7903,
      "asion": 7904,
      "ĠOliver": 7905,
      "ophy": 7906,
      "Ġshove": 7907,
      "Ġunus": 7908,
      "ulls": 7909,
      "Ġacad": 7910,
      "Ġaccused": 7911,
      "ĠSpencer": 7912,
      "ĠReport": 7913,
      "Ġpressed": 7914,
      "Ġringing": 7915,
      "ĠLeave": 7916,
      "ĠAldworth": 7917,
      "ĠKorea": 7918,
      "Ġadopted": 7919,
      "ĠResearch": 7920,
      "rated": 7921,
      "Ġcash": 7922,
      "lets": 7923,
      "ali": 7924,
      "ĠWrest": 7925,
      "ĠPier": 7926,
      "ĠPerson": 7927,
      "ĠLuke": 7928,
      "Ġdeer": 7929,
      "ĠJr": 7930,
      "Ġera": 7931,
      "Ġcompar": 7932,
      "Ġcarbon": 7933,
      "ollo": 7934,
      "ulture": 7935,
      "Ġcommit": 7936,
      "Ġkindly": 7937,
      "Ġincome": 7938,
      "ĠChristopher": 7939,
      "Ġawesome": 7940,
      "Ġofficially": 7941,
      "Ġsteel": 7942,
      "Ġgrandma": 7943,
      "Ġmurm": 7944,
      "Ġheavily": 7945,
      "Ġpresidential": 7946,
      "Ġdisappointed": 7947,
      "Ġearnest": 7948,
      "Ġhammer": 7949,
      "gasps": 7950,
      "Ġroute": 7951,
      "ĠBesides": 7952,
      "ĠTaylor": 7953,
      "Ġjealous": 7954,
      "aurs": 7955,
      "py": 7956,
      "uj": 7957,
      "uge": 7958,
      "reck": 7959,
      "Ġmos": 7960,
      "Ġbeings": 7961,
      "ĠSky": 7962,
      "Ġreference": 7963,
      "ĠCur": 7964,
      "ĠNorthern": 7965,
      "anta": 7966,
      "ĠRail": 7967,
      "ĠLi": 7968,
      "Ġconvin": 7969,
      "Ġslip": 7970,
      "Ġbeds": 7971,
      "Ġsounded": 7972,
      "Ġexplan": 7973,
      "ĠPlan": 7974,
      "Ġarrival": 7975,
      "Ġclaims": 7976,
      "Ġbenefit": 7977,
      "Ġresponsibility": 7978,
      "Ġaffected": 7979,
      "Ġpermission": 7980,
      "Ġromantic": 7981,
      "LI": 7982,
      "OP": 7983,
      "egr": 7984,
      "Ġpitch": 7985,
      "Ġsem": 7986,
      "Ġsequ": 7987,
      "ĠPass": 7988,
      "ĠPoint": 7989,
      "ĠDu": 7990,
      "ĠNE": 7991,
      "unning": 7992,
      "ĠJenny": 7993,
      "Ġcomedy": 7994,
      "ĠUnt": 7995,
      "Ġguide": 7996,
      "Ġbuck": 7997,
      "vention": 7998,
      "Ġsurgery": 7999,
      "ĠAmong": 8000,
      "Ġfortun": 8001,
      "Ġspirits": 8002,
      "Ġclimbed": 8003,
      "cipal": 8004,
      "Ġcitizens": 8005,
      "-man": 8006,
      "_.": 8007,
      "sylvania": 8008,
      "ito": 8009,
      "Ġnonsense": 8010,
      "ĠAub": 8011,
      "ĠMuseum": 8012,
      "Ġseized": 8013,
      "ĠNurse": 8014,
      "Ġtricks": 8015,
      "Ġunhappy": 8016,
      "Ġapparently": 8017,
      "ultural": 8018,
      "Ġstops": 8019,
      "Ġfarmer": 8020,
      "ĠAfghan": 8021,
      "Ġsignal": 8022,
      "ervative": 8023,
      "GRM": 8024,
      "ĠGreater": 8025,
      "Ġbanks": 8026,
      "ĠGreece": 8027,
      "Ġtorn": 8028,
      "Ġchallenge": 8029,
      "Ġensure": 8030,
      "ĠMelissa": 8031,
      "lock": 8032,
      "win": 8033,
      "Ġwis": 8034,
      "Ġward": 8035,
      "Ġwoke": 8036,
      "hands": 8037,
      "Ġlaughter": 8038,
      "lement": 8039,
      "idays": 8040,
      "Ġsector": 8041,
      "raine": 8042,
      "ĠRangers": 8043,
      "ĠFestival": 8044,
      "resents": 8045,
      "rang": 8046,
      "Ġcarpet": 8047,
      "Ġsmooth": 8048,
      "Ġchanging": 8049,
      "Ġtrains": 8050,
      "Ġelements": 8051,
      "Ġpassion": 8052,
      "char": 8053,
      "Ġhated": 8054,
      "Ġreturns": 8055,
      "Ġprovides": 8056,
      "Ġdiagn": 8057,
      "Ġactivist": 8058,
      "Ġdegrees": 8059,
      "Ġdetermine": 8060,
      "Ġnegative": 8061,
      "ĠBerlin": 8062,
      "/MT": 8063,
      "ĠJennie": 8064,
      "Ġnearer": 8065,
      "Ġwondered": 8066,
      "rigerator": 8067,
      "ĠUEFA": 8068,
      "ND": 8069,
      "Ġwolf": 8070,
      "Ġcries": 8071,
      "Ġdomin": 8072,
      "asters": 8073,
      "unn": 8074,
      "ĠGulf": 8075,
      "Ġrubb": 8076,
      "elp": 8077,
      "Ġspy": 8078,
      "Ġspill": 8079,
      "ĠStay": 8080,
      "ĠStella": 8081,
      "Ġfeast": 8082,
      "Ġundert": 8083,
      "Ġboyfriend": 8084,
      "lessly": 8085,
      "Ġrepresents": 8086,
      "ĠWhoa": 8087,
      "Ġbelonged": 8088,
      "Ġcanton": 8089,
      "giving": 8090,
      "hab": 8091,
      "Ġfox": 8092,
      "Ġgle": 8093,
      "iments": 8094,
      "iry": 8095,
      "ĠCop": 8096,
      "Ġstool": 8097,
      "alling": 8098,
      "ĠPoor": 8099,
      "ĠFederal": 8100,
      "ieve": 8101,
      "Ġconcept": 8102,
      "Ġgrade": 8103,
      "Ġpersons": 8104,
      "ĠDev": 8105,
      "Ġanimated": 8106,
      "Ġdemocr": 8107,
      "Ġvisitors": 8108,
      "ĠBetween": 8109,
      "GE": 8110,
      "cri": 8111,
      "pos": 8112,
      "shire": 8113,
      "Ġwire": 8114,
      "Ġduties": 8115,
      "ĠTha": 8116,
      "ooke": 8117,
      "Ġstared": 8118,
      "ĠEp": 8119,
      "Ġspider": 8120,
      "Ġexha": 8121,
      "Ġaffection": 8122,
      "Ġgrateful": 8123,
      "IST": 8124,
      "âĢĻve": 8125,
      "upid": 8126,
      "Ġending": 8127,
      "Ġregions": 8128,
      "encies": 8129,
      "Ġgrape": 8130,
      "Ġconfident": 8131,
      "Ġchairs": 8132,
      "reading": 8133,
      "kesp": 8134,
      "Ġmercy": 8135,
      "Ġdirections": 8136,
      "Ġsexual": 8137,
      "----------------": 8138,
      "SC": 8139,
      "mhm": 8140,
      "net": 8141,
      "Ġta": 8142,
      "Ġthirteen": 8143,
      "ĠAyl": 8144,
      "Ġseal": 8145,
      "Ġaspect": 8146,
      "ĠDNA": 8147,
      "Ġsoap": 8148,
      "ĠFat": 8149,
      "Ġbutt": 8150,
      "ĠJO": 8151,
      "osity": 8152,
      "Ġvirt": 8153,
      "Ġflash": 8154,
      "Ġslaves": 8155,
      "Ġreply": 8156,
      "Ġreturning": 8157,
      "Ġcreating": 8158,
      "Ġshortly": 8159,
      "Ġdifficulty": 8160,
      "Ġissued": 8161,
      "ĠGlad": 8162,
      "Ġsubjects": 8163,
      "Ġliterature": 8164,
      "Ġcommunities": 8165,
      "Ġvotes": 8166,
      "ĠBarbara": 8167,
      "ĠStephen": 8168,
      "Ġescaped": 8169,
      "Ġrestaurant": 8170,
      "Ġcig": 8171,
      "ĠBall": 8172,
      "ĠNich": 8173,
      "Ġfled": 8174,
      "bec": 8175,
      "Ġcheap": 8176,
      "ĠNews": 8177,
      "Ġskills": 8178,
      "Ġpuppy": 8179,
      "Ġtouching": 8180,
      "Ġhoped": 8181,
      "Ġsolid": 8182,
      "Ġanxiety": 8183,
      "Ġpossessed": 8184,
      "Ġfoolish": 8185,
      "ĠRomans": 8186,
      "ĠChildren": 8187,
      "ĠPennsylvania": 8188,
      "kespeare": 8189,
      "BI": 8190,
      "Ġdining": 8191,
      "Ġfo": 8192,
      "orial": 8193,
      "ĠSel": 8194,
      "ĠMouse": 8195,
      "ĠBab": 8196,
      "Ġasks": 8197,
      "ĠDuck": 8198,
      "Ġsoil": 8199,
      "Ġprob": 8200,
      "ĠKu": 8201,
      "venge": 8202,
      "Ġpartners": 8203,
      "ĠSoon": 8204,
      "Ġbelt": 8205,
      "chair": 8206,
      "ĠIndepend": 8207,
      "ĠMayor": 8208,
      "Ġawfully": 8209,
      "Ġpotato": 8210,
      "Ġelections": 8211,
      "ĠHungary": 8212,
      "Ġbriefly": 8213,
      "shakes": 8214,
      "Ġemergency": 8215,
      "Ġbarely": 8216,
      "ĠCarolina": 8217,
      "-cl": 8218,
      "lace": 8219,
      "ront": 8220,
      "tained": 8221,
      "vant": 8222,
      "eral": 8223,
      "nda": 8224,
      "Ġmock": 8225,
      "ĠMod": 8226,
      "ĠCAN": 8227,
      "ĠCON": 8228,
      "ĠHolly": 8229,
      "ĠNonna": 8230,
      "ifer": 8231,
      "ĠHem": 8232,
      "aghetti": 8233,
      "Ġprince": 8234,
      "Ġperman": 8235,
      "ĠArts": 8236,
      "Ġvisited": 8237,
      "Ġeconomy": 8238,
      "Donald": 8239,
      "Ġjournalist": 8240,
      "Ġargument": 8241,
      "ĠPacific": 8242,
      "ĠFootball": 8243,
      "Are": 8244,
      "KID": 8245,
      "iar": 8246,
      "pher": 8247,
      "vior": 8248,
      "itter": 8249,
      "leg": 8250,
      "ĠMans": 8251,
      "Ġwhoo": 8252,
      "child": 8253,
      "eau": 8254,
      "Ġhers": 8255,
      "ĠLight": 8256,
      "ĠFriend": 8257,
      "agger": 8258,
      "Ġslave": 8259,
      "Ġsixth": 8260,
      "Ġcharts": 8261,
      "standing": 8262,
      "ĠLeg": 8263,
      "Ġdragon": 8264,
      "Ġdisappear": 8265,
      "Ġadmitted": 8266,
      "ĠBobby": 8267,
      "Ġpossibility": 8268,
      "incol": 8269,
      "Ã³n": 8270,
      "ĠAylmer": 8271,
      "rad": 8272,
      "uable": 8273,
      "when": 8274,
      "Ġobey": 8275,
      "Ġcord": 8276,
      "atre": 8277,
      "Ġnav": 8278,
      "omi": 8279,
      "ĠTa": 8280,
      "ĠTon": 8281,
      "amas": 8282,
      "teries": 8283,
      "ĠOUT": 8284,
      "oples": 8285,
      "Ġletting": 8286,
      "Ġunlike": 8287,
      "Ġmothers": 8288,
      "Ġconscious": 8289,
      "Ġdistant": 8290,
      "Ġpops": 8291,
      "Ġsunshine": 8292,
      "Ġadmir": 8293,
      "Ã¡n": 8294,
      "ĠMilan": 8295,
      "Ġconstitu": 8296,
      "Ġdescribe": 8297,
      "ĠBrennan": 8298,
      "LIN": 8299,
      "Ġdial": 8300,
      "enger": 8301,
      "atics": 8302,
      "ĠMAN": 8303,
      "adium": 8304,
      "Ġliqu": 8305,
      "ĠFer": 8306,
      "cipl": 8307,
      "Ġretire": 8308,
      "Ġeighteen": 8309,
      "Ġsubs": 8310,
      "Ġassault": 8311,
      "Ġclasses": 8312,
      "Ġregarded": 8313,
      "Ġdelightful": 8314,
      "Ġinjured": 8315,
      "ĠRoger": 8316,
      "Ġbrilliant": 8317,
      "&gt": 8318,
      "AC": 8319,
      "fish": 8320,
      "west": 8321,
      "ĠHIS": 8322,
      "itated": 8323,
      "Ġcraft": 8324,
      "Ġmood": 8325,
      "ĠHoo": 8326,
      "ĠBunny": 8327,
      "ĠPak": 8328,
      "ĠRub": 8329,
      "Ġsheet": 8330,
      "ĠFle": 8331,
      "ĠEnd": 8332,
      "Ġrhy": 8333,
      "ĠUr": 8334,
      "Ġchildhood": 8335,
      "Ġsurvey": 8336,
      "Ġcharged": 8337,
      "Ġcollea": 8338,
      "ĠFloss": 8339,
      "ĠWithout": 8340,
      "ASE": 8341,
      "ĠRussians": 8342,
      "Ġcreation": 8343,
      "ĠJimmy": 8344,
      "ĠIranian": 8345,
      "ĠForest": 8346,
      "Just": 8347,
      "bra": 8348,
      "Ġtan": 8349,
      "rily": 8350,
      "rific": 8351,
      "ĠCivil": 8352,
      "Ġ\"'": 8353,
      "ulpt": 8354,
      "Ġenorm": 8355,
      "Ġmarch": 8356,
      "alem": 8357,
      "Ġconfused": 8358,
      "force": 8359,
      "ĠSeven": 8360,
      "Ġemployed": 8361,
      "Ġinitial": 8362,
      "ĠBasil": 8363,
      "Ġfeathers": 8364,
      "Ġsatisfied": 8365,
      "ĠUntil": 8366,
      "NE": 8367,
      "TP": 8368,
      "Thank": 8369,
      "oir": 8370,
      "pre": 8371,
      "Ġowe": 8372,
      "Ġcou": 8373,
      "arms": 8374,
      "icip": 8375,
      "ĠBol": 8376,
      "ĠDog": 8377,
      "ĠGre": 8378,
      "Ġspeaks": 8379,
      "Ġumbre": 8380,
      "arson": 8381,
      "Ġcalend": 8382,
      "zech": 8383,
      "Ġannual": 8384,
      "Ġlouder": 8385,
      "Ġmistress": 8386,
      "Ġemphas": 8387,
      "Ġdinosaurs": 8388,
      "Ġeagerly": 8389,
      "burgh": 8390,
      "ĠReliance": 8391,
      "Ġcandidate": 8392,
      "ĠDirector": 8393,
      "Ġinhabit": 8394,
      "ĠSpirit": 8395,
      "Ġaccompanied": 8396,
      "?âĢĻ": 8397,
      "Ch": 8398,
      "inity": 8399,
      "erk": 8400,
      "Ġbent": 8401,
      "ithe": 8402,
      "Ġcough": 8403,
      "Ġcooper": 8404,
      "Ġdaughters": 8405,
      "Ġfed": 8406,
      "aly": 8407,
      "ĠAut": 8408,
      "enters": 8409,
      "ĠHospital": 8410,
      "ĠDie": 8411,
      "ĠYo": 8412,
      "ardo": 8413,
      "aug": 8414,
      "ĠValley": 8415,
      "ubble": 8416,
      "ocated": 8417,
      "Ġenthus": 8418,
      "Ġstrict": 8419,
      "Ġfriendship": 8420,
      "Ġbottles": 8421,
      "Ġcleaning": 8422,
      "Ġdefined": 8423,
      "Ġsolution": 8424,
      "Ġgraduated": 8425,
      "Ġaffairs": 8426,
      "Ġthreatened": 8427,
      "OOD": 8428,
      "ĠHelen": 8429,
      "Ġindependence": 8430,
      "Ġsurrounded": 8431,
      "Ġrescue": 8432,
      "Ġdivorce": 8433,
      "cr": 8434,
      "pired": 8435,
      "rical": 8436,
      "Ġbore": 8437,
      "ario": 8438,
      "Ġnaught": 8439,
      "ĠAD": 8440,
      "Ġreaching": 8441,
      "ĠLincol": 8442,
      "Ġjail": 8443,
      "Ġ(,": 8444,
      "Ġsche": 8445,
      "Ġmarble": 8446,
      "Ġsyll": 8447,
      "Ġdrill": 8448,
      "Ġminds": 8449,
      "Ġbloody": 8450,
      "going": 8451,
      "Ġlaunched": 8452,
      "-American": 8453,
      "Ġsolemn": 8454,
      "ĠPictures": 8455,
      "iat": 8456,
      "ygen": 8457,
      "Ġtiss": 8458,
      "Ġcamps": 8459,
      "Ġtoe": 8460,
      "ĠWant": 8461,
      "Ġnoted": 8462,
      "ĠDale": 8463,
      "ĠLew": 8464,
      "Ġvice": 8465,
      "Ġpepper": 8466,
      "Ġprecise": 8467,
      "ockey": 8468,
      "ĠIslands": 8469,
      "Ġexpressed": 8470,
      "ĠAdd": 8471,
      "Ġdiscovery": 8472,
      "Ġpubl": 8473,
      "Ġwinner": 8474,
      "Ġdeveloping": 8475,
      "Ġicecream": 8476,
      "Ġbreathing": 8477,
      "ĠPolish": 8478,
      "Ġviews": 8479,
      "Ġpretending": 8480,
      "Ġnapkin": 8481,
      "ĠFilm": 8482,
      "ĠColumbia": 8483,
      "life": 8484,
      "nis": 8485,
      "Ġtools": 8486,
      "lly": 8487,
      "Ġloyal": 8488,
      "ĠAP": 8489,
      "Ġweb": 8490,
      "ĠCelia": 8491,
      "ĠWolf": 8492,
      "Ġshining": 8493,
      "orney": 8494,
      "Ġpronounced": 8495,
      "Ġapplied": 8496,
      "Ġchannels": 8497,
      "Ġobtained": 8498,
      "oked": 8499,
      "ĠTHEY": 8500,
      "-based": 8501,
      "ĠTrust": 8502,
      "ĠShakespeare": 8503,
      "Ġamongst": 8504,
      "Ġexpert": 8505,
      "Ġpacked": 8506,
      "Ġnaturally": 8507,
      "Ġidentity": 8508,
      "Ġnormally": 8509,
      "Ġsacrif": 8510,
      "Ġtraditional": 8511,
      "Ġfierce": 8512,
      "Al": 8513,
      "ba": 8514,
      "Ġyield": 8515,
      "Ġpenn": 8516,
      "Ġhom": 8517,
      "ĠMir": 8518,
      "stream": 8519,
      "ĠHit": 8520,
      "Ġseasons": 8521,
      "ĠDear": 8522,
      "olas": 8523,
      "Ġrude": 8524,
      "ĠJay": 8525,
      "ighed": 8526,
      "osh": 8527,
      "Ġvic": 8528,
      "Ġdisag": 8529,
      "Ġimages": 8530,
      "Ġperce": 8531,
      "Ġkinda": 8532,
      "Ġinstruct": 8533,
      "ĠTwenty": 8534,
      "Ġdrain": 8535,
      "Ġscare": 8536,
      "Ġdawn": 8537,
      "Ġspending": 8538,
      "Ġportion": 8539,
      "ĠDesmond": 8540,
      "Ġwidely": 8541,
      "ĠSpecial": 8542,
      "arrass": 8543,
      "Ġexperienced": 8544,
      "GHING": 8545,
      "ju": 8546,
      "mitted": 8547,
      "uzz": 8548,
      "Ġtummy": 8549,
      "Ġcave": 8550,
      "Ġfits": 8551,
      "Ġincl": 8552,
      "oting": 8553,
      "Ġthief": 8554,
      "ĠSister": 8555,
      "ĠAS": 8556,
      "outheast": 8557,
      "ĠGall": 8558,
      "Ġplot": 8559,
      "Ġages": 8560,
      "ĠVill": 8561,
      "Ġunw": 8562,
      "Ġnights": 8563,
      "theless": 8564,
      "ĠDef": 8565,
      "UNT": 8566,
      "Ġeditor": 8567,
      "Ġconstant": 8568,
      "ĠHarvard": 8569,
      "Ġarrive": 8570,
      "Ġcalcul": 8571,
      "ĠBooth": 8572,
      "Ġattempted": 8573,
      "-house": 8574,
      "Ġfeeding": 8575,
      "Ġmuscles": 8576,
      "ĠRyan": 8577,
      "Ġprospect": 8578,
      "ĠLieutenant": 8579,
      "Ġillegal": 8580,
      "ĠMeanwhile": 8581,
      ",and": 8582,
      "Brian": 8583,
      "cript": 8584,
      "iac": 8585,
      "Ġwag": 8586,
      "Ġmal": 8587,
      "Ġmild": 8588,
      "Ġlod": 8589,
      "Ġhal": 8590,
      "ĠTok": 8591,
      "ĠAuthor": 8592,
      "ĠMid": 8593,
      "ĠMust": 8594,
      "ĠCD": 8595,
      "gend": 8596,
      "eling": 8597,
      "Ġsufficient": 8598,
      "Ġdisg": 8599,
      "ordan": 8600,
      "Ġprices": 8601,
      "Ġflies": 8602,
      "ilding": 8603,
      "Ġbearing": 8604,
      "Ġpurse": 8605,
      "ĠShall": 8606,
      "Ġengage": 8607,
      "Ġoperating": 8608,
      "Ġclothing": 8609,
      "Ġeffective": 8610,
      "ĠDora": 8611,
      "Ġcollected": 8612,
      "Ġpretends": 8613,
      "black": 8614,
      "ĠTurkey": 8615,
      "ĠRegion": 8616,
      "Ġfavourite": 8617,
      "Ġgranted": 8618,
      "ĠPortugal": 8619,
      "Go": 8620,
      "OL": 8621,
      "rac": 8622,
      "uv": 8623,
      "Ġsession": 8624,
      "aned": 8625,
      "anny": 8626,
      "Ġinfection": 8627,
      "ĠTour": 8628,
      "ĠSat": 8629,
      "Ġstolen": 8630,
      "ĠBell": 8631,
      "ĠBart": 8632,
      "ifying": 8633,
      "Ġnephe": 8634,
      "Ġcomin": 8635,
      "ferences": 8636,
      "Ġtract": 8637,
      "Ġappropriate": 8638,
      "Ġacted": 8639,
      "Ġfounder": 8640,
      "ĠAssembly": 8641,
      "Ġopens": 8642,
      "Ġsixteen": 8643,
      "Ġreceiving": 8644,
      "Ġprotected": 8645,
      "Ġworthy": 8646,
      "ĠÃĸ": 8647,
      "ĠChampionships": 8648,
      "Ġnursery": 8649,
      "Ġaltogether": 8650,
      "As": 8651,
      "On": 8652,
      "UL": 8653,
      "gives": 8654,
      "vet": 8655,
      "Ã±": 8656,
      "itable": 8657,
      "Ġgazed": 8658,
      "Ġec": 8659,
      "ĠCOM": 8660,
      "ĠCzech": 8661,
      "ĠBow": 8662,
      "ĠPy": 8663,
      "Ġcann": 8664,
      "Ġmole": 8665,
      "ĠChuck": 8666,
      "Ġpolite": 8667,
      "Ġgrab": 8668,
      "Ġcharges": 8669,
      "Ġconstantly": 8670,
      "Ġsteam": 8671,
      "Ġwhisper": 8672,
      "Ġrolled": 8673,
      "ĠBrazilian": 8674,
      "ĠÂ¶": 8675,
      "Ġfolk": 8676,
      "ĠHIM": 8677,
      "ĠAtlantic": 8678,
      "Ġnickel": 8679,
      "ĠWelcome": 8680,
      "Ġcalendar": 8681,
      "Ġnephew": 8682,
      "FE": 8683,
      "JO": 8684,
      "May": 8685,
      "held": 8686,
      "Ġcam": 8687,
      "Ġcows": 8688,
      "Ġpapa": 8689,
      "icians": 8690,
      "ĠSav": 8691,
      "ĠCross": 8692,
      "Ġstress": 8693,
      "Ġstupid": 8694,
      "ĠBA": 8695,
      "Ġ\"_": 8696,
      "ĠNep": 8697,
      "Ġtwin": 8698,
      "ĠInstead": 8699,
      "ouncill": 8700,
      "Ġdressing": 8701,
      "ĠAbs": 8702,
      "ĠTechn": 8703,
      "Ġvaluable": 8704,
      "ĠAgent": 8705,
      "ĠSyrian": 8706,
      "Ġconsiderable": 8707,
      "Ġparticipated": 8708,
      "ĠRaymond": 8709,
      "Ġintelligence": 8710,
      "ĠWrestling": 8711,
      "BAB": 8712,
      "Can": 8713,
      "gro": 8714,
      "gins": 8715,
      "zed": 8716,
      "Ġcage": 8717,
      "Ġcateg": 8718,
      "Ġpul": 8719,
      "asks": 8720,
      "ĠTilly": 8721,
      "ĠSnow": 8722,
      "ĠAha": 8723,
      "ĠMP": 8724,
      "imal": 8725,
      "riam": 8726,
      "ĠHay": 8727,
      "ĠRi": 8728,
      "ĠRu": 8729,
      "ĠFind": 8730,
      "Ġshit": 8731,
      "Ġcounting": 8732,
      "Ġphr": 8733,
      "Ġretreat": 8734,
      "Ġpointing": 8735,
      "Ġlandsc": 8736,
      "Ġrivers": 8737,
      "Ġparliament": 8738,
      "Ġstatue": 8739,
      "Ġholidays": 8740,
      "Ġidentify": 8741,
      "Ġvisible": 8742,
      "Ġvacation": 8743,
      "Ġinquired": 8744,
      "Ġpilot": 8745,
      "Ġbronze": 8746,
      "ĠPakistan": 8747,
      "Ġscheme": 8748,
      "UM": 8749,
      "from": 8750,
      "fire": 8751,
      "Ġack": 8752,
      "Ġdiet": 8753,
      "Ġfuss": 8754,
      "arant": 8755,
      "ĠBUT": 8756,
      "ĠPa": 8757,
      "ĠGriff": 8758,
      "ĠLinda": 8759,
      "ths": 8760,
      "Ġshy": 8761,
      "Ġspoons": 8762,
      "Ġproced": 8763,
      "ARS": 8764,
      "Ġoffering": 8765,
      "orne": 8766,
      "Ġuncom": 8767,
      "actly": 8768,
      "Ġhappily": 8769,
      "Ġserves": 8770,
      "Ġraining": 8771,
      "ports": 8772,
      "ĠNewman": 8773,
      "ĠDeath": 8774,
      "Ġyoungest": 8775,
      "Ġcapac": 8776,
      "Ġtriangle": 8777,
      "ipper": 8778,
      "Ġapproached": 8779,
      "Ġattempts": 8780,
      "Ġcompanions": 8781,
      "Ġfarmers": 8782,
      "Ġviolent": 8783,
      "Ġembarrass": 8784,
      "Ġmethods": 8785,
      "ĠCambridge": 8786,
      "Ġtypically": 8787,
      "ĠUkraine": 8788,
      "baby": 8789,
      "belt": 8790,
      "Ġtent": 8791,
      "inction": 8792,
      "Ġcents": 8793,
      "Ġladder": 8794,
      "Ġbee": 8795,
      "ĠMoon": 8796,
      "ĠBY": 8797,
      "ĠBurg": 8798,
      "ĠYep": 8799,
      "Ġjam": 8800,
      "obile": 8801,
      "Ġcricket": 8802,
      "ĠDevelop": 8803,
      "Ġdrift": 8804,
      "-san": 8805,
      "ĠApollo": 8806,
      "ĠSomebody": 8807,
      "ferring": 8808,
      "Ġhopes": 8809,
      "Ġblowing": 8810,
      "Ġadults": 8811,
      "TV": 8812,
      "]...": 8813,
      "lon": 8814,
      "ras": 8815,
      "Ġmice": 8816,
      "Ġmamma": 8817,
      "Ġfare": 8818,
      "anes": 8819,
      "Ġpardon": 8820,
      "Ġnort": 8821,
      "Ġhook": 8822,
      "utation": 8823,
      "ĠMich": 8824,
      "iro": 8825,
      "Ġugh": 8826,
      "sell": 8827,
      "olk": 8828,
      "Ġaloud": 8829,
      "inds": 8830,
      "Ġspaghetti": 8831,
      "Ġintention": 8832,
      "Ġpee": 8833,
      "ĠVien": 8834,
      "thew": 8835,
      "Ġharder": 8836,
      "ĠChair": 8837,
      "Ġleads": 8838,
      "Ġdrawer": 8839,
      "ĠCrown": 8840,
      "ĠHungarian": 8841,
      "Ġpunishment": 8842,
      "Ġbasketball": 8843,
      "Ġfaithful": 8844,
      "Ġevidently": 8845,
      "Ġarchitect": 8846,
      "Ġnominated": 8847,
      "Ġconcluded": 8848,
      "ext": 8849,
      "ients": 8850,
      "lass": 8851,
      "vation": 8852,
      "Ġbree": 8853,
      "Ġfuel": 8854,
      "ĠIce": 8855,
      "ĠAmb": 8856,
      "Ġreaction": 8857,
      "ĠHERE": 8858,
      "ĠBrand": 8859,
      "Ġath": 8860,
      "Ġgolf": 8861,
      "Ġrum": 8862,
      "Ġtray": 8863,
      "ĠStart": 8864,
      "cling": 8865,
      "Ġskill": 8866,
      "enez": 8867,
      "Ġstarring": 8868,
      "Ġvolunte": 8869,
      "ĠFinally": 8870,
      "Ġprepare": 8871,
      "Ġachieved": 8872,
      "Ġcheerful": 8873,
      "Ġtribes": 8874,
      "ĠArgentina": 8875,
      "Ġpowder": 8876,
      "ĠSweet": 8877,
      "Ġkilomet": 8878,
      ".D": 8879,
      "LING": 8880,
      "Ġtub": 8881,
      "inent": 8882,
      "Ġmars": 8883,
      "ashes": 8884,
      "ications": 8885,
      "entially": 8886,
      "ader": 8887,
      "alls": 8888,
      "ĠNord": 8889,
      "una": 8890,
      "ĠEver": 8891,
      "agne": 8892,
      "aren": 8893,
      "addle": 8894,
      "iped": 8895,
      "ĠBrooke": 8896,
      "Ġindign": 8897,
      "engu": 8898,
      "coming": 8899,
      "Ġprofession": 8900,
      "Ġbreathe": 8901,
      "Ġstatus": 8902,
      "adesh": 8903,
      "Ġlimit": 8904,
      "Ġclimbing": 8905,
      "Ġdelicate": 8906,
      "Ġrailway": 8907,
      "Ġconducted": 8908,
      "Ġacademic": 8909,
      "Ġwishes": 8910,
      "Ġbits": 8911,
      "Ġinsect": 8912,
      "otam": 8913,
      "ĠToo": 8914,
      "ĠTalk": 8915,
      "ĠSit": 8916,
      "Ġsteak": 8917,
      "Ġsaving": 8918,
      "ements": 8919,
      "Ġspots": 8920,
      "Ġtheme": 8921,
      "orted": 8922,
      "Ġnowhere": 8923,
      "Ġroot": 8924,
      "ĠStat": 8925,
      "ROM": 8926,
      "Ġummhm": 8927,
      "Ġstays": 8928,
      "ĠDean": 8929,
      "ĠForce": 8930,
      "Ġaddressed": 8931,
      "Ġsneak": 8932,
      "ipping": 8933,
      "Ġdreamed": 8934,
      "Ġinformed": 8935,
      "Ġdetail": 8936,
      "ĠPoland": 8937,
      "III": 8938,
      "Ġidentified": 8939,
      "AKE": 8940,
      "Ġseparated": 8941,
      "ĠOxfordshire": 8942,
      "Ġmotorcy": 8943,
      "Ġdescend": 8944,
      "Ġterritory": 8945,
      "igenous": 8946,
      "fits": 8947,
      "may": 8948,
      "Ġsan": 8949,
      "Ġbay": 8950,
      "Ġmask": 8951,
      "Ġpoo": 8952,
      "Ġpir": 8953,
      "Ġpunch": 8954,
      "Ġpoured": 8955,
      "atures": 8956,
      "also": 8957,
      "ĠAren": 8958,
      "ĠBank": 8959,
      "ĠGi": 8960,
      "ĠLad": 8961,
      "ĠLiber": 8962,
      "Ġarcher": 8963,
      "ĠIns": 8964,
      "Ġbuying": 8965,
      "Ġheading": 8966,
      "Ġcheek": 8967,
      "Ġobst": 8968,
      "Ġdeaths": 8969,
      "Ġemot": 8970,
      "Ġchairman": 8971,
      "Ġparade": 8972,
      "Ġdropping": 8973,
      "ĠCommun": 8974,
      "ĠSpani": 8975,
      "Ġnegoti": 8976,
      "ĠMetropolitan": 8977,
      "Ġlatest": 8978,
      "ĠSingh": 8979,
      "Ġignor": 8980,
      "aunton": 8981,
      "continues": 8982,
      "respond": 8983,
      "Ġatmosphere": 8984,
      "'n": 8985,
      "IG": 8986,
      "ares": 8987,
      "down": 8988,
      "rim": 8989,
      "sl": 8990,
      "Ġwipe": 8991,
      "inging": 8992,
      "ĠRus": 8993,
      "geant": 8994,
      "Ġouter": 8995,
      "Ġsprang": 8996,
      "ĠInc": 8997,
      "Ġprime": 8998,
      "soft": 8999,
      "rup": 9000,
      "Ġsculpt": 9001,
      "Ġswitch": 9002,
      "Ġkidna": 9003,
      "Ġcenturies": 9004,
      "Ġawoh": 9005,
      "Ġcollabor": 9006,
      "axy": 9007,
      "Ġsatell": 9008,
      "Ġoperations": 9009,
      "ĠKeith": 9010,
      "achel": 9011,
      "Ġmassive": 9012,
      "Ġessential": 9013,
      "ĠMatthew": 9014,
      "Ġrecommend": 9015,
      "ĠScarfe": 9016,
      "ĠDouglas": 9017,
      "ĠNikki": 9018,
      "/TP": 9019,
      "bly": 9020,
      "foot": 9021,
      "lav": 9022,
      "Ġtad": 9023,
      "Ġbond": 9024,
      "Ġcav": 9025,
      "ĠIV": 9026,
      "starts": 9027,
      "ATE": 9028,
      "ĠNin": 9029,
      "ĠRuth": 9030,
      "opotam": 9031,
      "Ġsuitc": 9032,
      "Ġvia": 9033,
      "Ġvoted": 9034,
      "akh": 9035,
      "Ġuniform": 9036,
      "teenth": 9037,
      "Ġregional": 9038,
      "ĠJustin": 9039,
      "Ġload": 9040,
      "noises": 9041,
      "Ġproviding": 9042,
      "Ġmistakes": 9043,
      "Ġbasically": 9044,
      "Ġcombination": 9045,
      "ĠJohan": 9046,
      "Ġbehavior": 9047,
      "ĠScholarship": 9048,
      "Ġurban": 9049,
      "Ġapologize": 9050,
      "Ġcrayon": 9051,
      "Ġoxygen": 9052,
      "ĠPLAY": 9053,
      "ĠInternet": 9054,
      "Ġacknow": 9055,
      "-the": 9056,
      "Bill": 9057,
      "DS": 9058,
      "LW": 9059,
      "wick": 9060,
      "Ġtales": 9061,
      "referring": 9062,
      "Ġdign": 9063,
      "Ġyer": 9064,
      "Ġpad": 9065,
      "ĠSup": 9066,
      "utor": 9067,
      "Ġuna": 9068,
      "ĠWr": 9069,
      "stance": 9070,
      "ĠBrig": 9071,
      "ĠBishop": 9072,
      "ĠRich": 9073,
      "Ġdonkey": 9074,
      "Ġcompre": 9075,
      "Ġrecover": 9076,
      "Ġglanced": 9077,
      "-sh": 9078,
      "unted": 9079,
      "Ġinterests": 9080,
      "ĠDrum": 9081,
      "Ġparking": 9082,
      "ĠBozo": 9083,
      "Ġpossession": 9084,
      "Ġexecutive": 9085,
      "Ġribbon": 9086,
      "ĠFoundation": 9087,
      "Ġdedicated": 9088,
      "Ġthoroughly": 9089,
      "Mr": 9090,
      "Ġwreck": 9091,
      "Ġsore": 9092,
      "Ġyards": 9093,
      "Ġitem": 9094,
      "ĠTal": 9095,
      "ĠOffic": 9096,
      "ĠEight": 9097,
      "Ġsailed": 9098,
      "arty": 9099,
      "Ġconven": 9100,
      "ardy": 9101,
      "Ġexceed": 9102,
      "Ġoffers": 9103,
      "ĠStaunton": 9104,
      "Ġpartly": 9105,
      "Ġthrust": 9106,
      "Ġguid": 9107,
      "Ġimper": 9108,
      "Ġremo": 9109,
      "Ġgrain": 9110,
      "Ġhorrid": 9111,
      "ĠMaryland": 9112,
      "Ġbags": 9113,
      "ITT": 9114,
      "Ġfeatured": 9115,
      "Ġcapture": 9116,
      "Ġprayer": 9117,
      "Ġsurvive": 9118,
      "ĠTurkish": 9119,
      "Ġlobster": 9120,
      "Ġdesperate": 9121,
      "ĠLincoln": 9122,
      ".I": 9123,
      "LES": 9124,
      "Your": 9125,
      "dog": 9126,
      "ji": 9127,
      "rum": 9128,
      "Ãĸ": 9129,
      "ĠSene": 9130,
      "acious": 9131,
      "ammy": 9132,
      "ĠHand": 9133,
      "ĠPost": 9134,
      "ĠNOW": 9135,
      "olm": 9136,
      "ĠKh": 9137,
      "Ġintegr": 9138,
      "reek": 9139,
      "Ġquack": 9140,
      "Ġflow": 9141,
      "Ġguarant": 9142,
      "Ġkeen": 9143,
      "Ġrecon": 9144,
      "Ġinvite": 9145,
      "ĠIndeed": 9146,
      "exits": 9147,
      "Ġrepair": 9148,
      "-by": 9149,
      "Ġcuts": 9150,
      "Ġsquad": 9151,
      "Ġfigured": 9152,
      "ĠAnything": 9153,
      "Ġrecognition": 9154,
      "ederation": 9155,
      "Ġprojects": 9156,
      "Ġdeliver": 9157,
      "Ġchalleng": 9158,
      "Ġconclusion": 9159,
      "ĠFlossie": 9160,
      "Ã§": 9161,
      "Ġoven": 9162,
      "ndry": 9163,
      "Ġmig": 9164,
      "iders": 9165,
      "ĠAv": 9166,
      "ĠCart": 9167,
      "ĠHank": 9168,
      "ĠPur": 9169,
      "ĠDID": 9170,
      "ĠNap": 9171,
      "ĠRA": 9172,
      "ĠLO": 9173,
      "ĠLes": 9174,
      "ieur": 9175,
      "Ġraces": 9176,
      "ranch": 9177,
      "awa": 9178,
      "Ġcolour": 9179,
      "Ġassumed": 9180,
      "Ġloving": 9181,
      "Ġinsurance": 9182,
      "Ġstruct": 9183,
      "ĠSupp": 9184,
      "Ġrepeat": 9185,
      "Ġsearching": 9186,
      "Ġtowel": 9187,
      "Ġshelter": 9188,
      "screams": 9189,
      "-re": 9190,
      "/she": 9191,
      "CA": 9192,
      "pulls": 9193,
      "rings": 9194,
      "sound": 9195,
      "iser": 9196,
      "Ġdates": 9197,
      "ĠId": 9198,
      "Ġped": 9199,
      "arse": 9200,
      "oto": 9201,
      "ĠTak": 9202,
      "Ġbegged": 9203,
      "ĠBir": 9204,
      "Ġsale": 9205,
      "Ġsauc": 9206,
      "ĠJessie": 9207,
      "quis": 9208,
      "Ġagric": 9209,
      "ureau": 9210,
      "ciences": 9211,
      "ĠVin": 9212,
      "plays": 9213,
      "Ġeatin": 9214,
      "Ġacts": 9215,
      "uckle": 9216,
      "Ġmomma": 9217,
      "ĠAnna": 9218,
      "Ġcleared": 9219,
      "Ġmovements": 9220,
      "Ġhats": 9221,
      "itches": 9222,
      "ffici": 9223,
      "Ġenjoying": 9224,
      "chant": 9225,
      "Ġtastes": 9226,
      "Ġreferring": 9227,
      "ĠIsraeli": 9228,
      "ĠMargot": 9229,
      "Ġopposition": 9230,
[...]
