{
  "version": "1.0",
  "truncation": null,
  "padding": null,
  "added_tokens": [
    {
      "id": 0,
      "content": "<unk>",
      "single_word": false,
      "lstrip": false,
      "rstrip": false,
      "normalized": false,
      "special": true
    },
    {
      "id": 1,
      "content": "<s>",
      "single_word": false,
      "lstrip": false,
      "rstrip": false,
      "normalized": false,
      "special": true
    },
    {
      "id": 2,
      "content": "</s>",
      "single_word": false,
      "lstrip": false,
      "rstrip": false,
      "normalized": false,
      "special": true
    },
    {
      "id": 3,
      "content": "<pad>",
      "single_word": false,
      "lstrip": false,
      "rstrip": false,
      "normalized": false,
      "special": true
    },
    {
      "id": 4,
      "content": "<mask>",
      "single_word": false,
      "lstrip": false,
      "rstrip": false,
      "normalized": false,
      "special": true
    }
  ],
  "normalizer": {
    "type": "Sequence",
    "normalizers": [
      {
        "type": "Prepend",
        "prepend": " "
      },
      {
        "type": "NFKC"
      },
      {
        "type": "Replace",
        "pattern": {
          "Regex": "\\n"
        },
        "content": "\n "
      },
      {
        "type": "Replace",
        "pattern": {
          "Regex": " *\\n"
        },
        "content": "\n"
      }
    ]
  },
  "pre_tokenizer": {
    "type": "Sequence",
    "pretokenizers": [
      {
        "type": "Split",
        "pattern": {
          "Regex": "[^\\r\\n\\p{L}\\p{N}]?[\\p{Lu}\\p{Lt}\\p{Lm}\\p{Lo}\\p{M}]*[\\p{Ll}\\p{Lm}\\p{Lo}\\p{M}]+|[^\\r\\n\\p{L}\\p{N}]?[\\p{Lu}\\p{Lt}\\p{Lm}\\p{Lo}\\p{M}]+[\\p{Ll}\\p{Lm}\\p{Lo}\\p{M}]*|\\p{N}| ?[^\\s\\p{L}\\p{N}]+[\\r\\n/]*|\\s*[\\r\\n]+|\\s+(?!\\S)|\\s+"
        },
        "behavior": "Isolated",
        "invert": false
      },
      {
        "type": "ByteLevel",
        "add_prefix_space": false,
        "trim_offsets": true,
        "use_regex": false
      },
      {
        "type": "Split",
        "pattern": {
          "Regex": ".{1,24}"
        },
        "behavior": "Isolated",
        "invert": false
      }
    ]
  },
  "post_processor": {
    "type": "TemplateProcessing",
    "single": [
      {
        "SpecialToken": {
          "id": "<s>",
          "type_id": 0
        }
      },
      {
        "Sequence": {
          "id": "A",
          "type_id": 0
        }
      },
      {
        "SpecialToken": {
          "id": "</s>",
          "type_id": 0
        }
      }
    ],
    "pair": [
      {
        "SpecialToken": {
          "id": "<s>",
          "type_id": 0
        }
      },
      {
        "Sequence": {
          "id": "A",
          "type_id": 0
        }
      },
      {
        "SpecialToken": {
          "id": "</s>",
          "type_id": 0
        }
      },
      {
        "SpecialToken": {
          "id": "<s>",
          "type_id": 0
        }
      },
      {
        "Sequence": {
          "id": "B",
          "type_id": 0
        }
      },
      {
        "SpecialToken": {
          "id": "</s>",
          "type_id": 0
        }
      }
    ],
    "special_tokens": {
      "</s>": {
        "id": "</s>",
        "ids": [
          2
        ],
        "tokens": [
          "</s>"
        ]
      },
      "<s>": {
        "id": "<s>",
        "ids": [
          1
        ],
        "tokens": [
          "<s>"
        ]
      }
    }
  },
  "decoder": {
    "type": "Sequence",
    "decoders": [
      {
        "type": "ByteLevel",
        "add_prefix_space": true,
        "trim_offsets": true,
        "use_regex": true
      },
      {
        "type": "Strip",
        "content": " ",
        "start": 1,
        "stop": 0
      },
      {
        "type": "Replace",
        "pattern": {
          "String": "\n "
        },
        "content": "\n"
      }
    ]
  },
  "model": {
    "type": "BPE",
    "dropout": null,
    "unk_token": "<unk>",
    "continuing_subword_prefix": null,
    "end_of_word_suffix": null,
    "fuse_unk": false,
    "byte_fallback": false,
    "ignore_merges": false,
    "vocab": {
      "<unk>": 0,
      "<s>": 1,
      "</s>": 2,
      "<pad>": 3,
      "<mask>": 4,
      "!": 5,
      "\"": 6,
      "#": 7,
      "$": 8,
      "%": 9,
      "&": 10,
      "'": 11,
      "(": 12,
      ")": 13,
      "*": 14,
      "+": 15,
      ",": 16,
      "-": 17,
      ".": 18,
      "/": 19,
      "0": 20,
      "1": 21,
      "2": 22,
      "3": 23,
      "4": 24,
      "5": 25,
      "6": 26,
      "7": 27,
      "8": 28,
      "9": 29,
      ":": 30,
      ";": 31,
      "<": 32,
      "=": 33,
      ">": 34,
      "?": 35,
      "@": 36,
      "A": 37,
      "B": 38,
      "C": 39,
      "D": 40,
      "E": 41,
      "F": 42,
      "G": 43,
      "H": 44,
      "I": 45,
      "J": 46,
      "K": 47,
      "L": 48,
      "M": 49,
      "N": 50,
      "O": 51,
      "P": 52,
      "Q": 53,
      "R": 54,
      "S": 55,
      "T": 56,
      "U": 57,
      "V": 58,
      "W": 59,
      "X": 60,
      "Y": 61,
      "Z": 62,
      "[": 63,
      "\\": 64,
      "]": 65,
      "^": 66,
      "_": 67,
      "`": 68,
      "a": 69,
      "b": 70,
      "c": 71,
      "d": 72,
      "e": 73,
      "f": 74,
      "g": 75,
      "h": 76,
      "i": 77,
      "j": 78,
      "k": 79,
      "l": 80,
      "m": 81,
      "n": 82,
      "o": 83,
      "p": 84,
      "q": 85,
      "r": 86,
      "s": 87,
      "t": 88,
      "u": 89,
      "v": 90,
      "w": 91,
      "x": 92,
      "y": 93,
      "z": 94,
      "{": 95,
      "|": 96,
      "}": 97,
      "~": 98,
      "¡": 99,
      "¢": 100,
      "£": 101,
      "¤": 102,
      "¥": 103,
      "¦": 104,
      "§": 105,
      "¨": 106,
      "©": 107,
      "ª": 108,
      "«": 109,
      "¬": 110,
      "®": 111,
      "¯": 112,
      "°": 113,
      "±": 114,
      "²": 115,
      "³": 116,
      "´": 117,
      "µ": 118,
      "¶": 119,
      "·": 120,
      "¸": 121,
      "¹": 122,
      "º": 123,
      "»": 124,
      "¼": 125,
      "½": 126,
      "¾": 127,
      "¿": 128,
      "À": 129,
      "Á": 130,
      "Â": 131,
      "Ã": 132,
      "Ä": 133,
      "Å": 134,
      "Æ": 135,
      "Ç": 136,
      "È": 137,
      "É": 138,
      "Ê": 139,
      "Ë": 140,
      "Ì": 141,
      "Í": 142,
      "Î": 143,
      "Ï": 144,
      "Ð": 145,
      "Ñ": 146,
      "Ò": 147,
      "Ó": 148,
      "Ô": 149,
      "Õ": 150,
      "Ö": 151,
      "×": 152,
      "Ø": 153,
      "Ù": 154,
      "Ú": 155,
      "Û": 156,
      "Ü": 157,
      "Ý": 158,
      "Þ": 159,
      "ß": 160,
      "à": 161,
      "á": 162,
      "â": 163,
      "ã": 164,
      "ä": 165,
      "å": 166,
      "æ": 167,
      "ç": 168,
      "è": 169,
      "é": 170,
      "ê": 171,
      "ë": 172,
      "ì": 173,
      "í": 174,
      "î": 175,
      "ï": 176,
      "ð": 177,
      "ñ": 178,
      "ò": 179,
      "ó": 180,
      "ô": 181,
      "õ": 182,
      "ö": 183,
      "÷": 184,
      "ø": 185,
      "ù": 186,
      "ú": 187,
      "û": 188,
      "ü": 189,
      "ý": 190,
      "þ": 191,
      "ÿ": 192,
      "Ā": 193,
      "ā": 194,
      "Ă": 195,
      "ă": 196,
      "Ą": 197,
      "ą": 198,
      "Ć": 199,
      "ć": 200,
      "Ĉ": 201,
      "ĉ": 202,
      "Ċ": 203,
      "ċ": 204,
      "Č": 205,
      "č": 206,
      "Ď": 207,
      "ď": 208,
      "Đ": 209,
      "đ": 210,
      "Ē": 211,
      "ē": 212,
      "Ĕ": 213,
      "ĕ": 214,
      "Ė": 215,
      "ė": 216,
      "Ę": 217,
      "ę": 218,
      "Ě": 219,
      "ě": 220,
      "Ĝ": 221,
      "ĝ": 222,
      "Ğ": 223,
      "ğ": 224,
      "Ġ": 225,
      "ġ": 226,
      "Ģ": 227,
      "ģ": 228,
      "Ĥ": 229,
      "ĥ": 230,
      "Ħ": 231,
      "ħ": 232,
      "Ĩ": 233,
      "ĩ": 234,
      "Ī": 235,
      "ī": 236,
      "Ĭ": 237,
      "ĭ": 238,
      "Į": 239,
      "į": 240,
      "İ": 241,
      "ı": 242,
      "Ĳ": 243,
      "ĳ": 244,
      "Ĵ": 245,
      "ĵ": 246,
      "Ķ": 247,
      "ķ": 248,
      "ĸ": 249,
      "Ĺ": 250,
      "ĺ": 251,
      "Ļ": 252,
      "ļ": 253,
      "Ľ": 254,
      "ľ": 255,
      "Ŀ": 256,
      "ŀ": 257,
      "Ł": 258,
      "ł": 259,
      "Ń": 260,
      "Ġt": 261,
      "he": 262,
      "Ġa": 263,
      "in": 264,
      "Ġw": 265,
      "Ġthe": 266,
      "re": 267,
      "Ġs": 268,
      "ou": 269,
      "Ġo": 270,
      "Ġ*": 271,
      "ha": 272,
      "er": 273,
      "nd": 274,
      "Ġb": 275,
      "it": 276,
      "Ġc": 277,
      "is": 278,
      "Ġm": 279,
      "on": 280,
      "Ġd": 281,
      "Ġf": 282,
      "ing": 283,
      "Ġto": 284,
      "ed": 285,
      "Ġy": 286,
      "ĠI": 287,
      "or": 288,
      "ll": 289,
      "en": 290,
      "es": 291,
      "an": 292,
      "Ġp": 293,
      "Ġand": 294,
      "ar": 295,
      "Ġl": 296,
      "hat": 297,
      "Ġyou": 298,
      "Ġof": 299,
      "at": 300,
      "Ġg": 301,
      "Ġin": 302,
      "as": 303,
      "Ġn": 304,
      "HI": 305,
      "CHI": 306,
      "om": 307,
      "OT": 308,
      "MOT": 309,
      "Ġhe": 310,
      "Ġh": 311,
      "ow": 312,
      "le": 313,
      "ic": 314,
      "ot": 315,
      "Ġha": 316,
      "et": 317,
      "Ġit": 318,
      "ve": 319,
      "'s": 320,
      "Ġon": 321,
      "ay": 322,
      "Ġth": 323,
      "Ġthat": 324,
      "us": 325,
      "ĠT": 326,
      "id": 327,
      "al": 328,
      "gh": 329,
      "Ġbe": 330,
      "Ġe": 331,
      "ĠS": 332,
      "Ġis": 333,
      "ĠA": 334,
      "ld": 335,
      "Ġwas": 336,
      "Ġre": 337,
      "ut": 338,
      "Ġwe": 339,
      "ac": 340,
      "ion": 341,
      "ent": 342,
      "im": 343,
      "ĠM": 344,
      "ver": 345,
      "oo": 346,
      "Ġfor": 347,
      "ad": 348,
      "ly": 349,
      "ir": 350,
      "Ġst": 351,
      "ri": 352,
      "ke": 353,
      "Ġ=": 354,
      "se": 355,
      "Ġu": 356,
      "am": 357,
      "ĠC": 358,
      "..": 359,
      "st": 360,
      "ght": 361,
      "ro": 362,
      "Ġ[": 363,
      "ĠW": 364,
      "'t": 365,
      "ĠH": 366,
      "Ġdo": 367,
      "ith": 368,
      "ĠB": 369,
      "her": 370,
      "Ġwh": 371,
      "out": 372,
      "Ġwith": 373,
      "Ġk": 374,
      "Ġme": 375,
      "Ġan": 376,
      "ĠThe": 377,
      "Ġ\"": 378,
      "ur": 379,
      "Ġwhat": 380,
      "Ġas": 381,
      "all": 382,
      "ter": 383,
      "Ġse": 384,
      "ch": 385,
      "Ġat": 386,
      "ce": 387,
      "ome": 388,
      "Ġli": 389,
      "ill": 390,
      "ea": 391,
      "il": 392,
      "ct": 393,
      "Ġnot": 394,
      "ould": 395,
      "Ġthis": 396,
      "Ġgo": 397,
      "ĠP": 398,
      "ĠD": 399,
      "Ġhave": 400,
      "ra": 401,
      "Ġare": 402,
      "if": 403,
      "Ġher": 404,
      "Ġhis": 405,
      "ĠN": 406,
      "ĠY": 407,
      "AT": 408,
      "un": 409,
      "Ġkn": 410,
      "Ġone": 411,
      "ust": 412,
      "ant": 413,
      "Ġthey": 414,
      "xx": 415,
      "Ġno": 416,
      "FAT": 417,
      "ore": 418,
      "Ġwhe": 419,
      "ĠR": 420,
      "Ġshe": 421,
      "pp": 422,
      "Ġso": 423,
      "rom": 424,
      "Ġ-": 425,
      "ĠO": 426,
      "Ġne": 427,
      "ge": 428,
      "ĠG": 429,
      "ĠF": 430,
      "Ġde": 431,
      "Ġcan": 432,
      "ĠL": 433,
      "and": 434,
      "um": 435,
      "...": 436,
      "op": 437,
      "Ġup": 438,
      "ĠE": 439,
      "Ġhad": 440,
      "Ġknow": 441,
      "Ġall": 442,
      "ain": 443,
      "Ġj": 444,
      "ell": 445,
      "Ġmy": 446,
      "ul": 447,
      "our": 448,
      "ation": 449,
      "ie": 450,
      "th": 451,
      "ook": 452,
      "Ġthere": 453,
      "Ġr": 454,
      "red": 455,
      "ol": 456,
      "Ġsa": 457,
      "Ġdon": 458,
      "Ġfrom": 459,
      "Ġbut": 460,
      "Ġal": 461,
      "Ġyour": 462,
      "ĠJ": 463,
      "art": 464,
      "ab": 465,
      "ers": 466,
      "ack": 467,
      "est": 468,
      "ess": 469,
      "Ġsh": 470,
      "ry": 471,
      "os": 472,
      "ig": 473,
      "ood": 474,
      "eah": 475,
      "Ġpl": 476,
      "Ġab": 477,
      "âĢ": 478,
      "ight": 479,
      "em": 480,
      "Ġlike": 481,
      "Ġdid": 482,
      "el": 483,
      "Ġby": 484,
      "ist": 485,
      "Ġhim": 486,
      "Ġout": 487,
      "Ġsu": 488,
      "han": 489,
      "Ġor": 490,
      "ake": 491,
      "qu": 492,
      "ĠIt": 493,
      "ĠHe": 494,
      "Ġwere": 495,
      "ound": 496,
      "very": 497,
      "res": 498,
      "ong": 499,
      "nt": 500,
      "Ġwho": 501,
      "hi": 502,
      "Ġcom": 503,
      "Ġcon": 504,
      "ame": 505,
      "Ġv": 506,
      "Ġsp": 507,
      "itt": 508,
      "ck": 509,
      "Ġget": 510,
      "ink": 511,
      "ate": 512,
      "ive": 513,
      "right": 514,
      "ard": 515,
      "Ġwor": 516,
      "ast": 517,
      "ind": 518,
      "'re": 519,
      "one": 520,
      "Ġthem": 521,
      "'m": 522,
      "Ġex": 523,
      "use": 524,
      "ber": 525,
      "Ġsome": 526,
      "Ġsaid": 527,
      "ally": 528,
      "na": 529,
      "Ġyeah": 530,
      "ep": 531,
      "fe": 532,
      "Ġabout": 533,
      "ak": 534,
      "ear": 535,
      "Ġhere": 536,
      "own": 537,
      "ough": 538,
      "Ġsee": 539,
      "ĠYou": 540,
      "Ġwould": 541,
      "Ġtw": 542,
      "ice": 543,
      "od": 544,
      "ort": 545,
      "xxx": 546,
      "Ġxxx": 547,
      "ap": 548,
      "Ġman": 549,
      "Ġjust": 550,
      "Ġpro": 551,
      "Ġwhen": 552,
      "Ġ(": 553,
      "ich": 554,
      "ag": 555,
      "other": 556,
      "Ġwant": 557,
      "Ġif": 558,
      "au": 559,
      "ime": 560,
      "Ġlook": 561,
      "ous": 562,
      "ies": 563,
      "Ġany": 564,
      "ick": 565,
      "ĠK": 566,
      "ide": 567,
      "ity": 568,
      "Ġright": 569,
      "Ġthink": 570,
      "Ġnow": 571,
      "Ġus": 572,
      "ther": 573,
      "Ġint": 574,
      "ine": 575,
      "hing": 576,
      "ost": 577,
      "ven": 578,
      "Ġwill": 579,
      "ĠU": 580,
      "kay": 581,
      "Ġtheir": 582,
      "Ġoh": 583,
      "'ll": 584,
      "ittle": 585,
      "Ġar": 586,
      "Ġsay": 587,
      "Ġcl": 588,
      "Ġmore": 589,
      "ca": 590,
      "Ġgot": 591,
      "Ġwhich": 592,
      "Ġlittle": 593,
      "].": 594,
      "Ġwhere": 595,
      "Ġag": 596,
      "ite": 597,
      "Ġthen": 598,
      "Ġpe": 599,
      "Ġhow": 600,
      "Ġtwo": 601,
      "int": 602,
      "ment": 603,
      "Ġtime": 604,
      "ud": 605,
      "ace": 606,
      "way": 607,
      "ure": 608,
      "reat": 609,
      "Ġcould": 610,
      "Ġbeen": 611,
      "Ġro": 612,
      "Ġhas": 613,
      "AR": 614,
      "Ġtoo": 615,
      "ree": 616,
      "lf": 617,
      "ĠAnd": 618,
      "IN": 619,
      "ond": 620,
      "Ġgood": 621,
      "Ġover": 622,
      "end": 623,
      "Ġtr": 624,
      "Ġother": 625,
      "ish": 626,
      ".\"": 627,
      "Ġback": 628,
      "ose": 629,
      "Ġaf": 630,
      "ove": 631,
      "Ġdown": 632,
      "Ġvery": 633,
      "Ġoff": 634,
      "Ġput": 635,
      "ved": 636,
      "ĠIn": 637,
      "hed": 638,
      "oy": 639,
      "--": 640,
      "Ġokay": 641,
      "Ġbl": 642,
      "cause": 643,
      "ect": 644,
      "ian": 645,
      "ĠSt": 646,
      "Ġgoing": 647,
      "Ġ'": 648,
      "Ġqu": 649,
      "Ġle": 650,
      "Ġfe": 651,
      "ia": 652,
      "ark": 653,
      "MAR": 654,
      "ase": 655,
      "ft": 656,
      "Ġthan": 657,
      "ople": 658,
      "ings": 659,
      "are": 660,
      "ater": 661,
      "ue": 662,
      "pt": 663,
      "Ġen": 664,
      "ci": 665,
      "ass": 666,
      "ĠTh": 667,
      "ary": 668,
      "Ġdis": 669,
      "alk": 670,
      "age": 671,
      "Ġinto": 672,
      "urn": 673,
      "Ġwell": 674,
      "ĠShe": 675,
      "Ġpeople": 676,
      "oll": 677,
      "Ġlet": 678,
      "orn": 679,
      "irst": 680,
      "ĠâĢ": 681,
      "Ġbr": 682,
      "Ġcome": 683,
      ",\"": 684,
      "augh": 685,
      "ving": 686,
      "ble": 687,
      "ade": 688,
      "pl": 689,
      "omet": 690,
      "ount": 691,
      "ĠWhat": 692,
      "ty": 693,
      "ire": 694,
      "Ġgr": 695,
      "Ġplay": 696,
      "Ġun": 697,
      "ought": 698,
      "Ġmake": 699,
      "ĠWe": 700,
      "ord": 701,
      "INV": 702,
      "Ġafter": 703,
      "Ġwork": 704,
      "Ġday": 705,
      "ĠV": 706,
      "ren": 707,
      "Ġpart": 708,
      "Ġcall": 709,
      "'ve": 710,
      "ves": 711,
      "onna": 712,
      "ated": 713,
      "ff": 714,
      "Ġfirst": 715,
      "per": 716,
      "Ġthr": 717,
      "Ġpr": 718,
      "iss": 719,
      "Ġway": 720,
      "ans": 721,
      "Ġagain": 722,
      "Ġer": 723,
      "Ġam": 724,
      "act": 725,
      "ach": 726,
      "mer": 727,
      "Ġsomet": 728,
      "wn": 729,
      "able": 730,
      "Ġgonna": 731,
      "ions": 732,
      "Ġtell": 733,
      "so": 734,
      "Ġyear": 735,
      "old": 736,
      "ather": 737,
      "ps": 738,
      "Ġfl": 739,
      "cc": 740,
      "Ġ%": 741,
      "ru": 742,
      "Ġdoes": 743,
      "my": 744,
      "Ġbet": 745,
      "Ġtake": 746,
      "Ġhu": 747,
      "Ġevery": 748,
      "ĠBut": 749,
      "self": 750,
      "fore": 751,
      "ng": 752,
      "Ġpre": 753,
      "Ġbecause": 754,
      "RO": 755,
      "iz": 756,
      "Ġad": 757,
      "Ġwr": 758,
      "Ġonly": 759,
      "Ġim": 760,
      "ance": 761,
      "Ġcomp": 762,
      "ĠNo": 763,
      "ile": 764,
      "ool": 765,
      "les": 766,
      "laugh": 767,
      "Ġrem": 768,
      "nder": 769,
      "ress": 770,
      "ub": 771,
      "og": 772,
      "IS": 773,
      "Ġte": 774,
      "Ġcha": 775,
      "Ġour": 776,
      "oc": 777,
      "Ġneed": 778,
      "ang": 779,
      "ock": 780,
      "ew": 781,
      "ouse": 782,
      "oss": 783,
      "ull": 784,
      "Ġwhy": 785,
      "uch": 786,
      "Ġshould": 787,
      "Ġapp": 788,
      "Ġcar": 789,
      "Ġthese": 790,
      "Ġgu": 791,
      "Ġch": 792,
      "Ġmade": 793,
      "ne": 794,
      "ory": 795,
      "we": 796,
      "ied": 797,
      "pe": 798,
      "hen": 799,
      "ĠSo": 800,
      "cl": 801,
      "Ġthrough": 802,
      "Ġhapp": 803,
      "day": 804,
      "ict": 805,
      "Ġchi": 806,
      "hy": 807,
      "Ġlong": 808,
      "Ġdidn": 809,
      "ĠThey": 810,
      "Ġsha": 811,
      "Ġhand": 812,
      "ady": 813,
      "Ġsomething": 814,
      "laughs": 815,
      "SIS": 816,
      "ence": 817,
      "ign": 818,
      "Ġmuch": 819,
      "Ġsc": 820,
      "Ġper": 821,
      "ĠThis": 822,
      "Ġchild": 823,
      "Ġthree": 824,
      "ĠUn": 825,
      "Ġbefore": 826,
      "av": 827,
      "thing": 828,
      "Ġres": 829,
      "irl": 830,
      "Ġcont": 831,
      "ix": 832,
      "ĠThat": 833,
      "Ġunder": 834,
      "Ġsm": 835,
      "Ġmay": 836,
      "ise": 837,
      "Ġalso": 838,
      "ting": 839,
      "be": 840,
      "Ġpo": 841,
      "Ġtalk": 842,
      "ors": 843,
      "man": 844,
      "BRO": 845,
      "ip": 846,
      "Ġgreat": 847,
      "iv": 848,
      "ons": 849,
      "ĠMr": 850,
      "Ġke": 851,
      "Ġeat": 852,
      "Ġmean": 853,
      "ĠâĢľ": 854,
      "yes": 855,
      "ates": 856,
      "Ġbu": 857,
      "Ġbig": 858,
      "Ġwan": 859,
      "ks": 860,
      "Ġnew": 861,
      "Ġold": 862,
      "ĠOh": 863,
      "Ġmo": 864,
      "Ġact": 865,
      "Ġeven": 866,
      "Ġwent": 867,
      "add": 868,
      "âĢĻ": 869,
      "Ġboy": 870,
      "Ġnever": 871,
      "ody": 872,
      "ĠMom": 873,
      "Ġser": 874,
      "Ġreally": 875,
      "Ġhel": 876,
      "ward": 877,
      "ful": 878,
      "up": 879,
      "zz": 880,
      "Ġuh": 881,
      "ited": 882,
      "Ġaway": 883,
      "ĠCh": 884,
      "Ġyes": 885,
      "Ġstill": 886,
      "ath": 887,
      "ĠYeah": 888,
      "gg": 889,
      "Ġcame": 890,
      "ens": 891,
      "ical": 892,
      "land": 893,
      "Ġthose": 894,
      "Ġgirl": 895,
      "ily": 896,
      "ĠChi": 897,
      "Ġmany": 898,
      "atch": 899,
      "Ġhome": 900,
      "igh": 901,
      "orm": 902,
      "Ġturn": 903,
      "ious": 904,
      "'d": 905,
      "Ġlea": 906,
      "hes": 907,
      "Ġcr": 908,
      "get": 909,
      "Ġra": 910,
      "ult": 911,
      "Ġbel": 912,
      "Ġco": 913,
      "Ġwanna": 914,
      "ail": 915,
      "Ġthought": 916,
      "Ġrec": 917,
      "ried": 918,
      "Ġstart": 919,
      "Ġlast": 920,
      "ĠWell": 921,
      "Ġsec": 922,
      "Ġask": 923,
      "chool": 924,
      "Ġanother": 925,
      "oth": 926,
      "Ġmust": 927,
      "als": 928,
      "Ġum": 929,
      "Ġbook": 930,
      "ert": 931,
      "Ġsl": 932,
      "ob": 933,
      "Ġits": 934,
      "ï¿": 935,
      "uck": 936,
      "ĠThere": 937,
      "ened": 938,
      "?\"": 939,
      "Ġname": 940,
      "Ġthing": 941,
      "Ġhouse": 942,
      "te": 943,
      "riend": 944,
      "ï¿½": 945,
      "Ġnum": 946,
      "Ġwhile": 947,
      "Ġshow": 948,
      "Ġhead": 949,
      "Ġgive": 950,
      "ĠMar": 951,
      "ung": 952,
      "Ġown": 953,
      "anc": 954,
      "Ġdes": 955,
      "Ġhelp": 956,
      "Ġwa": 957,
      "Ġfound": 958,
      "Ġatt": 959,
      "Ġmother": 960,
      "Ġbo": 961,
      "Ġfind": 962,
      "ember": 963,
      "Ġcomm": 964,
      "UR": 965,
      "air": 966,
      "ations": 967,
      "ys": 968,
      "xt": 969,
      "Ġthings": 970,
      "vers": 971,
      "Ġyears": 972,
      "vel": 973,
      "Ġmost": 974,
      "Ġfour": 975,
      ".]": 976,
      "Ġend": 977,
      "ition": 978,
      "Ġchan": 979,
      "ince": 980,
      "Ġdoing": 981,
      "ild": 982,
      "side": 983,
      "Ġtry": 984,
      "here": 985,
      "Ġnight": 986,
      "ina": 987,
      "Ġche": 988,
      "ny": 989,
      "Ġear": 990,
      "aby": 991,
      "ĠAs": 992,
      "Ġsuch": 993,
      "âĢĿ": 994,
      "Ġple": 995,
      "port": 996,
      "aking": 997,
      "ĠAl": 998,
      "Ġtra": 999,
      "rd": 1000,
      "ident": 1001,
      "Ġdif": 1002,
      "Ġcalled": 1003,
      "Ġwater": 1004,
      "uc": 1005,
      "Ġop": 1006,
      "ction": 1007,
      "ever": 1008,
      "ah": 1009,
      "oney": 1010,
      "ec": 1011,
      "Ġind": 1012,
      "Ġcount": 1013,
      "Ġmom": 1014,
      "Ġkind": 1015,
      "Ġgl": 1016,
      "amp": 1017,
      "Ġfin": 1018,
      "Ġbeing": 1019,
      "Ġpres": 1020,
      "Ġfriend": 1021,
      "ĠFr": 1022,
      "Ġwon": 1023,
      "Ġread": 1024,
      "ĠHow": 1025,
      "rent": 1026,
      "Ġmin": 1027,
      "Ġel": 1028,
      "hm": 1029,
      "aw": 1030,
      "Ġmight": 1031,
      "Ġlove": 1032,
      "ave": 1033,
      "ĠIf": 1034,
      "Ġaround": 1035,
      "Ġsupp": 1036,
      "ĠBr": 1037,
      "Ġschool": 1038,
      "akes": 1039,
      "ning": 1040,
      "led": 1041,
      "Ġplace": 1042,
      "ents": 1043,
      "Ġbec": 1044,
      "URS": 1045,
      "Ġroom": 1046,
      "Ġfeel": 1047,
      "enc": 1048,
      "Ġcare": 1049,
      "ually": 1050,
      "ars": 1051,
      "Ġhuh": 1052,
      "Ġbeg": 1053,
      "ont": 1054,
      "Ġbetter": 1055,
      "Ġnumber": 1056,
      "ĠIs": 1057,
      "Ġused": 1058,
      "body": 1059,
      "ĠBe": 1060,
      "ial": 1061,
      "uring": 1062,
      "ways": 1063,
      "Ġlife": 1064,
      "Ġdone": 1065,
      "Ġsure": 1066,
      "oh": 1067,
      "Ġsame": 1068,
      "ute": 1069,
      "ere": 1070,
      "Ġword": 1071,
      "Ġset": 1072,
      "Ġele": 1073,
      "li": 1074,
      "Ġfive": 1075,
      "tern": 1076,
      "Ġkeep": 1077,
      "ican": 1078,
      "ĠMommy": 1079,
      "Ġstr": 1080,
      "ph": 1081,
      "Ġsil": 1082,
      "Ġfather": 1083,
      "Ġmen": 1084,
      "ott": 1085,
      "Ġac": 1086,
      "Ġacc": 1087,
      "imes": 1088,
      "Ġmon": 1089,
      "Ġsw": 1090,
      "ream": 1091,
      "Ġnext": 1092,
      "ros": 1093,
      "Ġret": 1094,
      "Ġob": 1095,
      "ower": 1096,
      "ER": 1097,
      "ts": 1098,
      "Ġcour": 1099,
      "ĠAn": 1100,
      "ĠOn": 1101,
      "ational": 1102,
      "ins": 1103,
      "ms": 1104,
      "ĠYes": 1105,
      "ished": 1106,
      "Ġunt": 1107,
      "Ġbre": 1108,
      "Ġwom": 1109,
      "ird": 1110,
      "Ġsing": 1111,
      "vent": 1112,
      "Ġfam": 1113,
      "ness": 1114,
      "ug": 1115,
      "Ġever": 1116,
      "Ġanything": 1117,
      "Ġuse": 1118,
      "row": 1119,
      "ee": 1120,
      "Ġca": 1121,
      "Ġtold": 1122,
      "Ġelse": 1123,
      "ĠAmer": 1124,
      "Ġtook": 1125,
      "mp": 1126,
      "ank": 1127,
      "Ġbaby": 1128,
      "ling": 1129,
      "Ġpol": 1130,
      "Ġbelie": 1131,
      "ĠMark": 1132,
      "Ġexp": 1133,
      "Ġreg": 1134,
      "oot": 1135,
      "Ġent": 1136,
      "Ġdr": 1137,
      "mber": 1138,
      "Ġwait": 1139,
      "Ġfar": 1140,
      "gr": 1141,
      "Ġalways": 1142,
      "Ġleft": 1143,
      "Ġcle": 1144,
      "ĠAll": 1145,
      "ters": 1146,
      "ween": 1147,
      "Ġlot": 1148,
      "ollow": 1149,
      "Ġsaw": 1150,
      "Ġpie": 1151,
      "Ġworld": 1152,
      "Ġsur": 1153,
      "ĠAf": 1154,
      "Ġsit": 1155,
      "ĠAt": 1156,
      "Ġstud": 1157,
      "ĠDo": 1158,
      "ĠUnited": 1159,
      "Ġdiffe": 1160,
      "outh": 1161,
      "mb": 1162,
      "Ġmag": 1163,
      "Ġseem": 1164,
      "Ġuntil": 1165,
      "Ġmhm": 1166,
      "Ġreal": 1167,
      "Ġsix": 1168,
      "Ġpret": 1169,
      "Ġpers": 1170,
      "oun": 1171,
      "Ġwar": 1172,
      "ible": 1173,
      "ject": 1174,
      "Ġrun": 1175,
      "Ġnice": 1176,
      "Ġbus": 1177,
      "Ġdog": 1178,
      "Ġhold": 1179,
      "pped": 1180,
      "ures": 1181,
      "uh": 1182,
      "Ġrel": 1183,
      "ner": 1184,
      "Ġpass": 1185,
      "Ġ.": 1186,
      "ĠKing": 1187,
      "Ġdoesn": 1188,
      "ĠRe": 1189,
      "form": 1190,
      "Ġph": 1191,
      "Ġboth": 1192,
      "Ġwee": 1193,
      "ĠNew": 1194,
      "ets": 1195,
      "Ġbetween": 1196,
      "ĠAr": 1197,
      "Ġsmall": 1198,
      "Ġcons": 1199,
      "ating": 1200,
      "Ġfun": 1201,
      "ounds": 1202,
      "cle": 1203,
      "Ġblack": 1204,
      "Ġyoung": 1205,
      "Ġchildren": 1206,
      "Ġupon": 1207,
      "Ġgi": 1208,
      "Ġgre": 1209,
      "fect": 1210,
      "Ġyet": 1211,
      "Ġcol": 1212,
      "Ġdist": 1213,
      "Ġhigh": 1214,
      "!\"": 1215,
      "Ġgra": 1216,
      "ndred": 1217,
      "ased": 1218,
      "orry": 1219,
      "ries": 1220,
      "Ġmar": 1221,
      "ĠCha": 1222,
      "Ġchar": 1223,
      "Ġstand": 1224,
      "Ġstay": 1225,
      "ĠWh": 1226,
      "ger": 1227,
      "ib": 1228,
      "ĠEng": 1229,
      "ret": 1230,
      "aught": 1231,
      "Ġhundred": 1232,
      "ired": 1233,
      "oup": 1234,
      "ĠDe": 1235,
      "ump": 1236,
      "Ġhard": 1237,
      "ubl": 1238,
      "io": 1239,
      "ered": 1240,
      "ĠTH": 1241,
      "Ġmoney": 1242,
      "az": 1243,
      "Ġthough": 1244,
      "ellow": 1245,
      "gether": 1246,
      "ye": 1247,
      "Ġsecond": 1248,
      "the": 1249,
      "Ġinst": 1250,
      "Ġtogether": 1251,
      "ross": 1252,
      "ope": 1253,
      "Ġfew": 1254,
      "Ġdat": 1255,
      "Ġsays": 1256,
      "Ġnothing": 1257,
      "ics": 1258,
      "oon": 1259,
      "ĠZ": 1260,
      "AN": 1261,
      "Ġmat": 1262,
      "Ġonce": 1263,
      "Ġopen": 1264,
      "Ġwatch": 1265,
      "Ġbest": 1266,
      "its": 1267,
      "Ġknown": 1268,
      "Ġwithout": 1269,
      "Ġsy": 1270,
      "Ġpoint": 1271,
      "ĠWhen": 1272,
      "Ġenough": 1273,
      "Ġmet": 1274,
      "Ġremember": 1275,
      "Ġstick": 1276,
      "ener": 1277,
      "leep": 1278,
      "clud": 1279,
      "ĠFor": 1280,
      "ces": 1281,
      "Ġdisc": 1282,
      "cial": 1283,
      "Ġagainst": 1284,
      "Ġinv": 1285,
      "usic": 1286,
      "Ġlight": 1287,
      "ular": 1288,
      "Ġplease": 1289,
      "Ġfr": 1290,
      "Ġside": 1291,
      "Ġeyes": 1292,
      "Ġimp": 1293,
      "ister": 1294,
      "orning": 1295,
      "Ġeach": 1296,
      "Ġfollow": 1297,
      "Ġred": 1298,
      "oud": 1299,
      "Ġnear": 1300,
      "Ġwalk": 1301,
      "Ġhimself": 1302,
      "rist": 1303,
      "Ġmil": 1304,
      "Ġter": 1305,
      "Ġdoor": 1306,
      "ton": 1307,
      "Ġball": 1308,
      "ched": 1309,
      "ane": 1310,
      "Ġbed": 1311,
      "ES": 1312,
      "Ġdec": 1313,
      "ork": 1314,
      "eak": 1315,
      "ĠWhy": 1316,
      "ĠMiss": 1317,
      "rib": 1318,
      "ĠAd": 1319,
      "Ġfall": 1320,
      "CO": 1321,
      "ĠSp": 1322,
      "less": 1323,
      "Ġdifferent": 1324,
      "Ġpick": 1325,
      "ĠCan": 1326,
      "Ġdied": 1327,
      "Ġhear": 1328,
      "Ġsk": 1329,
      "Ġtop": 1330,
      "Ġbad": 1331,
      "ined": 1332,
      "Ġrest": 1333,
      "Ġsilver": 1334,
      "ĠMy": 1335,
      "iet": 1336,
      "Ġmorning": 1337,
      "Ġface": 1338,
      "Ġcourse": 1339,
      "ĠNow": 1340,
      "Ġfood": 1341,
      "oice": 1342,
      "med": 1343,
      "The": 1344,
      "Ġsub": 1345,
      "Ġdep": 1346,
      "Ġhappened": 1347,
      "Ġlar": 1348,
      "ale": 1349,
      "ĠDon": 1350,
      "Ġsince": 1351,
      "Ġheart": 1352,
      "ged": 1353,
      "ĠStates": 1354,
      "ange": 1355,
      "Ġperson": 1356,
      "ertain": 1357,
      "LD": 1358,
      "ific": 1359,
      "Ġquite": 1360,
      "ual": 1361,
      "fta": 1362,
      "Ġdra": 1363,
      "cept": 1364,
      "ier": 1365,
      "ĠInd": 1366,
      "oint": 1367,
      "Ġair": 1368,
      "Ġhafta": 1369,
      "uff": 1370,
      "osed": 1371,
      "Ġcap": 1372,
      "uss": 1373,
      "orth": 1374,
      "Ġkill": 1375,
      "Ġinc": 1376,
      "aut": 1377,
      "Ġlist": 1378,
      "Ġtable": 1379,
      "ities": 1380,
      "ctor": 1381,
      "Ġalright": 1382,
      "\".": 1383,
      "ta": 1384,
      "ĠThen": 1385,
      "une": 1386,
      "Ġdri": 1387,
      "Ġisn": 1388,
      "Ġlater": 1389,
      "Ġadd": 1390,
      "EL": 1391,
      "Ġasked": 1392,
      "Ġass": 1393,
      "Ġbro": 1394,
      "any": 1395,
      "ĠAmerican": 1396,
      "vie": 1397,
      "Ġleave": 1398,
      "ines": 1399,
      "Ġmind": 1400,
      "Ġcat": 1401,
      "),": 1402,
      "ohn": 1403,
      "-s": 1404,
      "Ġhur": 1405,
      "vern": 1406,
      "Ġseen": 1407,
      "hip": 1408,
      "ï¿½ï¿½": 1409,
      "ason": 1410,
      "ĠCl": 1411,
      "Ġbase": 1412,
      "Ġ_": 1413,
      "Ġstop": 1414,
      "ĠOkay": 1415,
      "Ġwanted": 1416,
      "Ġfamily": 1417,
      "ote": 1418,
      "Ġbit": 1419,
      "Ġcoming": 1420,
      "aper": 1421,
      "me": 1422,
      "cha": 1423,
      "Ġtoday": 1424,
      "Ġhm": 1425,
      "Ġhaving": 1426,
      "ĠEd": 1427,
      "Ġknew": 1428,
      "Ġalong": 1429,
      "idd": 1430,
      "most": 1431,
      "Ġsign": 1432,
      "Ġreturn": 1433,
      "Ġhung": 1434,
      "und": 1435,
      "aint": 1436,
      "Ġheard": 1437,
      "enty": 1438,
      "ative": 1439,
      "Ġeight": 1440,
      "Ġstory": 1441,
      "addy": 1442,
      "Ġhat": 1443,
      "Ġcoll": 1444,
      "ames": 1445,
      "Ġdays": 1446,
      "Ġcity": 1447,
      "ĠâĢĵ": 1448,
      "stand": 1449,
      "Ġwind": 1450,
      "Ġeverything": 1451,
      "Ġhands": 1452,
      "Ġinclud": 1453,
      "Ġmove": 1454,
      "cess": 1455,
      "ĠMrs": 1456,
      "Ġwhole": 1457,
      "Ġlooking": 1458,
      "ision": 1459,
      "Ġmagn": 1460,
      "Ġsorry": 1461,
      "ĠChrist": 1462,
      "aster": 1463,
      "ently": 1464,
      "Ġgave": 1465,
      "Ġcent": 1466,
      "ife": 1467,
      "Ġrep": 1468,
      "tle": 1469,
      "Ġfire": 1470,
      "Ġpretty": 1471,
      "ĠJust": 1472,
      "uth": 1473,
      "ĠJohn": 1474,
      "aj": 1475,
      "Ġsleep": 1476,
      "Ġposs": 1477,
      "Ġbelieve": 1478,
      "ned": 1479,
      "oor": 1480,
      "Ġref": 1481,
      "sel": 1482,
      "Ġdoll": 1483,
      "Ġhalf": 1484,
      "Ġduring": 1485,
      "der": 1486,
      "Ġsent": 1487,
      "Ġsoon": 1488,
      "Ġthank": 1489,
      "eng": 1490,
      "ows": 1491,
      "Ġlooked": 1492,
      "Ġloc": 1493,
      "ene": 1494,
      "Ġev": 1495,
      "olog": 1496,
      "ING": 1497,
      "Ġtown": 1498,
      "ĠNot": 1499,
      ").": 1500,
      "Ġsong": 1501,
      "Ġgetting": 1502,
      "ivers": 1503,
      "Ġanim": 1504,
      "ok": 1505,
      "ably": 1506,
      "Ġlead": 1507,
      "ĠAfter": 1508,
      "ĠRoss": 1509,
      "ĠMay": 1510,
      "Ġsn": 1511,
      "ĠThan": 1512,
      "ants": 1513,
      "ists": 1514,
      "ully": 1515,
      "Ġpict": 1516,
      "Ġem": 1517,
      "Ġmeet": 1518,
      "Ġate": 1519,
      "Ġshall": 1520,
      "Ġhum": 1521,
      "Ġdire": 1522,
      "ape": 1523,
      "ĠGod": 1524,
      "ex": 1525,
      "br": 1526,
      "eter": 1527,
      "Ġquest": 1528,
      "ield": 1529,
      "Ġbeaut": 1530,
      "Ġgirls": 1531,
      "Ġbring": 1532,
      "ues": 1533,
      "Ġpop": 1534,
      "ĠCom": 1535,
      "ounc": 1536,
      "Ġland": 1537,
      "ax": 1538,
      "ash": 1539,
      "ready": 1540,
      "ĠPr": 1541,
      "Ġwrite": 1542,
      "onder": 1543,
      "iness": 1544,
      "Ġborn": 1545,
      "elt": 1546,
      "ĠHey": 1547,
      "ĠSc": 1548,
      "ury": 1549,
      "lish": 1550,
      "Ġhour": 1551,
      "ric": 1552,
      "ither": 1553,
      "Ġage": 1554,
      "Ġext": 1555,
      "ution": 1556,
      "ney": 1557,
      "Ġtalking": 1558,
      "Ġwasn": 1559,
      "Ġgoes": 1560,
      "Ġmaking": 1561,
      "pect": 1562,
      "Ġaw": 1563,
      "ained": 1564,
      "Ġbuild": 1565,
      "Ġcountry": 1566,
      "rew": 1567,
      "ustr": 1568,
      "ining": 1569,
      "Ġround": 1570,
      "Ġmaybe": 1571,
      "Ġprod": 1572,
      "ately": 1573,
      "Ġstarted": 1574,
      "Ġalready": 1575,
      "ten": 1576,
      "ised": 1577,
      "Ġhor": 1578,
      "Ġeas": 1579,
      "ense": 1580,
      "ĠTo": 1581,
      "aces": 1582,
      "wer": 1583,
      "Ġbecame": 1584,
      "OU": 1585,
      "ĠTHE": 1586,
      "ĠSar": 1587,
      "-b": 1588,
      "Ġkid": 1589,
      "ĠHis": 1590,
      "ized": 1591,
      "ured": 1592,
      "oe": 1593,
      "ital": 1594,
      "Ġdrink": 1595,
      "ĠLet": 1596,
      "zzz": 1597,
      "Ġconf": 1598,
      "Ġzzz": 1599,
      "Ġvoice": 1600,
      "huh": 1601,
      "Ġans": 1602,
      "Ġsim": 1603,
      "Ġlo": 1604,
      "Ġcertain": 1605,
      "ike": 1606,
      "pr": 1607,
      "Ġfif": 1608,
      "Ġfact": 1609,
      "Ġtri": 1610,
      "ages": 1611,
      "ison": 1612,
      "Ġready": 1613,
      "Ġtre": 1614,
      "Ġbrother": 1615,
      "Ġri": 1616,
      "aken": 1617,
      "Ġlive": 1618,
      "ster": 1619,
      "orrow": 1620,
      "Ġlear": 1621,
      "Ġmeans": 1622,
      "Ġcut": 1623,
      "Ġgone": 1624,
      "Ġprom": 1625,
      "cted": 1626,
      "Ġvis": 1627,
      "Ġpubl": 1628,
      "ĠGo": 1629,
      "Ġdeath": 1630,
      "Ġpiece": 1631,
      "rop": 1632,
      "Ġhot": 1633,
      "Ġmiss": 1634,
      "Ġson": 1635,
      "ĠGer": 1636,
      "Ġexc": 1637,
      "Ġalmost": 1638,
      "Ġbegan": 1639,
      "eth": 1640,
      "Ġsound": 1641,
      "Ġhungry": 1642,
      "Ġbreak": 1643,
      "\",": 1644,
      "Ġerm": 1645,
      "ments": 1646,
      "Ġunderstand": 1647,
      "Ġfriends": 1648,
      "dd": 1649,
      "ĠCome": 1650,
      "ple": 1651,
      "Ġplan": 1652,
      "Ġmoment": 1653,
      "Ġid": 1654,
      "ĠLe": 1655,
      "aid": 1656,
      "Ġfight": 1657,
      "ĠPh": 1658,
      "Ġtrans": 1659,
      "Ġinter": 1660,
      "used": 1661,
      "Ġmed": 1662,
      "Ġwhite": 1663,
      "Ġocc": 1664,
      "ided": 1665,
      "gan": 1666,
      "Ġfore": 1667,
      "Ġfoot": 1668,
      "urs": 1669,
      "ared": 1670,
      "Ġmonth": 1671,
      "Ġwoman": 1672,
      "Ġsaying": 1673,
      "iful": 1674,
      "Ġdear": 1675,
      "Ġwin": 1676,
      "LO": 1677,
      "erest": 1678,
      "ball": 1679,
      "Ġgener": 1680,
      "Ġsun": 1681,
      "Ġwrong": 1682,
      "Ġfull": 1683,
      "Ġwonder": 1684,
      "Ġclose": 1685,
      "eed": 1686,
      "Ġart": 1687,
      "Ġteam": 1688,
      "âĢĻs": 1689,
      "ush": 1690,
      "Ġpaper": 1691,
      "Ġlaugh": 1692,
      "Ġproble": 1693,
      "ĠOne": 1694,
      "Ġtrying": 1695,
      "Ã©": 1696,
      "Ġdel": 1697,
      "ĠQ": 1698,
      "app": 1699,
      "Ġhey": 1700,
      "Ġparty": 1701,
      "Ġyellow": 1702,
      "oke": 1703,
      "Ġprov": 1704,
      "Ġturned": 1705,
      "ted": 1706,
      "Ġrecord": 1707,
      "iting": 1708,
      "to": 1709,
      "Ġgame": 1710,
      "alth": 1711,
      "ĠHer": 1712,
      "Ġspeak": 1713,
      "wards": 1714,
      "gin": 1715,
      "ĠFl": 1716,
      "Ġtwenty": 1717,
      "COL": 1718,
      "Ġactually": 1719,
      "rog": 1720,
      "ony": 1721,
      "Ġlost": 1722,
      "ize": 1723,
      "ĠJan": 1724,
      "ides": 1725,
      "Ġless": 1726,
      "/H": 1727,
      "Ġcreat": 1728,
      "ey": 1729,
      "Ġweek": 1730,
      "Ġten": 1731,
      "Ġstra": 1732,
      "ring": 1733,
      "Ġtimes": 1734,
      "Ġcur": 1735,
      "Ġpri": 1736,
      "ati": 1737,
      "Ġrece": 1738,
      "els": 1739,
      "ats": 1740,
      "Ġcontin": 1741,
      "oes": 1742,
      "ober": 1743,
      "ĠEnglish": 1744,
      "Ġinterest": 1745,
      "Ġwords": 1746,
      "Ġlooks": 1747,
      "ming": 1748,
      "ĠCount": 1749,
      "ĠBl": 1750,
      "ole": 1751,
      "Ġbra": 1752,
      "ffe": 1753,
      "ze": 1754,
      "Ġbrought": 1755,
      "ĠAre": 1756,
      "aul": 1757,
      "Ġbeh": 1758,
      "UN": 1759,
      "Ġable": 1760,
      "Ġpresent": 1761,
      "Ġplaying": 1762,
      "Ġgovern": 1763,
      "Ġed": 1764,
      "Ġmark": 1765,
      "Ġboys": 1766,
      "ery": 1767,
      "Ġfine": 1768,
      "Ġbox": 1769,
      "Ġi": 1770,
      "ept": 1771,
      "ĠEr": 1772,
      "EN": 1773,
      "Ġbar": 1774,
      "stem": 1775,
      "ices": 1776,
      "Ġwouldn": 1777,
      "Ġrock": 1778,
      "ying": 1779,
      "Ġdin": 1780,
      "ains": 1781,
      "Ġsort": 1782,
      "ief": 1783,
      "Ġleg": 1784,
      "Ġbeautiful": 1785,
      "Ġpoor": 1786,
      "ĠCar": 1787,
      "Ġcir": 1788,
      "Ġidea": 1789,
      "velop": 1790,
      "Ġins": 1791,
      "Ġtaken": 1792,
      "ĠSarah": 1793,
      "Ġwomen": 1794,
      "by": 1795,
      "Ġpower": 1796,
      "ON": 1797,
      "ouch": 1798,
      "Ġphone": 1799,
      "fully": 1800,
      "ouble": 1801,
      "Ġblue": 1802,
      "Ġfelt": 1803,
      "room": 1804,
      "Ġmm": 1805,
      "ĠMot": 1806,
      "Ġwithin": 1807,
      "though": 1808,
      "Ġlarge": 1809,
      "ern": 1810,
      "ĠWill": 1811,
      "Ġgreen": 1812,
      "amed": 1813,
      "Ġpay": 1814,
      "Ġclear": 1815,
      "Ġtele": 1816,
      "Ġmatter": 1817,
      "Ġimport": 1818,
      "atur": 1819,
      "ead": 1820,
      "Ġegg": 1821,
      "Ġrele": 1822,
      "You": 1823,
      "Ġcomes": 1824,
      "Ġguess": 1825,
      "utes": 1826,
      "airs": 1827,
      "not": 1828,
      "erv": 1829,
      "unch": 1830,
      "Ġmusic": 1831,
      "Ġquick": 1832,
      "Ġbehind": 1833,
      "Ġlaw": 1834,
      "irth": 1835,
      "Ġshort": 1836,
      "Ġprot": 1837,
      "Ġes": 1838,
      "Ġform": 1839,
      "bs": 1840,
      "Ġbird": 1841,
      "Ġrather": 1842,
      "Ġoften": 1843,
      "Ġbear": 1844,
      "iversity": 1845,
      "iter": 1846,
      "Ġstate": 1847,
      "ism": 1848,
      "Ġstuff": 1849,
      "Ġcomple": 1850,
      "Ġexpl": 1851,
      "no": 1852,
      "reet": 1853,
      "Ġdress": 1854,
      "Ġjob": 1855,
      "Ġguy": 1856,
      "Ġdi": 1857,
      "ones": 1858,
      "ĠLook": 1859,
      "ians": 1860,
      "Ġwand": 1861,
      "ĠWith": 1862,
      "Ġconst": 1863,
      "ator": 1864,
      "Ġherself": 1865,
      "Ġpolit": 1866,
      "AI": 1867,
      "Ġguys": 1868,
      "ises": 1869,
      "ĠAdam": 1870,
      "aced": 1871,
      "ĠDid": 1872,
      "Ġking": 1873,
      "Ġpartic": 1874,
      "ider": 1875,
      "olly": 1876,
      "ention": 1877,
      "Ġsomeone": 1878,
      "Ġserv": 1879,
      "Ġwood": 1880,
      "Ġmakes": 1881,
      "Ġchair": 1882,
      "ĠPer": 1883,
      "ĠBrit": 1884,
      "Ġfell": 1885,
      "unt": 1886,
      "Ġbody": 1887,
      "Ġhappy": 1888,
      "ached": 1889,
      "sh": 1890,
      "Ġsat": 1891,
      "ived": 1892,
      "ĠAp": 1893,
      "-c": 1894,
      "NA": 1895,
      "ility": 1896,
      "ÃŃ": 1897,
      "bably": 1898,
      "Ġplayed": 1899,
      "gy": 1900,
      "Ġuhhuh": 1901,
      "Ġfront": 1902,
      "ik": 1903,
      "Ġoffic": 1904,
      "ĠWho": 1905,
      "Ġsal": 1906,
      "ese": 1907,
      "arch": 1908,
      "Ġadv": 1909,
      "ots": 1910,
      "-f": 1911,
      "Ġarea": 1912,
      ".âĢĿ": 1913,
      "ĠCon": 1914,
      "rench": 1915,
      "Ġcond": 1916,
      "Ġsoft": 1917,
      "ousand": 1918,
      "Ġcup": 1919,
      "Ġmagnet": 1920,
      "selves": 1921,
      "ature": 1922,
      "wh": 1923,
      "GLO": 1924,
      "Ġfloor": 1925,
      "itting": 1926,
      "read": 1927,
      "ety": 1928,
      "ĠPro": 1929,
      "Ġhope": 1930,
      "ipp": 1931,
      "ĠTr": 1932,
      "eb": 1933,
      "Ġhair": 1934,
      "ama": 1935,
      "where": 1936,
      "ĠSh": 1937,
      "ĠWhere": 1938,
      "Ġstrong": 1939,
      "Ġinside": 1940,
      "ĠWor": 1941,
      "Ġmilk": 1942,
      "Ġletter": 1943,
      "ears": 1944,
      "Ġlay": 1945,
      "ma": 1946,
      "key": 1947,
      "uly": 1948,
      "uro": 1949,
      "ches": 1950,
      "ĠGe": 1951,
      "Ġconc": 1952,
      "ards": 1953,
      "Ġcolor": 1954,
      "ĠSome": 1955,
      "Ġseemed": 1956,
      "Ġoutside": 1957,
      "âĢĶ": 1958,
      "Ġpar": 1959,
      "Ġgrow": 1960,
      "Ġpounds": 1961,
      "rying": 1962,
      "Ġsystem": 1963,
      "Ġsqu": 1964,
      "Ġothers": 1965,
      "Ġthousand": 1966,
      "umb": 1967,
      "uary": 1968,
      "Ġmill": 1969,
      "Ġste": 1970,
      "Ġseven": 1971,
      "Ġchange": 1972,
      "Ġhist": 1973,
      "haps": 1974,
      "ald": 1975,
      "ask": 1976,
      "Ġquestion": 1977,
      "eptember": 1978,
      "ford": 1979,
      "Ġacross": 1980,
      "Ġminute": 1981,
      "MEL": 1982,
      "aim": 1983,
      "Ġdevelop": 1984,
      "son": 1985,
      "rest": 1986,
      "ĠBen": 1987,
      "Ġmyself": 1988,
      "Ġdead": 1989,
      "Ġago": 1990,
      "Ġtaking": 1991,
      "arent": 1992,
      "Ġhappen": 1993,
      "Ġbirth": 1994,
      "icha": 1995,
      "ham": 1996,
      "Ġty": 1997,
      "Ġ#": 1998,
      "Ġbott": 1999,
      "head": 2000,
      "ĠMin": 2001,
      "Ġbusiness": 2002,
      "Oh": 2003,
      "bum": 2004,
      "Ġclass": 2005,
      "Ġmovie": 2006,
      "Ġwants": 2007,
      "Ġroad": 2008,
      "Ġresp": 2009,
      "ĠThank": 2010,
      "Ġest": 2011,
      "ĠRight": 2012,
      "Ġswe": 2013,
      "Ġgiven": 2014,
      ",âĢĿ": 2015,
      "ically": 2016,
      "tain": 2017,
      "Ġdark": 2018,
      "cient": 2019,
      "Ġmine": 2020,
      "Ġrequ": 2021,
      "ĠGr": 2022,
      "Ġpur": 2023,
      "ĠEx": 2024,
      "Ġcase": 2025,
      "ĠSeptember": 2026,
      "ges": 2027,
      "mon": 2028,
      "Ġspec": 2029,
      "Ġgotta": 2030,
      "oub": 2031,
      "Ġprof": 2032,
      "Ġminutes": 2033,
      "Ġamong": 2034,
      "Ġpos": 2035,
      "ilt": 2036,
      "ĠPar": 2037,
      "ĠGerman": 2038,
      "Ġpull": 2039,
      "empt": 2040,
      "Ġheld": 2041,
      "men": 2042,
      "Ġlived": 2043,
      "Ġstru": 2044,
      "ĠPaul": 2045,
      "Ġcor": 2046,
      "uts": 2047,
      "Ġhon": 2048,
      "ĠBro": 2049,
      "Ġcook": 2050,
      "angu": 2051,
      "Ġbat": 2052,
      "ĠCounty": 2053,
      "iously": 2054,
      "ox": 2055,
      "Ġcouldn": 2056,
      "Ġpicture": 2057,
      "Ġsum": 2058,
      "-t": 2059,
      "Ġexper": 2060,
      "rence": 2061,
      "ering": 2062,
      "ĠFrance": 2063,
      "osp": 2064,
      "Ġfeet": 2065,
      "Ġtrue": 2066,
      "Ġgroup": 2067,
      "Ġreport": 2068,
      "Ġill": 2069,
      "morrow": 2070,
      "itc": 2071,
      "Ġprobably": 2072,
      "overed": 2073,
      "----": 2074,
      "ional": 2075,
      "ected": 2076,
      "It": 2077,
      "nina": 2078,
      "eared": 2079,
      "Ġalone": 2080,
      "ĠGu": 2081,
      "Ġmod": 2082,
      "ĠGood": 2083,
      "com": 2084,
      "irty": 2085,
      "Ġsever": 2086,
      "Ġdeal": 2087,
      "ĠJanuary": 2088,
      "OR": 2089,
      "Ġworking": 2090,
      "bit": 2091,
      "Ġopp": 2092,
      "Ġimportant": 2093,
      "Ġgrand": 2094,
      "Ġ,": 2095,
      "ĠYork": 2096,
      "Ġliving": 2097,
      "anger": 2098,
      "ĠPhil": 2099,
      "Ġdepart": 2100,
      "ĠWorld": 2101,
      "-d": 2102,
      "een": 2103,
      "ĠOr": 2104,
      "ement": 2105,
      "aughter": 2106,
      "pill": 2107,
      "rie": 2108,
      "Ġones": 2109,
      "fl": 2110,
      "fic": 2111,
      "Ġlady": 2112,
      "kes": 2113,
      "Ġfrog": 2114,
      "gram": 2115,
      "ril": 2116,
      "Ġallow": 2117,
      "Ġalbum": 2118,
      "Ġpast": 2119,
      "rap": 2120,
      "Ġyep": 2121,
      "Ġfree": 2122,
      "iron": 2123,
      "ĠMan": 2124,
      "Ġeng": 2125,
      "Ġhorse": 2126,
      "Ġtreat": 2127,
      "ĠWar": 2128,
      "Ġearly": 2129,
      "Ġfig": 2130,
      "Ġleng": 2131,
      "Ġleast": 2132,
      "Ġbecome": 2133,
      "Ġlate": 2134,
      "ament": 2135,
      "Ġarri": 2136,
      "Ġteac": 2137,
      "ĠEuro": 2138,
      "Ġobject": 2139,
      "Ġbegin": 2140,
      "aterpill": 2141,
      "Ġsister": 2142,
      "ĠFrench": 2143,
      "Ġcamp": 2144,
      "Ġpassed": 2145,
      "Ġsingle": 2146,
      "ĠPl": 2147,
      "Ġattack": 2148,
      "Ġappro": 2149,
      "Ġlisten": 2150,
      "Ġnews": 2151,
      "Ġfair": 2152,
      "Ġwall": 2153,
      "ality": 2154,
      "ĠHar": 2155,
      "Ġsold": 2156,
      "ĠSha": 2157,
      "Ġlangu": 2158,
      "Ġnamed": 2159,
      "Ġrepl": 2160,
      "ajor": 2161,
      "Ġsir": 2162,
      "Ġforg": 2163,
      "Ġdream": 2164,
      "Ġbutter": 2165,
      "ugust": 2166,
      "Ġjo": 2167,
      "fort": 2168,
      "Ġline": 2169,
      "ĠDaddy": 2170,
      "ĠMarch": 2171,
      "Ġfav": 2172,
      "Ġseveral": 2173,
      "Ġtree": 2174,
      "Ġwish": 2175,
      "Ġfifty": 2176,
      "Ġhaven": 2177,
      "ĠDav": 2178,
      "Ġpu": 2179,
      "ls": 2180,
      "Ġeither": 2181,
      "Ġcold": 2182,
      "-p": 2183,
      "la": 2184,
      "nes": 2185,
      "ley": 2186,
      "rian": 2187,
      "Ġtrain": 2188,
      "ĠYour": 2189,
      "ĠAm": 2190,
      "âĢĻt": 2191,
      "Ġorgan": 2192,
      "ĠUniversity": 2193,
      "Ġhig": 2194,
      "Ġsea": 2195,
      "Ġabove": 2196,
      "rs": 2197,
      "Ġgovernment": 2198,
      "min": 2199,
      "Ġpublic": 2200,
      "aur": 2201,
      "Ġyourself": 2202,
      "IC": 2203,
      "Ġblock": 2204,
      "Ġyup": 2205,
      "ĠSw": 2206,
      "Ġwear": 2207,
      "Ġquiet": 2208,
      "ĠAb": 2209,
      "iding": 2210,
      "mother": 2211,
      "ising": 2212,
      "unic": 2213,
      "lo": 2214,
      "CHILD": 2215,
      "Ġmer": 2216,
      "Ġfunny": 2217,
      "Ġreason": 2218,
      "iddle": 2219,
      "uct": 2220,
      "Ġhuman": 2221,
      "aterpillar": 2222,
      "ued": 2223,
      "ler": 2224,
      "Ġap": 2225,
      "Ġsometimes": 2226,
      "Ġjump": 2227,
      "Ġspe": 2228,
      "ica": 2229,
      "ĠAugust": 2230,
      "Ġvar": 2231,
      "rict": 2232,
      "Ġtried": 2233,
      "Ġwife": 2234,
      "ium": 2235,
      "Ġann": 2236,
      "Ġfil": 2237,
      "Ġanimals": 2238,
      "Ġbuy": 2239,
      "Ġmess": 2240,
      "Ġfish": 2241,
      "ĠTw": 2242,
      "ĠYOU": 2243,
      "Ġorder": 2244,
      "ored": 2245,
      "Ġwhether": 2246,
      "Ġtape": 2247,
      "urch": 2248,
      "Ġsupport": 2249,
      "GAI": 2250,
      "itten": 2251,
      "Chi": 2252,
      "Ġclean": 2253,
      "Ġblood": 2254,
      "Ġhurt": 2255,
      "Ġpot": 2256,
      "lease": 2257,
      "Ġcompany": 2258,
      "ĠBecause": 2259,
      "iny": 2260,
      "ended": 2261,
      "Ġmain": 2262,
      "Ġkids": 2263,
      "Ġmoon": 2264,
      "ĠPe": 2265,
      "point": 2266,
      "gue": 2267,
      "ĠApril": 2268,
      "AL": 2269,
      "Ġice": 2270,
      "ĠPres": 2271,
      "Ġmember": 2272,
      "ĠRuss": 2273,
      "ĠThese": 2274,
      "Ġsend": 2275,
      "Ġcompet": 2276,
      "Ġbooks": 2277,
      "ĠDr": 2278,
      "but": 2279,
      "Ġmonths": 2280,
      ".cha": 2281,
      "/CHILD": 2282,
      "_NA": 2283,
      "ctober": 2284,
      "Ġchildes": 2285,
      "/CHILDES": 2286,
      "Ġtea": 2287,
      "Ġz": 2288,
      "ĠEurope": 2289,
      "Ġnine": 2290,
      "ĠBar": 2291,
      "ĠChar": 2292,
      "ula": 2293,
      "Ġdraw": 2294,
      "Ġground": 2295,
      "mas": 2296,
      "Ġnational": 2297,
      "Ġinform": 2298,
      "ccess": 2299,
      "GR": 2300,
      "dden": 2301,
      "Ġdro": 2302,
      "Ġlives": 2303,
      "more": 2304,
      "Ġvisit": 2305,
      "Ġtest": 2306,
      "Ġstar": 2307,
      "ĠHere": 2308,
      "ced": 2309,
      "ories": 2310,
      "que": 2311,
      "Ġhar": 2312,
      "Ġran": 2313,
      "Ġdef": 2314,
      "Ġcheck": 2315,
      "Ġanswer": 2316,
      "ĠEngland": 2317,
      "Ġfix": 2318,
      "ĠBritish": 2319,
      "ĠGeor": 2320,
      "Ġfast": 2321,
      "unity": 2322,
      "ĠMe": 2323,
      "Ġcontro": 2324,
      "ays": 2325,
      "Ġsudden": 2326,
      "rigin": 2327,
      "vision": 2328,
      "Ġlow": 2329,
      "ĠEar": 2330,
      "Ġgold": 2331,
      "ken": 2332,
      "ĠJe": 2333,
      "Ġeating": 2334,
      "ĠNe": 2335,
      "hile": 2336,
      "ffect": 2337,
      "ara": 2338,
      "Ġeye": 2339,
      "ĠRep": 2340,
      "Ġcorn": 2341,
      "Ġproblem": 2342,
      "Ġdet": 2343,
      "ĠOctober": 2344,
      "born": 2345,
      "Ġfollowing": 2346,
      "ĠBy": 2347,
      "Ġmis": 2348,
      "Ġav": 2349,
      "RE": 2350,
      "Ġ?": 2351,
      "Ġusing": 2352,
      "mbers": 2353,
      "ract": 2354,
      "Ġtoys": 2355,
      "AS": 2356,
      "Ġmot": 2357,
      "Ġpen": 2358,
      "ency": 2359,
      "Ġtem": 2360,
      "Ġthemselves": 2361,
      "Ġrese": 2362,
      "iam": 2363,
      "Ġtill": 2364,
      "Ġnoise": 2365,
      "Ġgets": 2366,
      "cy": 2367,
      "Ġtomorrow": 2368,
      "Ġserved": 2369,
      "What": 2370,
      "ĠEvery": 2371,
      "iver": 2372,
      "ĠHowever": 2373,
      "Ġband": 2374,
      "Ġâ": 2375,
      "Ġfing": 2376,
      "Ġdesign": 2377,
      "Ġkilled": 2378,
      "Ġfly": 2379,
      "Ġfail": 2380,
      "Ġhi": 2381,
      "dom": 2382,
      "icks": 2383,
      "ffee": 2384,
      "ĠTom": 2385,
      "Ġcause": 2386,
      "Ġhit": 2387,
      "ĠDavid": 2388,
      "Ġbag": 2389,
      "let": 2390,
      "Ġgod": 2391,
      "Ġfinished": 2392,
      "Ġreceived": 2393,
      "ior": 2394,
      "ĠAN": 2395,
      "Ġprogram": 2396,
      "Ġinstead": 2397,
      "Ġhors": 2398,
      "ĠPlease": 2399,
      "Ġwindow": 2400,
      "Ġdeep": 2401,
      "uthor": 2402,
      "ĠNational": 2403,
      "Ġvill": 2404,
      "entle": 2405,
      "Ġstep": 2406,
      "fer": 2407,
      "Ġhealth": 2408,
      "Ġstood": 2409,
      "ked": 2410,
      "bo": 2411,
      "over": 2412,
      "ron": 2413,
      "Ġloud": 2414,
      "ĠMother": 2415,
      "Ġlevel": 2416,
      "Ġpain": 2417,
      "idge": 2418,
      "hers": 2419,
      "ĠAlthough": 2420,
      "Ġdad": 2421,
      "asure": 2422,
      "Ġworked": 2423,
      "Ġbirthday": 2424,
      "rand": 2425,
      "ĠMarky": 2426,
      "oman": 2427,
      "Ġkept": 2428,
      "Ġstore": 2429,
      "ode": 2430,
      "Ġtrouble": 2431,
      "Ġentire": 2432,
      "Ġcost": 2433,
      "pping": 2434,
      "Ġreleased": 2435,
      "Ļª": 2436,
      "itty": 2437,
      "ĠCol": 2438,
      "Ġcommon": 2439,
      "itchen": 2440,
      "owers": 2441,
      "idence": 2442,
      "ĠTe": 2443,
      "ĠItal": 2444,
      "Ġthinking": 2445,
      "Ġlonger": 2446,
      "Ġcaterpillar": 2447,
      "Ġmouth": 2448,
      "Ġval": 2449,
      "Ġspecial": 2450,
      "Ġmur": 2451,
      "Ġdue": 2452,
      "Ġhours": 2453,
      "Ġslow": 2454,
      "Ġchance": 2455,
      "ĠâĻª": 2456,
      "ED": 2457,
      "Ġglad": 2458,
      "mpions": 2459,
      "Ġcharac": 2460,
      "ffic": 2461,
      "joy": 2462,
      "Ġton": 2463,
      "ĠFrom": 2464,
      "Ġmillion": 2465,
      "Ġcross": 2466,
      "Ġve": 2467,
      "Ġoper": 2468,
      "ĠMm": 2469,
      "ager": 2470,
      "ude": 2471,
      "par": 2472,
      "Ġsca": 2473,
      "Ġabs": 2474,
      "Ġeffect": 2475,
      "Ġkitchen": 2476,
      "con": 2477,
      "ana": 2478,
      "irt": 2479,
      "Ġseries": 2480,
      "ging": 2481,
      "Ġcoffee": 2482,
      "ording": 2483,
      "Ġcra": 2484,
      "gar": 2485,
      "Ġtouch": 2486,
      "Ġda": 2487,
      "then": 2488,
      "ĠCap": 2489,
      "Ġspace": 2490,
      "dy": 2491,
      "eal": 2492,
      "Ġwhose": 2493,
      "Ġarm": 2494,
      "Ġsafe": 2495,
      "uced": 2496,
      "ai": 2497,
      "band": 2498,
      "Ġmount": 2499,
      "ĠComm": 2500,
      "Yes": 2501,
      "Ġequ": 2502,
      "Ġbuilt": 2503,
      "Ġincluding": 2504,
      "Ġsol": 2505,
      "Ġsomebody": 2506,
      "Ġcried": 2507,
      "raid": 2508,
      "ĠPart": 2509,
      "Ġsurpr": 2510,
      "Ġsweet": 2511,
      "ĠSouth": 2512,
      "Ġeasy": 2513,
      "-w": 2514,
      "ĠChristmas": 2515,
      "Ġah": 2516,
      "ĠOf": 2517,
      "che": 2518,
      "resent": 2519,
      "ov": 2520,
      "Ġtoy": 2521,
      "ogn": 2522,
      "ral": 2523,
      "Ġnin": 2524,
      "Ġheav": 2525,
      "imb": 2526,
      "oof": 2527,
      "Ġya": 2528,
      "ĠTO": 2529,
      "Ġorigin": 2530,
      "Ġpress": 2531,
      "ĠSir": 2532,
      "ceed": 2533,
      "ĠCity": 2534,
      "Ġdaughter": 2535,
      "lex": 2536,
      "Ġmembers": 2537,
      "ĠEl": 2538,
      "Ġring": 2539,
      "Ġsuccess": 2540,
      "Ġmist": 2541,
      "ology": 2542,
      "And": 2543,
      "Ġcre": 2544,
      "atic": 2545,
      "Ġstreet": 2546,
      "Ġperform": 2547,
      "Ġexact": 2548,
      "sing": 2549,
      "ases": 2550,
      "ushed": 2551,
      "pper": 2552,
      "Ġcake": 2553,
      "Ġfur": 2554,
      "ĠMary": 2555,
      "Ġevening": 2556,
      "Ġrunning": 2557,
      "âĢĵ": 2558,
      "ances": 2559,
      "Ġwhis": 2560,
      "hant": 2561,
      "'.": 2562,
      "Ġhell": 2563,
      "Ġdinner": 2564,
      "Ġdaddy": 2565,
      "AUN": 2566,
      "Ġcomplete": 2567,
      "Ġclot": 2568,
      "Ġhistory": 2569,
      "Ġreached": 2570,
      "illy": 2571,
      "Ġdem": 2572,
      "ĠSe": 2573,
      "Ġcirc": 2574,
      "Ġcast": 2575,
      "Ġthird": 2576,
      "Ġclos": 2577,
      "Ġanyone": 2578,
      "ĠCal": 2579,
      "Ġdoctor": 2580,
      "Ġbow": 2581,
      "ĠWas": 2582,
      "Ġfa": 2583,
      "Ġfre": 2584,
      "Ġhoney": 2585,
      "Ġpossible": 2586,
      "Ġmarried": 2587,
      "itch": 2588,
      "Ġdefe": 2589,
      "ĠJuly": 2590,
      "Ġow": 2591,
      "chn": 2592,
      "Ġsitting": 2593,
      "Ġcannot": 2594,
      "ulation": 2595,
      "Ġhowever": 2596,
      "Ġperhaps": 2597,
      "Ġresult": 2598,
      "Ġparticular": 2599,
      "Ġstanding": 2600,
      "yl": 2601,
      "Ġforget": 2602,
      "urg": 2603,
      "astic": 2604,
      "ĠâĢĺ": 2605,
      "ouncil": 2606,
      "Ġbuilding": 2607,
      "uce": 2608,
      "Ġroll": 2609,
      "ĠPresident": 2610,
      "Ġcand": 2611,
      "ondon": 2612,
      "Ġafraid": 2613,
      "Ġfear": 2614,
      "Ġgentle": 2615,
      "ĠX": 2616,
      "Ġtrees": 2617,
      "Ġbath": 2618,
      "teen": 2619,
      "No": 2620,
      "ror": 2621,
      "de": 2622,
      "Ġcal": 2623,
      "Ġdiffic": 2624,
      "ivid": 2625,
      "iew": 2626,
      "music": 2627,
      "Ġevent": 2628,
      "Ġenjoy": 2629,
      "Ġprison": 2630,
      "laughing": 2631,
      "Ġmoved": 2632,
      "Ġled": 2633,
      "ĠHouse": 2634,
      "Ġaren": 2635,
      "ĠLondon": 2636,
      "Ġdev": 2637,
      "Ġstri": 2638,
      "Ġoffice": 2639,
      "Ġweeks": 2640,
      "Ġgun": 2641,
      "Ġvict": 2642,
      "Ġreturned": 2643,
      "ĠDan": 2644,
      "Ġmommy": 2645,
      "ruary": 2646,
      "Ġincre": 2647,
      "ebruary": 2648,
      "Ġparent": 2649,
      "ĠSec": 2650,
      "Ġgoin": 2651,
      "ovember": 2652,
      "come": 2653,
      "ified": 2654,
      "ospital": 2655,
      "ĠSis": 2656,
      "cember": 2657,
      "lt": 2658,
      "ĠNorth": 2659,
      "SL": 2660,
      "Ġformer": 2661,
      "hern": 2662,
      "Ġusually": 2663,
      "]?": 2664,
      "Ġglass": 2665,
      "Ġpract": 2666,
      "Ġdest": 2667,
      "Ġthrow": 2668,
      "Ġeveryone": 2669,
      "rit": 2670,
      "Ġseems": 2671,
      "ĠEm": 2672,
      "aged": 2673,
      "Ġposition": 2674,
      "emy": 2675,
      "Ġwhom": 2676,
      "ection": 2677,
      "Ġcell": 2678,
      "Ġdiv": 2679,
      "Ġlab": 2680,
      "Ġcoup": 2681,
      "enn": 2682,
      "Ġjour": 2683,
      "Ġdanger": 2684,
      "Ġpost": 2685,
      "Ġpage": 2686,
      "ĠJune": 2687,
      "Ġeverybody": 2688,
      "Ġhang": 2689,
      "for": 2690,
      "hold": 2691,
      "Ġknows": 2692,
      "Ġwrote": 2693,
      "Ġprofess": 2694,
      "ĠIN": 2695,
      "ET": 2696,
      "sc": 2697,
      "ĠChe": 2698,
      "Ġproper": 2699,
      "Ġattempt": 2700,
      "ĠGreat": 2701,
      "Ġprop": 2702,
      "rey": 2703,
      "Ġhop": 2704,
      "Ġahead": 2705,
      "Ġcool": 2706,
      "ĠJack": 2707,
      "ĠDad": 2708,
      "ounced": 2709,
      "Ġperfect": 2710,
      "Ġdoub": 2711,
      "Ġpark": 2712,
      "Ġhigher": 2713,
      "Ġsto": 2714,
      "unk": 2715,
      "Ġord": 2716,
      "Ġrad": 2717,
      "points": 2718,
      "usband": 2719,
      "Ġelect": 2720,
      "essie": 2721,
      "Ġtonight": 2722,
      "ĠSu": 2723,
      "Ġsounds": 2724,
      "ĠCanad": 2725,
      "ait": 2726,
      "estern": 2727,
      "-l": 2728,
      "Ġmajor": 2729,
      "Ġiss": 2730,
      "Ġregard": 2731,
      "Ġfill": 2732,
      "Ġwarm": 2733,
      "Ġ...": 2734,
      "ĠFebruary": 2735,
      "We": 2736,
      "Ġgen": 2737,
      "Ġboat": 2738,
      "Ġgeneral": 2739,
      "Ġfield": 2740,
      "co": 2741,
      "Ġfle": 2742,
      "ĠNovember": 2743,
      "Ġsnow": 2744,
      "Ġsuper": 2745,
      "ĠAg": 2746,
      "Ġview": 2747,
      "Ġmeant": 2748,
      "Ġru": 2749,
      "att": 2750,
      "ĠDecember": 2751,
      "ĠDor": 2752,
      "Ġtruck": 2753,
      "Ġholding": 2754,
      "iod": 2755,
      "Ġlanguage": 2756,
      "rod": 2757,
      "ground": 2758,
      "Ġappear": 2759,
      "Ġswim": 2760,
      "Ġarms": 2761,
      "Ġdirect": 2762,
      "ustral": 2763,
      "oose": 2764,
      "ggest": 2765,
      "Ġrecogn": 2766,
      "ient": 2767,
      "Ġsand": 2768,
      "Ġride": 2769,
      "fly": 2770,
      "ran": 2771,
      "Ġsus": 2772,
      "'S": 2773,
      "amb": 2774,
      "Ġauthor": 2775,
      "Ġsave": 2776,
      "Ġappeared": 2777,
      "Ġwild": 2778,
      "itions": 2779,
      "ternational": 2780,
      "Ġtoward": 2781,
      "Ġwritten": 2782,
      "ĠSund": 2783,
      "Ġsuggest": 2784,
      "Ġwriting": 2785,
      "Ġstudy": 2786,
      "/HV": 2787,
      "/HSL": 2788,
      "/HSLLD": 2789,
      "itted": 2790,
      "Ġactiv": 2791,
      "you": 2792,
      "Ġtakes": 2793,
      "Ġthirty": 2794,
      "ĠSant": 2795,
      "Ġeduc": 2796,
      "-m": 2797,
      "Ġbreat": 2798,
      "Ġesc": 2799,
      "Ġexcept": 2800,
      "Ġhusband": 2801,
      "Ġknock": 2802,
      "Ġmiddle": 2803,
      "olved": 2804,
      "Ġpresident": 2805,
      "But": 2806,
      "Ġself": 2807,
      "Ġcurrent": 2808,
      "Ġyours": 2809,
      "Ġlearn": 2810,
      "ello": 2811,
      "Ġneeds": 2812,
      ",--": 2813,
      "ishing": 2814,
      "ĠAustral": 2815,
      "phone": 2816,
      "view": 2817,
      "ĠWest": 2818,
      "Ġsick": 2819,
      "ops": 2820,
      "Ġfeeling": 2821,
      "Ġriver": 2822,
      "Ġtelevision": 2823,
      "Ġadm": 2824,
      "Ġbes": 2825,
      "Ġwaiting": 2826,
      "Ġtelling": 2827,
      "Ġgard": 2828,
      "Ġnoises": 2829,
      "iled": 2830,
      "Ġestab": 2831,
      "Ġdisapp": 2832,
      "ĠEdna": 2833,
      "Ġpat": 2834,
      "Ġrul": 2835,
      "ample": 2836,
      "Ġcry": 2837,
      "Ġquickly": 2838,
      "str": 2839,
      "Ġsecret": 2840,
      "Ġstraight": 2841,
      "Ġconsider": 2842,
      "Ġfit": 2843,
      "ĠEve": 2844,
      "Ġremain": 2845,
      "ĠAh": 2846,
      "Ġexperi": 2847,
      "por": 2848,
      "Ġworks": 2849,
      "Ġindivid": 2850,
      "Ġcertainly": 2851,
      "Ġclub": 2852,
      "ĠGeorge": 2853,
      "iers": 2854,
      "Ġlunch": 2855,
      "Ġsouth": 2856,
      "Ġmatch": 2857,
      "olution": 2858,
      "Ġbright": 2859,
      "Ġant": 2860,
      "ization": 2861,
      "lands": 2862,
      "ĠLord": 2863,
      "Ġfootball": 2864,
      "Ġapple": 2865,
      "Ġwhatever": 2866,
      "Ġspell": 2867,
      "ills": 2868,
      "ician": 2869,
      "Ġexactly": 2870,
      "iday": 2871,
      "Ġforward": 2872,
      "ives": 2873,
      "Ġplaces": 2874,
      "ĠUh": 2875,
      "icy": 2876,
      "Ġarmy": 2877,
      "Ġpolice": 2878,
      "Ġcouple": 2879,
      "val": 2880,
      "Ġenc": 2881,
      "sequ": 2882,
      "ĠGet": 2883,
      "Ġindeed": 2884,
      "unicip": 2885,
      "Ġce": 2886,
      "llustr": 2887,
      "Ġlad": 2888,
      "Ġanymore": 2889,
      "ploy": 2890,
      "oop": 2891,
      "cially": 2892,
      "terday": 2893,
      "ĠPol": 2894,
      "ply": 2895,
      "ressed": 2896,
      "Ġexpect": 2897,
      "thened": 2898,
      "-g": 2899,
      "stairs": 2900,
      "Ġbelong": 2901,
      "Ġcover": 2902,
      ".'": 2903,
      "ĠHum": 2904,
      "Ġobs": 2905,
      "Ġ!": 2906,
      "ĠLea": 2907,
      "Ġinvest": 2908,
      "Ġfavor": 2909,
      "Well": 2910,
      "uri": 2911,
      "Ġla": 2912,
      "Ġnorth": 2913,
      "ĠMa": 2914,
      "Ġopened": 2915,
      "Ġpieces": 2916,
      "Ġdiscuss": 2917,
      "Ġpuzz": 2918,
      "ww": 2919,
      "Ġearth": 2920,
      "medi": 2921,
      "Ġbur": 2922,
      "uture": 2923,
      "acy": 2924,
      "Ġbroke": 2925,
      "mo": 2926,
      "Ġdecided": 2927,
      "Ġpoints": 2928,
      "cent": 2929,
      "rug": 2930,
      "Ġtit": 2931,
      "ĠUrs": 2932,
      "ĠSince": 2933,
      "Ġprocess": 2934,
      "Ġvide": 2935,
      "Ġtired": 2936,
      "Ġfellow": 2937,
      "ĠHave": 2938,
      "ĠIndian": 2939,
      "Ġcreated": 2940,
      "IT": 2941,
      "hin": 2942,
      "Ġfinal": 2943,
      "Ġsell": 2944,
      "ires": 2945,
      "Ġfinish": 2946,
      "uses": 2947,
      "ĠSm": 2948,
      "ĠSy": 2949,
      "Ġkiss": 2950,
      "Ġban": 2951,
      "Ġleaving": 2952,
      "Ġang": 2953,
      "Ġcars": 2954,
      "Ġsitu": 2955,
      "cer": 2956,
      "noon": 2957,
      "Ġnearly": 2958,
      "hys": 2959,
      "Ġbene": 2960,
      "Ġhorses": 2961,
      "ĠSunday": 2962,
      "ination": 2963,
      "oul": 2964,
      "Ġdecl": 2965,
      "ighb": 2966,
      "Ġprin": 2967,
      "Ġhous": 2968,
      "Ġhospital": 2969,
      "Ġcream": 2970,
      "Ġcaught": 2971,
      "encil": 2972,
      "Ġsummer": 2973,
      "Ġfort": 2974,
      "Ġaccept": 2975,
      "ege": 2976,
      "oura": 2977,
      "ĠGl": 2978,
      "Ġju": 2979,
      "hire": 2980,
      "Ġdrive": 2981,
      "Ġelep": 2982,
      "Ġbroken": 2983,
      "Ġtot": 2984,
      "Ġtruth": 2985,
      "Ġfigure": 2986,
      "reen": 2987,
      "Ġafternoon": 2988,
      "soci": 2989,
      "Ġlocal": 2990,
      "ĠAld": 2991,
      "Ġperiod": 2992,
      "ĠWilliam": 2993,
      "Ġdifficult": 2994,
      "ĠAny": 2995,
      "Ġcareer": 2996,
      "Ġclothes": 2997,
      "king": 2998,
      "Ġimag": 2999,
      "Ġparents": 3000,
      "ĠCent": 3001,
      "ĠEle": 3002,
      "Ġpictures": 3003,
      "ĠParty": 3004,
      "TER": 3005,
      "Ġclaim": 3006,
      "Ġleaf": 3007,
      "Ġcharacter": 3008,
      "gest": 3009,
      "Ġcheese": 3010,
      "like": 3011,
      "ID": 3012,
      "ĠAlex": 3013,
      "Ġstat": 3014,
      "viously": 3015,
      "Ġtur": 3016,
      "Ġstation": 3017,
      "amer": 3018,
      "ĠWhile": 3019,
      "Ġheavy": 3020,
      "ĠSee": 3021,
      "ending": 3022,
      "Ġyesterday": 3023,
      "ences": 3024,
      "Ġvillage": 3025,
      "omb": 3026,
      "ission": 3027,
      "Ġfollowed": 3028,
      "iol": 3029,
      "Ġtechn": 3030,
      "ips": 3031,
      "aser": 3032,
      "ĠMer": 3033,
      "Ġlengthened": 3034,
      "Ġident": 3035,
      "Ġrepresent": 3036,
      "ĠNet": 3037,
      "Ġburn": 3038,
      "Ġris": 3039,
      "Ġinformation": 3040,
      "Ġpencil": 3041,
      "iced": 3042,
      "ilver": 3043,
      "ĠDuring": 3044,
      "Ġspir": 3045,
      "Ġlim": 3046,
      "Ġship": 3047,
      "Ġworth": 3048,
      "Ġagre": 3049,
      "ichard": 3050,
      "Ġsuppose": 3051,
      "Ġlikely": 3052,
      "Ġvol": 3053,
      "ĠBessie": 3054,
      "ĠEX": 3055,
      "Ġputting": 3056,
      "AY": 3057,
      "ray": 3058,
      "Ġseason": 3059,
      "cell": 3060,
      "ĠMaybe": 3061,
      "Ġfurther": 3062,
      "Ġcatch": 3063,
      "ift": 3064,
      "Ġcaused": 3065,
      "Ġgrew": 3066,
      "Ġuncle": 3067,
      "Ġchanged": 3068,
      "antly": 3069,
      "Ġreading": 3070,
      "Ġsoftly": 3071,
      "Ġut": 3072,
      "Ġdere": 3073,
      "bb": 3074,
      "Ġmunicip": 3075,
      "rible": 3076,
      "ĠHen": 3077,
      "Ġtiny": 3078,
      "Ġfuture": 3079,
      "Ġpack": 3080,
      "Ġdise": 3081,
      "Ġpossess": 3082,
      "ially": 3083,
      "ris": 3084,
      "Ġmaster": 3085,
      "LE": 3086,
      "Ġnor": 3087,
      "ĠEven": 3088,
      "OM": 3089,
      "kin": 3090,
      "work": 3091,
      "Ã¡": 3092,
      "Ġchick": 3093,
      "Ġluck": 3094,
      "ĠDes": 3095,
      "play": 3096,
      "lin": 3097,
      "Ġnatur": 3098,
      "ĠKe": 3099,
      "Ġkey": 3100,
      "nel": 3101,
      "Ġhast": 3102,
      "ument": 3103,
      "Ġcomb": 3104,
      "viron": 3105,
      "Ġhole": 3106,
      "iger": 3107,
      "Ġfeat": 3108,
      "Ġbread": 3109,
      "fast": 3110,
      "ĠRichard": 3111,
      "Ġgiving": 3112,
      "igg": 3113,
      "Ġcareful": 3114,
      "Ġdistrict": 3115,
      "Ġforest": 3116,
      "Ġpriv": 3117,
      "night": 3118,
      "Ġneighb": 3119,
      "apan": 3120,
      "Ġmeeting": 3121,
      "eder": 3122,
      "Ġgas": 3123,
      "ruction": 3124,
      "Ġsupposed": 3125,
      "uke": 3126,
      "zy": 3127,
      "Ġsugar": 3128,
      "Ġdoubt": 3129,
      "Ġrain": 3130,
      "llustration": 3131,
      "Ġpaint": 3132,
      "ĠLike": 3133,
      "Ġstopped": 3134,
      "Ġpati": 3135,
      "ĠBra": 3136,
      "Ġwat": 3137,
      "Ġshot": 3138,
      "yn": 3139,
      "Ġsense": 3140,
      "acing": 3141,
      "ĠPat": 3142,
      "now": 3143,
      "ades": 3144,
      "ĠWal": 3145,
      "Ġdepartment": 3146,
      "-h": 3147,
      "Illustration": 3148,
      "Ġimmedi": 3149,
      "Ġphot": 3150,
      "Ġcontrol": 3151,
      "Ġsight": 3152,
      "ests": 3153,
      "ĠAND": 3154,
      "Ġnose": 3155,
      "ocr": 3156,
      "har": 3157,
      "ergy": 3158,
      "Ġbas": 3159,
      "Ġlaughing": 3160,
      "II": 3161,
      "Ġdeter": 3162,
      "Ġcommand": 3163,
      "Ġstrange": 3164,
      "Ġforty": 3165,
      "Ġconn": 3166,
      "order": 3167,
      "ï¿½ï¿½ï¿½ï¿½": 3168,
      "resh": 3169,
      "ĠQue": 3170,
      "Ġmoving": 3171,
      "ption": 3172,
      "Ġcompan": 3173,
      "ĠThanks": 3174,
      "Ġteacher": 3175,
      "Ġremained": 3176,
      "Ġapart": 3177,
      "nce": 3178,
      "ĠCH": 3179,
      "Ġseat": 3180,
      "ĠGermany": 3181,
      "ites": 3182,
      "ĠAnge": 3183,
      "Ġregion": 3184,
      "imate": 3185,
      "ĠAmerica": 3186,
      "Ġsuddenly": 3187,
      "tered": 3188,
      "Ġletters": 3189,
      "sy": 3190,
      "Ġhy": 3191,
      "Ġliked": 3192,
      "Ġtrust": 3193,
      "Ġhappens": 3194,
      "Ġoffe": 3195,
      "Ġquar": 3196,
      "ĠSam": 3197,
      "itive": 3198,
      "Ġexist": 3199,
      "Ġservice": 3200,
      "olute": 3201,
      "aug": 3202,
      "Ġbrown": 3203,
      "Ġflowers": 3204,
      "Ġbeginning": 3205,
      "Ġvarious": 3206,
      "Ġport": 3207,
      "Ġbeat": 3208,
      "rill": 3209,
      "ĠPeter": 3210,
      "US": 3211,
      "pes": 3212,
      "Ġ]": 3213,
      "ĠNor": 3214,
      "ĠJapan": 3215,
      "Ġplaced": 3216,
      "Ġshar": 3217,
      "Ġeighty": 3218,
      ",'": 3219,
      "ids": 3220,
      "ural": 3221,
      "Ġexample": 3222,
      "epend": 3223,
      "LL": 3224,
      "ĠJane": 3225,
      "ĠTwo": 3226,
      "Ġ)": 3227,
      "Ġhol": 3228,
      "Ġanyway": 3229,
      "Ġcarried": 3230,
      "Ġproblems": 3231,
      "field": 3232,
      "board": 3233,
      "Ġtail": 3234,
      "acks": 3235,
      "cience": 3236,
      "Ġcentury": 3237,
      "Ġarrived": 3238,
      "ĠCaptain": 3239,
      "ped": 3240,
      "irm": 3241,
      "iff": 3242,
      "Ġcompl": 3243,
      "vironment": 3244,
      "ĠBo": 3245,
      "ĠGree": 3246,
      "Ġanimal": 3247,
      "ĠBaby": 3248,
      "ĠPark": 3249,
      "ĠOx": 3250,
      "ume": 3251,
      "Ġtast": 3252,
      "vin": 3253,
      "ĠTed": 3254,
      "ĠHa": 3255,
      "Ġwww": 3256,
      "Ġep": 3257,
      "ĠCo": 3258,
      "ocol": 3259,
      "Ġain": 3260,
      "Ġmix": 3261,
      "othy": 3262,
      "iment": 3263,
      "Ġjud": 3264,
      "omes": 3265,
      "ĠOK": 3266,
      "Ġchurch": 3267,
      "Ġgarden": 3268,
      "iling": 3269,
      "Ġcrit": 3270,
      "Ġpopulation": 3271,
      "He": 3272,
      "conom": 3273,
      "ĠJeff": 3274,
      "MA": 3275,
      "Ġdanc": 3276,
      "riage": 3277,
      "ĠSanta": 3278,
      "Ġcow": 3279,
      "lymp": 3280,
      "ĠHi": 3281,
      "Ġanybody": 3282,
      "Ġtravel": 3283,
      "uty": 3284,
      "Ġexcl": 3285,
      "Ġbased": 3286,
      "Ġbell": 3287,
      "Ġshoot": 3288,
      "Ġstudents": 3289,
      "Ġsubject": 3290,
      "aff": 3291,
      "uted": 3292,
      "ilar": 3293,
      "Ġstarts": 3294,
      "ino": 3295,
      "ĠChampions": 3296,
      "Ġdiscovered": 3297,
      "Ġlose": 3298,
      "ĠOlymp": 3299,
      "Ġsimply": 3300,
      "Ġoccur": 3301,
      "Ġdesc": 3302,
      "go": 3303,
      "Ġdie": 3304,
      "Ġtowards": 3305,
      "That": 3306,
      "Ġcop": 3307,
      "Ġdam": 3308,
      "Ġsevent": 3309,
      "ĠVis": 3310,
      "Ġremark": 3311,
      "Ġboard": 3312,
      "what": 3313,
      "well": 3314,
      "ĠCr": 3315,
      "Ġshare": 3316,
      "Ġdelight": 3317,
      "Ġfilm": 3318,
      "using": 3319,
      "Ġfinally": 3320,
      "Ġaccom": 3321,
      "rect": 3322,
      "Ġreach": 3323,
      "ille": 3324,
      "Ġcard": 3325,
      "Ġreplied": 3326,
      "Ġhello": 3327,
      "ĠIT": 3328,
      "hel": 3329,
      "Ġworry": 3330,
      "pecially": 3331,
      "Ġwonderful": 3332,
      "ĠSchool": 3333,
      "ĠFirst": 3334,
      "ĠHello": 3335,
      "AP": 3336,
      "Ġï¿½": 3337,
      "ĠNina": 3338,
      "Ġquestions": 3339,
      "uction": 3340,
      "iforn": 3341,
      "Ġneeded": 3342,
      "stit": 3343,
      "Ġmention": 3344,
      "Ġparts": 3345,
      "hood": 3346,
      "ĠOF": 3347,
      "that": 3348,
      "ĠTex": 3349,
      "ously": 3350,
      "Ġrelig": 3351,
      "ĠRed": 3352,
      "ĠUS": 3353,
      "Ġitself": 3354,
      "Ġaccount": 3355,
      "Ġbelieved": 3356,
      "Ġcapt": 3357,
      "itary": 3358,
      "ils": 3359,
      "ĠRoman": 3360,
      "Ġseeing": 3361,
      "Ġcircle": 3362,
      "Ġrole": 3363,
      "ĠQu": 3364,
      "bl": 3365,
      "rely": 3366,
      "Ġsignific": 3367,
      "Ġ$": 3368,
      "Ġmid": 3369,
      "Ġneck": 3370,
      "Ġshoes": 3371,
      "ifornia": 3372,
      "Ġengine": 3373,
      "ĠPeople": 3374,
      "ograp": 3375,
      "ius": 3376,
      "Ġgames": 3377,
      "Ġdogg": 3378,
      "ference": 3379,
      "Ġspot": 3380,
      "Ġproject": 3381,
      "Ġallowed": 3382,
      "Ġvideo": 3383,
      "Ġwide": 3384,
      "ĠTur": 3385,
      "ĠMc": 3386,
      "GRA": 3387,
      "Ġjuice": 3388,
      "-C": 3389,
      "ky": 3390,
      "Ġcorner": 3391,
      "Ġforgot": 3392,
      "Ġinit": 3393,
      "Ġplate": 3394,
      "wered": 3395,
      "ĠEn": 3396,
      "ĠBear": 3397,
      "Ġnobody": 3398,
      "ĠFin": 3399,
      "ĠState": 3400,
      "OW": 3401,
      "Ġvers": 3402,
      "ROG": 3403,
      ".S": 3404,
      "Ġnecess": 3405,
      "Ġmus": 3406,
      "Ġcourt": 3407,
      "aturday": 3408,
      "ums": 3409,
      "Ġsupper": 3410,
      "Ġassist": 3411,
      "ĠCalifornia": 3412,
      "CH": 3413,
      "Ġshowed": 3414,
      "Ġcountries": 3415,
      "GH": 3416,
      "worth": 3417,
      "lect": 3418,
      "Ġimm": 3419,
      "Ġprotect": 3420,
      "Ġbottle": 3421,
      "Ġphys": 3422,
      "Ġforce": 3423,
      "Ġgar": 3424,
      "Ġshows": 3425,
      "ĠDorothy": 3426,
      "Ġobjects": 3427,
      "pers": 3428,
      "Ġonto": 3429,
      "liament": 3430,
      "ichael": 3431,
      "Ġmiles": 3432,
      "Ġtap": 3433,
      "omen": 3434,
      "Ġorange": 3435,
      "Ġcomfort": 3436,
      "silver": 3437,
      "Ġbreakfast": 3438,
      "Ġinfl": 3439,
      "ĠAunt": 3440,
      "ĠMed": 3441,
      "round": 3442,
      "Ġdance": 3443,
      "Ġrace": 3444,
      "Ġloved": 3445,
      "Ġbottom": 3446,
      "ĠÃ": 3447,
      "Ġmem": 3448,
      "Ġindust": 3449,
      "Ġeff": 3450,
      "ĠCor": 3451,
      "Ġemploy": 3452,
      "zer": 3453,
      "ĠLou": 3454,
      "ourt": 3455,
      "ancy": 3456,
      "Ġanswered": 3457,
      "EX": 3458,
      "Ġmass": 3459,
      "raph": 3460,
      "Ġattention": 3461,
      "Ġhall": 3462,
      "ression": 3463,
      "Ġpolitical": 3464,
      "Ġtype": 3465,
      "urity": 3466,
      "chie": 3467,
      "Ġlovely": 3468,
      "Ġblocks": 3469,
      "Ġnames": 3470,
      "Ġfeed": 3471,
      "ĠKingdom": 3472,
      "rel": 3473,
      "Ġfat": 3474,
      "Ġlock": 3475,
      "ublic": 3476,
      "Ġcapital": 3477,
      "erve": 3478,
      "Ġrespect": 3479,
      "Ġbelow": 3480,
      "ĠOxford": 3481,
      "erved": 3482,
      "Ġhost": 3483,
      "Ġprep": 3484,
      "Ġscared": 3485,
      "yer": 3486,
      "Ġ&": 3487,
      "Ġought": 3488,
      "Ġtour": 3489,
      "Ġdisease": 3490,
      "ĠAct": 3491,
      "ivil": 3492,
      "oring": 3493,
      "orts": 3494,
      "Ġchocol": 3495,
      "ĠIndia": 3496,
      "het": 3497,
      "Ġinf": 3498,
      "Ġclosed": 3499,
      "ples": 3500,
      "Ġbusy": 3501,
      "AM": 3502,
      "Ġmater": 3503,
      "ĠSorry": 3504,
      "ĠMon": 3505,
      "Ġcloud": 3506,
      "bers": 3507,
      "asion": 3508,
      "ĠSan": 3509,
      "Ġlift": 3510,
      "Ġlocated": 3511,
      "ĠSaturday": 3512,
      "ĠAust": 3513,
      "Ġsocial": 3514,
      "Ġaddition": 3515,
      "ration": 3516,
      "Ġcomput": 3517,
      "Ġcarry": 3518,
      "Ġwel": 3519,
      "oops": 3520,
      "Ġanx": 3521,
      "ĠRes": 3522,
      "Ġviol": 3523,
      "RIC": 3524,
      "eg": 3525,
      "puts": 3526,
      "Ġtall": 3527,
      "Ġscient": 3528,
      "Ġsixty": 3529,
      "Ġimpro": 3530,
      "Ġmarket": 3531,
      "asket": 3532,
      "Ġbank": 3533,
      "Ġshout": 3534,
      "Ġexam": 3535,
      "ico": 3536,
      "Ġcalling": 3537,
      "reme": 3538,
      "Ġmad": 3539,
      "ĠMichael": 3540,
      "Ġarr": 3541,
      "ĠTexas": 3542,
      "Ġtor": 3543,
      "Ġur": 3544,
      "urse": 3545,
      "gged": 3546,
      "Ġlegs": 3547,
      "Ġrespons": 3548,
      "af": 3549,
      "Ġtrad": 3550,
      "Ġgrass": 3551,
      "ĠReg": 3552,
      "ĠAcc": 3553,
      "ables": 3554,
      "AD": 3555,
      "omin": 3556,
      "ĠWH": 3557,
      "mond": 3558,
      "ĠMany": 3559,
      "ira": 3560,
      "ĠEuropean": 3561,
      "Ġfinger": 3562,
      "Ġspoke": 3563,
      "ĠFraser": 3564,
      "Ġnon": 3565,
      "ĠJer": 3566,
      "Ġplastic": 3567,
      "agn": 3568,
      "Ġlie": 3569,
      "Ġpopular": 3570,
      "Ġfresh": 3571,
      "Ġbackground": 3572,
      "Ġsinging": 3573,
      "Ġdinos": 3574,
      "ĠItaly": 3575,
      "Ġstage": 3576,
      "Ġwatching": 3577,
      "Ġaccident": 3578,
      "Ġbattle": 3579,
      "imin": 3580,
      "ĠCouncil": 3581,
      "Ġfarm": 3582,
      "Ġbirds": 3583,
      "Ġflat": 3584,
      "Ġimmediately": 3585,
      "Ġnorm": 3586,
      "utch": 3587,
      "Ġgrad": 3588,
      "Ġcrying": 3589,
      "Ġpath": 3590,
      "ĠColl": 3591,
      "Ġwalked": 3592,
      "Ġestabl": 3593,
      "look": 3594,
      "Ġnina": 3595,
      "ĠQueen": 3596,
      "VE": 3597,
      "Ġsad": 3598,
      "ili": 3599,
      "Ġspoon": 3600,
      "Ġproduct": 3601,
      "Ġpolitician": 3602,
      "ĠMinister": 3603,
      "-y": 3604,
      "bles": 3605,
      "Ġaut": 3606,
      "Ġstars": 3607,
      "Ġclimb": 3608,
      "makes": 3609,
      "ĠMart": 3610,
      "cture": 3611,
      "Ġbye": 3612,
      "udd": 3613,
      "Ġearli": 3614,
      "Ġresearch": 3615,
      "oved": 3616,
      "Ġcoc": 3617,
      "ummy": 3618,
      "Ġextra": 3619,
      "Ġchocolate": 3620,
      "itched": 3621,
      "Ġdrop": 3622,
      "ĠRob": 3623,
      "ĠEast": 3624,
      "Ġhelped": 3625,
      "how": 3626,
      "uel": 3627,
      "Ġshut": 3628,
      "ĠBlack": 3629,
      "pite": 3630,
      "Ġfem": 3631,
      "Ġclock": 3632,
      "ĠWhite": 3633,
      "ĠSomet": 3634,
      "Ġpeace": 3635,
      "Ġleaves": 3636,
      "ĠMost": 3637,
      "Ġsepar": 3638,
      "Ġcult": 3639,
      "Ġpuzzle": 3640,
      "Ġmach": 3641,
      "oms": 3642,
      "Ġbeha": 3643,
      "Ġalive": 3644,
      "pered": 3645,
      "Ġbigger": 3646,
      "Ġcommune": 3647,
      "line": 3648,
      "Ġsour": 3649,
      "Ġcontinued": 3650,
      "Ġespecially": 3651,
      "ida": 3652,
      "Ġthanks": 3653,
      "ek": 3654,
      "sey": 3655,
      "Ġasking": 3656,
      "ĠRussian": 3657,
      "ners": 3658,
      "ĠTake": 3659,
      "wood": 3660,
      "Ġlearned": 3661,
      "Ġrose": 3662,
      "Ġevidence": 3663,
      "ĠGovern": 3664,
      "ĠErm": 3665,
      "chan": 3666,
      "owd": 3667,
      "ĠMad": 3668,
      "Ġconvers": 3669,
      "Ġspent": 3670,
      "icle": 3671,
      "Ġrefer": 3672,
      "Ġsimilar": 3673,
      "roy": 3674,
      "Ġdisp": 3675,
      "Ġeggs": 3676,
      "Ġjourney": 3677,
      "ĠCanada": 3678,
      "yle": 3679,
      "Ġelection": 3680,
      "ĠSpan": 3681,
      "hod": 3682,
      "oid": 3683,
      "yy": 3684,
      "Ġinj": 3685,
      "Ġareas": 3686,
      "ends": 3687,
      "ĠAnn": 3688,
      "ĠFlore": 3689,
      "Ġaff": 3690,
      "Ġproud": 3691,
      "ĠAustralia": 3692,
      "Ġspecies": 3693,
      "Ġbutterfly": 3694,
      "Ġpush": 3695,
      "Ġspread": 3696,
      "Ġamount": 3697,
      "light": 3698,
      "ĠJoe": 3699,
      "Ġchicken": 3700,
      "Ġdeterm": 3701,
      "asant": 3702,
      "Ġrepe": 3703,
      "Ġcompletely": 3704,
      "Th": 3705,
      "Ġver": 3706,
      "Ġrelations": 3707,
      "Ġwalking": 3708,
      "Ġjoined": 3709,
      "yond": 3710,
      "âĢĺ": 3711,
      "Ġskin": 3712,
      "Ġnatural": 3713,
      "Ġcher": 3714,
      "Ġbeach": 3715,
      "ĠRiver": 3716,
      "Ġconside": 3717,
      "Ġconsidered": 3718,
      "cher": 3719,
      "picks": 3720,
      "Ġsens": 3721,
      "ria": 3722,
      "Ġsuff": 3723,
      "Ġslowly": 3724,
      "ĠVisit": 3725,
      "Ġdrug": 3726,
      "ĠTony": 3727,
      "Ġentered": 3728,
      "iving": 3729,
      "ses": 3730,
      "Ġbab": 3731,
      "Ġputs": 3732,
      "Ġstuck": 3733,
      "ĠList": 3734,
      "Ġvan": 3735,
      "apa": 3736,
      "Ġenvironment": 3737,
      "Ġteeth": 3738,
      "Ġpal": 3739,
      "Ġcharge": 3740,
      "Home": 3741,
      "ĠBet": 3742,
      "ival": 3743,
      "Ġfoc": 3744,
      "Ġsomewhere": 3745,
      "Ġprevent": 3746,
      "ĠUrsula": 3747,
      "FA": 3748,
      "ĠFather": 3749,
      "CK": 3750,
      "]!": 3751,
      "ĠGrand": 3752,
      "Ġcancer": 3753,
      "Ġsticks": 3754,
      "Ġrich": 3755,
      "Ġspecific": 3756,
      "ĠMic": 3757,
      "Ġjoy": 3758,
      "ĠUncle": 3759,
      "Ġended": 3760,
      "Ġsoldiers": 3761,
      "Ġbought": 3762,
      "Ġdry": 3763,
      "ĠLittle": 3764,
      "Ġslice": 3765,
      "Ġthreat": 3766,
      "Ġrub": 3767,
      "ĠJim": 3768,
      "Ġsna": 3769,
      "Ġnone": 3770,
      "oming": 3771,
      "Ġkitty": 3772,
      "aud": 3773,
      "Ġenergy": 3774,
      "Ġpromise": 3775,
      "Ġbrain": 3776,
      "Ġsituation": 3777,
      "Ġbrie": 3778,
      "Ġslight": 3779,
      "Ġinclude": 3780,
      "Ġleader": 3781,
      "Why": 3782,
      "Ġeconom": 3783,
      "ĠBel": 3784,
      "ĠPort": 3785,
      "ĠLady": 3786,
      "Ġoffered": 3787,
      "Ġthou": 3788,
      "ĠSum": 3789,
      "ppy": 3790,
      "Ġchief": 3791,
      "Ġyyy": 3792,
      "ential": 3793,
      "Ġsex": 3794,
      "ords": 3795,
      "Ġeducation": 3796,
      "off": 3797,
      "Ġwow": 3798,
      "ify": 3799,
      "Ġenemy": 3800,
      "Ġterm": 3801,
      "ĠHenry": 3802,
      "?âĢĿ": 3803,
      "ators": 3804,
      "ĠâĢľâĢĺ": 3805,
      "Ġsky": 3806,
      "gon": 3807,
      "ĠHung": 3808,
      "unny": 3809,
      "Ġturning": 3810,
      "nal": 3811,
      "ĠCrom": 3812,
      "ston": 3813,
      "Ġprim": 3814,
      "Ġdogs": 3815,
      "asing": 3816,
      "ĠTell": 3817,
      "Ġemb": 3818,
      "ĠMond": 3819,
      "ĠWould": 3820,
      "ause": 3821,
      "bon": 3822,
      "ĠCourt": 3823,
      "ĠPal": 3824,
      "Ġplant": 3825,
      "ĠFrank": 3826,
      "set": 3827,
      "Ġsearch": 3828,
      "Ġtrack": 3829,
      "Ġhate": 3830,
      "Ġpossib": 3831,
      "Ġcru": 3832,
      "Ġmult": 3833,
      "ĠAnt": 3834,
      "cious": 3835,
      "ya": 3836,
      "Ġmeat": 3837,
      "raft": 3838,
      "ĠMarc": 3839,
      "Ġwit": 3840,
      "ĠRober": 3841,
      "ĠJames": 3842,
      "ĠSte": 3843,
      "Ġweap": 3844,
      "ledge": 3845,
      "oken": 3846,
      "-A": 3847,
      "Ġho": 3848,
      "ensive": 3849,
      "COU": 3850,
      "Ġbroad": 3851,
      "Ġdevelopment": 3852,
      "Ġund": 3853,
      "Ġplayer": 3854,
      "Ġide": 3855,
      "Ġdeg": 3856,
      "Ġrights": 3857,
      "Ġcommunity": 3858,
      "RI": 3859,
      "pha": 3860,
      "ĠCup": 3861,
      "iance": 3862,
      "Ġavail": 3863,
      "Ġduck": 3864,
      "Ġpock": 3865,
      "Ġisland": 3866,
      "ĠHist": 3867,
      "Ġstraw": 3868,
      "Ġdropped": 3869,
      "Ġhun": 3870,
      "ander": 3871,
      "ĠJew": 3872,
      "Ġsleeping": 3873,
      "ĠFlorence": 3874,
      "Ġforth": 3875,
      "ĠHigh": 3876,
      "Ġblank": 3877,
      "Ġears": 3878,
      "Ġcous": 3879,
      "Ġflew": 3880,
      "isf": 3881,
      "ĠWait": 3882,
      "ĠUp": 3883,
      "reng": 3884,
      "atives": 3885,
      "Ġstone": 3886,
      "Ġoffer": 3887,
      "ĠEXP": 3888,
      "eds": 3889,
      "Ġexec": 3890,
      "Ġfund": 3891,
      "vey": 3892,
      "Ġmanage": 3893,
      "Ġadded": 3894,
      "Ġpurp": 3895,
      "Ġhouses": 3896,
      "ashed": 3897,
      "oyal": 3898,
      "Ġens": 3899,
      "ĠVery": 3900,
      "Ġmunicipality": 3901,
      "AK": 3902,
      "nic": 3903,
      "Ġiron": 3904,
      "Ġrev": 3905,
      "Ġstories": 3906,
      "roat": 3907,
      "ĠFranc": 3908,
      "Ġstayed": 3909,
      "Ġtitle": 3910,
      "oups": 3911,
      "ials": 3912,
      "inct": 3913,
      "Ġdate": 3914,
      "Ġblow": 3915,
      "Ġways": 3916,
      "Ġaction": 3917,
      "ĠBefore": 3918,
      "of": 3919,
      "Ġlots": 3920,
      "Ġdistance": 3921,
      "arr": 3922,
      "ulf": 3923,
      "Ġserious": 3924,
      "Ġairpl": 3925,
      "Ġaddress": 3926,
      "Ġestablished": 3927,
      "Ġspend": 3928,
      "ĠFriday": 3929,
      "ique": 3930,
      "ato": 3931,
      "cend": 3932,
      "va": 3933,
      "Ġachie": 3934,
      "Ġneg": 3935,
      "Ġinteresting": 3936,
      "Ġfilled": 3937,
      "cast": 3938,
      "Ġweren": 3939,
      "Ġsurprise": 3940,
      "Ġhero": 3941,
      "Ġbeyond": 3942,
      "ĠMil": 3943,
      "ĠDem": 3944,
      "Ġalthough": 3945,
      "Ġspring": 3946,
      "Ġstudio": 3947,
      "hem": 3948,
      "Ġfru": 3949,
      "Ġshouldn": 3950,
      "Ġfighting": 3951,
      "ĠCla": 3952,
      "Ġitem": 3953,
      "ĠRam": 3954,
      "uals": 3955,
      "Ġvo": 3956,
      "eneral": 3957,
      "Ġnut": 3958,
      "esta": 3959,
      "osta": 3960,
      "ĠThom": 3961,
      "ails": 3962,
      "Ġrisk": 3963,
      "rican": 3964,
      "ĠHel": 3965,
      "ĠJo": 3966,
      "Ġrap": 3967,
      "Ġempt": 3968,
      "olutely": 3969,
      "Ġlines": 3970,
      "action": 3971,
      "izing": 3972,
      "Ġappl": 3973,
      "EW": 3974,
      "ĠSer": 3975,
      "aining": 3976,
      "ĠStop": 3977,
      "ĠLeague": 3978,
      "ki": 3979,
      "Ġcab": 3980,
      "ales": 3981,
      "ims": 3982,
      "Ġworse": 3983,
      "Ġopport": 3984,
      "anor": 3985,
      "usion": 3986,
      "olf": 3987,
      "Ġsurv": 3988,
      "Ġpaid": 3989,
      "ĠOur": 3990,
      "erson": 3991,
      "enced": 3992,
      "Ġwinter": 3993,
      "aimed": 3994,
      "ĠAccording": 3995,
      "Ġemer": 3996,
      "ĠChan": 3997,
      "icked": 3998,
      "ĠStreet": 3999,
      "Ġofficer": 4000,
      "Ġspirit": 4001,
      "Ġcust": 4002,
      "Ġtemper": 4003,
      "ĠPri": 4004,
      "ĠLaw": 4005,
      "ANN": 4006,
      "Ġmagnets": 4007,
      "Ġjoin": 4008,
      "ĠHall": 4009,
      "lend": 4010,
      "clock": 4011,
      "Ġangry": 4012,
      "-in": 4013,
      "GMA": 4014,
      "cul": 4015,
      "mm": 4016,
      "Ã¼": 4017,
      "Ġbasket": 4018,
      "Ġpun": 4019,
      "ĠBob": 4020,
      "bre": 4021,
      "pan": 4022,
      "Ġtiger": 4023,
      "Ġtower": 4024,
      "ĠON": 4025,
      "Ġpray": 4026,
      "Ġsle": 4027,
      "oted": 4028,
      "Ġterrible": 4029,
      "Ġpublished": 4030,
      "Ġsimple": 4031,
      "Ġnature": 4032,
      "ĠMor": 4033,
      "elve": 4034,
      "Ġcrowd": 4035,
      "sequently": 4036,
      "HIS": 4037,
      "osing": 4038,
      "aker": 4039,
      "Ġintrod": 4040,
      "Ġmovement": 4041,
      "Ġlength": 4042,
      "lam": 4043,
      "Ġfavorite": 4044,
      "isc": 4045,
      "Ġfright": 4046,
      "aching": 4047,
      "Ġindic": 4048,
      "Ġwash": 4049,
      "ĠMex": 4050,
      "Ġgroups": 4051,
      "NG": 4052,
      "Ross": 4053,
      "She": 4054,
      "ups": 4055,
      "ĠDolly": 4056,
      "ively": 4057,
      "ffie": 4058,
      "Ġscar": 4059,
      "Ġraised": 4060,
      "itude": 4061,
      "amps": 4062,
      "Ġpercent": 4063,
      "--------": 4064,
      "UT": 4065,
      "Ġbite": 4066,
      "arm": 4067,
      "ĠSch": 4068,
      "Ġstreng": 4069,
      "ĠBrian": 4070,
      "Ġindepend": 4071,
      "Ġdollars": 4072,
      "Ġninety": 4073,
      "aughed": 4074,
      "inary": 4075,
      "Ġbill": 4076,
      "rael": 4077,
      "Ġaffect": 4078,
      "Ġexcuse": 4079,
      "Ġexperience": 4080,
      "ĠRobert": 4081,
      "ĠII": 4082,
      "Ġsett": 4083,
      "Ġdressed": 4084,
      "Ġprivate": 4085,
      "nie": 4086,
      "nown": 4087,
      "Ġlower": 4088,
      "Ġlaughed": 4089,
      "ciety": 4090,
      "Ġgall": 4091,
      "Ġbreath": 4092,
      "Ġwelcome": 4093,
      "ĠAra": 4094,
      "Ġstom": 4095,
      "Ġspeed": 4096,
      "anced": 4097,
      "Ġparticularly": 4098,
      "Ġcos": 4099,
      "Ġmeaning": 4100,
      "Ġfalls": 4101,
      "Ġmountain": 4102,
      "Ġepis": 4103,
      "ĠLot": 4104,
      "singing": 4105,
      "sp": 4106,
      "Ġdar": 4107,
      "Ġlying": 4108,
      "Ġguard": 4109,
      "Ġdifference": 4110,
      "Ġmedic": 4111,
      "ipped": 4112,
      "Ġbound": 4113,
      "Ġpet": 4114,
      "vere": 4115,
      "Ġrid": 4116,
      "Ġfamous": 4117,
      "van": 4118,
      "ĠSal": 4119,
      "ĠEffie": 4120,
      "ruct": 4121,
      "ĠVer": 4122,
      "Ġcorrect": 4123,
      "Ġloss": 4124,
      "ĠAc": 4125,
      "Ġdeli": 4126,
      "hips": 4127,
      "Ġscr": 4128,
      "Ġelephant": 4129,
      "ban": 4130,
      "Ġsize": 4131,
      "Ġyell": 4132,
      "Ġdirected": 4133,
      "ĠScot": 4134,
      "Ġinvestig": 4135,
      "ĠCromer": 4136,
      "ĠMonday": 4137,
      "ĠBer": 4138,
      "Ġnope": 4139,
      "Ġflower": 4140,
      "Ġtotal": 4141,
      "-day": 4142,
      "Ġmaint": 4143,
      "Ġhide": 4144,
      "Ġeast": 4145,
      "Ġupstairs": 4146,
      "Ġtraining": 4147,
      "Ġmetal": 4148,
      "Ġtelephone": 4149,
      "Ġmir": 4150,
      "ĠMama": 4151,
      "Ġuses": 4152,
      "Ġpleasure": 4153,
      "ĠReally": 4154,
      "Ġleading": 4155,
      "Ġearlier": 4156,
      "ĠRec": 4157,
      "Ġsole": 4158,
      "Ġballs": 4159,
      "ois": 4160,
      "Ġden": 4161,
      "ĠMal": 4162,
      "Ġtalked": 4163,
      "Ġolder": 4164,
      "Ġstarting": 4165,
      "'?": 4166,
      "OO": 4167,
      "iles": 4168,
      "ours": 4169,
      "azing": 4170,
      "Ġairplane": 4171,
      "Ġ[?": 4172,
      "vious": 4173,
      "Ġoil": 4174,
      "Ġinn": 4175,
      "Ġowl": 4176,
      "ĠBeck": 4177,
      "Ġexpected": 4178,
      "Ġavailable": 4179,
      "anch": 4180,
      "ooper": 4181,
      "ĠDep": 4182,
      "Ġinvolved": 4183,
      "Ġmilitary": 4184,
      "Ġmessage": 4185,
      "ss": 4186,
      "hered": 4187,
      "aded": 4188,
      "ĠNesta": 4189,
      "rupt": 4190,
      "Ġchem": 4191,
      "ville": 4192,
      "Ġess": 4193,
      "Ġtick": 4194,
      "itor": 4195,
      "lebr": 4196,
      "ĠHan": 4197,
      "ĠJes": 4198,
      "aps": 4199,
      "Ġhuge": 4200,
      "ĠParis": 4201,
      "za": 4202,
      "asc": 4203,
      "ĠMel": 4204,
      "aft": 4205,
      "cuse": 4206,
      "she": 4207,
      "hest": 4208,
      "Ġdig": 4209,
      "Ġeager": 4210,
      "ĠRod": 4211,
      "Ġmanner": 4212,
      "hington": 4213,
      "Ġspeaking": 4214,
      "'T": 4215,
      "outhern": 4216,
      "Ġsharp": 4217,
      "ĠMass": 4218,
      "Ġfalling": 4219,
      "'clock": 4220,
      "apers": 4221,
      "ĠOnce": 4222,
      "ĠCharles": 4223,
      "ĠEarth": 4224,
      "Ġprofessional": 4225,
      "St": 4226,
      "Ġcivil": 4227,
      "aled": 4228,
      "ĠParliament": 4229,
      "Ġinflu": 4230,
      "father": 4231,
      "onse": 4232,
      "ushing": 4233,
      "ĠMore": 4234,
      "ĠDutch": 4235,
      "met": 4236,
      "ĠCong": 4237,
      "ĠDar": 4238,
      "Ġaged": 4239,
      "Ġlargest": 4240,
      "Ġlaughs": 4241,
      "Ġinternational": 4242,
      "ĠOnly": 4243,
      "ointed": 4244,
      "Ġstrugg": 4245,
      "Ġfingers": 4246,
      "SS": 4247,
      "asons": 4248,
      "Ġweight": 4249,
      "BR": 4250,
      "ĠMac": 4251,
      "ĠLat": 4252,
      "Ġ(\"": 4253,
      "Ġplays": 4254,
      "Ġbrave": 4255,
      "Ġwet": 4256,
      "ĠLab": 4257,
      "ashion": 4258,
      "ĠWashington": 4259,
      "Ġdestroy": 4260,
      "Ġconversation": 4261,
      "hand": 4262,
      "ami": 4263,
      "ĠBat": 4264,
      "ĠChristian": 4265,
      "Ġnecessary": 4266,
      "Don": 4267,
      "oons": 4268,
      "Ġbal": 4269,
      "isters": 4270,
      "Ġnet": 4271,
      "ĠRo": 4272,
      "ĠGold": 4273,
      "Ġsmile": 4274,
      "Ġnumbers": 4275,
      "ĠMarg": 4276,
      "Ġmurder": 4277,
      "ipe": 4278,
      "Ġplants": 4279,
      "bed": 4280,
      "imately": 4281,
      "vert": 4282,
      "ĠHE": 4283,
      "Ġshowing": 4284,
      "Ġhurry": 4285,
      "Ġtears": 4286,
      "Ġaward": 4287,
      "arc": 4288,
      "Ġdata": 4289,
      "Ġhistor": 4290,
      "Ġswimming": 4291,
      "\")": 4292,
      "burg": 4293,
      "Ġtaught": 4294,
      "has": 4295,
      "Ġspoken": 4296,
      "Ġchim": 4297,
      "Ġscream": 4298,
      "Ġdriving": 4299,
      "ourage": 4300,
      "ĠSen": 4301,
      "ĠMike": 4302,
      "tering": 4303,
      "ĠGeneral": 4304,
      "Ġchoice": 4305,
      "Ġshad": 4306,
      "Ġuhuh": 4307,
      "Ġsatisf": 4308,
      "Ġfrequ": 4309,
      "Ġbeside": 4310,
      "ĠRos": 4311,
      "Ġadult": 4312,
      "Ġoriginal": 4313,
      "wise": 4314,
      "arrow": 4315,
      "ĠWomen": 4316,
      "Ġthinks": 4317,
      "Ġprovide": 4318,
      "Ġreve": 4319,
      "Ġvir": 4320,
      "Ġtwelve": 4321,
      "ĠIsrael": 4322,
      "ography": 4323,
      "Ġcomputer": 4324,
      "aches": 4325,
      "ĠMax": 4326,
      "Ġarrest": 4327,
      "Ġmagic": 4328,
      "Ġdinosaur": 4329,
      "Ã¶": 4330,
      "Ġstro": 4331,
      "cean": 4332,
      "orthern": 4333,
      "Ġfaith": 4334,
      "Ġlack": 4335,
      "Ġsettle": 4336,
      "Ġproduced": 4337,
      "Ġquietly": 4338,
      "Ġrule": 4339,
      "ĠSmith": 4340,
      "ĠLouis": 4341,
      "Ġtar": 4342,
      "Ġchanges": 4343,
      "Ġterms": 4344,
      ",âĢĻ": 4345,
      "vi": 4346,
      "Ġlikes": 4347,
      "bert": 4348,
      "Ġrab": 4349,
      "Ġoccup": 4350,
      "host": 4351,
      "lected": 4352,
      "ĠMag": 4353,
      "ĠBE": 4354,
      "antic": 4355,
      "Ġunc": 4356,
      "Ġpicked": 4357,
      "Ġconcer": 4358,
      "inc": 4359,
      "ĠNothing": 4360,
      "rica": 4361,
      "whis": 4362,
      "HE": 4363,
      "mit": 4364,
      "Ġbud": 4365,
      "llen": 4366,
      "ĠST": 4367,
      "ĠBill": 4368,
      "Ġvote": 4369,
      "ĠChurch": 4370,
      "Ġregular": 4371,
      "There": 4372,
      "Ġformed": 4373,
      "Ġtherefore": 4374,
      "-M": 4375,
      "ns": 4376,
      "ĠPet": 4377,
      "isted": 4378,
      "Ġgives": 4379,
      "Ġparticip": 4380,
      "Ġcelebr": 4381,
      "Ġpocket": 4382,
      "Ġpair": 4383,
      "Ġneither": 4384,
      "Ġvac": 4385,
      "oughs": 4386,
      "Ġproceed": 4387,
      "Ġturns": 4388,
      "Ġtend": 4389,
      "Ġfool": 4390,
      "Ġcolors": 4391,
      "Ġmotor": 4392,
      "Ġcastle": 4393,
      "ien": 4394,
      "ĠBert": 4395,
      "Ġsuit": 4396,
      "eech": 4397,
      "Ġlarger": 4398,
      "Ġmissing": 4399,
      "minist": 4400,
      "omm": 4401,
      "Ġpersonal": 4402,
      "ĠMOT": 4403,
      "Ġwest": 4404,
      "icious": 4405,
      "Ġaccording": 4406,
      "mpire": 4407,
      "Ġlocation": 4408,
      "lor": 4409,
      "zen": 4410,
      "Ġcovered": 4411,
      "Ġpink": 4412,
      "Ġstock": 4413,
      "ilities": 4414,
      "ograph": 4415,
      "Ġacqu": 4416,
      "arian": 4417,
      "ads": 4418,
      "ĠFred": 4419,
      "Ġpretend": 4420,
      "Ġcollege": 4421,
      "Ġannounced": 4422,
      "cise": 4423,
      "pir": 4424,
      "Ġweather": 4425,
      "Ġdoc": 4426,
      "ila": 4427,
      "ability": 4428,
      "ĠUnion": 4429,
      "Ġcrack": 4430,
      "Ġdeveloped": 4431,
      ".âĢĻ": 4432,
      "wich": 4433,
      "ĠThomas": 4434,
      "aret": 4435,
      "Ġwoods": 4436,
      "Ġsquare": 4437,
      "Ġoppos": 4438,
      "ka": 4439,
      "rem": 4440,
      "Ġcamer": 4441,
      "Ġinqu": 4442,
      "ĠKim": 4443,
      "otten": 4444,
      "rer": 4445,
      "ĠCons": 4446,
      "ĠBoy": 4447,
      "Ġfac": 4448,
      "ari": 4449,
      "Ġstates": 4450,
      "ĠCould": 4451,
      "Ġwheel": 4452,
      "Ġdecision": 4453,
      "Ġdrew": 4454,
      "Ġremains": 4455,
      "ERE": 4456,
      "Ġwag": 4457,
      "Ġthroat": 4458,
      "ĠAir": 4459,
      "Ġeasily": 4460,
      "Ġexcited": 4461,
      "ĠEleanor": 4462,
      "Ġir": 4463,
      "Ġmethod": 4464,
      "Ġevents": 4465,
      "Ġoccasion": 4466,
      "Ġstrawber": 4467,
      "Ġcere": 4468,
      "ĠTHAT": 4469,
      "Ġcenter": 4470,
      "Ġindividuals": 4471,
      "How": 4472,
      "ĠPen": 4473,
      "idden": 4474,
      "Ġpurpose": 4475,
      "Ġbull": 4476,
      "ĠMo": 4477,
      "Ġwise": 4478,
      "Ġbi": 4479,
      "Ġcoun": 4480,
      "rif": 4481,
      "Ġnotice": 4482,
      "aine": 4483,
      "ĠJose": 4484,
      "ĠEliz": 4485,
      "Ġaud": 4486,
      "ĠTra": 4487,
      "Ġinterested": 4488,
      "Ġsusp": 4489,
      "gu": 4490,
      "erous": 4491,
      "Ġsail": 4492,
      "Ġholds": 4493,
      "ological": 4494,
      "Ġhonor": 4495,
      "Ġwearing": 4496,
      "ĠAbout": 4497,
      "Ġtaste": 4498,
      "Ġasleep": 4499,
      "istic": 4500,
      "Ġmonkey": 4501,
      "Ġincluded": 4502,
      "holds": 4503,
      "Ġrabbit": 4504,
      "Ġmic": 4505,
      "ĠOver": 4506,
      "Ġdemon": 4507,
      "ighs": 4508,
      "ĠRepublic": 4509,
      "Ġdemand": 4510,
      "-st": 4511,
      "Ġtax": 4512,
      "Ġsoul": 4513,
      "ellig": 4514,
      "olic": 4515,
      "ĠIts": 4516,
      "Ġmouse": 4517,
      "Ġthrew": 4518,
      "Ġsaf": 4519,
      "Ġplain": 4520,
      "Ġcontinue": 4521,
      "Ġclearly": 4522,
      "Ġhonest": 4523,
      "Ġsignificant": 4524,
      "Ġrapid": 4525,
      "Ġempty": 4526,
      "ux": 4527,
      "Ġstairs": 4528,
      "Ġcontact": 4529,
      "Ġlearning": 4530,
      "Ġagreed": 4531,
      "Ġpin": 4532,
      "Ġlat": 4533,
      "atory": 4534,
      "Ġheat": 4535,
      "Ġdeb": 4536,
      "Ġunless": 4537,
      "ossible": 4538,
      "Ġcounty": 4539,
      "Ġsinger": 4540,
      "Ġlawyer": 4541,
      "mel": 4542,
      "ram": 4543,
      "inite": 4544,
      "onounced": 4545,
      "Ġpill": 4546,
      "Ġpushed": 4547,
      "ĠOld": 4548,
      "cks": 4549,
      "ĠChina": 4550,
      "Ġcocoon": 4551,
      "aign": 4552,
      "Ġthick": 4553,
      "ache": 4554,
      "Ġknowledge": 4555,
      "Ġshop": 4556,
      "Ġcalls": 4557,
      "Ġfounded": 4558,
      "ĠDoes": 4559,
      "Ġmodel": 4560,
      "ĠRussia": 4561,
      "Ġdoggie": 4562,
      "itation": 4563,
      "Ġbridge": 4564,
      "Ġgreater": 4565,
      "face": 4566,
      "ĠDO": 4567,
      "abeth": 4568,
      "Ġdeclared": 4569,
      "ĠSpanish": 4570,
      "ĠTheir": 4571,
      "Ġdirector": 4572,
      "Ġpractice": 4573,
      "Ġdangerous": 4574,
      "ĠOlympics": 4575,
      "ĠTV": 4576,
      "ĠJul": 4577,
      "ĠKitty": 4578,
      "Ġgrown": 4579,
      "Ġresponse": 4580,
      "ĠSummer": 4581,
      "Ġfirm": 4582,
      "Ġsposta": 4583,
      "Ġtruly": 4584,
      "ees": 4585,
      "ĠAfrican": 4586,
      "ribed": 4587,
      "Ġstruck": 4588,
      "Ġstated": 4589,
      "Ġanywhere": 4590,
      "Ġflying": 4591,
      "sociation": 4592,
      "Ġcy": 4593,
      "aries": 4594,
      "arily": 4595,
      "ights": 4596,
      "Ġcondition": 4597,
      "Ġharm": 4598,
      "Ġnation": 4599,
      "abel": 4600,
      "ittee": 4601,
      "ĠThree": 4602,
      "bered": 4603,
      "Ġcoast": 4604,
      "ĠPrince": 4605,
      "Ġproduc": 4606,
      "ĠOther": 4607,
      "Ġcreate": 4608,
      "Ġgentleman": 4609,
      "Ġliter": 4610,
      "asp": 4611,
      "Ġdebut": 4612,
      "Ġescape": 4613,
      "Ġladies": 4614,
      "ĠHumph": 4615,
      "ĠMarcia": 4616,
      "ho": 4617,
      "Ġknife": 4618,
      "ĠScott": 4619,
      "Ġtext": 4620,
      "Ġsentence": 4621,
      "Ġrequired": 4622,
      "Ġsuspect": 4623,
      "ĠBraz": 4624,
      "My": 4625,
      "time": 4626,
      "ware": 4627,
      "Ġwound": 4628,
      "Ġpool": 4629,
      "rig": 4630,
      "ĠWed": 4631,
      "ĠLuc": 4632,
      "Ġrough": 4633,
      "Ġaware": 4634,
      "sha": 4635,
      "ĠHug": 4636,
      "ĠAfrica": 4637,
      "Ġrecorder": 4638,
      "gypt": 4639,
      "Ġwhispered": 4640,
      "gigg": 4641,
      "Ġlaid": 4642,
      "Ġgate": 4643,
      "Ġthus": 4644,
      "Ġheads": 4645,
      "Ġfourth": 4646,
      "Ġdancing": 4647,
      "Ġprepared": 4648,
      "Ġmachine": 4649,
      "Ġtone": 4650,
      "Ġcart": 4651,
      "Ġcute": 4652,
      "ening": 4653,
      "Ġnote": 4654,
      "Ġspeech": 4655,
      "ĠArmy": 4656,
      "Ġexclaimed": 4657,
      "under": 4658,
      "Ġdouble": 4659,
      "Ġnurse": 4660,
      "Ġstorm": 4661,
      "alley": 4662,
      "ursday": 4663,
      "Ġradio": 4664,
      "Ã³": 4665,
      "Ġpurs": 4666,
      "Ġrate": 4667,
      "eless": 4668,
      "fection": 4669,
      "Ġmanaged": 4670,
      "-year": 4671,
      "ĠHistory": 4672,
      "ĠHumphrey": 4673,
      "-S": 4674,
      ".,": 4675,
      "Ġpic": 4676,
      "Ġeld": 4677,
      "anda": 4678,
      "Ġmissed": 4679,
      "Ġcloser": 4680,
      "Ġfault": 4681,
      "ĠSure": 4682,
      "ching": 4683,
      "ĠRome": 4684,
      "ĠInternational": 4685,
      "ĠDemocr": 4686,
      "olt": 4687,
      "Ġagree": 4688,
      "Ġconstruction": 4689,
      "Ġstrength": 4690,
      "ĠME": 4691,
      "ĠJen": 4692,
      "Ġspl": 4693,
      "ĠSpain": 4694,
      "Ġninet": 4695,
      "Then": 4696,
      "reys": 4697,
      "ĠCamp": 4698,
      "ĠThursday": 4699,
      "Ġextreme": 4700,
      "Ġdrinking": 4701,
      "nesday": 4702,
      "Ġwatched": 4703,
      "ĠTri": 4704,
      "ĠWind": 4705,
      "ĠFollow": 4706,
      "ago": 4707,
      "inese": 4708,
      "Ġlap": 4709,
      "icles": 4710,
      "uset": 4711,
      "cip": 4712,
      "Ġremem": 4713,
      "ĠZeal": 4714,
      "Ġsongs": 4715,
      "can": 4716,
      "enth": 4717,
      "elle": 4718,
      "Ġroof": 4719,
      "Ġshown": 4720,
      "Ġthroughout": 4721,
      "Ġregarding": 4722,
      "orough": 4723,
      "essel": 4724,
      "Ġgrowing": 4725,
      "Ġseventy": 4726,
      "ĠBrazil": 4727,
      "Ġdread": 4728,
      "ilies": 4729,
      "ĠLa": 4730,
      "elled": 4731,
      "ĠItalian": 4732,
      "ishes": 4733,
      "Ġnap": 4734,
      "ĠDa": 4735,
      "Ġusual": 4736,
      "Ġscene": 4737,
      "uesday": 4738,
      "Ġconstit": 4739,
      "Ġhappening": 4740,
      "Ġzoo": 4741,
      "Ġgods": 4742,
      "itan": 4743,
      "Ġlog": 4744,
      "vell": 4745,
      "ĠApp": 4746,
      "raw": 4747,
      "ĠComp": 4748,
      "LY": 4749,
      "lie": 4750,
      "oly": 4751,
      "uk": 4752,
      "reg": 4753,
      "atoes": 4754,
      "ĠAward": 4755,
      "iring": 4756,
      "amin": 4757,
      "ĠDis": 4758,
      "ĠDel": 4759,
      "ĠRose": 4760,
      "Ġrow": 4761,
      "Ġappre": 4762,
      "Ġsmart": 4763,
      "Ġsmaller": 4764,
      "Ġfemale": 4765,
      "Ġcousin": 4766,
      "gen": 4767,
      "Ġforced": 4768,
      "ĠSecret": 4769,
      "ĠAldred": 4770,
      "ĠZealand": 4771,
      "iant": 4772,
      "Ġreb": 4773,
      "Ġweak": 4774,
      "ĠCast": 4775,
      "achuset": 4776,
      "Ġserve": 4777,
      "Ġcoat": 4778,
      "Ġaccess": 4779,
      "Ġstudied": 4780,
      "Ġcrazy": 4781,
      "Ġquarter": 4782,
      "Ġnormal": 4783,
      "gress": 4784,
      "Ġyouth": 4785,
      "omed": 4786,
      "ota": 4787,
      "amm": 4788,
      "ĠOp": 4789,
      "Ġtwice": 4790,
      "ods": 4791,
      "Ġlanguages": 4792,
      "ederal": 4793,
      "ĠCHAP": 4794,
      "achusetts": 4795,
      "-e": 4796,
      "ym": 4797,
      "Ġcred": 4798,
      "Ġhill": 4799,
      "ĠDist": 4800,
      "Ġpleased": 4801,
      "Ġimpossible": 4802,
      "Ġcott": 4803,
      "ĠWil": 4804,
      "ĠDi": 4805,
      "Ġtransport": 4806,
      "ĠScotland": 4807,
      "ĠMassachusetts": 4808,
      "ti": 4809,
      "Ġsac": 4810,
      "Ġhasn": 4811,
      "Ġcontract": 4812,
      "Ġfailed": 4813,
      "ĠCHAPTER": 4814,
      "AU": 4815,
      "utions": 4816,
      "ĠMet": 4817,
      "ĠGive": 4818,
      "Ġcheer": 4819,
      "Ġkeeping": 4820,
      "Ġdistrib": 4821,
      "iety": 4822,
      "Ġsafety": 4823,
      "den": 4824,
      "house": 4825,
      "just": 4826,
      "Ġlink": 4827,
      "oma": 4828,
      "Ġmerely": 4829,
      "Ġarch": 4830,
      "ification": 4831,
      "Ġleaders": 4832,
      "Ġlistening": 4833,
      "ĠSuper": 4834,
      "Ġfruit": 4835,
      "boy": 4836,
      "ĠWood": 4837,
      "Ġshore": 4838,
      "Ġbowl": 4839,
      "Ġchimney": 4840,
      "ĠWednesday": 4841,
      "ĠTuesday": 4842,
      "Ġteach": 4843,
      "Ġexplain": 4844,
      ",I": 4845,
      "ĠMus": 4846,
      "Ġvessel": 4847,
      "ĠExcuse": 4848,
      "uf": 4849,
      "ĠEric": 4850,
      "Ġremoved": 4851,
      "They": 4852,
      "Ġsteps": 4853,
      "bury": 4854,
      "Ġduty": 4855,
      "Ġfol": 4856,
      "Ġstream": 4857,
      "ĠBur": 4858,
      "ĠPapa": 4859,
      "ĠDuke": 4860,
      "ĠNever": 4861,
      "ĠWhich": 4862,
      "Ġbeauty": 4863,
      "ĠCHI": 4864,
      "Ġsite": 4865,
      "Ġscience": 4866,
      "Ġstret": 4867,
      "ĠCat": 4868,
      "Ġopin": 4869,
      "Ġmedical": 4870,
      "Ġpred": 4871,
      "Ġelected": 4872,
      "Ġturtle": 4873,
      "cellent": 4874,
      "ĠListen": 4875,
      "rid": 4876,
      "Ġdirty": 4877,
      "ading": 4878,
      "Ġstre": 4879,
      "Ġmeal": 4880,
      "Ġconditions": 4881,
      "oured": 4882,
      "ĠMat": 4883,
      "ĠCO": 4884,
      "ĠFore": 4885,
      "elly": 4886,
      "ĠBrown": 4887,
      "Ġofficial": 4888,
      "Ġmemory": 4889,
      "Ġopportunity": 4890,
      "!'": 4891,
      "/M": 4892,
      "ini": 4893,
      "ĠSand": 4894,
      "Ġspr": 4895,
      "Ġforces": 4896,
      "ript": 4897,
      "Ġmurd": 4898,
      "Ġepisode": 4899,
      "ja": 4900,
      "oph": 4901,
      "ella": 4902,
      "Ġrising": 4903,
      "Ġworried": 4904,
      "Ġafterwards": 4905,
      "iction": 4906,
      "Ġgreatest": 4907,
      "Ġsecurity": 4908,
      "uckles": 4909,
      "Ġbrothers": 4910,
      "Ġmodern": 4911,
      "Ġindividual": 4912,
      "Ġdemonstr": 4913,
      "ĠMont": 4914,
      "ĠDay": 4915,
      "ĠGreen": 4916,
      "ĠEgypt": 4917,
      "Ġcontent": 4918,
      "Ġmov": 4919,
      "Ġreported": 4920,
      "Ġcells": 4921,
      "Ġmentioned": 4922,
      "GHT": 4923,
      "Ġcherry": 4924,
      "Ġwitness": 4925,
      "Ġcases": 4926,
      "Ġfra": 4927,
      "sec": 4928,
      "ĠWE": 4929,
      "ols": 4930,
      "useum": 4931,
      "Ġnumerous": 4932,
      "Ġtrial": 4933,
      "Ġbenef": 4934,
      "ĠJeffreys": 4935,
      "ĠChampionship": 4936,
      "Ġoccurred": 4937,
      "Ġmut": 4938,
      "Ġlibr": 4939,
      "Ġhadn": 4940,
      "Ġwilling": 4941,
      "Ġprice": 4942,
      "Ġprint": 4943,
      "Ġearn": 4944,
      "Ġdirection": 4945,
      "ĠNether": 4946,
      "lig": 4947,
      "ĠÂ": 4948,
      "Ġge": 4949,
      "rial": 4950,
      "Ġbless": 4951,
      "Ġcarrying": 4952,
      "ĠIslam": 4953,
      "Ġcompetition": 4954,
      "-B": 4955,
      "Now": 4956,
      "erg": 4957,
      "ĠCath": 4958,
      "Ġdey": 4959,
      "Ġwhoa": 4960,
      "Ġtrade": 4961,
      "Ġperm": 4962,
      "ELL": 4963,
      "oking": 4964,
      "Ġrocket": 4965,
      "Ġservices": 4966,
      "Ã¨": 4967,
      "ĠCont": 4968,
      "Ġplans": 4969,
      "Ġchest": 4970,
      "Ġtrip": 4971,
      "Ġwooden": 4972,
      "Ġfixed": 4973,
      "Ġabsolutely": 4974,
      "ĠElizabeth": 4975,
      "Ġsaved": 4976,
      "Ġmistake": 4977,
      "Ġmaterial": 4978,
      "Ġbrief": 4979,
      "Ġrequest": 4980,
      "Ġcampaign": 4981,
      "Ġimagine": 4982,
      "ĠJesus": 4983,
      "ĠNetherlands": 4984,
      "ĠCle": 4985,
      "ĠCare": 4986,
      "Ġbecoming": 4987,
      "Ġcarefully": 4988,
      "Ġcollect": 4989,
      "giggles": 4990,
      "ĠSing": 4991,
      "ĠHot": 4992,
      "umber": 4993,
      "Ġschools": 4994,
      "Ġentirely": 4995,
      "Ġdefend": 4996,
      "reland": 4997,
      "Ġfro": 4998,
      "Ġpan": 4999,
      "Ġ()": 5000,
      "Ġserving": 5001,
      "Ġattract": 5002,
      "mpion": 5003,
      "Ġcalm": 5004,
      "Ġmovies": 5005,
      "-room": 5006,
      "Ġtrib": 5007,
      "ensus": 5008,
      "Ġruns": 5009,
      "Ġwindows": 5010,
      "Ġrelease": 5011,
      "Ġresults": 5012,
      "eer": 5013,
      "gn": 5014,
      "inal": 5015,
      "Ġsoup": 5016,
      "edd": 5017,
      "Ġgaz": 5018,
      "ĠSaint": 5019,
      "alled": 5020,
      "Ġsilence": 5021,
      "Ġpulled": 5022,
      "Ġpicnic": 5023,
      "Ġwaste": 5024,
      "Ġneat": 5025,
      "Ġplenty": 5026,
      "ĠIsland": 5027,
      "Ġdecide": 5028,
      "Ġpromised": 5029,
      "ault": 5030,
      "Ġign": 5031,
      "Ġcouncil": 5032,
      "ĠDou": 5033,
      "ĠFe": 5034,
      "rences": 5035,
      "ĠBritain": 5036,
      "Ġcandy": 5037,
      "Ġobserved": 5038,
      "Ġjudge": 5039,
      "ĠSim": 5040,
      "ental": 5041,
      "ĠFox": 5042,
      "anges": 5043,
      "Ġrail": 5044,
      "Ġsurround": 5045,
      "Ġcollected": 5046,
      "Ġprovided": 5047,
      "Ġperfectly": 5048,
      "uit": 5049,
      "Ġpour": 5050,
      "--\"": 5051,
      "Ġchampions": 5052,
      "Ġcontrib": 5053,
      "ĠIreland": 5054,
      "ĠMolly": 5055,
      "ĠRock": 5056,
      "ava": 5057,
      "Ġstructure": 5058,
      "Ġfigures": 5059,
      "Ġstomach": 5060,
      "bur": 5061,
      "gent": 5062,
      "ĠSus": 5063,
      "ĠRem": 5064,
      "moves": 5065,
      "wr": 5066,
      "ĠIS": 5067,
      "ĠScient": 5068,
      "Ġnovel": 5069,
      "Ġshirt": 5070,
      "Ġhotel": 5071,
      "Ġfavour": 5072,
      "Ġveget": 5073,
      "jo": 5074,
      "ala": 5075,
      "ĠVir": 5076,
      "ĠChinese": 5077,
      "Ġawful": 5078,
      "ĠPerhaps": 5079,
      "Ġpressure": 5080,
      "Ġincrease": 5081,
      "ĠFrancis": 5082,
      "!âĢĿ": 5083,
      "-up": 5084,
      "Ġrise": 5085,
      "ĠJud": 5086,
      "Ġsuc": 5087,
      "Ġpicks": 5088,
      "Ġdolly": 5089,
      "Ġmotion": 5090,
      "ĠTer": 5091,
      "ĠMaster": 5092,
      "odies": 5093,
      "Ġhighest": 5094,
      "ĠJean": 5095,
      "ĠGreek": 5096,
      "If": 5097,
      "iber": 5098,
      "Ġnoticed": 5099,
      "umed": 5100,
      "Ġchoose": 5101,
      "Ġmonster": 5102,
      "-song": 5103,
      "Ġtarget": 5104,
      "ship": 5105,
      "Ġsch": 5106,
      "Ġcouch": 5107,
      "ĠMajor": 5108,
      "semb": 5109,
      "Ġfamilies": 5110,
      "Ġcausing": 5111,
      "Ġenter": 5112,
      "Ġcamera": 5113,
      "Ġsucceed": 5114,
      "Ġtou": 5115,
      "Ġtow": 5116,
      "ĠIran": 5117,
      "ĠOut": 5118,
      "Ġrob": 5119,
      "angers": 5120,
      "ĠLeo": 5121,
      "Ġcurrently": 5122,
      "Ġcustom": 5123,
      "known": 5124,
      "lla": 5125,
      "ademy": 5126,
      "Ġlips": 5127,
      "Ġsmell": 5128,
      "Ġcrime": 5129,
      "Ġstudies": 5130,
      "Ġeasier": 5131,
      "mont": 5132,
      "takes": 5133,
      "Ġtong": 5134,
      "Ġwake": 5135,
      "Ġtheory": 5136,
      "ita": 5137,
      "Ġfashion": 5138,
      "orks": 5139,
      "Ġmel": 5140,
      "ession": 5141,
      "Ġplat": 5142,
      "Ġhandle": 5143,
      "Ġwalks": 5144,
      "Ġcontinues": 5145,
      "KEN": 5146,
      "ĠChief": 5147,
      "ANT": 5148,
      "Ġincludes": 5149,
      "Ġtradition": 5150,
      "ĠClaus": 5151,
      "viet": 5152,
      "ĠMount": 5153,
      "ste": 5154,
      "Ġancient": 5155,
      "Ġtrick": 5156,
      "Ġdishes": 5157,
      "peror": 5158,
      "Ġdaily": 5159,
      "Ġbathroom": 5160,
      "Ġfought": 5161,
      "owed": 5162,
      "Ġpleasant": 5163,
      "ĠZara": 5164,
      "Ġwalls": 5165,
      "Ġchemical": 5166,
      "Ġbare": 5167,
      "Ġnerv": 5168,
      "ĠMur": 5169,
      "Ġrout": 5170,
      "Ġproduction": 5171,
      "do": 5172,
      "Ġintern": 5173,
      "Ġnurs": 5174,
      "ĠMabel": 5175,
      "Ġhardly": 5176,
      "Ġsurprised": 5177,
      "Ġsandwich": 5178,
      "Ġblanket": 5179,
      "IR": 5180,
      "craft": 5181,
      "Ġtight": 5182,
      "Ġcuri": 5183,
      "ĠFour": 5184,
      "Ġjack": 5185,
      "Ġqueen": 5186,
      "Ġfeatures": 5187,
      "ĠAye": 5188,
      "ĠSoviet": 5189,
      "Ġcoach": 5190,
      "Ġnewsp": 5191,
      "Ġdirectly": 5192,
      "ĠCongress": 5193,
      "ĠHur": 5194,
      "ĠFire": 5195,
      "ĠEmpire": 5196,
      "ateg": 5197,
      "Ġcentral": 5198,
      "sych": 5199,
      "ij": 5200,
      "Ġexer": 5201,
      "ĠStud": 5202,
      "Ġactive": 5203,
      "Ġcrown": 5204,
      "Ġopening": 5205,
      "bet": 5206,
      "Ġfold": 5207,
      "ancial": 5208,
      "Ġlion": 5209,
      "Ġreview": 5210,
      "Ġsword": 5211,
      "Ġmarriage": 5212,
      "hum": 5213,
      "Ġ..": 5214,
      "ĠBas": 5215,
      "Ġmeas": 5216,
      "Ġnineteen": 5217,
      "-n": 5218,
      "AB": 5219,
      "aven": 5220,
      "osc": 5221,
      "Ġgrant": 5222,
      "ĠBrad": 5223,
      "idding": 5224,
      "Ġtreatment": 5225,
      "ĠHugo": 5226,
      "bout": 5227,
      "Ġgoal": 5228,
      "hens": 5229,
      "Ġdescend": 5230,
      "Ġcauses": 5231,
      "Ġfifteen": 5232,
      "Ġprior": 5233,
      "ĠJapanese": 5234,
      "Ġeffort": 5235,
      "Ġtask": 5236,
      "isy": 5237,
      "roll": 5238,
      "ĠRel": 5239,
      "aked": 5240,
      "igned": 5241,
      "ibility": 5242,
      "Ġinvol": 5243,
      "Ġalongside": 5244,
      "Ġpossibly": 5245,
      "Ġideas": 5246,
      "CE": 5247,
      "was": 5248,
      "HING": 5249,
      "ĠSun": 5250,
      "ferent": 5251,
      "Ġdism": 5252,
      "Ġreceive": 5253,
      "Ġissues": 5254,
      "Ġrules": 5255,
      "ĠJos": 5256,
      "istan": 5257,
      "Ġofficers": 5258,
      "fortun": 5259,
      "Ġjumped": 5260,
      "ule": 5261,
      "Ġthee": 5262,
      "ĠUnder": 5263,
      "ĠThose": 5264,
      "Ġtells": 5265,
      "Ġresour": 5266,
      "ension": 5267,
      "Ġpresence": 5268,
      "Ġmatters": 5269,
      "ĠFollowing": 5270,
      "Ġfurn": 5271,
      "Ġadop": 5272,
      "Ġshape": 5273,
      "Ġhelping": 5274,
      "Ġmostly": 5275,
      "gery": 5276,
      "Ġtyp": 5277,
      "Ġissue": 5278,
      "vis": 5279,
      "ona": 5280,
      "ĠIr": 5281,
      "ĠMaria": 5282,
      "Ġgenerally": 5283,
      "aves": 5284,
      "iation": 5285,
      "Ġobviously": 5286,
      "Ġinterview": 5287,
      "Ġprincess": 5288,
      "Ġconv": 5289,
      "ĠUm": 5290,
      "Ġfinding": 5291,
      "ĠAnother": 5292,
      "Ġgrave": 5293,
      "Ġloudly": 5294,
      "ae": 5295,
      "pet": 5296,
      "uries": 5297,
      "Ġï¿½ï¿½ï¿½ï¿½": 5298,
      "Ġsides": 5299,
      "umps": 5300,
      "Ġrange": 5301,
      "Ġadvent": 5302,
      "Ġswing": 5303,
      "Ġpowerful": 5304,
      "Ġveh": 5305,
      "Ġanxious": 5306,
      "Ġdegree": 5307,
      "Ġsettled": 5308,
      "Ġham": 5309,
      "verage": 5310,
      "ĠWestern": 5311,
      "Ġclimate": 5312,
      "Ġunion": 5313,
      "Ġcircum": 5314,
      "bye": 5315,
      "ĠTown": 5316,
      "Ġsociety": 5317,
      "obal": 5318,
      "Ġfancy": 5319,
      "Ġdoin": 5320,
      "ĠBig": 5321,
      "ĠGar": 5322,
      "Ġalt": 5323,
      "inda": 5324,
      "Ġcommun": 5325,
      "ĠProv": 5326,
      "Ġvalue": 5327,
      "Ġresponsible": 5328,
      "corder": 5329,
      "itzer": 5330,
      "outs": 5331,
      "ĠRoyal": 5332,
      "Ġarrow": 5333,
      "Ġadminist": 5334,
      "Ġremind": 5335,
      "Ġcompeted": 5336,
      "Ġavoid": 5337,
      "mpt": 5338,
      "ĠDra": 5339,
      "Ġlights": 5340,
      "Ġcaptain": 5341,
      "Ġversion": 5342,
      "Ġclouds": 5343,
      "CT": 5344,
      "Ġble": 5345,
      "Ġfaces": 5346,
      "ĠBan": 5347,
      "ĠLife": 5348,
      "olars": 5349,
      "Ġsecure": 5350,
      "ĠFlor": 5351,
      "Ġneighbor": 5352,
      "Ġgradu": 5353,
      "ĠJoseph": 5354,
      "**": 5355,
      "BC": 5356,
      "Is": 5357,
      "coughs": 5358,
      "ker": 5359,
      "Ġbone": 5360,
      "inger": 5361,
      "otion": 5362,
      "Ġvot": 5363,
      "iana": 5364,
      "Ġactor": 5365,
      "Ġrequire": 5366,
      "Ġcompanies": 5367,
      "Ġwha": 5368,
      "ĠCam": 5369,
      "cely": 5370,
      "iano": 5371,
      "place": 5372,
      "Ġwriter": 5373,
      "Ġphil": 5374,
      "Ġyounger": 5375,
      "Ġgiant": 5376,
      "Ġcentre": 5377,
      "Ġlegal": 5378,
      "ĠGuy": 5379,
      "Ġgentlemen": 5380,
      "nods": 5381,
      "ĠHol": 5382,
      "eping": 5383,
      "ĠThr": 5384,
      "Ġprefer": 5385,
      "ĠArt": 5386,
      "Ġsalt": 5387,
      "Ġappreci": 5388,
      "Ġdying": 5389,
      "Ġnoble": 5390,
      "Ġbutton": 5391,
      "Ġblind": 5392,
      "ructed": 5393,
      "Ġprevious": 5394,
      "Ġmoves": 5395,
      "Ġglo": 5396,
      "Ġartist": 5397,
      "Ġconcern": 5398,
      "Ġlucky": 5399,
      "Ġsen": 5400,
      "Ġknowing": 5401,
      "esty": 5402,
      "Ġflag": 5403,
      "ube": 5404,
      "Ġstrawberries": 5405,
      "Ġbump": 5406,
      "Ġgro": 5407,
      "eta": 5408,
      "Ġthin": 5409,
      "ĠBu": 5410,
      "Ġboots": 5411,
      "Ġpolicy": 5412,
      "Ġconcerned": 5413,
      "Do": 5414,
      "rees": 5415,
      "aring": 5416,
      "Ġlamp": 5417,
      "ĠSol": 5418,
      "ĠUN": 5419,
      "ĠPercy": 5420,
      "Ġdrawing": 5421,
      "Ġrepeated": 5422,
      "Ġwished": 5423,
      "Ġtooth": 5424,
      "etch": 5425,
      "ĠFort": 5426,
      "Ġarg": 5427,
      "Ġwaited": 5428,
      "Ġkinds": 5429,
      "ervation": 5430,
      "_,": 5431,
      "uan": 5432,
      "Ġemp": 5433,
      "ooks": 5434,
      "Ġrocks": 5435,
      "ĠScientists": 5436,
      "In": 5437,
      "aning": 5438,
      "illa": 5439,
      "ĠNat": 5440,
      "ĠLove": 5441,
      "ilda": 5442,
      "Ġdriver": 5443,
      "ÃŃs": 5444,
      "Ġfrogs": 5445,
      "Ġeffects": 5446,
      "Ġburst": 5447,
      "tin": 5448,
      "ingu": 5449,
      "ata": 5450,
      "kel": 5451,
      "Ġchannel": 5452,
      "Ġsurface": 5453,
      "Ġseconds": 5454,
      "ENT": 5455,
      "Ġpurple": 5456,
      "Ġdesigned": 5457,
      "Ġperformance": 5458,
      "icycle": 5459,
      "Ġindustry": 5460,
      "ĠRobin": 5461,
      "ĠTy": 5462,
      "ĠHam": 5463,
      "oles": 5464,
      "Ġplane": 5465,
      "Ġconqu": 5466,
      "Ġscary": 5467,
      "Ġgolden": 5468,
      "Ġmail": 5469,
      "Ġsection": 5470,
      "ĠGO": 5471,
      "Ġfeels": 5472,
      "Ġeleven": 5473,
      "Ġimpact": 5474,
      "Ġteams": 5475,
      "stitute": 5476,
      "Ġcabin": 5477,
      "Ġqual": 5478,
      "Ġappears": 5479,
      "Ġkeeps": 5480,
      "Ġplanet": 5481,
      "Ġconcent": 5482,
      "-time": 5483,
      "ĠPlay": 5484,
      "Ġappearance": 5485,
      "Ġimprove": 5486,
      "eks": 5487,
      "astern": 5488,
      "Ġshell": 5489,
      "Ġpassing": 5490,
      "aming": 5491,
      "Ġlies": 5492,
      "ĠPope": 5493,
      "ĠGot": 5494,
      "ĠFOR": 5495,
      "Ġstring": 5496,
      "Ġcircus": 5497,
      "Ġvictory": 5498,
      "Ġorders": 5499,
      "Ġrelationship": 5500,
      "ST": 5501,
      "ience": 5502,
      "nament": 5503,
      "ĠHI": 5504,
      "Ġcards": 5505,
      "ĠLos": 5506,
      "Ġships": 5507,
      "ĠStill": 5508,
      "Ġterror": 5509,
      "ĠPrime": 5510,
      "Ġordered": 5511,
      "Ġsouthw": 5512,
      "\"]": 5513,
      "vest": 5514,
      "Ġtv": 5515,
      "Ġthy": 5516,
      "eaks": 5517,
      "ĠPers": 5518,
      "hants": 5519,
      "Ġexcellent": 5520,
      "ocal": 5521,
      "Ġsecured": 5522,
      "ĠAssociation": 5523,
      "Ġhearing": 5524,
      "ĠPrin": 5525,
      "Ġlaws": 5526,
      "ĠProf": 5527,
      "Ġapprox": 5528,
      "Ġutter": 5529,
      "ĠCollege": 5530,
      "Ġtongue": 5531,
      "onia": 5532,
      "ĠJake": 5533,
      "ĠDoctor": 5534,
      "Ġfunction": 5535,
      "Ġfallen": 5536,
      "ĠScr": 5537,
      "Ġapproach": 5538,
      "Ġreligion": 5539,
      "Ġdarling": 5540,
      "ĠSecretary": 5541,
      "-T": 5542,
      "kra": 5543,
      "mes": 5544,
      "Ġrespond": 5545,
      "Ġfocus": 5546,
      "Ġwings": 5547,
      "Ġcups": 5548,
      "Ġpitched": 5549,
      "icated": 5550,
      "Ġwheels": 5551,
      "ĠFil": 5552,
      "ĠJenn": 5553,
      "Ġrode": 5554,
      "Ġourselves": 5555,
      "Ġmerry": 5556,
      "ĠMexico": 5557,
      "ba": 5558,
      "gs": 5559,
      "iven": 5560,
      "ero": 5561,
      "aling": 5562,
      "ĠMild": 5563,
      "ĠFar": 5564,
      "uments": 5565,
      "ishop": 5566,
      "Ġtraffic": 5567,
      "Ġbecomes": 5568,
      "Ġstudent": 5569,
      "Ġtypes": 5570,
      "Ġpatient": 5571,
      "ĠArab": 5572,
      "ouri": 5573,
      "Ġbac": 5574,
      "Ġmale": 5575,
      "Ġnic": 5576,
      "kend": 5577,
      "stood": 5578,
      "ĠBest": 5579,
      "hib": 5580,
      "Ġwilln": 5581,
      "ishment": 5582,
      "Ġcarriage": 5583,
      "Ġedge": 5584,
      "ĠTrans": 5585,
      "Ġsoldier": 5586,
      "Ġmedicine": 5587,
      "-L": 5588,
      "Ġpig": 5589,
      "Ġstack": 5590,
      "Ġassoci": 5591,
      "Ġshock": 5592,
      "Ġbegins": 5593,
      "Ġsits": 5594,
      "Ġbringing": 5595,
      "ĠGovernment": 5596,
      "Ġnervous": 5597,
      "ef": 5598,
      "Ġopt": 5599,
      "edy": 5600,
      "Ġjun": 5601,
      "Ġ(;": 5602,
      "oston": 5603,
      "Ġdownstairs": 5604,
      "anged": 5605,
      "ï¿½ï¿½ï¿½": 5606,
      "Ġtreated": 5607,
      "Ġcruel": 5608,
      "Ġocean": 5609,
      "arts": 5610,
      "Ġflight": 5611,
      "Ġmedia": 5612,
      "ĠSwed": 5613,
      "Ġhanging": 5614,
      "ĠAngela": 5615,
      "Ġsource": 5616,
      "sm": 5617,
      "isions": 5618,
      "Ġma": 5619,
      "Ġghost": 5620,
      "asy": 5621,
      "stances": 5622,
      "Ġdoct": 5623,
      "ola": 5624,
      "Ġshoe": 5625,
      "ĠKat": 5626,
      "Ġroy": 5627,
      "Ġdisplay": 5628,
      "Ġsmoke": 5629,
      "Ġmountains": 5630,
      "ĠSecond": 5631,
      "Ġpages": 5632,
      "Ġinvent": 5633,
      "ĠServ": 5634,
      "ĠMill": 5635,
      "ĠDen": 5636,
      "ĠNaz": 5637,
      "Ġpros": 5638,
      "Ġexchan": 5639,
      "Ġproperty": 5640,
      "Ġfrightened": 5641,
      "So": 5642,
      "Ġsisters": 5643,
      "oned": 5644,
      "alent": 5645,
      "Ġsaus": 5646,
      "Ġsomewhat": 5647,
      "Ġattend": 5648,
      "Ġkiller": 5649,
      "Ġbeneath": 5650,
      "Ġbabies": 5651,
      "-night": 5652,
      "talk": 5653,
      "Ġcourage": 5654,
      "Ġpa": 5655,
      "Ġwasher": 5656,
      "Ġforeign": 5657,
      "Ġrecognized": 5658,
      "ĠMildred": 5659,
      "kins": 5660,
      "Ġrom": 5661,
      "Ġbomb": 5662,
      "Ġye": 5663,
      "Ġforms": 5664,
      "ĠWalter": 5665,
      "Ġreligious": 5666,
      "?]": 5667,
      "Ġder": 5668,
      "ĠTim": 5669,
      "pering": 5670,
      "Ġplanning": 5671,
      "Ġforever": 5672,
      "ĠSometimes": 5673,
      "initely": 5674,
      "Ġstreets": 5675,
      "EA": 5676,
      "bel": 5677,
      "Ġnuts": 5678,
      "ĠKent": 5679,
      "Ġshoulder": 5680,
      "Ġbuildings": 5681,
      "Ġfifth": 5682,
      "Ġsystems": 5683,
      "ez": 5684,
      "ga": 5685,
      "with": 5686,
      "Ġmor": 5687,
      "Ġfaster": 5688,
      "ĠWhe": 5689,
      "Ġrings": 5690,
      "Ġplums": 5691,
      "Ġprogress": 5692,
      "Ġintended": 5693,
      "Ġhelmet": 5694,
      "Ġbedroom": 5695,
      "Ġteaching": 5696,
      "Ġsuccessful": 5697,
      "Ġconnect": 5698,
      "gie": 5699,
      "Ġpound": 5700,
      "Ġpapers": 5701,
      "ĠTod": 5702,
      "Ġstyle": 5703,
      "ĠHapp": 5704,
      "ĠRom": 5705,
      "Ġdeparted": 5706,
      "ĠCanadian": 5707,
      "Ġelephants": 5708,
      "Ġopinion": 5709,
      "uten": 5710,
      "berg": 5711,
      "places": 5712,
      "Ġsomethin": 5713,
      "Ġowned": 5714,
      "Ġexpress": 5715,
      "Ġperformed": 5716,
      "Ġcandid": 5717,
      "Ġindependent": 5718,
      "ĠLatin": 5719,
      "Ġcities": 5720,
      "riff": 5721,
      "eman": 5722,
      "Ġthoughts": 5723,
      "Ġdrawn": 5724,
      "ĠDespite": 5725,
      "itzerland": 5726,
      "pa": 5727,
      "Ġet": 5728,
      "Ġbike": 5729,
      "Ġfully": 5730,
      "Ġnest": 5731,
      "Ġanal": 5732,
      "Ġuns": 5733,
      "Ġunable": 5734,
      "Ġflo": 5735,
      "ropri": 5736,
      "Ġforgotten": 5737,
      "Ġvictim": 5738,
      "ĠCatholic": 5739,
      "Ġaim": 5740,
      "Ġgift": 5741,
      "ĠHu": 5742,
      "Ġliber": 5743,
      "Ġalpha": 5744,
      "Ġhelps": 5745,
      "Ġorganization": 5746,
      "UST": 5747,
      "IM": 5748,
      "Ġrib": 5749,
      "Ġnarrow": 5750,
      "ĠRay": 5751,
      "Ġthousands": 5752,
      "ĠSwitzerland": 5753,
      "itz": 5754,
      "Ġcong": 5755,
      "Ġheaven": 5756,
      "ĠNO": 5757,
      "ĠLee": 5758,
      "iel": 5759,
      "Ġunf": 5760,
      "ocks": 5761,
      "ĠChris": 5762,
      "ĠDonald": 5763,
      "Ġexcit": 5764,
      "Ġlevels": 5765,
      "Ġjournal": 5766,
      "Ġshadow": 5767,
      "Ġted": 5768,
      "Ġast": 5769,
      "Ġcit": 5770,
      "ĠIra": 5771,
      "ĠBRO": 5772,
      "Ġintellig": 5773,
      "Ġcontr": 5774,
      "Ġsympt": 5775,
      "rant": 5776,
      "ĠSea": 5777,
      "ĠHome": 5778,
      "anging": 5779,
      "erecorder": 5780,
      "Ġdiscover": 5781,
      "ĠEarly": 5782,
      "ĠDistrict": 5783,
      "Ġcant": 5784,
      "Ġdish": 5785,
      "Ġnea": 5786,
      "Ġstir": 5787,
      "illed": 5788,
      "estival": 5789,
      "Ġdespite": 5790,
      "fficient": 5791,
      "ĠCentral": 5792,
      "IGHT": 5793,
      "verse": 5794,
      "ĠBoston": 5795,
      "Ġconce": 5796,
      "urns": 5797,
      "Ġhanded": 5798,
      "Ġpresents": 5799,
      "Ġprisoners": 5800,
      "Ġslightly": 5801,
      "ĠMusl": 5802,
      "vy": 5803,
      "ĠSur": 5804,
      "ĠHon": 5805,
      "cel": 5806,
      "asty": 5807,
      "ucle": 5808,
      "Ġfinancial": 5809,
      "Ġfeelings": 5810,
      "Ġsilent": 5811,
      "ĠAmeric": 5812,
      "Ġterrit": 5813,
      "Ġmedal": 5814,
      "Ġlessons": 5815,
      "Ġarrange": 5816,
      "ĠAcademy": 5817,
      "ĠVirgin": 5818,
      "Ġpsych": 5819,
      "ĠBre": 5820,
      "ĠFC": 5821,
      "Ġpartner": 5822,
      "Ġpreviously": 5823,
      "ĠEdward": 5824,
      "Ġplanned": 5825,
      "Ġmud": 5826,
      "etic": 5827,
      "Ġweird": 5828,
      "Ġstaff": 5829,
      "chuckles": 5830,
      "Ġrushed": 5831,
      "emic": 5832,
      "Ġsuffe": 5833,
      "Ġspin": 5834,
      "ailed": 5835,
      "Ġcommunic": 5836,
      "Ġhurried": 5837,
      "Ġbarn": 5838,
      "aura": 5839,
      "Ġmultip": 5840,
      "melon": 5841,
      "nam": 5842,
      "sighs": 5843,
      "Ġwore": 5844,
      "Ġhabit": 5845,
      "ĠMY": 5846,
      "Ġsake": 5847,
      "osen": 5848,
      "ĠKen": 5849,
      "Ġscore": 5850,
      "Ġstands": 5851,
      "ĠBarb": 5852,
      "Ġfields": 5853,
      "ĠAlexander": 5854,
      "Ġfrequently": 5855,
      "don": 5856,
      "tr": 5857,
      "Ġaverage": 5858,
      "itar": 5859,
      "Ġfond": 5860,
      "Ġgir": 5861,
      "ĠSpe": 5862,
      "ooge": 5863,
      "Ġmanager": 5864,
      "Ġpickle": 5865,
      "ĠCarol": 5866,
      "Ġpurcha": 5867,
      "ĠAustria": 5868,
      "Ġfal": 5869,
      "Ġgather": 5870,
      "utive": 5871,
      "ĠWin": 5872,
      "ĠWall": 5873,
      "ĠRon": 5874,
      "Ġriding": 5875,
      "Ġoranges": 5876,
      "Ġcollection": 5877,
      "ĠGerald": 5878,
      "Ġdetermined": 5879,
      "Ġremembered": 5880,
      "OUR": 5881,
      "ĠWay": 5882,
      "ĠWater": 5883,
      "ĠRy": 5884,
      "ĠFair": 5885,
      "Ġrice": 5886,
      "Ġmatches": 5887,
      "Ġdamage": 5888,
      "ĠProfess": 5889,
      "Ġtries": 5890,
      "Ġpoll": 5891,
      "arah": 5892,
      "Ġloll": 5893,
      "ĠPolly": 5894,
      "istry": 5895,
      "bey": 5896,
      "Ġevident": 5897,
      "ĠAngeles": 5898,
      "Ġdocument": 5899,
      "Ġroyal": 5900,
      "SI": 5901,
      "ĠBoth": 5902,
      "Ġtroub": 5903,
      "Ġimpl": 5904,
      "Ġrecent": 5905,
      "Ġtransfer": 5906,
      "ĠKeep": 5907,
      "Ġopposite": 5908,
      "mark": 5909,
      "Ġwond": 5910,
      "Ġboss": 5911,
      "athered": 5912,
      "ications": 5913,
      "ada": 5914,
      "Ġkm": 5915,
      "Ġvent": 5916,
      "ĠStan": 5917,
      "ĠChild": 5918,
      "Ġpolic": 5919,
      "Ġfailure": 5920,
      "Ġglasses": 5921,
      "ĠWHAT": 5922,
      "ĠSomething": 5923,
      "ĠDemocratic": 5924,
      "?'": 5925,
      "lict": 5926,
      "edom": 5927,
      "ctions": 5928,
      "Ġdeck": 5929,
      "Ġability": 5930,
      "quar": 5931,
      "Ġquality": 5932,
      "izes": 5933,
      "Ġretired": 5934,
      "Ġrelated": 5935,
      "Ġpatients": 5936,
      "Ġholes": 5937,
      "hoe": 5938,
      "Ġwrest": 5939,
      "hal": 5940,
      "icide": 5941,
      "Ġwealth": 5942,
      "ĠHold": 5943,
      "tery": 5944,
      "ĠPan": 5945,
      "ĠYear": 5946,
      "Ġdesire": 5947,
      "ippi": 5948,
      "Ġvoices": 5949,
      "bour": 5950,
      "heart": 5951,
      "Ġbodies": 5952,
      "Ġdare": 5953,
      "Ġnative": 5954,
      "Ġnorthern": 5955,
      "Ġdose": 5956,
      "ĠJon": 5957,
      "ĠSocial": 5958,
      "Ġwatermelon": 5959,
      "Ġsurely": 5960,
      "Ġweekend": 5961,
      "Ġcopy": 5962,
      "da": 5963,
      "Ġcrew": 5964,
      "ether": 5965,
      "ushes": 5966,
      "ura": 5967,
      "Ġnotes": 5968,
      "ĠEach": 5969,
      "artment": 5970,
      "Ġworst": 5971,
      "Ġcreature": 5972,
      "Ġcomfortable": 5973,
      "This": 5974,
      "Ġfence": 5975,
      "ĠHy": 5976,
      "ĠBye": 5977,
      "Ġprepar": 5978,
      "Ġmarked": 5979,
      "Ġprotest": 5980,
      "Ġadvice": 5981,
      "Ġphysical": 5982,
      "Ġdrugs": 5983,
      "ĠScrooge": 5984,
      "Ġteddy": 5985,
      "back": 5986,
      "ĠMummy": 5987,
      "ado": 5988,
      "ĠHor": 5989,
      "Ġupset": 5990,
      "Ġmyster": 5991,
      "Ġtalks": 5992,
      "anches": 5993,
      "Ġsymb": 5994,
      "Ġwondering": 5995,
      "Ġenjoyed": 5996,
      "Ġcritic": 5997,
      "iliar": 5998,
      "Ġpra": 5999,
      "ication": 6000,
      "Ġamb": 6001,
      "arently": 6002,
      "Ġdreams": 6003,
      "Ġelectric": 6004,
      "Ġweapon": 6005,
      "Ġvirus": 6006,
      "All": 6007,
      "amond": 6008,
      "ĠOff": 6009,
      "ĠEv": 6010,
      "Ġpean": 6011,
      "Ġdesert": 6012,
      "Ġentertain": 6013,
      "Ġsigned": 6014,
      "Ġsnake": 6015,
      "Ġpotatoes": 6016,
      "ĠEarl": 6017,
      "Ġeventually": 6018,
      "ĠBecky": 6019,
      "Ġsausage": 6020,
      "Ġlollip": 6021,
      "Come": 6022,
      "ĠIm": 6023,
      "Ġpears": 6024,
      "ĠWAS": 6025,
      "otted": 6026,
      "Ġuseful": 6027,
      "Ġevil": 6028,
      "ĠFlorida": 6029,
      "bra": 6030,
      "Ġinha": 6031,
      "ĠShi": 6032,
      "Ġjoke": 6033,
      "iece": 6034,
      "ĠHealth": 6035,
      "Ġrecomm": 6036,
      "ĠMississ": 6037,
      "Ġrefused": 6038,
      "Ġdarkness": 6039,
      "ĠNext": 6040,
      "ĠAgnes": 6041,
      "rat": 6042,
      "Ġhomes": 6043,
      "ĠTHIS": 6044,
      "ĠBru": 6045,
      "ĠBund": 6046,
      "ĠNick": 6047,
      "Ġcompos": 6048,
      "Ġresc": 6049,
      "anche": 6050,
      "Ġincident": 6051,
      "Ġdrove": 6052,
      "Ġcosts": 6053,
      "Ġprimary": 6054,
      "Ġmicro": 6055,
      "VER": 6056,
      "dam": 6057,
      "rison": 6058,
      "wo": 6059,
      "ĠCooper": 6060,
      "ĠFine": 6061,
      "ĠJac": 6062,
      "ansas": 6063,
      "Ġgrey": 6064,
      "Ġpositive": 6065,
      "ĠEverything": 6066,
      "ĠWilliams": 6067,
      "Ġachieve": 6068,
      "mar": 6069,
      "Ġrat": 6070,
      "ĠKore": 6071,
      "Ġuseta": 6072,
      "Ġgoodness": 6073,
      "Ġsmiled": 6074,
      "Ġuhoh": 6075,
      "Ġpreschool": 6076,
      "Ġcolon": 6077,
      "Ġanti": 6078,
      "uz": 6079,
      "Ġcad": 6080,
      "Ġyard": 6081,
      "Ġlake": 6082,
      "Ġlord": 6083,
      "Ġgrie": 6084,
      "rol": 6085,
      "Ġmeasure": 6086,
      "cho": 6087,
      "uns": 6088,
      "ĠLo": 6089,
      "Ġwhenever": 6090,
      "Ġafford": 6091,
      "Ġchosen": 6092,
      "ucky": 6093,
      "Ġstaying": 6094,
      "Ġprompt": 6095,
      "Ġactivity": 6096,
      "Ġdisappeared": 6097,
      "Ġelder": 6098,
      "Mark": 6099,
      "Ġtear": 6100,
      "ĠSay": 6101,
      "ador": 6102,
      "road": 6103,
      "ĠHA": 6104,
      "ĠLaura": 6105,
      "Ġsho": 6106,
      "ardon": 6107,
      "Ġpregn": 6108,
      "Ġowner": 6109,
      "ĠAtl": 6110,
      "ounce": 6111,
      "Ġdistinct": 6112,
      "ĠScar": 6113,
      "pronounced": 6114,
      "Ġescap": 6115,
      "Ġexcitement": 6116,
      "gas": 6117,
      "Ġbub": 6118,
      "ĠEst": 6119,
      "icking": 6120,
      "Ġadvert": 6121,
      "Ġpoet": 6122,
      "Ġrealize": 6123,
      "Ġwinning": 6124,
      "Ġmixed": 6125,
      "Ġdescribed": 6126,
      "Ġpalace": 6127,
      "EP": 6128,
      "Ġbones": 6129,
      "ĠMhm": 6130,
      "lying": 6131,
      "Ġrank": 6132,
      "ques": 6133,
      "Ġresist": 6134,
      "Ġcris": 6135,
      "ĠMissouri": 6136,
      "Ġmainly": 6137,
      "ĠMississippi": 6138,
      "rance": 6139,
      "Ġaunt": 6140,
      "Ġfier": 6141,
      "ĠTen": 6142,
      "Ġwaves": 6143,
      "Ġsetting": 6144,
      "Ġloves": 6145,
      "Ġweapons": 6146,
      "Ġinnoc": 6147,
      "-r": 6148,
      "pass": 6149,
      "oria": 6150,
      "Ġgathered": 6151,
      "ĠWow": 6152,
      "Ġdoors": 6153,
      "ulations": 6154,
      "oses": 6155,
      "Ġspect": 6156,
      "Ġprove": 6157,
      "ĠMarie": 6158,
      "Ġmagaz": 6159,
      "Ġconflict": 6160,
      "Ġenvironmental": 6161,
      "PE": 6162,
      "fall": 6163,
      "Ġaid": 6164,
      "Ġgained": 6165,
      "ĠCall": 6166,
      "ĠBay": 6167,
      "ĠOk": 6168,
      "ulous": 6169,
      "ĠYoung": 6170,
      "Ġbranches": 6171,
      "angle": 6172,
      "Ġapples": 6173,
      "Ġchoo": 6174,
      "AND": 6175,
      "Ġcats": 6176,
      "ĠJohnson": 6177,
      "Ġdolls": 6178,
      "Ġmission": 6179,
      "Ġburning": 6180,
      "ĠActually": 6181,
      "ĠIrish": 6182,
      "Ġsuffered": 6183,
      "MAL": 6184,
      "Not": 6185,
      "Ġcommer": 6186,
      "Ġconcept": 6187,
      "Ġcloth": 6188,
      "Ġrecently": 6189,
      "Ġhighly": 6190,
      "Ġcomplex": 6191,
      "Ġhealthy": 6192,
      "Ġmajority": 6193,
      "Ġefforts": 6194,
      "Ġseparate": 6195,
      "cake": 6196,
      "cles": 6197,
      "Ġtun": 6198,
      "Ġbother": 6199,
      "ena": 6200,
      "ima": 6201,
      "urt": 6202,
      "ĠStar": 6203,
      "Ġrealized": 6204,
      "Ġcharacters": 6205,
      "Ġadditional": 6206,
      "Ġresources": 6207,
      "aun": 6208,
      "tries": 6209,
      "ugg": 6210,
      "Ġlosing": 6211,
      "Ġult": 6212,
      "Ġshel": 6213,
      "Ġshr": 6214,
      "Ġflu": 6215,
      "Ġeverywhere": 6216,
      "Ġsched": 6217,
      "Ġmarry": 6218,
      "Ġdelay": 6219,
      "ĠAuntie": 6220,
      "ĠLabour": 6221,
      "Ġlibrary": 6222,
      "ev": 6223,
      "Ġbunny": 6224,
      "iture": 6225,
      "owing": 6226,
      "ĠMaj": 6227,
      "ĠBack": 6228,
      "ĠLI": 6229,
      "avis": 6230,
      "Ġunderstood": 6231,
      "Ġrecall": 6232,
      "Ġgrandfather": 6233,
      "ĠMartin": 6234,
      "Ġsymptoms": 6235,
      "Ġlollipop": 6236,
      "sed": 6237,
      "Ġwedd": 6238,
      "Ġmaid": 6239,
      "Ġpale": 6240,
      "Ġfork": 6241,
      "see": 6242,
      "ĠYet": 6243,
      "ulate": 6244,
      "odes": 6245,
      "icted": 6246,
      "Ġexpression": 6247,
      "Ġinvited": 6248,
      "Ġhumans": 6249,
      "Ġadvant": 6250,
      "Ġpattern": 6251,
      "-P": 6252,
      "there": 6253,
      "Ġox": 6254,
      "Ġgain": 6255,
      "ĠTre": 6256,
      "ĠTor": 6257,
      "ĠBal": 6258,
      "chief": 6259,
      "Ġfriendly": 6260,
      "Ġhearts": 6261,
      "pret": 6262,
      "Ġsink": 6263,
      "Ġchat": 6264,
      "Ġupper": 6265,
      "Ġaltern": 6266,
      "aki": 6267,
      "aging": 6268,
      "ĠStep": 6269,
      "Ġgrace": 6270,
      "Ġshoulders": 6271,
      "Ġkingdom": 6272,
      "Ġsalad": 6273,
      "ĠAustralian": 6274,
      "Ġpossessed": 6275,
      "ĠMargaret": 6276,
      "yr": 6277,
      "ĠWork": 6278,
      "Ġconclud": 6279,
      "ĠInstitute": 6280,
      "Ġblame": 6281,
      "ucking": 6282,
      "Ġoblig": 6283,
      "Ġkilling": 6284,
      "Ġservant": 6285,
      "gl": 6286,
      "ett": 6287,
      "ĠLater": 6288,
      "ulting": 6289,
      "Ġneedta": 6290,
      "Ġstandard": 6291,
      "Ġpotential": 6292,
      "Ġhoping": 6293,
      "OME": 6294,
      "Ġmirror": 6295,
      "Ġextremely": 6296,
      "mn": 6297,
      "while": 6298,
      "ĠSqu": 6299,
      "ĠHal": 6300,
      "Ġsports": 6301,
      "Ġappointed": 6302,
      "Ġsalami": 6303,
      "ĠHarry": 6304,
      "Ġauthority": 6305,
      "ĠPortug": 6306,
      "Ġensure": 6307,
      "Ġscarcely": 6308,
      "Ġwagon": 6309,
      "Ġmultiple": 6310,
      "overy": 6311,
      "Ġselected": 6312,
      "ĠUK": 6313,
      "Ġgoodbye": 6314,
      "Ġresident": 6315,
      "Ġcontain": 6316,
      "Ġacting": 6317,
      "Ġboats": 6318,
      "Ġmeters": 6319,
      "Ġstrike": 6320,
      "Ġguns": 6321,
      "ĠTurk": 6322,
      "Ġrapidly": 6323,
      "Ġphilos": 6324,
      "-H": 6325,
      "zo": 6326,
      "Ġsilly": 6327,
      "Ġdun": 6328,
      "ĠBea": 6329,
      "ĠAndrew": 6330,
      "Ġscrew": 6331,
      "Ġremaining": 6332,
      "Ġsettlement": 6333,
      "Ġwine": 6334,
      "Ġpil": 6335,
      "Ġpony": 6336,
      "ashing": 6337,
      "ogether": 6338,
      "Ġchose": 6339,
      "Ġleague": 6340,
      "ugs": 6341,
      "Ġtechnology": 6342,
      "Ġscientists": 6343,
      "Ġpit": 6344,
      "Ġhiding": 6345,
      "icate": 6346,
      "ĠSix": 6347,
      "uties": 6348,
      "ĠDiv": 6349,
      "Ġroles": 6350,
      "Ġdesk": 6351,
      "Ġends": 6352,
      "ĠRev": 6353,
      "Ġhandsome": 6354,
      "Ġbrand": 6355,
      "Ġillness": 6356,
      "Ġremarked": 6357,
      "ĠAustrian": 6358,
      "Ġcredit": 6359,
      "-morrow": 6360,
      "ĠAEW": 6361,
      "Ġreasons": 6362,
      "ĠGirl": 6363,
      "ĠLand": 6364,
      "ĠAsian": 6365,
      "Ġbelief": 6366,
      "Ġtowns": 6367,
      "Ġconduct": 6368,
      "ĠColumb": 6369,
      "Ġapproximately": 6370,
      "-le": 6371,
      "ette": 6372,
      "ĠSl": 6373,
      "thur": 6374,
      "Ġsplend": 6375,
      "Ġuniversity": 6376,
      "Ġworkers": 6377,
      "Ġbiggest": 6378,
      "Ġbreast": 6379,
      "Ġdrum": 6380,
      "Ġconsist": 6381,
      "Ġrecorded": 6382,
      "Ġsorts": 6383,
      "Ġjobs": 6384,
      "Ġgrowth": 6385,
      "Ġcookie": 6386,
      "Ġitems": 6387,
      "bled": 6388,
      "iest": 6389,
      "put": 6390,
      "iner": 6391,
      "Ġwestern": 6392,
      "Ġfired": 6393,
      "ĠTime": 6394,
      "amma": 6395,
      "ulty": 6396,
      "ĠVan": 6397,
      "ancing": 6398,
      "Ġbreaking": 6399,
      "Ġadvance": 6400,
      "ĠGroup": 6401,
      "Ġfairly": 6402,
      "ĠResear": 6403,
      "Ġdestroyed": 6404,
      "wers": 6405,
      "heast": 6406,
      "Ġwra": 6407,
      "Ġpure": 6408,
      "Ġrefe": 6409,
      "ĠPre": 6410,
      "ĠPict": 6411,
      "ĠRad": 6412,
      "ĠEll": 6413,
      "abor": 6414,
      "Ġshared": 6415,
      "Ġactions": 6416,
      "Ġunclear": 6417,
      "Ġplatform": 6418,
      "coh": 6419,
      "Ġwid": 6420,
      "Ġboo": 6421,
      "Ġmort": 6422,
      "ĠInt": 6423,
      "Ġpha": 6424,
      "Ġlem": 6425,
      "Ġaside": 6426,
      "ĠFre": 6427,
      "andy": 6428,
      "ague": 6429,
      "ĠUkra": 6430,
      "Ġelev": 6431,
      "Ġapolog": 6432,
      "Ġdetect": 6433,
      "Ġcloset": 6434,
      "Ġsuggested": 6435,
      "ĠHappy": 6436,
      "draw": 6437,
      "gt": 6438,
      "ping": 6439,
      "Ġpor": 6440,
      "ĠGra": 6441,
      "ĠThink": 6442,
      "Ġraise": 6443,
      "Ġslide": 6444,
      "Ġconsum": 6445,
      "Ġproposed": 6446,
      "Ġestablish": 6447,
      "Ġalphabet": 6448,
      "-G": 6449,
      "car": 6450,
      "sings": 6451,
      "Ġtim": 6452,
      "Ġhidden": 6453,
      "ĠMavis": 6454,
      "stead": 6455,
      "ĠWent": 6456,
      "ĠNic": 6457,
      "Ġcomment": 6458,
      "Ġvast": 6459,
      "ropol": 6460,
      "ĠShould": 6461,
      "Ġapartment": 6462,
      "Ġinfluence": 6463,
      "ĠSusan": 6464,
      "Ġcitiz": 6465,
      "-and": 6466,
      "ION": 6467,
      "stone": 6468,
      "ĠLong": 6469,
      "osis": 6470,
      "Ġaband": 6471,
      "rene": 6472,
      "ivity": 6473,
      "Ġdesper": 6474,
      "they": 6475,
      "Ġballoon": 6476,
      "Ġcreatures": 6477,
      "ĠCharlie": 6478,
      "Ġproducts": 6479,
      "ĠGovernor": 6480,
      "Ġbalance": 6481,
      "Ġtouched": 6482,
      "Ġcircumstances": 6483,
      "Ġcensus": 6484,
      "Ġmap": 6485,
      "ĠSO": 6486,
      "this": 6487,
      "Ġoldest": 6488,
      "Ġglobal": 6489,
      "Ġcapable": 6490,
      "Ġcondu": 6491,
      "Ġgrandmother": 6492,
      "ĠEmperor": 6493,
      "Ġhasta": 6494,
      "Ġtournament": 6495,
      "SE": 6496,
      "Ġtie": 6497,
      "Ġsorrow": 6498,
      "Ġfan": 6499,
      "ĠIll": 6500,
      "ani": 6501,
      "Ġinfect": 6502,
      "ĠDire": 6503,
      "ĠLake": 6504,
      "ĠKar": 6505,
      "Ġthrone": 6506,
      "Ġhorsie": 6507,
      "Ġequal": 6508,
      "Ġoriginally": 6509,
      "Ġdefeated": 6510,
      "Ġfortune": 6511,
      "keep": 6512,
      "ĠNice": 6513,
      "ĠEs": 6514,
      "Ġpeas": 6515,
      "Ġparties": 6516,
      "Ġchap": 6517,
      "Ġchallen": 6518,
      "Ġslipp": 6519,
      "Ġinstit": 6520,
      "engers": 6521,
      "ĠGeorg": 6522,
      "Ġincreased": 6523,
      "ĠMerle": 6524,
      "Ġpillow": 6525,
      "-F": 6526,
      "-old": 6527,
      "uing": 6528,
      "Ġloose": 6529,
      "ĠMir": 6530,
      "elling": 6531,
      "Ġsomehow": 6532,
      "Ġproved": 6533,
      "Ġpoison": 6534,
      "Ġactress": 6535,
      "Ġshooting": 6536,
      "Ġsouthern": 6537,
      "ĠMen": 6538,
      "ĠBa": 6539,
      "Ġhadta": 6540,
      "Ġrac": 6541,
      "Ġtroops": 6542,
      "ĠAtt": 6543,
      "ufact": 6544,
      "ropriate": 6545,
      "gment": 6546,
      "lies": 6547,
      "Ġ/": 6548,
      "Ġcode": 6549,
      "Ġamazing": 6550,
      "Ġillustr": 6551,
      "Ġlabor": 6552,
      "Ġtaperecorder": 6553,
      "Ġscientific": 6554,
      "ĠDepartment": 6555,
      "Ġcounter": 6556,
      "Good": 6557,
      "rick": 6558,
      "ua": 6559,
      "works": 6560,
      "Ġsought": 6561,
      "aria": 6562,
      "ĠMiddle": 6563,
      "ĠHea": 6564,
      "ĠPo": 6565,
      "ĠFI": 6566,
      "Ġburied": 6567,
      "Ġrooms": 6568,
      "encer": 6569,
      "Ġtotally": 6570,
      "Sarah": 6571,
      "Ġpause": 6572,
      "ĠPut": 6573,
      "apt": 6574,
      "lfriend": 6575,
      "Ġfeather": 6576,
      "ĠVict": 6577,
      "ĠAlright": 6578,
      "Ġrecording": 6579,
      "Ġexplained": 6580,
      "Ġselling": 6581,
      "Ġdescri": 6582,
      "Ġarrested": 6583,
      "Ġnucle": 6584,
      "ĠSHE": 6585,
      "ĠRog": 6586,
      "Ġrelief": 6587,
      "Ġcookies": 6588,
      "Ġdust": 6589,
      "Ġpiano": 6590,
      "ĠSE": 6591,
      "Ġstones": 6592,
      "ĠCos": 6593,
      "Ġsevere": 6594,
      "ĠGers": 6595,
      "ĠLast": 6596,
      "Ġseek": 6597,
      "Ġdiss": 6598,
      "Ġminor": 6599,
      "ĠIsn": 6600,
      "Ġreplaced": 6601,
      "Ġincreasing": 6602,
      "Ġprofessor": 6603,
      "Ġbesides": 6604,
      "Ġcritical": 6605,
      "Ġsings": 6606,
      "Ġborder": 6607,
      "Ġpump": 6608,
      "Ġreign": 6609,
      "opher": 6610,
      "Ġbranch": 6611,
      "Ġflood": 6612,
      "Ġchew": 6613,
      "ERS": 6614,
      "Ġreality": 6615,
      "Ġlistened": 6616,
      "Ġproduce": 6617,
      "Ġpainting": 6618,
      "ĠCastle": 6619,
      "ĠIraq": 6620,
      "Ġbunch": 6621,
      "ann": 6622,
      "atched": 6623,
      "Ġwebs": 6624,
      "acle": 6625,
      "urb": 6626,
      "Ġplus": 6627,
      "ems": 6628,
      "ARD": 6629,
      "Ġchain": 6630,
      "okes": 6631,
      "Ġmispronounced": 6632,
      "Ġdivided": 6633,
      "Ġactivities": 6634,
      "ĠProvince": 6635,
      "ams": 6636,
      "Ġscreen": 6637,
      "ĠArch": 6638,
      "clears": 6639,
      "Ġcooking": 6640,
      "Ġmanagement": 6641,
      "ĠRodger": 6642,
      "Mother": 6643,
      "ooth": 6644,
      "erves": 6645,
      "Ġbicycle": 6646,
      "ĠSong": 6647,
      "ĠCher": 6648,
      "ĠBes": 6649,
      "Ġclown": 6650,
      "Ġwedding": 6651,
      "-I": 6652,
      "tt": 6653,
      "Ġsons": 6654,
      "lection": 6655,
      "urance": 6656,
      "Ġsheep": 6657,
      "Ġvalley": 6658,
      "Ġpenny": 6659,
      "ĠEveryone": 6660,
      "Ġculture": 6661,
      "ĠAmericans": 6662,
      "tape": 6663,
      "Ġpity": 6664,
      "Ġpile": 6665,
      "ĠWild": 6666,
      "Ġupside": 6667,
      "Ġrug": 6668,
      "Ġmanufact": 6669,
      "Ġotherwise": 6670,
      "Ġcray": 6671,
      "Ġfamiliar": 6672,
      "ĠJohnny": 6673,
      "Ġengaged": 6674,
      "Ġaccompan": 6675,
      "last": 6676,
      "Ġsin": 6677,
      "ĠOl": 6678,
      "gel": 6679,
      "aws": 6680,
      "Ġcupcake": 6681,
      "ITH": 6682,
      "Ġcompanion": 6683,
      "ĠMickey": 6684,
      ".C": 6685,
      "Ġodd": 6686,
      "Ġlone": 6687,
      "ĠSub": 6688,
      "ĠHad": 6689,
      "eable": 6690,
      "ĠNOT": 6691,
      "Ġplayers": 6692,
      "Ġpride": 6693,
      "Ġrare": 6694,
      "Ġfourteen": 6695,
      "Ġcutting": 6696,
      "Ġmerc": 6697,
      "Ġdiscussion": 6698,
      "Ġlocked": 6699,
      "Ġcottage": 6700,
      "Ġsouthwestern": 6701,
      "oni": 6702,
      "ĠSIS": 6703,
      "Ġren": 6704,
      "icket": 6705,
      "ontin": 6706,
      "Ġdelicious": 6707,
      "Ġdefinitely": 6708,
      "eding": 6709,
      "ano": 6710,
      "owder": 6711,
      "Ġeh": 6712,
      "acher": 6713,
      "Ġwhining": 6714,
      "pton": 6715,
      "Ġcrash": 6716,
      "Ġpersu": 6717,
      "ĠUpon": 6718,
      "Ġawarded": 6719,
      "ĠToday": 6720,
      "-th": 6721,
      "ios": 6722,
      "Ġlung": 6723,
      "omy": 6724,
      "ĠBull": 6725,
      "Ġmechan": 6726,
      "umes": 6727,
      "Ġrack": 6728,
      "Ġremove": 6729,
      "Ġproperly": 6730,
      "ĠRecords": 6731,
      "Ġtender": 6732,
      "ties": 6733,
      "acha": 6734,
      "stant": 6735,
      "ĠHill": 6736,
      "Ġdozen": 6737,
      "ĠBad": 6738,
      "Ġkidding": 6739,
      "olar": 6740,
      "Ġcovers": 6741,
      "ĠArthur": 6742,
      "ĠProt": 6743,
      "Ġexciting": 6744,
      "Ġformula": 6745,
      "Ġcompleted": 6746,
      "Ġdetermine": 6747,
      "case": 6748,
      "phe": 6749,
      "Ġpipe": 6750,
      "Ġseats": 6751,
      "unts": 6752,
      "usted": 6753,
      "ĠEaster": 6754,
      "Ġalcoh": 6755,
      "essert": 6756,
      "Ġconcl": 6757,
      "Ġfinds": 6758,
      "Ġglance": 6759,
      "Ġtransl": 6760,
      "Ġmiser": 6761,
      "Ġinitial": 6762,
      "FF": 6763,
      "Tilda": 6764,
      "ds": 6765,
      "goes": 6766,
      "Ġheight": 6767,
      "Ġthorough": 6768,
      "ilty": 6769,
      "andra": 6770,
      "umn": 6771,
      "ooking": 6772,
      "Ġseriously": 6773,
      "Ġdese": 6774,
      "Ġminister": 6775,
      "Ġpicking": 6776,
      "ointment": 6777,
      "Ġannoy": 6778,
      "Ġpainted": 6779,
      "Ġsuffering": 6780,
      "Ġexercise": 6781,
      "\"?": 6782,
      "-huh": 6783,
      "wide": 6784,
      "Ġdessert": 6785,
      "Ġnomin": 6786,
      "ĠSuch": 6787,
      "ĠAri": 6788,
      "sters": 6789,
      "ulk": 6790,
      "ulated": 6791,
      "Ġplates": 6792,
      "Ġprote": 6793,
      "Ġprize": 6794,
      "ĠTrump": 6795,
      "Ġsafely": 6796,
      "ĠLu": 6797,
      "Ġjew": 6798,
      "Ġcone": 6799,
      "Ġclay": 6800,
      "Ġunit": 6801,
      "ĠZoe": 6802,
      "Ġfairy": 6803,
      "Ġadmit": 6804,
      "Ġassistant": 6805,
      "Ġtemperature": 6806,
      "Ġnetwork": 6807,
      "whispers": 6808,
      "inn": 6809,
      "Ġdump": 6810,
      "Ġbears": 6811,
      "ĠAng": 6812,
      "Ġcarbon": 6813,
      "Ġguitar": 6814,
      "Ġinstr": 6815,
      "Ġprotection": 6816,
      "Nina": 6817,
      "Ã¦": 6818,
      "Ġbon": 6819,
      "Ġlic": 6820,
      "ĠHaw": 6821,
      "Ġgoals": 6822,
      "ĠRa": 6823,
      "Ġshelf": 6824,
      "Ġdesp": 6825,
      "Ġattached": 6826,
      "Ġearned": 6827,
      "Ġbitter": 6828,
      "bridge": 6829,
      "Ġstepped": 6830,
      "Ġteachers": 6831,
      "Ġchecked": 6832,
      "Ġdetails": 6833,
      "Ġhunting": 6834,
      "Ġintroduced": 6835,
      "ĠSenate": 6836,
      "Ġcrisis": 6837,
      "ias": 6838,
      "zing": 6839,
      "Ġrent": 6840,
      "ĠMaine": 6841,
      "Ġimage": 6842,
      "Ġshame": 6843,
      "Ġpolitics": 6844,
      "Ġattempted": 6845,
      "Ġknocked": 6846,
      "Ġrubber": 6847,
      "ĠProfessor": 6848,
      "ingly": 6849,
      "Ġyo": 6850,
      "ĠAk": 6851,
      "angar": 6852,
      "ĠArgent": 6853,
      "Ġtransform": 6854,
      "Ġprovides": 6855,
      "Ġexperiment": 6856,
      "Ġfreedom": 6857,
      "ĠHungry": 6858,
      "Ġnewspaper": 6859,
      "ILL": 6860,
      "die": 6861,
      "rot": 6862,
      "Ġsang": 6863,
      "Ġded": 6864,
      "Ġfaint": 6865,
      "ader": 6866,
      "Ġsymp": 6867,
      "Ġtreasure": 6868,
      "Ġclosely": 6869,
      "Ġsales": 6870,
      "whining": 6871,
      "ĠSwiss": 6872,
      "Ġbelongs": 6873,
      "Ġstatement": 6874,
      "Ġburned": 6875,
      "iraffe": 6876,
      "Ġcereal": 6877,
      "uous": 6878,
      "war": 6879,
      "Ġbold": 6880,
      "Ġnuh": 6881,
      "Ġbeans": 6882,
      "ĠFound": 6883,
      "ĠLy": 6884,
      "Ġshook": 6885,
      "Ġresolved": 6886,
      "Ġeaten": 6887,
      "Ġevolution": 6888,
      "Ġinspect": 6889,
      "Ġpaying": 6890,
      "Ġlimited": 6891,
      "Ġagreement": 6892,
      "looks": 6893,
      "mouth": 6894,
      "ĠSouthern": 6895,
      "Ġanger": 6896,
      "Ġspark": 6897,
      "Ġcompared": 6898,
      "Ġchampion": 6899,
      "Ġpresently": 6900,
      "Ġexpand": 6901,
      "thel": 6902,
      "Ġanswers": 6903,
      "iverse": 6904,
      "Ġaccepted": 6905,
      "Ġmunicipal": 6906,
      "Ġholiday": 6907,
      "ĠHaving": 6908,
      "Ġgirlfriend": 6909,
      "nels": 6910,
      "lled": 6911,
      "ĠNik": 6912,
      "uls": 6913,
      "Ġquant": 6914,
      "Ġproof": 6915,
      "Ġcho": 6916,
      "ggy": 6917,
      "Ġattended": 6918,
      "Ġexpensive": 6919,
      "ĠIndians": 6920,
      "Ġpresented": 6921,
      "Ġpulling": 6922,
      "Ġconnected": 6923,
      "Ġcowboy": 6924,
      "ĠDisney": 6925,
      "utenant": 6926,
      "book": 6927,
      "Ġhorn": 6928,
      "Ġ--": 6929,
      "Ġsav": 6930,
      "Ġunfortun": 6931,
      "Ġthrown": 6932,
      "Ġhundreds": 6933,
      "Ġfewer": 6934,
      "Ġrecords": 6935,
      "porary": 6936,
      "bbed": 6937,
      "Ġaccompl": 6938,
      "ĠVirginia": 6939,
      "Ġsplendid": 6940,
      "-to": 6941,
      "-like": 6942,
      "cing": 6943,
      "lings": 6944,
      "ĠAlf": 6945,
      "ĠHuh": 6946,
      "ĠRE": 6947,
      "ĠGal": 6948,
      "ĠFoot": 6949,
      "Ġsmiling": 6950,
      "ĠAnne": 6951,
      "Ġnearby": 6952,
      "Ġarticle": 6953,
      "Ġpriest": 6954,
      "ĠBlue": 6955,
      "Ġdiagn": 6956,
      "Ġattacked": 6957,
      "Ġprograms": 6958,
      "Ġslept": 6959,
      "Ġexchange": 6960,
      "some": 6961,
      "Ġfishing": 6962,
      "ĠMake": 6963,
      "ĠMusic": 6964,
      "Ġspare": 6965,
      "ĠThough": 6966,
      "Ġdriven": 6967,
      "ĠDidn": 6968,
      "Ġreports": 6969,
      "Ġpupp": 6970,
      "Ġtemple": 6971,
      "Ġrecognize": 6972,
      "Ġsnap": 6973,
      "ĠThrough": 6974,
      "Ġfalse": 6975,
      "'la": 6976,
      "-se": 6977,
      "walk": 6978,
      "Ġwhoops": 6979,
      "ĠEthel": 6980,
      "Ġunique": 6981,
      "Ġgreatly": 6982,
      "Ġcrimin": 6983,
      "Ġstranger": 6984,
      "Ġinstant": 6985,
      "Ġrestaur": 6986,
      "Ġsubsequently": 6987,
      "Ġlabel": 6988,
      "stitution": 6989,
      "Ġarranged": 6990,
      "ĠJewish": 6991,
      "ĠBruce": 6992,
      "-D": 6993,
      "IA": 6994,
      "RA": 6995,
      "friend": 6996,
      "Ġx": 6997,
      "hamed": 6998,
      "Ġnib": 6999,
      "Ġrear": 7000,
      "rier": 7001,
      "ĠBi": 7002,
      "ĠNana": 7003,
      "ĠRO": 7004,
      "izza": 7005,
      "Ġmoments": 7006,
      "Ġmighty": 7007,
      "Ġbegun": 7008,
      "Ġaircraft": 7009,
      "ĠEduc": 7010,
      "Ġeastern": 7011,
      "Ġcreating": 7012,
      "ĠTommy": 7013,
      "Ġprogramme": 7014,
      "Ġdeeply": 7015,
      "Ġdivor": 7016,
      "Ġiniti": 7017,
      "Ġarchite": 7018,
      "-ha": 7019,
      "ĠSk": 7020,
      "ĠLar": 7021,
      "ĠJun": 7022,
      "Ġconference": 7023,
      "Ġunlike": 7024,
      "onsense": 7025,
      "encing": 7026,
      "Ġwarning": 7027,
      "Ġdistingu": 7028,
      "Ġchart": 7029,
      "Ġlands": 7030,
      "Ġconcert": 7031,
      "Ġdefeat": 7032,
      "Ġkissed": 7033,
      "Ġsuffer": 7034,
      "archers": 7035,
      "Ġfile": 7036,
      "ĠOoh": 7037,
      "geon": 7038,
      "Ġrush": 7039,
      "Ġvia": 7040,
      "ateful": 7041,
      "Ġwrit": 7042,
      "Ġbuck": 7043,
      "Ġskills": 7044,
      "Ġarrival": 7045,
      "Ġwaters": 7046,
      "Ġindustrial": 7047,
      "ĠJews": 7048,
      "'am": 7049,
      "UCK": 7050,
      "gues": 7051,
      "Ġdough": 7052,
      "Ġhes": 7053,
      "Ġbeer": 7054,
      "ĠAwards": 7055,
      "Ġstove": 7056,
      "urd": 7057,
      "Ġsees": 7058,
      "Ġguilty": 7059,
      "Ġhappiness": 7060,
      "Ġcriter": 7061,
      "apping": 7062,
      "Ġcrossed": 7063,
      "Ġoperation": 7064,
      "Ġdelighted": 7065,
      "bor": 7066,
      "gency": 7067,
      "Ġfer": 7068,
      "Ġmere": 7069,
      "ĠEastern": 7070,
      "Ġconsequ": 7071,
      "Ġexha": 7072,
      "ĠStand": 7073,
      "gging": 7074,
      "Ġinstance": 7075,
      "-bye": 7076,
      "Ġprovince": 7077,
      "Ġmarks": 7078,
      "Ġresearchers": 7079,
      "ĠINV": 7080,
      "Ġeconomic": 7081,
      "ĠBattle": 7082,
      "Ġoccupied": 7083,
      "ĠRemember": 7084,
      "fle": 7085,
      "Ġsust": 7086,
      "Ġsigh": 7087,
      "Ġfart": 7088,
      "Ġgay": 7089,
      "ĠAT": 7090,
      "ĠGames": 7091,
      "ĠWhatever": 7092,
      "Ġguests": 7093,
      "Ġcheeks": 7094,
      "Ġdrama": 7095,
      "Ġbadly": 7096,
      "ĠClub": 7097,
      "Ġsigns": 7098,
      "Ġphotograph": 7099,
      "stein": 7100,
      ",you": 7101,
      "{\\": 7102,
      "Ġbang": 7103,
      "Ġlif": 7104,
      "ĠFive": 7105,
      "hank": 7106,
      "Ġcoal": 7107,
      "ĠShar": 7108,
      "ĠPolice": 7109,
      "Ġhousing": 7110,
      "Ġpackage": 7111,
      "looking": 7112,
      "Ġjacket": 7113,
      "ĠPrincess": 7114,
      "angaroo": 7115,
      "-R": 7116,
      "Let": 7117,
      "WE": 7118,
      "nan": 7119,
      "Ġtied": 7120,
      "Ġpup": 7121,
      "Ġnail": 7122,
      "Ġthrill": 7123,
      "Ġbend": 7124,
      "Ġbeast": 7125,
      "amily": 7126,
      "ĠBilly": 7127,
      "Ġjoint": 7128,
      "uled": 7129,
      "ĠJung": 7130,
      "ĠNobody": 7131,
      "Ġshake": 7132,
      "Ġsciss": 7133,
      "Ġsupply": 7134,
      "Ġinterrupt": 7135,
      "umbling": 7136,
      "Ġilleg": 7137,
      "Ġapproached": 7138,
      "Ġsupported": 7139,
      "Ġfleet": 7140,
      "Ġlifted": 7141,
      "Ġchampionship": 7142,
      "Ġappreciate": 7143,
      "Ġpeanut": 7144,
      "ĠWentworth": 7145,
      "TH": 7146,
      "upp": 7147,
      "Ġaston": 7148,
      "Ġcro": 7149,
      "ora": 7150,
      "Ġpant": 7151,
      "ĠBac": 7152,
      "Ġappeal": 7153,
      "Ġdecor": 7154,
      "Ġadvanced": 7155,
      "umbled": 7156,
      "Ġforgive": 7157,
      "Ġshouted": 7158,
      "Ġadvantage": 7159,
      "Ġaccompanied": 7160,
      "Ġtough": 7161,
      "isl": 7162,
      "Ġfederal": 7163,
      "Ġtox": 7164,
      "Ġpants": 7165,
      "omer": 7166,
      "ĠTem": 7167,
      "Ġsport": 7168,
      "Ġquit": 7169,
      "Ġeats": 7170,
      "Ġwave": 7171,
      "Ġsurgery": 7172,
      "iversal": 7173,
      "Ġgovernor": 7174,
      "ÃŃt": 7175,
      "ĠConsequently": 7176,
      "Ġprinci": 7177,
      "Ġrepresented": 7178,
      "ĠIslamic": 7179,
      "Ġlonely": 7180,
      "-a": 7181,
      "rane": 7182,
      "Ġze": 7183,
      "esh": 7184,
      "Ġlob": 7185,
      "ĠALL": 7186,
      "ĠNations": 7187,
      "eps": 7188,
      "ĠKN": 7189,
      "Ġbrush": 7190,
      "Ġchase": 7191,
      "adder": 7192,
      "Ġboot": 7193,
      "ĠSomeone": 7194,
      "ĠTeam": 7195,
      "Ġequip": 7196,
      "ynam": 7197,
      "ĠBelg": 7198,
      "Ġbuddy": 7199,
      "Ġdistributed": 7200,
      "Ġfurniture": 7201,
      "water": 7202,
      "Ġgiraffe": 7203,
      "icip": 7204,
      "imp": 7205,
      "ĠPac": 7206,
      "ĠNav": 7207,
      "ĠJones": 7208,
      "Ġjustice": 7209,
      "ĠUE": 7210,
      "Ġserves": 7211,
      "ĠAlso": 7212,
      "Ġswall": 7213,
      "Ġairport": 7214,
      "Ġreturning": 7215,
      "Ġconfess": 7216,
      "Ġbillion": 7217,
      "ĠVermont": 7218,
      "Ġdeliver": 7219,
      "Ġinnocent": 7220,
      "Where": 7221,
      "cest": 7222,
      "egr": 7223,
      "Ġtale": 7224,
      "orge": 7225,
      "icago": 7226,
      "ells": 7227,
      "abb": 7228,
      "Ġunus": 7229,
      "Ġbug": 7230,
      "Ġwarri": 7231,
      "ublican": 7232,
      "Ġbroadcast": 7233,
      "Ġacquaint": 7234,
      "ĠCareer": 7235,
      "ĠHAVE": 7236,
      "cries": 7237,
      "rown": 7238,
      "Ġbrill": 7239,
      "Ġcert": 7240,
      "Ġdom": 7241,
      "ĠSwe": 7242,
      "ĠBud": 7243,
      "ĠFree": 7244,
      "emies": 7245,
      "ĠVen": 7246,
      "Ġswift": 7247,
      "ronic": 7248,
      "ĠTele": 7249,
      "ylvan": 7250,
      "Ġforests": 7251,
      "Ġcaptured": 7252,
      "Ġstruggle": 7253,
      "ture": 7254,
      "isa": 7255,
      "ĠHoney": 7256,
      "ĠPower": 7257,
      "elia": 7258,
      "Ġagent": 7259,
      "Ġfeature": 7260,
      "ĠâĢĻ": 7261,
      "Ġgray": 7262,
      "Ġkeys": 7263,
      "Ġboom": 7264,
      "ĠAsh": 7265,
      "ĠBrother": 7266,
      "Ġswear": 7267,
      "Ġclever": 7268,
      "Ġdistant": 7269,
      "Ġroads": 7270,
      "Ġpropos": 7271,
      "ĠRamsey": 7272,
      "sembly": 7273,
      "Ġneighborhood": 7274,
      "Ġetc": 7275,
      "'...": 7276,
      "Ġdim": 7277,
      "icing": 7278,
      "rose": 7279,
      "ĠWITH": 7280,
      "ĠBang": 7281,
      "unning": 7282,
      "Ġcontains": 7283,
      "Ġtrained": 7284,
      "Ġvictims": 7285,
      "Ġauthorities": 7286,
      "Ġconnection": 7287,
      "Ġsources": 7288,
      "Ġinvestigation": 7289,
      "ĠMeliss": 7290,
      "Ġdoctors": 7291,
      "ĠMajesty": 7292,
      "Ġsympat": 7293,
      "gly": 7294,
      "vior": 7295,
      "Ġtrop": 7296,
      "Ġonline": 7297,
      "ĠSil": 7298,
      "stra": 7299,
      "ĠPra": 7300,
      "gend": 7301,
      "ĠLie": 7302,
      "Ġracing": 7303,
      "ivered": 7304,
      "berry": 7305,
      "Ġregions": 7306,
      "Ġrequires": 7307,
      "Ġclaimed": 7308,
      "ĠRoad": 7309,
      "Ġbenefit": 7310,
      "Ġvegetables": 7311,
      "rate": 7312,
      "had": 7313,
      "orter": 7314,
      "Ġpond": 7315,
      "Ġreaching": 7316,
      "ĠCorn": 7317,
      "ĠDown": 7318,
      "Ġsoil": 7319,
      "...?": 7320,
      "ANG": 7321,
      "ĠShow": 7322,
      "ĠCommittee": 7323,
      "Ġhyp": 7324,
      "Ġautom": 7325,
      "Ġlatter": 7326,
      "LA": 7327,
      "Who": 7328,
      "Ġmuseum": 7329,
      "Ġtom": 7330,
      "Ġreward": 7331,
      "iry": 7332,
      "ĠHem": 7333,
      "Ġkick": 7334,
      "Ġvain": 7335,
      "ĠKansas": 7336,
      "Ġintense": 7337,
      "Ġbron": 7338,
      "Ġnegative": 7339,
      "Ġscratch": 7340,
      "Ġalcohol": 7341,
      "Ġlect": 7342,
      "ĠTower": 7343,
      "ĠWel": 7344,
      "ĠBook": 7345,
      "Ġvision": 7346,
      "Ġaffection": 7347,
      "âĢĻm": 7348,
      "Ġtravell": 7349,
      "Ġrelative": 7350,
      "Ġunderstanding": 7351,
      "ĠLeon": 7352,
      "Ġsquee": 7353,
      "Ġmillions": 7354,
      "Ġencoura": 7355,
      "Ġhyd": 7356,
      "Ġexistence": 7357,
      "hetic": 7358,
      "Ġaffair": 7359,
      "HER": 7360,
      "KE": 7361,
      "hus": 7362,
      "Ġgently": 7363,
      "ĠShan": 7364,
      "Ġreact": 7365,
      "Ġseated": 7366,
      "ĠFur": 7367,
      "Ġguest": 7368,
      "Ġregret": 7369,
      "Ġconfidence": 7370,
      "Ġstroke": 7371,
      "Ġbid": 7372,
      "esome": 7373,
      "lement": 7374,
      "Ġreck": 7375,
      "ĠKnow": 7376,
      "ĠTherefore": 7377,
      "Ġpassengers": 7378,
      "Ġbaseball": 7379,
      "Ġlanded": 7380,
      "Ġordinary": 7381,
      "ĠAgain": 7382,
      "ĠJerry": 7383,
      "Ġsymbol": 7384,
      "Ġmagazine": 7385,
      "Whin": 7386,
      "mans": 7387,
      "name": 7388,
      "shire": 7389,
      "yo": 7390,
      "Ġ:": 7391,
      "Ġtire": 7392,
      "isher": 7393,
      "Ġgal": 7394,
      "Ġhills": 7395,
      "rain": 7396,
      "Ġmob": 7397,
      "ĠFran": 7398,
      "ception": 7399,
      "Ġincred": 7400,
      "Ġawake": 7401,
      "ĠPhilip": 7402,
      "Ġarrive": 7403,
      "Ġruled": 7404,
      "Ġfellows": 7405,
      "Ġnuhhuh": 7406,
      "iot": 7407,
      "tles": 7408,
      "Ġeth": 7409,
      "Ġtip": 7410,
      "Ġsam": 7411,
      "Ġduties": 7412,
      "sect": 7413,
      "ĠBon": 7414,
      "Ġash": 7415,
      "Ġknee": 7416,
      "ĠForm": 7417,
      "Ġallows": 7418,
      "Ġjury": 7419,
      "Ġconvin": 7420,
      "ĠStone": 7421,
      "ocated": 7422,
      "ĠAlice": 7423,
      "Ġincome": 7424,
      "Ġconfir": 7425,
      "UNC": 7426,
      "Ġestim": 7427,
      "ĠPhilipp": 7428,
      "Ġregarded": 7429,
      "Ġmusical": 7430,
      "Ġreferred": 7431,
      "Ġpregnant": 7432,
      "Ġwing": 7433,
      "Ġwicked": 7434,
      "ĠBam": 7435,
      "ĠBern": 7436,
      "Ġknees": 7437,
      "venue": 7438,
      "Ġrope": 7439,
      "ĠChicago": 7440,
      "inson": 7441,
      "ĠArmen": 7442,
      "Ġgreet": 7443,
      "Ġinstruct": 7444,
      "Ġtribe": 7445,
      "Ġartists": 7446,
      "which": 7447,
      "Ġcorpor": 7448,
      "Ġattacks": 7449,
      "playing": 7450,
      "Ġwounded": 7451,
      "Ġscissors": 7452,
      "Ġequipment": 7453,
      "-V": 7454,
      "ghan": 7455,
      "ĠTam": 7456,
      "ĠMia": 7457,
      "Ġspo": 7458,
      "ender": 7459,
      "ĠâĢĶ": 7460,
      "Ġamaz": 7461,
      "ibly": 7462,
      "Ġlesson": 7463,
      "Ġprisoner": 7464,
      "Ġviolence": 7465,
      "Ġrevolution": 7466,
      "ĠBertha": 7467,
      "ĠWindows": 7468,
      "ĠFrancisco": 7469,
      "ĠService": 7470,
      "ĠUEFA": 7471,
      "oa": 7472,
      "rels": 7473,
      "Ġfant": 7474,
      "Ġnick": 7475,
      "ĠAmy": 7476,
      "Ġkil": 7477,
      "ifts": 7478,
      "ĠYOUR": 7479,
      "ĠKong": 7480,
      "Ġsmooth": 7481,
      "Ġhorrible": 7482,
      "Ġboxes": 7483,
      "-five": 7484,
      "Ġvolume": 7485,
      "Ġbasic": 7486,
      "Ġrevealed": 7487,
      "Ġdreadful": 7488,
      "olarship": 7489,
      "Ġassociated": 7490,
      "-W": 7491,
      "-k": 7492,
      "PS": 7493,
      "magn": 7494,
      "enes": 7495,
      "Ġpizza": 7496,
      "lyn": 7497,
      "ĠHas": 7498,
      "Ġsem": 7499,
      "ĠPenn": 7500,
      "oli": 7501,
      "Ġcliff": 7502,
      "ĠInter": 7503,
      "Ġbrings": 7504,
      "Ġera": 7505,
      "Ġelement": 7506,
      "vention": 7507,
      "Ġpassage": 7508,
      "Ġestate": 7509,
      "Ġdrops": 7510,
      "Ġcraw": 7511,
      "Ġlaunch": 7512,
      "Ġnuclear": 7513,
      "ylvania": 7514,
      "Whinney": 7515,
      "Of": 7516,
      "nut": 7517,
      "Ġwis": 7518,
      "referent": 7519,
      "Ġtools": 7520,
      "ĠIII": 7521,
      "ĠSH": 7522,
      "ĠSue": 7523,
      "ĠWatch": 7524,
      "Ġkangaroo": 7525,
      "resp": 7526,
      "Ġspite": 7527,
      "Ġspending": 7528,
      "Ġworn": 7529,
      "Ġclient": 7530,
      "Ġgotten": 7531,
      "Ġconsult": 7532,
      "Ġreduce": 7533,
      "Ġsignal": 7534,
      "Ġtrem": 7535,
      "noise": 7536,
      "Ġmagnetic": 7537,
      "Ġsplit": 7538,
      "ĠOpen": 7539,
      "!âĢĻ": 7540,
      "An": 7541,
      "iar": 7542,
      "esc": 7543,
      "Ġhipp": 7544,
      "lets": 7545,
      "imum": 7546,
      "ĠMove": 7547,
      "ĠBav": 7548,
      "Ġwhist": 7549,
      "resents": 7550,
      "Ġunknown": 7551,
      "ĠVol": 7552,
      "iley": 7553,
      "Ġours": 7554,
      "Ġcommitted": 7555,
      "Ġcharts": 7556,
      "ĠZe": 7557,
      "eaking": 7558,
      "Ġhurts": 7559,
      "Ġtremb": 7560,
      "Ġhonour": 7561,
      "Ġsending": 7562,
      "Ġcraft": 7563,
      "Ġsolid": 7564,
      "Ġdevice": 7565,
      "ĠHuman": 7566,
      "ĠAnyway": 7567,
      "Ġmaterials": 7568,
      "ĠRevolution": 7569,
      "Ġ{\\": 7570,
      "Ġfaced": 7571,
      "Ġpanc": 7572,
      "ĠSC": 7573,
      "Ġwashers": 7574,
      "ĠHong": 7575,
      "ĠDet": 7576,
      "Ġalarm": 7577,
      "Ġvit": 7578,
      "ĠUs": 7579,
      "Ġteen": 7580,
      "Ġslipped": 7581,
      "Ġelements": 7582,
      "Ġrepresents": 7583,
      "Ġdollar": 7584,
      "Ġhorror": 7585,
      "Ġallowing": 7586,
      "Ġlaun": 7587,
      "ĠCenter": 7588,
      "-off": 7589,
      "bu": 7590,
      "long": 7591,
      "Ġtempt": 7592,
      "hell": 7593,
      "Ġdull": 7594,
      "Ġfate": 7595,
      "Ġyum": 7596,
      "Ġwashed": 7597,
      "Ġliqu": 7598,
      "Ġenemies": 7599,
      "Ġprem": 7600,
      "ESS": 7601,
      "Ġfactory": 7602,
      "Ġimportance": 7603,
      "Ġsteel": 7604,
      "Ġchallenge": 7605,
      "Be": 7606,
      "och": 7607,
      "Ġcash": 7608,
      "orious": 7609,
      "ĠTurn": 7610,
      "oos": 7611,
      "ĠBible": 7612,
      "Ġdece": 7613,
      "Ġentrance": 7614,
      "Ġframe": 7615,
      "Ġdiamond": 7616,
      "ĠJersey": 7617,
      "break": 7618,
      "writer": 7619,
      "Ġsucceeded": 7620,
      "ĠRomans": 7621,
      "ko": 7622,
      "wa": 7623,
      "Ġborrow": 7624,
      "ented": 7625,
      "Ġseized": 7626,
      "intend": 7627,
      "Ġfever": 7628,
      "Ġcommittee": 7629,
      "Ġvisible": 7630,
      "ALL": 7631,
      "ĠSecurity": 7632,
      "Ġspirits": 7633,
      "-house": 7634,
      "ĠSteve": 7635,
      "Ġtypically": 7636,
      "Ġdunno": 7637,
      "ropolitan": 7638,
      ")}": 7639,
      "RY": 7640,
      "happy": 7641,
      "Ġhal": 7642,
      "riger": 7643,
      "ĠBren": 7644,
      "ĠJam": 7645,
      "Ġgettin": 7646,
      "Ġdrawer": 7647,
      "Ġreturns": 7648,
      "Ġsooner": 7649,
      "ervative": 7650,
      "Ġstores": 7651,
      "Ġscale": 7652,
      "Ġpressed": 7653,
      "Ġrolling": 7654,
      "ĠDanny": 7655,
      "Ġresponsibility": 7656,
      "ĠMaggie": 7657,
      "Ġmurdered": 7658,
      "ĠSweden": 7659,
      "ĠJacob": 7660,
      "Ġescaped": 7661,
      "ĠEducation": 7662,
      "Here": 7663,
      "box": 7664,
      "lers": 7665,
      "Ġmal": 7666,
      "ĠWrest": 7667,
      "ĠBour": 7668,
      "ores": 7669,
      "Ġclip": 7670,
      "merican": 7671,
      "Ġprecious": 7672,
      "Ġactual": 7673,
      "âĢĻre": 7674,
      "ĠAsia": 7675,
      "Ġrelax": 7676,
      "lessly": 7677,
      "Ġoccas": 7678,
      "-pitched": 7679,
      "Ġcommonly": 7680,
      "Ġtorn": 7681,
      "Ġaffected": 7682,
      "Ġwondered": 7683,
      "pro": 7684,
      "Ġax": 7685,
      "lleng": 7686,
      "ĠTar": 7687,
      "ĠSa": 7688,
      "Ġwashing": 7689,
      "Ġstole": 7690,
      "Ġuna": 7691,
      "....": 7692,
      "Ġkings": 7693,
      "ĠGro": 7694,
      "ĠGard": 7695,
      "Ġflow": 7696,
      "Ġservants": 7697,
      "Ġjumping": 7698,
      "Ġinformed": 7699,
      "Ġtests": 7700,
      "ĠGreece": 7701,
      "Ġbriefly": 7702,
      "Ġproducer": 7703,
      "Ġcub": 7704,
      "Ġthir": 7705,
      "Ġbeings": 7706,
      "irk": 7707,
      "Ġugly": 7708,
      "Ġancest": 7709,
      "Ġgodd": 7710,
      "igen": 7711,
      "akin": 7712,
      "Ġqueer": 7713,
      "cipl": 7714,
      "Ġhug": 7715,
      "Ġundert": 7716,
      "âĢĻll": 7717,
      "Ġaccused": 7718,
      "Ġdrinks": 7719,
      "Ġvisited": 7720,
      "Ġfortun": 7721,
      "ĠNorway": 7722,
      "Ġgarage": 7723,
      "Ġhistorical": 7724,
      "Ġgazed": 7725,
      "_.": 7726,
      "Ã¤": 7727,
      "Ġcave": 7728,
      "Ġmate": 7729,
      "Ġpitch": 7730,
      "ĠCy": 7731,
      "ĠHoly": 7732,
      "ĠBird": 7733,
      "eare": 7734,
      "Ġsoap": 7735,
      "olen": 7736,
      "ĠThus": 7737,
      "Ġperce": 7738,
      "Ġdrown": 7739,
      "Ġpointed": 7740,
      "ĠCarl": 7741,
      "ONE": 7742,
      "Ġshortly": 7743,
      "shine": 7744,
      "-de": 7745,
      "pointing": 7746,
      "Ġbelonged": 7747,
      "Ġessential": 7748,
      "ĠCompany": 7749,
      "Ġsenior": 7750,
      "ĠBesides": 7751,
      "-cl": 7752,
      "IE": 7753,
      "lock": 7754,
      "mosp": 7755,
      "pired": 7756,
      "Ġwitch": 7757,
      "rets": 7758,
      "Ġpowers": 7759,
      "Ġpushing": 7760,
      "ĠRail": 7761,
      "ĠOb": 7762,
      "ĠOw": 7763,
      "Ġcomr": 7764,
      "ĠAss": 7765,
      "Ġdrunk": 7766,
      "ĠEverybody": 7767,
      "ĠCommission": 7768,
      "Ġdivision": 7769,
      "Ġhoped": 7770,
      "ĠJackson": 7771,
      "ĠHelp": 7772,
      "Ġscreaming": 7773,
      "ĠScottish": 7774,
      "Ġvehicle": 7775,
      "Ġcommercial": 7776,
      "Ġobliged": 7777,
      "ront": 7778,
      "sounds": 7779,
      "Ġoops": 7780,
      "Ġgle": 7781,
      "asks": 7782,
      "ĠCub": 7783,
      "ĠWars": 7784,
      "ĠPop": 7785,
      "ĠPoint": 7786,
      "ĠNight": 7787,
      "ĠOli": 7788,
      "ela": 7789,
      "Ġsufficient": 7790,
      "ART": 7791,
      "ĠIntern": 7792,
      "Ġfeast": 7793,
      "Ġending": 7794,
      "ĠSpir": 7795,
      "OULD": 7796,
      "Ġmurm": 7797,
      "Ġbanks": 7798,
      "Ġemployed": 7799,
      "Ġbehavior": 7800,
      "ĠAnton": 7801,
      "Ġachieved": 7802,
      "Ġfoolish": 7803,
      "Ġcurious": 7804,
      "ĠJennie": 7805,
      "fa": 7806,
      "vard": 7807,
      "eral": 7808,
      "Ġdu": 7809,
      "anny": 7810,
      "Ġhunt": 7811,
      "ĠBus": 7812,
      "Ġasks": 7813,
      "Ġashamed": 7814,
      "ĠNurse": 7815,
      "Ġvirt": 7816,
      "Ġarmed": 7817,
      "Ġtrunk": 7818,
      "Ġlets": 7819,
      "Ġfled": 7820,
      "Ġchalleng": 7821,
      "bef": 7822,
      "Ġreceiving": 7823,
      "ĠProd": 7824,
      "ĠChampionships": 7825,
      "Ġdoggy": 7826,
      "ĠGolden": 7827,
      "Ġaudience": 7828,
      "Ġtraditional": 7829,
      "Ġroute": 7830,
      "ĠChildren": 7831,
      "quarters": 7832,
      "ĠBundle": 7833,
      "GFA": 7834,
      "low": 7835,
      "oard": 7836,
      "Ġtiss": 7837,
      "orpor": 7838,
      "keys": 7839,
      "Ġ[\"": 7840,
      "Ġatmosp": 7841,
      "ĠLi": 7842,
      "umble": 7843,
      "ĠEnd": 7844,
      "istics": 7845,
      "Ġconstantly": 7846,
      "ĠConf": 7847,
      "Ġmercy": 7848,
      "Ġthrowing": 7849,
      "Ġidentify": 7850,
      "Ġanxiety": 7851,
      "Ġcandidate": 7852,
      "Cause": 7853,
      "tes": 7854,
      "Ġack": 7855,
      "Ġben": 7856,
      "Ġbark": 7857,
      "onel": 7858,
      "Ġincl": 7859,
      "ĠTay": 7860,
      "ĠWonder": 7861,
      "Ġnoted": 7862,
      "ĠNa": 7863,
      "ĠGulf": 7864,
      "ĠHead": 7865,
      "Ġprecise": 7866,
      "ysis": 7867,
      "Ġcolored": 7868,
      "Ġfollows": 7869,
      "ika": 7870,
      "Ġexpert": 7871,
      "ĠGuard": 7872,
      "nesota": 7873,
      "GRF": 7874,
      "ĠRepublican": 7875,
      "Ġabsor": 7876,
      "ĠSyrian": 7877,
      "Ġinitially": 7878,
      "ĠBetty": 7879,
      "Ġmos": 7880,
      "ĠKate": 7881,
      "Ġunits": 7882,
      "Ġsteal": 7883,
      "Ġorganized": 7884,
      "Ġviews": 7885,
      "Ġclaims": 7886,
      "Ġsexual": 7887,
      "vant": 7888,
      "ygen": 7889,
      "itated": 7890,
      "asters": 7891,
      "ĠSky": 7892,
      "ĠHard": 7893,
      "iform": 7894,
      "ĠStr": 7895,
      "Ġflash": 7896,
      "ulls": 7897,
      "Ġwaved": 7898,
      "Ġacad": 7899,
      "Ġfarmer": 7900,
      "ĠAdd": 7901,
      "ĠGrace": 7902,
      "-looking": 7903,
      "Ġhorseshoe": 7904,
      "Ġfeaturing": 7905,
      "keeper": 7906,
      "ĠHeaven": 7907,
      "',": 7908,
      "Ġdiet": 7909,
      "ĠIan": 7910,
      "Ġgum": 7911,
      "Ġgang": 7912,
      "ĠCaterpillar": 7913,
      "ĠWalk": 7914,
      "unn": 7915,
      "ĠOH": 7916,
      "ints": 7917,
      "Ġcomposed": 7918,
      "Ġcharged": 7919,
      "Ġstronger": 7920,
      "kesp": 7921,
      "ĠRepresent": 7922,
      "force": 7923,
      "Ġidentity": 7924,
      "Ġclimbed": 7925,
      "Ġadopted": 7926,
      "Ġromantic": 7927,
      ".A": 7928,
      "win": 7929,
      "Ġdining": 7930,
      "Ġdirt": 7931,
      "oti": 7932,
      "ĠARE": 7933,
      "ĠPoor": 7934,
      "unting": 7935,
      "ĠJUST": 7936,
      "estic": 7937,
      "Ġexceed": 7938,
      "orney": 7939,
      "atherine": 7940,
      "Ġremo": 7941,
      "mann": 7942,
      "Ġslaves": 7943,
      "Ġmothers": 7944,
      "Ġretire": 7945,
      "Ġimpati": 7946,
      "Ġstops": 7947,
      "OUT": 7948,
      "Ġdeaths": 7949,
      "ĠMinnesota": 7950,
      "Ġvisitors": 7951,
      "Ġwhispers": 7952,
      "ĠDaniel": 7953,
      "ĠAldworth": 7954,
      "ĠBetween": 7955,
      "Ġfolks": 7956,
      "oscow": 7957,
      "ĠOffice": 7958,
      "Ġmicrophone": 7959,
      "Ġconcluded": 7960,
      "Ġmiserable": 7961,
      "Ġnibbled": 7962,
      "ĠOliver": 7963,
      ".--": 7964,
      "MB": 7965,
      "To": 7966,
      "giving": 7967,
      "Ġwire": 7968,
      "ito": 7969,
      "Ġcries": 7970,
      "Ġmac": 7971,
      "ĠAB": 7972,
      "ĠCa": 7973,
      "Ġsector": 7974,
      "ĠRaj": 7975,
      "aka": 7976,
      "Ġguide": 7977,
      "Ġcoin": 7978,
      "Ġdesired": 7979,
      "Ġkindly": 7980,
      "Ġassault": 7981,
      "Ġsolution": 7982,
      "Ġdemocr": 7983,
      "inois": 7984,
      "ĠOxfordshire": 7985,
      "Ġeconomy": 7986,
      "Ġdegrees": 7987,
      "Ġemergency": 7988,
      "Ġearnest": 7989,
      "Ġfarther": 7990,
      "bow": 7991,
      "contin": 7992,
      "vo": 7993,
      "zed": 7994,
      "Ġward": 7995,
      "lling": 7996,
      "idays": 7997,
      "ĠMoscow": 7998,
      "Ġsocks": 7999,
      "Ġcann": 8000,
      "ĠLuke": 8001,
      "ĠVal": 8002,
      "Ġcommission": 8003,
      "Ġsticking": 8004,
      "Ġvalu": 8005,
      "ffici": 8006,
      "Ġdelightful": 8007,
      "Ġyelling": 8008,
      "Ġoccasionally": 8009,
      "/Mac": 8010,
      "Ġvotes": 8011,
      "ĠIllinois": 8012,
      "'M": 8013,
      "Al": 8014,
      "tained": 8015,
      "Ġbore": 8016,
      "arms": 8017,
      "Ġlaughter": 8018,
      "Ġthirst": 8019,
      "entially": 8020,
      "stream": 8021,
      "Ġintegr": 8022,
      "Ġwrites": 8023,
      "Ġimages": 8024,
      "Ġapparently": 8025,
      "neath": 8026,
      "Ġmayor": 8027,
      "Ġslip": 8028,
      "Ġshower": 8029,
      "encies": 8030,
      "Ġconscious": 8031,
      "ĠReport": 8032,
      "-law": 8033,
      "Ġadmitted": 8034,
      "Ġsecretary": 8035,
      "Ġexperienced": 8036,
      "Ġbasis": 8037,
      "Ġurban": 8038,
      "ĠBerlin": 8039,
      "Ġadventure": 8040,
      "Ġnearer": 8041,
      "ĠMuslim": 8042,
      "Ġshopping": 8043,
      "kespeare": 8044,
      "Ġfox": 8045,
      "Ġforb": 8046,
      "Ġaspect": 8047,
      "Ġhers": 8048,
      "Ġpartners": 8049,
      "Ġchannels": 8050,
      "ĠDev": 8051,
      "ĠClara": 8052,
      "Ġreflect": 8053,
      "ologist": 8054,
      "Ġconfident": 8055,
      "Ġsounded": 8056,
      "Ġchairs": 8057,
      "scream": 8058,
      "Ġcapture": 8059,
      "ĠPrize": 8060,
      "Ġacknow": 8061,
      "/BR": 8062,
      "yellow": 8063,
      "Ġyield": 8064,
      "ashes": 8065,
      "ĠTry": 8066,
      "ĠSn": 8067,
      "imal": 8068,
      "Ġstared": 8069,
      "Ġjeal": 8070,
      "igan": 8071,
      "ĠAndy": 8072,
      "Ġunhappy": 8073,
      "Ġafterward": 8074,
      "Ġchildhood": 8075,
      "ĠAlan": 8076,
      "Ġtrail": 8077,
      "Ġexpressed": 8078,
      "aughters": 8079,
      "Ġeffective": 8080,
      "ĠDesmond": 8081,
      "Ġnaturally": 8082,
      "ĠWales": 8083,
      "ĠMexican": 8084,
      "Ã³n": 8085,
      "Ġargument": 8086,
      "Ġprospect": 8087,
      "ĠFootball": 8088,
      "When": 8089,
      "__": 8090,
      "iac": 8091,
      "Ġcateg": 8092,
      "Ġmock": 8093,
      "Ġtoast": 8094,
      "Ġlau": 8095,
      "ĠDam": 8096,
      "ĠRun": 8097,
      "ĠRangers": 8098,
      "ĠVo": 8099,
      "izations": 8100,
      "Ġtrains": 8101,
      "ĠAfghan": 8102,
      "alem": 8103,
      "ĠIndeed": 8104,
      "ĠBenj": 8105,
      "ĠAmong": 8106,
      "Ġanticip": 8107,
      "ĠHelen": 8108,
      "talking": 8109,
      "Ġlaunched": 8110,
      "gle": 8111,
      "heim": 8112,
      "Ġobey": 8113,
      "Ġcamps": 8114,
      "ĠMod": 8115,
      "ĠWoo": 8116,
      "ĠDON": 8117,
      "Ġsheet": 8118,
      "ĠOrd": 8119,
      "ĠJa": 8120,
      "Ġshove": 8121,
      "Ġtricks": 8122,
      "Ġletting": 8123,
      "Ġgrateful": 8124,
      "Ġunw": 8125,
      "ĠSpencer": 8126,
      "Ġsubm": 8127,
      "Ġextended": 8128,
      "Ġexplan": 8129,
      "Ġsquir": 8130,
      "Ġdifficulty": 8131,
      "Ġinjured": 8132,
      "ĠPortugal": 8133,
      "Ġcitizens": 8134,
      "ĠKNOW": 8135,
      "'RE": 8136,
      "/ER": 8137,
      "Bill": 8138,
      "mod": 8139,
      "Ġreference": 8140,
      "adium": 8141,
      "Ġstress": 8142,
      "ĠHolly": 8143,
      "alling": 8144,
      "ĠDNA": 8145,
      "ĠOs": 8146,
      "ophy": 8147,
      "Ġspots": 8148,
      "Ġgrade": 8149,
      "Ġchanging": 8150,
      "Ġcheap": 8151,
      "Ġretreat": 8152,
      "Ġsites": 8153,
      "Ġclasses": 8154,
      "comune": 8155,
      "Ġengage": 8156,
      "Ġorganis": 8157,
      "Ġgenu": 8158,
      "ĠCentre": 8159,
      "Ġbarely": 8160,
      "Ġbrilliant": 8161,
      "bell": 8162,
      "vet": 8163,
      "Ġwolf": 8164,
      "Ġcord": 8165,
      "Ġdomin": 8166,
      "ington": 8167,
      "eness": 8168,
      "ali": 8169,
      "ĠScience": 8170,
      "iments": 8171,
      "ĠPier": 8172,
      "Ġsauce": 8173,
      "ockey": 8174,
      "Ġmole": 8175,
      "ulture": 8176,
      "Ġbeds": 8177,
      "Ġcollabor": 8178,
      "ĠFloss": 8179,
      "Ġprotected": 8180,
      "Ġissued": 8181,
      "Ġdisappointed": 8182,
      "Ġutil": 8183,
      "Ġfunds": 8184,
      "ĠHurry": 8185,
      "Did": 8186,
      "PA": 8187,
      "bar": 8188,
      "cream": 8189,
      "wan": 8190,
      "inian": 8191,
      "only": 8192,
      "Ġlit": 8193,
      "alu": 8194,
      "ĠCur": 8195,
      "ĠGriff": 8196,
      "ĠFriend": 8197,
      "Ġrhy": 8198,
      "Ġrates": 8199,
      "Ġoffering": 8200,
      "ollo": 8201,
      "ĠWere": 8202,
      "Ġcarpet": 8203,
      "Ġsets": 8204,
      "Ġsurvey": 8205,
      "Ġpassion": 8206,
      "ĠNews": 8207,
      "Ġcharges": 8208,
      "Ġsubs": 8209,
      "Ġhated": 8210,
      "ouncill": 8211,
      "ĠCarle": 8212,
      "Ġportion": 8213,
      "Ġsubjects": 8214,
      "Ġpossibility": 8215,
      "----------------": 8216,
      "Ġpermission": 8217,
      "Ah": 8218,
      "Ġfo": 8219,
      "ĠAuthor": 8220,
      "teries": 8221,
      "Ġgolf": 8222,
      "ĠFat": 8223,
      "osity": 8224,
      "Ġplot": 8225,
      "Ġprob": 8226,
      "ĠUP": 8227,
      "ĠUnt": 8228,
      "ĠStella": 8229,
      "Ġprices": 8230,
      "Ġresulting": 8231,
      "ports": 8232,
      "Ġache": 8233,
      "Ġsixth": 8234,
      "Ġmathem": 8235,
      "chair": 8236,
      "Ġcollea": 8237,
      "ĠLooks": 8238,
      "Ġconstructed": 8239,
      "Ġpresidential": 8240,
      "Ġadmir": 8241,
      "Ġfavourite": 8242,
      "ĠBasil": 8243,
      "Ġgranted": 8244,
      "Ġjealous": 8245,
      "Ġgenuine": 8246,
      "pher": 8247,
      "turns": 8248,
      "Ġtalent": 8249,
      "reck": 8250,
      "Ġmood": 8251,
      "illing": 8252,
      "anta": 8253,
      "ĠRIGHT": 8254,
      "Ġjail": 8255,
      "ulpt": 8256,
      "ogue": 8257,
      "gets": 8258,
      "Ġheading": 8259,
      "Ġassumed": 8260,
      "standing": 8261,
      "Ġpuppy": 8262,
      "Ġcleaning": 8263,
      "Ġheavily": 8264,
      "Ġsatisfied": 8265,
      "ĠForest": 8266,
      "Ġinhabit": 8267,
      "Ġillegal": 8268,
      "Yeah": 8269,
      "Ġnah": 8270,
      "child": 8271,
      "ĠFederal": 8272,
      "orders": 8273,
      "Ġprince": 8274,
      "Ġunderneath": 8275,
      "Ġrelie": 8276,
      "Ġminds": 8277,
      "ĠMayor": 8278,
      "ĠWithout": 8279,
      "Ġconstant": 8280,
      "Ġdeveloping": 8281,
      "ĠPlan": 8282,
      "Ġvariety": 8283,
      "Ġringing": 8284,
      "ĠGreater": 8285,
      "Ġdisappear": 8286,
      "Ġï¿½ï¿½ï¿½ï¿½ï¿½ï¿½ï¿½": 8287,
      "Ġoxygen": 8288,
      "ĠDirector": 8289,
      "Ġwebsite": 8290,
      "ĠBavaria": 8291,
      "rigerator": 8292,
      "!--": 8293,
      "Ch": 8294,
      "LI": 8295,
      "ND": 8296,
      "Ġtan": 8297,
      "Ġwoke": 8298,
      "Ġtherap": 8299,
      "erving": 8300,
      "Ġcou": 8301,
      "Ġcig": 8302,
      "Ġmild": 8303,
      "Ġmama": 8304,
      "Ġpul": 8305,
      "Ġbeep": 8306,
      "ĠMem": 8307,
      "ĠHoo": 8308,
      "ĠHER": 8309,
      "ĠDE": 8310,
      "ifying": 8311,
      "Ġuncom": 8312,
      "Ġcompar": 8313,
      "Ġobtained": 8314,
      "theless": 8315,
      "Ġproviding": 8316,
      "Ġcreation": 8317,
      "Ġclothing": 8318,
      "Ġattempting": 8319,
      "Ġmaintain": 8320,
      "cipal": 8321,
      "Ġsacrif": 8322,
      "aurs": 8323,
      "uge": 8324,
      "zes": 8325,
      "Ġmice": 8326,
      "Ġdial": 8327,
      "aned": 8328,
      "atures": 8329,
      "Ġnonsense": 8330,
      "aly": 8331,
      "Ġseal": 8332,
      "Ġven": 8333,
      "Ġcommit": 8334,
      "Ġgrape": 8335,
      "EST": 8336,
      "ĠIndepend": 8337,
      "Ġreply": 8338,
      "Ġleads": 8339,
      "Ġrivers": 8340,
      "ĠShakespeare": 8341,
      "Ġdetail": 8342,
      "Ġactivist": 8343,
      "Ġruler": 8344,
      "Ġeagerly": 8345,
      "Ġliterature": 8346,
      "ĠReliance": 8347,
      "Ġhammer": 8348,
      "ĠMelissa": 8349,
      "Ġbronze": 8350,
      "-N": 8351,
      "EO": 8352,
      "rical": 8353,
      "sylvania": 8354,
      "uj": 8355,
      "Ġfuel": 8356,
      "Ġlately": 8357,
      "leg": 8358,
      "oting": 8359,
      "ĠSon": 8360,
      "ĠMans": 8361,
      "ĠHmm": 8362,
      "ĠHamps": 8363,
      "ĠPL": 8364,
      "ĠNorthern": 8365,
      "Ġshed": 8366,
      "aval": 8367,
      "upid": 8368,
      "Ġstrict": 8369,
      "Ġmarch": 8370,
      "Ġdrift": 8371,
      "Ġanimated": 8372,
      "Ġwinner": 8373,
      "Ġofficially": 8374,
      "Ġparliament": 8375,
      "Ġannual": 8376,
      "ĠRussians": 8377,
      "REAM": 8378,
      "Ġtouching": 8379,
      "Ġdawn": 8380,
      "Ġdirections": 8381,
      "Ã¡n": 8382,
      "Ġfeatured": 8383,
      "Ġprepare": 8384,
      "Ġthreatened": 8385,
      "Ġintelligence": 8386,
      "Ġfierce": 8387,
      "ĠGeorgia": 8388,
      "ĠHampshire": 8389,
      "-man": 8390,
      "Ġloyal": 8391,
      "atics": 8392,
      "Ġinfection": 8393,
      "Ġinsect": 8394,
      "ĠSel": 8395,
      "ĠAyl": 8396,
      "Ġweb": 8397,
      "Ġseasons": 8398,
      "Ġcomedy": 8399,
      "Ġintention": 8400,
      "venge": 8401,
      "Ġchamber": 8402,
      "Ġacted": 8403,
      "Ġboyfriend": 8404,
      "Ġdrain": 8405,
      "Ġsunshine": 8406,
      "who": 8407,
      "coming": 8408,
      "Ġstatus": 8409,
      "Ġmuscles": 8410,
      "hetti": 8411,
      "Ġinjury": 8412,
      "ĠMilan": 8413,
      "Ġparticipated": 8414,
      "ĠBarbara": 8415,
      "Ġconclusion": 8416,
      "NON": 8417,
      "cript": 8418,
      "Ġbent": 8419,
      "itable": 8420,
      "orial": 8421,
      "Ġlamb": 8422,
      "ĠBart": 8423,
      "ĠRub": 8424,
      "ĠLau": 8425,
      "Ġvice": 8426,
      "Ġdisag": 8427,
      "Ġslave": 8428,
      "Ġfounder": 8429,
      "whines": 8430,
      "ĠEmily": 8431,
      "Ġlimit": 8432,
      "Ġcommanded": 8433,
      "ĠJenny": 8434,
      "Ġsurrounded": 8435,
      "Ġthoroughly": 8436,
      "ĠWrestling": 8437,
      "ĠTaylor": 8438,
      "UE": 8439,
      "belt": 8440,
      "rated": 8441,
      "inction": 8442,
      "Ġbay": 8443,
      "ĠMuseum": 8444,
      "ĠBol": 8445,
      "ĠDog": 8446,
      "ĠGre": 8447,
      "ĠJr": 8448,
      "ardo": 8449,
      "Ġsche": 8450,
      "Ġmetres": 8451,
      "Ġfriendship": 8452,
      "ĠJanet": 8453,
      "Ġgrandma": 8454,
      "GRM": 8455,
      "ĠMean": 8456,
      "Ġresemb": 8457,
      "Ġconsiderable": 8458,
      "Ġencount": 8459,
      "Ġmassive": 8460,
      "Ġnormally": 8461,
      "Ġadults": 8462,
      "Ġrescue": 8463,
      "Ġthirteen": 8464,
      "ĠBenjamin": 8465,
      "rac": 8466,
      "rad": 8467,
      "Ġing": 8468,
      "ĠHIS": 8469,
      "Ġtent": 8470,
      "Ġfires": 8471,
      "enger": 8472,
      "Ġhid": 8473,
      "ĠTa": 8474,
      "ĠAmb": 8475,
      "acity": 8476,
      "Ġstolen": 8477,
      "ifer": 8478,
      "ĠRi": 8479,
      "ĠKu": 8480,
      "Ġpecul": 8481,
      "Ġoffers": 8482,
      "ĠSociety": 8483,
      "Ġrecover": 8484,
      "ĠTHERE": 8485,
      "Ġmistress": 8486,
      "Ġaffairs": 8487,
      "Ġemerged": 8488,
      "Ġpunishment": 8489,
      "Ġmethods": 8490,
      "Ġconstitu": 8491,
      "ĠUkraine": 8492,
      "Ġpeculiar": 8493,
      "bly": 8494,
      "Ġaye": 8495,
      "erk": 8496,
      "Ġfed": 8497,
      "ario": 8498,
      "Ġinaug": 8499,
      "ĠBell": 8500,
      "Ġath": 8501,
      "ĠLight": 8502,
      "Ġpepper": 8503,
      "ordan": 8504,
      "Ġflies": 8505,
      "Ġenthus": 8506,
      "Ġharder": 8507,
      "ĠChristopher": 8508,
      "Ġbearing": 8509,
      "Ġattempts": 8510,
      "Ġbreathing": 8511,
      "Ġvanished": 8512,
      "hands": 8513,
      "Ġunusual": 8514,
      "ĠPennsylvania": 8515,
      "ĠAylmer": 8516,
      "Ġencountered": 8517,
      "ĠAub": 8518,
      "ĠPerson": 8519,
      "ĠGET": 8520,
      "ĠFestival": 8521,
      "hia": 8522,
      "ferences": 8523,
      "agers": 8524,
      "Ġpretending": 8525,
      "Ġeighteen": 8526,
      "Ġdelicate": 8527,
      "Ġsituated": 8528,
      "Ġworthy": 8529,
      "ĠHungary": 8530,
      "Ġinquired": 8531,
      "Ġshells": 8532,
      "Ġjournalist": 8533,
      "Ġfeathers": 8534,
      "Ġatmosphere": 8535,
      "Ġvaluable": 8536,
      "Billboard": 8537,
      "SC": 8538,
      "ares": 8539,
      "chers": 8540,
      "Ġtales": 8541,
      "Ġfare": 8542,
      "Ġfeared": 8543,
      "enly": 8544,
      "arant": 8545,
      "omi": 8546,
      "Ġhom": 8547,
      "rific": 8548,
      "ĠBurg": 8549,
      "ĠPass": 8550,
      "ĠNich": 8551,
      "ĠFle": 8552,
      "Ġdeer": 8553,
      "ĠLib": 8554,
      "Ġspider": 8555,
      "Ġprime": 8556,
      "Ġcompre": 8557,
      "Ġperman": 8558,
      "Ġemot": 8559,
      "Ġawesome": 8560,
      "ĠLeg": 8561,
      "Ġdelivered": 8562,
      "Ġpotato": 8563,
      "Ġcompanions": 8564,
      "Ġcheerful": 8565,
      "burgh": 8566,
      "ĠFilm": 8567,
      "gasps": 8568,
      "bing": 8569,
      "cri": 8570,
      "lon": 8571,
      "net": 8572,
      "anes": 8573,
      "Ġec": 8574,
      "Ġstations": 8575,
      "ĠBBC": 8576,
      "agon": 8577,
      "IST": 8578,
      "Ġcricket": 8579,
      "Ġsurre": 8580,
      "Ġcolour": 8581,
      "ĠDef": 8582,
      "Ġdragon": 8583,
      "Ġamongst": 8584,
      "Ġstruct": 8585,
      "ĠSeven": 8586,
      "Ġstatue": 8587,
      "Ġindependence": 8588,
      "Ġsolemn": 8589,
      "OOK": 8590,
      "Ġproceeded": 8591,
      "ĠStephen": 8592,
      "vation": 8593,
      "Ġcows": 8594,
      "Ġdaughters": 8595,
      "ĠTour": 8596,
      "ĠMi": 8597,
      "alls": 8598,
      "ĠOffic": 8599,
      "oples": 8600,
      "Ġshh": 8601,
      "eling": 8602,
      "Ġspy": 8603,
      "Ġspray": 8604,
      "agger": 8605,
      "Ġages": 8606,
      "Ġappropriate": 8607,
      "ĠNewman": 8608,
      "ĠArts": 8609,
      "Ġsyll": 8610,
      "oked": 8611,
      "Ġlandsc": 8612,
      "Ġconfused": 8613,
      "ĠTrust": 8614,
      "Ġpurse": 8615,
      "Ġrolled": 8616,
      "Ġprofession": 8617,
      "Ġelections": 8618,
      "Ġpacked": 8619,
      "ĠÃĸ": 8620,
      "ĠBobby": 8621,
      "Ġfolk": 8622,
      "Ġgaze": 8623,
      "JAK": 8624,
      "bes": 8625,
      "nis": 8626,
      "Ġsession": 8627,
      "nded": 8628,
      "Ġpowder": 8629,
      "enters": 8630,
      "amas": 8631,
      "Ġseeds": 8632,
      "ĠRac": 8633,
      "ĠEp": 8634,
      "Ġshining": 8635,
      "osure": 8636,
      "Ġenorm": 8637,
      "Ġbelt": 8638,
      "Ġnights": 8639,
      "Ġphr": 8640,
      "Ġyoungest": 8641,
      "ĠDeath": 8642,
      "Ġdepos": 8643,
      "Ġawfully": 8644,
      "ĠLeave": 8645,
      "Ġholidays": 8646,
      "Ġnursery": 8647,
      "Ġaltogether": 8648,
      "Ġstacked": 8649,
      "Ġcanton": 8650,
      "Ġrestaurant": 8651,
      "uv": 8652,
      "Ã±": 8653,
      "inity": 8654,
      "ithe": 8655,
      "edge": 8656,
      "Ġlod": 8657,
      "ĠTon": 8658,
      "utation": 8659,
      "ĠMouse": 8660,
      "ĠDie": 8661,
      "ĠDuck": 8662,
      "orne": 8663,
      "Ġguid": 8664,
      "cling": 8665,
      "ultural": 8666,
      "teenth": 8667,
      "arson": 8668,
      "Ġobst": 8669,
      "Ġpolite": 8670,
      "Ġfoods": 8671,
      "Ġdressing": 8672,
      "Ġclassroom": 8673,
      "Ġcalcul": 8674,
      "Ġenjoying": 8675,
      "Ġpractical": 8676,
      "Ġscheme": 8677,
      ",and": 8678,
      "iat": 8679,
      "tons": 8680,
      "Ġbree": 8681,
      "Ġreject": 8682,
      "ooke": 8683,
      "Ġstem": 8684,
      "ĠWr": 8685,
      "Ġnodd": 8686,
      "Ġrum": 8687,
      "osh": 8688,
      "Ġconven": 8689,
      "Ġspeaks": 8690,
      "ĠStay": 8691,
      "Ġscat": 8692,
      "Ġscrap": 8693,
      "Ġhousehold": 8694,
      "Ġpersons": 8695,
      "Ġinvite": 8696,
      "Ġpops": 8697,
      "ĠWhoa": 8698,
      "Ġsummon": 8699,
      "ĠColin": 8700,
      "ederation": 8701,
      "Ġfeeding": 8702,
      "Ġfarmers": 8703,
      "Ġspecifically": 8704,
      "lendar": 8705,
      "/MT": 8706,
      "Ġbacter": 8707,
      "Ġnominated": 8708,
      "ĠSpirit": 8709,
      "fire": 8710,
      "ients": 8711,
      "Ġtheat": 8712,
      "rep": 8713,
      "nda": 8714,
      "Ġfits": 8715,
      "Ġbee": 8716,
      "ĠCivil": 8717,
      "ĠRuth": 8718,
      "ĠLew": 8719,
      "Ġrude": 8720,
      "Ġaloud": 8721,
      "ĠJO": 8722,
      "elp": 8723,
      "Ġwhereas": 8724,
      "Ġroot": 8725,
      "Ġsculpt": 8726,
      "Ġumbre": 8727,
      "Ġacid": 8728,
      "Ġaccur": 8729,
      "Ġcleared": 8730,
      "Ġmarbles": 8731,
      "Ġskill": 8732,
      "-based": 8733,
      "Ġoperating": 8734,
      "Ġimproved": 8735,
      "ĠJimmy": 8736,
      "shakes": 8737,
      "Ġemphas": 8738,
      "Ġdesperate": 8739,
      "ĠLieutenant": 8740,
      "ĠUntil": 8741,
      "&gt": 8742,
      "Are": 8743,
      "lace": 8744,
      "rum": 8745,
      "Ġsan": 8746,
      "Ġbond": 8747,
      "ĠBall": 8748,
      "ĠBab": 8749,
      "ĠNE": 8750,
      "unte": 8751,
      "geant": 8752,
      "ths": 8753,
      "olk": 8754,
      "Ġshy": 8755,
      "ements": 8756,
      "ĠValley": 8757,
      "ĠSoon": 8758,
      "Ġmonarch": 8759,
      "rows": 8760,
      "Ġmarble": 8761,
      "Ġdiscovery": 8762,
      "Ġaddressed": 8763,
      "Ġcenturies": 8764,
      "-by": 8765,
      "Ġbottles": 8766,
      "ĠHarvard": 8767,
      "Ġmistakes": 8768,
      "Ġwhisper": 8769,
      "Ġhopes": 8770,
      "ĠPoland": 8771,
      "Ġidentified": 8772,
      "Ġshelter": 8773,
      "Ġconvinced": 8774,
      "ĠBrennan": 8775,
      "Ġta": 8776,
      "Ġwishes": 8777,
      "oto": 8778,
      "ĠTilly": 8779,
      "ĠMAN": 8780,
      "ĠCre": 8781,
      "ĠCON": 8782,
      "ĠBunny": 8783,
      "Ġ\"'": 8784,
      "ĠFerg": 8785,
      "ĠJay": 8786,
      "ighed": 8787,
      "Ġproced": 8788,
      "Ġunex": 8789,
      "ĠIslands": 8790,
      "Ġswitch": 8791,
      "Ġsixteen": 8792,
      "Ġfacts": 8793,
      "Ġceased": 8794,
      "Ġdebate": 8795,
      "Ġrecommend": 8796,
      "Ġphase": 8797,
      "Just": 8798,
      "LIN": 8799,
      "Ġcough": 8800,
      "Ġdign": 8801,
      "ĠAut": 8802,
      "Ġreaction": 8803,
      "ĠMust": 8804,
      "ĠWWE": 8805,
      "Ġsequ": 8806,
      "Ġnephe": 8807,
      "ĠFer": 8808,
      "Ġacts": 8809,
      "Ġindign": 8810,
      "Ġload": 8811,
      "Ġcuts": 8812,
      "Ġsteam": 8813,
      "Ġlouder": 8814,
      "Ġphoto": 8815,
      "ĠBooth": 8816,
      "Ġsurvive": 8817,
      "Ġbasketball": 8818,
      "Ġsatisfaction": 8819,
      "ĠIsraeli": 8820,
      "incol": 8821,
      "Ġdivorce": 8822,
      "Ġnephew": 8823,
      "-hand": 8824,
      ".D": 8825,
      "ext": 8826,
      "fish": 8827,
      "iques": 8828,
      "mhm": 8829,
      "Ġtad": 8830,
      "Ġcooper": 8831,
      "Ġpoured": 8832,
      "ĠLiber": 8833,
      "emed": 8834,
      "quis": 8835,
      "Ġtheme": 8836,
      "aks": 8837,
      "Ġthrust": 8838,
      "izz": 8839,
      "Ġcompelled": 8840,
      "Ġrage": 8841,
      "Ġkindness": 8842,
      "pected": 8843,
      "Ġchairman": 8844,
      "ĠConn": 8845,
      "ĠPolish": 8846,
      "Ġpossession": 8847,
      "Ġmaintained": 8848,
      "ĠFlossie": 8849,
      "Thank": 8850,
      "west": 8851,
      "inent": 8852,
      "Ġsadd": 8853,
      "Ġcage": 8854,
      "iser": 8855,
      "Ġmile": 8856,
      "ĠIce": 8857,
      "orse": 8858,
      "Ġnations": 8859,
      "ĠTha": 8860,
      "ĠTok": 8861,
      "Ġreform": 8862,
      "ĠMP": 8863,
      "ĠNonna": 8864,
      "Ġjam": 8865,
      "Ġsuicide": 8866,
      "ĠInstead": 8867,
      "Ġgrat": 8868,
      "Ġcalendar": 8869,
      "Ġregional": 8870,
      "ĠChair": 8871,
      "zech": 8872,
      "Ġstrongly": 8873,
      "Ġicecream": 8874,
      "ĠDora": 8875,
      "Ġrecognition": 8876,
      "ynasty": 8877,
      "Ġwidely": 8878,
      "Ġimmense": 8879,
      "ĠRegion": 8880,
      "Ġdinosaurs": 8881,
      "Ġterritory": 8882,
      "ĠSpecial": 8883,
      "ĠResearch": 8884,
      "respond": 8885,
      "phan": 8886,
      "uzz": 8887,
      "Ġsore": 8888,
      "Ġowe": 8889,
      "Ġfuss": 8890,
      "lly": 8891,
      "icians": 8892,
      "Ġecho": 8893,
      "ĠAD": 8894,
      "Ġstool": 8895,
      "Ġstupid": 8896,
      "ĠHospital": 8897,
      "ĠRimb": 8898,
      "ĠFind": 8899,
      "inking": 8900,
      "ĠUr": 8901,
      "Ġtract": 8902,
      "ĠStat": 8903,
      "ĠStart": 8904,
      "ĠVill": 8905,
      "Ġguarant": 8906,
      "âĢĻve": 8907,
      "Ġobtain": 8908,
      "Ġgrab": 8909,
      "Ġgrain": 8910,
      "Ġstays": 8911,
      "Ġinstantly": 8912,
      "Ġpointing": 8913,
      "urious": 8914,
      "Ġimagined": 8915,
      "Ġgradually": 8916,
      "ĠRyan": 8917,
      "ĠScarfe": 8918,
      "ĠTurkish": 8919,
      "ĠColumbia": 8920,
      "ĠPictures": 8921,
      "ĠInternet": 8922,
      "Brian": 8923,
      "GE": 8924,
      "KID": 8925,
      "down": 8926,
      "ras": 8927,
      "Ġcam": 8928,
      "Ġmars": 8929,
      "Ġnarr": 8930,
      "rily": 8931,
      "stance": 8932,
      "ĠHit": 8933,
      "ĠPak": 8934,
      "ĠGiven": 8935,
      "Ġgoods": 8936,
      "Ġuniform": 8937,
      "Ġcheek": 8938,
      "Ġmarched": 8939,
      "Ġimpression": 8940,
      "Ġdepend": 8941,
      "Ġmistaken": 8942,
      "Ġneighbour": 8943,
      "adesh": 8944,
      "black": 8945,
      "Ġsignificantly": 8946,
      "Ġclimbing": 8947,
      "ĠSpani": 8948,
      "arrass": 8949,
      "Donald": 8950,
      "ĠCambridge": 8951,
      "aunton": 8952,
      "ĠRoger": 8953,
      "As": 8954,
      "Can": 8955,
      "hab": 8956,
      "Ġmental": 8957,
      "Ġdates": 8958,
      "Ġtoe": 8959,
      "Ġtool": 8960,
      "Ġnaught": 8961,
      "acious": 8962,
      "ĠMoon": 8963,
      "ĠHand": 8964,
      "eau": 8965,
      "ĠPost": 8966,
      "ĠYo": 8967,
      "umph": 8968,
      "Ġsale": 8969,
      "Ġouter": 8970,
      "aghetti": 8971,
      "Ġpartly": 8972,
      "Ġpronounced": 8973,
      "Ġcounting": 8974,
      "Ġconsists": 8975,
      "Ġtriangle": 8976,
      "rogen": 8977,
      "reading": 8978,
      "Ġsquad": 8979,
      "ASE": 8980,
      "Ġequally": 8981,
      "Ġapplied": 8982,
      "Ġfaithful": 8983,
      "Ġevidently": 8984,
      "Ġscheduled": 8985,
      "Ġgalax": 8986,
      "Ġliquid": 8987,
      "igenous": 8988,
      "-J": 8989,
      "AC": 8990,
      "BI": 8991,
      "TV": 8992,
      "when": 8993,
      "Ġyards": 8994,
      "Ġpir": 8995,
      "Ġladder": 8996,
      "ĠToo": 8997,
      "ĠSkin": 8998,
      "ĠWant": 8999,
      "ustomed": 9000,
      "ĠRus": 9001,
      "olas": 9002,
      "Ġnowhere": 9003,
      "Ġtrace": 9004,
      "Ġhappily": 9005,
      "ĠDean": 9006,
      "Ġassess": 9007,
      "engu": 9008,
      "Ġeditor": 9009,
      "Ġinspired": 9010,
      "ĠTwenty": 9011,
      "ĠDrum": 9012,
      "Ġstopping": 9013,
      "Ġexisted": 9014,
      "OOD": 9015,
      "Ġprotein": 9016,
      "ĠArgentina": 9017,
      "?âĢĻ": 9018,
      "bal": 9019,
      "life": 9020,
      "rome": 9021,
      "Ġcas": 9022,
      "Ġdared": 9023,
      "Ġfasc": 9024,
      "arse": 9025,
      "ĠCop": 9026,
      "ĠCart": 9027,
      "ĠCross": 9028,
      "ĠDri": 9029,
      "ĠDale": 9030,
      "ĠOUT": 9031,
      "ĠGi": 9032,
      "ĠLincol": 9033,
      "Ġsaving": 9034,
      "Ġvig": 9035,
      "Ġtwin": 9036,
      "orted": 9037,
      "Ġdisg": 9038,
      "Ġdiscipl": 9039,
      "enses": 9040,
      "Ġglanced": 9041,
      "ĠDevelop": 9042,
      "Ġresting": 9043,
      "Ġrepair": 9044,
      "Ġofficials": 9045,
      "Ġpenn": 9046,
      "ĠCrown": 9047,
      "Ġinjuries": 9048,
      "Ġrailway": 9049,
      "Ġcommunities": 9050,
      "Ġgraduated": 9051,
      "Ġmunicipalities": 9052,
      "Ġacademic": 9053,
      "-the": 9054,
      "NE": 9055,
      "lar": 9056,
      "Ġwipe": 9057,
      "Ġpi": 9058,
      "Ġpoo": 9059,
      "Ġpapa": 9060,
      "Ġbegged": 9061,
      "ĠAP": 9062,
      "Ġweary": 9063,
      "ammy": 9064,
      "ĠBY": 9065,
      "una": 9066,
      "Ġsailed": 9067,
      "ĠJordan": 9068,
      "Ġvoted": 9069,
      "Ġentering": 9070,
      "Ġtransm": 9071,
      "Ġcurt": 9072,
      "ĠApollo": 9073,
      "flies": 9074,
      "Ġcousins": 9075,
      "Ġexecution": 9076,
      "Ġtribes": 9077,
      "ĠDougl": 9078,
      "Ġmeasures": 9079,
      "Ġvehicles": 9080,
      "Ġgoddess": 9081,
      "gins": 9082,
      "held": 9083,
      "Ġsou": 9084,
      "haw": 9085,
      "onent": 9086,
      "Ġhook": 9087,
      "ĠSister": 9088,
      "ĠAS": 9089,
      "iro": 9090,
      "ĠCelia": 9091,
      "ĠBrig": 9092,
      "ĠDear": 9093,
      "ĠGor": 9094,
      "ĠGall": 9095,
      "Ġpee": 9096,
      "Ġoverall": 9097,
      "Ġlegend": 9098,
      "ĠVien": 9099,
      "ĠChuck": 9100,
      "Ġattorney": 9101,
      "ilding": 9102,
      "thew": 9103,
      "Ġreduced": 9104,
      "Ġrefers": 9105,
      "Ġcrossing": 9106,
      "ĠSupp": 9107,
      "going": 9108,
      "ĠTurkey": 9109,
      "Ġassistance": 9110,
      "Ġextraord": 9111,
      "-American": 9112,
      "Ġblowing": 9113,
      "ĠJohan": 9114,
      "ĠScholarship": 9115,
      "Ġconcentration": 9116,
      "Ġnickel": 9117,
      "ĠGirls": 9118,
      "Ġabandoned": 9119,
      "Ġdescribe": 9120,
      "Ġdedicated": 9121,
      "ĠPacific": 9122,
      "Go": 9123,
      "col": 9124,
      "fers": 9125,
      "gro": 9126,
      "wick": 9127,
      "Ġtummy": 9128,
      "Ġske": 9129,
      "Ġcakes": 9130,
      "Ġmask": 9131,
      "inging": 9132,
      "Ġpunch": 9133,
      "Ġnort": 9134,
      "Ġnerve": 9135,
      "Ġthief": 9136,
      "vering": 9137,
      "ĠCD": 9138,
      "ĠCOM": 9139,
      "ĠWolf": 9140,
      "ĠRh": 9141,
      "Ġagric": 9142,
      "pless": 9143,
      "Ġunp": 9144,
      "rup": 9145,
      "ipes": 9146,
      "obile": 9147,
      "Ġexposed": 9148,
      "Ġoccurs": 9149,
      "Ġprofound": 9150,
      "ĠShall": 9151,
      "Ġbloody": 9152,
      "Ġtemporary": 9153,
      "Ġbags": 9154,
      "ĠTechn": 9155,
      "Ġoperations": 9156,
      "ĠAgent": 9157,
      "Ġembarrass": 9158,
      "Ġsearching": 9159,
      "ĠÂ¶": 9160,
      "Ġignor": 9161,
      "ĠSweet": 9162,
      "ĠRimbolt": 9163,
      "On": 9164,
      "gives": 9165,
      "may": 9166,
      "uper": 9167,
      "Ġoption": 9168,
      "Ġmamma": 9169,
      "Ġdea": 9170,
      "orf": 9171,
      "Ġpine": 9172,
      "usive": 9173,
      "ĠSad": 9174,
      "Ġstable": 9175,
      "riot": 9176,
      "ĠCzech": 9177,
      "ĠNin": 9178,
      "akers": 9179,
      "perial": 9180,
      "Ġneedle": 9181,
      "Ġopens": 9182,
      "Ġrestrict": 9183,
      "Ġdragged": 9184,
      "Ġadding": 9185,
      "Ġsneak": 9186,
      "Ġloving": 9187,
      "UNT": 9188,
      "Ġsoftware": 9189,
      "ĠSomebody": 9190,
      "Ġdreamed": 9191,
      "Ġreferring": 9192,
      "ĠHungarian": 9193,
      "Ġintroduce": 9194,
      "ĠMargot": 9195,
      "Ġvacation": 9196,
      "ĠBrazilian": 9197,
      "Ġlinked": 9198,
      "ĠIranian": 9199,
      "ĠDivision": 9200,
      "ĠDouglas": 9201,
      "-j": 9202,
      "-ter": 9203,
      "OL": 9204,
      "TP": 9205,
      "from": 9206,
      "kind": 9207,
      "pos": 9208,
      "ridge": 9209,
      "whel": 9210,
      "Ġtum": 9211,
      "Ġbits": 9212,
      "itter": 9213,
      "ĠId": 9214,
      "asm": 9215,
      "alo": 9216,
      "ĠSat": 9217,
      "ĠSnow": 9218,
      "Ġstern": 9219,
      "Ġugh": 9220,
      "ĠBA": 9221,
      "ĠBrand": 9222,
      "olve": 9223,
      "Ġexhib": 9224,
      "ĠStaunton": 9225,
      "aren": 9226,
      "iped": 9227,
[...]
