<pad>	0
<unk>	0
<s>	0
</s>	0
<mask>	0
<0x00>	0
<0x01>	0
<0x02>	0
<0x03>	0
<0x04>	0
<0x05>	0
<0x06>	0
<0x07>	0
<0x08>	0
<0x09>	0
<0x0A>	0
<0x0B>	0
<0x0C>	0
<0x0D>	0
<0x0E>	0
<0x0F>	0
<0x10>	0
<0x11>	0
<0x12>	0
<0x13>	0
<0x14>	0
<0x15>	0
<0x16>	0
<0x17>	0
<0x18>	0
<0x19>	0
<0x1A>	0
<0x1B>	0
<0x1C>	0
<0x1D>	0
<0x1E>	0
<0x1F>	0
<0x20>	0
<0x21>	0
<0x22>	0
<0x23>	0
<0x24>	0
<0x25>	0
<0x26>	0
<0x27>	0
<0x28>	0
<0x29>	0
<0x2A>	0
<0x2B>	0
<0x2C>	0
<0x2D>	0
<0x2E>	0
<0x2F>	0
<0x30>	0
<0x31>	0
<0x32>	0
<0x33>	0
<0x34>	0
<0x35>	0
<0x36>	0
<0x37>	0
<0x38>	0
<0x39>	0
<0x3A>	0
<0x3B>	0
<0x3C>	0
<0x3D>	0
<0x3E>	0
<0x3F>	0
<0x40>	0
<0x41>	0
<0x42>	0
<0x43>	0
<0x44>	0
<0x45>	0
<0x46>	0
<0x47>	0
<0x48>	0
<0x49>	0
<0x4A>	0
<0x4B>	0
<0x4C>	0
<0x4D>	0
<0x4E>	0
<0x4F>	0
<0x50>	0
<0x51>	0
<0x52>	0
<0x53>	0
<0x54>	0
<0x55>	0
<0x56>	0
<0x57>	0
<0x58>	0
<0x59>	0
<0x5A>	0
<0x5B>	0
<0x5C>	0
<0x5D>	0
<0x5E>	0
<0x5F>	0
<0x60>	0
<0x61>	0
<0x62>	0
<0x63>	0
<0x64>	0
<0x65>	0
<0x66>	0
<0x67>	0
<0x68>	0
<0x69>	0
<0x6A>	0
<0x6B>	0
<0x6C>	0
<0x6D>	0
<0x6E>	0
<0x6F>	0
<0x70>	0
<0x71>	0
<0x72>	0
<0x73>	0
<0x74>	0
<0x75>	0
<0x76>	0
<0x77>	0
<0x78>	0
<0x79>	0
<0x7A>	0
<0x7B>	0
<0x7C>	0
<0x7D>	0
<0x7E>	0
<0x7F>	0
<0x80>	0
<0x81>	0
<0x82>	0
<0x83>	0
<0x84>	0
<0x85>	0
<0x86>	0
<0x87>	0
<0x88>	0
<0x89>	0
<0x8A>	0
<0x8B>	0
<0x8C>	0
<0x8D>	0
<0x8E>	0
<0x8F>	0
<0x90>	0
<0x91>	0
<0x92>	0
<0x93>	0
<0x94>	0
<0x95>	0
<0x96>	0
<0x97>	0
<0x98>	0
<0x99>	0
<0x9A>	0
<0x9B>	0
<0x9C>	0
<0x9D>	0
<0x9E>	0
<0x9F>	0
<0xA0>	0
<0xA1>	0
<0xA2>	0
<0xA3>	0
<0xA4>	0
<0xA5>	0
<0xA6>	0
<0xA7>	0
<0xA8>	0
<0xA9>	0
<0xAA>	0
<0xAB>	0
<0xAC>	0
<0xAD>	0
<0xAE>	0
<0xAF>	0
<0xB0>	0
<0xB1>	0
<0xB2>	0
<0xB3>	0
<0xB4>	0
<0xB5>	0
<0xB6>	0
<0xB7>	0
<0xB8>	0
<0xB9>	0
<0xBA>	0
<0xBB>	0
<0xBC>	0
<0xBD>	0
<0xBE>	0
<0xBF>	0
<0xC0>	0
<0xC1>	0
<0xC2>	0
<0xC3>	0
<0xC4>	0
<0xC5>	0
<0xC6>	0
<0xC7>	0
<0xC8>	0
<0xC9>	0
<0xCA>	0
<0xCB>	0
<0xCC>	0
<0xCD>	0
<0xCE>	0
<0xCF>	0
<0xD0>	0
<0xD1>	0
<0xD2>	0
<0xD3>	0
<0xD4>	0
<0xD5>	0
<0xD6>	0
<0xD7>	0
<0xD8>	0
<0xD9>	0
<0xDA>	0
<0xDB>	0
<0xDC>	0
<0xDD>	0
<0xDE>	0
<0xDF>	0
<0xE0>	0
<0xE1>	0
<0xE2>	0
<0xE3>	0
<0xE4>	0
<0xE5>	0
<0xE6>	0
<0xE7>	0
<0xE8>	0
<0xE9>	0
<0xEA>	0
<0xEB>	0
<0xEC>	0
<0xED>	0
<0xEE>	0
<0xEF>	0
<0xF0>	0
<0xF1>	0
<0xF2>	0
<0xF3>	0
<0xF4>	0
<0xF5>	0
<0xF6>	0
<0xF7>	0
<0xF8>	0
<0xF9>	0
<0xFA>	0
<0xFB>	0
<0xFC>	0
<0xFD>	0
<0xFE>	0
<0xFF>	0
▁t	-0
he	-1
▁a	-2
in	-3
▁w	-4
▁the	-5
▁s	-6
ou	-7
re	-8
▁*	-9
▁o	-10
ha	-11
er	-12
nd	-13
▁b	-14
it	-15
is	-16
▁m	-17
▁c	-18
▁d	-19
on	-20
▁y	-21
▁f	-22
▁I	-23
ing	-24
▁to	-25
ll	-26
an	-27
or	-28
ed	-29
es	-30
en	-31
▁p	-32
▁you	-33
hat	-34
▁and	-35
▁l	-36
▁g	-37
HI	-38
ar	-39
CHI	-40
▁of	-41
▁n	-42
as	-43
OT	-44
MOT	-45
▁in	-46
at	-47
om	-48
▁he	-49
▁h	-50
ow	-51
ot	-52
le	-53
▁ha	-54
▁it	-55
et	-56
ay	-57
ic	-58
▁th	-59
ve	-60
▁on	-61
▁that	-62
▁T	-63
us	-64
id	-65
gh	-66
▁be	-67
▁S	-68
▁=	-69
al	-70
▁A	-71
▁is	-72
▁e	-73
▁was	-74
ld	-75
ut	-76
▁we	-77
▁M	-78
..	-79
oo	-80
ver	-81
im	-82
ac	-83
ke	-84
ad	-85
▁re	-86
ri	-87
▁[	-88
▁W	-89
▁for	-90
ent	-91
ir	-92
▁C	-93
▁u	-94
ght	-95
▁st	-96
▁do	-97
ion	-98
se	-99
am	-100
▁H	-101
ly	-102
▁B	-103
st	-104
▁k	-105
ro	-106
out	-107
▁me	-108
▁"	-109
ith	-110
her	-111
▁what	-112
▁wh	-113
▁an	-114
▁with	-115
▁The	-116
ea	-117
ome	-118
all	-119
ur	-120
▁li	-121
▁se	-122
ch	-123
▁at	-124
▁as	-125
ill	-126
ter	-127
▁go	-128
▁not	-129
▁this	-130
▁Y	-131
ould	-132
▁have	-133
ce	-134
▁D	-135
▁P	-136
AT	-137
▁kn	-138
▁N	-139
il	-140
FAT	-141
▁-	-142
xx	-143
▁no	-144
ust	-145
▁her	-146
ra	-147
...	-148
if	-149
▁one	-150
▁are	-151
un	-152
▁they	-153
▁his	-154
ct	-155
ant	-156
▁O	-157
▁R	-158
▁she	-159
▁know	-160
▁so	-161
▁G	-162
▁whe	-163
▁L	-164
▁can	-165
ell	-166
op	-167
▁sa	-168
▁up	-169
▁my	-170
ore	-171
▁F	-172
▁don	-173
▁j	-174
▁ne	-175
▁all	-176
ook	-177
▁E	-178
▁there	-179
rom	-180
▁had	-181
ge	-182
pp	-183
ie	-184
our	-185
and	-186
eah	-187
▁J	-188
▁but	-189
▁de	-190
▁your	-191
um	-192
▁did	-193
ry	-194
▁al	-195
▁r	-196
▁He	-197
▁like	-198
ain	-199
art	-200
ul	-201
ol	-202
▁It	-203
ack	-204
ood	-205
▁ab	-206
▁from	-207
▁sh	-208
▁him	-209
▁out	-210
ight	-211
ake	-212
red	-213
th	-214
▁pl	-215
ation	-216
el	-217
han	-218
ab	-219
very	-220
ig	-221
est	-222
▁get	-223
os	-224
ers	-225
▁see	-226
ess	-227
right	-228
▁were	-229
ink	-230
ist	-231
▁by	-232
ound	-233
▁su	-234
ame	-235
ong	-236
itt	-237
▁who	-238
hi	-239
▁or	-240
ck	-241
▁said	-242
▁You	-243
one	-244
qu	-245
▁yeah	-246
nt	-247
ind	-248
▁here	-249
na	-250
▁wor	-251
▁them	-252
res	-253
▁some	-254
ast	-255
▁about	-256
▁com	-257
▁sp	-258
em	-259
ive	-260
ard	-261
ber	-262
use	-263
▁(	-264
▁just	-265
xxx	-266
▁xxx	-267
ep	-268
own	-269
▁v	-270
▁want	-271
ak	-272
▁would	-273
▁think	-274
ate	-275
au	-276
▁look	-277
ice	-278
▁right	-279
▁tw	-280
ally	-281
other	-282
▁if	-283
kay	-284
fe	-285
▁when	-286
▁any	-287
▁man	-288
▁con	-289
▁now	-290
od	-291
ick	-292
ap	-293
ough	-294
ime	-295
ear	-296
▁K	-297
▁oh	-298
▁ex	-299
ag	-300
▁got	-301
hing	-302
ort	-303
▁say	-304
ittle	-305
▁And	-306
ich	-307
▁will	-308
].	-309
▁little	-310
▁us	-311
ine	-312
ven	-313
▁U	-314
ide	-315
ous	-316
ther	-317
."	-318
▁then	-319
▁how	-320
AR	-321
IN	-322
ost	-323
▁int	-324
ca	-325
▁too	-326
▁good	-327
▁ag	-328
--	-329
▁pro	-330
▁pe	-331
ies	-332
ity	-333
int	-334
▁been	-335
▁two	-336
▁where	-337
way	-338
▁ar	-339
▁time	-340
▁could	-341
▁okay	-342
▁more	-343
▁back	-344
▁cl	-345
ite	-346
▁put	-347
▁'	-348
lf	-349
▁down	-350
▁very	-351
▁has	-352
▁going	-353
ace	-354
ree	-355
▁their	-356
▁ro	-357
▁which	-358
▁over	-359
ose	-360
MAR	-361
▁bo	-362
ish	-363
reat	-364
▁St	-365
▁off	-366
ond	-367
ian	-368
▁other	-369
▁What	-370
ove	-371
end	-372
cause	-373
▁af	-374
▁tr	-375
▁qu	-376
▁bl	-377
alk	-378
▁She	-379
ople	-380
▁thing	-381
▁come	-382
ase	-383
ft	-384
▁well	-385
ure	-386
,"	-387
augh	-388
▁let	-389
ud	-390
orn	-391
ment	-392
▁We	-393
are	-394
▁le	-395
ark	-396
ty	-397
▁fe	-398
ia	-399
omet	-400
▁people	-401
hed	-402
▁Th	-403
▁In	-404
▁play	-405
▁than	-406
▁But	-407
INV	-408
irst	-409
onna	-410
urn	-411
▁br	-412
▁make	-413
ought	-414
ue	-415
pe	-416
▁into	-417
ary	-418
ater	-419
ade	-420
ved	-421
▁er	-422
▁call	-423
▁No	-424
▁V	-425
▁tell	-426
▁gonna	-427
age	-428
ble	-429
ass	-430
▁somet	-431
▁way	-432
▁again	-433
▁does	-434
iss	-435
▁day	-436
ving	-437
ci	-438
ord	-439
▁work	-440
ount	-441
▁%	-442
▁first	-443
RO	-444
▁co	-445
▁mean	-446
▁take	-447
my	-448
ne	-449
laugh	-450
▁wr	-451
▁hu	-452
▁after	-453
▁en	-454
ran	-455
ng	-456
pl	-457
ff	-458
▁am	-459
▁gr	-460
wn	-461
self	-462
▁thr	-463
ire	-464
ves	-465
mer	-466
ather	-467
▁bet	-468
pt	-469
▁part	-470
▁dis	-471
IS	-472
so	-473
per	-474
ach	-475
▁why	-476
▁So	-477
▁every	-478
ps	-479
ys	-480
▁gu	-481
▁pr	-482
▁That	-483
▁happ	-484
▁need	-485
▁un	-486
▁year	-487
uch	-488
▁only	-489
ub	-490
▁didn	-491
ool	-492
▁should	-493
fore	-494
▁Mr	-495
ren	-496
▁because	-497
ouse	-498
▁fl	-499
▁They	-500
▁something	-501
laughs	-502
day	-503
nder	-504
▁our	-505
les	-506
ock	-507
▁made	-508
ew	-509
ull	-510
▁Oh	-511
▁“	-512
▁pre	-513
able	-514
ress	-515
hen	-516
act	-517
▁cha	-518
▁Yeah	-519
thing	-520
▁much	-521
ady	-522
▁ch	-523
▁these	-524
zz	-525
▁talk	-526
▁long	-527
▁car	-528
we	-529
▁te	-530
SIS	-531
oss	-532
ory	-533
hy	-534
man	-535
og	-536
oll	-537
▁really	-538
BRO	-539
▁hand	-540
ict	-541
ated	-542
be	-543
ions	-544
ied	-545
▁wan	-546
ru	-547
▁chi	-548
irl	-549
▁three	-550
▁sha	-551
▁uh	-552
ix	-553
▁went	-554
av	-555
ang	-556
▁big	-557
▁rem	-558
▁This	-559
▁through	-560
▁Mom	-561
add	-562
cc	-563
yes	-564
▁eat	-565
ile	-566
▁yes	-567
▁before	-568
▁im	-569
▁Un	-570
▁comp	-571
▁never	-572
▁ad	-573
▁may	-574
ting	-575
▁old	-576
▁child	-577
ise	-578
old	-579
▁came	-580
ody	-581
▁sc	-582
▁still	-583
▁ke	-584
▁great	-585
▁Chi	-586
▁Well	-587
▁under	-588
▁also	-589
?"	-590
▁mo	-591
iz	-592
▁ask	-593
▁sm	-594
▁hel	-595
▁wanna	-596
up	-597
▁Ch	-598
▁girl	-599
ful	-600
▁bu	-601
▁even	-602
▁um	-603
▁away	-604
ence	-605
▁po	-606
ip	-607
atch	-608
▁thought	-609
ks	-610
▁act	-611
▁turn	-612
▁those	-613
▁app	-614
gg	-615
cl	-616
ried	-617
ons	-618
▁There	-619
▁home	-620
uck	-621
▁per	-622
ward	-623
oc	-624
▁last	-625
▁new	-626
get	-627
▁happen	-628
ited	-629
ign	-630
▁start	-631
▁give	-632
ect	-633
ors	-634
ember	-635
ates	-636
▁name	-637
ath	-638
▁another	-639
land	-640
▁doing	-641
▁book	-642
▁lea	-643
▁things	-644
riend	-645
▁Mar	-646
▁wa	-647
▁many	-648
ily	-649
▁cont	-650
▁try	-651
UR	-652
▁house	-653
▁help	-654
▁must	-655
ans	-656
ings	-657
hes	-658
▁mother	-659
.]	-660
here	-661
chool	-662
ung	-663
igh	-664
ny	-665
▁sl	-666
▁ser	-667
▁cr	-668
ob	-669
ance	-670
aby	-671
▁find	-672
▁ra	-673
xt	-674
pen	-675
ious	-676
▁ple	-677
▁head	-678
▁four	-679
iv	-680
▁show	-681
▁night	-682
▁own	-683
hm	-684
oney	-685
▁won	-686
rd	-687
te	-688
oy	-689
air	-690
ina	-691
▁sec	-692
▁called	-693
▁kind	-694
▁res	-695
▁bel	-696
ert	-697
oth	-698
▁chan	-699
ail	-700
▁boy	-701
▁friend	-702
ah	-703
▁Yes	-704
ild	-705
▁years	-706
body	-707
▁read	-708
▁mom	-709
ms	-710
ars	-711
ave	-712
▁love	-713
ical	-714
▁huh	-715
▁How	-716
▁done	-717
▁better	-718
▁Is	-719
▁el	-720
aking	-721
▁che	-722
▁end	-723
▁found	-724
URS	-725
▁rec	-726
side	-727
als	-728
akes	-729
▁feel	-730
ince	-731
▁sure	-732
▁around	-733
ult	-734
▁might	-735
oh	-736
▁comm	-737
▁min	-738
ER	-739
aw	-740
med	-741
ways	-742
ican	-743
▁Br	-744
vers	-745
▁place	-746
▁Be	-747
▁most	-748
▁such	-749
▁Mommy	-750
▁count	-751
▁If	-752
▁tra	-753
▁gl	-754
▁room	-755
▁its	-756
▁school	-757
▁att	-758
port	-759
▁dif	-760
▁being	-761
▁told	-762
ident	-763
▁care	-764
▁fin	-765
ces	-766
▁supp	-767
▁pres	-768
ont	-769
rent	-770
▁keep	-771
▁father	-772
▁.	-773
amp	-774
▁life	-775
▁next	-776
▁water	-777
▁word	-778
▁anything	-779
ere	-780
▁des	-781
ever	-782
ually	-783
mp	-784
▁five	-785
▁Al	-786
inn	-787
▁Do	-788
▁cour	-789
ee	-790
ute	-791
▁else	-792
▁num	-793
▁As	-794
▁beg	-795
led	-796
▁All	-797
▁sil	-798
▁lot	-799
ug	-800
▁baby	-801
▁Amer	-802
▁men	-803
▁ever	-804
▁wait	-805
ction	-806
▁same	-807
▁open	-808
▁took	-809
imes	-810
orry	-811
uc	-812
ream	-813
ump	-814
▁saw	-815
▁while	-816
▁mhm	-817
▁Mark	-818
▁doesn	-819
oot	-820
▁always	-821
▁nice	-822
ations	-823
▁pret	-824
▁bec	-825
▁ph	-826
▁An	-827
ott	-828
uh	-829
!"	-830
row	-831
▁sw	-832
mber	-833
ens	-834
▁set	-835
ird	-836
ition	-837
▁stop	-838
▁sing	-839
▁pol	-840
ts	-841
▁used	-842
▁pie	-843
ec	-844
li	-845
ins	-846
▁dog	-847
ling	-848
▁wom	-849
▁six	-850
▁mon	-851
▁left	-852
▁bre	-853
▁Wh	-854
ros	-855
▁run	-856
▁fam	-857
ister	-858
▁ele	-859
▁bus	-860
vent	-861
▁dr	-862
orm	-863
▁mag	-864
▁TH	-865
▁United	-866
ounds	-867
outh	-868
▁stay	-869
▁Why	-870
▁far	-871
▁cle	-872
▁real	-873
▁ind	-874
▁remember	-875
vel	-876
ational	-877
▁use	-878
tern	-879
▁fun	-880
aught	-881
oun	-882
arly	-883
▁Ar	-884
▁money	-885
▁world	-886
▁On	-887
▁hard	-888
ndred	-889
▁unt	-890
ished	-891
AN	-892
cle	-893
ellow	-894
▁please	-895
ower	-896
▁–	-897
▁hundred	-898
▁number	-899
▁Don	-900
ries	-901
▁nothing	-902
▁diffe	-903
▁wee	-904
▁watch	-905
ye	-906
ph	-907
▁Cha	-908
▁sit	-909
▁At	-910
ness	-911
▁gi	-912
▁ret	-913
▁black	-914
gether	-915
▁De	-916
▁Now	-917
▁belie	-918
erson	-919
▁King	-920
▁stick	-921
▁together	-922
▁New	-923
▁acc	-924
ES	-925
the	-926
▁ac	-927
▁hold	-928
▁war	-929
ween	-930
▁gre	-931
▁mar	-932
ope	-933
pect	-934
▁happened	-935
▁Okay	-936
▁My	-937
▁enough	-938
ets	-939
oon	-940
▁ob	-941
leep	-942
▁Fran	-943
▁known	-944
ger	-945
▁young	-946
ret	-947
CO	-948
anc	-949
▁says	-950
▁col	-951
▁course	-952
▁When	-953
LD	-954
▁Eng	-955
▁bad	-956
▁dat	-957
rist	-958
▁gra	-959
▁Miss	-960
▁eyes	-961
ial	-962
▁upon	-963
▁until	-964
The	-965
▁best	-966
▁hear	-967
▁died	-968
io	-969
ased	-970
orning	-971
▁isn	-972
ton	-973
▁Mrs	-974
▁sur	-975
▁second	-976
▁_	-977
▁For	-978
▁fall	-979
usic	-980
eak	-981
▁between	-982
gr	-983
▁pick	-984
▁walk	-985
▁door	-986
fta	-987
oup	-988
▁though	-989
▁American	-990
az	-991
oud	-992
▁hafta	-993
▁sorry	-994
ubl	-995
▁Can	-996
▁stand	-997
▁himself	-998
▁ball	-999
ta	-1000
ible	-1001
▁children	-1002
▁mat	-1003
▁asked	-1004
▁alright	-1005
▁silver	-1006
▁vo	-1007
▁quite	-1008
▁hur	-1009
".	-1010
▁Then	-1011
uff	-1012
mb	-1013
▁bit	-1014
▁list	-1015
▁side	-1016
▁bed	-1017
▁Ad	-1018
▁Than	-1019
ib	-1020
▁point	-1021
▁char	-1022
ohn	-1023
uring	-1024
aut	-1025
▁kill	-1026
▁coming	-1027
▁morning	-1028
▁Jan	-1029
▁dist	-1030
▁rel	-1031
ures	-1032
ale	-1033
ired	-1034
ject	-1035
▁against	-1036
▁small	-1037
▁hm	-1038
EL	-1039
ents	-1040
▁pass	-1041
▁once	-1042
▁light	-1043
▁Z	-1044
▁both	-1045
▁face	-1046
enc	-1047
▁pretty	-1048
▁States	-1049
ollow	-1050
addy	-1051
une	-1052
▁Not	-1053
ross	-1054
▁high	-1055
▁wanted	-1056
▁Cl	-1057
▁mil	-1058
▁few	-1059
ged	-1060
▁Just	-1061
vie	-1062
▁Re	-1063
▁Hey	-1064
▁mind	-1065
▁born	-1066
▁leave	-1067
▁heard	-1068
▁knew	-1069
▁story	-1070
▁base	-1071
ank	-1072
▁seen	-1073
▁without	-1074
),	-1075
ched	-1076
▁looking	-1077
iet	-1078
▁reg	-1079
▁different	-1080
▁Ed	-1081
▁heart	-1082
ING	-1083
aper	-1084
▁each	-1085
▁today	-1086
▁Af	-1087
ork	-1088
▁red	-1089
▁eight	-1090
oint	-1091
▁ent	-1092
ctor	-1093
▁yet	-1094
▁str	-1095
most	-1096
▁bro	-1097
▁John	-1098
▁stud	-1099
▁May	-1100
▁thank	-1101
▁top	-1102
cha	-1103
▁everything	-1104
ered	-1105
ters	-1106
raw	-1107
▁cons	-1108
▁hung	-1109
ffe	-1110
ier	-1111
ener	-1112
▁dec	-1113
ning	-1114
▁later	-1115
▁Ind	-1116
▁Christ	-1117
▁Sp	-1118
enty	-1119
▁Let	-1120
▁table	-1121
▁hat	-1122
ics	-1123
▁shall	-1124
▁whole	-1125
cial	-1126
▁ter	-1127
▁getting	-1128
▁hands	-1129
▁song	-1130
ason	-1131
▁God	-1132
▁talking	-1133
▁rest	-1134
▁person	-1135
▁met	-1136
orth	-1137
▁sk	-1138
▁gave	-1139
▁write	-1140
▁fr	-1141
▁sleep	-1142
▁dri	-1143
▁Er	-1144
▁city	-1145
▁cat	-1146
▁inv	-1147
▁ate	-1148
▁soon	-1149
ife	-1150
▁looked	-1151
▁pict	-1152
stand	-1153
▁kid	-1154
ames	-1155
less	-1156
▁sent	-1157
rib	-1158
▁wasn	-1159
▁Ross	-1160
▁food	-1161
▁follow	-1162
▁doll	-1163
▁air	-1164
uss	-1165
me	-1166
▁town	-1167
▁magn	-1168
ably	-1169
its	-1170
▁since	-1171
hip	-1172
▁maybe	-1173
▁family	-1174
any	-1175
ape	-1176
▁goes	-1177
▁THE	-1178
ision	-1179
onder	-1180
▁beaut	-1181
zzz	-1182
▁half	-1183
▁move	-1184
▁zzz	-1185
aster	-1186
▁having	-1187
ertain	-1188
huh	-1189
▁ca	-1190
ating	-1191
▁Pr	-1192
▁ans	-1193
vern	-1194
▁Come	-1195
ined	-1196
▁believe	-1197
pped	-1198
▁days	-1199
der	-1200
▁meet	-1201
osed	-1202
▁Go	-1203
▁wind	-1204
▁sn	-1205
▁round	-1206
oor	-1207
).	-1208
▁Sar	-1209
▁inst	-1210
ok	-1211
▁live	-1212
▁bring	-1213
▁Sc	-1214
ready	-1215
▁started	-1216
▁gone	-1217
OU	-1218
ounc	-1219
▁voice	-1220
▁erm	-1221
ash	-1222
pr	-1223
▁anim	-1224
tle	-1225
ines	-1226
▁fire	-1227
ball	-1228
▁pop	-1229
▁girls	-1230
▁quest	-1231
und	-1232
den	-1233
ote	-1234
▁Ph	-1235
▁ready	-1236
▁aw	-1237
▁dear	-1238
elt	-1239
iness	-1240
▁lo	-1241
ike	-1242
sel	-1243
▁brother	-1244
LO	-1245
uth	-1246
▁already	-1247
▁fif	-1248
aj	-1249
eng	-1250
▁saying	-1251
ney	-1252
rew	-1253
ex	-1254
▁drink	-1255
▁making	-1256
ither	-1257
▁almost	-1258
cept	-1259
▁hungry	-1260
br	-1261
orrow	-1262
▁dire	-1263
▁hour	-1264
▁cut	-1265
▁son	-1266
ully	-1267
▁His	-1268
ual	-1269
▁hey	-1270
▁plan	-1271
COL	-1272
ised	-1273
ey	-1274
▁wrong	-1275
ery	-1276
▁cap	-1277
▁i	-1278
▁sy	-1279
aid	-1280
ison	-1281
▁Ger	-1282
cted	-1283
▁hor	-1284
▁foot	-1285
ern	-1286
▁piece	-1287
▁sound	-1288
▁dep	-1289
▁laugh	-1290
lish	-1291
▁along	-1292
iful	-1293
ield	-1294
wards	-1295
ows	-1296
▁Com	-1297
▁break	-1298
▁friends	-1299
▁id	-1300
▁wonder	-1301
▁exc	-1302
▁return	-1303
ivers	-1304
▁ref	-1305
▁cent	-1306
▁miss	-1307
▁trying	-1308
▁eas	-1309
▁understand	-1310
ustr	-1311
aken	-1312
▁country	-1313
▁build	-1314
clud	-1315
▁Are	-1316
▁imp	-1317
▁hot	-1318
You	-1319
▁land	-1320
▁actually	-1321
ues	-1322
ped	-1323
ober	-1324
▁To	-1325
▁disc	-1326
aces	-1327
▁game	-1328
▁sort	-1329
▁fight	-1330
▁looks	-1331
ities	-1332
ular	-1333
▁sub	-1334
▁lar	-1335
▁paper	-1336
▁add	-1337
eth	-1338
wer	-1339
▁Look	-1340
oke	-1341
▁became	-1342
▁Q	-1343
▁ten	-1344
▁ri	-1345
▁rep	-1346
ining	-1347
▁yellow	-1348
ten	-1349
eed	-1350
▁age	-1351
ush	-1352
▁means	-1353
▁Count	-1354
▁One	-1355
ury	-1356
▁speak	-1357
ax	-1358
▁woman	-1359
isit	-1360
▁moment	-1361
▁hum	-1362
▁began	-1363
▁wouldn	-1364
▁guy	-1365
▁Will	-1366
",	-1367
eb	-1368
sh	-1369
▁lead	-1370
olog	-1371
▁guess	-1372
app	-1373
▁Did	-1374
▁twenty	-1375
▁fine	-1376
ative	-1377
ON	-1378
▁mm	-1379
▁Sarah	-1380
EN	-1381
▁Who	-1382
▁Where	-1383
UN	-1384
▁inc	-1385
ony	-1386
▁proble	-1387
▁lost	-1388
to	-1389
unt	-1390
erest	-1391
▁record	-1392
▁fore	-1393
▁beautiful	-1394
rog	-1395
▁stuff	-1396
▁white	-1397
▁close	-1398
▁Fl	-1399
▁Her	-1400
.”	-1401
▁death	-1402
cess	-1403
▁Mot	-1404
▁inf	-1405
▁tre	-1406
▁dro	-1407
▁brought	-1408
aint	-1409
▁guys	-1410
ene	-1411
ster	-1412
▁Thank	-1413
ital	-1414
bably	-1415
▁sign	-1416
▁Car	-1417
▁words	-1418
▁playing	-1419
oes	-1420
▁phone	-1421
▁near	-1422
ages	-1423
▁present	-1424
▁fact	-1425
▁publ	-1426
▁party	-1427
▁prom	-1428
▁coll	-1429
▁turned	-1430
aul	-1431
▁ass	-1432
▁Adam	-1433
▁idea	-1434
ept	-1435
son	-1436
▁poss	-1437
eter	-1438
▁conf	-1439
▁played	-1440
▁certain	-1441
ple	-1442
ole	-1443
▁happy	-1444
ants	-1445
▁sun	-1446
▁tri	-1447
▁lear	-1448
▁full	-1449
▁times	-1450
▁during	-1451
GLO	-1452
Oh	-1453
▁uhhuh	-1454
ouch	-1455
▁Right	-1456
▁blue	-1457
▁comes	-1458
▁polit	-1459
▁English	-1460
▁week	-1461
ouble	-1462
▁box	-1463
▁ear	-1464
▁tele	-1465
unch	-1466
▁listen	-1467
by	-1468
ense	-1469
▁music	-1470
▁stre	-1471
▁Bl	-1472
ring	-1473
▁team	-1474
olly	-1475
ief	-1476
irth	-1477
▁boys	-1478
▁month	-1479
▁interest	-1480
▁wand	-1481
▁matter	-1482
▁poor	-1483
▁able	-1484
no	-1485
▁rock	-1486
NA	-1487
▁pay	-1488
ared	-1489
ists	-1490
,”	-1491
▁egg	-1492
▁hope	-1493
▁sister	-1494
ying	-1495
gan	-1496
▁king	-1497
▁movie	-1498
▁ext	-1499
▁,	-1500
▁myself	-1501
▁bear	-1502
pri	-1503
oe	-1504
AI	-1505
urs	-1506
▁del	-1507
▁fell	-1508
ution	-1509
▁writ	-1510
▁Le	-1511
airs	-1512
fully	-1513
▁cir	-1514
ats	-1515
lease	-1516
▁felt	-1517
▁taken	-1518
▁Good	-1519
amed	-1520
▁Fr	-1521
▁minute	-1522
▁job	-1523
----	-1524
▁cup	-1525
utes	-1526
▁quick	-1527
▁includ	-1528
key	-1529
▁Per	-1530
ipp	-1531
▁dead	-1532
▁Sh	-1533
ik	-1534
▁dress	-1535
▁herself	-1536
▁someone	-1537
It	-1538
▁wants	-1539
▁leg	-1540
▁sir	-1541
▁beh	-1542
▁green	-1543
where	-1544
▁gotta	-1545
▁med	-1546
ma	-1547
ama	-1548
▁County	-1549
wh	-1550
ned	-1551
not	-1552
▁Ge	-1553
born	-1554
ming	-1555
▁law	-1556
▁inter	-1557
icha	-1558
▁letter	-1559
ises	-1560
room	-1561
▁seven	-1562
▁bar	-1563
▁prod	-1564
ze	-1565
ided	-1566
uary	-1567
▁sat	-1568
rench	-1569
▁art	-1570
▁Pro	-1571
▁contin	-1572
▁makes	-1573
umb	-1574
▁offic	-1575
ald	-1576
eptember	-1577
ese	-1578
▁bra	-1579
▁couldn	-1580
▁probably	-1581
ica	-1582
tain	-1583
idd	-1584
▁Bro	-1585
▁hair	-1586
▁chair	-1587
▁strong	-1588
ific	-1589
haps	-1590
▁magnet	-1591
MEL	-1592
▁pounds	-1593
ner	-1594
oub	-1595
▁seemed	-1596
ides	-1597
▁ago	-1598
▁late	-1599
▁bird	-1600
itc	-1601
▁birth	-1602
▁After	-1603
▁gener	-1604
for	-1605
▁govern	-1606
rying	-1607
▁mine	-1608
ousand	-1609
▁front	-1610
▁German	-1611
ator	-1612
▁soft	-1613
▁inside	-1614
la	-1615
used	-1616
▁loc	-1617
▁lived	-1618
▁#	-1619
▁wood	-1620
▁state	-1621
▁short	-1622
▁women	-1623
bum	-1624
irty	-1625
▁sal	-1626
▁France	-1627
▁rather	-1628
▁picture	-1629
▁swe	-1630
gin	-1631
▁sim	-1632
selves	-1633
itting	-1634
▁Wor	-1635
ized	-1636
▁behind	-1637
▁September	-1638
ham	-1639
rest	-1640
morrow	-1641
▁floor	-1642
▁question	-1643
▁Brit	-1644
OR	-1645
inner	-1646
▁es	-1647
▁Paul	-1648
een	-1649
▁pri	-1650
ians	-1651
▁Ben	-1652
▁Phil	-1653
▁milk	-1654
▁color	-1655
▁ed	-1656
▁yep	-1657
▁import	-1658
▁outside	-1659
▁less	-1660
▁cook	-1661
▁cur	-1662
bo	-1663
▁minutes	-1664
fect	-1665
▁thousand	-1666
▁Gu	-1667
ured	-1668
▁lady	-1669
ati	-1670
uts	-1671
▁Ex	-1672
iversity	-1673
head	-1674
▁Your	-1675
men	-1676
▁haven	-1677
▁squ	-1678
▁Some	-1679
▁pull	-1680
ead	-1681
ments	-1682
▁deal	-1683
▁serv	-1684
ots	-1685
atur	-1686
uly	-1687
▁business	-1688
▁Daddy	-1689
▁January	-1690
▁Par	-1691
▁ran	-1692
arent	-1693
▁prot	-1694
▁power	-1695
aughter	-1696
ize	-1697
pill	-1698
ley	-1699
ety	-1700
▁Ab	-1701
▁road	-1702
▁alone	-1703
▁grand	-1704
▁lay	-1705
ugust	-1706
▁true	-1707
▁train	-1708
▁taking	-1709
▁case	-1710
▁hurt	-1711
▁frog	-1712
read	-1713
nina	-1714
▁Or	-1715
▁Sha	-1716
▁ev	-1717
ention	-1718
CHILD	-1719
▁forg	-1720
aterpill	-1721
ider	-1722
▁album	-1723
uro	-1724
▁March	-1725
IC	-1726
▁expl	-1727
▁change	-1728
▁lik	-1729
ane	-1730
▁Dav	-1731
▁ins	-1732
▁bott	-1733
▁hon	-1734
com	-1735
ism	-1736
ford	-1737
▁creat	-1738
els	-1739
angu	-1740
▁yourself	-1741
▁pu	-1742
ones	-1743
▁fifty	-1744
▁funny	-1745
▁given	-1746
▁El	-1747
▁par	-1748
▁feet	-1749
▁Man	-1750
arth	-1751
range	-1752
▁dark	-1753
▁prof	-1754
▁win	-1755
ask	-1756
▁yup	-1757
▁With	-1758
ears	-1759
▁Har	-1760
▁French	-1761
▁often	-1762
▁body	-1763
▁living	-1764
▁trans	-1765
▁butter	-1766
rian	-1767
erv	-1768
eal	-1769
pril	-1770
CHILDES	-1771
▁childes	-1772
▁Here	-1773
▁mark	-1774
ilt	-1775
rs	-1776
point	-1777
▁quiet	-1778
▁Sw	-1779
ctober	-1780
ches	-1781
▁York	-1782
▁Gr	-1783
▁wife	-1784
▁August	-1785
▁ones	-1786
▁wish	-1787
aterpillar	-1788
▁?	-1789
▁Dr	-1790
ices	-1791
▁dream	-1792
Chi	-1793
▁god	-1794
▁Con	-1795
▁World	-1796
rap	-1797
▁draw	-1798
iously	-1799
▁grow	-1800
▁tape	-1801
▁form	-1802
mother	-1803
▁buy	-1804
▁area	-1805
▁rele	-1806
icip	-1807
ards	-1808
▁cold	-1809
bit	-1810
▁named	-1811
▁♪	-1812
ained	-1813
▁hist	-1814
but	-1815
rence	-1816
▁Mm	-1817
aur	-1818
artment	-1819
▁working	-1820
▁YOU	-1821
▁tried	-1822
What	-1823
▁Tw	-1824
▁tree	-1825
gy	-1826
▁news	-1827
▁leng	-1828
▁class	-1829
▁langu	-1830
ummer	-1831
▁jump	-1832
▁least	-1833
ently	-1834
▁others	-1835
co	-1836
▁fav	-1837
▁Because	-1838
▁em	-1839
ament	-1840
▁sometimes	-1841
AL	-1842
▁answer	-1843
▁fair	-1844
▁till	-1845
fort	-1846
▁large	-1847
▁reason	-1848
ately	-1849
▁April	-1850
▁nine	-1851
ai	-1852
▁mill	-1853
▁October	-1854
▁Je	-1855
▁fig	-1856
▁Pres	-1857
▁Pe	-1858
▁line	-1859
more	-1860
ional	-1861
▁block	-1862
▁horse	-1863
▁lives	-1864
▁either	-1865
rit	-1866
rict	-1867
let	-1868
▁sea	-1869
▁mess	-1870
vision	-1871
GAI	-1872
▁di	-1873
▁jo	-1874
mas	-1875
▁occ	-1876
▁pur	-1877
ler	-1878
▁important	-1879
▁War	-1880
itten	-1881
▁attack	-1882
▁Char	-1883
▁dad	-1884
▁Euro	-1885
▁camp	-1886
Yes	-1887
rie	-1888
▁bat	-1889
▁past	-1890
▁Pl	-1891
▁expect	-1892
▁Geor	-1893
▁moon	-1894
▁animals	-1895
▁report	-1896
enn	-1897
▁Of	-1898
▁wear	-1899
ature	-1900
▁rece	-1901
▁across	-1902
▁z	-1903
▁Please	-1904
▁Every	-1905
▁hi	-1906
aim	-1907
GR	-1908
▁adv	-1909
▁send	-1910
▁member	-1911
▁Me	-1912
▁sold	-1913
▁Bar	-1914
▁order	-1915
▁free	-1916
▁const	-1917
▁ice	-1918
▁kids	-1919
▁Rep	-1920
▁ap	-1921
ement	-1922
▁killed	-1923
▁star	-1924
▁stra	-1925
RE	-1926
▁become	-1927
ality	-1928
ls	-1929
▁cried	-1930
alth	-1931
raid	-1932
▁band	-1933
▁company	-1934
▁tomorrow	-1935
▁ann	-1936
▁clean	-1937
No	-1938
ken	-1939
▁glad	-1940
HS	-1941
osp	-1942
▁exp	-1943
▁thinking	-1944
▁fly	-1945
▁birthday	-1946
ara	-1947
▁hit	-1948
▁Tr	-1949
▁mis	-1950
ached	-1951
▁fix	-1952
▁Russ	-1953
▁early	-1954
aced	-1955
▁David	-1956
▁conc	-1957
▁main	-1958
ov	-1959
arch	-1960
▁visit	-1961
ula	-1962
▁check	-1963
▁tea	-1964
▁among	-1965
ges	-1966
▁teac	-1967
▁Am	-1968
▁finished	-1969
▁mer	-1970
▁gets	-1971
▁AN	-1972
▁problem	-1973
de	-1974
▁repl	-1975
▁group	-1976
gue	-1977
▁cor	-1978
▁toys	-1979
▁Ne	-1980
dden	-1981
ffee	-1982
▁Marky	-1983
stem	-1984
▁Col	-1985
▁noise	-1986
ait	-1987
▁Min	-1988
▁wall	-1989
▁books	-1990
And	-1991
▁ah	-1992
▁object	-1993
▁held	-1994
▁worked	-1995
icks	-1996
▁University	-1997
▁fast	-1998
cy	-1999
itty	-2000
▁ill	-2001
▁Ital	-2002
▁fing	-2003
▁released	-2004
che	-2005
▁sudden	-2006
▁opp	-2007
▁caterpillar	-2008
iny	-2009
illy	-2010
iddle	-2011
owed	-2012
▁afraid	-2013
imb	-2014
▁ton	-2015
ility	-2016
entle	-2017
▁somebody	-2018
AS	-2019
▁‘	-2020
fic	-2021
▁British	-2022
▁dra	-2023
ED	-2024
▁Was	-2025
urch	-2026
▁hell	-2027
▁resp	-2028
▁loud	-2029
▁eating	-2030
ened	-2031
▁spe	-2032
cient	-2033
ering	-2034
▁fish	-2035
ician	-2036
mon	-2037
ains	-2038
▁clear	-2039
▁daddy	-2040
▁trouble	-2041
▁...	-2042
▁pos	-2043
inning	-2044
▁Mother	-2045
▁government	-2046
▁ya	-2047
ode	-2048
ived	-2049
▁mouth	-2050
▁toy	-2051
▁compet	-2052
▁England	-2053
▁nin	-2054
▁forget	-2055
▁sever	-2056
▁sweet	-2057
▁coffee	-2058
▁married	-2059
then	-2060
▁kept	-2061
ued	-2062
▁cond	-2063
▁vill	-2064
ically	-2065
▁Sir	-2066
▁adm	-2067
oman	-2068
'.	-2069
▁single	-2070
▁public	-2071
▁corn	-2072
▁daughter	-2073
ising	-2074
ajor	-2075
rand	-2076
▁bag	-2077
owers	-2078
▁eng	-2079
raz	-2080
▁easy	-2081
▁Christmas	-2082
▁TO	-2083
▁gold	-2084
▁Mary	-2085
▁ground	-2086
▁July	-2087
▁surpr	-2088
dy	-2089
▁prov	-2090
▁hors	-2091
▁These	-2092
▁chance	-2093
phan	-2094
ories	-2095
▁store	-2096
▁within	-2097
anger	-2098
▁goin	-2099
AUN	-2100
▁mur	-2101
▁several	-2102
▁ow	-2103
▁themselves	-2104
We	-2105
▁eye	-2106
▁whis	-2107
▁dinner	-2108
idge	-2109
▁Europe	-2110
▁Dad	-2111
▁aren	-2112
But	-2113
▁sca	-2114
eared	-2115
laughing	-2116
▁hop	-2117
▁honey	-2118
▁national	-2119
▁organ	-2120
▁window	-2121
itchen	-2122
band	-2123
ays	-2124
▁months	-2125
ello	-2126
▁touch	-2127
▁tem	-2128
▁arm	-2129
iam	-2130
asure	-2131
▁knows	-2132
▁fil	-2133
]?	-2134
velop	-2135
▁whether	-2136
▁perhaps	-2137
teen	-2138
▁everybody	-2139
▁Ah	-2140
iding	-2141
iver	-2142
▁Che	-2143
▁event	-2144
ana	-2145
▁President	-2146
▁running	-2147
HV	-2148
▁kitchen	-2149
urg	-2150
▁Te	-2151
overed	-2152
▁City	-2153
▁hang	-2154
▁gun	-2155
▁clot	-2156
▁cross	-2157
▁bath	-2158
▁treat	-2159
ox	-2160
ted	-2161
LLD	-2162
HSLLD	-2163
▁pain	-2164
▁sitting	-2165
iron	-2166
cember	-2167
ebru	-2168
ebruary	-2169
ovember	-2170
▁doctor	-2171
you	-2172
▁Se	-2173
▁fa	-2174
▁above	-2175
▁stood	-2176
nes	-2177
▁ste	-2178
▁Cap	-2179
▁slow	-2180
▁mommy	-2181
▁ty	-2182
▁blood	-2183
▁Jack	-2184
sing	-2185
▁mot	-2186
▁system	-2187
.'	-2188
▁mist	-2189
▁human	-2190
▁wrote	-2191
▁Tom	-2192
▁def	-2193
▁sounds	-2194
▁stru	-2195
mpions	-2196
▁series	-2197
points	-2198
ccess	-2199
▁football	-2200
itch	-2201
,--	-2202
ude	-2203
▁Get	-2204
sc	-2205
▁gentle	-2206
▁special	-2207
▁pot	-2208
▁longer	-2209
con	-2210
rey	-2211
actly	-2212
▁seems	-2213
ondon	-2214
▁whose	-2215
▁By	-2216
▁cake	-2217
▁third	-2218
▁comple	-2219
bs	-2220
▁est	-2221
▁tonight	-2222
▁!	-2223
▁exper	-2224
▁hours	-2225
▁yours	-2226
▁office	-2227
▁profess	-2228
▁prison	-2229
ET	-2230
ushed	-2231
irt	-2232
▁page	-2233
▁Uh	-2234
▁Dor	-2235
▁Part	-2236
lo	-2237
lly	-2238
ager	-2239
▁London	-2240
▁X	-2241
dom	-2242
▁telling	-2243
▁Em	-2244
gram	-2245
ract	-2246
▁roll	-2247
▁thirty	-2248
ored	-2249
▁June	-2250
gar	-2251
Well	-2252
▁Cal	-2253
▁however	-2254
▁heav	-2255
▁perfect	-2256
▁November	-2257
yl	-2258
▁doub	-2259
▁truck	-2260
▁Have	-2261
▁appro	-2262
▁ahead	-2263
▁February	-2264
▁har	-2265
▁mod	-2266
▁whom	-2267
▁meant	-2268
essie	-2269
▁ring	-2270
▁noises	-2271
▁million	-2272
unity	-2273
▁From	-2274
▁step	-2275
ounced	-2276
▁knock	-2277
phone	-2278
▁save	-2279
▁Ag	-2280
▁safe	-2281
▁throw	-2282
▁Maybe	-2283
ging	-2284
▁Sis	-2285
▁anyone	-2286
▁instead	-2287
unk	-2288
▁tired	-2289
▁evening	-2290
ium	-2291
joy	-2292
▁Sant	-2293
▁ride	-2294
▁support	-2295
mbers	-2296
▁December	-2297
TER	-2298
ouncil	-2299
▁National	-2300
▁television	-2301
uthor	-2302
▁street	-2303
▁IN	-2304
rat	-2305
oof	-2306
▁Comm	-2307
fly	-2308
astic	-2309
▁circ	-2310
▁weeks	-2311
▁partic	-2312
▁clos	-2313
▁lad	-2314
▁swim	-2315
▁moved	-2316
▁president	-2317
▁George	-2318
▁anymore	-2319
▁Eve	-2320
▁Great	-2321
▁South	-2322
▁boat	-2323
▁cool	-2324
▁parent	-2325
▁press	-2326
come	-2327
▁cand	-2328
▁built	-2329
▁glass	-2330
ced	-2331
que	-2332
usband	-2333
▁House	-2334
▁building	-2335
ric	-2336
▁defe	-2337
▁broke	-2338
IT	-2339
estern	-2340
▁cop	-2341
▁passed	-2342
▁written	-2343
▁whatever	-2344
▁Edna	-2345
▁standing	-2346
hold	-2347
▁div	-2348
rigin	-2349
▁straight	-2350
ron	-2351
ilver	-2352
ww	-2353
ror	-2354
iter	-2355
▁abs	-2356
unicip	-2357
▁test	-2358
thened	-2359
▁ru	-2360
▁puzz	-2361
▁See	-2362
▁Urs	-2363
▁coup	-2364
▁finish	-2365
ping	-2366
▁Any	-2367
▁snow	-2368
▁contro	-2369
mo	-2370
reed	-2371
▁charac	-2372
▁returned	-2373
▁Ma	-2374
▁Sec	-2375
▁bow	-2376
▁deep	-2377
▁takes	-2378
amb	-2379
ral	-2380
aser	-2381
▁places	-2382
terday	-2383
▁writing	-2384
▁Su	-2385
▁low	-2386
ground	-2387
▁caught	-2388
▁cast	-2389
▁cause	-2390
▁certainly	-2391
iled	-2392
▁park	-2393
▁sand	-2394
llustr	-2395
▁river	-2396
▁spell	-2397
▁danger	-2398
▁pen	-2399
emy	-2400
▁history	-2401
par	-2402
▁cost	-2403
ange	-2404
▁CH	-2405
,'	-2406
▁Ke	-2407
▁former	-2408
▁waiting	-2409
hern	-2410
▁breat	-2411
▁cannot	-2412
▁protect	-2413
▁husband	-2414
▁mount	-2415
▁da	-2416
▁secret	-2417
▁fit	-2418
music	-2419
▁cry	-2420
▁possible	-2421
▁ord	-2422
ended	-2423
▁cars	-2424
▁sick	-2425
▁Sund	-2426
▁indeed	-2427
▁develop	-2428
▁everyone	-2429
▁lunch	-2430
▁fle	-2431
▁suppose	-2432
▁)	-2433
▁dem	-2434
arden	-2435
▁fellow	-2436
▁dest	-2437
resent	-2438
▁North	-2439
▁Thanks	-2440
▁arri	-2441
▁warm	-2442
▁seem	-2443
LE	-2444
empt	-2445
▁Dan	-2446
▁fear	-2447
stairs	-2448
AY	-2449
▁Like	-2450
though	-2451
uced	-2452
▁bes	-2453
ternational	-2454
▁arms	-2455
▁elephan	-2456
▁teacher	-2457
▁ve	-2458
ency	-2459
▁var	-2460
▁lengthened	-2461
idence	-2462
▁members	-2463
▁yesterday	-2464
hin	-2465
▁spec	-2466
▁trees	-2467
ospital	-2468
▁diffic	-2469
▁feeling	-2470
rop	-2471
▁val	-2472
▁post	-2473
ulation	-2474
ior	-2475
▁stri	-2476
▁space	-2477
▁middle	-2478
encil	-2479
uct	-2480
▁EX	-2481
▁ju	-2482
oose	-2483
▁Lea	-2484
▁success	-2485
▁language	-2486
OM	-2487
▁enjoy	-2488
▁clothes	-2489
▁luck	-2490
▁fur	-2491
fer	-2492
▁usually	-2493
▁district	-2494
▁cal	-2495
▁Lord	-2496
▁changed	-2497
bl	-2498
▁Bo	-2499
▁oper	-2500
▁pencil	-2501
▁club	-2502
▁vict	-2503
▁municip	-2504
▁Hello	-2505
▁exactly	-2506
▁general	-2507
▁ang	-2508
▁truth	-2509
▁police	-2510
▁Ald	-2511
▁pictures	-2512
iday	-2513
▁Indian	-2514
▁William	-2515
▁decided	-2516
▁putting	-2517
▁supposed	-2518
▁drive	-2519
▁disapp	-2520
▁cream	-2521
▁bright	-2522
att	-2523
▁esc	-2524
▁kiss	-2525
▁ain	-2526
▁broken	-2527
II	-2528
igg	-2529
ichard	-2530
kes	-2531
▁pieces	-2532
▁stopped	-2533
▁wild	-2534
oul	-2535
▁uncle	-2536
▁couple	-2537
▁politician	-2538
▁sell	-2539
▁Peter	-2540
▁works	-2541
iger	-2542
▁origin	-2543
That	-2544
noon	-2545
▁equ	-2546
that	-2547
▁earth	-2548
▁common	-2549
▁south	-2550
▁super	-2551
▁laughing	-2552
look	-2553
▁West	-2554
▁dere	-2555
▁served	-2556
▁Gl	-2557
▁Sm	-2558
▁Hen	-2559
▁Canad	-2560
▁forward	-2561
uce	-2562
over	-2563
▁det	-2564
▁village	-2565
▁Hi	-2566
▁Pol	-2567
▁level	-2568
AP	-2569
ege	-2570
▁Mer	-2571
▁Ted	-2572
ology	-2573
▁anyway	-2574
omb	-2575
hire	-2576
▁sus	-2577
rible	-2578
▁self	-2579
▁career	-2580
▁softly	-2581
▁following	-2582
▁bur	-2583
▁army	-2584
▁favor	-2585
▁Bessie	-2586
▁Richard	-2587
▁Sunday	-2588
icy	-2589
lex	-2590
US	-2591
▁learn	-2592
▁towards	-2593
▁afternoon	-2594
uri	-2595
▁nose	-2596
▁points	-2597
llustration	-2598
▁chick	-2599
▁doubt	-2600
▁program	-2601
ourn	-2602
▁Ele	-2603
ording	-2604
▁needs	-2605
▁]	-2606
▁catch	-2607
▁OK	-2608
▁field	-2609
▁Germany	-2610
▁anybody	-2611
He	-2612
lin	-2613
▁prin	-2614
▁eighty	-2615
▁summer	-2616
▁careful	-2617
▁department	-2618
aged	-2619
▁tur	-2620
▁OF	-2621
▁rul	-2622
▁north	-2623
ris	-2624
▁Que	-2625
▁Wal	-2626
wered	-2627
▁Sorry	-2628
Illustration	-2629
silver	-2630
▁cheese	-2631
▁complete	-2632
uke	-2633
▁AND	-2634
▁vide	-2635
yn	-2636
▁opened	-2637
hile	-2638
▁fail	-2639
▁Party	-2640
▁author	-2641
▁strange	-2642
night	-2643
▁parents	-2644
▁quickly	-2645
lt	-2646
▁www	-2647
▁hole	-2648
▁hast	-2649
ighb	-2650
▁grew	-2651
▁using	-2652
▁Baby	-2653
▁apple	-2654
▁liked	-2655
▁happens	-2656
▁hig	-2657
▁answered	-2658
▁design	-2659
▁die	-2660
▁fill	-2661
nel	-2662
▁figure	-2663
▁proper	-2664
LL	-2665
cent	-2666
▁leaf	-2667
▁pract	-2668
▁av	-2669
othy	-2670
time	-2671
▁worry	-2672
ID	-2673
acy	-2674
fast	-2675
▁giving	-2676
ample	-2677
▁imag	-2678
▁meeting	-2679
▁Nor	-2680
▁forty	-2681
rod	-2682
ffic	-2683
what	-2684
▁Ange	-2685
▁Jeff	-2686
▁match	-2687
ROG	-2688
olved	-2689
▁burn	-2690
ustral	-2691
▁seat	-2692
▁Jane	-2693
▁“‘	-2694
amer	-2695
▁tast	-2696
▁hello	-2697
▁dev	-2698
bb	-2699
▁heavy	-2700
▁flowers	-2701
▁holding	-2702
▁lau	-2703
▁pat	-2704
▁shot	-2705
sy	-2706
min	-2707
ceed	-2708
go	-2709
iling	-2710
▁worth	-2711
▁except	-2712
▁sevent	-2713
▁received	-2714
cell	-2715
▁lose	-2716
inos	-2717
▁rad	-2718
cher	-2719
oura	-2720
▁shoot	-2721
nce	-2722
iced	-2723
▁cre	-2724
▁horses	-2725
ding	-2726
▁lab	-2727
▁prop	-2728
▁starts	-2729
iers	-2730
▁pretend	-2731
▁station	-2732
iew	-2733
ogn	-2734
▁Mc	-2735
▁led	-2736
▁Nina	-2737
olute	-2738
▁shoes	-2739
ips	-2740
▁master	-2741
▁season	-2742
ander	-2743
▁pack	-2744
▁Austral	-2745
lands	-2746
ira	-2747
▁emp	-2748
▁forgot	-2749
view	-2750
ressed	-2751
▁Santa	-2752
▁trust	-2753
▁belong	-2754
▁nobody	-2755
ino	-2756
chan	-2757
▁reading	-2758
▁tail	-2759
apan	-2760
▁Fraser	-2761
RIC	-2762
▁shop	-2763
▁hospital	-2764
▁sol	-2765
▁List	-2766
▁dogg	-2767
▁requ	-2768
▁juice	-2769
reen	-2770
▁spir	-2771
▁reached	-2772
ffect	-2773
▁Aust	-2774
▁position	-2775
por	-2776
▁Bear	-2777
▁hous	-2778
▁neck	-2779
cially	-2780
▁neighb	-2781
▁commune	-2782
ified	-2783
▁loved	-2784
▁garden	-2785
▁Two	-2786
▁tot	-2787
ograp	-2788
▁suddenly	-2789
▁Cent	-2790
now	-2791
▁Erm	-2792
▁tit	-2793
field	-2794
▁consider	-2795
▁Wait	-2796
▁sense	-2797
AM	-2798
EX	-2799
ives	-2800
▁thou	-2801
ichael	-2802
▁inform	-2803
uture	-2804
▁cow	-2805
▁beat	-2806
▁quar	-2807
▁rain	-2808
▁Dorothy	-2809
fl	-2810
itz	-2811
▁ban	-2812
ests	-2813
ctions	-2814
▁Sy	-2815
ache	-2816
▁bas	-2817
▁lie	-2818
▁forest	-2819
▁wonderful	-2820
▁IT	-2821
▁la	-2822
ille	-2823
ills	-2824
▁hol	-2825
olution	-2826
▁supper	-2827
order	-2828
ishing	-2829
how	-2830
▁ship	-2831
yer	-2832
▁ce	-2833
▁mad	-2834
▁priv	-2835
▁cover	-2836
▁followed	-2837
OW	-2838
ius	-2839
▁Afr	-2840
▁gas	-2841
▁danc	-2842
▁sight	-2843
▁tap	-2844
gest	-2845
▁nor	-2846
▁sad	-2847
▁excl	-2848
▁character	-2849
ky	-2850
GRA	-2851
▁Jo	-2852
▁Park	-2853
▁Tell	-2854
▁fort	-2855
▁sugg	-2856
▁plate	-2857
▁current	-2858
▁Lou	-2859
?”	-2860
cer	-2861
iol	-2862
ums	-2863
ances	-2864
▁Rea	-2865
▁major	-2866
▁letters	-2867
▁service	-2868
▁Co	-2869
▁Net	-2870
▁sugar	-2871
▁circle	-2872
CH	-2873
pers	-2874
▁stat	-2875
▁scared	-2876
ences	-2877
▁Take	-2878
▁educ	-2879
▁difficult	-2880
iff	-2881
sey	-2882
work	-2883
▁Tex	-2884
▁Japan	-2885
▁iss	-2886
aimed	-2887
rill	-2888
▁bye	-2889
▁dance	-2890
viously	-2891
▁effect	-2892
▁moving	-2893
▁recogn	-2894
▁Rob	-2895
▁view	-2896
▁First	-2897
▁activ	-2898
ization	-2899
▁calling	-2900
vin	-2901
▁beginning	-2902
ti	-2903
soci	-2904
board	-2905
▁Chan	-2906
▁offe	-2907
▁health	-2908
▁invest	-2909
▁Michael	-2910
puts	-2911
▁problems	-2912
▁Somet	-2913
▁People	-2914
iod	-2915
uty	-2916
makes	-2917
▁brown	-2918
▁Captain	-2919
▁compl	-2920
▁spend	-2921
aturday	-2922
▁puzzle	-2923
▁leaving	-2924
▁Republ	-2925
omin	-2926
▁vol	-2927
▁ought	-2928
▁Tur	-2929
▁wat	-2930
ience	-2931
▁Even	-2932
▁Queen	-2933
riage	-2934
▁Roman	-2935
Why	-2936
▁busy	-2937
▁corner	-2938
Th	-2939
well	-2940
ission	-2941
▁board	-2942
▁replied	-2943
▁tiny	-2944
▁orange	-2945
▁collect	-2946
▁delight	-2947
▁butterfly	-2948
VE	-2949
Home	-2950
ocol	-2951
▁future	-2952
▁America	-2953
▁dinos	-2954
▁carried	-2955
rug	-2956
▁Visit	-2957
▁Saturday	-2958
ruction	-2959
▁lovely	-2960
▁thanks	-2961
AD	-2962
▁&	-2963
▁Qu	-2964
king	-2965
worth	-2966
▁spoke	-2967
▁accept	-2968
▁blocks	-2969
▁Red	-2970
▁region	-2971
]!	-2972
play	-2973
resh	-2974
▁compan	-2975
ift	-2976
ummy	-2977
▁comfort	-2978
IG	-2979
itted	-2980
▁Aunt	-2981
▁phot	-2982
▁Minister	-2983
▁municipality	-2984
chn	-2985
▁Mad	-2986
▁legs	-2987
▁finger	-2988
▁including	-2989
ray	-2990
▁wow	-2991
asket	-2992
▁singing	-2993
▁shar	-2994
▁appear	-2995
lymp	-2996
uted	-2997
▁church	-2998
form	-2999
pered	-3000
▁crying	-3001
▁seeing	-3002
itions	-3003
▁based	-3004
▁video	-3005
▁breakfast	-3006
ply	-3007
▁tor	-3008
▁puts	-3009
▁Olymp	-3010
▁bread	-3011
sp	-3012
eder	-3013
▁Ox	-3014
▁Jim	-3015
▁card	-3016
▁kitty	-3017
mm	-3018
▁WH	-3019
tered	-3020
▁Coll	-3021
▁mention	-3022
▁population	-3023
▁Ha	-3024
▁Very	-3025
▁Italy	-3026
▁games	-3027
CK	-3028
▁Jer	-3029
▁Mon	-3030
▁jud	-3031
itary	-3032
▁questions	-3033
wood	-3034
▁Sam	-3035
▁James	-3036
▁State	-3037
▁court	-3038
▁Ursula	-3039
▁animal	-3040
--------	-3041
AK	-3042
▁En	-3043
ument	-3044
▁example	-3045
▁ep	-3046
▁bigger	-3047
▁watching	-3048
oops	-3049
▁suggest	-3050
▁San	-3051
▁gen	-3052
aud	-3053
kin	-3054
▁Hist	-3055
▁hate	-3056
▁peace	-3057
▁mix	-3058
picks	-3059
▁decl	-3060
▁Champions	-3061
roy	-3062
ades	-3063
▁Port	-3064
▁Texas	-3065
liament	-3066
▁Father	-3067
▁result	-3068
MA	-3069
▁$	-3070
▁lock	-3071
▁However	-3072
▁allowed	-3073
raft	-3074
▁Gree	-3075
▁Stop	-3076
▁bank	-3077
▁Tony	-3078
itched	-3079
▁track	-3080
▁created	-3081
val	-3082
ancy	-3083
like	-3084
▁stuck	-3085
yy	-3086
iforn	-3087
▁promise	-3088
▁sixty	-3089
▁century	-3090
▁crit	-3091
▁nina	-3092
▁carry	-3093
▁names	-3094
▁relig	-3095
▁bottle	-3096
ient	-3097
▁push	-3098
▁bought	-3099
mond	-3100
omen	-3101
▁Alex	-3102
▁tall	-3103
▁grass	-3104
▁shout	-3105
▁represent	-3106
BR	-3107
urse	-3108
reet	-3109
▁race	-3110
uation	-3111
ifornia	-3112
▁bottom	-3113
▁capital	-3114
apa	-3115
oop	-3116
▁Ann	-3117
ume	-3118
▁mach	-3119
▁entire	-3120
▁helped	-3121
af	-3122
gged	-3123
▁proud	-3124
▁account	-3125
▁further	-3126
ek	-3127
▁local	-3128
ya	-3129
bye	-3130
ico	-3131
▁Lady	-3132
▁lift	-3133
▁Black	-3134
▁alive	-3135
▁School	-3136
▁appeared	-3137
ases	-3138
▁anx	-3139
▁Mart	-3140
ghed	-3141
oken	-3142
▁bab	-3143
▁India	-3144
▁Rober	-3145
unny	-3146
▁Uncle	-3147
ference	-3148
▁asking	-3149
▁chocol	-3150
▁player	-3151
▁discuss	-3152
acing	-3153
▁Crom	-3154
▁California	-3155
va	-3156
epend	-3157
▁climb	-3158
▁slice	-3159
pecially	-3160
▁learned	-3161
raph	-3162
▁mid	-3163
▁drop	-3164
▁subject	-3165
ourt	-3166
▁wel	-3167
▁yyy	-3168
▁studio	-3169
▁Russian	-3170
▁eggs	-3171
▁itself	-3172
▁political	-3173
▁somewhere	-3174
▁background	-3175
▁Grand	-3176
▁Henry	-3177
▁spoon	-3178
She	-3179
▁pi	-3180
▁Mond	-3181
▁Would	-3182
▁Govern	-3183
▁charge	-3184
hood	-3185
▁objects	-3186
▁information	-3187
bles	-3188
cious	-3189
▁Cr	-3190
▁Ste	-3191
imate	-3192
▁beach	-3193
▁Really	-3194
▁final	-3195
▁stars	-3196
▁flat	-3197
▁weren	-3198
▁Little	-3199
umph	-3200
▁Cor	-3201
▁sex	-3202
▁lots	-3203
▁angry	-3204
▁nearly	-3205
sha	-3206
bers	-3207
▁toward	-3208
▁dropped	-3209
▁Marc	-3210
▁Flore	-3211
▁natur	-3212
▁sticks	-3213
▁chicken	-3214
▁meat	-3215
ause	-3216
▁ears	-3217
▁feed	-3218
▁none	-3219
▁parts	-3220
▁Act	-3221
cience	-3222
▁leaves	-3223
eg	-3224
oice	-3225
Don	-3226
ils	-3227
osta	-3228
▁fem	-3229
▁mem	-3230
asant	-3231
iment	-3232
▁airpl	-3233
medi	-3234
roat	-3235
▁EXP	-3236
▁sna	-3237
▁period	-3238
irm	-3239
▁Thom	-3240
▁control	-3241
EW	-3242
▁gar	-3243
▁chocolate	-3244
ria	-3245
▁US	-3246
▁shut	-3247
▁wide	-3248
▁shouldn	-3249
▁accident	-3250
het	-3251
,’	-3252
UT	-3253
HIS	-3254
▁aff	-3255
urity	-3256
▁extra	-3257
▁directed	-3258
▁Mag	-3259
▁Pat	-3260
▁walked	-3261
▁showed	-3262
▁attention	-3263
she	-3264
▁Ant	-3265
eneral	-3266
▁laughed	-3267
aus	-3268
▁Cup	-3269
▁cloud	-3270
▁incre	-3271
▁Council	-3272
cuse	-3273
▁walking	-3274
ida	-3275
▁duck	-3276
▁vers	-3277
▁miles	-3278
gon	-3279
▁ut	-3280
▁Bet	-3281
▁desc	-3282
▁straw	-3283
ops	-3284
ells	-3285
▁Span	-3286
▁comb	-3287
▁farm	-3288
▁birds	-3289
▁joined	-3290
▁hy	-3291
aker	-3292
ires	-3293
rect	-3294
▁hall	-3295
▁paint	-3296
▁Oxford	-3297
▁countries	-3298
▁interesting	-3299
Ross	-3300
▁needed	-3301
ploy	-3302
▁Mil	-3303
▁tiger	-3304
▁finally	-3305
str	-3306
▁dar	-3307
round	-3308
▁host	-3309
▁White	-3310
olutely	-3311
singing	-3312
▁slowly	-3313
▁onto	-3314
▁sleeping	-3315
▁Mic	-3316
▁Mama	-3317
▁repe	-3318
▁River	-3319
▁fright	-3320
▁plastic	-3321
▁ON	-3322
▁Mor	-3323
▁Hung	-3324
▁engine	-3325
▁respect	-3326
▁due	-3327
▁rid	-3328
ption	-3329
▁reach	-3330
NG	-3331
▁[?	-3332
▁Bel	-3333
▁Ver	-3334
▁sky	-3335
▁East	-3336
▁chief	-3337
▁forth	-3338
▁spent	-3339
▁attempt	-3340
of	-3341
utch	-3342
▁mus	-3343
▁pati	-3344
▁earli	-3345
▁Nothing	-3346
▁popular	-3347
▁Law	-3348
▁rese	-3349
▁leader	-3350
▁Our	-3351
▁rose	-3352
▁stayed	-3353
▁talked	-3354
▁magnets	-3355
▁surprise	-3356
aff	-3357
inal	-3358
ords	-3359
▁Ram	-3360
ashed	-3361
▁Robert	-3362
pper	-3363
▁Bob	-3364
▁dam	-3365
There	-3366
clock	-3367
pping	-3368
▁paid	-3369
▁blank	-3370
▁force	-3371
▁excuse	-3372
▁film	-3373
▁Florence	-3374
▁professional	-3375
")	-3376
ANN	-3377
olf	-3378
omes	-3379
▁turning	-3380
ili	-3381
ses	-3382
▁Pal	-3383
▁pray	-3384
▁battle	-3385
yle	-3386
▁Hel	-3387
▁Lot	-3388
itive	-3389
▁pock	-3390
▁continued	-3391
har	-3392
▁weap	-3393
▁enemy	-3394
▁favorite	-3395
'?	-3396
ami	-3397
ivil	-3398
▁Dem	-3399
▁type	-3400
▁hurry	-3401
rab	-3402
elve	-3403
conom	-3404
▁direct	-3405
▁speaking	-3406
FA	-3407
owd	-3408
uel	-3409
▁Jes	-3410
▁Ser	-3411
▁bene	-3412
▁begin	-3413
▁stage	-3414
▁Sal	-3415
icked	-3416
▁study	-3417
▁Friday	-3418
▁ninety	-3419
▁offered	-3420
ki	-3421
isf	-3422
nic	-3423
stit	-3424
▁flew	-3425
▁concern	-3426
ids	-3427
▁Reg	-3428
▁conne	-3429
▁share	-3430
bert	-3431
ially	-3432
How	-3433
▁Pet	-3434
▁key	-3435
ously	-3436
▁viol	-3437
▁various	-3438
▁airplane	-3439
esta	-3440
uses	-3441
antly	-3442
ression	-3443
▁European	-3444
off	-3445
▁Beck	-3446
▁blow	-3447
▁falls	-3448
reme	-3449
ston	-3450
▁brave	-3451
▁fresh	-3452
▁During	-3453
▁excit	-3454
▁fighting	-3455
.’	-3456
St	-3457
▁wash	-3458
▁added	-3459
▁lying	-3460
▁Cromer	-3461
▁necess	-3462
aft	-3463
line	-3464
▁Mal	-3465
▁Mex	-3466
▁Mass	-3467
▁bite	-3468
▁dogs	-3469
▁remark	-3470
mat	-3471
▁port	-3472
uction	-3473
▁clock	-3474
▁stories	-3475
rer	-3476
anor	-3477
▁rich	-3478
▁Washing	-3479
bre	-3480
pes	-3481
▁Mel	-3482
▁cab	-3483
▁rub	-3484
▁Hall	-3485
▁aged	-3486
▁Monday	-3487
▁convers	-3488
COU	-3489
rael	-3490
▁Ber	-3491
house	-3492
▁cous	-3493
▁grad	-3494
▁possib	-3495
lor	-3496
van	-3497
▁nope	-3498
▁Brian	-3499
▁perfor	-3500
▁History	-3501
OO	-3502
oted	-3503
▁van	-3504
father	-3505
▁Street	-3506
▁immedi	-3507
▁likely	-3508
ville	-3509
▁likes	-3510
▁shows	-3511
▁smile	-3512
▁simply	-3513
▁terrible	-3514
▁pleasure	-3515
pha	-3516
▁Ham	-3517
▁wet	-3518
▁Dolly	-3519
▁Frank	-3520
ography	-3521
▁comput	-3522
▁houses	-3523
▁Washington	-3524
set	-3525
▁cru	-3526
▁serious	-3527
RI	-3528
yond	-3529
▁hero	-3530
▁elect	-3531
▁enc	-3532
▁chim	-3533
▁Court	-3534
▁worse	-3535
▁Kingdom	-3536
▁election	-3537
rel	-3538
▁Med	-3539
▁tick	-3540
▁Paris	-3541
▁HE	-3542
coon	-3543
inary	-3544
▁cher	-3545
▁basket	-3546
▁spring	-3547
▁Charles	-3548
▁II	-3549
▁Sch	-3550
▁aut	-3551
▁teeth	-3552
burg	-3553
▁Does	-3554
ination	-3555
▁especially	-3556
song	-3557
▁inj	-3558
▁spoken	-3559
dd	-3560
▁Jul	-3561
iving	-3562
▁hide	-3563
▁role	-3564
▁crack	-3565
▁title	-3566
▁General	-3567
▁process	-3568
▁("	-3569
▁dry	-3570
ups	-3571
ours	-3572
rief	-3573
▁elephant	-3574
▁Pen	-3575
▁pal	-3576
▁scar	-3577
▁washer	-3578
oly	-3579
cast	-3580
▁plays	-3581
▁dressed	-3582
▁soldiers	-3583
ffie	-3584
▁owl	-3585
▁iron	-3586
▁pers	-3587
isc	-3588
▁sle	-3589
▁High	-3590
▁market	-3591
▁monkey	-3592
▁officer	-3593
▁upstairs	-3594
▁fat	-3595
▁epis	-3596
ods	-3597
▁bud	-3598
▁cos	-3599
▁Jose	-3600
▁refer	-3601
▁laughs	-3602
▁singer	-3603
▁threat	-3604
My	-3605
host	-3606
oyal	-3607
▁CHAP	-3608
▁jour	-3609
▁stom	-3610
▁League	-3611
▁quietly	-3612
▁although	-3613
▁relations	-3614
▁Ell	-3615
▁social	-3616
▁ST	-3617
ooper	-3618
▁prep	-3619
▁suff	-3620
▁ways	-3621
▁Nesta	-3622
▁caused	-3623
aded	-3624
razy	-3625
▁pun	-3626
▁Smith	-3627
▁CHAPTER	-3628
▁welcome	-3629
▁mass	-3630
▁Since	-3631
▁stone	-3632
▁Thomas	-3633
▁breath	-3634
▁command	-3635
▁BE	-3636
cture	-3637
▁About	-3638
▁guard	-3639
▁closed	-3640
ERE	-3641
ural	-3642
▁ris	-3643
▁lawyer	-3644
▁telephone	-3645
ilar	-3646
▁bell	-3647
▁uhuh	-3648
ration	-3649
▁balls	-3650
▁exist	-3651
▁spirit	-3652
▁destroy	-3653
arl	-3654
▁rab	-3655
▁Eliz	-3656
▁Marg	-3657
▁exec	-3658
▁slight	-3659
▁thinks	-3660
HE	-3661
▁Jew	-3662
▁Joe	-3663
▁Rod	-3664
▁infl	-3665
ularly	-3666
▁Louis	-3667
hand	-3668
▁Des	-3669
▁Effie	-3670
▁indust	-3671
▁norm	-3672
▁phys	-3673
ival	-3674
▁Most	-3675
▁Sure	-3676
▁date	-3677
▁purp	-3678
▁tower	-3679
▁Listen	-3680
▁picked	-3681
▁()	-3682
▁Scot	-3683
▁amaz	-3684
aining	-3685
▁taste	-3686
▁Canada	-3687
▁spread	-3688
▁victim	-3689
▁arrived	-3690
ois	-3691
▁obs	-3692
▁Israel	-3693
▁arrest	-3694
▁twelve	-3695
itor	-3696
writ	-3697
▁Pri	-3698
▁Braz	-3699
▁scream	-3700
▁fingers	-3701
▁difference	-3702
!'	-3703
inc	-3704
met	-3705
▁joy	-3706
ustom	-3707
▁east	-3708
ashion	-3709
▁driving	-3710
has	-3711
aine	-3712
ples	-3713
▁Han	-3714
asion	-3715
▁Care	-3716
▁Cong	-3717
▁famous	-3718
▁Christian	-3719
▁published	-3720
SS	-3721
They	-3722
lect	-3723
viron	-3724
▁include	-3725
oming	-3726
oughs	-3727
▁crowd	-3728
▁estab	-3729
▁raised	-3730
Then	-3731
▁non	-3732
▁Which	-3733
▁beyond	-3734
▁throat	-3735
erve	-3736
▁Ire	-3737
▁Only	-3738
▁Humph	-3739
▁allow	-3740
▁rights	-3741
▁announced	-3742
▁exclaimed	-3743
ergy	-3744
wise	-3745
▁Fred	-3746
▁beha	-3747
▁spot	-3748
▁ident	-3749
▁separ	-3750
▁techn	-3751
▁winter	-3752
▁happening	-3753
lam	-3754
▁mir	-3755
▁Many	-3756
▁Mike	-3757
▁dinosaur	-3758
do	-3759
ila	-3760
▁Ros	-3761
▁den	-3762
▁turns	-3763
▁doggie	-3764
▁island	-3765
▁Eleanor	-3766
▁falling	-3767
ss	-3768
▁rule	-3769
▁Excuse	-3770
▁Italian	-3771
eless	-3772
▁THAT	-3773
ession	-3774
▁higher	-3775
▁rabbit	-3776
▁satisf	-3777
▁military	-3778
rupt	-3779
▁gall	-3780
▁laid	-3781
▁fault	-3782
▁pocket	-3783
▁journey	-3784
▁swimming	-3785
ighs	-3786
▁deg	-3787
▁cute	-3788
ka	-3789
▁inn	-3790
light	-3791
▁join	-3792
▁county	-3793
▁respons	-3794
▁Humphrey	-3795
▁strawber	-3796
▁Parliament	-3797
kn	-3798
arm	-3799
aret	-3800
▁Acc	-3801
▁ver	-3802
▁Gold	-3803
▁search	-3804
▁private	-3805
▁Give	-3806
▁below	-3807
▁crazy	-3808
▁older	-3809
▁cocoon	-3810
▁sposta	-3811
vironment	-3812
bed	-3813
oons	-3814
ruit	-3815
▁scr	-3816
▁Scott	-3817
▁speed	-3818
▁Brazil	-3819
▁scient	-3820
▁dollars	-3821
▁completely	-3822
gu	-3823
▁emb	-3824
▁vis	-3825
asons	-3826
▁deter	-3827
▁murder	-3828
▁ur	-3829
wich	-3830
holds	-3831
▁Could	-3832
▁lim	-3833
ciety	-3834
▁magic	-3835
▁Prince	-3836
▁involved	-3837
GMA	-3838
vey	-3839
▁More	-3840
▁gives	-3841
orthern	-3842
▁listening	-3843
▁Ro	-3844
iles	-3845
whis	-3846
▁Mac	-3847
ipped	-3848
▁Bert	-3849
▁pink	-3850
▁term	-3851
▁Women	-3852
▁commun	-3853
▁taught	-3854
▁Ac	-3855
abel	-3856
▁Bat	-3857
abeth	-3858
otten	-3859
▁mouse	-3860
▁ninet	-3861
▁evidence	-3862
Now	-3863
▁Res	-3864
▁Wood	-3865
▁project	-3866
▁imm	-3867
▁bull	-3868
elling	-3869
▁metal	-3870
sidered	-3871
▁natural	-3872
▁considered	-3873
▁conversation	-3874
icle	-3875
▁ide	-3876
apers	-3877
▁apart	-3878
▁ended	-3879
▁lines	-3880
▁tears	-3881
▁manage	-3882
HT	-3883
pin	-3884
▁path	-3885
▁wise	-3886
iggles	-3887
▁director	-3888
▁Up	-3889
▁Its	-3890
▁sum	-3891
▁broad	-3892
▁woods	-3893
▁anywhere	-3894
▁Australia	-3895
▁DO	-3896
▁Rec	-3897
▁message	-3898
▁afterwards	-3899
ho	-3900
aps	-3901
▁earlier	-3902
▁seventy	-3903
▁starting	-3904
▁whispered	-3905
▁particular	-3906
ables	-3907
ocrat	-3908
▁drug	-3909
▁Dutch	-3910
▁introd	-3911
▁address	-3912
▁college	-3913
▁located	-3914
▁machine	-3915
ppy	-3916
orts	-3917
▁Dep	-3918
▁Sen	-3919
▁pill	-3920
▁spee	-3921
▁ladies	-3922
▁pushed	-3923
▁entered	-3924
▁excited	-3925
agn	-3926
iance	-3927
▁Eric	-3928
▁Marcia	-3929
▁agreed	-3930
cks	-3931
▁..	-3932
mont	-3933
▁Luc	-3934
under	-3935
▁drew	-3936
▁choice	-3937
zen	-3938
cean	-3939
▁und	-3940
osing	-3941
▁bound	-3942
▁founded	-3943
ux	-3944
▁pic	-3945
▁Their	-3946
▁offer	-3947
▁Sand	-3948
▁fool	-3949
▁missed	-3950
▁placed	-3951
lebr	-3952
erved	-3953
▁Bill	-3954
▁tone	-3955
▁motor	-3956
lim	-3957
atives	-3958
▁agree	-3959
▁awful	-3960
▁faith	-3961
▁wheel	-3962
▁asleep	-3963
▁regard	-3964
ota	-3965
▁hasn	-3966
▁action	-3967
▁amount	-3968
ja	-3969
pa	-3970
--"	-3971
▁pet	-3972
▁Rose	-3973
mel	-3974
elle	-3975
▁rev	-3976
▁capt	-3977
▁shad	-3978
▁actor	-3979
▁quarter	-3980
▁investig	-3981
▁situation	-3982
IR	-3983
LY	-3984
▁Da	-3985
acks	-3986
inite	-3987
▁sail	-3988
▁accom	-3989
▁beside	-3990
▁numbers	-3991
▁immediately	-3992
▁international	-3993
If	-3994
bon	-3995
▁Mo	-3996
etts	-3997
▁hun	-3998
▁surv	-3999
▁delic	-4000
▁potat	-4001
▁training	-4002
▁interested	-4003
was	-4004
▁ME	-4005
▁Hug	-4006
▁huge	-4007
▁skin	-4008
▁Three	-4009
▁simple	-4010
▁chimney	-4011
▁pleased	-4012
▁mountain	-4013
gypt	-4014
vies	-4015
arrow	-4016
▁Army	-4017
ointed	-4018
ushing	-4019
▁remem	-4020
▁fourth	-4021
▁turtle	-4022
onounced	-4023
▁distance	-4024
▁sentence	-4025
agon	-4026
achus	-4027
▁econom	-4028
▁opport	-4029
▁streng	-4030
▁gentleman	-4031
uk	-4032
ien	-4033
antic	-4034
▁pair	-4035
▁soul	-4036
ourage	-4037
achusetts	-4038
ari	-4039
elly	-4040
▁nap	-4041
▁nut	-4042
▁tend	-4043
▁award	-4044
▁threw	-4045
▁showing	-4046
▁Republic	-4047
olt	-4048
▁TV	-4049
ites	-4050
▁Wed	-4051
▁bal	-4052
▁fre	-4053
▁spl	-4054
▁Over	-4055
nesday	-4056
uckles	-4057
▁Kitty	-4058
▁dirty	-4059
▁songs	-4060
▁honest	-4061
▁settle	-4062
▁education	-4063
▁Massachusetts	-4064
!”	-4065
reys	-4066
ights	-4067
▁cere	-4068
▁exam	-4069
▁whoa	-4070
action	-4071
▁dread	-4072
▁International	-4073
asc	-4074
inct	-4075
▁Dis	-4076
▁Tra	-4077
ensus	-4078
▁Rome	-4079
▁bless	-4080
▁languages	-4081
ails	-4082
ials	-4083
▁cart	-4084
▁soup	-4085
▁While	-4086
▁terms	-4087
▁Church	-4088
▁closer	-4089
▁manner	-4090
▁covered	-4091
▁dancing	-4092
AU	-4093
rem	-4094
▁(;	-4095
arian	-4096
bered	-4097
oring	-4098
▁sett	-4099
▁unless	-4100
▁Di	-4101
vere	-4102
ledge	-4103
ursday	-4104
▁Summer	-4105
▁movies	-4106
▁studied	-4107
ulf	-4108
▁Fin	-4109
▁calls	-4110
▁civil	-4111
▁flying	-4112
▁stairs	-4113
▁missing	-4114
▁recorder	-4115
▁eff	-4116
▁nature	-4117
hest	-4118
itan	-4119
talk	-4120
ators	-4121
enced	-4122
▁cell	-4123
▁hadn	-4124
▁trad	-4125
▁claim	-4126
▁Aldred	-4127
▁Spanish	-4128
▁wearing	-4129
sociation	-4130
▁movement	-4131
▁therefore	-4132
▁Um	-4133
▁Brad	-4134
▁Papa	-4135
▁colors	-4136
▁mistake	-4137
▁Thursday	-4138
▁believed	-4139
▁decision	-4140
.,	-4141
ago	-4142
eds	-4143
rif	-4144
asing	-4145
usion	-4146
▁Camp	-4147
▁Jean	-4148
▁Before	-4149
▁castle	-4150
▁La	-4151
▁Wil	-4152
▁neg	-4153
itude	-4154
▁Jesus	-4155
▁Lat	-4156
▁Met	-4157
▁fol	-4158
▁bill	-4159
▁suit	-4160
ograph	-4161
▁assist	-4162
▁temper	-4163
▁imagine	-4164
▁neither	-4165
▁original	-4166
▁community	-4167
ita	-4168
ram	-4169
▁Li	-4170
▁Air	-4171
▁Mont	-4172
▁grown	-4173
▁nurse	-4174
▁similar	-4175
vi	-4176
ads	-4177
▁Union	-4178
▁plain	-4179
giggles	-4180
looking	-4181
outhern	-4182
▁surprised	-4183
hum	-4184
▁teach	-4185
▁square	-4186
ella	-4187
▁Old	-4188
▁sens	-4189
▁Joseph	-4190
just	-4191
oups	-4192
▁zoo	-4193
▁thee	-4194
tering	-4195
▁stran	-4196
▁employ	-4197
▁filled	-4198
▁rocket	-4199
▁discovered	-4200
can	-4201
rid	-4202
chie	-4203
hered	-4204
▁Russia	-4205
▁escape	-4206
▁Wednesday	-4207
▁tax	-4208
▁cult	-4209
▁Elizabeth	-4210
iant	-4211
▁Fox	-4212
▁Out	-4213
itzer	-4214
▁vote	-4215
▁smart	-4216
▁stock	-4217
ossible	-4218
▁expected	-4219
▁produced	-4220
oved	-4221
▁Lab	-4222
▁Franc	-4223
▁Never	-4224
▁brain	-4225
▁couch	-4226
▁watched	-4227
▁Olympics	-4228
gn	-4229
hips	-4230
ivid	-4231
roll	-4232
▁Aye	-4233
▁Jud	-4234
ellig	-4235
▁note	-4236
▁honor	-4237
▁medic	-4238
▁saved	-4239
▁Master	-4240
▁celebr	-4241
▁histor	-4242
ns	-4243
bel	-4244
olic	-4245
▁Mur	-4246
mpion	-4247
▁camer	-4248
▁episode	-4249
▁independ	-4250
ales	-4251
vert	-4252
▁Bur	-4253
▁coat	-4254
▁coun	-4255
▁size	-4256
orough	-4257
▁female	-4258
▁largest	-4259
▁brothers	-4260
▁nineteen	-4261
oma	-4262
inda	-4263
takes	-4264
▁calm	-4265
▁doin	-4266
▁Other	-4267
▁shirt	-4268
▁correct	-4269
▁Jeffreys	-4270
▁bathroom	-4271
▁dangerous	-4272
Is	-4273
ini	-4274
oph	-4275
anda	-4276
▁CHI	-4277
rance	-4278
▁neat	-4279
▁Super	-4280
▁knife	-4281
▁bridge	-4282
▁speech	-4283
Do	-4284
atic	-4285
▁Hur	-4286
▁deb	-4287
oured	-4288
▁Cath	-4289
▁Sing	-4290
▁deli	-4291
▁west	-4292
▁Egypt	-4293
▁cheer	-4294
▁radio	-4295
▁double	-4296
▁Sim	-4297
▁Tri	-4298
▁lap	-4299
vious	-4300
▁Spain	-4301
▁impro	-4302
▁liter	-4303
▁cousin	-4304
▁picnic	-4305
▁pulled	-4306
▁MOT	-4307
▁Brown	-4308
▁Charl	-4309
▁twice	-4310
▁Mus	-4311
elled	-4312
▁Duke	-4313
▁Chief	-4314
▁areas	-4315
▁hardly	-4316
▁computer	-4317
▁absolutely	-4318
boy	-4319
ify	-4320
isy	-4321
bout	-4322
▁Cat	-4323
▁mult	-4324
uesday	-4325
▁debut	-4326
▁plant	-4327
▁flower	-4328
▁IS	-4329
▁hid	-4330
▁coach	-4331
▁dolly	-4332
▁cherry	-4333
▁strugg	-4334
▁monster	-4335
So	-4336
▁Del	-4337
▁dey	-4338
▁rap	-4339
umber	-4340
▁gods	-4341
▁pour	-4342
cellent	-4343
▁artist	-4344
▁length	-4345
▁notice	-4346
▁plenty	-4347
▁particularly	-4348
hel	-4349
pan	-4350
HING	-4351
▁dise	-4352
▁species	-4353
▁drinking	-4354
vell	-4355
▁ham	-4356
▁murd	-4357
icated	-4358
▁eager	-4359
▁influ	-4360
▁lucky	-4361
▁circus	-4362
▁groups	-4363
ELL	-4364
▁mic	-4365
▁Dist	-4366
ferent	-4367
▁Robin	-4368
▁empty	-4369
▁product	-4370
jo	-4371
ees	-4372
aign	-4373
▁Ter	-4374
anced	-4375
▁duty	-4376
▁feat	-4377
▁runs	-4378
▁Molly	-4379
▁purpose	-4380
▁princess	-4381
KEN	-4382
oid	-4383
onse	-4384
▁App	-4385
▁Mat	-4386
alley	-4387
ittee	-4388
moves	-4389
vince	-4390
▁Award	-4391
▁total	-4392
▁usual	-4393
▁Tuesday	-4394
▁clearly	-4395
▁explain	-4396
▁worried	-4397
cul	-4398
▁Rem	-4399
▁Sus	-4400
ively	-4401
▁harm	-4402
▁mater	-4403
▁wound	-4404
▁experience	-4405
nded	-4406
ners	-4407
using	-4408
▁Rock	-4409
▁gate	-4410
▁jack	-4411
▁lips	-4412
▁tong	-4413
▁oppos	-4414
▁picks	-4415
itation	-4416
ocratic	-4417
ís	-4418
ala	-4419
▁WE	-4420
iana	-4421
▁aud	-4422
▁net	-4423
▁sharp	-4424
▁suspect	-4425
gen	-4426
ching	-4427
▁lion	-4428
▁wake	-4429
▁pleasant	-4430
▁promised	-4431
ste	-4432
▁dig	-4433
▁tou	-4434
▁thus	-4435
IGHT	-4436
▁Cast	-4437
▁sour	-4438
▁trip	-4439
▁Secret	-4440
▁fought	-4441
▁meaning	-4442
▁personal	-4443
▁research	-4444
▁champions	-4445
sm	-4446
lig	-4447
▁Life	-4448
▁libr	-4449
▁African	-4450
ona	-4451
▁CO	-4452
cely	-4453
▁foc	-4454
paper	-4455
▁pool	-4456
▁appre	-4457
▁candy	-4458
▁crime	-4459
▁rough	-4460
▁walks	-4461
▁Francis	-4462
▁perfectly	-4463
ENT	-4464
enth	-4465
▁Day	-4466
ishop	-4467
▁loss	-4468
ournal	-4469
▁Mabel	-4470
▁darling	-4471
▁elected	-4472
▁according	-4473
arr	-4474
eer	-4475
eta	-4476
▁Iran	-4477
▁favour	-4478
?'	-4479
pir	-4480
tin	-4481
▁Ap	-4482
▁et	-4483
▁Emp	-4484
▁doc	-4485
▁Claus	-4486
▁scary	-4487
▁trick	-4488
▁distrib	-4489
▁continue	-4490
▁greatest	-4491
▁construction	-4492
inist	-4493
▁Fire	-4494
▁appl	-4495
▁hill	-4496
▁rate	-4497
▁Green	-4498
▁Angela	-4499
▁writer	-4500
▁silence	-4501
▁development	-4502
ANT	-4503
▁gro	-4504
coughs	-4505
▁Earth	-4506
▁occur	-4507
▁struck	-4508
▁council	-4509
▁regular	-4510
nie	-4511
▁Boy	-4512
▁ble	-4513
▁lat	-4514
▁wit	-4515
▁Hugo	-4516
▁decide	-4517
▁Perhaps	-4518
AB	-4519
umps	-4520
ishes	-4521
▁susp	-4522
▁tells	-4523
▁demand	-4524
itzerland	-4525
▁continues	-4526
mit	-4527
nods	-4528
▁Happ	-4529
▁fixed	-4530
▁Island	-4531
▁easily	-4532
▁students	-4533
▁Championship	-4534
CE	-4535
edy	-4536
odes	-4537
oking	-4538
▁Love	-4539
▁bowl	-4540
▁queen	-4541
▁remained	-4542
▁sandwich	-4543
asy	-4544
▁Sk	-4545
▁oil	-4546
▁Major	-4547
▁holds	-4548
▁shown	-4549
▁beauty	-4550
▁dishes	-4551
▁blanket	-4552
▁Switzerland	-4553
gent	-4554
▁Big	-4555
aches	-4556
▁meal	-4557
▁Those	-4558
▁storm	-4559
▁willing	-4560
▁Scotland	-4561
▁gentlemen	-4562
▁strawberries	-4563
▁tv	-4564
▁Dar	-4565
▁FOR	-4566
▁heads	-4567
▁occup	-4568
▁helping	-4569
▁impossible	-4570
olm	-4571
▁firm	-4572
ildred	-4573
▁willn	-4574
▁jumped	-4575
▁wooden	-4576
▁fashion	-4577
▁obviously	-4578
kra	-4579
▁sac	-4580
inese	-4581
▁earn	-4582
▁fund	-4583
▁keeping	-4584
_,	-4585
ava	-4586
oms	-4587
pet	-4588
aled	-4589
ilda	-4590
viet	-4591
▁vac	-4592
▁Four	-4593
▁Keep	-4594
▁lower	-4595
▁stret	-4596
▁swing	-4597
▁percent	-4598
▁weather	-4599
▁According	-4600
▁elephants	-4601
▁Cam	-4602
▁Scr	-4603
▁mut	-4604
▁row	-4605
▁disp	-4606
▁rail	-4607
iction	-4608
▁Percy	-4609
▁contact	-4610
▁declared	-4611
▁security	-4612
▁Something	-4613
ST	-4614
rans	-4615
irgin	-4616
▁cott	-4617
▁avail	-4618
▁scene	-4619
▁captain	-4620
▁pitched	-4621
▁stomach	-4622
gas	-4623
▁Gar	-4624
▁fro	-4625
aries	-4626
▁Cont	-4627
▁inqu	-4628
▁China	-4629
▁plane	-4630
▁frightened	-4631
▁environment	-4632
ez	-4633
ura	-4634
rank	-4635
with	-4636
▁Bye	-4637
▁Hon	-4638
▁Tim	-4639
▁bare	-4640
▁arrow	-4641
▁Soviet	-4642
▁strength	-4643
▁pin	-4644
▁desp	-4645
▁travel	-4646
reg	-4647
▁ge	-4648
istan	-4649
▁Fore	-4650
▁Jenn	-4651
▁acqu	-4652
▁bang	-4653
▁cred	-4654
corder	-4655
All	-4656
sec	-4657
▁ye	-4658
▁Guy	-4659
▁cam	-4660
▁thy	-4661
aching	-4662
▁Early	-4663
▁Islam	-4664
▁youth	-4665
▁custom	-4666
▁hanging	-4667
▁competed	-4668
▁necessary	-4669
▁Nat	-4670
▁gaz	-4671
▁cant	-4672
▁curi	-4673
▁tries	-4674
▁loudly	-4675
eaks	-4676
etch	-4677
rees	-4678
▁Ray	-4679
▁Once	-4680
▁roof	-4681
▁weak	-4682
▁coast	-4683
▁judge	-4684
▁Mildred	-4685
▁anxious	-4686
ker	-4687
aves	-4688
ippi	-4689
▁Cle	-4690
aning	-4691
▁Minn	-4692
▁nurs	-4693
▁adult	-4694
▁fruit	-4695
▁button	-4696
?]	-4697
In	-4698
car	-4699
▁Bu	-4700
pens	-4701
isted	-4702
known	-4703
▁boots	-4704
▁extreme	-4705
▁ma	-4706
▁fra	-4707
▁tar	-4708
▁wha	-4709
lected	-4710
▁grave	-4711
▁string	-4712
▁fifteen	-4713
▁contract	-4714
▁possibly	-4715
cip	-4716
▁Got	-4717
▁Hum	-4718
▁fancy	-4719
▁tight	-4720
▁weird	-4721
▁advent	-4722
▁tongue	-4723
"]	-4724
da	-4725
▁Fe	-4726
bury	-4727
▁pig	-4728
▁tow	-4729
▁fold	-4730
▁joke	-4731
ederal	-4732
▁Western	-4733
▁science	-4734
CT	-4735
fit	-4736
esty	-4737
▁giant	-4738
▁sides	-4739
▁Edward	-4740
▁Walter	-4741
▁rising	-4742
▁attract	-4743
▁channel	-4744
▁prevent	-4745
▁official	-4746
▁Everything	-4747
▁competition	-4748
ij	-4749
kel	-4750
▁GO	-4751
▁Ry	-4752
orks	-4753
▁Dra	-4754
▁Kat	-4755
anges	-4756
inger	-4757
▁mail	-4758
▁novel	-4759
▁eleven	-4760
▁remind	-4761
▁managed	-4762
▁marriage	-4763
▁carefully	-4764
vis	-4765
ship	-4766
uten	-4767
▁Jos	-4768
useum	-4769
▁Maria	-4770
▁Mount	-4771
▁shore	-4772
▁seconds	-4773
▁ir	-4774
▁Chris	-4775
▁opportunity	-4776
bur	-4777
ault	-4778
aven	-4779
▁furn	-4780
▁thick	-4781
▁formed	-4782
▁College	-4783
▁changes	-4784
▁leading	-4785
▁Congress	-4786
▁mentioned	-4787
su	-4788
▁Ir	-4789
▁Sun	-4790
▁unc	-4791
▁Prin	-4792
▁rings	-4793
▁camera	-4794
▁direction	-4795
tr	-4796
ban	-4797
▁ho	-4798
ique	-4799
▁Lee	-4800
▁Call	-4801
▁kinds	-4802
▁centre	-4803
▁determ	-4804
▁energy	-4805
▁southw	-4806
chuckles	-4807
ification	-4808
ba	-4809
ero	-4810
▁NO	-4811
ript	-4812
▁saf	-4813
▁Wind	-4814
▁bump	-4815
▁phil	-4816
▁text	-4817
▁Saint	-4818
▁sword	-4819
ilities	-4820
▁handle	-4821
▁Ireland	-4822
▁campaign	-4823
▁prepared	-4824
▁response	-4825
bey	-4826
▁MY	-4827
enny	-4828
iano	-4829
kins	-4830
▁pan	-4831
gress	-4832
ribed	-4833
▁boss	-4834
▁Mississ	-4835
▁disease	-4836
▁opening	-4837
▁Japanese	-4838
UST	-4839
don	-4840
erg	-4841
rig	-4842
ooge	-4843
▁Val	-4844
▁eld	-4845
ading	-4846
heart	-4847
peror	-4848
sighs	-4849
▁Serv	-4850
▁Zara	-4851
▁opin	-4852
▁trib	-4853
▁steal	-4854
▁killer	-4855
▁orders	-4856
▁growing	-4857
berg	-4858
ooks	-4859
urns	-4860
ardon	-4861
▁Play	-4862
▁Greek	-4863
▁Mummy	-4864
▁brief	-4865
▁moves	-4866
▁plums	-4867
▁price	-4868
ication	-4869
▁noticed	-4870
▁carrying	-4871
▁interview	-4872
▁knowledge	-4873
▁ourselves	-4874
▁Mississippi	-4875
ador	-4876
▁Jac	-4877
▁nea	-4878
▁sen	-4879
▁Town	-4880
▁nuts	-4881
▁Carol	-4882
▁dying	-4883
▁shape	-4884
▁Africa	-4885
▁Donald	-4886
▁establ	-4887
▁stream	-4888
oug	-4889
▁wed	-4890
ilies	-4891
▁trade	-4892
▁center	-4893
▁events	-4894
▁smiled	-4895
▁soldier	-4896
▁downstairs	-4897
bu	-4898
▁Hu	-4899
aked	-4900
▁ant	-4901
▁rom	-4902
ademy	-4903
▁steps	-4904
▁driver	-4905
▁normal	-4906
▁knowing	-4907
▁Austrian	-4908
Come	-4909
▁Say	-4910
▁sch	-4911
▁cups	-4912
icycle	-4913
▁Empire	-4914
Not	-4915
iel	-4916
▁Far	-4917
melon	-4918
opher	-4919
▁bomb	-4920
▁uhoh	-4921
▁wings	-4922
▁Gerald	-4923
▁drawing	-4924
▁sisters	-4925
eks	-4926
keep	-4927
▁nic	-4928
▁Barb	-4929
▁dare	-4930
▁mere	-4931
▁saus	-4932
▁Nether	-4933
▁memory	-4934
▁states	-4935
▁voices	-4936
▁society	-4937
▁neighbor	-4938
▁somethin	-4939
▁Den	-4940
▁Agnes	-4941
▁census	-4942
▁papers	-4943
▁produc	-4944
▁Britain	-4945
▁forever	-4946
mn	-4947
bet	-4948
lla	-4949
avar	-4950
ouri	-4951
outs	-4952
▁risk	-4953
▁cruel	-4954
▁Doctor	-4955
▁Scrooge	-4956
dam	-4957
amin	-4958
anch	-4959
ends	-4960
▁Bas	-4961
▁nerv	-4962
▁uses	-4963
fortun	-4964
▁burst	-4965
▁merry	-4966
▁choose	-4967
▁helmet	-4968
▁purple	-4969
▁signed	-4970
▁actress	-4971
▁schools	-4972
▁occasion	-4973
**	-4974
ado	-4975
erc	-4976
back	-4977
llen	-4978
▁Pope	-4979
▁THIS	-4980
▁poet	-4981
▁qual	-4982
▁shoe	-4983
▁stro	-4984
▁ghost	-4985
▁constit	-4986
▁oranges	-4987
▁whisper	-4988
▁practice	-4989
▁Alexander	-4990
kend	-4991
▁Hot	-4992
▁Mhm	-4993
▁Tod	-4994
▁ign	-4995
ening	-4996
▁Hold	-4997
▁Nice	-4998
▁chem	-4999
▁plat	-5000
▁blind	-5001
▁keeps	-5002
▁smell	-5003
▁fallen	-5004
▁appreci	-5005
▁greater	-5006
▁matches	-5007
▁younger	-5008
▁Actually	-5009
▁officers	-5010
▁Association	-5011
▁Netherlands	-5012
gt	-5013
▁BRO	-5014
▁Fil	-5015
▁arg	-5016
▁log	-5017
▁Fort	-5018
▁loll	-5019
arently	-5020
▁mostly	-5021
▁motion	-5022
▁individ	-5023
▁Sometimes	-5024
uz	-5025
cel	-5026
omm	-5027
udd	-5028
illa	-5029
sequ	-5030
▁Rom	-5031
▁Wel	-5032
▁mel	-5033
▁Kent	-5034
▁Zeal	-5035
▁print	-5036
▁wrest	-5037
▁babies	-5038
▁cancer	-5039
▁Canadian	-5040
OUR	-5041
ocks	-5042
▁vot	-5043
▁arch	-5044
▁Happy	-5045
▁pound	-5046
▁teams	-5047
▁lights	-5048
▁modern	-5049
▁goodness	-5050
▁excellent	-5051
▁watermelon	-5052
oston	-5053
▁Nick	-5054
▁emer	-5055
▁salt	-5056
▁nomin	-5057
▁wheels	-5058
▁concerned	-5059
EA	-5060
arts	-5061
▁dun	-5062
▁rob	-5063
▁dish	-5064
▁crown	-5065
▁Mexico	-5066
▁cookie	-5067
▁easier	-5068
▁Chinese	-5069
▁Catholic	-5070
gie	-5071
▁Ok	-5072
arah	-5073
▁Stan	-5074
▁Step	-5075
▁Becky	-5076
▁feels	-5077
▁rapid	-5078
▁walls	-5079
initely	-5080
▁retired	-5081
▁settled	-5082
MAL	-5083
▁Sl	-5084
fess	-5085
ocal	-5086
▁Rel	-5087
nding	-5088
▁Polly	-5089
▁Prime	-5090
▁noble	-5091
▁owned	-5092
ological	-5093
erecorder	-5094
hem	-5095
ola	-5096
▁Rh	-5097
face	-5098
itar	-5099
sych	-5100
▁Bra	-5101
▁amb	-5102
▁ess	-5103
place	-5104
▁Flor	-5105
▁Pict	-5106
▁Royal	-5107
▁Still	-5108
▁Under	-5109
▁frogs	-5110
▁plans	-5111
▁upset	-5112
▁useta	-5113
▁forced	-5114
▁golden	-5115
▁protest	-5116
aki	-5117
ems	-5118
▁HI	-5119
This	-5120
cake	-5121
mark	-5122
▁Ban	-5123
▁Ron	-5124
▁Wow	-5125
▁aunt	-5126
▁prim	-5127
▁sake	-5128
▁Marie	-5129
▁hotel	-5130
▁Second	-5131
▁attend	-5132
▁policy	-5133
▁highest	-5134
▁smaller	-5135
▁wondering	-5136
eman	-5137
▁WAS	-5138
▁suc	-5139
ushes	-5140
▁Cons	-5141
▁Time	-5142
▁Muslim	-5143
▁cities	-5144
▁flight	-5145
▁figures	-5146
▁minister	-5147
▁grandfather	-5148
hal	-5149
inet	-5150
▁Put	-5151
▁Six	-5152
▁Way	-5153
iring	-5154
▁wore	-5155
▁fifth	-5156
▁ideas	-5157
▁bother	-5158
▁safety	-5159
▁weight	-5160
▁Zealand	-5161
▁feelings	-5162
▁presents	-5163
▁remembered	-5164
ION	-5165
OME	-5166
▁bug	-5167
▁fal	-5168
ether	-5169
▁Back	-5170
▁Fine	-5171
▁rise	-5172
▁prove	-5173
▁lollip	-5174
▁remain	-5175
▁shadow	-5176
▁wished	-5177
▁content	-5178
▁succeed	-5179
▁powerful	-5180
▁repeated	-5181
▁religious	-5182
oria	-5183
▁Art	-5184
▁Jon	-5185
▁Los	-5186
olars	-5187
▁aware	-5188
▁faces	-5189
▁Career	-5190
▁degree	-5191
▁waited	-5192
osc	-5193
uan	-5194
▁Ev	-5195
▁Shi	-5196
▁flo	-5197
izing	-5198
▁Earl	-5199
▁troub	-5200
▁apolog	-5201
▁clouds	-5202
▁Another	-5203
▁Austria	-5204
▁bedroom	-5205
▁leaders	-5206
▁proceed	-5207
▁bringing	-5208
▁forgotten	-5209
▁comfortable	-5210
▁HA	-5211
ucky	-5212
▁alt	-5213
▁glo	-5214
▁Jake	-5215
▁affe	-5216
▁dolls	-5217
▁fence	-5218
▁ocean	-5219
▁rules	-5220
▁smoke	-5221
mission	-5222
▁Cooper	-5223
▁dreams	-5224
▁version	-5225
▁addition	-5226
▁condition	-5227
▁established	-5228
VER	-5229
▁cy	-5230
gery	-5231
riff	-5232
▁Max	-5233
▁Sur	-5234
▁ted	-5235
ansas	-5236
craft	-5237
▁Comp	-5238
▁cases	-5239
▁loves	-5240
▁marry	-5241
▁reign	-5242
▁rocks	-5243
▁union	-5244
▁central	-5245
▁Governor	-5246
▁particip	-5247
▁available	-5248
aura	-5249
iety	-5250
onel	-5251
▁Bre	-5252
aring	-5253
▁pean	-5254
▁Trans	-5255
▁conqu	-5256
▁Boston	-5257
▁Province	-5258
▁companies	-5259
▁prisoners	-5260
uf	-5261
▁bi	-5262
lend	-5263
semb	-5264
▁Hor	-5265
▁Spe	-5266
otion	-5267
▁Home	-5268
▁bike	-5269
▁copy	-5270
▁waste	-5271
▁worst	-5272
▁forces	-5273
▁plants	-5274
▁theory	-5275
▁manager	-5276
EP	-5277
ga	-5278
aun	-5279
▁FC	-5280
Mark	-5281
iece	-5282
onia	-5283
this	-5284
▁mor	-5285
arily	-5286
there	-5287
▁Bund	-5288
▁Mill	-5289
▁edge	-5290
▁enter	-5291
▁Johnson	-5292
▁kingdom	-5293
▁Although	-5294
▁scarcely	-5295
las	-5296
▁Ty	-5297
year	-5298
icles	-5299
stood	-5300
▁WHAT	-5301
▁Wall	-5302
▁rode	-5303
▁talks	-5304
▁foreign	-5305
▁District	-5306
▁painting	-5307
wo	-5308
run	-5309
▁UN	-5310
▁cit	-5311
odies	-5312
▁Kore	-5313
▁Swed	-5314
▁dose	-5315
▁lord	-5316
▁stir	-5317
▁cards	-5318
▁pages	-5319
▁heaven	-5320
▁sausage	-5321
▁lollipop	-5322
▁shoulder	-5323
▁Hal	-5324
▁ships	-5325
▁pickle	-5326
▁salami	-5327
▁finding	-5328
▁glasses	-5329
▁ordered	-5330
▁windows	-5331
▁families	-5332
▁reported	-5333
▁Secretary	-5334
▁developed	-5335
▁Democratic	-5336
▁/	-5337
ols	-5338
▁Lo	-5339
Good	-5340
▁kick	-5341
▁rice	-5342
ential	-5343
▁value	-5344
▁horsie	-5345
▁needta	-5346
▁medicine	-5347
AND	-5348
amm	-5349
▁Ba	-5350
▁Cos	-5351
ental	-5352
▁Ukra	-5353
▁dism	-5354
▁flag	-5355
▁fond	-5356
▁staying	-5357
▁Missouri	-5358
▁Williams	-5359
▁carriage	-5360
▁religion	-5361
BC	-5362
▁tie	-5363
▁tun	-5364
▁Star	-5365
▁gift	-5366
▁Harry	-5367
▁chest	-5368
▁salad	-5369
▁tourn	-5370
▁depart	-5371
▁failed	-5372
▁riding	-5373
▁amazing	-5374
▁medical	-5375
▁release	-5376
▁totally	-5377
▁surround	-5378
▁everywhere	-5379
bell	-5380
bled	-5381
road	-5382
▁deck	-5383
▁purs	-5384
▁miser	-5385
ishment	-5386
▁Scient	-5387
▁terror	-5388
▁weekend	-5389
thur	-5390
▁cong	-5391
▁achie	-5392
▁bunch	-5393
▁serve	-5394
▁silly	-5395
▁trial	-5396
▁Virgin	-5397
▁active	-5398
▁becoming	-5399
▁somewhat	-5400
FF	-5401
ggy	-5402
ule	-5403
rick	-5404
▁Pan	-5405
▁Squ	-5406
azine	-5407
rences	-5408
▁Think	-5409
▁liber	-5410
▁utter	-5411
▁Mi	-5412
asty	-5413
▁Bea	-5414
▁une	-5415
isher	-5416
▁Pers	-5417
places	-5418
▁bunny	-5419
▁model	-5420
▁goodbye	-5421
▁nervous	-5422
▁unclear	-5423
▁successful	-5424
▁university	-5425
case	-5426
▁Huh	-5427
▁Rog	-5428
aming	-5429
▁desk	-5430
▁goal	-5431
▁heat	-5432
ucking	-5433
▁holes	-5434
ibility	-5435
▁mirror	-5436
▁courage	-5437
▁journal	-5438
▁weapons	-5439
▁throughout	-5440
▁relationship	-5441
IM	-5442
ked	-5443
vest	-5444
▁AEW	-5445
▁Next	-5446
▁pony	-5447
▁site	-5448
writer	-5449
▁escap	-5450
▁hadta	-5451
▁mixed	-5452
▁pears	-5453
▁Andrew	-5454
▁strike	-5455
▁touched	-5456
pronounced	-5457
box	-5458
zer	-5459
rant	-5460
▁Arab	-5461
▁Gers	-5462
▁lies	-5463
▁tour	-5464
▁shell	-5465
▁shock	-5466
▁teddy	-5467
▁narrow	-5468
▁Alright	-5469
▁administ	-5470
▁included	-5471
{\	-5472
ERS	-5473
hoe	-5474
ube	-5475
zza	-5476
▁Ol	-5477
▁Bal	-5478
▁roy	-5479
esome	-5480
▁Jung	-5481
▁male	-5482
Mother	-5483
▁drawn	-5484
▁hasta	-5485
▁circum	-5486
▁league	-5487
▁somehow	-5488
▁streets	-5489
▁Ly	-5490
▁Isn	-5491
▁Maj	-5492
▁vir	-5493
tries	-5494
▁Child	-5495
▁style	-5496
▁begins	-5497
▁candid	-5498
▁faster	-5499
▁Profess	-5500
▁Everyone	-5501
▁creature	-5502
▁performan	-5503
▁Government	-5504
nan	-5505
▁Sol	-5506
Tilda	-5507
▁gira	-5508
▁maid	-5509
▁wond	-5510
reedom	-5511
▁Martin	-5512
▁critic	-5513
▁hurried	-5514
PE	-5515
ugs	-5516
rial	-5517
▁Ill	-5518
▁Van	-5519
friend	-5520
isions	-5521
▁Maine	-5522
▁Susan	-5523
▁alpha	-5524
▁gradu	-5525
▁veget	-5526
▁friendly	-5527
▁potatoes	-5528
▁pressure	-5529
ada	-5530
ena	-5531
phe	-5532
urt	-5533
▁Bru	-5534
amond	-5535
chief	-5536
▁Long	-5537
▁guns	-5538
▁nest	-5539
astern	-5540
▁Laura	-5541
▁Merle	-5542
▁boats	-5543
▁exerc	-5544
▁score	-5545
ability	-5546
estival	-5547
▁Columb	-5548
▁nation	-5549
▁ancient	-5550
draw	-5551
ette	-5552
▁Fair	-5553
▁evil	-5554
▁init	-5555
▁blame	-5556
▁medal	-5557
utenant	-5558
▁invent	-5559
ications	-5560
▁Margaret	-5561
▁intellig	-5562
----------------	-5563
vy	-5564
zo	-5565
▁SO	-5566
oses	-5567
pret	-5568
▁Naz	-5569
▁Off	-5570
acher	-5571
sings	-5572
▁Doug	-5573
▁pros	-5574
▁rank	-5575
▁Asian	-5576
ogether	-5577
▁pillow	-5578
▁Angeles	-5579
▁cookies	-5580
▁forgive	-5581
▁arrested	-5582
▁services	-5583
▁Australian	-5584
▁LI	-5585
cont	-5586
▁Nic	-5587
▁Sea	-5588
▁cad	-5589
▁rib	-5590
▁ves	-5591
utive	-5592
▁Best	-5593
▁adop	-5594
▁barn	-5595
▁issue	-5596
▁advice	-5597
▁library	-5598
▁patient	-5599
▁respond	-5600
▁property	-5601
▁generally	-5602
"?	-5603
oni	-5604
avis	-5605
▁Att	-5606
▁Nik	-5607
ounce	-5608
▁Girl	-5609
▁beer	-5610
▁thin	-5611
clears	-5612
▁innoc	-5613
▁screw	-5614
▁slide	-5615
▁Nobody	-5616
▁besides	-5617
▁contrib	-5618
▁traffic	-5619
▁planning	-5620
▁currently	-5621
▁preschool	-5622
ima	-5623
▁eh	-5624
▁Ari	-5625
ulous	-5626
▁Went	-5627
▁fier	-5628
▁fork	-5629
uments	-5630
▁legal	-5631
▁sings	-5632
▁surely	-5633
▁burning	-5634
▁partner	-5635
▁organization	-5636
acon	-5637
ader	-5638
ague	-5639
tape	-5640
▁Has	-5641
▁Stud	-5642
▁Turk	-5643
▁reve	-5644
▁cloth	-5645
▁drove	-5646
▁weapon	-5647
▁mountains	-5648
▁disappeared	-5649
tt	-5650
book	-5651
▁chop	-5652
▁pred	-5653
▁micro	-5654
▁polic	-5655
▁spill	-5656
▁Portug	-5657
▁intern	-5658
▁winning	-5659
▁FI	-5660
....	-5661
irlf	-5662
▁Ooh	-5663
▁Tor	-5664
▁lem	-5665
stein	-5666
▁choo	-5667
▁sink	-5668
▁yard	-5669
engers	-5670
▁Auntie	-5671
▁silent	-5672
▁splend	-5673
▁specific	-5674
▁thoughts	-5675
▁destroyed	-5676
▁appearance	-5677
osen	-5678
▁Kim	-5679
▁Whe	-5680
▁odd	-5681
Sarah	-5682
atory	-5683
▁doct	-5684
▁grey	-5685
essert	-5686
urance	-5687
▁Later	-5688
▁sorts	-5689
▁Johnny	-5690
▁planet	-5691
▁target	-5692
▁vessel	-5693
▁section	-5694
▁smiling	-5695
za	-5696
they	-5697
▁pra	-5698
ropol	-5699
uries	-5700
▁chain	-5701
▁grace	-5702
▁pregn	-5703
▁Academy	-5704
▁servant	-5705
irlfriend	-5706
▁entertain	-5707
war	-5708
quar	-5709
▁Est	-5710
▁Tre	-5711
▁fac	-5712
Where	-5713
gging	-5714
▁Scar	-5715
▁chat	-5716
▁cray	-5717
▁arran	-5718
▁owner	-5719
▁sheep	-5720
▁hiding	-5721
▁climate	-5722
▁cupcake	-5723
▁dessert	-5724
▁kidding	-5725
▁serving	-5726
▁presence	-5727
▁shoulders	-5728
ani	-5729
iner	-5730
ware	-5731
▁Rad	-5732
▁jun	-5733
icket	-5734
onely	-5735
▁Year	-5736
▁resc	-5737
ashing	-5738
ension	-5739
▁Group	-5740
▁psych	-5741
▁hearts	-5742
▁upside	-5743
▁arrange	-5744
▁darkness	-5745
▁fourteen	-5746
▁northern	-5747
▁excitement	-5748
▁grandmother	-5749
▁southwestern	-5750
Be	-5751
HER	-5752
ILL	-5753
cho	-5754
urb	-5755
bour	-5756
pton	-5757
wing	-5758
▁Bes	-5759
▁Vict	-5760
▁snake	-5761
▁Mickey	-5762
hens	-5763
last	-5764
▁Amy	-5765
while	-5766
▁ends	-5767
▁hunt	-5768
▁Irish	-5769
▁fired	-5770
▁oblig	-5771
▁access	-5772
▁compos	-5773
▁comment	-5774
▁opinion	-5775
▁recording	-5776
An	-5777
ef	-5778
oos	-5779
▁Hy	-5780
▁Ja	-5781
Nina	-5782
andy	-5783
▁fan	-5784
looks	-5785
▁Bull	-5786
▁Americ	-5787
▁Social	-5788
▁rushed	-5789
▁matters	-5790
▁industry	-5791
▁thousands	-5792
▁transport	-5793
ANG	-5794
fall	-5795
▁Bad	-5796
itter	-5797
▁agre	-5798
▁pupp	-5799
ancial	-5800
▁Latin	-5801
▁doors	-5802
▁slipp	-5803
▁Arthur	-5804
▁Instit	-5805
▁cutting	-5806
▁knocked	-5807
▁passing	-5808
▁victory	-5809
▁production	-5810
!’	-5811
IA	-5812
die	-5813
▁Lu	-5814
▁NOT	-5815
▁Rev	-5816
▁bub	-5817
ailed	-5818
▁rare	-5819
▁fairy	-5820
▁notes	-5821
▁Labour	-5822
▁buried	-5823
▁losing	-5824
▁philos	-5825
▁Vermont	-5826
▁Scientists	-5827
▁tournament	-5828
ARD	-5829
law	-5830
▁yo	-5831
▁{\	-5832
iest	-5833
▁mud	-5834
▁wra	-5835
▁Bren	-5836
▁Five	-5837
▁Show	-5838
▁aver	-5839
▁pale	-5840
angers	-5841
bridge	-5842
▁Today	-5843
▁annoy	-5844
▁media	-5845
▁Philip	-5846
▁advert	-5847
▁detect	-5848
▁Brother	-5849
▁Central	-5850
▁Charlie	-5851
▁enjoyed	-5852
▁evident	-5853
▁hearing	-5854
▁planned	-5855
▁reasons	-5856
▁handsome	-5857
▁shooting	-5858
▁teaching	-5859
▁professor	-5860
Of	-5861
▁’	-5862
▁Im	-5863
▁pa	-5864
amma	-5865
some	-5866
▁Bay	-5867
angle	-5868
eping	-5869
▁Club	-5870
▁cats	-5871
▁crim	-5872
▁pity	-5873
▁pump	-5874
▁tear	-5875
utions	-5876
▁citiz	-5877
▁clown	-5878
▁useful	-5879
▁opposite	-5880
ett	-5881
▁RE	-5882
...?	-5883
hank	-5884
▁Atl	-5885
▁shr	-5886
istry	-5887
▁towns	-5888
▁chosen	-5889
▁native	-5890
whispers	-5891
▁balloon	-5892
▁progress	-5893
▁distributed	-5894
▁taperecorder	-5895
SE	-5896
ua	-5897
vo	-5898
▁Es	-5899
elia	-5900
▁Pre	-5901
▁dim	-5902
▁nuh	-5903
▁Both	-5904
▁fart	-5905
▁Mavis	-5906
▁royal	-5907
▁clever	-5908
▁prepar	-5909
▁killing	-5910
▁recorded	-5911
yo	-5912
▁map	-5913
iliar	-5914
▁code	-5915
▁wine	-5916
▁Billy	-5917
▁piano	-5918
▁shame	-5919
▁suffe	-5920
▁Records	-5921
▁lessons	-5922
▁whining	-5923
ít	-5924
Let	-5925
ata	-5926
▁Alf	-5927
▁Men	-5928
▁Didn	-5929
▁Land	-5930
▁Work	-5931
▁bone	-5932
▁boom	-5933
▁mort	-5934
▁Georg	-5935
▁Young	-5936
▁crash	-5937
▁fairly	-5938
▁poison	-5939
▁related	-5940
RA	-5941
▁Bi	-5942
rate	-5943
▁Thr	-5944
iture	-5945
▁dese	-5946
▁meth	-5947
▁Danny	-5948
▁penny	-5949
▁tooth	-5950
▁truly	-5951
▁wagon	-5952
ception	-5953
▁Easter	-5954
▁border	-5955
referent	-5956
▁cooking	-5957
▁picking	-5958
▁learning	-5959
▁newspaper	-5960
▁expression	-5961
isa	-5962
oned	-5963
ucle	-5964
▁Div	-5965
▁SHE	-5966
▁ast	-5967
▁rug	-5968
andra	-5969
heast	-5970
▁Shar	-5971
▁rout	-5972
▁Alice	-5973
▁hurts	-5974
whining	-5975
▁effort	-5976
▁exciting	-5977
▁understood	-5978
▁independent	-5979
MT	-5980
__	-5981
fle	-5982
okes	-5983
▁por	-5984
▁rat	-5985
▁yum	-5986
▁sang	-5987
▁desce	-5988
▁dozen	-5989
▁loose	-5990
▁sales	-5991
▁bodies	-5992
▁troops	-5993
▁whoops	-5994
▁invited	-5995
▁realize	-5996
▁treated	-5997
▁breaking	-5998
▁presently	-5999
acha	-6000
goes	-6001
▁aim	-6002
▁veh	-6003
▁Carl	-6004
▁pipe	-6005
▁contr	-6006
▁divor	-6007
▁create	-6008
▁hoping	-6009
▁jacket	-6010
▁biggest	-6011
▁positive	-6012
▁seriously	-6013
▁tradition	-6014
ano	-6015
▁Ken	-6016
▁Arch	-6017
▁Dire	-6018
▁Last	-6019
▁Nana	-6020
▁plus	-6021
avaria	-6022
▁shook	-6023
▁buildings	-6024
▁;	-6025
gel	-6026
pro	-6027
ingu	-6028
▁Yet	-6029
▁Anne	-6030
▁Hill	-6031
▁anti	-6032
▁chap	-6033
▁clay	-6034
▁sole	-6035
▁Tommy	-6036
▁Argent	-6037
▁Bavaria	-6038
▁Florida	-6039
▁Someone	-6040
▁Whatever	-6041
▁listened	-6042
▁creatures	-6043
▁:	-6044
'...	-6045
acle	-6046
tery	-6047
▁Bud	-6048
▁lake	-6049
▁Swiss	-6050
▁tough	-6051
▁acting	-6052
ointment	-6053
▁express	-6054
▁setting	-6055
▁apartment	-6056
▁otherwise	-6057
▁definitely	-6058
▁mispronounced	-6059
ITH	-6060
▁RO	-6061
ilty	-6062
issa	-6063
wers	-6064
▁Ira	-6065
▁Lar	-6066
▁Bern	-6067
▁Lake	-6068
▁Castle	-6069
▁Kansas	-6070
▁Should	-6071
▁afford	-6072
▁exchan	-6073
▁fields	-6074
▁review	-6075
ervation	-6076
ulations	-6077
▁fortune	-6078
▁Princess	-6079
▁delicious	-6080
▁girlfriend	-6081
)}	-6082
ann	-6083
▁SE	-6084
▁gy	-6085
Amer	-6086
walk	-6087
▁Pop	-6088
▁Make	-6089
▁Wild	-6090
▁cone	-6091
▁dump	-6092
▁dust	-6093
▁rent	-6094
▁sees	-6095
▁sigh	-6096
▁Jones	-6097
onsense	-6098
▁desert	-6099
▁mainly	-6100
▁Emperor	-6101
▁receive	-6102
▁directly	-6103
▁previous	-6104
cles	-6105
alled	-6106
▁Cher	-6107
▁demon	-6108
▁witch	-6109
▁larger	-6110
▁lonely	-6111
▁suspic	-6112
▁concent	-6113
▁divided	-6114
▁witness	-6115
▁champion	-6116
▁defeated	-6117
▁governor	-6118
▁extremely	-6119
UCK	-6120
▁km	-6121
magn	-6122
unts	-6123
▁Lie	-6124
▁Swe	-6125
icide	-6126
owing	-6127
▁horn	-6128
▁laws	-6129
▁badly	-6130
▁eaten	-6131
▁Ramsey	-6132
▁credit	-6133
▁guitar	-6134
▁sorrow	-6135
▁wedding	-6136
▁western	-6137
▁location	-6138
▁responsible	-6139
TH	-6140
emic	-6141
▁Ang	-6142
▁Had	-6143
▁Sil	-6144
angar	-6145
ented	-6146
▁beast	-6147
▁pause	-6148
▁range	-6149
▁roles	-6150
▁palace	-6151
▁priest	-6152
▁suffered	-6153
▁transfer	-6154
Who	-6155
ulk	-6156
▁Ash	-6157
▁Hea	-6158
▁Tam	-6159
▁wid	-6160
▁keys	-6161
▁snap	-6162
▁dunno	-6163
▁false	-6164
▁Hungry	-6165
▁splendid	-6166
gers	-6167
ulty	-6168
▁tal	-6169
▁vent	-6170
umbled	-6171
▁Bruce	-6172
▁confl	-6173
▁sports	-6174
▁stands	-6175
▁transl	-6176
▁removed	-6177
▁circumst	-6178
▁Wentworth	-6179
▁interrupt	-6180
LA	-6181
put	-6182
▁--	-6183
ateg	-6184
▁Gal	-6185
▁Gra	-6186
▁nib	-6187
▁pil	-6188
▁rac	-6189
▁Team	-6190
▁slept	-6191
athered	-6192
▁Jersey	-6193
▁becomes	-6194
▁document	-6195
▁material	-6196
▁Department	-6197
▁conference	-6198
▁settlement	-6199
▁championship	-6200
▁AT	-6201
▁ALL	-6202
▁SIS	-6203
cries	-6204
▁drama	-6205
▁faint	-6206
▁folks	-6207
▁Disney	-6208
▁Senate	-6209
▁resist	-6210
▁thrown	-6211
▁results	-6212
▁Haw	-6213
▁aid	-6214
▁hug	-6215
▁sons	-6216
▁symp	-6217
▁task	-6218
▁Betty	-6219
▁grate	-6220
▁shake	-6221
▁staff	-6222
▁issues	-6223
▁territ	-6224
▁wealth	-6225
▁possess	-6226
▁horrible	-6227
▁appointed	-6228
see	-6229
ugg	-6230
▁UK	-6231
▁ug	-6232
▁Int	-6233
▁Win	-6234
hamed	-6235
▁Foot	-6236
▁pure	-6237
▁quit	-6238
▁Person	-6239
▁apples	-6240
▁glance	-6241
▁locked	-6242
pointing	-6243
▁bicycle	-6244
▁reports	-6245
▁restaur	-6246
▁includes	-6247
▁signific	-6248
▁treatment	-6249
▁conditions	-6250
ios	-6251
nds	-6252
▁Ra	-6253
▁spo	-6254
istic	-6255
▁crew	-6256
anches	-6257
comune	-6258
▁buddy	-6259
▁pants	-6260
▁nuhhuh	-6261
▁beneath	-6262
▁feather	-6263
▁selling	-6264
▁province	-6265
▁recently	-6266
▁treasure	-6267
Here	-6268
geon	-6269
▁unf	-6270
▁Tele	-6271
▁clip	-6272
▁tied	-6273
▁beans	-6274
▁conce	-6275
▁bitter	-6276
▁comedy	-6277
▁guilty	-6278
▁honour	-6279
▁kissed	-6280
▁rubber	-6281
▁perform	-6282
▁Remember	-6283
▁attacked	-6284
▁baseball	-6285
▁familiar	-6286
▁performance	-6287
had	-6288
uit	-6289
win	-6290
▁KN	-6291
foot	-6292
orge	-6293
▁bid	-6294
▁bon	-6295
▁Help	-6296
ending	-6297
▁Grace	-6298
▁Jacob	-6299
▁avoid	-6300
▁finds	-6301
▁lifted	-6302
▁paying	-6303
▁plates	-6304
▁wicked	-6305
▁checked	-6306
▁freedom	-6307
▁surface	-6308
▁designed	-6309
▁separate	-6310
▁Professor	-6311
▁explained	-6312
ipe	-6313
▁Ze	-6314
bbed	-6315
▁III	-6316
▁Jam	-6317
stone	-6318
▁Open	-6319
▁bold	-6320
▁pile	-6321
▁Power	-6322
▁Steve	-6323
▁Trump	-6324
▁admit	-6325
▁chase	-6326
playing	-6327
▁desper	-6328
▁holiday	-6329
▁parties	-6330
▁refused	-6331
▁request	-6332
▁suggested	-6333
IE	-6334
ko	-6335
umn	-6336
▁Gro	-6337
▁Book	-6338
▁Down	-6339
▁Each	-6340
▁fant	-6341
uclear	-6342
▁Music	-6343
▁agent	-6344
▁grant	-6345
ription	-6346
▁Rodger	-6347
▁advant	-6348
▁branch	-6349
▁student	-6350
▁entirely	-6351
▁Institute	-6352
RY	-6353
▁x	-6354
Did	-6355
apt	-6356
▁Ta	-6357
down	-6358
igan	-6359
▁INV	-6360
▁jew	-6361
Cause	-6362
esota	-6363
stead	-6364
uties	-6365
works	-6366
ancing	-6367
▁Anton	-6368
▁habit	-6369
▁raise	-6370
▁swear	-6371
▁waves	-6372
▁cereal	-6373
▁gettin	-6374
▁prefer	-6375
▁crossed	-6376
▁failure	-6377
▁giraffe	-6378
▁mission	-6379
▁shouted	-6380
▁magazine	-6381
▁stranger	-6382
▁Republican	-6383
sl	-6384
.--	-6385
aly	-6386
urd	-6387
▁Sa	-6388
▁Us	-6389
dess	-6390
▁tim	-6391
igned	-6392
mouth	-6393
▁rush	-6394
▁shel	-6395
yellow	-6396
▁Honey	-6397
▁spare	-6398
▁squee	-6399
▁racing	-6400
▁tender	-6401
▁Indians	-6402
▁Majesty	-6403
▁concert	-6404
▁pulling	-6405
▁scratch	-6406
▁branches	-6407
▁dreadful	-6408
▁incident	-6409
▁increase	-6410
▁determined	-6411
cr	-6412
yr	-6413
ALL	-6414
mar	-6415
▁HAVE	-6416
▁WITH	-6417
▁Armen	-6418
▁homes	-6419
▁cheeks	-6420
▁commer	-6421
▁cowboy	-6422
▁gently	-6423
▁fellows	-6424
▁reality	-6425
▁gathered	-6426
▁Minnesota	-6427
▁authority	-6428
▁described	-6429
▁microphone	-6430
UM	-6431
AUG	-6432
bor	-6433
ela	-6434
nels	-6435
amily	-6436
water	-6437
▁Blue	-6438
▁Shan	-6439
▁Such	-6440
▁Turn	-6441
▁conv	-6442
apping	-6443
▁Watch	-6444
▁bones	-6445
pensive	-6446
umbling	-6447
▁gather	-6448
▁hidden	-6449
▁oldest	-6450
▁studies	-6451
▁attached	-6452
▁appreciate	-6453
Ch	-6454
oles	-6455
▁Det	-6456
▁mac	-6457
jamin	-6458
noise	-6459
▁ours	-6460
▁aside	-6461
▁delay	-6462
▁screen	-6463
▁valley	-6464
▁challen	-6465
▁counter	-6466
▁measure	-6467
▁provide	-6468
▁conflict	-6469
▁slightly	-6470
▁miserable	-6471
ART	-6472
stra	-6473
wide	-6474
▁Oli	-6475
▁gay	-6476
erves	-6477
icago	-6478
inois	-6479
▁Prod	-6480
▁Prot	-6481
▁hipp	-6482
▁knee	-6483
▁mate	-6484
▁nick	-6485
▁drugs	-6486
angaroo	-6487
▁Anyway	-6488
▁peanut	-6489
▁alphabet	-6490
▁programme	-6491
KE	-6492
SI	-6493
ora	-6494
rol	-6495
rot	-6496
thel	-6497
▁hes	-6498
▁Educ	-6499
▁Song	-6500
▁Spir	-6501
▁YOUR	-6502
▁lack	-6503
▁link	-6504
▁brush	-6505
▁dough	-6506
▁guest	-6507
▁pride	-6508
▁canton	-6509
▁nearer	-6510
▁source	-6511
▁justice	-6512
▁Everybody	-6513
▁collection	-6514
san	-6515
▁Jr	-6516
emies	-6517
icate	-6518
owned	-6519
iation	-6520
▁Looks	-6521
▁knees	-6522
▁Jennie	-6523
▁Police	-6524
▁associ	-6525
▁burned	-6526
▁mighty	-6527
▁cottage	-6528
▁package	-6529
▁players	-6530
▁Illinois	-6531
▁politics	-6532
▁pregnant	-6533
▁Sub	-6534
anche	-6535
eable	-6536
▁Free	-6537
▁eats	-6538
▁jobs	-6539
priate	-6540
▁Ethel	-6541
▁forms	-6542
▁invol	-6543
▁Report	-6544
▁closet	-6545
▁gained	-6546
▁meters	-6547
▁Brennan	-6548
▁average	-6549
▁yelling	-6550
▁innocent	-6551
▁replaced	-6552
ESS	-6553
coh	-6554
▁Ak	-6555
▁Ow	-6556
▁Po	-6557
iley	-6558
▁Hmm	-6559
▁ash	-6560
usted	-6561
▁Bour	-6562
scream	-6563
▁chose	-6564
▁hated	-6565
▁mayor	-6566
▁swall	-6567
▁Awards	-6568
▁experi	-6569
▁severe	-6570
▁Philipp	-6571
▁formula	-6572
▁chemical	-6573
▁financial	-6574
Ah	-6575
mi	-6576
Whin	-6577
Yeah	-6578
ghan	-6579
omed	-6580
▁cris	-6581
▁seats	-6582
▁spite	-6583
▁obtain	-6584
▁answers	-6585
▁consequ	-6586
▁Virginia	-6587
▁companion	-6588
▁screaming	-6589
▁supported	-6590
ev	-6591
▁OH	-6592
iple	-6593
▁lic	-6594
hemat	-6595
which	-6596
▁drum	-6597
▁rear	-6598
▁unha	-6599
▁vain	-6600
▁affair	-6601
▁garage	-6602
▁guests	-6603
▁Chicago	-6604
▁Service	-6605
▁complet	-6606
▁painted	-6607
▁Benjamin	-6608
▁properly	-6609
▁Americans	-6610
▁furniture	-6611
▁statement	-6612
To	-6613
BER	-6614
abb	-6615
dro	-6616
wan	-6617
name	-6618
▁der	-6619
berry	-6620
icing	-6621
overy	-6622
sters	-6623
▁meas	-6624
▁refe	-6625
▁symb	-6626
sounds	-6627
▁Clara	-6628
▁Jerry	-6629
▁brill	-6630
▁pitch	-6631
▁relax	-6632
▁ruled	-6633
▁Oliver	-6634
▁breast	-6635
▁safely	-6636
▁ability	-6637
▁confess	-6638
▁remains	-6639
▁murdered	-6640
▁southern	-6641
▁delighted	-6642
bef	-6643
ika	-6644
rier	-6645
ylvan	-6646
▁Andy	-6647
▁peas	-6648
▁reck	-6649
▁Again	-6650
▁Stand	-6651
▁doggy	-6652
▁helps	-6653
▁sport	-6654
▁incred	-6655
▁illustr	-6656
▁obliged	-6657
▁unfortun	-6658
▁characters	-6659
eps	-6660
ocr	-6661
▁AB	-6662
▁ox	-6663
ints	-6664
ture	-6665
▁Bus	-6666
owder	-6667
▁Luke	-6668
▁gang	-6669
▁Wrest	-6670
▁virus	-6671
Whinney	-6672
▁Bertha	-6673
▁Norway	-6674
▁estate	-6675
▁relief	-6676
▁Stephen	-6677
▁stepped	-6678
▁approach	-6679
▁producer	-6680
▁proposed	-6681
▁expensive	-6682
_.	-6683
▁—	-6684
ato	-6685
▁DE	-6686
▁Ob	-6687
▁Ian	-6688
▁Ven	-6689
▁Wat	-6690
neath	-6691
orter	-6692
▁nail	-6693
▁ugly	-6694
▁alarm	-6695
▁aston	-6696
▁queer	-6697
▁sciss	-6698
▁split	-6699
lection	-6700
▁defend	-6701
▁airport	-6702
▁sounded	-6703
▁activist	-6704
▁influence	-6705
▁individual	-6706
▁photograph	-6707
As	-6708
Mac	-6709
May	-6710
▁SH	-6711
ques	-6712
rose	-6713
▁Bon	-6714
▁Jun	-6715
▁Leon	-6716
▁murm	-6717
▁obey	-6718
▁decor	-6719
▁fever	-6720
▁sauce	-6721
▁covers	-6722
▁gotten	-6723
▁fishing	-6724
▁moments	-6725
▁nibbled	-6726
ropolitan	-6727
▁servants	-6728
▁happiness	-6729
▁recognize	-6730
▁represented	-6731
Al	-6732
▁Leo	-6733
▁Tar	-6734
▁Try	-6735
adder	-6736
▁craw	-6737
▁gray	-6738
▁oops	-6739
▁Hurry	-6740
▁Janet	-6741
▁begun	-6742
▁Health	-6743
▁appeal	-6744
▁defeat	-6745
▁throne	-6746
▁Mexican	-6747
▁engaged	-6748
▁escaped	-6749
▁rapidly	-6750
▁Scottish	-6751
▁accepted	-6752
▁originally	-6753
py	-6754
▁Vo	-6755
ardy	-6756
rane	-6757
alend	-6758
cream	-6759
▁Were	-6760
▁gain	-6761
▁sits	-6762
▁torn	-6763
keeper	-6764
▁awake	-6765
▁bears	-6766
▁roads	-6767
▁whist	-6768
American	-6769
▁awarded	-6770
▁acquaint	-6771
▁animated	-6772
▁occurred	-6773
▁shopping	-6774
▁throwing	-6775
▁adventure	-6776
▁suffering	-6777
▁apparently	-6778
▁introduced	-6779
lyn	-6780
oli	-6781
▁["	-6782
oise	-6783
ruct	-6784
▁boo	-6785
▁lob	-6786
▁Alan	-6787
eaking	-6788
icking	-6789
▁condu	-6790
▁goals	-6791
▁horror	-6792
▁lately	-6793
olarship	-6794
▁appears	-6795
OP	-6796
bow	-6797
▁(,	-6798
akin	-6799
gues	-6800
olar	-6801
only	-6802
▁HER	-6803
▁Sue	-6804
▁Also	-6805
▁Kate	-6806
▁Know	-6807
▁Walk	-6808
▁boot	-6809
ensive	-6810
▁fleet	-6811
▁pizza	-6812
▁spark	-6813
▁Daniel	-6814
▁Maggie	-6815
▁criter	-6816
▁dollar	-6817
▁farmer	-6818
▁landed	-6819
▁resour	-6820
▁hunting	-6821
▁kangaroo	-6822
▁structure	-6823
▁passengers	-6824
▁investigation	-6825
wa	-6826
ón	-6827
ONE	-6828
▁SC	-6829
west	-6830
▁Dam	-6831
▁cub	-6832
▁Penn	-6833
▁hers	-6834
▁impl	-6835
▁drunk	-6836
▁elder	-6837
▁focus	-6838
▁prize	-6839
▁stove	-6840
▁damage	-6841
▁proved	-6842
▁Rangers	-6843
▁Ukraine	-6844
▁enemies	-6845
▁eighteen	-6846
▁features	-6847
▁required	-6848
▁sticking	-6849
▁thorough	-6850
▁Christopher	-6851
?’	-6852
Can	-6853
aws	-6854
ito	-6855
pos	-6856
▁Run	-6857
▁etc	-6858
ingly	-6859
shine	-6860
▁cash	-6861
▁Found	-6862
▁Guard	-6863
▁Leave	-6864
▁daily	-6865
ologist	-6866
▁stared	-6867
▁sympat	-6868
▁washed	-6869
▁jumping	-6870
▁pointed	-6871
▁Southern	-6872
▁attended	-6873
▁observed	-6874
▁performed	-6875
OUT	-6876
asp	-6877
leg	-6878
When	-6879
aurs	-6880
umed	-6881
ender	-6882
icted	-6883
inson	-6884
▁Move	-6885
▁ache	-6886
▁trem	-6887
contin	-6888
ealous	-6889
pshire	-6890
▁Tilly	-6891
▁Water	-6892
▁hoped	-6893
▁tribe	-6894
ouncill	-6895
pitched	-6896
ylvania	-6897
▁Battle	-6898
▁Jewish	-6899
▁trains	-6900
▁effects	-6901
▁Northern	-6902
▁whispers	-6903
▁wondered	-6904
▁assistant	-6905
',	-6906
LI	-6907
án	-6908
alem	-6909
ooke	-6910
ynam	-6911
▁CON	-6912
▁Pra	-6913
otted	-6914
▁Bang	-6915
▁Holy	-6916
▁JUST	-6917
giving	-6918
irteen	-6919
▁Holly	-6920
▁Prize	-6921
▁Shall	-6922
▁grade	-6923
▁proof	-6924
▁Region	-6925
▁Besides	-6926
▁Jackson	-6927
▁slipped	-6928
▁trained	-6929
▁washers	-6930
▁instance	-6931
▁ordinary	-6932
▁recognized	-6933
uj	-6934
JAK	-6935
iry	-6936
▁UP	-6937
REAM	-6938
heim	-6939
▁Tay	-6940
▁Iraq	-6941
▁Road	-6942
▁Whoa	-6943
▁Inter	-6944
▁RIGHT	-6945
▁equal	-6946
▁minor	-6947
▁reply	-6948
▁rooms	-6949
▁spect	-6950
▁waved	-6951
▁affect	-6952
▁saving	-6953
▁sooner	-6954
▁records	-6955
▁warning	-6956
▁prisoner	-6957
▁officially	-6958
hib	-6959
ias	-6960
▁Sn	-6961
ithe	-6962
umes	-6963
▁Cub	-6964
▁spr	-6965
▁tip	-6966
orney	-6967
▁bark	-6968
▁buck	-6969
▁spin	-6970
whines	-6971
▁cries	-6972
▁stole	-6973
▁Heaven	-6974
▁recomm	-6975
▁colored	-6976
▁follows	-6977
▁improve	-6978
▁passage	-6979
▁washing	-6980
▁demonstr	-6981
▁resident	-6982
▁scissors	-6983
▁Francisco	-6984
▁underneath	-6985
▁Caterpillar	-6986
pre	-6987
reck	-6988
▁Fre	-6989
▁Hol	-6990
▁Pac	-6991
▁Ten	-6992
actor	-6993
break	-6994
idays	-6995
turns	-6996
▁Pier	-6997
▁seek	-6998
▁Booth	-6999
▁Stone	-7000
▁Tower	-7001
▁alcoh	-7002
▁upper	-7003
▁marked	-7004
▁reward	-7005
▁seized	-7006
▁shower	-7007
▁advance	-7008
▁ashamed	-7009
▁attacks	-7010
▁cricket	-7011
▁travell	-7012
▁critical	-7013
▁romantic	-7014
MacWhinney	-7015
▁satisfied	-7016
▁discussion	-7017
WE	-7018
avy	-7019
olen	-7020
ribe	-7021
sell	-7022
▁Bol	-7023
▁Les	-7024
▁Yep	-7025
▁aye	-7026
lings	-7027
mings	-7028
umble	-7029
▁Glad	-7030
▁Ryan	-7031
▁myst	-7032
▁Carle	-7033
▁Games	-7034
▁Night	-7035
▁autom	-7036
▁trunk	-7037
▁Bundle	-7038
▁drinks	-7039
▁supply	-7040
▁thrill	-7041
▁unhappy	-7042
▁workers	-7043
▁Football	-7044
▁Pictures	-7045
▁division	-7046
▁whenever	-7047
▁neighborhood	-7048
▁presidential	-7049
▁circumstances	-7050
NE	-7051
EST	-7052
▁PL	-7053
cest	-7054
eare	-7055
ties	-7056
▁ens	-7057
▁opt	-7058
black	-7059
hetti	-7060
▁Spen	-7061
▁Thus	-7062
▁file	-7063
▁greet	-7064
▁Berlin	-7065
▁Stella	-7066
▁belief	-7067
▁handed	-7068
▁museum	-7069
▁suffer	-7070
▁balance	-7071
▁farther	-7072
▁federal	-7073
▁arranged	-7074
▁hundreds	-7075
▁provided	-7076
▁Wrestling	-7077
▁municipal	-7078
ds	-7079
Are	-7080
esh	-7081
mpt	-7082
nam	-7083
osh	-7084
▁Os	-7085
▁UE	-7086
gets	-7087
▁Rap	-7088
▁spy	-7089
▁Corn	-7090
▁Kong	-7091
▁soap	-7092
entine	-7093
▁fully	-7094
▁stack	-7095
▁belongs	-7096
▁encoura	-7097
▁forests	-7098
▁precious	-7099
▁stronger	-7100
▁Committee	-7101
▁operation	-7102
▁secretary	-7103
▁delightful	-7104
NON	-7105
ooth	-7106
▁Gun	-7107
▁hyp	-7108
▁Want	-7109
▁Wars	-7110
▁mock	-7111
▁tire	-7112
sembly	-7113
▁Colin	-7114
▁Floss	-7115
▁boxes	-7116
▁label	-7117
▁tremb	-7118
▁writes	-7119
▁earnest	-7120
▁grandma	-7121
▁jealous	-7122
▁systems	-7123
▁discover	-7124
▁Revolution	-7125
▁confidence	-7126
▁management	-7127
▁Ö	-7128
!--	-7129
iot	-7130
nut	-7131
who	-7132
▁"'	-7133
resp	-7134
▁DON	-7135
▁Fer	-7136
▁gle	-7137
▁shh	-7138
▁yer	-7139
Thank	-7140
▁KNOW	-7141
orious	-7142
▁Bunny	-7143
▁kindly	-7144
atherine	-7145
▁eastern	-7146
▁factory	-7147
▁pushing	-7148
▁platform	-7149
▁basketball	-7150
UE	-7151
GRF	-7152
IST	-7153
zzy	-7154
hell	-7155
lies	-7156
mann	-7157
rets	-7158
▁Aha	-7159
▁Son	-7160
gasps	-7161
venue	-7162
▁Bird	-7163
▁dull	-7164
▁tale	-7165
▁Emily	-7166
▁costs	-7167
▁toast	-7168
▁Afghan	-7169
▁Friend	-7170
▁Middle	-7171
▁regret	-7172
▁secure	-7173
▁sought	-7174
▁Islamic	-7175
▁Melissa	-7176
▁accused	-7177
▁musical	-7178
▁boyfriend	-7179
▁broadcast	-7180
▁completed	-7181
▁protection	-7182
irk	-7183
omy	-7184
rang	-7185
rels	-7186
uous	-7187
▁Bam	-7188
▁Fle	-7189
▁owe	-7190
chair	-7191
ockey	-7192
ulate	-7193
▁Dear	-7194
▁Poor	-7195
unting	-7196
▁frequ	-7197
▁persu	-7198
▁socks	-7199
▁warri	-7200
▁client	-7201
▁humans	-7202
▁sending	-7203
▁Aldworth	-7204
▁Hampshire	-7205
▁dinosaurs	-7206
▁Lieutenant	-7207
gle	-7208
nis	-7209
tes	-7210
hall	-7211
long	-7212
zing	-7213
▁ARE	-7214
▁Kar	-7215
▁Woo	-7216
gment	-7217
hands	-7218
inals	-7219
stant	-7220
▁Duck	-7221
▁Jews	-7222
▁woke	-7223
Donald	-7224
iversal	-7225
▁Centre	-7226
▁desire	-7227
▁louder	-7228
▁prince	-7229
▁recent	-7230
▁seated	-7231
▁stones	-7232
▁awesome	-7233
▁diamond	-7234
▁Cy	-7235
ollo	-7236
▁Cla	-7237
▁Def	-7238
▁Fat	-7239
▁OUT	-7240
▁Ord	-7241
▁dom	-7242
▁nah	-7243
riger	-7244
▁Hong	-7245
▁beep	-7246
▁comr	-7247
▁diss	-7248
▁pant	-7249
▁wave	-7250
▁webs	-7251
▁Agent	-7252
▁Helen	-7253
▁Jenny	-7254
▁Mouse	-7255
▁armed	-7256
▁chart	-7257
▁equip	-7258
▁instr	-7259
▁mercy	-7260
▁sched	-7261
▁archer	-7262
▁borrow	-7263
▁causes	-7264
▁propos	-7265
▁volume	-7266
quarters	-7267
▁Barbara	-7268
▁charged	-7269
▁doctors	-7270
▁wounded	-7271
▁laughter	-7272
▁multiple	-7273
▁resolved	-7274
▁brilliant	-7275
▁permission	-7276
imp	-7277
hara	-7278
kesp	-7279
pher	-7280
pull	-7281
tles	-7282
▁Tak	-7283
▁Tem	-7284
▁wag	-7285
ublic	-7286
▁rang	-7287
aunton	-7288
▁drops	-7289
▁flood	-7290
▁kings	-7291
▁sixth	-7292
▁Sister	-7293
▁instit	-7294
▁latter	-7295
▁princi	-7296
▁curious	-7297
▁housing	-7298
▁spirits	-7299
▁exercise	-7300
▁nonsense	-7301
▁occupied	-7302
▁Education	-7303
▁Represent	-7304
▁journalist	-7305
▁disappointed	-7306
Go	-7307
GRM	-7308
OOK	-7309
erk	-7310
mhm	-7311
uls	-7312
five	-7313
upid	-7314
▁Cop	-7315
▁Dev	-7316
▁Die	-7317
▁GET	-7318
▁pup	-7319
gency	-7320
iting	-7321
▁lung	-7322
▁slip	-7323
encing	-7324
▁cheap	-7325
▁illeg	-7326
▁prior	-7327
▁Wonder	-7328
▁explan	-7329
▁lesson	-7330
▁naught	-7331
▁senior	-7332
▁thirst	-7333
▁awfully	-7334
▁eagerly	-7335
▁Somebody	-7336
▁aircraft	-7337
▁connected	-7338
OL	-7339
▁Ri	-7340
OULD	-7341
hant	-7342
izes	-7343
rain	-7344
▁Jay	-7345
▁Lau	-7346
▁Sky	-7347
▁shy	-7348
▁Soon	-7349
▁bron	-7350
▁elev	-7351
▁forb	-7352
intend	-7353
▁Nonna	-7354
▁anger	-7355
▁feast	-7356
▁hills	-7357
▁purse	-7358
▁scare	-7359
▁squir	-7360
▁stops	-7361
▁altern	-7362
▁pepper	-7363
kespeare	-7364
▁Spencer	-7365
▁Welcome	-7366
▁sixteen	-7367
▁Russians	-7368
▁restaurant	-7369
▁revolution	-7370
On	-7371
Com	-7372
uto	-7373
gian	-7374
gins	-7375
▁Ton	-7376
▁fox	-7377
▁Head	-7378
▁Rail	-7379
▁coal	-7380
▁jury	-7381
▁Death	-7382
▁Griff	-7383
▁Nurse	-7384
▁brand	-7385
▁joint	-7386
▁puppy	-7387
▁Jungle	-7388
▁dragon	-7389
▁hammer	-7390
▁Eastern	-7391
▁conduct	-7392
▁instant	-7393
▁seasons	-7394
▁victims	-7395
▁Staunton	-7396
▁entrance	-7397
▁realized	-7398
▁standard	-7399
▁starring	-7400
▁committee	-7401
▁favourite	-7402
▁importance	-7403
UNC	-7404
ams	-7405
hab	-7406
iro	-7407
▁JO	-7408
ifts	-7409
when	-7410
▁Ass	-7411
▁cro	-7412
▁pir	-7413
shire	-7414
▁UEFA	-7415
▁Vaud	-7416
▁rope	-7417
▁unus	-7418
▁Mayor	-7419
▁maint	-7420
talking	-7421
▁corpor	-7422
▁powers	-7423
aughters	-7424
▁letting	-7425
▁network	-7426
▁nuclear	-7427
▁returns	-7428
▁Festival	-7429
▁Portugal	-7430
▁exchange	-7431
▁agreement	-7432
▁challenge	-7433
▁graduated	-7434
Br	-7435
ND	-7436
alo	-7437
upp	-7438
▁Gi	-7439
atre	-7440
belt	-7441
vard	-7442
▁Raj	-7443
▁gal	-7444
▁sav	-7445
incol	-7446
venge	-7447
▁Conf	-7448
▁Dale	-7449
▁Stay	-7450
▁jail	-7451
▁mood	-7452
▁wolf	-7453
ection	-7454
itated	-7455
rifice	-7456
▁THERE	-7457
▁types	-7458
▁harder	-7459
▁nights	-7460
▁sexual	-7461
▁signal	-7462
▁stroke	-7463
▁tricks	-7464
▁benefit	-7465
▁display	-7466
▁Security	-7467
▁electric	-7468
▁grateful	-7469
▁eventually	-7470
▁scientists	-7471
▁environmental	-7472
PS	-7473
▁Yo	-7474
aval	-7475
keys	-7476
lets	-7477
omer	-7478
▁Rub	-7479
▁ben	-7480
achel	-7481
inian	-7482
▁Rimb	-7483
▁bore	-7484
▁wing	-7485
▁Brooke	-7486
▁Spirit	-7487
▁Sweden	-7488
▁slaves	-7489
onscious	-7490
▁Justice	-7491
▁organis	-7492
▁pattern	-7493
▁rolling	-7494
▁shortly	-7495
rigerator	-7496
▁changing	-7497
▁mistress	-7498
▁sunshine	-7499
▁horseshoe	-7500
ITT	-7501
ali	-7502
gro	-7503
isl	-7504
net	-7505
▁Ca	-7506
▁Ku	-7507
also	-7508
erry	-7509
▁HIS	-7510
▁cig	-7511
▁pit	-7512
geant	-7513
inned	-7514
▁Bell	-7515
▁Nich	-7516
▁Vill	-7517
▁dece	-7518
ington	-7519
▁Bible	-7520
▁Celia	-7521
▁camps	-7522
▁grape	-7523
▁skill	-7524
▁Greece	-7525
▁Syrian	-7526
▁bloody	-7527
▁marble	-7528
▁suffic	-7529
▁tempor	-7530
▁Islands	-7531
▁injured	-7532
▁majority	-7533
▁thirteen	-7534
▁advantage	-7535
▁equipment	-7536
▁experiment	-7537
hia	-7538
oti	-7539
Just	-7540
anta	-7541
will	-7542
▁eth	-7543
gives	-7544
▁teen	-7545
▁Human	-7546
▁flash	-7547
▁umbre	-7548
▁uncom	-7549
▁voted	-7550
▁brings	-7551
▁colour	-7552
▁income	-7553
▁alcohol	-7554
▁amongst	-7555
▁closely	-7556
▁contain	-7557
▁Columbia	-7558
▁constitu	-7559
▁magnetic	-7560
▁committed	-7561
▁nominated	-7562
▁Shakespeare	-7563
AC	-7564
OOD	-7565
low	-7566
vet	-7567
▁Aub	-7568
▁Film	-7569
▁deer	-7570
▁hook	-7571
▁worn	-7572
▁Singh	-7573
▁Wales	-7574
▁cabin	-7575
▁comin	-7576
▁lands	-7577
▁signs	-7578
▁sympt	-7579
▁tempt	-7580
aghetti	-7581
▁crisis	-7582
▁height	-7583
▁mechan	-7584
▁Georgia	-7585
▁archite	-7586
▁unknown	-7587
▁holidays	-7588
▁evolution	-7589
▁increased	-7590
▁neighbour	-7591
▁technology	-7592
two	-7593
▁"_	-7594
▁Ru	-7595
ardo	-7596
rily	-7597
▁Abs	-7598
▁Amb	-7599
▁Bow	-7600
▁Leg	-7601
▁hom	-7602
agger	-7603
▁Snow	-7604
▁Wolf	-7605
▁cows	-7606
ulated	-7607
▁Point	-7608
▁cliff	-7609
▁minds	-7610
▁Office	-7611
▁Taylor	-7612
▁speaks	-7613
▁culture	-7614
▁greatly	-7615
▁motorcy	-7616
▁distingu	-7617
▁intended	-7618
▁Cambridge	-7619
▁apologize	-7620
▁succeeded	-7621
▁difficulty	-7622
▁responsibility	-7623
sk	-7624
GFA	-7625
III	-7626
Mar	-7627
cts	-7628
lon	-7629
och	-7630
olk	-7631
▁Cur	-7632
▁Lew	-7633
▁MAN	-7634
▁Sud	-7635
▁lod	-7636
▁rhy	-7637
▁Kira	-7638
▁Mans	-7639
▁Must	-7640
▁papa	-7641
▁rude	-7642
▁trop	-7643
▁marks	-7644
▁Golden	-7645
▁confir	-7646
▁impati	-7647
▁spoons	-7648
▁Nations	-7649
▁consult	-7650
▁curtain	-7651
▁altogether	-7652
▁footballer	-7653
hus	-7654
▁Na	-7655
▁fo	-7656
LING	-7657
]...	-7658
lace	-7659
rows	-7660
▁Bab	-7661
▁Gor	-7662
▁Hay	-7663
▁Tok	-7664
▁toe	-7665
ivity	-7666
▁THEY	-7667
▁beds	-7668
▁Sweet	-7669
▁concl	-7670
▁votes	-7671
reading	-7672
▁Romans	-7673
▁beings	-7674
▁dining	-7675
▁highly	-7676
▁launch	-7677
▁packed	-7678
▁purcha	-7679
▁Rimbolt	-7680
▁climbed	-7681
▁details	-7682
▁cleaning	-7683
▁struggle	-7684
▁visitors	-7685
▁conscious	-7686
▁directions	-7687
▁authorities	-7688
new	-7689
rac	-7690
▁XX	-7691
Bill	-7692
ammy	-7693
baby	-7694
ieur	-7695
ifer	-7696
uals	-7697
▁Unt	-7698
aging	-7699
ordan	-7700
sound	-7701
▁Form	-7702
▁Pass	-7703
▁asks	-7704
▁belt	-7705
▁data	-7706
▁dawn	-7707
▁seal	-7708
▁wire	-7709
▁Clare	-7710
▁Ready	-7711
▁admir	-7712
▁kinda	-7713
▁relie	-7714
▁shove	-7715
▁Lincol	-7716
▁impact	-7717
▁retire	-7718
▁spider	-7719
▁stolen	-7720
▁Raymond	-7721
▁accompl	-7722
▁healthy	-7723
▁passion	-7724
▁pressed	-7725
▁Personal	-7726
▁disappear	-7727
▁presented	-7728
▁connection	-7729
▁Championships	-7730
ACK	-7731
bly	-7732
Your	-7733
amas	-7734
from	-7735
issy	-7736
uing	-7737
▁Mod	-7738
rific	-7739
verse	-7740
▁Asia	-7741
▁Dora	-7742
▁News	-7743
▁fits	-7744
▁impr	-7745
▁unit	-7746
▁vast	-7747
iverse	-7748
▁Thing	-7749
▁rescue	-7750
▁temple	-7751
▁worthy	-7752
▁Flossie	-7753
▁artists	-7754
▁divorce	-7755
▁Independ	-7756
▁mathemat	-7757
▁teachers	-7758
TP	-7759
elp	-7760
omi	-7761
pal	-7762
aned	-7763
enes	-7764
iser	-7765
▁Ayl	-7766
▁McC	-7767
▁Sel	-7768
▁Anth	-7769
▁disg	-7770
▁panc	-7771
▁pond	-7772
▁vice	-7773
pering	-7774
▁Bobby	-7775
▁Keith	-7776
▁Roger	-7777
▁Seven	-7778
▁punch	-7779
▁Newman	-7780
▁carpet	-7781
ervative	-7782
sylvania	-7783
▁Company	-7784
▁Desmond	-7785
▁Without	-7786
▁achieve	-7787
stitution	-7788
▁audience	-7789
▁channels	-7790
▁function	-7791
▁icecream	-7792
▁physical	-7793
GE	-7794
uv	-7795
sed	-7796
▁Py	-7797
cing	-7798
eral	-7799
etic	-7800
gend	-7801
lers	-7802
obal	-7803
▁Ara	-7804
▁Roy	-7805
▁Vol	-7806
eness	-7807
enger	-7808
▁Anim	-7809
▁mama	-7810
▁whoo	-7811
coming	-7812
pected	-7813
▁Eight	-7814
▁Jimmy	-7815
▁Willy	-7816
▁sheet	-7817
▁steel	-7818
▁stool	-7819
▁trail	-7820
alendar	-7821
▁commit	-7822
▁pardon	-7823
▁winner	-7824
▁Douglas	-7825
▁illness	-7826
▁produce	-7827
▁Champion	-7828
▁citizens	-7829
▁violence	-7830
▁Brazilian	-7831
▁backwards	-7832
▁evidently	-7833
▁expecting	-7834
fa	-7835
iber	-7836
phew	-7837
▁Hoo	-7838
adesh	-7839
adium	-7840
▁penn	-7841
▁prem	-7842
▁sche	-7843
alling	-7844
enters	-7845
▁flies	-7846
▁Aylmer	-7847
▁earned	-7848
▁indign	-7849
▁online	-7850
▁polite	-7851
▁sector	-7852
▁Hungary	-7853
▁billion	-7854
▁charges	-7855
▁require	-7856
▁selected	-7857
▁triangle	-7858
▁troubles	-7859
▁historical	-7860
SC	-7861
mes	-7862
nda	-7863
cipl	-7864
▁COM	-7865
▁Mem	-7866
▁Top	-7867
eding	-7868
hetic	-7869
ipper	-7870
▁fare	-7871
▁folk	-7872
▁sets	-7873
ivered	-7874
▁Chuck	-7875
▁Linda	-7876
▁dared	-7877
▁Sandra	-7878
▁driven	-7879
▁fierce	-7880
▁nephew	-7881
▁remove	-7882
▁affairs	-7883
▁blowing	-7884
▁classes	-7885
▁happily	-7886
▁shining	-7887
▁cheerful	-7888
▁products	-7889
▁friendship	-7890
UNT	-7891
aka	-7892
col	-7893
▁ax	-7894
bird	-7895
▁Dog	-7896
▁Gre	-7897
▁Rus	-7898
▁ugh	-7899
burgh	-7900
child	-7901
▁Aren	-7902
▁bent	-7903
▁bits	-7904
▁cage	-7905
▁plot	-7906
▁prec	-7907
▁tent	-7908
shakes	-7909
▁gazed	-7910
▁image	-7911
▁quant	-7912
▁suitc	-7913
▁swift	-7914
▁thief	-7915
akistan	-7916
▁Esther	-7917
▁Peters	-7918
▁ladder	-7919
▁poured	-7920
▁rolled	-7921
▁solemn	-7922
▁undert	-7923
▁Greater	-7924
▁capable	-7925
▁heavily	-7926
▁Director	-7927
▁faithful	-7928
▁candidate	-7929
▁organized	-7930
▁resources	-7931
▁activities	-7932
▁scientific	-7933
▁thoroughly	-7934
▁Pennsylvania	-7935
▁ok	-7936
fire	-7937
ogne	-7938
riam	-7939
▁HIM	-7940
▁Ins	-7941
▁Tha	-7942
▁Too	-7943
▁dea	-7944
▁fed	-7945
▁poo	-7946
cipal	-7947
lying	-7948
▁blew	-7949
▁butt	-7950
▁golf	-7951
▁lamb	-7952
▁mile	-7953
▁Johan	-7954
▁colon	-7955
▁opens	-7956
▁tomat	-7957
▁Albert	-7958
▁Commun	-7959
▁Margot	-7960
▁Twenty	-7961
▁ancest	-7962
▁chairs	-7963
▁fortun	-7964
▁loving	-7965
▁potato	-7966
▁smooth	-7967
▁sprang	-7968
▁bottles	-7969
▁complex	-7970
▁element	-7971
▁founder	-7972
▁raining	-7973
▁surgery	-7974
▁Anything	-7975
▁argument	-7976
▁Commission	-7977
ni	-7978
dog	-7979
eau	-7980
lar	-7981
▁BY	-7982
▁mob	-7983
Brian	-7984
oples	-7985
pired	-7986
▁Ball	-7987
▁Cart	-7988
▁Raby	-7989
▁cert	-7990
▁fate	-7991
▁fuss	-7992
▁mars	-7993
▁valu	-7994
lessly	-7995
▁hopes	-7996
▁stays	-7997
▁Bishop	-7998
▁Turkey	-7999
▁vision	-8000
▁persons	-8001
▁ringing	-8002
▁economic	-8003
▁programs	-8004
▁basically	-8005
▁parliament	-8006
De	-8007
Mr	-8008
ASE	-8009
BAB	-8010
For	-8011
LES	-8012
▁AD	-8013
▁AS	-8014
▁ta	-8015
aren	-8016
gedy	-8017
▁Hit	-8018
▁Lib	-8019
▁lif	-8020
▁sne	-8021
uckle	-8022
ufact	-8023
▁Dean	-8024
▁Moon	-8025
▁dirt	-8026
▁fled	-8027
▁grab	-8028
pector	-8029
▁aloud	-8030
▁domin	-8031
▁Center	-8032
▁agents	-8033
▁barely	-8034
▁horrid	-8035
ferences	-8036
▁Hemings	-8037
▁Iranian	-8038
▁adopted	-8039
▁consist	-8040
▁activity	-8041
▁belonged	-8042
▁confused	-8043
▁controll	-8044
▁extraord	-8045
▁daughters	-8046
▁elections	-8047
▁possibility	-8048
▁temperature	-8049
▁Metropolitan	-8050
IND	-8051
bra	-8052
rup	-8053
▁RA	-8054
Look	-8055
ccer	-8056
yard	-8057
▁CAN	-8058
▁End	-8059
▁Lad	-8060
▁Vin	-8061
▁gum	-8062
flies	-8063
▁Drum	-8064
▁FIFA	-8065
▁Hard	-8066
▁Mean	-8067
▁bree	-8068
▁cave	-8069
▁shed	-8070
▁shit	-8071
▁sung	-8072
▁ward	-8073
▁Check	-8074
▁Light	-8075
▁aband	-8076
▁Forest	-8077
▁crayon	-8078
▁stupid	-8079
▁figured	-8080
▁calendar	-8081
▁captured	-8082
▁clothing	-8083
▁millions	-8084
▁spending	-8085
▁Argentina	-8086
▁insurance	-8087
▁commission	-8088
▁pretending	-8089
ju	-8090
▁NE	-8091
enez	-8092
ogue	-8093
unte	-8094
▁BUT	-8095
▁Kaz	-8096
▁Mir	-8097
▁flu	-8098
ITTLE	-8099
ighed	-8100
ormed	-8101
ribly	-8102
▁Nort	-8103
▁Vien	-8104
▁bord	-8105
▁cord	-8106
▁drag	-8107
▁hath	-8108
▁sauc	-8109
mitted	-8110
▁Chair	-8111
▁Chant	-8112
▁Nikki	-8113
▁basis	-8114
▁loyal	-8115
▁ummhm	-8116
▁units	-8117
▁Dragon	-8118
▁Rachel	-8119
▁begged	-8120
▁nickel	-8121
▁scheme	-8122
▁Patrick	-8123
▁deliver	-8124
▁nowhere	-8125
▁quality	-8126
▁advanced	-8127
▁vacation	-8128
▁establish	-8129
▁commercial	-8130
▁companions	-8131
▁industrial	-8132
▁Oxfordshire	-8133
▁explanation	-8134
BI	-8135
lav	-8136
sex	-8137
▁du	-8138
agne	-8139
lock	-8140
olas	-8141
utor	-8142
▁tox	-8143
▁vic	-8144
arant	-8145
unted	-8146
▁Edie	-8147
▁Post	-8148
▁Pret	-8149
▁Ruth	-8150
▁cann	-8151
▁inse	-8152
▁Basil	-8153
▁Liber	-8154
▁acted	-8155
▁disag	-8156
▁estim	-8157
▁ignor	-8158
▁Having	-8159
▁Poland	-8160
▁duties	-8161
▁repeat	-8162
▁waters	-8163
▁bearing	-8164
▁foolish	-8165
▁fucking	-8166
▁intense	-8167
▁nursery	-8168
▁Children	-8169
▁chairman	-8170
▁commonly	-8171
▁dressing	-8172
▁suitcase	-8173
▁symptoms	-8174
▁youngest	-8175
▁affection	-8176
▁spaghetti	-8177
▁previously	-8178
▁surrounded	-8179
PA	-8180
akh	-8181
awa	-8182
Fran	-8183
arms	-8184
ibly	-8185
kind	-8186
orne	-8187
▁Ice	-8188
▁Nap	-8189
▁abo	-8190
▁bay	-8191
▁cas	-8192
▁uns	-8193
addle	-8194
inity	-8195
oscow	-8196
zburg	-8197
▁Doub	-8198
▁Hank	-8199
▁Mich	-8200
▁Rick	-8201
▁brie	-8202
▁dign	-8203
▁Brand	-8204
▁banks	-8205
▁mamma	-8206
▁occas	-8207
▁tryin	-8208
▁Apollo	-8209
▁LITTLE	-8210
▁Polish	-8211
▁actual	-8212
▁convin	-8213
▁drawer	-8214
▁ending	-8215
▁merely	-8216
▁statue	-8217
▁ticket	-8218
▁unable	-8219
▁Harvard	-8220
▁Special	-8221
▁Through	-8222
▁Turkish	-8223
▁anxiety	-8224
▁breathe	-8225
▁dragged	-8226
▁Pakistan	-8227
▁affected	-8228
▁delicate	-8229
▁distinct	-8230
▁punishment	-8231
▁Scholarship	-8232
▁understanding	-8233
LW	-8234
Per	-8235
aru	-8236
lic	-8237
▁BO	-8238
anes	-8239
arse	-8240
igen	-8241
lass	-8242
ndry	-8243
▁Dun	-8244
▁ded	-8245
▁tad	-8246
oting	-8247
▁Burg	-8248
▁Find	-8249
▁infe	-8250
▁keen	-8251
▁pops	-8252
▁sore	-8253
istics	-8254
ulture	-8255
▁Until	-8256
▁cakes	-8257
▁macar	-8258
▁numer	-8259
▁stern	-8260
▁Scarfe	-8261
▁stores	-8262
▁symbol	-8263
▁Diandra	-8264
▁Lincoln	-8265
▁mothers	-8266
▁pumpkin	-8267
continues	-8268
▁remarked	-8269
▁subjects	-8270
▁touching	-8271
▁Hungarian	-8272
▁emergency	-8273
▁greenbelt	-8274
▁intelligence	-8275
▁satisfaction	-8276
ji	-8277
▁Fü	-8278
abor	-8279
bing	-8280
ctic	-8281
▁phr	-8282
▁reb	-8283
estic	-8284
exits	-8285
igers	-8286
▁Hand	-8287
▁awoh	-8288
▁virt	-8289
arrass	-8290
making	-8291
▁Simon	-8292
▁enorm	-8293
▁slave	-8294
ferring	-8295
▁Moscow	-8296
▁claims	-8297
▁instru	-8298
▁myster	-8299
standing	-8300
▁efforts	-8301
▁enjoying	-8302
▁manufact	-8303
▁breathing	-8304
▁childhood	-8305
▁discovery	-8306
▁pronounced	-8307
▁vegetables	-8308
EM	-8309
TV	-8310
UL	-8311
URE	-8312
ova	-8313
uns	-8314
amen	-8315
ophy	-8316
them	-8317
▁Bor	-8318
▁Fur	-8319
▁Sad	-8320
▁Stu	-8321
▁Syl	-8322
arson	-8323
ports	-8324
uther	-8325
▁Hope	-8326
▁Nord	-8327
▁Talk	-8328
▁bags	-8329
▁cops	-8330
▁ding	-8331
▁imit	-8332
▁incl	-8333
asters	-8334
noises	-8335
▁Ghost	-8336
▁Kelly	-8337
▁Milan	-8338
▁Tokyo	-8339
▁frame	-8340
▁guide	-8341
▁views	-8342
▁editor	-8343
▁explos	-8344
▁lasted	-8345
▁sleepy	-8346
▁switch	-8347
▁Colonel	-8348
▁Pacific	-8349
▁briefly	-8350
▁claimed	-8351
▁feature	-8352
▁Drummond	-8353
▁Probably	-8354
▁admitted	-8355
▁climbing	-8356
▁pointing	-8357
▁addressed	-8358
▁impression	-8359
▁increasing	-8360
ée	-8361
rad	-8362
▁Eh	-8363
▁Ot	-8364
amps	-8365
bach	-8366
fish	-8367
oked	-8368
orms	-8369
ront	-8370
▁Cad	-8371
▁Eva	-8372
▁Him	-8373
▁Nar	-8374
▁jam	-8375
▁sin	-8376
▁PLAY	-8377
▁Page	-8378
▁chew	-8379
▁dial	-8380
▁inha	-8381
▁tray	-8382
▁Girls	-8383
▁grain	-8384
▁march	-8385
▁prime	-8386
▁stamp	-8387
▁tummy	-8388
iceless	-8389
▁Carter	-8390
▁Gladys	-8391
▁Jordan	-8392
▁Museum	-8393
▁betray	-8394
▁expert	-8395
▁kitten	-8396
▁napkin	-8397
▁parade	-8398
▁Israeli	-8399
▁article	-8400
▁assault	-8401
▁cleared	-8402
▁pennies	-8403
ederation	-8404
▁dropping	-8405
▁prospect	-8406
▁umbrella	-8407
▁stretched	-8408
▁literature	-8409
JO	-8410
▁¶	-8411
bar	-8412
bec	-8413
bes	-8414
rim	-8415
life	-8416
loud	-8417
uled	-8418
wait	-8419
▁Gib	-8420
▁Mid	-8421
▁bee	-8422
chant	-8423
itors	-8424
orpor	-8425
orted	-8426
ridge	-8427
rings	-8428
▁HERE	-8429
▁Shaw	-8430
▁debt	-8431
▁grat	-8432
▁poll	-8433
ademic	-8434
teenth	-8435
▁Kevin	-8436
▁cents	-8437
▁ruler	-8438
▁sneak	-8439
▁wreck	-8440
▁Follow	-8441
▁Valley	-8442
▁buying	-8443
▁cooper	-8444
▁scored	-8445
▁actions	-8446
Billboard	-8447
ouncillor	-8448
▁revealed	-8449
▁desperate	-8450
▁embarrass	-8451
▁returning	-8452
▁sacrifice	-8453
CA	-8454
cu	-8455
dr	-8456
KID	-8457
pur	-8458
▁LO	-8459
aman	-8460
anny	-8461
otam	-8462
wick	-8463
▁Fif	-8464
▁Pap	-8465
▁Sav	-8466
▁THI	-8467
▁ven	-8468
pulls	-8469
▁Jess	-8470
rafton	-8471
▁Class	-8472
▁Force	-8473
▁Irene	-8474
▁Peggy	-8475
▁Spani	-8476
▁cough	-8477
▁grief	-8478
▁Though	-8479
izations	-8480
▁contest	-8481
▁deserve	-8482
▁distant	-8483
▁guarant	-8484
▁naughty	-8485
▁counting	-8486
▁patients	-8487
▁studying	-8488
▁existence	-8489
ARS	-8490
ROM	-8491
aya	-8492
des	-8493
mic	-8494
▁AP	-8495
▁Mun	-8496
▁Sit	-8497
▁pee	-8498
asper	-8499
mates	-8500
osity	-8501
umper	-8502
▁Anna	-8503
▁Bozo	-8504
▁Plan	-8505
▁wipe	-8506
teries	-8507
umbles	-8508
▁Camer	-8509
▁Offic	-8510
▁ducks	-8511
onsieur	-8512
▁Howard	-8513
▁anyhow	-8514
▁donkey	-8515
▁merged	-8516
▁Anthony	-8517
▁degrees	-8518
▁marched	-8519
▁railway	-8520
▁shepher	-8521
referring	-8522
▁feathers	-8523
▁macaroni	-8524
▁commander	-8525
▁confident	-8526
▁executive	-8527
▁introduce	-8528
▁threatened	-8529
gs	-8530
dri	-8531
orf	-8532
▁Ep	-8533
▁GR	-8534
jack	-8535
▁Inc	-8536
▁Sri	-8537
▁mum	-8538
----"	-8539
clude	-8540
empts	-8541
▁Bart	-8542
▁Holm	-8543
▁Line	-8544
opotam	-8545
▁Bring	-8546
▁Doesn	-8547
▁Lewis	-8548
▁momma	-8549
▁yield	-8550
screams	-8551
▁Federal	-8552
▁economy	-8553
▁vehicle	-8554
▁volunte	-8555
▁attorney	-8556
▁compared	-8557
▁imprison	-8558
▁relative	-8559
▁valuable	-8560
▁reference	-8561
▁referring	-8562
▁Absolutely	-8563
▁incredible	-8564
▁considerable	-8565
hh	-8566
iar	-8567
may	-8568
▁CD	-8569
▁Mu	-8570
door	-8571
vant	-8572
ygen	-8573
▁Ferg	-8574
▁Finn	-8575
▁Lane	-8576
▁Lomb	-8577
▁Mall	-8578
▁Prom	-8579
▁cuts	-8580
▁mask	-8581
acious	-8582
itcher	-8583
unched	-8584
ynasty	-8585
▁Lucas	-8586
▁Radio	-8587
▁absor	-8588
▁burnt	-8589
▁chill	-8590
▁eatin	-8591
agement	-8592
▁Becket	-8593
▁Palace	-8594
▁ashore	-8595
▁strict	-8596
▁disturb	-8597
▁marbles	-8598
▁unusual	-8599
▁visited	-8600
▁elements	-8601
▁normally	-8602
▁naturally	-8603
▁possession	-8604
▁significant	-8605
▁extraordinary	-8606
AKE	-8607
ICE	-8608
iac	-8609
phy	-8610
▁Ur	-8611
away	-8612
ilia	-8613
ruck	-8614
thew	-8615
▁Mmm	-8616
▁NOW	-8617
▁Nep	-8618
▁Sum	-8619
▁cra	-8620
▁mos	-8621
found	-8622
woman	-8623
▁Cind	-8624
▁Lucy	-8625
▁Sene	-8626
▁Supp	-8627
▁Vava	-8628
▁bars	-8629
▁exha	-8630
▁root	-8631
▁sale	-8632
▁yell	-8633
starts	-8634
urious	-8635
▁Among	-8636
▁Speak	-8637
▁Trust	-8638
▁exact	-8639
▁exped	-8640
▁fetch	-8641
▁midst	-8642
▁squad	-8643
▁steam	-8644
utation	-8645
ynamite	-8646
▁Vienna	-8647
▁albums	-8648
▁arrive	-8649
▁collea	-8650
▁consum	-8651
▁deeply	-8652
▁enthus	-8653
▁issued	-8654
▁levels	-8655
outheast	-8656
▁Antonio	-8657
▁Grafton	-8658
▁Society	-8659
▁Windows	-8660
▁beating	-8661
▁dreamed	-8662
▁dresses	-8663
▁illegal	-8664
▁violent	-8665
▁inquired	-8666
▁kindness	-8667
▁mistakes	-8668
▁partners	-8669
▁pretends	-8670
▁stopping	-8671
▁Chantilly	-8672
▁alongside	-8673
▁confirmed	-8674
▁constantly	-8675
▁whispering	-8676
;"	-8677
Ar	-8678
Ne	-8679
zy	-8680
aug	-8681
azz	-8682
haw	-8683
▁Ce	-8684
▁Ms	-8685
ando	-8686
held	-8687
itus	-8688
orse	-8689
ught	-8690
▁Tag	-8691
▁Tal	-8692
ashes	-8693
eling	-8694
pless	-8695
somet	-8696
▁Ford	-8697
▁unex	-8698
▁wins	-8699
perial	-8700
▁Cross	-8701
▁Dream	-8702
▁Woman	-8703
▁dates	-8704
▁jumps	-8705
▁lemon	-8706
theless	-8707
▁Aubrey	-8708
▁Indeed	-8709
▁Morgan	-8710
▁profit	-8711
▁tribes	-8712
▁Grandma	-8713
▁stuffed	-8714
▁thirsty	-8715
▁wrapped	-8716
▁Griffith	-8717
▁identity	-8718
▁Geography	-8719
▁refrigerator	-8720
At	-8721
té	-8722
KING	-8723
alls	-8724
inds	-8725
iven	-8726
mate	-8727
quis	-8728
ordon	-8729
ronic	-8730
ureau	-8731
▁Kill	-8732
▁Lill	-8733
▁ages	-8734
▁dipl	-8735
▁nood	-8736
▁pole	-8737
▁pron	-8738
▁snip	-8739
▁syll	-8740
▁worm	-8741
▁ABOUT	-8742
▁Start	-8743
▁bands	-8744
▁jolly	-8745
▁rifle	-8746
▁solid	-8747
▁toile	-8748
▁Alfred	-8749
▁Justin	-8750
▁detail	-8751
▁growth	-8752
▁talkin	-8753
▁turkey	-8754
▁chamber	-8755
▁peoples	-8756
▁squeeze	-8757
▁Division	-8758
▁Maryland	-8759
▁accompan	-8760
▁strongly	-8761
Bl	-8762
kh	-8763
mt	-8764
MAN	-8765
gee	-8766
vor	-8767
▁Aw	-8768
▁Ay	-8769
▁Id	-8770
brew	-8771
comm	-8772
▁DID	-8773
▁Kir	-8774
▁cou	-8775
▁rum	-8776
earch	-8777
▁Arts	-8778
▁Beat	-8779
▁Card	-8780
▁Gary	-8781
▁Khan	-8782
▁Tour	-8783
▁hats	-8784
▁mild	-8785
▁rage	-8786
atural	-8787
ements	-8788
▁Daisy	-8789
▁Korea	-8790
▁arose	-8791
▁craft	-8792
▁kidna	-8793
▁photo	-8794
▁ridic	-8795
▁spots	-8796
removes	-8797
resents	-8798
▁Nathan	-8799
▁bronze	-8800
▁ribbon	-8801
▁sailed	-8802
ographer	-8803
▁Exactly	-8804
▁Skinner	-8805
▁causing	-8806
▁closing	-8807
▁edition	-8808
▁glanced	-8809
▁goddess	-8810
▁prayers	-8811
▁survive	-8812
▁constant	-8813
▁musician	-8814
▁necklace	-8815
▁protests	-8816
▁withdraw	-8817
▁seventeen	-8818
▁headquarters	-8819
BS	-8820
ATE	-8821
IRL	-8822
cut	-8823
gra	-8824
oto	-8825
ario	-8826
part	-8827
pool	-8828
▁WWE	-8829
▁ath	-8830
▁dia	-8831
▁kil	-8832
▁tub	-8833
Brown	-8834
elope	-8835
force	-8836
iches	-8837
itals	-8838
▁Bank	-8839
▁Sean	-8840
▁Vice	-8841
▁Wend	-8842
▁cran	-8843
▁kitt	-8844
▁myth	-8845
▁prob	-8846
▁trap	-8847
itches	-8848
▁crept	-8849
▁drain	-8850
▁labor	-8851
▁tales	-8852
▁yards	-8853
▁Parker	-8854
▁awards	-8855
▁behalf	-8856
▁nothin	-8857
▁prices	-8858
▁thrust	-8859
▁unlike	-8860
▁Matthew	-8861
▁cigaret	-8862
▁primary	-8863
▁shaking	-8864
▁visitor	-8865
▁searching	-8866
▁remarkable	-8867
▁constituency	-8868
▁independence	-8869
Un	-8870
ín	-8871
DER	-8872
▁ze	-8873
Miss	-8874
engu	-8875
ggie	-8876
riot	-8877
▁Var	-8878
▁lit	-8879
▁vow	-8880
oween	-8881
rated	-8882
▁Chat	-8883
▁Gulf	-8884
▁blaz	-8885
▁ruin	-8886
▁wrap	-8887
igator	-8888
▁Krist	-8889
▁drank	-8890
▁drift	-8891
▁towel	-8892
▁yells	-8893
imately	-8894
▁Korean	-8895
▁boring	-8896
▁guards	-8897
▁negoti	-8898
▁prayer	-8899
attempts	-8900
▁Between	-8901
▁Channel	-8902
▁crashed	-8903
▁parking	-8904
▁session	-8905
▁snowman	-8906
▁criminal	-8907
▁imagined	-8908
▁inspired	-8909
▁negative	-8910
▁represents	-8911
▁traditional	-8912
ais	-8913
axy	-8914
jan	-8915
oir	-8916
rin	-8917
uma	-8918
▁Du	-8919
▁TW	-8920
stal	-8921
▁bot	-8922
▁clo	-8923
▁hal	-8924
▁hay	-8925
▁pad	-8926
▁ren	-8927
▁voy	-8928
bbing	-8929
eenth	-8930
eline	-8931
orial	-8932
ousin	-8933
▁Cook	-8934
▁Gard	-8935
▁Hang	-8936
▁Lion	-8937
▁acts	-8938
▁caut	-8939
▁crib	-8940
▁grie	-8941
▁lets	-8942
▁liqu	-8943
▁rejo	-8944
▁stew	-8945
▁toes	-8946
▁unif	-8947
encies	-8948
iments	-8949
ipping	-8950
stream	-8951
▁Evans	-8952
▁Venez	-8953
▁beard	-8954
▁cells	-8955
▁jelly	-8956
▁pilot	-8957
▁steak	-8958
▁weary	-8959
assador	-8960
▁Manche	-8961
▁oxygen	-8962
▁perman	-8963
▁shared	-8964
▁annoyed	-8965
▁cousins	-8966
▁dealing	-8967
▁limited	-8968
▁Reliance	-8969
▁contains	-8970
▁creation	-8971
▁demanded	-8972
▁sometime	-8973
▁conductor	-8974
▁remaining	-8975
▁appropriate	-8976
IV	-8977
hu	-8978
LIN	-8979
idy	-8980
lan	-8981
zes	-8982
▁Av	-8983
edge	-8984
imme	-8985
▁BBC	-8986
▁Oak	-8987
▁ack	-8988
▁lux	-8989
▁tan	-8990
olley	-8991
talks	-8992
▁Joan	-8993
▁Joey	-8994
▁load	-8995
▁oven	-8996
▁Doubs	-8997
▁Elite	-8998
▁belly	-8999
▁cheek	-9000
▁drill	-9001
▁expen	-9002
▁leads	-9003
▁porch	-9004
▁sunny	-9005
▁trace	-9006
▁Author	-9007
▁Grammy	-9008
▁Mister	-9009
▁annual	-9010
▁banana	-9011
▁charts	-9012
▁invite	-9013
▁knight	-9014
▁nearby	-9015
▁partly	-9016
▁tastes	-9017
▁devoted	-9018
▁hastily	-9019
▁mystery	-9020
▁pitcher	-9021
▁website	-9022
▁Michigan	-9023
▁solution	-9024
▁protected	-9025
▁receiving	-9026
▁responded	-9027
bie	-9028
pat	-9029
zed	-9030
ares	-9031
itol	-9032
▁Aff	-9033
▁Bry	-9034
▁ing	-9035
▁Brig	-9036
▁Norm	-9037
▁Pitt	-9038
▁buzz	-9039
▁chin	-9040
▁dude	-9041
▁echo	-9042
▁fuck	-9043
▁peek	-9044
▁peep	-9045
▁pine	-9046
cluded	-9047
grunts	-9048
ilding	-9049
vation	-9050
▁Diego	-9051
▁Techn	-9052
▁Twila	-9053
▁cared	-9054
▁ketch	-9055
▁reads	-9056
▁Brooks	-9057
▁Harvey	-9058
▁aboard	-9059
▁method	-9060
▁needle	-9061
▁puppet	-9062
▁Harwood	-9063
▁arrival	-9064
▁impress	-9065
▁lecture	-9066
▁revenge	-9067
▁suicide	-9068
▁Assembly	-9069
▁describe	-9070
▁spelling	-9071
▁answering	-9072
▁briefcase	-9073
▁execution	-9074
▁intention	-9075
▁scientist	-9076
▁territory	-9077
▁unexpected	-9078
lem	-9079
▁BR	-9080
▁CL	-9081
▁Ka	-9082
rors	-9083
soft	-9084
▁Wan	-9085
▁sam	-9086
▁web	-9087
going	-9088
inent	-9089
itled	-9090
plays	-9091
▁LIKE	-9092
▁emot	-9093
▁rack	-9094
▁scra	-9095
▁zero	-9096
airies	-9097
icians	-9098
▁Bangl	-9099
▁cares	-9100
▁facts	-9101
▁fires	-9102
▁perce	-9103
▁surre	-9104
▁Conway	-9105
▁Family	-9106
▁Fergus	-9107
▁Hebrew	-9108
▁Hoover	-9109
▁Marsha	-9110
▁Palest	-9111
▁Spring	-9112
▁beaten	-9113
▁cadets	-9114
▁christ	-9115
▁danced	-9116
▁debate	-9117
▁shouts	-9118
▁counsel	-9119
▁landing	-9120
▁thunder	-9121
▁Venezuel	-9122
▁criteria	-9123
▁enormous	-9124
▁memories	-9125
▁midnight	-9126
▁mistaken	-9127
▁collected	-9128
▁Christians	-9129
▁unconscious	-9130
!_	-9131
.)	-9132
Ind	-9133
aro	-9134
kun	-9135
ooh	-9136
▁ey	-9137
Have	-9138
char	-9139
girl	-9140
irts	-9141
zech	-9142
▁Cab	-9143
▁Meg	-9144
▁Pur	-9145
▁Sat	-9146
▁pha	-9147
▁sou	-9148
agers	-9149
ients	-9150
oster	-9151
ourse	-9152
▁Cool	-9153
▁Dave	-9154
▁Hans	-9155
▁Josh	-9156
▁Lisa	-9157
▁Main	-9158
▁Stra	-9159
▁haha	-9160
▁obst	-9161
▁pork	-9162
▁sequ	-9163
inated	-9164
inners	-9165
▁Baker	-9166
▁Eddie	-9167
▁Order	-9168
▁recon	-9169
▁route	-9170
▁scold	-9171
▁shone	-9172
▁stead	-9173
holding	-9174
ignment	-9175
ultural	-9176
▁Forget	-9177
▁burden	-9178
▁emphas	-9179
▁feared	-9180
▁refuse	-9181
▁rivers	-9182
▁skills	-9183
▁tennis	-9184
▁tracks	-9185
▁wishes	-9186
▁connect	-9187
▁farmers	-9188
▁staring	-9189
▁swallow	-9190
▁wanting	-9191
▁thankful	-9192
▁Meanwhile	-9193
▁celebrate	-9194
BE	-9195
"),	-9196
FRI	-9197
▁Wy	-9198
abri	-9199
hums	-9200
ikes	-9201
iped	-9202
note	-9203
ores	-9204
pson	-9205
rell	-9206
▁Sab	-9207
▁mal	-9208
inder	-9209
▁GIRL	-9210
▁Gray	-9211
▁Hart	-9212
▁beet	-9213
▁lied	-9214
▁nodd	-9215
▁ouch	-9216
ective	-9217
inking	-9218
vering	-9219
▁Donna	-9220
▁flung	-9221
▁outer	-9222
▁pecul	-9223
▁quack	-9224
▁races	-9225
igenous	-9226
▁clergy	-9227
▁copies	-9228
▁deaths	-9229
▁injury	-9230
▁insult	-9231
▁shovel	-9232
▁stated	-9233
ertainly	-9234
▁cabinet	-9235
▁dialect	-9236
▁discipl	-9237
▁shelter	-9238
▁sweetie	-9239
▁tremend	-9240
▁Carolina	-9241
▁Franklin	-9242
▁launched	-9243
▁offering	-9244
▁shouting	-9245
▁terribly	-9246
▁Mansfield	-9247
▁confusion	-9248
▁household	-9249
▁policeman	-9250
▁potential	-9251
▁sweetheart	-9252
▁Philippines	-9253
One	-9254
mad	-9255
ras	-9256
top	-9257
una	-9258
zan	-9259
▁je	-9260
alys	-9261
four	-9262
▁Cas	-9263
▁Sup	-9264
ATION	-9265
press	-9266
▁Bush	-9267
▁Chap	-9268
▁RANG	-9269
▁fasc	-9270
▁hits	-9271
▁rust	-9272
▁seas	-9273
▁wret	-9274
▁Bourg	-9275
▁Civil	-9276
▁Crown	-9277
▁Wendy	-9278
▁blast	-9279
▁chips	-9280
▁haste	-9281
▁niece	-9282
▁theme	-9283
borough	-9284
vention	-9285
▁Freder	-9286
▁Rodney	-9287
▁bullet	-9288
▁ginger	-9289
▁powder	-9290
▁script	-9291
▁stable	-9292
▁survey	-9293
▁treaty	-9294
▁Muslims	-9295
▁leather	-9296
▁prepare	-9297
▁secrets	-9298
▁checking	-9299
▁regarded	-9300
▁Thanksgiving	-9301
OS	-9302
Ph	-9303
").	-9304
EAH	-9305
END	-9306
ema	-9307
hun	-9308
lie	-9309
sie	-9310
▁na	-9311
erer	-9312
imit	-9313
tuce	-9314
▁Aud	-9315
▁NEW	-9316
▁Nel	-9317
▁Pig	-9318
▁Rud	-9319
▁lip	-9320
▁pul	-9321
▁san	-9322
▁vig	-9323
idden	-9324
oland	-9325
▁Half	-9326
▁Poll	-9327
▁bund	-9328
crying	-9329
▁Enter	-9330
▁Ocean	-9331
▁Olive	-9332
▁gross	-9333
▁Bridge	-9334
▁Holmes	-9335
▁Jessie	-9336
▁aspect	-9337
▁extent	-9338
▁latest	-9339
▁prompt	-9340
▁Instead	-9341
▁feeding	-9342
▁monarch	-9343
▁muscles	-9344
▁warrant	-9345
▁Hospital	-9346
▁Jefferson	-9347
▁hippopotam	-9348
▁butterflies	-9349
FE	-9350
."]	-9351
hio	-9352
usa	-9353
Thou	-9354
boat	-9355
quer	-9356
▁DNA	-9357
▁FAT	-9358
▁Kid	-9359
▁Nin	-9360
cript	-9361
▁Coch	-9362
▁bend	-9363
▁lawn	-9364
ocracy	-9365
▁Treat	-9366
▁Wayne	-9367
▁angel	-9368
▁faced	-9369
▁genus	-9370
▁limit	-9371
▁mustn	-9372
▁scrap	-9373
▁swept	-9374
▁widow	-9375
ciences	-9376
▁Intern	-9377
▁abroad	-9378
▁acknow	-9379
▁ceased	-9380
▁device	-9381
▁gloves	-9382
▁headed	-9383
▁joking	-9384
▁labour	-9385
▁lookin	-9386
kerchief	-9387
mination	-9388
▁Foreign	-9389
▁ketchup	-9390
▁license	-9391
▁puzzled	-9392
▁charming	-9393
▁sympathy	-9394
▁Catherine	-9395
▁administr	-9396
▁instantly	-9397
▁movements	-9398
IL	-9399
ANK	-9400
INE	-9401
tie	-9402
▁FE	-9403
▁IV	-9404
▁XV	-9405
fter	-9406
imum	-9407
▁Kal	-9408
▁unw	-9409
leans	-9410
▁OKAY	-9411
▁Pete	-9412
▁Sang	-9413
▁Stat	-9414
▁limb	-9415
▁mart	-9416
▁mead	-9417
▁pear	-9418
orters	-9419
▁Color	-9420
▁Katie	-9421
▁Story	-9422
▁groom	-9423
▁hired	-9424
▁shade	-9425
inating	-9426
▁Eloise	-9427
▁Julius	-9428
▁Things	-9429
▁budget	-9430
▁exceed	-9431
▁orphan	-9432
▁steady	-9433
▁toilet	-9434
Dynamite	-9435
▁consent	-9436
▁descend	-9437
▁despite	-9438
▁disgust	-9439
▁gallant	-9440
▁heading	-9441
▁lobster	-9442
▁retreat	-9443
▁speaker	-9444
▁whoever	-9445
▁executed	-9446
▁interests	-9447
▁neighbors	-9448
▁recovered	-9449
▁separated	-9450
▁associated	-9451
▁opposition	-9452
▁businessman	-9453
▁destruction	-9454
▁participated	-9455
,]	-9456
bby	-9457
▁AR	-9458
▁py	-9459
dney	-9460
mail	-9461
orus	-9462
▁ONE	-9463
▁gee	-9464
▁ske	-9465
▁wis	-9466
obile	-9467
▁Bugs	-9468
▁Ever	-9469
▁Hulk	-9470
▁YEAH	-9471
▁nort	-9472
▁subs	-9473
▁tops	-9474
▁woof	-9475
ithely	-9476
urches	-9477
▁Clark	-9478
▁Czech	-9479
▁Diana	-9480
▁Fight	-9481
▁Madam	-9482
▁Polit	-9483
▁alley	-9484
▁basic	-9485
▁cadet	-9486
▁fears	-9487
▁trave	-9488
bitants	-9489
▁Graham	-9490
▁Harris	-9491
▁Marian	-9492
▁Martha	-9493
▁bubble	-9494
▁expand	-9495
▁nodded	-9496
▁poetry	-9497
▁Morning	-9498
▁Persian	-9499
▁conspir	-9500
▁defense	-9501
▁fiction	-9502
▁liberal	-9503
▁obvious	-9504
▁generous	-9505
▁vanished	-9506
▁commanded	-9507
▁sentences	-9508
▁invitation	-9509
▁disappointment	-9510
./	-9511
ROW	-9512
iat	-9513
sur	-9514
whe	-9515
acht	-9516
hyla	-9517
onge	-9518
real	-9519
tree	-9520
▁Age	-9521
▁Cry	-9522
▁Obl	-9523
▁era	-9524
▁ere	-9525
▁fee	-9526
▁paj	-9527
▁tag	-9528
Comté	-9529
comes	-9530
first	-9531
ingle	-9532
piece	-9533
rical	-9534
still	-9535
▁Brun	-9536
▁Flag	-9537
▁Holl	-9538
▁anch	-9539
▁lamp	-9540
▁semi	-9541
ifying	-9542
unning	-9543
▁Blood	-9544
▁Times	-9545
▁alike	-9546
▁inner	-9547
▁nasty	-9548
▁stiff	-9549
▁Double	-9550
▁Lawyer	-9551
▁Silver	-9552
▁kicked	-9553
▁landsc	-9554
▁laying	-9555
▁recall	-9556
▁Finally	-9557
▁Science	-9558
▁applied	-9559
▁despair	-9560
▁composed	-9561
▁numerous	-9562
▁recommend	-9563
▁trembling	-9564
ratulations	-9565
▁profession	-9566
▁Afghanistan	-9567
▁Representatives	-9568
ii	-9569
agu	-9570
sar	-9571
woo	-9572
▁Gw	-9573
▁Kh	-9574
..."	-9575
alle	-9576
mony	-9577
▁Ask	-9578
▁Dri	-9579
▁Fro	-9580
▁Pot	-9581
▁typ	-9582
▁vel	-9583
aling	-9584
eller	-9585
rison	-9586
▁Band	-9587
▁Guys	-9588
▁None	-9589
▁gard	-9590
▁oath	-9591
▁toss	-9592
▁tune	-9593
▁warn	-9594
headed	-9595
usalem	-9596
▁Karen	-9597
▁Niger	-9598
▁categ	-9599
▁clubs	-9600
▁daisy	-9601
▁devil	-9602
▁heels	-9603
▁pulls	-9604
▁scale	-9605
▁shelf	-9606
▁spray	-9607
▁stout	-9608
Franche	-9609
chestra	-9610
respond	-9611
▁agency	-9612
▁assass	-9613
▁calcul	-9614
▁carbon	-9615
▁gasped	-9616
▁genius	-9617
▁legend	-9618
▁reckon	-9619
▁ruined	-9620
▁tigers	-9621
▁circles	-9622
▁equally	-9623
▁longest	-9624
▁crossing	-9625
▁magnific	-9626
▁Bourgogne	-9627
▁Foundation	-9628
▁instrument	-9629
▁motorcycle	-9630
▁accompanied	-9631
EO	-9632
AST	-9633
ISH	-9634
ext	-9635
▁""	-9636
▁?[	-9637
▁Ho	-9638
▁tu	-9639
Some	-9640
Very	-9641
____	-9642
ideo	-9643
pent	-9644
▁HOW	-9645
▁Hil	-9646
▁MAR	-9647
▁WHO	-9648
▁WOR	-9649
▁hip	-9650
ranch	-9651
▁COME	-9652
▁amus	-9653
▁bass	-9654
▁bees	-9655
▁dime	-9656
▁twin	-9657
▁wars	-9658
asures	-9659
bishop	-9660
ulting	-9661
▁Broad	-9662
▁Track	-9663
▁gates	-9664
▁jokes	-9665
▁patch	-9666
▁scorn	-9667
▁stair	-9668
▁thumb	-9669
▁Colomb	-9670
▁Cousin	-9671
▁facing	-9672
▁frustr	-9673
▁hockey	-9674
▁paused	-9675
▁stress	-9676
▁Cochran	-9677
▁Margery	-9678
▁depends	-9679
▁granted	-9680
▁humming	-9681
▁lettuce	-9682
▁nations	-9683
▁recover	-9684
▁Armenian	-9685
▁Atlantic	-9686
▁Jennifer	-9687
▁announce	-9688
▁departed	-9689
▁quarters	-9690
▁troubled	-9691
▁Biography	-9692
▁Therefore	-9693
▁batteries	-9694
Man	-9695
arn	-9696
esc	-9697
his	-9698
oda	-9699
rus	-9700
sen	-9701
▁AG	-9702
▁Pu	-9703
Adam	-9704
agle	-9705
ebra	-9706
▁Dur	-9707
▁Imp	-9708
▁blo	-9709
antis	-9710
asped	-9711
cling	-9712
▁LOOK	-9713
▁Need	-9714
▁Viet	-9715
▁alle	-9716
▁damn	-9717
▁mice	-9718
▁scat	-9719
▁soda	-9720
inging	-9721
▁Brook	-9722
▁Ellen	-9723
▁Merry	-9724
▁inher	-9725
▁react	-9726
▁roses	-9727
▁swiss	-9728
▁urban	-9729
onation	-9730
▁Coming	-9731
▁Econom	-9732
▁Except	-9733
▁Gloria	-9734
▁Victor	-9735
▁approx	-9736
▁cattle	-9737
▁conven	-9738
▁soccer	-9739
▁voiced	-9740
▁Notting	-9741
▁Station	-9742
▁Swedish	-9743
▁assured	-9744
▁buttons	-9745
▁capture	-9746
▁knights	-9747
▁replace	-9748
▁comrades	-9749
▁distress	-9750
▁relation	-9751
▁sensible	-9752
▁villages	-9753
▁expressed	-9754
▁approached	-9755
fs	-9756
gi	-9757
byn	-9758
egr	-9759
ipt	-9760
mod	-9761
▁MP	-9762
Dear	-9763
aron	-9764
hair	-9765
hess	-9766
ieve	-9767
ipes	-9768
mosp	-9769
past	-9770
vior	-9771
▁Kai	-9772
▁LET	-9773
▁McK	-9774
▁tus	-9775
dials	-9776
hibit	-9777
ouses	-9778
urger	-9779
▁GOOD	-9780
▁Game	-9781
▁Rich	-9782
▁fame	-9783
actory	-9784
trying	-9785
washer	-9786
▁Bacon	-9787
▁Stock	-9788
▁bells	-9789
▁depos	-9790
▁goose	-9791
▁rolls	-9792
hearted	-9793
writing	-9794
▁Deputy	-9795
▁Gordon	-9796
▁barrel	-9797
▁candle	-9798
▁diplom	-9799
▁prosec	-9800
▁regist	-9801
▁reject	-9802
▁status	-9803
▁talent	-9804
▁Grandpa	-9805
▁hitting	-9806
▁notable	-9807
▁seventh	-9808
▁stretch	-9809
▁Lombardy	-9810
▁attempts	-9811
▁helpless	-9812
▁machines	-9813
▁muttered	-9814
▁Aldithely	-9815
▁Jerusalem	-9816
▁centuries	-9817
▁officials	-9818
▁administration	-9819
._	-9820
ić	-9821
▁|	-9822
JOA	-9823
LOW	-9824
bus	-9825
nat	-9826
▁Ga	-9827
asha	-9828
eyed	-9829
good	-9830
hams	-9831
otta	-9832
rich	-9833
▁Isa	-9834
▁Joy	-9835
▁Rag	-9836
akota	-9837
oused	-9838
urbed	-9839
▁Balt	-9840
▁Case	-9841
▁Lois	-9842
▁Navy	-9843
▁hosp	-9844
▁rais	-9845
ellect	-9846
member	-9847
oscope	-9848
▁Davis	-9849
▁Hills	-9850
▁Nazis	-9851
▁depth	-9852
▁drown	-9853
▁harsh	-9854
▁makin	-9855
achache	-9856
humming	-9857
intendo	-9858
section	-9859
▁Almost	-9860
▁Better	-9861
▁Corpor	-9862
▁Greeks	-9863
▁Native	-9864
▁Oblast	-9865
▁Samuel	-9866
▁breaks	-9867
▁breeze	-9868
▁compar	-9869
▁insist	-9870
▁intent	-9871
▁photos	-9872
▁remote	-9873
▁roller	-9874
▁shield	-9875
▁tunnel	-9876
fortable	-9877
▁Capitol	-9878
▁Christa	-9879
▁Develop	-9880
▁candles	-9881
▁charity	-9882
▁grounds	-9883
▁portion	-9884
▁academic	-9885
▁composer	-9886
▁glorious	-9887
▁obtained	-9888
▁promoted	-9889
▁reaction	-9890
▁regional	-9891
▁stations	-9892
▁convinced	-9893
▁resistance	-9894
▁approaching	-9895
▁inhabitants	-9896
▁interrupted	-9897
bat	-9898
did	-9899
oyd	-9900
▁IF	-9901
ldom	-9902
mers	-9903
nuts	-9904
seud	-9905
your	-9906
▁ANY	-9907
▁Arm	-9908
▁Bos	-9909
▁Inf	-9910
▁ink	-9911
▁kne	-9912
▁sup	-9913
denly	-9914
means	-9915
▁Cass	-9916
▁Fern	-9917
▁Gook	-9918
▁Juan	-9919
▁Nine	-9920
▁Shah	-9921
▁WANT	-9922
▁slee	-9923
rified	-9924
▁Conne	-9925
▁Peace	-9926
▁Pitts	-9927
▁penal	-9928
▁tests	-9929
▁tools	-9930
▁trump	-9931
▁Common	-9932
▁Grover	-9933
▁Norman	-9934
▁Public	-9935
▁anthem	-9936
▁dating	-9937
▁firmly	-9938
▁metres	-9939
▁phrase	-9940
▁shells	-9941
▁sticky	-9942
▁Banbury	-9943
▁Country	-9944
▁Penelope	-9945
▁balloons	-9946
▁earliest	-9947
▁injuries	-9948
▁Universal	-9949
▁encourage	-9950
▁conscience	-9951
▁ridiculous	-9952
▁appointment	-9953
▁stomachache	-9954
▁unfortunate	-9955
▁hippopotamus	-9956
▁municipalities	-9957
FL	-9958
sn	-9959
zu	-9960
AIN	-9961
auc	-9962
bab	-9963
bac	-9964
din	-9965
mph	-9966
nah	-9967
rah	-9968
won	-9969
▁ec	-9970
ROAN	-9971
aude	-9972
gain	-9973
haus	-9974
icia	-9975
inks	-9976
▁Aut	-9977
▁Cir	-9978
▁Pel	-9979
▁Ret	-9980
▁ooh	-9981
ascal	-9982
ooped	-9983
▁Greg	-9984
▁Hind	-9985
▁buff	-9986
▁hint	-9987
▁tiss	-9988
alysis	-9989
erella	-9990
shouts	-9991
▁Domin	-9992
▁Sever	-9993
▁dwell	-9994
▁frank	-9995
▁gimme	-9996
▁glory	-9997
▁goods	-9998
▁zebra	-9999
amation	-10000
▁Junior	-10001
▁Miriam	-10002
▁arrows	-10003
▁atmosp	-10004
▁autumn	-10005
▁cooked	-10006
▁refers	-10007
▁repair	-10008
cription	-10009
▁Indones	-10010
▁PLAYING	-10011
▁Vincent	-10012
▁beloved	-10013
▁chasing	-10014
▁deliber	-10015
▁islands	-10016
▁manners	-10017
▁nearest	-10018
▁pajamas	-10019
▁reviews	-10020
▁sailing	-10021
▁smoking	-10022
▁Egyptian	-10023
▁Nintendo	-10024
▁Salzburg	-10025
▁attitude	-10026
▁catching	-10027
▁complain	-10028
▁dreaming	-10029
▁peculiar	-10030
▁survived	-10031
▁Frederick	-10032
▁Griffiths	-10033
▁curiosity	-10034
▁followers	-10035
▁gradually	-10036
▁pretended	-10037
▁proceeded	-10038
▁uncomfortable	-10039
By	-10040
ão	-10041
EXP	-10042
THE	-10043
hmm	-10044
oen	-10045
uge	-10046
▁AC	-10047
ALLY	-10048
Will	-10049
agan	-10050
high	-10051
isle	-10052
pass	-10053
reek	-10054
runs	-10055
scar	-10056
stan	-10057
▁Add	-10058
▁Eli	-10059
▁Gil	-10060
▁Roc	-10061
▁bew	-10062
▁ult	-10063
armed	-10064
icken	-10065
kward	-10066
leton	-10067
olves	-10068
▁Dark	-10069
▁Fury	-10070
▁Gall	-10071
▁Ivan	-10072
▁Nazi	-10073
▁Oper	-10074
▁Upon	-10075
▁fake	-10076
▁stab	-10077
▁tank	-10078
hedral	-10079
master	-10080
▁Field	-10081
▁Organ	-10082
▁lemme	-10083
▁shrie	-10084
▁tires	-10085
▁Corbyn	-10086
▁Hitler	-10087
▁Indust	-10088
▁Murray	-10089
▁Prague	-10090
▁Sounds	-10091
▁contem	-10092
▁crimes	-10093
▁hunger	-10094
▁resign	-10095
▁sacred	-10096
▁sailor	-10097
▁cleaned	-10098
▁interfe	-10099
▁kissing	-10100
▁longing	-10101
▁operate	-10102
▁reflect	-10103
▁teasing	-10104
▁theatre	-10105
▁triumph	-10106
▁variety	-10107
▁Nicholas	-10108
▁Tomorrow	-10109
▁ceremony	-10110
▁knocking	-10111
▁stealing	-10112
▁tropical	-10113
▁correctly	-10114
▁operating	-10115
▁sentenced	-10116
▁strangers	-10117
▁sufficient	-10118
▁application	-10119
AA	-10120
Le	-10121
oa	-10122
ICK	-10123
cat	-10124
cup	-10125
▁PR	-10126
▁SS	-10127
Coma	-10128
izer	-10129
udge	-10130
upon	-10131
vous	-10132
▁Abd	-10133
▁Ali	-10134
▁Inv	-10135
▁ber	-10136
▁bul	-10137
▁hen	-10138
about	-10139
▁Chag	-10140
▁FROM	-10141
▁Gran	-10142
▁José	-10143
▁Neci	-10144
▁Roll	-10145
▁fans	-10146
▁lane	-10147
▁remo	-10148
cester	-10149
▁Beach	-10150
▁Julia	-10151
▁Third	-10152
▁bored	-10153
▁sadly	-10154
▁seeds	-10155
chester	-10156
ustomed	-10157
▁Franco	-10158
▁Marine	-10159
▁Pierre	-10160
▁Seneca	-10161
▁assume	-10162
▁behave	-10163
▁combat	-10164
▁learnt	-10165
▁roared	-10166
▁savage	-10167
▁Senator	-10168
▁absence	-10169
▁costume	-10170
▁sources	-10171
orporated	-10172
▁Lawrence	-10173
▁messages	-10174
▁relieved	-10175
▁Louisiana	-10176
▁anxiously	-10177
▁delivered	-10178
▁detective	-10179
▁impressed	-10180
▁practical	-10181
▁principal	-10182
▁Environment	-10183
▁recognition	-10184
▁competitions	-10185
//	-10186
bi	-10187
asm	-10188
obi	-10189
▁Gy	-10190
▁MR	-10191
▁Pa	-10192
▁Ut	-10193
eros	-10194
oust	-10195
rine	-10196
ulpt	-10197
▁Won	-10198
▁fer	-10199
▁vit	-10200
balls	-10201
chard	-10202
ettle	-10203
istol	-10204
vocal	-10205
▁Horn	-10206
▁barr	-10207
▁blah	-10208
▁cock	-10209
▁frag	-10210
▁gosh	-10211
▁hamb	-10212
▁noon	-10213
▁tons	-10214
atures	-10215
isible	-10216
▁Nobel	-10217
▁Rocky	-10218
▁gifts	-10219
▁lover	-10220
▁noted	-10221
oration	-10222
osition	-10223
▁Lawson	-10224
▁Steven	-10225
▁Wilson	-10226
▁allows	-10227
▁sovere	-10228
iversary	-10229
▁Airport	-10230
▁defence	-10231
▁funeral	-10232
▁immense	-10233
▁liberty	-10234
▁useless	-10235
▁chickens	-10236
▁creating	-10237
▁temporary	-10238
▁Television	-10239
▁reasonable	-10240
▁handkerchief	-10241
XT	-10242
aza	-10243
dad	-10244
dle	-10245
isk	-10246
rum	-10247
▁FR	-10248
burn	-10249
grim	-10250
▁Eun	-10251
▁laz	-10252
▁sar	-10253
athan	-10254
count	-10255
usive	-10256
▁Crit	-10257
▁Kyle	-10258
▁Mand	-10259
▁Maur	-10260
▁Ohio	-10261
▁Sher	-10262
▁ange	-10263
▁arts	-10264
▁goat	-10265
▁item	-10266
velope	-10267
▁Being	-10268
▁Bevis	-10269
▁Honor	-10270
▁Monte	-10271
▁Terry	-10272
▁beats	-10273
▁comma	-10274
▁diagn	-10275
▁flour	-10276
minster	-10277
▁Always	-10278
▁Histor	-10279
▁Ronald	-10280
▁Square	-10281
▁cotton	-10282
▁satell	-10283
▁dignity	-10284
▁grandpa	-10285
▁regions	-10286
▁whistle	-10287
▁Suddenly	-10288
▁disaster	-10289
▁identify	-10290
▁wherever	-10291
▁Archbishop	-10292
▁adventures	-10293
▁expedition	-10294
▁retirement	-10295
▁considering	-10296
▁photographs	-10297
▁representative	-10298
UB	-10299
sa	-10300
dra	-10301
era	-10302
tub	-10303
▁OR	-10304
▁Pi	-10305
▁VI	-10306
fers	-10307
hrer	-10308
unci	-10309
unks	-10310
▁Ast	-10311
▁Hod	-10312
▁Veg	-10313
▁nod	-10314
▁una	-10315
▁ups	-10316
acity	-10317
akers	-10318
iders	-10319
inate	-10320
▁Area	-10321
▁Karl	-10322
▁Rain	-10323
▁Stri	-10324
▁bolt	-10325
▁burg	-10326
▁dumb	-10327
▁holy	-10328
▁math	-10329
▁pace	-10330
▁pier	-10331
▁ramp	-10332
▁sock	-10333
▁sust	-10334
bourne	-10335
ifully	-10336
▁Maced	-10337
▁Sandy	-10338
▁Train	-10339
▁abuse	-10340
▁disgr	-10341
▁frost	-10342
▁multi	-10343
▁opera	-10344
▁overt	-10345
▁winds	-10346
fashion	-10347
inction	-10348
▁Amanda	-10349
▁Fourth	-10350
▁Knight	-10351
▁Murphy	-10352
▁Nettie	-10353
▁System	-10354
▁images	-10355
▁playin	-10356
▁titles	-10357
▁voyage	-10358
▁crayons	-10359
▁leaning	-10360
▁mounted	-10361
▁offices	-10362
▁tickets	-10363
▁worship	-10364
▁consists	-10365
▁instinct	-10366
▁Detective	-10367
▁materials	-10368
▁presenter	-10369
▁relatives	-10370
▁southeast	-10371
▁worldwide	-10372
▁Conference	-10373
▁conclusion	-10374
▁reputation	-10375
▁strawberry	-10376
▁entertainment	-10377
ORE	-10378
aph	-10379
dis	-10380
lad	-10381
lah	-10382
til	-10383
why	-10384
fare	-10385
hard	-10386
made	-10387
maid	-10388
otte	-10389
▁Ecu	-10390
▁Kap	-10391
▁Non	-10392
▁aft	-10393
▁bol	-10394
▁ger	-10395
▁kit	-10396
oslav	-10397
▁Tree	-10398
▁fain	-10399
▁fulf	-10400
▁heap	-10401
▁itís	-10402
▁kite	-10403
▁peak	-10404
▁rabb	-10405
▁soci	-10406
▁tack	-10407
▁Andre	-10408
▁Henri	-10409
▁Perse	-10410
▁Price	-10411
▁Storm	-10412
▁ambul	-10413
▁bloss	-10414
▁flesh	-10415
▁gorge	-10416
▁indic	-10417
▁procl	-10418
▁rides	-10419
▁shine	-10420
▁shops	-10421
▁steep	-10422
AUGHING	-10423
▁Around	-10424
▁Nation	-10425
▁Temple	-10426
▁Thirty	-10427
▁Unless	-10428
▁accent	-10429
▁dashed	-10430
▁nicely	-10431
▁nobles	-10432
▁popped	-10433
▁trucks	-10434
▁warned	-10435
▁widely	-10436
orkshire	-10437
▁Supreme	-10438
▁Whether	-10439
▁awkward	-10440
▁noodles	-10441
▁overall	-10442
▁sincere	-10443
▁torture	-10444
▁visible	-10445
▁warrior	-10446
whispered	-10447
▁Brothers	-10448
▁Courtney	-10449
▁believes	-10450
▁envelope	-10451
▁policies	-10452
▁proposal	-10453
▁punished	-10454
▁literally	-10455
▁permanent	-10456
▁slightest	-10457
▁Bangladesh	-10458
▁Cinderella	-10459
▁controvers	-10460
▁acquaintance	-10461
";	-10462
NT	-10463
Jan	-10464
VID	-10465
squ	-10466
uzz	-10467
via	-10468
▁ID	-10469
▁Il	-10470
bage	-10471
cile	-10472
lier	-10473
olph	-10474
otto	-10475
▁Las	-10476
▁hed	-10477
class	-10478
issed	-10479
▁Bamb	-10480
▁Belg	-10481
▁Burn	-10482
▁Exec	-10483
▁Lank	-10484
▁Real	-10485
▁clam	-10486
▁merc	-10487
▁sofa	-10488
hammad	-10489
idding	-10490
rolled	-10491
▁Aggie	-10492
▁Spart	-10493
▁adopt	-10494
▁essay	-10495
▁grows	-10496
▁items	-10497
▁needn	-10498
▁nerve	-10499
▁vault	-10500
▁Forces	-10501
▁Ladies	-10502
▁Rhodes	-10503
▁seldom	-10504
▁snakes	-10505
▁tickle	-10506
▁Chester	-10507
▁Ecuador	-10508
▁crowded	-10509
▁gravely	-10510
▁opposed	-10511
▁priests	-10512
▁theater	-10513
olleyball	-10514
▁accounts	-10515
▁episodes	-10516
▁forehead	-10517
▁peaceful	-10518
▁Yorkshire	-10519
▁decisions	-10520
▁preparing	-10521
▁suspended	-10522
▁wrestling	-10523
▁accustomed	-10524
▁colleagues	-10525
▁supporting	-10526
▁tremendous	-10527
▁intelligent	-10528
'!	-10529
UD	-10530
UG	-10531
Hey	-10532
OTH	-10533
bro	-10534
iga	-10535
iti	-10536
psy	-10537
Tell	-10538
achi	-10539
aska	-10540
pert	-10541
▁Lil	-10542
▁Lip	-10543
▁cod	-10544
▁doo	-10545
▁maj	-10546
ighty	-10547
▁Clar	-10548
▁Matt	-10549
▁cust	-10550
▁slop	-10551
papers	-10552
rester	-10553
▁Front	-10554
▁bills	-10555
▁broom	-10556
▁sites	-10557
▁whoop	-10558
▁wrath	-10559
success	-10560
▁Dakota	-10561
▁bishop	-10562
▁decent	-10563
▁depend	-10564
▁errand	-10565
▁mental	-10566
▁rapper	-10567
▁sighed	-10568
pretends	-10569
▁battles	-10570
▁borders	-10571
▁critics	-10572
▁joining	-10573
▁privile	-10574
▁raising	-10575
▁seeking	-10576
▁articles	-10577
▁churches	-10578
▁comments	-10579
▁guardian	-10580
▁hopeless	-10581
▁invented	-10582
▁mischief	-10583
▁provides	-10584
▁Commander	-10585
▁amusement	-10586
▁fantastic	-10587
▁finishing	-10588
▁residents	-10589
▁encouraged	-10590
▁advertising	-10591
▁complicated	-10592
▁necessarily	-10593
▁Constitution	-10594
asi	-10595
pol	-10596
▁Hö	-10597
▁Si	-10598
▁ga	-10599
ioca	-10600
ista	-10601
▁Cro	-10602
▁Ern	-10603
▁Lor	-10604
▁Shh	-10605
▁fab	-10606
andal	-10607
stick	-10608
▁Andr	-10609
▁bade	-10610
▁brid	-10611
▁ease	-10612
estion	-10613
itable	-10614
▁Barry	-10615
▁Close	-10616
▁Costa	-10617
▁Media	-10618
▁clips	-10619
▁horiz	-10620
▁jewel	-10621
▁solve	-10622
▁twins	-10623
achelor	-10624
putting	-10625
▁Invest	-10626
▁RANGER	-10627
▁Roland	-10628
▁counts	-10629
▁hollow	-10630
▁inches	-10631
▁scenes	-10632
▁Mallory	-10633
▁Protest	-10634
▁massive	-10635
▁printed	-10636
▁utterly	-10637
▁Internet	-10638
▁crackers	-10639
▁honestly	-10640
▁improved	-10641
▁merchant	-10642
▁operated	-10643
▁vehicles	-10644
▁Forrester	-10645
▁interpret	-10646
▁principle	-10647
▁atmosphere	-10648
▁businesses	-10649
▁anniversary	-10650
▁concentration	-10651
NK	-10652
mal	-10653
pot	-10654
rik	-10655
six	-10656
xed	-10657
****	-10658
USIC	-10659
icon	-10660
mund	-10661
neum	-10662
onym	-10663
▁Mis	-10664
▁Sic	-10665
▁dum	-10666
based	-10667
draws	-10668
drops	-10669
rants	-10670
rican	-10671
▁Dead	-10672
▁Tenn	-10673
▁WELL	-10674
▁bunk	-10675
▁bush	-10676
▁dwar	-10677
▁flow	-10678
▁fuel	-10679
▁hire	-10680
▁lest	-10681
▁morn	-10682
▁sank	-10683
▁silk	-10684
▁tool	-10685
INGING	-10686
brings	-10687
formed	-10688
speaks	-10689
▁Gates	-10690
▁Momma	-10691
▁Nepal	-10692
▁Press	-10693
▁Riley	-10694
▁blows	-10695
▁endea	-10696
▁immig	-10697
▁souls	-10698
▁toler	-10699
▁twist	-10700
▁umhum	-10701
▁Minnie	-10702
▁Number	-10703
▁Popeye	-10704
▁astron	-10705
▁drives	-10706
▁robber	-10707
▁thread	-10708
▁unique	-10709
▁Commons	-10710
▁Olympic	-10711
▁fathers	-10712
▁lighted	-10713
▁painter	-10714
▁proport	-10715
▁strings	-10716
▁tapioca	-10717
struction	-10718
▁alliance	-10719
▁behavior	-10720
▁educated	-10721
▁engineer	-10722
▁informed	-10723
▁invasion	-10724
▁referred	-10725
▁Spaniards	-10726
▁abandoned	-10727
▁architect	-10728
▁computers	-10729
▁conquered	-10730
▁contained	-10731
▁providing	-10732
▁Manchester	-10733
▁additional	-10734
▁controlled	-10735
▁personally	-10736
▁transferred	-10737
rr	-10738
ARY	-10739
hah	-10740
▁Ll	-10741
cked	-10742
load	-10743
mill	-10744
race	-10745
▁Bir	-10746
▁GOT	-10747
▁Ker	-10748
▁WHI	-10749
aurus	-10750
aying	-10751
lause	-10752
omers	-10753
orses	-10754
posed	-10755
ungle	-10756
▁Boss	-10757
▁Full	-10758
▁bisc	-10759
▁dram	-10760
▁tort	-10761
called	-10762
change	-10763
▁Adams	-10764
▁Chile	-10765
▁Fairy	-10766
▁Hotel	-10767
▁Julie	-10768
▁Larry	-10769
▁argue	-10770
▁corre	-10771
▁deeds	-10772
▁draft	-10773
▁dried	-10774
▁landl	-10775
▁moral	-10776
▁pengu	-10777
▁roast	-10778
▁tones	-10779
REAMING	-10780
▁Leader	-10781
▁Marion	-10782
▁Member	-10783
▁Trevor	-10784
▁finest	-10785
▁sample	-10786
▁scramb	-10787
▁Denmark	-10788
▁battery	-10789
▁descent	-10790
▁fencing	-10791
▁monkeys	-10792
▁plainly	-10793
▁precise	-10794
▁selfish	-10795
something	-10796
▁domestic	-10797
▁employed	-10798
▁inclined	-10799
▁nickname	-10800
▁patience	-10801
▁reaching	-10802
▁universe	-10803
▁Venezuela	-10804
▁attracted	-10805
▁descended	-10806
▁determine	-10807
▁discussed	-10808
▁Apparently	-10809
▁newspapers	-10810
▁yourselves	-10811
▁Westminster	-10812
▁association	-10813
▁experienced	-10814
▁imagination	-10815
▁constitution	-10816
▁difficulties	-10817
CD	-10818
Pl	-10819
Wh	-10820
je	-10821
occ	-10822
tra	-10823
▁BC	-10824
▁MO	-10825
OMAN	-10826
PEAK	-10827
bits	-10828
edar	-10829
ezes	-10830
leen	-10831
osis	-10832
otes	-10833
pack	-10834
said	-10835
yawn	-10836
▁Ath	-10837
▁Gen	-10838
▁ped	-10839
after	-10840
bound	-10841
geons	-10842
ilton	-10843
itage	-10844
state	-10845
uated	-10846
▁Amaz	-10847
▁Base	-10848
▁Opal	-10849
▁Whit	-10850
▁bean	-10851
▁coco	-10852
▁dart	-10853
▁gigg	-10854
▁junk	-10855
▁knot	-10856
▁muff	-10857
▁tide	-10858
▁tube	-10859
pushes	-10860
ricate	-10861
▁Mario	-10862
▁Norwe	-10863
▁Patty	-10864
▁advoc	-10865
▁disab	-10866
▁etern	-10867
▁humor	-10868
▁initi	-10869
▁lords	-10870
▁Nelson	-10871
▁Pretty	-10872
▁Walker	-10873
▁Winter	-10874
▁adults	-10875
▁assure	-10876
▁frozen	-10877
▁junior	-10878
▁tables	-10879
▁videos	-10880
▁volcan	-10881
▁Friends	-10882
▁confirm	-10883
▁lateral	-10884
▁reduced	-10885
▁shaving	-10886
▁Colorado	-10887
▁Ministry	-10888
▁Sergeant	-10889
▁Services	-10890
▁elevator	-10891
▁festival	-10892
▁floating	-10893
▁homework	-10894
▁software	-10895
▁squirrel	-10896
▁superior	-10897
▁Valentine	-10898
▁amazement	-10899
▁customers	-10900
▁reflected	-10901
▁celebrated	-10902
▁mysterious	-10903
▁operations	-10904
▁philosophy	-10905
▁communities	-10906
▁philosopher	-10907
Ex	-10908
▁AL	-10909
▁Eb	-10910
give	-10911
have	-10912
ieth	-10913
irdr	-10914
kers	-10915
onto	-10916
resa	-10917
wall	-10918
▁Bub	-10919
▁Jed	-10920
▁Lyn	-10921
▁Nov	-10922
▁Rex	-10923
▁Tun	-10924
▁Via	-10925
▁apt	-10926
▁lin	-10927
▁lun	-10928
▁mim	-10929
ERING	-10930
bling	-10931
inton	-10932
shows	-10933
three	-10934
▁Lang	-10935
▁Mind	-10936
▁Pied	-10937
employ	-10938
magnet	-10939
utiful	-10940
▁Board	-10941
▁Cissy	-10942
▁Heart	-10943
▁Kings	-10944
▁Manor	-10945
▁Short	-10946
▁Stark	-10947
▁Upper	-10948
▁apply	-10949
▁cloak	-10950
▁curls	-10951
▁entry	-10952
▁films	-10953
▁hesit	-10954
▁shill	-10955
▁snack	-10956
▁vocal	-10957
include	-10958
▁Athens	-10959
▁Bright	-10960
▁Enough	-10961
▁Führer	-10962
▁Guards	-10963
▁adding	-10964
▁eighth	-10965
▁humble	-10966
▁nurses	-10967
▁proced	-10968
▁ruling	-10969
▁sculpt	-10970
▁therap	-10971
▁Orleans	-10972
▁bubbles	-10973
▁clients	-10974
▁exposed	-10975
▁focused	-10976
▁hurting	-10977
▁pouring	-10978
▁sailors	-10979
▁tractor	-10980
fashioned	-10981
▁Business	-10982
▁Clarence	-10983
▁absolute	-10984
▁delivery	-10985
▁deserved	-10986
▁murmured	-10987
▁projects	-10988
▁attempted	-10989
▁districts	-10990
▁estimated	-10991
▁intellect	-10992
▁positions	-10993
▁suspected	-10994
▁correspond	-10995
▁struggling	-10996
▁suggestion	-10997
▁Development	-10998
▁experiences	-10999
BA	-11000
BO	-11001
Cl	-11002
New	-11003
ORY	-11004
elf	-11005
sun	-11006
too	-11007
ubs	-11008
▁HO	-11009
▁Ni	-11010
asks	-11011
bons	-11012
corn	-11013
imer	-11014
rous	-11015
uate	-11016
uese	-11017
▁CAR	-11018
▁Cre	-11019
▁FBI	-11020
▁Imm	-11021
▁Kids	-11022
▁Stal	-11023
▁yuck	-11024
▁THINK	-11025
▁bench	-11026
▁brass	-11027
▁brick	-11028
▁click	-11029
▁comed	-11030
▁deleg	-11031
▁Batman	-11032
▁Portia	-11033
▁Sydney	-11034
▁anchor	-11035
▁breach	-11036
▁bushes	-11037
▁deadly	-11038
▁flames	-11039
▁heroes	-11040
▁owners	-11041
▁pushes	-11042
▁resear	-11043
▁serves	-11044
▁sheets	-11045
▁smells	-11046
▁tissue	-11047
entially	-11048
▁Kristen	-11049
▁Neither	-11050
▁earthqu	-11051
▁furious	-11052
▁methods	-11053
▁puzzles	-11054
▁shocked	-11055
▁singles	-11056
▁spilled	-11057
▁uniform	-11058
umberland	-11059
▁achieved	-11060
▁basement	-11061
▁contrast	-11062
▁cultural	-11063
▁entitled	-11064
▁literary	-11065
▁visiting	-11066
▁Community	-11067
▁lightning	-11068
▁suspicion	-11069
▁songwriter	-11070
▁consideration	-11071
AW	-11072
MS	-11073
Re	-11074
ès	-11075
▁É	-11076
ERY	-11077
OUG	-11078
PAU	-11079
Sec	-11080
bal	-11081
hai	-11082
him	-11083
▁op	-11084
With	-11085
acre	-11086
icop	-11087
oshi	-11088
oths	-11089
yers	-11090
zona	-11091
▁Ark	-11092
▁Bul	-11093
▁CHR	-11094
▁Leb	-11095
▁Ped	-11096
▁Rab	-11097
▁Rah	-11098
▁Seb	-11099
First	-11100
illed	-11101
irdrê	-11102
lleng	-11103
tical	-11104
▁Abra	-11105
▁beef	-11106
▁inch	-11107
▁mole	-11108
▁soot	-11109
▁stim	-11110
Father	-11111
Please	-11112
iddles	-11113
▁Going	-11114
▁Judge	-11115
▁Pratt	-11116
▁accur	-11117
▁aired	-11118
▁blown	-11119
▁prote	-11120
▁rival	-11121
▁skirt	-11122
▁tails	-11123
▁tapes	-11124
▁wrist	-11125
▁absurd	-11126
▁denied	-11127
▁eldest	-11128
▁ethnic	-11129
▁integr	-11130
▁listed	-11131
▁passes	-11132
▁pirate	-11133
▁pupils	-11134
▁refuge	-11135
▁shares	-11136
▁strate	-11137
▁tested	-11138
▁Bradley	-11139
▁Illustr	-11140
▁Several	-11141
▁concept	-11142
▁drowned	-11143
▁guessed	-11144
▁kilomet	-11145
▁miracle	-11146
▁painful	-11147
▁planets	-11148
▁rabbits	-11149
▁McDonald	-11150
▁Research	-11151
▁Victoria	-11152
▁apparent	-11153
▁distract	-11154
▁featured	-11155
▁historic	-11156
▁Halloween	-11157
▁Norwegian	-11158
▁abilities	-11159
▁leadership	-11160
▁protecting	-11161
▁documentary	-11162
▁magnificent	-11163
▁personality	-11164
▁astonishment	-11165
▁instructions	-11166
):	-11167
ME	-11168
--_	-11169
ISS	-11170
OUS	-11171
aco	-11172
aga	-11173
iva	-11174
yon	-11175
▁Ky	-11176
▁SP	-11177
Only	-11178
colm	-11179
helm	-11180
mans	-11181
quet	-11182
rary	-11183
▁Aus	-11184
▁PRO	-11185
▁Ren	-11186
▁gri	-11187
▁lid	-11188
▁moo	-11189
▁tin	-11190
Never	-11191
chers	-11192
every	-11193
illes	-11194
lines	-11195
oleon	-11196
utter	-11197
verty	-11198
▁Cape	-11199
▁Lind	-11200
▁Peru	-11201
▁Tall	-11202
▁bugs	-11203
▁rein	-11204
▁rhin	-11205
▁shan	-11206
forest	-11207
▁THANK	-11208
▁agric	-11209
▁gover	-11210
▁locks	-11211
▁newly	-11212
▁shave	-11213
▁shift	-11214
▁sweep	-11215
ressing	-11216
▁Carlos	-11217
▁Rights	-11218
▁Series	-11219
▁admire	-11220
▁assemb	-11221
▁offers	-11222
▁praise	-11223
▁rained	-11224
▁ranked	-11225
pleasant	-11226
▁Affairs	-11227
▁Belgium	-11228
▁Deirdrê	-11229
▁Finland	-11230
▁Frances	-11231
▁angrily	-11232
▁citizen	-11233
▁honored	-11234
▁poverty	-11235
▁writers	-11236
▁Chairman	-11237
▁blankets	-11238
▁headache	-11239
▁heartily	-11240
▁overcome	-11241
▁strategy	-11242
▁weakness	-11243
▁ambulance	-11244
▁documents	-11245
▁landscape	-11246
▁employment	-11247
▁questioned	-11248
▁alternative	-11249
▁individuals	-11250
▁organizations	-11251
▁administrative	-11252
MP	-11253
Ro	-11254
IES	-11255
REE	-11256
chw	-11257
eem	-11258
eez	-11259
hop	-11260
▁lt	-11261
boys	-11262
grow	-11263
hunh	-11264
pron	-11265
rong	-11266
uces	-11267
ulus	-11268
vals	-11269
whim	-11270
▁Alb	-11271
▁Fun	-11272
▁Gus	-11273
▁Mos	-11274
▁SEE	-11275
▁TAL	-11276
▁bom	-11277
▁oak	-11278
could	-11279
▁Coss	-11280
▁Days	-11281
▁Dick	-11282
▁chip	-11283
▁dies	-11284
▁gaze	-11285
▁rehe	-11286
▁yawn	-11287
cellor	-11288
indeer	-11289
minist	-11290
nother	-11291
orrect	-11292
ortion	-11293
verted	-11294
▁COVID	-11295
▁Dance	-11296
▁Final	-11297
▁Liver	-11298
▁Nicky	-11299
▁Weeks	-11300
▁naked	-11301
▁ranks	-11302
▁renew	-11303
▁roots	-11304
▁sniff	-11305
▁spank	-11306
▁yacht	-11307
▁Cherry	-11308
▁collap	-11309
▁dancer	-11310
▁phones	-11311
▁tomato	-11312
▁voting	-11313
▁existed	-11314
▁explore	-11315
▁happier	-11316
▁sharply	-11317
▁Highland	-11318
▁contempt	-11319
▁extended	-11320
▁gorgeous	-11321
▁murderer	-11322
▁resigned	-11323
▁schedule	-11324
▁possessed	-11325
▁councillor	-11326
▁generation	-11327
▁investment	-11328
▁travelling	-11329
▁Conservative	-11330
WA	-11331
AID	-11332
CLI	-11333
Her	-11334
orp	-11335
▁AF	-11336
▁PH	-11337
▁TR	-11338
ayed	-11339
bian	-11340
etto	-11341
olve	-11342
shot	-11343
udes	-11344
▁Dew	-11345
▁McG	-11346
▁Nam	-11347
▁Tai	-11348
▁Toy	-11349
▁upd	-11350
▁von	-11351
acter	-11352
onent	-11353
yells	-11354
▁Hell	-11355
▁Iron	-11356
▁Lily	-11357
▁Nope	-11358
▁Till	-11359
▁Zeus	-11360
▁cycl	-11361
▁deaf	-11362
▁deed	-11363
▁grav	-11364
▁loan	-11365
▁ment	-11366
▁prev	-11367
▁rosy	-11368
▁sexy	-11369
August	-11370
lahoma	-11371
▁Alber	-11372
▁Homer	-11373
▁Kathy	-11374
▁awoke	-11375
▁brace	-11376
▁farms	-11377
▁flame	-11378
▁twink	-11379
▁Bureau	-11380
▁Warner	-11381
▁carrot	-11382
▁condem	-11383
▁coward	-11384
▁destro	-11385
▁hither	-11386
▁smiles	-11387
▁termin	-11388
▁violin	-11389
hibition	-11390
▁cartoon	-11391
▁conquer	-11392
▁fairies	-11393
▁harbour	-11394
▁resting	-11395
▁traitor	-11396
▁trusted	-11397
▁upright	-11398
▁Marshall	-11399
▁Napoleon	-11400
▁approved	-11401
▁restored	-11402
▁scholars	-11403
▁terrific	-11404
songwriter	-11405
▁Communist	-11406
▁Entertain	-11407
▁concluded	-11408
▁hamburger	-11409
▁immediate	-11410
▁musicians	-11411
▁assistance	-11412
▁resolution	-11413
▁combination	-11414
▁differently	-11415
FT	-11416
TO	-11417
Nay	-11418
nor	-11419
ori	-11420
▁Ki	-11421
▁mi	-11422
▁ny	-11423
omon	-11424
word	-11425
▁(),	-11426
▁Fel	-11427
▁Sax	-11428
▁Sem	-11429
▁USA	-11430
▁WHY	-11431
▁gym	-11432
onies	-11433
▁Gros	-11434
▁WILL	-11435
▁coin	-11436
▁fury	-11437
▁mamm	-11438
▁narr	-11439
▁tact	-11440
omeday	-11441
▁Allen	-11442
▁Creat	-11443
▁Darth	-11444
▁Songs	-11445
▁Tamil	-11446
▁comic	-11447
▁flock	-11448
▁inval	-11449
▁pneum	-11450
because	-11451
sterdam	-11452
▁Kuwait	-11453
▁Warren	-11454
▁copper	-11455
▁firing	-11456
▁maiden	-11457
▁messed	-11458
▁misery	-11459
▁mortal	-11460
▁parcel	-11461
▁provin	-11462
▁shapes	-11463
▁summon	-11464
▁unfair	-11465
atically	-11466
ifferent	-11467
▁Climate	-11468
▁Command	-11469
▁Malcolm	-11470
▁Manager	-11471
▁Romania	-11472
▁cancell	-11473
▁ceiling	-11474
▁chances	-11475
▁counted	-11476
▁describ	-11477
▁emperor	-11478
▁fighter	-11479
▁helpful	-11480
▁peasant	-11481
▁physics	-11482
▁rushing	-11483
▁wasting	-11484
▁Piedmont	-11485
▁coloring	-11486
▁contrary	-11487
▁entering	-11488
▁internal	-11489
▁pancakes	-11490
▁passport	-11491
▁shepherd	-11492
▁swinging	-11493
▁Amsterdam	-11494
▁Hollywood	-11495
▁earnestly	-11496
▁invisible	-11497
▁northwest	-11498
▁promotion	-11499
▁regarding	-11500
▁Portuguese	-11501
▁unpleasant	-11502
▁unfortunately	-11503
UP	-11504
eh	-11505
COS	-11506
SIG	-11507
imi	-11508
▁Ju	-11509
▁ew	-11510
Okay	-11511
anya	-11512
ivor	-11513
mind	-11514
oped	-11515
pple	-11516
▁BOY	-11517
▁Fal	-11518
▁goo	-11519
OTHER	-11520
acles	-11521
apsed	-11522
smith	-11523
vable	-11524
▁CONT	-11525
▁Erin	-11526
▁Kenn	-11527
▁Made	-11528
▁Phys	-11529
▁Rand	-11530
▁Salv	-11531
▁Sara	-11532
▁Send	-11533
▁Zach	-11534
▁amen	-11535
▁babe	-11536
▁cure	-11537
▁rand	-11538
erving	-11539
ithuan	-11540
phones	-11541
stands	-11542
▁Aaron	-11543
▁Fleet	-11544
▁Loire	-11545
▁Lower	-11546
▁Money	-11547
▁Nancy	-11548
▁Shane	-11549
▁Teddy	-11550
▁Vegas	-11551
▁beads	-11552
▁bites	-11553
▁crust	-11554
▁erase	-11555
▁hears	-11556
▁inaug	-11557
▁lions	-11558
▁messy	-11559
▁plung	-11560
▁shots	-11561
amental	-11562
endment	-11563
▁Arabic	-11564
▁Newton	-11565
▁Treaty	-11566
▁extrem	-11567
▁french	-11568
▁notion	-11569
▁versus	-11570
▁walkie	-11571
▁Mariana	-11572
▁desired	-11573
▁fantasy	-11574
▁highway	-11575
▁lifting	-11576
formation	-11577
▁Oklahoma	-11578
▁congress	-11579
▁designer	-11580
▁opportun	-11581
▁restrict	-11582
▁sidewalk	-11583
▁versions	-11584
▁Chagmouth	-11585
▁Clavering	-11586
fortunately	-11587
onlyinclude	-11588
▁suspicious	-11589
▁consequence	-11590
ér	-11591
See	-11592
kee	-11593
vas	-11594
▁Kn	-11595
▁ay	-11596
anim	-11597
fits	-11598
gage	-11599
iary	-11600
iden	-11601
liga	-11602
onom	-11603
oopy	-11604
rots	-11605
▁Ale	-11606
▁BAB	-11607
▁Cra	-11608
▁Lis	-11609
▁OFF	-11610
▁Ott	-11611
▁Sid	-11612
▁Tan	-11613
▁cel	-11614
▁fir	-11615
▁fog	-11616
▁oop	-11617
▁ssh	-11618
ector	-11619
etime	-11620
fight	-11621
oenix	-11622
▁Buck	-11623
▁Cole	-11624
▁Dude	-11625
▁Live	-11626
▁Reid	-11627
▁Wang	-11628
▁tatt	-11629
▁whim	-11630
ishops	-11631
stance	-11632
wiches	-11633
▁Catal	-11634
▁Coast	-11635
▁Jamie	-11636
▁Tracy	-11637
▁Works	-11638
▁Years	-11639
▁Youth	-11640
▁appet	-11641
▁aspir	-11642
▁ideal	-11643
▁nicer	-11644
▁overw	-11645
▁panic	-11646
▁paras	-11647
▁suits	-11648
Because	-11649
▁Austin	-11650
▁Claire	-11651
▁Origin	-11652
▁Prison	-11653
▁Sebast	-11654
▁Walton	-11655
▁amazed	-11656
▁beheld	-11657
▁empire	-11658
▁endeav	-11659
▁fisher	-11660
▁folded	-11661
▁medium	-11662
▁reader	-11663
▁reduce	-11664
▁spaces	-11665
▁utmost	-11666
▁Arizona	-11667
▁Tonight	-11668
▁blessed	-11669
▁referee	-11670
▁treason	-11671
▁Andrewes	-11672
▁challeng	-11673
▁formerly	-11674
▁meantime	-11675
▁meetings	-11676
▁purposes	-11677
▁tricycle	-11678
▁guarantee	-11679
▁hospitals	-11680
▁qualified	-11681
▁sentiment	-11682
▁valentine	-11683
▁wandering	-11684
▁Pittsburgh	-11685
▁identified	-11686
▁laughingly	-11687
▁lieutenant	-11688
▁appearances	-11689
Ay	-11690
NO	-11691
”.	-11692
"--	-11693
USE	-11694
sne	-11695
sor	-11696
uba	-11697
▁FL	-11698
▁GU	-11699
▁LE	-11700
▁Ul	-11701
bbie	-11702
cery	-11703
roqu	-11704
star	-11705
zzie	-11706
▁Ain	-11707
▁Cru	-11708
▁fet	-11709
▁ski	-11710
▁tha	-11711
▁wal	-11712
▁woo	-11713
Every	-11714
adelp	-11715
apore	-11716
arten	-11717
graph	-11718
orton	-11719
ruits	-11720
venth	-11721
▁BACK	-11722
▁Beth	-11723
▁Boys	-11724
▁Edge	-11725
▁Mess	-11726
▁Room	-11727
▁SOME	-11728
▁Tren	-11729
▁foss	-11730
▁lads	-11731
▁lays	-11732
▁mast	-11733
▁mike	-11734
▁recy	-11735
▁roar	-11736
▁tadp	-11737
▁tomb	-11738
▁wool	-11739
▁Amaru	-11740
▁Bones	-11741
▁Haven	-11742
▁Kenny	-11743
▁Lanka	-11744
▁Natal	-11745
▁Pelle	-11746
▁glove	-11747
▁graph	-11748
▁lungs	-11749
▁madam	-11750
▁vowel	-11751
Perhaps	-11752
ouncing	-11753
ruption	-11754
▁Anyone	-11755
▁Gentle	-11756
▁Munich	-11757
▁Nature	-11758
▁Sports	-11759
▁abrupt	-11760
▁bewild	-11761
▁campus	-11762
▁chorus	-11763
▁compre	-11764
▁deputy	-11765
▁endure	-11766
▁knocks	-11767
▁waving	-11768
▁wisdom	-11769
▁yelled	-11770
intellig	-11771
▁Finnish	-11772
▁Officer	-11773
▁Parkman	-11774
▁anticip	-11775
▁bathtub	-11776
▁courses	-11777
▁custody	-11778
▁declare	-11779
▁dynasty	-11780
▁planted	-11781
▁strateg	-11782
▁Colombia	-11783
▁blessing	-11784
▁secretly	-11785
▁starving	-11786
▁wretched	-11787
▁Liverpool	-11788
▁Mountains	-11789
▁caterpill	-11790
▁diagnosed	-11791
▁perceived	-11792
▁sovereign	-11793
▁admiration	-11794
▁arrangement	-11795
▁description	-11796
▁occasionally	-11797
▁representing	-11798
▁Entertainment	-11799
Or	-11800
VD	-11801
AYS	-11802
gum	-11803
nin	-11804
▁Ew	-11805
▁Kr	-11806
▁SW	-11807
alus	-11808
anth	-11809
card	-11810
erek	-11811
▁Dom	-11812
▁Lin	-11813
▁MAY	-11814
▁Ric	-11815
▁Tot	-11816
▁bib	-11817
▁dug	-11818
▁yog	-11819
Hello	-11820
emois	-11821
oning	-11822
▁Bald	-11823
▁Hero	-11824
▁Höss	-11825
▁Whoo	-11826
▁clin	-11827
▁guid	-11828
▁rebu	-11829
▁rows	-11830
▁ruff	-11831
▁soil	-11832
▁whip	-11833
▁zone	-11834
veolar	-11835
▁Horse	-11836
▁Lloyd	-11837
▁Lucky	-11838
▁Staff	-11839
▁Tiger	-11840
▁alert	-11841
▁cycle	-11842
▁files	-11843
▁fount	-11844
▁funds	-11845
▁ninth	-11846
▁parad	-11847
▁scoot	-11848
▁skull	-11849
▁slain	-11850
▁splin	-11851
▁taxes	-11852
lemagne	-11853
ocation	-11854
someone	-11855
▁Ashley	-11856
▁Orange	-11857
▁Stuart	-11858
▁Wouldn	-11859
▁adjust	-11860
▁amused	-11861
▁chains	-11862
▁galaxy	-11863
▁gender	-11864
▁liquid	-11865
▁ripped	-11866
▁wasted	-11867
adelphia	-11868
▁Network	-11869
▁Section	-11870
▁Vietnam	-11871
▁assumed	-11872
▁bowling	-11873
▁emotion	-11874
▁fireman	-11875
▁laundry	-11876
▁trapped	-11877
▁univers	-11878
emoiselle	-11879
▁Columbus	-11880
▁Rosamond	-11881
▁Superman	-11882
▁restless	-11883
▁suitable	-11884
▁Ukrainian	-11885
▁unsuccess	-11886
▁discipline	-11887
▁imprisoned	-11888
▁sandwiches	-11889
▁educational	-11890
▁photographer	-11891
OK	-11892
cs	-11893
ía	-11894
?--	-11895
Con	-11896
iah	-11897
▁vs	-11898
PING	-11899
blue	-11900
dial	-11901
orld	-11902
▁Der	-11903
▁Low	-11904
▁Pun	-11905
▁Tob	-11906
▁avo	-11907
▁max	-11908
Marky	-11909
abama	-11910
adays	-11911
appro	-11912
helle	-11913
osure	-11914
rogen	-11915
table	-11916
▁CASE	-11917
▁Name	-11918
▁Neil	-11919
▁Ober	-11920
▁Owen	-11921
▁Poly	-11922
▁Same	-11923
▁Walt	-11924
▁diet	-11925
▁heir	-11926
▁owns	-11927
▁scan	-11928
cticut	-11929
parent	-11930
▁Cheer	-11931
▁Iroqu	-11932
▁bacon	-11933
▁bucks	-11934
▁buses	-11935
▁effic	-11936
▁meals	-11937
▁phase	-11938
▁surve	-11939
▁swung	-11940
▁urged	-11941
▁whiny	-11942
▁Avenue	-11943
▁Billie	-11944
▁Census	-11945
▁Farmer	-11946
▁Madrid	-11947
▁Miller	-11948
▁footst	-11949
▁gazing	-11950
▁global	-11951
▁hanged	-11952
▁legisl	-11953
▁preced	-11954
▁rattle	-11955
▁sponge	-11956
▁waking	-11957
speaking	-11958
▁Chamber	-11959
▁Holland	-11960
▁Iceland	-11961
▁Thunder	-11962
▁colonel	-11963
▁compass	-11964
▁involve	-11965
▁lawyers	-11966
▁rocking	-11967
▁secured	-11968
▁watches	-11969
▁Administ	-11970
▁advertis	-11971
▁bitterly	-11972
▁covering	-11973
▁insisted	-11974
▁slippers	-11975
▁steadily	-11976
▁Obviously	-11977
▁alligator	-11978
▁christmas	-11979
▁infection	-11980
▁interfere	-11981
▁occasions	-11982
▁paintings	-11983
▁reception	-11984
▁uncertain	-11985
▁nomination	-11986
▁Charlemagne	-11987
▁consequences	-11988
Gu	-11989
Se	-11990
lk	-11991
GPA	-11992
jud	-11993
mot	-11994
▁Az	-11995
▁[-	-11996
▁ba	-11997
asal	-11998
atus	-11999
both	-12000
eeds	-12001
esar	-12002
hana	-12003
iege	-12004
ivan	-12005
roid	-12006
town	-12007
▁Due	-12008
▁Kam	-12009
▁Pam	-12010
▁bin	-12011
▁kar	-12012
gleby	-12013
ifted	-12014
ileen	-12015
ortal	-12016
rived	-12017
ucked	-12018
would	-12019
▁Crim	-12020
▁Hail	-12021
▁Lass	-12022
▁airl	-12023
▁chir	-12024
▁clar	-12025
▁crab	-12026
▁plum	-12027
▁stub	-12028
agraph	-12029
amount	-12030
begins	-12031
erning	-12032
haired	-12033
ndered	-12034
▁Annie	-12035
▁Derek	-12036
▁Ernie	-12037
▁Jaime	-12038
▁Rhode	-12039
▁Scout	-12040
▁clerk	-12041
▁defin	-12042
▁mines	-12043
▁rider	-12044
▁sends	-12045
▁tents	-12046
henomen	-12047
▁Johann	-12048
▁Marvel	-12049
▁Scotch	-12050
▁bundle	-12051
▁ghosts	-12052
▁longed	-12053
▁parlor	-12054
▁united	-12055
children	-12056
▁Bucking	-12057
▁Heather	-12058
▁Ingleby	-12059
▁Medical	-12060
▁Perfect	-12061
▁carrots	-12062
▁context	-12063
▁disagre	-12064
▁dischar	-12065
▁entreat	-12066
▁insects	-12067
▁prosper	-12068
▁puppets	-12069
▁stadium	-12070
▁sweater	-12071
▁wrought	-12072
▁Campbell	-12073
▁Regional	-12074
▁combined	-12075
▁ignorant	-12076
▁stressed	-12077
▁Singapore	-12078
▁commenced	-12079
▁dedicated	-12080
▁disturbed	-12081
▁guitarist	-12082
▁historian	-12083
▁sincerely	-12084
▁membership	-12085
▁registered	-12086
▁investigate	-12087
▁questioning	-12088
▁announcement	-12089
▁Congratulations	-12090
DO	-12091
Je	-12092
▁£	-12093
OOL	-12094
Val	-12095
eda	-12096
eur	-12097
oca	-12098
pie	-12099
toy	-12100
vol	-12101
▁Gü	-12102
▁JE	-12103
▁ly	-12104
▁wo	-12105
ashi	-12106
dale	-12107
emet	-12108
emon	-12109
erto	-12110
idae	-12111
liad	-12112
nell	-12113
pany	-12114
rite	-12115
uros	-12116
▁Dec	-12117
▁Inn	-12118
▁Kon	-12119
▁Ore	-12120
▁Ple	-12121
▁mig	-12122
▁rav	-12123
▁tel	-12124
aleid	-12125
allas	-12126
attle	-12127
cules	-12128
hames	-12129
movie	-12130
prise	-12131
▁Bach	-12132
▁Beng	-12133
▁Clay	-12134
▁Cold	-12135
▁Jere	-12136
▁Kind	-12137
▁Pull	-12138
▁YouT	-12139
▁fict	-12140
▁mant	-12141
▁seed	-12142
iently	-12143
orship	-12144
ranean	-12145
▁Akari	-12146
▁Birth	-12147
▁Break	-12148
▁MUSIC	-12149
▁Patch	-12150
▁Rider	-12151
▁backs	-12152
▁boast	-12153
▁coins	-12154
▁disgu	-12155
▁donít	-12156
▁flows	-12157
▁rates	-12158
▁shaft	-12159
▁sober	-12160
▁yummy	-12161
berries	-12162
▁Justus	-12163
▁Madame	-12164
▁Rabbit	-12165
▁Season	-12166
▁awaken	-12167
▁beasts	-12168
▁hoarse	-12169
▁inject	-12170
▁intend	-12171
▁medals	-12172
▁portra	-12173
▁rounds	-12174
▁visits	-12175
▁wagons	-12176
▁Alabama	-12177
▁Picture	-12178
▁bending	-12179
▁compete	-12180
▁designs	-12181
▁engines	-12182
▁options	-12183
▁peanuts	-12184
▁pockets	-12185
▁testing	-12186
▁Sciences	-12187
▁growling	-12188
▁judgment	-12189
▁measures	-12190
▁popsicle	-12191
▁stocking	-12192
▁striking	-12193
▁supplies	-12194
▁telegram	-12195
▁Argentine	-12196
▁Charlotte	-12197
▁Socialist	-12198
▁effective	-12199
▁impatient	-12200
aleidoscope	-12201
▁Chancellor	-12202
▁confession	-12203
▁Connecticut	-12204
▁remembering	-12205
▁caterpillars	-12206
Me	-12207
oi	-12208
DIA	-12209
OWN	-12210
SAN	-12211
ded	-12212
kar	-12213
log	-12214
▁AM	-12215
OPLE	-12216
assy	-12217
bott	-12218
chae	-12219
gate	-12220
gger	-12221
inch	-12222
ipur	-12223
lete	-12224
uits	-12225
uman	-12226
▁Bed	-12227
▁CAM	-12228
▁Doc	-12229
▁Gon	-12230
▁Hog	-12231
▁Kay	-12232
▁Moo	-12233
▁Nag	-12234
▁Ori	-12235
▁Rio	-12236
▁YES	-12237
▁jar	-12238
▁rod	-12239
▁roo	-12240
▁sed	-12241
anton	-12242
antry	-12243
iques	-12244
organ	-12245
▁Easy	-12246
▁Fitz	-12247
▁Gene	-12248
▁Plus	-12249
▁Soph	-12250
▁Theo	-12251
▁Thou	-12252
▁Trib	-12253
▁curs	-12254
▁flip	-12255
▁pope	-12256
▁sear	-12257
▁solo	-12258
▁unre	-12259
UNTING	-12260
atched	-12261
ricane	-12262
ritten	-12263
udding	-12264
▁Bryce	-12265
▁Carlo	-12266
▁Casey	-12267
▁Eliza	-12268
▁Guess	-12269
▁Mikey	-12270
▁Perro	-12271
▁Turin	-12272
▁ashes	-12273
▁blade	-12274
▁creep	-12275
▁diary	-12276
▁irrit	-12277
▁plebe	-12278
▁repro	-12279
▁stare	-12280
▁thine	-12281
▁tutor	-12282
▁whale	-12283
▁wives	-12284
uctions	-12285
ugoslav	-12286
yelling	-12287
▁Contin	-12288
▁Debbie	-12289
▁Spider	-12290
▁column	-12291
▁fights	-12292
▁jewels	-12293
▁modest	-12294
▁option	-12295
▁shaped	-12296
▁values	-12297
December	-12298
▁Goodbye	-12299
▁Madison	-12300
▁Mediter	-12301
▁Perseus	-12302
▁Project	-12303
▁Wilhelm	-12304
▁appoint	-12305
▁doorway	-12306
▁grabbed	-12307
▁helicop	-12308
▁marvell	-12309
▁spoiled	-12310
▁Caroline	-12311
▁allowing	-12312
▁boundary	-12313
▁capacity	-12314
▁counties	-12315
▁explains	-12316
▁humanity	-12317
▁reindeer	-12318
▁Authority	-12319
▁affricate	-12320
▁belonging	-12321
▁gratitude	-12322
▁Background	-12323
▁publishing	-12324
▁engineering	-12325
▁surrounding	-12326
▁Mediterranean	-12327
▁Unfortunately	-12328
▁distinguished	-12329
▁establishment	-12330
▁opportunities	-12331
El	-12332
Gy	-12333
du	-12334
po	-12335
ür	-12336
AEW	-12337
Ben	-12338
UND	-12339
bag	-12340
tis	-12341
tit	-12342
Nord	-12343
Poor	-12344
aboo	-12345
feld	-12346
folk	-12347
▁CEO	-12348
▁Pow	-12349
▁SCH	-12350
▁Vic	-12351
▁Yas	-12352
▁cob	-12353
▁jet	-12354
▁los	-12355
▁raz	-12356
▁sho	-12357
▁sty	-12358
March	-12359
never	-12360
outed	-12361
pling	-12362
ramid	-12363
video	-12364
▁Glou	-12365
▁Hugh	-12366
▁Lanc	-12367
▁Past	-12368
▁Plat	-12369
▁Save	-12370
▁Suzu	-12371
▁Wien	-12372
▁bury	-12373
▁clue	-12374
▁dang	-12375
▁fals	-12376
▁fert	-12377
▁meow	-12378
▁poem	-12379
▁porn	-12380
▁sack	-12381
castle	-12382
chwitz	-12383
cribed	-12384
person	-12385
talkie	-12386
▁Alban	-12387
▁Fanny	-12388
▁Gabri	-12389
▁Jesse	-12390
▁Leban	-12391
▁Oscar	-12392
▁Phill	-12393
▁Syria	-12394
▁WOMAN	-12395
▁alleg	-12396
▁codes	-12397
▁spear	-12398
▁tonic	-12399
emetery	-12400
icative	-12401
igation	-12402
quisite	-12403
sneezes	-12404
ulating	-12405
▁Reagan	-12406
▁accord	-12407
▁behold	-12408
▁cellar	-12409
▁fixing	-12410
▁formal	-12411
▁humour	-12412
▁nerves	-12413
▁salary	-12414
▁Indiana	-12415
▁carries	-12416
▁clasped	-12417
▁cleaner	-12418
▁cunning	-12419
▁exagger	-12420
▁gardens	-12421
▁rehears	-12422
▁remarks	-12423
▁villain	-12424
▁bleeding	-12425
▁curtains	-12426
▁disgrace	-12427
▁junction	-12428
▁monsieur	-12429
▁severely	-12430
▁substant	-12431
▁warriors	-12432
▁Inspector	-12433
▁Political	-12434
▁departure	-12435
▁exhausted	-12436
▁objection	-12437
▁preferred	-12438
▁publisher	-12439
▁spiritual	-12440
▁suggesting	-12441
vocalization	-12442
▁differences	-12443
▁specifically	-12444
;&	-12445
APP	-12446
ARK	-12447
IME	-12448
IVE	-12449
iki	-12450
íre	-12451
agen	-12452
anie	-12453
hero	-12454
inum	-12455
itis	-12456
list	-12457
opol	-12458
otic	-12459
roit	-12460
▁Cow	-12461
▁Dig	-12462
▁Nad	-12463
▁Sor	-12464
▁Web	-12465
▁ank	-12466
▁cul	-12467
▁sew	-12468
▁tum	-12469
▁via	-12470
April	-12471
apped	-12472
ccoli	-12473
maker	-12474
quiry	-12475
uting	-12476
▁Chin	-12477
▁Dani	-12478
▁Left	-12479
▁Near	-12480
▁Pick	-12481
▁Prov	-12482
▁Said	-12483
▁Test	-12484
▁VERY	-12485
▁acid	-12486
▁bust	-12487
▁cush	-12488
▁grim	-12489
▁hamm	-12490
▁lean	-12491
▁prey	-12492
▁trim	-12493
Second	-12494
ensity	-12495
writes	-12496
▁assum	-12497
▁bowed	-12498
▁canal	-12499
▁frown	-12500
▁hatch	-12501
▁rhyth	-12502
▁snowy	-12503
▁tusks	-12504
▁wears	-12505
inished	-12506
lington	-12507
natural	-12508
▁Caesar	-12509
▁Tennes	-12510
▁Thames	-12511
▁boiled	-12512
▁colony	-12513
▁daring	-12514
▁infect	-12515
▁presum	-12516
▁serial	-12517
daughter	-12518
▁Abraham	-12519
▁bidding	-12520
▁bullets	-12521
▁compens	-12522
▁cracked	-12523
▁crushed	-12524
▁dispute	-12525
▁pencils	-12526
▁proudly	-12527
▁raisins	-12528
▁spelled	-12529
▁volumes	-12530
▁Atlantis	-12531
▁Robinson	-12532
▁Trenwith	-12533
▁applause	-12534
▁contents	-12535
▁examples	-12536
▁indicate	-12537
▁magician	-12538
▁Otherwise	-12539
▁Seriously	-12540
▁Transport	-12541
▁cigarette	-12542
▁exception	-12543
▁gathering	-12544
▁initially	-12545
▁satellite	-12546
▁signature	-12547
▁successor	-12548
▁surrender	-12549
▁technical	-12550
▁containing	-12551
▁indigenous	-12552
▁observation	-12553
▁Philadelphia	-12554
▁successfully	-12555
AV	-12556
CI	-12557
▁`	-12558
afa	-12559
bai	-12560
chi	-12561
cia	-12562
cod	-12563
hou	-12564
thr	-12565
zar	-12566
▁BL	-12567
▁Ji	-12568
Poss	-12569
Take	-12570
ampa	-12571
atal	-12572
eled	-12573
ethe	-12574
hole	-12575
otch	-12576
rett	-12577
rome	-12578
tier	-12579
▁Cut	-12580
▁Lim	-12581
▁Vik	-12582
▁dow	-12583
▁hem	-12584
▁que	-12585
erman	-12586
grand	-12587
izard	-12588
ooked	-12589
ucing	-12590
urred	-12591
▁Denn	-12592
▁Face	-12593
▁Glen	-12594
▁PART	-12595
▁Surv	-12596
▁isol	-12597
▁lent	-12598
hausen	-12599
idency	-12600
lasses	-12601
▁Britt	-12602
▁Carly	-12603
▁Croat	-12604
▁Grant	-12605
▁Mamma	-12606
▁Rapid	-12607
▁Tripp	-12608
▁advis	-12609
▁apost	-12610
▁hangs	-12611
▁horns	-12612
▁indul	-12613
▁mosqu	-12614
▁pairs	-12615
▁poems	-12616
▁stake	-12617
▁tense	-12618
▁wages	-12619
▁waist	-12620
cluding	-12621
magnets	-12622
uscript	-12623
▁Brenda	-12624
▁Engine	-12625
▁Rupert	-12626
▁Venice	-12627
▁angels	-12628
▁awhile	-12629
▁calmly	-12630
▁loaded	-12631
▁rested	-12632
▁slides	-12633
▁stages	-12634
▁triump	-12635
▁Babylon	-12636
▁Brigade	-12637
▁Kenneth	-12638
▁Solomon	-12639
▁discont	-12640
▁exhibit	-12641
▁heights	-12642
▁initial	-12643
▁invalid	-12644
▁Iroquois	-12645
▁Yugoslav	-12646
▁broccoli	-12647
▁compound	-12648
▁convince	-12649
▁farewell	-12650
▁marching	-12651
▁register	-12652
▁syllable	-12653
▁unemploy	-12654
▁wrestler	-12655
▁Presently	-12656
▁Tennessee	-12657
▁classroom	-12658
▁explosion	-12659
▁fortunate	-12660
▁hesitated	-12661
▁paragraph	-12662
▁physician	-12663
▁scheduled	-12664
▁sensitive	-12665
▁struggled	-12666
▁Nottingham	-12667
▁concerning	-12668
▁forgetting	-12669
▁frequently	-12670
▁principles	-12671
intelligible	-12672
▁territories	-12673
▁Mademoiselle	-12674
.?	-12675
:--	-12676
UID	-12677
gun	-12678
▁fu	-12679
CHEL	-12680
June	-12681
phin	-12682
rage	-12683
ules	-12684
umbs	-12685
zard	-12686
▁hob	-12687
eland	-12688
iable	-12689
isure	-12690
onian	-12691
short	-12692
▁Azer	-12693
▁Batt	-12694
▁Bros	-12695
▁Buff	-12696
▁Expl	-12697
▁Fram	-12698
▁Jill	-12699
▁Joon	-12700
▁Jura	-12701
▁Kurd	-12702
▁dash	-12703
▁flav	-12704
▁glue	-12705
▁ling	-12706
▁puff	-12707
esliga	-12708
ivated	-12709
lement	-12710
ouches	-12711
▁Corps	-12712
▁Geoff	-12713
▁Laugh	-12714
▁Medal	-12715
▁Might	-12716
▁Penny	-12717
▁Quick	-12718
▁Space	-12719
▁borne	-12720
▁onion	-12721
▁panel	-12722
▁spoil	-12723
▁sting	-12724
▁sweat	-12725
▁uhhum	-12726
▁verse	-12727
babbles	-12728
reaches	-12729
trouble	-12730
▁Athlet	-12731
▁Luther	-12732
▁Nicola	-12733
▁Pardon	-12734
▁collar	-12735
▁dumped	-12736
▁escort	-12737
▁grapes	-12738
▁sitcom	-12739
▁spared	-12740
▁squeak	-12741
inations	-12742
▁Raggedy	-12743
▁Stanley	-12744
▁alleged	-12745
▁counten	-12746
▁enthusi	-12747
▁penalty	-12748
▁pirates	-12749
▁propose	-12750
▁trading	-12751
▁tragedy	-12752
▁travels	-12753
▁vessels	-12754
▁wealthy	-12755
▁Constant	-12756
▁Together	-12757
▁careless	-12758
▁cheering	-12759
▁childish	-12760
▁daylight	-12761
▁immunity	-12762
▁overwhel	-12763
▁regiment	-12764
▁requires	-12765
▁Auschwitz	-12766
▁believing	-12767
▁fortnight	-12768
▁indicated	-12769
▁yearlings	-12770
▁Englishman	-12771
▁arrangements	-12772
AG	-12773
Su	-12774
---	-12775
Get	-12776
God	-12777
cop	-12778
nov	-12779
uay	-12780
ère	-12781
íng	-12782
▁PE	-12783
▁SV	-12784
▁ni	-12785
July	-12786
ayne	-12787
dict	-12788
enos	-12789
hatt	-12790
ilst	-12791
inny	-12792
lett	-12793
mare	-12794
stop	-12795
tail	-12796
uine	-12797
ulia	-12798
▁Gas	-12799
▁Lam	-12800
▁Map	-12801
▁Mas	-12802
▁Pom	-12803
▁SAR	-12804
▁Tro	-12805
▁Tud	-12806
▁adj	-12807
▁cuc	-12808
▁lyr	-12809
▁pap	-12810
▁pow	-12811
anoke	-12812
ested	-12813
innie	-12814
lfare	-12815
onsin	-12816
othes	-12817
▁Ella	-12818
▁Emma	-12819
▁Hood	-12820
▁Jama	-12821
▁OVER	-12822
▁Pont	-12823
▁Rest	-12824
▁Wake	-12825
▁cubs	-12826
▁gear	-12827
▁jazz	-12828
▁lazy	-12829
▁shaw	-12830
▁slam	-12831
ctures	-12832
horses	-12833
orable	-12834
prints	-12835
utches	-12836
▁Athen	-12837
▁Beast	-12838
▁COULD	-12839
▁Ellis	-12840
▁Isaac	-12841
▁Lords	-12842
▁Witch	-12843
▁ahhah	-12844
▁bully	-12845
▁fries	-12846
▁grind	-12847
▁guilt	-12848
▁troop	-12849
anguage	-12850
icester	-12851
uration	-12852
▁Rogers	-12853
▁Rubens	-12854
▁Thorne	-12855
▁Voiced	-12856
▁Within	-12857
▁assess	-12858
▁brains	-12859
▁cliffs	-12860
▁deeper	-12861
▁mobile	-12862
▁parish	-12863
▁pitter	-12864
▁punish	-12865
▁saucer	-12866
▁strain	-12867
▁tasted	-12868
isconsin	-12869
▁Usually	-12870
▁crowned	-12871
▁dripped	-12872
▁fearful	-12873
▁flushed	-12874
▁monitor	-12875
▁offence	-12876
▁senator	-12877
▁shadows	-12878
▁thanked	-12879
▁welfare	-12880
▁Jonathan	-12881
▁Mountain	-12882
▁fighters	-12883
▁maintain	-12884
▁misunder	-12885
▁pressing	-12886
▁reporter	-12887
▁screamed	-12888
▁Certainly	-12889
▁Executive	-12890
▁activists	-12891
▁defending	-12892
▁prominent	-12893
▁qualities	-12894
▁scattered	-12895
▁scrambled	-12896
▁terrified	-12897
▁utterance	-12898
▁Federation	-12899
▁Gloucester	-12900
▁attractive	-12901
▁compliment	-12902
▁influenced	-12903
▁manuscript	-12904
▁volleyball	-12905
▁housekeeper	-12906
▁nevertheless	-12907
;/	-12908
GB	-12909
’.	-12910
Mrs	-12911
ONG	-12912
acc	-12913
agi	-12914
big	-12915
eno	-12916
isp	-12917
mie	-12918
oft	-12919
owa	-12920
sea	-12921
uru	-12922
uta	-12923
▁Fa	-12924
▁Ye	-12925
John	-12926
chen	-12927
cies	-12928
inth	-12929
nett	-12930
odox	-12931
sein	-12932
wear	-12933
▁Esc	-12934
▁GON	-12935
▁Hab	-12936
▁Hir	-12937
▁SOM	-12938
▁dip	-12939
▁tid	-12940
eting	-12941
faced	-12942
small	-12943
▁Chel	-12944
▁Lock	-12945
▁Moor	-12946
▁Pink	-12947
▁bail	-12948
▁caps	-12949
▁deny	-12950
▁dict	-12951
▁lust	-12952
▁mand	-12953
▁toot	-12954
▁tore	-12955
former	-12956
upiter	-12957
▁Apple	-12958
▁Frost	-12959
▁Perry	-12960
▁Sleep	-12961
▁Welsh	-12962
▁adapt	-12963
▁bangs	-12964
▁dealt	-12965
▁femin	-12966
▁hedge	-12967
▁moder	-12968
▁nymph	-12969
▁shalt	-12970
▁shark	-12971
▁strip	-12972
▁syrup	-12973
▁tenth	-12974
▁wiped	-12975
October	-12976
isation	-12977
issions	-12978
ourable	-12979
▁Honest	-12980
▁Palmer	-12981
▁athlet	-12982
▁bulldo	-12983
▁judges	-12984
▁meadow	-12985
▁reform	-12986
▁rotten	-12987
▁saddle	-12988
▁squeal	-12989
▁summit	-12990
▁verses	-12991
▁wholly	-12992
▁whoosh	-12993
▁Lithuan	-12994
▁Speaker	-12995
▁Stadium	-12996
▁Strange	-12997
▁Windsor	-12998
▁YouTube	-12999
▁barrels	-13000
▁chapter	-13001
▁convent	-13002
▁damaged	-13003
▁digital	-13004
▁pursuit	-13005
▁realise	-13006
▁threats	-13007
▁tourist	-13008
▁venture	-13009
▁Frampton	-13010
▁barracks	-13011
▁clearing	-13012
▁customer	-13013
▁freezing	-13014
▁hastened	-13015
▁smallest	-13016
▁stepping	-13017
▁traveled	-13018
whispering	-13019
▁cancelled	-13020
▁democracy	-13021
▁fricative	-13022
▁northeast	-13023
▁producing	-13024
▁southwest	-13025
▁rainforest	-13026
▁surprising	-13027
▁beautifully	-13028
▁encouraging	-13029
▁governments	-13030
▁publication	-13031
▁underground	-13032
▁Independence	-13033
▁consciousness	-13034
▁illustrations	-13035
FR	-13036
GO	-13037
Qu	-13038
RD	-13039
Sh	-13040
di	-13041
.'"	-13042
ako	-13043
fan	-13044
hee	-13045
ige	-13046
oba	-13047
▁Ae	-13048
OUSE	-13049
angs	-13050
ante	-13051
arro	-13052
free	-13053
ivia	-13054
▁CHE	-13055
▁Cer	-13056
▁Hat	-13057
▁Mum	-13058
▁Nak	-13059
▁Peb	-13060
▁Sac	-13061
▁Vis	-13062
▁ale	-13063
▁cho	-13064
▁dod	-13065
▁dol	-13066
▁ung	-13067
▁woe	-13068
Would	-13069
acker	-13070
arter	-13071
ateur	-13072
belie	-13073
brevi	-13074
ctors	-13075
guing	-13076
ittin	-13077
uster	-13078
▁Beau	-13079
▁Jump	-13080
▁Much	-13081
▁Pand	-13082
▁Plot	-13083
▁Pros	-13084
▁WERE	-13085
▁elim	-13086
▁fenc	-13087
▁lend	-13088
▁pail	-13089
▁pigg	-13090
▁rans	-13091
▁robe	-13092
▁sway	-13093
antern	-13094
ocaust	-13095
▁GONNA	-13096
▁Liter	-13097
▁Micro	-13098
▁Round	-13099
▁agony	-13100
▁blues	-13101
▁bride	-13102
▁claws	-13103
▁crush	-13104
▁error	-13105
▁meets	-13106
▁scrib	-13107
▁wider	-13108
natured	-13109
onomous	-13110
▁Barcel	-13111
▁Kazakh	-13112
▁Lassie	-13113
▁Living	-13114
▁Ranger	-13115
▁fitted	-13116
▁makeup	-13117
▁marvel	-13118
▁sleeve	-13119
▁tossed	-13120
▁wildly	-13121
heastern	-13122
▁Honours	-13123
▁bathing	-13124
▁bedtime	-13125
▁corners	-13126
▁defined	-13127
▁drawers	-13128
▁flights	-13129
▁kittens	-13130
▁leisure	-13131
▁magical	-13132
▁pudding	-13133
▁streams	-13134
▁uttered	-13135
▁analysis	-13136
▁approval	-13137
▁confront	-13138
▁falsetto	-13139
▁forgiven	-13140
▁mumbling	-13141
▁opinions	-13142
▁persuade	-13143
▁phenomen	-13144
▁splinter	-13145
▁Billboard	-13146
▁fictional	-13147
▁kidnapped	-13148
▁moonlight	-13149
▁developing	-13150
▁Independent	-13151
▁electricity	-13152
▁preparation	-13153
▁organisation	-13154
▁universities	-13155
hr	-13156
ESE	-13157
ORT	-13158
gic	-13159
hap	-13160
hor	-13161
nia	-13162
osa	-13163
▁Ai	-13164
▁Ko	-13165
▁PO	-13166
▁SK	-13167
▁YE	-13168
▁mr	-13169
full	-13170
omic	-13171
▁Aer	-13172
▁Alc	-13173
▁Cob	-13174
▁Ont	-13175
▁dil	-13176
▁jab	-13177
Phone	-13178
guard	-13179
hanks	-13180
olics	-13181
orous	-13182
ppers	-13183
watch	-13184
white	-13185
▁COMP	-13186
▁Crus	-13187
▁Gail	-13188
▁HOME	-13189
▁Mick	-13190
▁Nico	-13191
▁Orth	-13192
▁Pooh	-13193
▁Saud	-13194
▁TELL	-13195
▁WHEN	-13196
▁beak	-13197
▁begg	-13198
▁pots	-13199
▁shat	-13200
▁stor	-13201
Indeed	-13202
ouring	-13203
usions	-13204
▁Raoul	-13205
▁Tanya	-13206
▁Vader	-13207
▁analy	-13208
▁blond	-13209
▁bombs	-13210
▁chuck	-13211
▁cocoa	-13212
▁loads	-13213
▁retro	-13214
▁spons	-13215
▁trips	-13216
▁werew	-13217
▁Button	-13218
▁Change	-13219
▁Global	-13220
▁Mercer	-13221
▁Nicole	-13222
▁Riding	-13223
▁Unlike	-13224
▁bucket	-13225
▁emphat	-13226
▁ensure	-13227
▁exists	-13228
▁freely	-13229
▁inspir	-13230
▁kettle	-13231
▁mister	-13232
▁premie	-13233
▁quaint	-13234
▁trials	-13235
aspberry	-13236
▁Azerbai	-13237
▁delayed	-13238
▁hardest	-13239
▁praised	-13240
▁touches	-13241
▁Aldridge	-13242
▁Imperial	-13243
▁Military	-13244
▁annoying	-13245
▁category	-13246
▁divorced	-13247
▁facility	-13248
▁fingerna	-13249
▁printing	-13250
▁tadpoles	-13251
▁Paramount	-13252
▁afterward	-13253
▁certified	-13254
▁criterion	-13255
▁exquisite	-13256
▁fireplace	-13257
▁orchestra	-13258
▁pneumonia	-13259
▁prevented	-13260
▁residence	-13261
▁Ambassador	-13262
▁Previously	-13263
▁cheerfully	-13264
▁commitment	-13265
▁discussing	-13266
▁supporters	-13267
▁composition	-13268
▁distinguish	-13269
▁presentation	-13270
('	-13271
lw	-13272
://	-13273
GAS	-13274
cca	-13275
got	-13276
▁$=	-13277
▁/&	-13278
▁Aj	-13279
▁Kl	-13280
Give	-13281
arer	-13282
elli	-13283
flex	-13284
hyll	-13285
iate	-13286
ingo	-13287
isse	-13288
rust	-13289
▁Adm	-13290
▁Coc	-13291
▁Eat	-13292
▁FRI	-13293
▁Fem	-13294
▁Goo	-13295
▁Psy	-13296
▁bos	-13297
▁raw	-13298
▁rip	-13299
▁yay	-13300
amble	-13301
reath	-13302
▁Cran	-13303
▁Desp	-13304
▁Ears	-13305
▁FUCK	-13306
▁Gate	-13307
▁Guer	-13308
▁Senn	-13309
▁Urug	-13310
▁dent	-13311
▁gent	-13312
▁gest	-13313
▁lace	-13314
▁lump	-13315
▁pigs	-13316
▁slim	-13317
▁stem	-13318
▁summ	-13319
▁tink	-13320
▁vine	-13321
basket	-13322
handed	-13323
stable	-13324
wealth	-13325
wright	-13326
▁Chase	-13327
▁Fried	-13328
▁Lipan	-13329
▁Ninja	-13330
▁Sound	-13331
▁accus	-13332
▁aimed	-13333
▁armor	-13334
▁breed	-13335
▁cable	-13336
▁camel	-13337
▁charm	-13338
▁coinc	-13339
▁imper	-13340
▁kills	-13341
▁noisy	-13342
▁reass	-13343
▁vague	-13344
January	-13345
abbling	-13346
achment	-13347
eredith	-13348
▁Action	-13349
▁Chatty	-13350
▁Freddy	-13351
▁Grange	-13352
▁Kenned	-13353
▁Lizzie	-13354
▁actors	-13355
▁armies	-13356
▁biting	-13357
▁bumped	-13358
▁carved	-13359
▁chased	-13360
▁convey	-13361
▁courts	-13362
▁engage	-13363
▁excess	-13364
▁jungle	-13365
▁kisses	-13366
▁lyrics	-13367
▁margin	-13368
▁mouths	-13369
▁perpet	-13370
▁rememb	-13371
▁senses	-13372
▁trunks	-13373
▁Jupiter	-13374
▁Looking	-13375
▁Pebbles	-13376
▁Phoenix	-13377
▁Sanders	-13378
▁Uruguay	-13379
▁Wallace	-13380
▁cheaper	-13381
▁chiefly	-13382
▁choking	-13383
▁colours	-13384
▁lightly	-13385
▁reminds	-13386
▁skipper	-13387
▁slipper	-13388
▁someday	-13389
▁sticker	-13390
▁stirred	-13391
September	-13392
▁Fernando	-13393
▁Thatcher	-13394
▁accommod	-13395
▁cartoons	-13396
▁concerns	-13397
▁defended	-13398
▁founding	-13399
▁monsters	-13400
▁moreover	-13401
▁nowadays	-13402
▁offended	-13403
▁purchase	-13404
▁quantity	-13405
▁railroad	-13406
▁speedily	-13407
▁Excellent	-13408
▁Wisconsin	-13409
▁ancestors	-13410
▁chemistry	-13411
▁convicted	-13412
▁criticism	-13413
▁essential	-13414
▁inspector	-13415
▁passenger	-13416
▁radiation	-13417
▁shillings	-13418
▁stockings	-13419
appropriate	-13420
▁attempting	-13421
▁candidates	-13422
▁earthquake	-13423
▁practicing	-13424
▁Illustrated	-13425
▁complaining	-13426
▁approximately	-13427
▁parliamentary	-13428
ZZ	-13429
nk	-13430
VEN	-13431
_--	-13432
dia	-13433
ibi	-13434
▁PG	-13435
▁oo	-13436
Supp	-13437
VERY	-13438
Wait	-13439
abad	-13440
anas	-13441
cied	-13442
cker	-13443
hers	-13444
lemy	-13445
nick	-13446
pled	-13447
pose	-13448
rics	-13449
were	-13450
▁Bri	-13451
▁Haz	-13452
▁Set	-13453
aders	-13454
cular	-13455
gered	-13456
hemes	-13457
iland	-13458
owulf	-13459
▁Bomb	-13460
▁DOWN	-13461
▁Food	-13462
▁Guil	-13463
▁Kwan	-13464
▁Prem	-13465
▁Wasn	-13466
▁amid	-13467
▁auth	-13468
▁cane	-13469
▁damp	-13470
▁mini	-13471
▁poly	-13472
▁sere	-13473
▁subd	-13474
avalry	-13475
celine	-13476
estyle	-13477
finals	-13478
liness	-13479
▁Aires	-13480
▁Bless	-13481
▁Elect	-13482
▁Elsie	-13483
▁Gonna	-13484
▁Hawai	-13485
▁Sally	-13486
▁Wells	-13487
▁babys	-13488
▁catal	-13489
▁chlor	-13490
▁limbs	-13491
▁milit	-13492
▁nails	-13493
▁seals	-13494
▁twent	-13495
▁whine	-13496
aration	-13497
western	-13498
▁Buenos	-13499
▁Denver	-13500
▁Edmund	-13501
▁Emilia	-13502
▁Jasper	-13503
▁Jeremy	-13504
▁Naruto	-13505
▁conson	-13506
▁eraser	-13507
▁liking	-13508
▁linked	-13509
▁persec	-13510
▁physic	-13511
▁random	-13512
▁reluct	-13513
▁sprink	-13514
▁swords	-13515
▁unions	-13516
▁weekly	-13517
▁whence	-13518
probably	-13519
▁Bernard	-13520
▁Program	-13521
▁Sheriff	-13522
▁Studies	-13523
▁banging	-13524
▁fancied	-13525
▁genuine	-13526
▁inquiry	-13527
▁nursing	-13528
▁romance	-13529
▁rounded	-13530
▁swiftly	-13531
▁Anderson	-13532
▁brighter	-13533
▁cherries	-13534
▁collabor	-13535
▁doctrine	-13536
▁everyday	-13537
▁horsemen	-13538
▁reminded	-13539
▁Animation	-13540
▁acknowled	-13541
▁animation	-13542
▁arguments	-13543
▁assembled	-13544
▁complaint	-13545
▁elsewhere	-13546
▁emotional	-13547
▁vegetable	-13548
▁Protestant	-13549
▁Technology	-13550
▁biological	-13551
▁convenient	-13552
▁dreadfully	-13553
▁facilities	-13554
▁maintained	-13555
▁performing	-13556
▁threatening	-13557
▁determination	-13558
SA	-13559
Sc	-13560
gl	-13561
Isn	-13562
Yea	-13563
hol	-13564
tap	-13565
uer	-13566
▁),	-13567
▁SI	-13568
▁iv	-13569
▁od	-13570
achy	-13571
cons	-13572
hies	-13573
hind	-13574
inea	-13575
iper	-13576
iral	-13577
rend	-13578
rium	-13579
vate	-13580
wald	-13581
▁Bog	-13582
▁GRE	-13583
▁Kan	-13584
▁Pil	-13585
▁Saf	-13586
▁Vat	-13587
▁dot	-13588
▁fib	-13589
▁hyd	-13590
▁jur	-13591
▁sib	-13592
▁wax	-13593
Somet	-13594
bread	-13595
cloth	-13596
comed	-13597
eters	-13598
ilian	-13599
inema	-13600
ophil	-13601
ultan	-13602
▁Brid	-13603
▁Cord	-13604
▁Ewok	-13605
▁Fund	-13606
▁Kath	-13607
▁Marx	-13608
▁NEED	-13609
▁Trem	-13610
▁Yale	-13611
▁dock	-13612
▁leak	-13613
▁leap	-13614
▁loft	-13615
▁mode	-13616
▁perf	-13617
▁tipt	-13618
▁toll	-13619
▁vaud	-13620
▁wist	-13621
outing	-13622
▁Adolf	-13623
▁Arist	-13624
▁Becca	-13625
▁Bhair	-13626
▁Delhi	-13627
▁Jason	-13628
▁SOMET	-13629
▁Sunny	-13630
▁Theod	-13631
▁Trade	-13632
▁elbow	-13633
▁filed	-13634
▁fract	-13635
▁freak	-13636
▁razor	-13637
▁saint	-13638
▁solic	-13639
fielder	-13640
present	-13641
unition	-13642
▁Marcus	-13643
▁Oregon	-13644
▁canvas	-13645
▁dismay	-13646
▁echoed	-13647
▁franch	-13648
▁knives	-13649
▁lively	-13650
▁melted	-13651
▁muscle	-13652
▁overhe	-13653
▁plebes	-13654
▁shiver	-13655
▁virgin	-13656
▁worker	-13657
▁Allison	-13658
▁Belgian	-13659
▁Journal	-13660
▁Leonard	-13661
▁Natalie	-13662
▁Thought	-13663
▁ceremon	-13664
▁farming	-13665
▁funding	-13666
▁grocery	-13667
▁listing	-13668
▁murders	-13669
▁quarrel	-13670
▁schemes	-13671
▁stripes	-13672
▁twisted	-13673
▁vaudois	-13674
▁Francois	-13675
▁Meredith	-13676
▁Salvador	-13677
▁bothered	-13678
▁fastened	-13679
▁lemonade	-13680
▁publicly	-13681
▁treacher	-13682
▁ventured	-13683
▁wandered	-13684
▁Barcelona	-13685
▁Holocaust	-13686
▁bulldozer	-13687
▁classical	-13688
▁fireworks	-13689
▁messenger	-13690
▁respected	-13691
▁References	-13692
▁conspiracy	-13693
▁impressive	-13694
▁neighbours	-13695
▁reflection	-13696
▁translated	-13697
▁conferences	-13698
▁contribution	-13699
▁distribution	-13700
▁contributions	-13701
wy	-13702
és	-13703
BLE	-13704
FUL	-13705
IDS	-13706
bot	-13707
igs	-13708
non	-13709
oro	-13710
ryn	-13711
sal	-13712
usk	-13713
▁DA	-13714
IRST	-13715
UARY	-13716
brid	-13717
care	-13718
eton	-13719
even	-13720
hist	-13721
hran	-13722
inge	-13723
isen	-13724
ohno	-13725
post	-13726
stad	-13727
turn	-13728
▁Ams	-13729
▁Bee	-13730
▁Cou	-13731
▁Mah	-13732
▁Ral	-13733
▁TRE	-13734
▁bun	-13735
▁git	-13736
▁rot	-13737
▁sor	-13738
CHUCK	-13739
Right	-13740
ammar	-13741
burps	-13742
eight	-13743
inter	-13744
isode	-13745
nders	-13746
▁Albu	-13747
▁Cott	-13748
▁DOES	-13749
▁Dawn	-13750
▁Mars	-13751
▁Mine	-13752
▁Pent	-13753
▁Pine	-13754
▁Publ	-13755
▁Slow	-13756
▁Stew	-13757
▁Trip	-13758
▁Utah	-13759
▁eyeb	-13760
▁foul	-13761
▁melt	-13762
▁mush	-13763
asping	-13764
azines	-13765
closed	-13766
school	-13767
▁Abbey	-13768
▁Alpha	-13769
▁Disco	-13770
▁Iraqi	-13771
▁Marco	-13772
▁Shiva	-13773
▁await	-13774
▁crawl	-13775
▁havin	-13776
▁layer	-13777
▁liner	-13778
▁moust	-13779
▁quote	-13780
▁ruins	-13781
▁rural	-13782
▁sayin	-13783
▁smugg	-13784
ROANING	-13785
Roanoke	-13786
▁Barnes	-13787
▁Burton	-13788
▁Either	-13789
▁Hannah	-13790
▁Parson	-13791
▁Sophie	-13792
▁Takaki	-13793
▁barbar	-13794
▁consol	-13795
▁coughs	-13796
▁divide	-13797
▁enters	-13798
▁floors	-13799
▁habits	-13800
▁karate	-13801
▁openly	-13802
▁racket	-13803
▁resent	-13804
▁spells	-13805
▁towers	-13806
ergarten	-13807
▁Beowulf	-13808
▁Century	-13809
▁Kennedy	-13810
▁Library	-13811
▁admired	-13812
▁blocked	-13813
▁butcher	-13814
▁carrier	-13815
▁chariot	-13816
▁chewing	-13817
▁classic	-13818
▁digging	-13819
▁elderly	-13820
▁haunted	-13821
▁largely	-13822
▁readers	-13823
▁rescued	-13824
▁roughly	-13825
▁samples	-13826
▁scholar	-13827
▁sharing	-13828
▁Brooklyn	-13829
▁Building	-13830
▁Michelle	-13831
▁boarding	-13832
▁emphasis	-13833
▁examined	-13834
▁existing	-13835
▁formally	-13836
▁frighten	-13837
▁searched	-13838
▁silently	-13839
▁theories	-13840
▁welcomed	-13841
ifications	-13842
▁attacking	-13843
▁conducted	-13844
▁contented	-13845
▁footsteps	-13846
▁forbidden	-13847
▁privilege	-13848
▁promising	-13849
▁protested	-13850
▁specially	-13851
▁treasures	-13852
▁complained	-13853
▁electronic	-13854
▁explaining	-13855
▁occasional	-13856
▁procession	-13857
▁countenance	-13858
▁manufacture	-13859
▁accomplished	-13860
▁demonstration	-13861
▁neighbourhood	-13862
PH	-13863
IDE	-13864
abe	-13865
dow	-13866
hot	-13867
orr	-13868
roe	-13869
uum	-13870
▁Et	-13871
▁FO	-13872
▁Ií	-13873
▁Oz	-13874
atsu	-13875
oper	-13876
pres	-13877
rise	-13878
rugs	-13879
seen	-13880
sels	-13881
umns	-13882
ylum	-13883
▁Daw	-13884
▁Emb	-13885
▁Fra	-13886
▁Hop	-13887
▁RED	-13888
▁Sak	-13889
▁Sed	-13890
▁Som	-13891
▁WAY	-13892
▁dub	-13893
▁eru	-13894
After	-13895
enson	-13896
ifies	-13897
udder	-13898
▁Ally	-13899
▁Burt	-13900
▁Core	-13901
▁Deep	-13902
▁Gaul	-13903
▁Mort	-13904
▁TIME	-13905
▁Twin	-13906
▁Vern	-13907
▁Yang	-13908
▁dive	-13909
▁duke	-13910
▁fest	-13911
▁gamb	-13912
▁mans	-13913
▁owls	-13914
▁rapt	-13915
hammed	-13916
houses	-13917
strong	-13918
tracks	-13919
▁Canon	-13920
▁Event	-13921
▁GOING	-13922
▁Quite	-13923
▁chalk	-13924
▁eagle	-13925
▁fatal	-13926
▁gravy	-13927
▁growl	-13928
▁pills	-13929
▁robot	-13930
▁safer	-13931
▁shiny	-13932
▁siege	-13933
▁stalk	-13934
▁tease	-13935
hampton	-13936
pective	-13937
plastic	-13938
querque	-13939
running	-13940
uations	-13941
▁Aragon	-13942
▁Dennis	-13943
▁Hilary	-13944
▁Horace	-13945
▁diaper	-13946
▁folder	-13947
▁gladly	-13948
▁gloomy	-13949
▁hearty	-13950
▁hunted	-13951
▁lowest	-13952
▁obeyed	-13953
▁pursue	-13954
▁reprod	-13955
▁shabby	-13956
▁theirs	-13957
▁throws	-13958
▁titled	-13959
February	-13960
ologists	-13961
▁Despite	-13962
▁Detroit	-13963
▁Liberal	-13964
▁Reading	-13965
▁caution	-13966
▁compare	-13967
▁comprom	-13968
▁comrade	-13969
▁devices	-13970
▁expense	-13971
▁extinct	-13972
▁fitting	-13973
▁hostage	-13974
▁inspect	-13975
▁mankind	-13976
▁placing	-13977
▁profits	-13978
▁ribbons	-13979
▁secular	-13980
▁skating	-13981
▁tearing	-13982
▁tension	-13983
▁Normandy	-13984
▁arriving	-13985
▁deserves	-13986
▁expenses	-13987
▁gracious	-13988
▁peasants	-13989
▁promises	-13990
▁removing	-13991
▁startled	-13992
▁tomatoes	-13993
▁Catholics	-13994
▁Following	-13995
▁accompany	-13996
▁employees	-13997
▁exclusive	-13998
▁libraries	-13999
▁telegraph	-14000
▁Bundesliga	-14001
▁assignment	-14002
▁industries	-14003
▁Albuquerque	-14004
▁Corporation	-14005
▁countryside	-14006
▁institution	-14007
▁remembrance	-14008
▁preparations	-14009
▁organisations	-14010
''	-14011
.!	-14012
Am	-14013
CC	-14014
YS	-14015
zi	-14016
bul	-14017
cht	-14018
isi	-14019
odi	-14020
urm	-14021
▁-[	-14022
▁Tu	-14023
MBER	-14024
OUND	-14025
anga	-14026
bras	-14027
iami	-14028
imed	-14029
ione	-14030
isha	-14031
lied	-14032
neys	-14033
ovak	-14034
sits	-14035
yeah	-14036
▁ABC	-14037
▁Arn	-14038
▁DVD	-14039
▁Hou	-14040
▁Hus	-14041
▁Sug	-14042
▁Tat	-14043
▁Tax	-14044
▁Vel	-14045
▁sla	-14046
▁sod	-14047
ATTER	-14048
allel	-14049
aware	-14050
ieves	-14051
impse	-14052
olmar	-14053
ooker	-14054
seven	-14055
▁Cale	-14056
▁Curt	-14057
▁Emil	-14058
▁Gwen	-14059
▁Hear	-14060
▁Humm	-14061
▁Late	-14062
▁Leah	-14063
▁Loch	-14064
▁Spin	-14065
▁Stub	-14066
▁Tory	-14067
▁VIII	-14068
▁Ward	-14069
▁anth	-14070
▁batt	-14071
▁burp	-14072
▁exit	-14073
▁plug	-14074
▁thro	-14075
▁whee	-14076
French	-14077
erness	-14078
escope	-14079
minded	-14080
ocrats	-14081
oubted	-14082
ounces	-14083
ousing	-14084
▁Block	-14085
▁CHILD	-14086
▁Cathy	-14087
▁Metro	-14088
▁Miami	-14089
▁Murph	-14090
▁Tohno	-14091
▁ambit	-14092
▁aster	-14093
▁fewer	-14094
▁incom	-14095
▁nasal	-14096
▁peach	-14097
▁peril	-14098
▁scrat	-14099
▁scrub	-14100
▁sighs	-14101
▁sworn	-14102
▁wheat	-14103
▁whirl	-14104
ructure	-14105
▁Apache	-14106
▁Ernest	-14107
▁Google	-14108
▁Malays	-14109
▁Sadler	-14110
▁Stalag	-14111
▁argued	-14112
▁crumbs	-14113
▁divine	-14114
▁fruits	-14115
▁lament	-14116
▁luxury	-14117
▁novels	-14118
▁recoll	-14119
▁select	-14120
▁yogurt	-14121
▁Municip	-14122
▁Neville	-14123
▁artific	-14124
▁bravely	-14125
▁closest	-14126
▁convict	-14127
▁excused	-14128
▁glimpse	-14129
▁gravity	-14130
▁harvest	-14131
▁heavens	-14132
▁inherit	-14133
▁renamed	-14134
▁reverse	-14135
▁shallow	-14136
▁sparrow	-14137
▁trailer	-14138
▁weeping	-14139
▁winners	-14140
addington	-14141
▁Baseball	-14142
▁abortion	-14143
▁abruptly	-14144
▁appetite	-14145
▁bankrupt	-14146
▁confined	-14147
▁controls	-14148
▁crashing	-14149
▁dangling	-14150
▁deserted	-14151
▁drawings	-14152
▁infected	-14153
▁sergeant	-14154
▁trembled	-14155
▁Josceline	-14156
▁SOMETHING	-14157
▁criminals	-14158
▁locations	-14159
▁magazines	-14160
▁persuaded	-14161
▁procedure	-14162
▁strategic	-14163
▁continuing	-14164
▁criticized	-14165
▁electrical	-14166
▁engagement	-14167
▁popularity	-14168
▁proportion	-14169
▁withdrawal	-14170
▁embarrassed	-14171
▁fascinating	-14172
▁fundamental	-14173
▁mathematics	-14174
▁deliberately	-14175
▁kindergarten	-14176
▁complications	-14177
);	-14178
MY	-14179
▁+	-14180
▁q	-14181
ADY	-14182
BRI	-14183
Pro	-14184
equ	-14185
hey	-14186
igi	-14187
imo	-14188
jab	-14189
olo	-14190
ayer	-14191
beat	-14192
bish	-14193
dorf	-14194
flix	-14195
fold	-14196
ibal	-14197
ondo	-14198
repe	-14199
rock	-14200
suit	-14201
ueva	-14202
æsar	-14203
▁Bag	-14204
▁COU	-14205
▁Dal	-14206
▁NXT	-14207
▁Nan	-14208
▁PAU	-14209
▁Pey	-14210
▁Ran	-14211
▁Row	-14212
▁Wes	-14213
▁ric	-14214
▁rig	-14215
SIGHS	-14216
estro	-14217
grabs	-14218
reads	-14219
stown	-14220
vance	-14221
▁Conc	-14222
▁Gill	-14223
▁JEFF	-14224
▁Noel	-14225
▁Prix	-14226
▁Skel	-14227
▁cans	-14228
▁cmon	-14229
▁gran	-14230
▁idle	-14231
▁pand	-14232
▁swam	-14233
haraoh	-14234
oolaid	-14235
umbers	-14236
▁Banks	-14237
▁Pluto	-14238
▁Valer	-14239
▁abund	-14240
▁aisle	-14241
▁bases	-14242
▁deals	-14243
▁dizzy	-14244
▁exert	-14245
▁galle	-14246
▁goats	-14247
▁lists	-14248
▁panda	-14249
▁pools	-14250
▁pulse	-14251
▁shawl	-14252
▁slope	-14253
acement	-14254
icating	-14255
returns	-14256
▁Amsden	-14257
▁Psyche	-14258
▁Studio	-14259
▁Sylvia	-14260
▁Volmar	-14261
▁absent	-14262
▁banned	-14263
▁curled	-14264
▁dollie	-14265
▁fossil	-14266
▁hosted	-14267
▁keeper	-14268
▁oblast	-14269
▁plague	-14270
▁robbed	-14271
▁tattoo	-14272
▁timber	-14273
▁traces	-14274
▁traded	-14275
▁Clinton	-14276
▁Freeman	-14277
▁Netflix	-14278
▁Nigeria	-14279
▁Ontario	-14280
▁Railway	-14281
▁Reardon	-14282
▁academy	-14283
▁camping	-14284
▁earning	-14285
▁extract	-14286
▁screams	-14287
▁snapped	-14288
▁starred	-14289
▁subsequ	-14290
▁surgeon	-14291
▁therapy	-14292
▁worries	-14293
forcement	-14294
▁Exchange	-14295
▁Guardian	-14296
▁Kentucky	-14297
▁Movement	-14298
▁absorbed	-14299
▁bracelet	-14300
▁dramatic	-14301
▁imperial	-14302
▁measured	-14303
▁monument	-14304
▁solemnly	-14305
▁stirring	-14306
▁worrying	-14307
▁Christine	-14308
▁doubtless	-14309
▁enthusias	-14310
▁formation	-14311
▁ignorance	-14312
▁intervals	-14313
▁involving	-14314
▁marketing	-14315
▁nightmare	-14316
▁overboard	-14317
▁regularly	-14318
▁voiceless	-14319
▁intonation	-14320
▁competitive	-14321
▁instruments	-14322
▁kaleidoscope	-14323
▁championships	-14324
▁granddaughter	-14325
,.	-14326
DY	-14327
SH	-14328
ás	-14329
WOM	-14330
ede	-14331
ele	-14332
hof	-14333
pow	-14334
rec	-14335
tar	-14336
▁TE	-14337
▁XI	-14338
▁ll	-14339
Star	-14340
aire	-14341
bank	-14342
doll	-14343
mble	-14344
prod	-14345
sten	-14346
such	-14347
ujah	-14348
unes	-14349
wind	-14350
▁Ahm	-14351
▁Bax	-14352
▁Cod	-14353
▁Fis	-14354
▁Hig	-14355
▁JOE	-14356
▁Mik	-14357
▁NAS	-14358
▁Ras	-14359
▁TRA	-14360
▁TWO	-14361
▁Tol	-14362
▁Zeb	-14363
▁hut	-14364
▁jer	-14365
▁nen	-14366
adeth	-14367
ainty	-14368
cheon	-14369
elfth	-14370
green	-14371
ivors	-14372
ordin	-14373
rious	-14374
yawns	-14375
▁Bent	-14376
▁Dian	-14377
▁Hond	-14378
▁Into	-14379
▁MEAN	-14380
▁Saul	-14381
▁beam	-14382
▁bows	-14383
▁calf	-14384
▁emig	-14385
▁evac	-14386
▁flap	-14387
▁heel	-14388
▁ming	-14389
▁prud	-14390
▁quot	-14391
▁skip	-14392
▁synd	-14393
Possum	-14394
acking	-14395
blocks	-14396
ctoral	-14397
geance	-14398
gender	-14399
hattan	-14400
heimer	-14401
orting	-14402
ounter	-14403
please	-14404
uously	-14405
▁Baron	-14406
▁Craig	-14407
▁Dewey	-14408
▁Heath	-14409
▁Local	-14410
▁Pedro	-14411
▁Timmy	-14412
▁Vince	-14413
▁WOULD	-14414
▁angle	-14415
▁baker	-14416
▁bolts	-14417
▁brisk	-14418
▁faded	-14419
▁fraud	-14420
▁nickn	-14421
▁solar	-14422
▁swamp	-14423
▁tanks	-14424
▁topic	-14425
mumbles	-14426
touches	-14427
▁Beauty	-14428
▁Butter	-14429
▁Claude	-14430
▁Morris	-14431
▁PEOPLE	-14432
▁Sicily	-14433
▁Surely	-14434
▁advise	-14435
▁backed	-14436
▁cannon	-14437
▁humili	-14438
▁insane	-14439
▁parted	-14440
▁piggie	-14441
▁resemb	-14442
▁volunt	-14443
▁Bennett	-14444
▁Brownie	-14445
▁Elephan	-14446
▁Express	-14447
▁Guilala	-14448
▁Herbert	-14449
▁Russell	-14450
▁Suppose	-14451
▁Whoever	-14452
▁Working	-14453
▁airline	-14454
▁arguing	-14455
▁couples	-14456
▁examine	-14457
▁greeted	-14458
▁hugging	-14459
▁lantern	-14460
▁loyalty	-14461
▁mocking	-14462
▁popcorn	-14463
▁portray	-14464
▁promote	-14465
▁restore	-14466
▁sinking	-14467
▁strikes	-14468
▁Muhammad	-14469
▁Township	-14470
▁Tremayne	-14471
▁Universe	-14472
▁acquired	-14473
▁artistic	-14474
▁collapse	-14475
▁detailed	-14476
▁garments	-14477
▁graduate	-14478
▁grandson	-14479
▁guessing	-14480
▁homeless	-14481
▁profound	-14482
▁Melbourne	-14483
▁Microsoft	-14484
▁confessed	-14485
▁meanwhile	-14486
▁preserved	-14487
▁selection	-14488
▁standards	-14489
▁technique	-14490
▁Especially	-14491
▁Yugoslavia	-14492
▁astonished	-14493
▁boundaries	-14494
▁mechanical	-14495
▁recognised	-14496
▁accordingly	-14497
▁examination	-14498
▁exceedingly	-14499
▁practically	-14500
▁resignation	-14501
▁Christianity	-14502
▁Commonwealth	-14503
▁conservative	-14504
▁introduction	-14505
▁communication	-14506
▁Administration	-14507
Il	-14508
PR	-14509
én	-14510
Eng	-14511
adi	-14512
ahn	-14513
bad	-14514
ikh	-14515
oom	-14516
org	-14517
owl	-14518
pop	-14519
tem	-14520
uda	-14521
uis	-14522
uso	-14523
zzo	-14524
▁BU	-14525
▁KE	-14526
▁PS	-14527
▁UH	-14528
Arab	-14529
Jack	-14530
NING	-14531
Sure	-14532
adle	-14533
arek	-14534
know	-14535
live	-14536
mila	-14537
mith	-14538
orig	-14539
ović	-14540
plan	-14541
thin	-14542
twas	-14543
umer	-14544
unty	-14545
▁Alm	-14546
▁Buc	-14547
▁Dob	-14548
▁ITV	-14549
▁Jar	-14550
▁Nev	-14551
▁SAY	-14552
▁Tig	-14553
▁gap	-14554
▁vib	-14555
apted	-14556
asher	-14557
becca	-14558
blows	-14559
inias	-14560
pheus	-14561
umpty	-14562
ussia	-14563
▁Chem	-14564
▁Fame	-14565
▁Koch	-14566
▁Maid	-14567
▁Mong	-14568
▁Rosa	-14569
▁Sere	-14570
▁bask	-14571
▁bond	-14572
▁brow	-14573
▁carn	-14574
▁hind	-14575
▁odds	-14576
▁wept	-14577
▁wits	-14578
angled	-14579
enburg	-14580
illery	-14581
necess	-14582
oceros	-14583
sticks	-14584
veland	-14585
weight	-14586
▁Bella	-14587
▁Cuban	-14588
▁Cæsar	-14589
▁Moore	-14590
▁Rahul	-14591
▁Relax	-14592
▁Saudi	-14593
▁Seems	-14594
▁Sonia	-14595
▁alter	-14596
▁brows	-14597
▁draws	-14598
▁hosts	-14599
▁lifts	-14600
▁metre	-14601
▁simpl	-14602
PEAKING	-14603
meaning	-14604
▁Bulgar	-14605
▁Carrie	-14606
▁Cratch	-14607
▁Design	-14608
▁Hispan	-14609
▁Missus	-14610
▁Modern	-14611
▁Taiwan	-14612
▁Tehran	-14613
▁auntie	-14614
▁bacter	-14615
▁dainty	-14616
▁murmur	-14617
▁parrot	-14618
▁prejud	-14619
▁proven	-14620
▁sealed	-14621
▁suburb	-14622
▁uneasy	-14623
▁urgent	-14624
▁velvet	-14625
▁wallet	-14626
▁whilst	-14627
▁whines	-14628
LAUGHING	-14629
election	-14630
hamshire	-14631
uttering	-14632
▁Anybody	-14633
▁Bristol	-14634
▁Contest	-14635
▁Fleming	-14636
▁Middles	-14637
▁Norfolk	-14638
▁Phinias	-14639
▁Pollard	-14640
▁Toronto	-14641
▁amusing	-14642
▁barking	-14643
▁begging	-14644
▁cavalry	-14645
▁flashed	-14646
▁kicking	-14647
▁lighter	-14648
▁pillows	-14649
▁plunged	-14650
▁pyramid	-14651
▁quicker	-14652
▁readily	-14653
▁scandal	-14654
▁supreme	-14655
▁whereas	-14656
SCREAMING	-14657
horseshoe	-14658
▁Birthday	-14659
▁bachelor	-14660
▁benefits	-14661
▁comedian	-14662
▁estimate	-14663
▁graceful	-14664
▁hostages	-14665
▁opponent	-14666
▁speakers	-14667
▁suggests	-14668
▁tortured	-14669
▁Indonesia	-14670
▁MacDonald	-14671
▁Parkinson	-14672
▁collapsed	-14673
▁consisted	-14674
▁provinces	-14675
▁Production	-14676
▁addressing	-14677
▁enthusiasm	-14678
▁exhibition	-14679
▁helicopter	-14680
▁occupation	-14681
▁pocketbook	-14682
▁properties	-14683
▁provisions	-14684
incorporated	-14685
▁concentrate	-14686
▁essentially	-14687
▁partnership	-14688
▁Nevertheless	-14689
CL	-14690
Hi	-14691
SR	-14692
tw	-14693
ét	-14694
AGE	-14695
Bet	-14696
His	-14697
REN	-14698
Sir	-14699
_,"	-14700
atu	-14701
avi	-14702
bee	-14703
eat	-14704
hag	-14705
izz	-14706
yla	-14707
▁Hm	-14708
▁Ts	-14709
acey	-14710
alli	-14711
bean	-14712
does	-14713
elic	-14714
emed	-14715
emen	-14716
oker	-14717
rete	-14718
uchi	-14719
▁Dub	-14720
▁Hob	-14721
▁Jen	-14722
▁Jet	-14723
▁Lud	-14724
▁Nah	-14725
▁TEA	-14726
▁Use	-14727
▁ell	-14728
▁pub	-14729
▁vul	-14730
Black	-14731
CAUSE	-14732
alian	-14733
alion	-14734
books	-14735
hemia	-14736
ieson	-14737
nergy	-14738
tress	-14739
▁CALL	-14740
▁Cler	-14741
▁Drac	-14742
▁Farm	-14743
▁Flet	-14744
▁HAPP	-14745
▁Inst	-14746
▁Lamb	-14747
▁Lost	-14748
▁Magn	-14749
▁Rams	-14750
▁ants	-14751
▁brut	-14752
▁byeb	-14753
▁gown	-14754
▁loaf	-14755
▁memb	-14756
▁radi	-14757
▁sped	-14758
▁ther	-14759
▁ware	-14760
active	-14761
chance	-14762
imeter	-14763
porary	-14764
▁Armed	-14765
▁Bates	-14766
▁Brave	-14767
▁Bruno	-14768
▁Filip	-14769
▁Kirby	-14770
▁Medic	-14771
▁Mercy	-14772
▁Moses	-14773
▁Naomi	-14774
▁Netty	-14775
▁Turks	-14776
▁chess	-14777
▁coats	-14778
▁dated	-14779
▁grasp	-14780
▁outta	-14781
▁pupil	-14782
▁rhyme	-14783
▁skips	-14784
▁suite	-14785
▁theat	-14786
▁tobac	-14787
▁users	-14788
ilation	-14789
istress	-14790
▁Bertie	-14791
▁Cecile	-14792
▁Couldn	-14793
▁Danish	-14794
▁Evelyn	-14795
▁FRIEND	-14796
▁Garden	-14797
▁Harper	-14798
▁Judith	-14799
▁Michel	-14800
▁Snoopy	-14801
▁Stubbs	-14802
▁Sultan	-14803
▁Turner	-14804
▁Wanaka	-14805
▁archae	-14806
▁armour	-14807
▁attach	-14808
▁cheque	-14809
▁fridge	-14810
▁ignore	-14811
▁patron	-14812
▁ponies	-14813
▁posted	-14814
▁tellin	-14815
▁Houston	-14816
▁abbrevi	-14817
▁advised	-14818
▁aggress	-14819
▁casting	-14820
▁castles	-14821
▁columns	-14822
▁deposit	-14823
▁dislike	-14824
▁emerged	-14825
▁freezer	-14826
▁garbage	-14827
▁genetic	-14828
▁minimum	-14829
▁saucers	-14830
▁screwed	-14831
▁tallest	-14832
▁tumbled	-14833
▁winding	-14834
▁Beaufort	-14835
▁Confeder	-14836
▁Danielle	-14837
▁Delaware	-14838
▁Jamieson	-14839
▁Mohammed	-14840
▁Moreover	-14841
▁Thailand	-14842
▁Thompson	-14843
▁alveolar	-14844
▁backward	-14845
▁betrayed	-14846
▁creative	-14847
▁cupboard	-14848
▁fountain	-14849
▁internet	-14850
▁priority	-14851
▁stubborn	-14852
▁supports	-14853
▁unlikely	-14854
▁unnecess	-14855
ographical	-14856
▁Manhattan	-14857
▁bothering	-14858
▁communist	-14859
▁construct	-14860
▁corrected	-14861
▁decidedly	-14862
▁dismissed	-14863
▁extension	-14864
▁imaginary	-14865
▁provision	-14866
▁universal	-14867
▁volunteer	-14868
▁ambassador	-14869
▁collecting	-14870
▁definition	-14871
▁stretching	-14872
▁triumphant	-14873
▁Accordingly	-14874
▁communicate	-14875
▁Organization	-14876
▁accidentally	-14877
▁unincorporated	-14878
)"	-14879
Lo	-14880
RT	-14881
Tr	-14882
ELF	-14883
GBT	-14884
NEI	-14885
aze	-14886
dya	-14887
fix	-14888
irs	-14889
nik	-14890
ogi	-14891
oké	-14892
uga	-14893
▁&*	-14894
ENTS	-14895
aria	-14896
bble	-14897
hage	-14898
hour	-14899
oofy	-14900
step	-14901
▁Box	-14902
▁CIA	-14903
▁COL	-14904
▁Cec	-14905
▁Dow	-14906
▁Eug	-14907
▁GOD	-14908
▁Glo	-14909
▁HEY	-14910
▁Kab	-14911
▁Mec	-14912
▁Occ	-14913
▁Pir	-14914
▁Ply	-14915
▁Saw	-14916
▁Sna	-14917
▁Tel	-14918
▁Yam	-14919
▁voc	-14920
asset	-14921
iller	-14922
print	-14923
uckoo	-14924
▁Budd	-14925
▁Dill	-14926
▁Indu	-14927
▁Lana	-14928
▁Pear	-14929
▁Sain	-14930
▁Shin	-14931
▁Sier	-14932
▁Sign	-14933
▁Sold	-14934
▁Thor	-14935
▁True	-14936
▁alas	-14937
▁mour	-14938
▁pays	-14939
▁peac	-14940
▁rape	-14941
▁riot	-14942
▁sadd	-14943
▁waff	-14944
▁wilt	-14945
▁wont	-14946
Little	-14947
estone	-14948
ifting	-14949
igious	-14950
isters	-14951
okémon	-14952
ooping	-14953
ounded	-14954
▁Books	-14955
▁Giant	-14956
▁Ralph	-14957
▁Rossy	-14958
▁Sammy	-14959
▁Smart	-14960
▁alien	-14961
▁cease	-14962
▁hippo	-14963
▁maker	-14964
▁scree	-14965
calling	-14966
omaster	-14967
▁Calais	-14968
▁Denise	-14969
▁Energy	-14970
▁Fellow	-14971
▁Pascal	-14972
▁Queens	-14973
▁Review	-14974
▁Serena	-14975
▁Transl	-14976
▁agenda	-14977
▁attent	-14978
▁beetle	-14979
▁byebye	-14980
▁checks	-14981
▁greedy	-14982
▁harass	-14983
▁mashed	-14984
▁rebell	-14985
▁scores	-14986
▁swings	-14987
▁tiptoe	-14988
▁unlock	-14989
November	-14990
▁Believe	-14991
▁Gabriel	-14992
▁Jacques	-14993
▁Skelton	-14994
▁beliefs	-14995
▁bishops	-14996
▁boiling	-14997
▁bombing	-14998
▁cameras	-14999
▁customs	-15000
▁decades	-15001
▁drivers	-15002
▁handful	-15003
▁parting	-15004
▁payment	-15005
▁princes	-15006
▁pursued	-15007
▁stooped	-15008
intendent	-15009
unciation	-15010
▁Cromwell	-15011
▁Industry	-15012
▁Plymouth	-15013
▁accurate	-15014
▁assigned	-15015
▁colonies	-15016
▁definite	-15017
▁guidance	-15018
▁hurrying	-15019
▁interrog	-15020
▁mattress	-15021
▁mustache	-15022
▁outbreak	-15023
▁peekaboo	-15024
▁promptly	-15025
▁resulted	-15026
▁sections	-15027
▁spinning	-15028
▁thriller	-15029
▁Gentlemen	-15030
▁Katherine	-15031
▁exercises	-15032
▁franchise	-15033
▁imitating	-15034
▁necessity	-15035
▁partially	-15036
▁repeating	-15037
▁secondary	-15038
▁strangely	-15039
▁destroying	-15040
▁foundation	-15041
▁frustrated	-15042
▁marvellous	-15043
▁midfielder	-15044
▁thoughtful	-15045
▁Burgomaster	-15046
▁Productions	-15047
▁decorations	-15048
▁exclamation	-15049
▁illustrated	-15050
▁perspective	-15051
▁considerably	-15052
▁institutions	-15053
▁screenwriter	-15054
▁relationships	-15055
▁revolutionary	-15056
HL	-15057
PL	-15058
yu	-15059
ASS	-15060
ATO	-15061
Our	-15062
Sea	-15063
Was	-15064
eto	-15065
nal	-15066
rix	-15067
spe	-15068
www	-15069
alia	-15070
arus	-15071
asia	-15072
atha	-15073
cium	-15074
cony	-15075
cott	-15076
drew	-15077
ffes	-15078
gasp	-15079
ggle	-15080
harm	-15081
iche	-15082
inee	-15083
iren	-15084
mies	-15085
mpoo	-15086
sung	-15087
uana	-15088
▁BEN	-15089
▁Ear	-15090
▁Eth	-15091
▁Kas	-15092
▁Kra	-15093
▁Mee	-15094
▁OUR	-15095
▁Vas	-15096
▁amm	-15097
▁cav	-15098
▁gon	-15099
▁orn	-15100
REAMS	-15101
amins	-15102
chuck	-15103
esame	-15104
ester	-15105
great	-15106
liest	-15107
oneys	-15108
▁Airl	-15109
▁Bobo	-15110
▁Chen	-15111
▁Dent	-15112
▁Exam	-15113
▁Eyes	-15114
▁Fall	-15115
▁Frog	-15116
▁Gunn	-15117
▁LGBT	-15118
▁Leop	-15119
▁Less	-15120
[...]
