<pad>	0
<unk>	0
<s>	0
</s>	0
<mask>	0
<0x00>	0
<0x01>	0
<0x02>	0
<0x03>	0
<0x04>	0
<0x05>	0
<0x06>	0
<0x07>	0
<0x08>	0
<0x09>	0
<0x0A>	0
<0x0B>	0
<0x0C>	0
<0x0D>	0
<0x0E>	0
<0x0F>	0
<0x10>	0
<0x11>	0
<0x12>	0
<0x13>	0
<0x14>	0
<0x15>	0
<0x16>	0
<0x17>	0
<0x18>	0
<0x19>	0
<0x1A>	0
<0x1B>	0
<0x1C>	0
<0x1D>	0
<0x1E>	0
<0x1F>	0
<0x20>	0
<0x21>	0
<0x22>	0
<0x23>	0
<0x24>	0
<0x25>	0
<0x26>	0
<0x27>	0
<0x28>	0
<0x29>	0
<0x2A>	0
<0x2B>	0
<0x2C>	0
<0x2D>	0
<0x2E>	0
<0x2F>	0
<0x30>	0
<0x31>	0
<0x32>	0
<0x33>	0
<0x34>	0
<0x35>	0
<0x36>	0
<0x37>	0
<0x38>	0
<0x39>	0
<0x3A>	0
<0x3B>	0
<0x3C>	0
<0x3D>	0
<0x3E>	0
<0x3F>	0
<0x40>	0
<0x41>	0
<0x42>	0
<0x43>	0
<0x44>	0
<0x45>	0
<0x46>	0
<0x47>	0
<0x48>	0
<0x49>	0
<0x4A>	0
<0x4B>	0
<0x4C>	0
<0x4D>	0
<0x4E>	0
<0x4F>	0
<0x50>	0
<0x51>	0
<0x52>	0
<0x53>	0
<0x54>	0
<0x55>	0
<0x56>	0
<0x57>	0
<0x58>	0
<0x59>	0
<0x5A>	0
<0x5B>	0
<0x5C>	0
<0x5D>	0
<0x5E>	0
<0x5F>	0
<0x60>	0
<0x61>	0
<0x62>	0
<0x63>	0
<0x64>	0
<0x65>	0
<0x66>	0
<0x67>	0
<0x68>	0
<0x69>	0
<0x6A>	0
<0x6B>	0
<0x6C>	0
<0x6D>	0
<0x6E>	0
<0x6F>	0
<0x70>	0
<0x71>	0
<0x72>	0
<0x73>	0
<0x74>	0
<0x75>	0
<0x76>	0
<0x77>	0
<0x78>	0
<0x79>	0
<0x7A>	0
<0x7B>	0
<0x7C>	0
<0x7D>	0
<0x7E>	0
<0x7F>	0
<0x80>	0
<0x81>	0
<0x82>	0
<0x83>	0
<0x84>	0
<0x85>	0
<0x86>	0
<0x87>	0
<0x88>	0
<0x89>	0
<0x8A>	0
<0x8B>	0
<0x8C>	0
<0x8D>	0
<0x8E>	0
<0x8F>	0
<0x90>	0
<0x91>	0
<0x92>	0
<0x93>	0
<0x94>	0
<0x95>	0
<0x96>	0
<0x97>	0
<0x98>	0
<0x99>	0
<0x9A>	0
<0x9B>	0
<0x9C>	0
<0x9D>	0
<0x9E>	0
<0x9F>	0
<0xA0>	0
<0xA1>	0
<0xA2>	0
<0xA3>	0
<0xA4>	0
<0xA5>	0
<0xA6>	0
<0xA7>	0
<0xA8>	0
<0xA9>	0
<0xAA>	0
<0xAB>	0
<0xAC>	0
<0xAD>	0
<0xAE>	0
<0xAF>	0
<0xB0>	0
<0xB1>	0
<0xB2>	0
<0xB3>	0
<0xB4>	0
<0xB5>	0
<0xB6>	0
<0xB7>	0
<0xB8>	0
<0xB9>	0
<0xBA>	0
<0xBB>	0
<0xBC>	0
<0xBD>	0
<0xBE>	0
<0xBF>	0
<0xC0>	0
<0xC1>	0
<0xC2>	0
<0xC3>	0
<0xC4>	0
<0xC5>	0
<0xC6>	0
<0xC7>	0
<0xC8>	0
<0xC9>	0
<0xCA>	0
<0xCB>	0
<0xCC>	0
<0xCD>	0
<0xCE>	0
<0xCF>	0
<0xD0>	0
<0xD1>	0
<0xD2>	0
<0xD3>	0
<0xD4>	0
<0xD5>	0
<0xD6>	0
<0xD7>	0
<0xD8>	0
<0xD9>	0
<0xDA>	0
<0xDB>	0
<0xDC>	0
<0xDD>	0
<0xDE>	0
<0xDF>	0
<0xE0>	0
<0xE1>	0
<0xE2>	0
<0xE3>	0
<0xE4>	0
<0xE5>	0
<0xE6>	0
<0xE7>	0
<0xE8>	0
<0xE9>	0
<0xEA>	0
<0xEB>	0
<0xEC>	0
<0xED>	0
<0xEE>	0
<0xEF>	0
<0xF0>	0
<0xF1>	0
<0xF2>	0
<0xF3>	0
<0xF4>	0
<0xF5>	0
<0xF6>	0
<0xF7>	0
<0xF8>	0
<0xF9>	0
<0xFA>	0
<0xFB>	0
<0xFC>	0
<0xFD>	0
<0xFE>	0
<0xFF>	0
▁t	-0
he	-1
▁a	-2
in	-3
▁w	-4
▁the	-5
▁s	-6
re	-7
▁o	-8
ou	-9
er	-10
at	-11
nd	-12
▁b	-13
▁*	-14
it	-15
is	-16
▁c	-17
▁m	-18
on	-19
ing	-20
an	-21
▁f	-22
▁d	-23
▁h	-24
▁p	-25
or	-26
ed	-27
en	-28
es	-29
ar	-30
ll	-31
▁to	-32
▁th	-33
▁in	-34
▁l	-35
▁y	-36
▁and	-37
▁of	-38
▁I	-39
as	-40
▁g	-41
▁n	-42
om	-43
▁you	-44
le	-45
ic	-46
HI	-47
CHI	-48
▁he	-49
ow	-50
OT	-51
al	-52
MOT	-53
ot	-54
▁is	-55
et	-56
▁on	-57
ay	-58
▁it	-59
ve	-60
us	-61
▁wh	-62
id	-63
ut	-64
▁A	-65
▁T	-66
ad	-67
▁be	-68
▁e	-69
▁that	-70
gh	-71
▁r	-72
ld	-73
ion	-74
▁re	-75
ac	-76
▁was	-77
ent	-78
ir	-79
▁we	-80
▁st	-81
▁S	-82
am	-83
im	-84
ver	-85
▁for	-86
oo	-87
▁u	-88
▁=	-89
▁M	-90
st	-91
ly	-92
ur	-93
ke	-94
ith	-95
▁ha	-96
se	-97
▁with	-98
all	-99
▁an	-100
..	-101
ght	-102
▁do	-103
▁k	-104
▁C	-105
her	-106
▁W	-107
ch	-108
▁H	-109
ro	-110
▁[	-111
▁B	-112
▁as	-113
ce	-114
▁The	-115
ri	-116
▁me	-117
▁se	-118
▁at	-119
ter	-120
▁are	-121
il	-122
ct	-123
▁"	-124
ill	-125
ome	-126
▁what	-127
▁li	-128
and	-129
op	-130
ea	-131
un	-132
▁j	-133
▁not	-134
▁sh	-135
▁fr	-136
▁go	-137
ight	-138
▁his	-139
ain	-140
if	-141
▁have	-142
ant	-143
▁this	-144
ould	-145
ge	-146
th	-147
▁P	-148
▁de	-149
▁kn	-150
ust	-151
▁D	-152
ation	-153
ol	-154
▁Y	-155
▁ch	-156
▁ne	-157
▁her	-158
um	-159
▁one	-160
ore	-161
▁N	-162
▁they	-163
▁pl	-164
ul	-165
ie	-166
▁by	-167
ack	-168
▁no	-169
AT	-170
ers	-171
▁whe	-172
▁al	-173
pp	-174
▁O	-175
▁can	-176
art	-177
▁know	-178
▁so	-179
ab	-180
FAT	-181
▁-	-182
xx	-183
▁man	-184
▁R	-185
ell	-186
est	-187
▁she	-188
▁from	-189
▁up	-190
ook	-191
▁G	-192
...	-193
▁L	-194
▁F	-195
rou	-196
ist	-197
▁all	-198
ard	-199
rb	-200
▁there	-201
▁or	-202
▁sa	-203
ig	-204
ap	-205
red	-206
os	-207
▁had	-208
▁my	-209
out	-210
▁don	-211
em	-212
▁but	-213
▁E	-214
res	-215
ry	-216
▁com	-217
▁v	-218
el	-219
nt	-220
ess	-221
▁out	-222
▁su	-223
▁ab	-224
ood	-225
▁con	-226
qu	-227
▁J	-228
ate	-229
ame	-230
▁wor	-231
our	-232
▁like	-233
ake	-234
itt	-235
ong	-236
eah	-237
▁sp	-238
▁who	-239
▁your	-240
oc	-241
▁did	-242
▁It	-243
ast	-244
▁him	-245
▁were	-246
ber	-247
ive	-248
▁He	-249
ak	-250
very	-251
ort	-252
ink	-253
ag	-254
▁us	-255
one	-256
ind	-257
own	-258
ity	-259
▁ex	-260
wo	-261
▁pro	-262
ich	-263
ide	-264
▁get	-265
▁Th	-266
ally	-267
▁bl	-268
▁some	-269
od	-270
ies	-271
fe	-272
▁them	-273
▁about	-274
ra	-275
ment	-276
ice	-277
ear	-278
▁said	-279
ep	-280
▁You	-281
ite	-282
▁pe	-283
ost	-284
ian	-285
▁(	-286
▁yeah	-287
▁here	-288
ther	-289
na	-290
▁play	-291
iv	-292
▁cl	-293
▁just	-294
▁look	-295
ine	-296
ick	-297
au	-298
▁Wh	-299
▁see	-300
▁would	-301
ime	-302
other	-303
▁when	-304
ish	-305
▁int	-306
▁tr	-307
ous	-308
oy	-309
ound	-310
▁two	-311
ople	-312
ud	-313
▁has	-314
▁if	-315
▁want	-316
ree	-317
▁think	-318
ild	-319
▁right	-320
▁any	-321
ia	-322
ue	-323
use	-324
▁which	-325
▁their	-326
▁will	-327
xxx	-328
▁xxx	-329
hing	-330
ip	-331
alk	-332
ond	-333
▁now	-334
▁le	-335
▁K	-336
▁Ch	-337
▁ag	-338
ace	-339
ittle	-340
▁other	-341
▁people	-342
orn	-343
ure	-344
kay	-345
▁un	-346
▁rrb	-347
▁lrb	-348
▁back	-349
▁little	-350
▁over	-351
ated	-352
▁got	-353
▁say	-354
ile	-355
ater	-356
int	-357
ass	-358
▁been	-359
▁oh	-360
way	-361
ca	-362
▁more	-363
▁down	-364
▁af	-365
ven	-366
▁time	-367
age	-368
▁U	-369
▁how	-370
ose	-371
ance	-372
▁ar	-373
▁off	-374
▁br	-375
ark	-376
end	-377
ary	-378
▁where	-379
are	-380
▁And	-381
▁then	-382
▁en	-383
ount	-384
ire	-385
▁good	-386
▁too	-387
ase	-388
uc	-389
mer	-390
].	-391
▁co	-392
ect	-393
▁In	-394
▁pr	-395
▁could	-396
."	-397
▁qu	-398
ang	-399
▁fe	-400
irst	-401
hed	-402
--	-403
▁very	-404
pt	-405
ings	-406
AR	-407
IN	-408
▁work	-409
ng	-410
▁gre	-411
ft	-412
▁wom	-413
ade	-414
▁put	-415
ub	-416
ach	-417
ove	-418
▁into	-419
ord	-420
▁St	-421
▁'	-422
▁gr	-423
cause	-424
▁going	-425
▁well	-426
ress	-427
▁okay	-428
▁part	-429
▁comp	-430
▁te	-431
▁first	-432
ock	-433
omet	-434
ans	-435
round	-436
▁than	-437
▁ro	-438
ren	-439
so	-440
ble	-441
▁dis	-442
sel	-443
av	-444
▁fl	-445
per	-446
urn	-447
▁call	-448
MAR	-449
ough	-450
wn	-451
ov	-452
▁after	-453
irl	-454
cc	-455
▁come	-456
iz	-457
og	-458
▁ad	-459
▁sc	-460
▁What	-461
ff	-462
▁She	-463
ial	-464
▁year	-465
▁let	-466
ty	-467
▁car	-468
able	-469
les	-470
act	-471
▁gu	-472
ions	-473
▁We	-474
orm	-475
old	-476
▁somet	-477
▁day	-478
▁make	-479
augh	-480
iss	-481
,"	-482
ne	-483
▁am	-484
▁bet	-485
▁wr	-486
erm	-487
▁V	-488
ict	-489
▁sm	-490
aring	-491
we	-492
▁boy	-493
▁girl	-494
▁again	-495
▁child	-496
cl	-497
▁way	-498
▁But	-499
ool	-500
▁also	-501
pl	-502
nder	-503
ec	-504
ather	-505
▁im	-506
▁pre	-507
ates	-508
▁while	-509
rough	-510
▁only	-511
land	-512
▁per	-513
ory	-514
▁does	-515
onna	-516
INV	-517
ign	-518
▁fo	-519
air	-520
▁bu	-521
▁take	-522
▁cr	-523
▁tell	-524
▁through	-525
▁woman	-526
▁made	-527
amp	-528
my	-529
ath	-530
ied	-531
▁No	-532
▁because	-533
▁gonna	-534
fore	-535
▁new	-536
self	-537
▁hu	-538
▁may	-539
uch	-540
▁app	-541
ving	-542
ouse	-543
▁i	-544
▁cont	-545
▁every	-546
ence	-547
ical	-548
ited	-549
ady	-550
▁comm	-551
▁long	-552
▁three	-553
▁hand	-554
ru	-555
ank	-556
▁should	-557
ors	-558
▁old	-559
▁%	-560
▁need	-561
▁something	-562
ew	-563
▁ser	-564
▁uh	-565
▁po	-566
RO	-567
▁wearing	-568
ull	-569
ont	-570
▁act	-571
▁stand	-572
hen	-573
laugh	-574
▁its	-575
▁under	-576
▁dog	-577
ting	-578
▁these	-579
▁young	-580
oss	-581
anc	-582
ved	-583
day	-584
ix	-585
▁res	-586
▁happ	-587
▁why	-588
hes	-589
▁talk	-590
▁rem	-591
ward	-592
irt	-593
ons	-594
▁our	-595
▁much	-596
ph	-597
side	-598
▁didn	-599
atch	-600
ail	-601
▁black	-602
ought	-603
▁There	-604
up	-605
▁They	-606
IS	-607
be	-608
▁That	-609
ious	-610
▁er	-611
ican	-612
▁Mr	-613
uck	-614
ens	-615
ult	-616
▁ke	-617
▁ind	-618
▁hel	-619
▁before	-620
▁being	-621
▁big	-622
sh	-623
iver	-624
▁rec	-625
thing	-626
ise	-627
oth	-628
igh	-629
ys	-630
▁men	-631
▁bo	-632
▁found	-633
▁mean	-634
▁red	-635
▁many	-636
get	-637
▁lea	-638
▁really	-639
ily	-640
▁most	-641
ful	-642
laughs	-643
als	-644
▁Oh	-645
▁count	-646
▁This	-647
▁another	-648
▁still	-649
ody	-650
▁went	-651
aw	-652
▁“	-653
xt	-654
▁water	-655
▁So	-656
tern	-657
▁Yeah	-658
▁eat	-659
zz	-660
▁des	-661
▁att	-662
▁sec	-663
add	-664
▁name	-665
▁even	-666
▁great	-667
▁white	-668
▁sl	-669
ball	-670
▁never	-671
SIS	-672
ope	-673
ange	-674
▁ph	-675
ah	-676
yes	-677
▁book	-678
port	-679
▁Un	-680
rent	-681
▁um	-682
▁came	-683
▁city	-684
▁start	-685
▁reg	-686
▁bel	-687
▁An	-688
▁walk	-689
ition	-690
BRO	-691
▁home	-692
ob	-693
▁head	-694
▁hold	-695
▁called	-696
▁wan	-697
▁around	-698
ert	-699
aking	-700
▁mar	-701
chool	-702
▁ask	-703
te	-704
▁four	-705
▁ear	-706
▁away	-707
ember	-708
unn	-709
ves	-710
ince	-711
vel	-712
ations	-713
▁those	-714
▁yes	-715
▁last	-716
form	-717
▁Mom	-718
▁show	-719
ried	-720
▁born	-721
▁help	-722
▁pres	-723
▁thought	-724
▁turn	-725
outh	-726
▁years	-727
ction	-728
▁stre	-729
▁house	-730
ave	-731
▁Fr	-732
ents	-733
ug	-734
ung	-735
oh	-736
▁dr	-737
?"	-738
akes	-739
ss	-740
▁fri	-741
▁bec	-742
roup	-743
▁Well	-744
▁che	-745
ational	-746
ened	-747
▁blue	-748
▁gl	-749
▁used	-750
▁thing	-751
▁sw	-752
erson	-753
▁such	-754
▁own	-755
ina	-756
▁doing	-757
▁wanna	-758
▁things	-759
ks	-760
▁min	-761
uring	-762
▁try	-763
▁op	-764
▁must	-765
▁fin	-766
▁dep	-767
ubl	-768
▁dif	-769
▁str	-770
ait	-771
▁find	-772
▁give	-773
enc	-774
▁end	-775
▁num	-776
gan	-777
une	-778
ident	-779
▁pol	-780
aby	-781
ib	-782
ale	-783
▁world	-784
▁mother	-785
man	-786
▁group	-787
▁known	-788
mber	-789
gin	-790
here	-791
▁el	-792
▁read	-793
orth	-794
ever	-795
▁Chi	-796
▁Mar	-797
▁night	-798
▁fam	-799
row	-800
▁ele	-801
ump	-802
▁school	-803
▁mov	-804
▁won	-805
▁foot	-806
ually	-807
▁lar	-808
▁next	-809
▁shirt	-810
▁sur	-811
▁acc	-812
merican	-813
▁small	-814
▁ac	-815
▁cour	-816
oney	-817
▁bre	-818
▁sing	-819
ased	-820
▁playing	-821
▁supp	-822
▁friend	-823
▁kind	-824
▁set	-825
▁place	-826
▁sk	-827
its	-828
▁col	-829
▁ple	-830
imes	-831
gg	-832
ere	-833
▁bus	-834
right	-835
▁cre	-836
▁war	-837
▁ob	-838
▁cent	-839
UR	-840
▁mon	-841
▁life	-842
any	-843
▁On	-844
.]	-845
ott	-846
▁Br	-847
led	-848
oll	-849
▁person	-850
oon	-851
▁better	-852
ellow	-853
ling	-854
vent	-855
io	-856
ween	-857
▁room	-858
▁em	-859
▁ball	-860
ating	-861
▁How	-862
▁Al	-863
▁same	-864
ple	-865
ways	-866
▁mus	-867
hm	-868
itting	-869
▁Two	-870
▁side	-871
▁children	-872
▁lot	-873
ower	-874
▁love	-875
ee	-876
▁mom	-877
ird	-878
▁done	-879
▁might	-880
▁care	-881
▁rel	-882
ier	-883
az	-884
▁sn	-885
▁If	-886
▁five	-887
body	-888
▁Is	-889
▁word	-890
▁dist	-891
ute	-892
▁between	-893
▁cap	-894
▁As	-895
▁feel	-896
▁sy	-897
▁use	-898
▁father	-899
clud	-900
ished	-901
▁Yes	-902
ars	-903
oun	-904
▁sure	-905
cle	-906
▁near	-907
▁ret	-908
▁exp	-909
▁gen	-910
ets	-911
▁high	-912
ross	-913
▁dec	-914
▁rep	-915
▁keep	-916
▁baby	-917
artment	-918
▁sil	-919
▁wait	-920
▁diffe	-921
▁front	-922
▁number	-923
▁huh	-924
vern	-925
▁tw	-926
ject	-927
ork	-928
▁stud	-929
▁ent	-930
ular	-931
▁unt	-932
▁left	-933
▁met	-934
▁cons	-935
▁took	-936
ible	-937
ures	-938
URS	-939
ts	-940
▁tre	-941
▁loc	-942
iet	-943
▁top	-944
ics	-945
▁ass	-946
ister	-947
▁watch	-948
inn	-949
▁second	-950
ike	-951
▁dress	-952
▁standing	-953
▁char	-954
ash	-955
ton	-956
ER	-957
▁told	-958
ann	-959
▁air	-960
gether	-961
▁ever	-962
▁anything	-963
▁football	-964
▁cle	-965
ms	-966
▁together	-967
▁seem	-968
▁always	-969
▁mag	-970
ired	-971
▁else	-972
ants	-973
eral	-974
▁.	-975
▁six	-976
▁sit	-977
▁pie	-978
▁hard	-979
▁real	-980
▁each	-981
▁Mommy	-982
▁both	-983
gr	-984
▁build	-985
▁At	-986
▁includ	-987
ield	-988
▁Do	-989
▁far	-990
▁stop	-991
ered	-992
▁saw	-993
▁best	-994
▁belie	-995
▁inst	-996
uh	-997
aught	-998
▁pop	-999
▁town	-1000
▁Sh	-1001
▁mil	-1002
▁sitting	-1003
▁until	-1004
rist	-1005
▁looking	-1006
▁pret	-1007
▁All	-1008
ane	-1009
ames	-1010
▁sub	-1011
▁doesn	-1012
▁cur	-1013
▁during	-1014
▁street	-1015
fect	-1016
ck	-1017
ision	-1018
▁Ar	-1019
ual	-1020
▁mat	-1021
▁pass	-1022
▁green	-1023
▁nice	-1024
▁point	-1025
ral	-1026
▁open	-1027
▁team	-1028
▁rest	-1029
▁publ	-1030
▁women	-1031
ative	-1032
ities	-1033
▁money	-1034
▁wee	-1035
▁against	-1036
aint	-1037
eak	-1038
▁inv	-1039
▁Be	-1040
ohn	-1041
ury	-1042
ness	-1043
orry	-1044
!"	-1045
ik	-1046
ese	-1047
▁eng	-1048
▁Mark	-1049
▁light	-1050
▁sign	-1051
▁New	-1052
ces	-1053
rop	-1054
ger	-1055
▁mhm	-1056
ins	-1057
▁giv	-1058
▁department	-1059
▁Re	-1060
▁tri	-1061
▁form	-1062
▁different	-1063
▁inc	-1064
▁spec	-1065
att	-1066
ats	-1067
aj	-1068
ient	-1069
ctor	-1070
llow	-1071
mb	-1072
ason	-1073
▁north	-1074
enn	-1075
▁few	-1076
▁ca	-1077
ters	-1078
▁large	-1079
▁imp	-1080
▁later	-1081
▁table	-1082
ern	-1083
▁list	-1084
olog	-1085
▁base	-1086
▁stay	-1087
lish	-1088
▁disc	-1089
▁yellow	-1090
vers	-1091
der	-1092
▁stick	-1093
▁died	-1094
▁game	-1095
ific	-1096
ivers	-1097
▁face	-1098
▁United	-1099
uss	-1100
by	-1101
▁dri	-1102
leep	-1103
▁beh	-1104
▁follow	-1105
ape	-1106
br	-1107
aper	-1108
▁family	-1109
▁along	-1110
▁coll	-1111
▁prod	-1112
▁since	-1113
▁govern	-1114
▁sound	-1115
ndred	-1116
▁wind	-1117
▁rock	-1118
oor	-1119
▁music	-1120
▁though	-1121
▁pict	-1122
▁dat	-1123
▁food	-1124
cess	-1125
▁seen	-1126
▁hur	-1127
▁Sp	-1128
idd	-1129
▁outside	-1130
▁art	-1131
▁fall	-1132
▁holding	-1133
ret	-1134
▁remember	-1135
▁state	-1136
▁hundred	-1137
▁enough	-1138
▁dire	-1139
▁region	-1140
alf	-1141
und	-1142
▁prov	-1143
bo	-1144
▁De	-1145
▁bad	-1146
▁course	-1147
▁eyes	-1148
amed	-1149
▁run	-1150
▁ed	-1151
▁song	-1152
▁became	-1153
▁Why	-1154
▁having	-1155
▁nothing	-1156
▁lead	-1157
▁American	-1158
▁without	-1159
▁TH	-1160
ched	-1161
▁door	-1162
▁says	-1163
▁For	-1164
▁Ind	-1165
▁Don	-1166
osed	-1167
▁kill	-1168
ital	-1169
▁ref	-1170
ertain	-1171
ax	-1172
▁When	-1173
▁bro	-1174
the	-1175
aut	-1176
▁train	-1177
▁add	-1178
▁King	-1179
▁please	-1180
▁jump	-1181
▁upon	-1182
▁himself	-1183
uff	-1184
▁Af	-1185
AN	-1186
less	-1187
▁My	-1188
▁Now	-1189
ey	-1190
ivid	-1191
▁pick	-1192
uth	-1193
▁Ad	-1194
▁vo	-1195
▁Eng	-1196
wards	-1197
▁talking	-1198
▁Cl	-1199
▁short	-1200
▁asked	-1201
▁girls	-1202
▁bed	-1203
▁happened	-1204
hat	-1205
▁once	-1206
▁–	-1207
▁bas	-1208
ipp	-1209
ric	-1210
raw	-1211
▁area	-1212
cept	-1213
sp	-1214
ES	-1215
▁quite	-1216
ok	-1217
),	-1218
ote	-1219
orning	-1220
▁ev	-1221
ries	-1222
▁hands	-1223
iam	-1224
▁story	-1225
▁land	-1226
▁france	-1227
▁par	-1228
▁del	-1229
▁south	-1230
most	-1231
ps	-1232
▁inter	-1233
▁getting	-1234
▁sim	-1235
▁silver	-1236
▁kid	-1237
iew	-1238
ife	-1239
▁today	-1240
▁player	-1241
▁Miss	-1242
▁leg	-1243
ists	-1244
ta	-1245
ounc	-1246
▁Okay	-1247
▁anim	-1248
▁Mrs	-1249
CO	-1250
▁isn	-1251
▁country	-1252
iness	-1253
The	-1254
▁pur	-1255
oint	-1256
▁hor	-1257
▁eight	-1258
aster	-1259
ober	-1260
ene	-1261
▁king	-1262
▁coming	-1263
▁Sc	-1264
▁bit	-1265
▁fire	-1266
▁record	-1267
LD	-1268
▁walking	-1269
rap	-1270
▁hair	-1271
ably	-1272
eng	-1273
▁move	-1274
▁making	-1275
ues	-1276
▁morning	-1277
ten	-1278
ution	-1279
stand	-1280
▁pay	-1281
ices	-1282
▁z	-1283
▁ap	-1284
ows	-1285
▁rid	-1286
▁fore	-1287
rib	-1288
▁bar	-1289
▁States	-1290
".	-1291
ined	-1292
▁Can	-1293
▁pretty	-1294
ines	-1295
app	-1296
▁_	-1297
▁med	-1298
▁sleep	-1299
▁leave	-1300
▁Then	-1301
ony	-1302
▁live	-1303
ments	-1304
▁started	-1305
ages	-1306
▁wanted	-1307
▁mind	-1308
▁sorry	-1309
▁states	-1310
fta	-1311
▁Just	-1312
▁eas	-1313
▁heart	-1314
▁perform	-1315
▁hear	-1316
▁rele	-1317
▁Pr	-1318
▁hafta	-1319
▁gave	-1320
aid	-1321
▁law	-1322
▁beaut	-1323
▁drink	-1324
▁heard	-1325
▁Z	-1326
▁half	-1327
▁alright	-1328
ised	-1329
▁John	-1330
ains	-1331
stem	-1332
ery	-1333
).	-1334
▁whole	-1335
▁Christ	-1336
▁son	-1337
▁everything	-1338
ized	-1339
▁hum	-1340
▁runn	-1341
▁cat	-1342
▁ext	-1343
▁serv	-1344
iter	-1345
▁yet	-1346
enty	-1347
▁sent	-1348
▁vis	-1349
▁meet	-1350
▁hung	-1351
dd	-1352
▁wood	-1353
cted	-1354
▁days	-1355
ex	-1356
yp	-1357
▁knew	-1358
▁commune	-1359
▁const	-1360
▁Not	-1361
▁tele	-1362
▁tra	-1363
▁believe	-1364
▁pri	-1365
▁doll	-1366
▁soon	-1367
▁hm	-1368
addy	-1369
ither	-1370
▁resp	-1371
EL	-1372
▁Thank	-1373
▁national	-1374
▁full	-1375
anu	-1376
eth	-1377
ye	-1378
aps	-1379
aces	-1380
ney	-1381
me	-1382
ison	-1383
▁May	-1384
▁present	-1385
▁hat	-1386
▁played	-1387
▁trans	-1388
▁behind	-1389
▁hist	-1390
▁cut	-1391
▁hot	-1392
▁united	-1393
ream	-1394
▁round	-1395
▁looked	-1396
▁conf	-1397
▁looks	-1398
ying	-1399
▁band	-1400
▁Hey	-1401
▁shall	-1402
hy	-1403
▁mark	-1404
▁quest	-1405
▁miss	-1406
▁magn	-1407
▁offic	-1408
▁polit	-1409
▁hour	-1410
▁snow	-1411
▁poss	-1412
▁Ed	-1413
▁road	-1414
erest	-1415
ering	-1416
to	-1417
▁One	-1418
▁goes	-1419
ense	-1420
▁write	-1421
▁cou	-1422
▁Com	-1423
▁age	-1424
▁lady	-1425
▁thank	-1426
ING	-1427
rench	-1428
aken	-1429
ared	-1430
▁alb	-1431
▁id	-1432
▁fact	-1433
ster	-1434
ained	-1435
▁mod	-1436
▁almost	-1437
▁system	-1438
rying	-1439
▁God	-1440
▁speak	-1441
▁return	-1442
hern	-1443
ches	-1444
▁brother	-1445
▁Let	-1446
▁building	-1447
▁cup	-1448
▁wasn	-1449
▁prof	-1450
ready	-1451
▁fight	-1452
▁began	-1453
son	-1454
airs	-1455
ians	-1456
▁ans	-1457
▁party	-1458
▁ready	-1459
ism	-1460
key	-1461
ole	-1462
uly	-1463
▁fif	-1464
▁wond	-1465
▁wall	-1466
▁import	-1467
ature	-1468
▁public	-1469
▁close	-1470
▁death	-1471
iversity	-1472
gy	-1473
▁boys	-1474
▁prot	-1475
anuary	-1476
▁maybe	-1477
▁brown	-1478
ush	-1479
▁sho	-1480
▁es	-1481
▁piece	-1482
▁government	-1483
▁bring	-1484
▁trying	-1485
▁prom	-1486
▁proble	-1487
▁park	-1488
▁Ph	-1489
▁fun	-1490
▁cal	-1491
aur	-1492
iful	-1493
▁To	-1494
▁voice	-1495
▁guy	-1496
rew	-1497
▁conc	-1498
unny	-1499
ground	-1500
▁paper	-1501
▁running	-1502
▁already	-1503
▁main	-1504
▁working	-1505
▁ate	-1506
ming	-1507
ril	-1508
elt	-1509
▁break	-1510
ility	-1511
rict	-1512
ience	-1513
ugust	-1514
▁times	-1515
▁interest	-1516
▁contin	-1517
eed	-1518
ped	-1519
▁often	-1520
▁sun	-1521
▁Ross	-1522
erv	-1523
huh	-1524
▁Go	-1525
angu	-1526
ron	-1527
hip	-1528
▁fil	-1529
▁gone	-1530
icip	-1531
▁est	-1532
▁understand	-1533
ica	-1534
▁mill	-1535
ional	-1536
▁organ	-1537
▁color	-1538
▁means	-1539
▁THE	-1540
ator	-1541
ides	-1542
▁power	-1543
▁dressed	-1544
▁dark	-1545
▁album	-1546
▁swe	-1547
oud	-1548
ately	-1549
ially	-1550
▁zz	-1551
▁jo	-1552
▁zzz	-1553
estern	-1554
rest	-1555
▁laugh	-1556
aul	-1557
inc	-1558
▁month	-1559
unt	-1560
▁saying	-1561
▁His	-1562
▁Come	-1563
▁sever	-1564
ium	-1565
ring	-1566
▁Sar	-1567
iting	-1568
▁field	-1569
rought	-1570
ize	-1571
unch	-1572
gram	-1573
ctober	-1574
▁actually	-1575
erman	-1576
▁camp	-1577
▁Pe	-1578
▁ste	-1579
ilt	-1580
ural	-1581
▁Le	-1582
▁langu	-1583
▁taking	-1584
ots	-1585
▁named	-1586
▁picture	-1587
▁class	-1588
fl	-1589
▁aw	-1590
▁dear	-1591
▁movie	-1592
▁wrong	-1593
▁lost	-1594
▁sort	-1595
▁cir	-1596
een	-1597
▁certain	-1598
▁several	-1599
▁sat	-1600
itish	-1601
▁former	-1602
▁beautiful	-1603
OU	-1604
▁sal	-1605
▁friends	-1606
▁erm	-1607
▁less	-1608
ully	-1609
arl	-1610
▁pos	-1611
velop	-1612
orrow	-1613
ajor	-1614
oman	-1615
med	-1616
ards	-1617
ounds	-1618
▁box	-1619
▁pat	-1620
urope	-1621
▁individ	-1622
▁ori	-1623
▁comple	-1624
▁business	-1625
ffe	-1626
▁line	-1627
used	-1628
▁cost	-1629
▁phone	-1630
▁chang	-1631
▁det	-1632
ama	-1633
▁mount	-1634
els	-1635
▁prob	-1636
ured	-1637
▁moment	-1638
ler	-1639
▁ter	-1640
LO	-1641
▁expl	-1642
ze	-1643
ement	-1644
▁guess	-1645
▁someone	-1646
▁week	-1647
apan	-1648
▁river	-1649
▁taken	-1650
▁words	-1651
▁win	-1652
▁ten	-1653
▁la	-1654
ograp	-1655
ief	-1656
▁hey	-1657
▁squ	-1658
▁hungry	-1659
▁early	-1660
▁inside	-1661
▁island	-1662
▁grand	-1663
▁current	-1664
wer	-1665
▁report	-1666
▁Some	-1667
▁brought	-1668
▁mot	-1669
▁ground	-1670
▁lear	-1671
ley	-1672
▁begin	-1673
▁Q	-1674
▁case	-1675
▁idea	-1676
▁tree	-1677
ones	-1678
▁twenty	-1679
COL	-1680
▁comes	-1681
ged	-1682
ality	-1683
▁body	-1684
▁floor	-1685
ning	-1686
▁job	-1687
▁occ	-1688
▁able	-1689
▁fine	-1690
▁important	-1691
wh	-1692
▁ve	-1693
▁rece	-1694
mp	-1695
com	-1696
▁stuff	-1697
▁turned	-1698
irth	-1699
eor	-1700
umb	-1701
▁Are	-1702
arch	-1703
▁using	-1704
▁makes	-1705
▁cond	-1706
▁across	-1707
ided	-1708
utes	-1709
▁dem	-1710
ives	-1711
▁soc	-1712
▁Gr	-1713
▁fish	-1714
▁cook	-1715
ention	-1716
▁seven	-1717
You	-1718
board	-1719
▁guys	-1720
▁series	-1721
▁wouldn	-1722
ner	-1723
room	-1724
▁Count	-1725
▁adv	-1726
▁ann	-1727
rence	-1728
▁Will	-1729
▁Look	-1730
itten	-1731
alth	-1732
▁strong	-1733
▁oper	-1734
▁given	-1735
reat	-1736
▁held	-1737
fully	-1738
ai	-1739
▁cor	-1740
▁past	-1741
▁Er	-1742
▁located	-1743
▁inform	-1744
rog	-1745
▁bird	-1746
men	-1747
ises	-1748
▁def	-1749
▁released	-1750
▁Fl	-1751
arent	-1752
▁sea	-1753
▁poor	-1754
▁origin	-1755
iddle	-1756
▁opp	-1757
▁requ	-1758
▁mm	-1759
▁pull	-1760
▁quick	-1761
ode	-1762
▁sum	-1763
urch	-1764
▁program	-1765
▁Bl	-1766
▁cam	-1767
▁soft	-1768
▁develop	-1769
▁matter	-1770
▁others	-1771
ration	-1772
▁var	-1773
▁sister	-1774
▁company	-1775
▁compet	-1776
itc	-1777
vision	-1778
pr	-1779
aim	-1780
gue	-1781
uct	-1782
ford	-1783
▁typ	-1784
▁horse	-1785
owd	-1786
▁adm	-1787
▁rather	-1788
ept	-1789
▁Pro	-1790
▁term	-1791
▁sir	-1792
▁grass	-1793
ically	-1794
▁lay	-1795
▁exc	-1796
▁Where	-1797
cy	-1798
EN	-1799
icy	-1800
▁Or	-1801
▁jack	-1802
▁happy	-1803
",	-1804
▁Did	-1805
ored	-1806
▁american	-1807
▁probably	-1808
▁profess	-1809
ON	-1810
though	-1811
imb	-1812
▁Tr	-1813
sc	-1814
▁Who	-1815
▁egg	-1816
aced	-1817
▁lo	-1818
▁dead	-1819
pped	-1820
▁After	-1821
▁sometimes	-1822
▁ago	-1823
▁stri	-1824
uals	-1825
▁chair	-1826
▁Man	-1827
▁clot	-1828
▁har	-1829
▁cross	-1830
cha	-1831
▁,	-1832
▁fell	-1833
▁common	-1834
head	-1835
ected	-1836
▁tem	-1837
UN	-1838
▁English	-1839
▁kids	-1840
selves	-1841
▁Sarah	-1842
▁plan	-1843
eb	-1844
▁lived	-1845
▁member	-1846
where	-1847
▁order	-1848
▁wonder	-1849
ma	-1850
aughter	-1851
con	-1852
read	-1853
▁orange	-1854
ald	-1855
ining	-1856
▁county	-1857
▁contro	-1858
olly	-1859
▁hope	-1860
ears	-1861
ived	-1862
ondon	-1863
▁felt	-1864
que	-1865
▁Mot	-1866
▁happen	-1867
▁birth	-1868
▁living	-1869
oke	-1870
ruary	-1871
▁change	-1872
lf	-1873
▁late	-1874
▁grow	-1875
ted	-1876
ara	-1877
▁object	-1878
▁bur	-1879
ently	-1880
▁bott	-1881
▁sand	-1882
iously	-1883
▁beach	-1884
.”	-1885
▁design	-1886
▁Ap	-1887
▁free	-1888
▁letter	-1889
▁Her	-1890
ency	-1891
not	-1892
hi	-1893
▁dou	-1894
▁among	-1895
▁including	-1896
▁glass	-1897
cember	-1898
▁Car	-1899
▁true	-1900
▁ice	-1901
▁Adam	-1902
▁become	-1903
▁wand	-1904
▁deal	-1905
joy	-1906
▁vill	-1907
Oh	-1908
ha	-1909
gest	-1910
ula	-1911
▁clear	-1912
▁president	-1913
ousand	-1914
ead	-1915
eter	-1916
haps	-1917
ship	-1918
▁wife	-1919
ract	-1920
▁bag	-1921
▁mer	-1922
inner	-1923
ulation	-1924
▁question	-1925
bur	-1926
▁store	-1927
▁either	-1928
▁Dr	-1929
▁plays	-1930
born	-1931
▁Right	-1932
▁background	-1933
▁ra	-1934
▁myself	-1935
▁hon	-1936
▁swim	-1937
▁major	-1938
▁York	-1939
▁crowd	-1940
▁district	-1941
GLO	-1942
ology	-1943
▁listen	-1944
▁Ex	-1945
▁exper	-1946
▁uhhuh	-1947
ached	-1948
▁sold	-1949
▁mouth	-1950
▁Per	-1951
▁herself	-1952
▁fig	-1953
cent	-1954
▁wants	-1955
phone	-1956
▁million	-1957
▁av	-1958
▁equ	-1959
▁single	-1960
▁thousand	-1961
▁support	-1962
▁history	-1963
▁west	-1964
▁minute	-1965
ham	-1966
▁Good	-1967
ording	-1968
NA	-1969
co	-1970
aged	-1971
▁within	-1972
▁couldn	-1973
irty	-1974
raz	-1975
▁seemed	-1976
▁minutes	-1977
▁gold	-1978
▁however	-1979
▁tou	-1980
idge	-1981
ping	-1982
▁County	-1983
uced	-1984
▁enjoy	-1985
ances	-1986
▁memb	-1987
▁alone	-1988
▁stat	-1989
▁repl	-1990
▁appro	-1991
AI	-1992
▁star	-1993
ider	-1994
▁fair	-1995
▁commun	-1996
▁intern	-1997
▁century	-1998
▁television	-1999
,”	-2000
rian	-2001
tain	-2002
but	-2003
▁attack	-2004
▁pu	-2005
▁hit	-2006
▁feet	-2007
▁trou	-2008
▁ir	-2009
▁ill	-2010
▁least	-2011
▁charac	-2012
▁milk	-2013
▁elect	-2014
▁El	-2015
▁Bro	-2016
ule	-2017
ior	-2018
lling	-2019
It	-2020
▁Gu	-2021
▁third	-2022
▁tom	-2023
▁With	-2024
isp	-2025
▁reason	-2026
▁built	-2027
▁learn	-2028
che	-2029
▁val	-2030
▁block	-2031
osp	-2032
▁bear	-2033
ustral	-2034
▁allow	-2035
▁club	-2036
bs	-2037
▁capital	-2038
▁Wor	-2039
uthor	-2040
dom	-2041
----	-2042
eptember	-2043
▁books	-2044
▁mine	-2045
▁France	-2046
▁magnet	-2047
▁haven	-2048
▁shop	-2049
▁usually	-2050
ising	-2051
ued	-2052
▁Cr	-2053
yl	-2054
▁Con	-2055
▁gotta	-2056
▁succ	-2057
▁general	-2058
ana	-2059
▁pot	-2060
anger	-2061
▁couple	-2062
▁members	-2063
▁draw	-2064
uts	-2065
▁special	-2066
▁corn	-2067
ef	-2068
▁sol	-2069
chn	-2070
▁information	-2071
owers	-2072
▁pounds	-2073
ays	-2074
▁cold	-2075
▁ones	-2076
▁pain	-2077
▁toy	-2078
ories	-2079
▁French	-2080
▁written	-2081
▁worked	-2082
▁Phil	-2083
▁fav	-2084
ended	-2085
attle	-2086
▁middle	-2087
▁teac	-2088
▁September	-2089
MEL	-2090
▁mess	-2091
▁partic	-2092
empt	-2093
▁fem	-2094
▁view	-2095
ampions	-2096
avid	-2097
▁People	-2098
▁Pl	-2099
fic	-2100
▁buy	-2101
▁Paul	-2102
▁language	-2103
rs	-2104
▁lik	-2105
▁port	-2106
▁above	-2107
▁Your	-2108
▁success	-2109
▁Three	-2110
era	-2111
▁pink	-2112
▁arm	-2113
▁eating	-2114
▁rev	-2115
▁leng	-2116
▁nort	-2117
▁animals	-2118
▁wat	-2119
▁clean	-2120
▁#	-2121
aly	-2122
OR	-2123
fort	-2124
▁phot	-2125
▁east	-2126
▁based	-2127
▁event	-2128
▁window	-2129
▁human	-2130
let	-2131
▁visit	-2132
inet	-2133
▁smil	-2134
itar	-2135
▁Rep	-2136
▁nine	-2137
▁step	-2138
fer	-2139
ls	-2140
atic	-2141
▁tried	-2142
▁butter	-2143
▁yep	-2144
▁office	-2145
▁bow	-2146
▁god	-2147
resent	-2148
ffect	-2149
▁forg	-2150
▁fly	-2151
▁low	-2152
▁January	-2153
▁boat	-2154
▁test	-2155
ruction	-2156
▁towards	-2157
▁defe	-2158
▁fur	-2159
▁wish	-2160
abb	-2161
ection	-2162
▁March	-2163
▁lives	-2164
▁married	-2165
▁yourself	-2166
ket	-2167
ruct	-2168
▁post	-2169
▁hurt	-2170
▁funny	-2171
▁killed	-2172
mas	-2173
ermany	-2174
▁fifty	-2175
IC	-2176
▁prep	-2177
▁bes	-2178
▁quiet	-2179
▁daughter	-2180
pill	-2181
▁Daddy	-2182
▁fix	-2183
▁problem	-2184
▁Bar	-2185
▁frog	-2186
▁gener	-2187
▁pract	-2188
▁World	-2189
▁author	-2190
eared	-2191
go	-2192
ager	-2193
iation	-2194
oe	-2195
▁lab	-2196
▁effect	-2197
no	-2198
▁div	-2199
ele	-2200
▁cast	-2201
▁je	-2202
▁heav	-2203
aterpill	-2204
▁moon	-2205
tle	-2206
▁level	-2207
▁trees	-2208
▁jacket	-2209
nina	-2210
▁Har	-2211
▁Here	-2212
▁season	-2213
▁station	-2214
▁takes	-2215
CHILD	-2216
▁Pres	-2217
▁months	-2218
urs	-2219
point	-2220
▁rain	-2221
▁August	-2222
ino	-2223
itchen	-2224
ffee	-2225
▁mur	-2226
▁individuals	-2227
▁check	-2228
▁examp	-2229
band	-2230
iod	-2231
▁throw	-2232
▁Ben	-2233
acing	-2234
ases	-2235
more	-2236
▁gets	-2237
▁riding	-2238
▁themselves	-2239
ky	-2240
ius	-2241
▁send	-2242
▁Sw	-2243
▁following	-2244
▁War	-2245
▁result	-2246
▁mun	-2247
▁dogs	-2248
▁norm	-2249
itch	-2250
▁works	-2251
▁whether	-2252
▁fast	-2253
▁trad	-2254
lease	-2255
eorge	-2256
▁?	-2257
▁film	-2258
ization	-2259
▁tape	-2260
▁kitchen	-2261
▁tit	-2262
▁These	-2263
▁Ab	-2264
icks	-2265
ude	-2266
▁Comm	-2267
illy	-2268
por	-2269
▁cop	-2270
mother	-2271
▁ins	-2272
▁yup	-2273
ouncil	-2274
▁tea	-2275
▁super	-2276
asure	-2277
▁race	-2278
ified	-2279
▁iss	-2280
▁cell	-2281
▁ship	-2282
▁wrote	-2283
la	-2284
ege	-2285
▁Am	-2286
ument	-2287
▁vide	-2288
▁church	-2289
▁waiting	-2290
entle	-2291
▁tour	-2292
CHILDES	-2293
▁childes	-2294
▁seems	-2295
yn	-2296
oved	-2297
uce	-2298
ician	-2299
▁vict	-2300
aterpillar	-2301
▁Me	-2302
▁Because	-2303
▁Every	-2304
▁blood	-2305
▁moved	-2306
ada	-2307
ales	-2308
▁vol	-2309
▁hang	-2310
▁dream	-2311
▁coffee	-2312
ffic	-2313
▁till	-2314
▁mid	-2315
amb	-2316
▁truck	-2317
▁finished	-2318
AL	-2319
udd	-2320
▁British	-2321
▁danc	-2322
▁prop	-2323
▁population	-2324
▁April	-2325
▁press	-2326
▁particular	-2327
▁earth	-2328
▁bright	-2329
▁dev	-2330
▁sca	-2331
unk	-2332
rican	-2333
▁incre	-2334
merica	-2335
walk	-2336
work	-2337
▁obs	-2338
▁circ	-2339
▁thinking	-2340
rod	-2341
conom	-2342
▁fing	-2343
▁da	-2344
uit	-2345
▁Je	-2346
▁ran	-2347
What	-2348
▁vi	-2349
▁Col	-2350
aine	-2351
▁rul	-2352
▁direct	-2353
▁♪	-2354
▁Was	-2355
astic	-2356
▁guitar	-2357
dden	-2358
▁gun	-2359
▁mic	-2360
▁hig	-2361
▁October	-2362
ampionship	-2363
▁kept	-2364
▁stage	-2365
lex	-2366
▁Mm	-2367
oyal	-2368
▁Russ	-2369
▁Ne	-2370
▁Europe	-2371
▁instead	-2372
▁YOU	-2373
▁ride	-2374
▁David	-2375
▁track	-2376
▁chance	-2377
▁Of	-2378
ille	-2379
raid	-2380
▁dad	-2381
▁stands	-2382
Chi	-2383
▁fa	-2384
▁local	-2385
▁parent	-2386
▁hours	-2387
▁match	-2388
▁comput	-2389
▁service	-2390
▁possible	-2391
iety	-2392
▁period	-2393
▁news	-2394
▁birthday	-2395
▁sudden	-2396
▁toys	-2397
▁popular	-2398
▁hi	-2399
omin	-2400
for	-2401
ival	-2402
ublic	-2403
▁hors	-2404
▁techn	-2405
▁municip	-2406
▁hop	-2407
▁doctor	-2408
iny	-2409
raft	-2410
▁whose	-2411
▁Tom	-2412
▁rad	-2413
oof	-2414
▁clothes	-2415
▁ant	-2416
▁stra	-2417
▁market	-2418
▁dest	-2419
▁hill	-2420
▁surpr	-2421
▁answer	-2422
Yes	-2423
hold	-2424
▁reading	-2425
▁Please	-2426
GAI	-2427
▁eye	-2428
▁easy	-2429
▁glad	-2430
▁famous	-2431
▁process	-2432
▁character	-2433
▁cried	-2434
ges	-2435
▁tur	-2436
▁slow	-2437
▁created	-2438
▁ton	-2439
ounced	-2440
▁largest	-2441
gar	-2442
iding	-2443
▁cand	-2444
▁page	-2445
▁watching	-2446
▁ring	-2447
▁By	-2448
▁gra	-2449
anish	-2450
idence	-2451
▁space	-2452
▁abs	-2453
acy	-2454
▁male	-2455
▁secret	-2456
▁due	-2457
▁gard	-2458
▁cover	-2459
GR	-2460
▁bath	-2461
▁court	-2462
▁University	-2463
▁Min	-2464
▁arms	-2465
▁older	-2466
ced	-2467
anta	-2468
▁northern	-2469
▁tomorrow	-2470
▁ang	-2471
▁arri	-2472
AS	-2473
▁hell	-2474
▁longer	-2475
▁village	-2476
lin	-2477
▁hus	-2478
▁games	-2479
▁dro	-2480
RE	-2481
▁served	-2482
HS	-2483
▁dinner	-2484
▁tot	-2485
No	-2486
▁fre	-2487
▁example	-2488
▁led	-2489
▁deep	-2490
omb	-2491
▁pic	-2492
▁sus	-2493
▁gentle	-2494
▁paint	-2495
▁complete	-2496
▁aud	-2497
itary	-2498
▁army	-2499
▁sweet	-2500
▁sout	-2501
ploy	-2502
▁bank	-2503
▁summer	-2504
▁Christmas	-2505
▁catch	-2506
▁noise	-2507
▁ah	-2508
▁fill	-2509
▁activ	-2510
▁somebody	-2511
lo	-2512
▁passed	-2513
▁invol	-2514
▁climb	-2515
▁touch	-2516
▁diffic	-2517
bt	-2518
▁nat	-2519
▁Mary	-2520
▁perhaps	-2521
▁Sir	-2522
▁trouble	-2523
▁AN	-2524
▁City	-2525
▁priv	-2526
ror	-2527
▁afraid	-2528
▁President	-2529
▁sou	-2530
itions	-2531
▁carrying	-2532
emy	-2533
then	-2534
▁writing	-2535
▁represent	-2536
ken	-2537
itz	-2538
usic	-2539
▁England	-2540
nes	-2541
▁...	-2542
And	-2543
▁$	-2544
bor	-2545
itty	-2546
▁cars	-2547
▁ep	-2548
ggest	-2549
▁police	-2550
▁suggest	-2551
par	-2552
▁mist	-2553
iff	-2554
▁ya	-2555
▁places	-2556
▁Marky	-2557
▁estab	-2558
▁female	-2559
▁professional	-2560
▁stood	-2561
ogn	-2562
reen	-2563
▁desc	-2564
▁march	-2565
▁camera	-2566
▁July	-2567
▁roll	-2568
▁ord	-2569
▁invest	-2570
▁attempt	-2571
over	-2572
▁control	-2573
▁university	-2574
▁prison	-2575
▁sport	-2576
▁forget	-2577
▁husband	-2578
ael	-2579
west	-2580
▁rese	-2581
uel	-2582
▁net	-2583
▁caterpillar	-2584
ocr	-2585
ades	-2586
▁pal	-2587
▁cool	-2588
▁whom	-2589
ED	-2590
ox	-2591
▁board	-2592
▁motor	-2593
▁received	-2594
agon	-2595
▁rail	-2596
▁aren	-2597
▁changed	-2598
olution	-2599
▁ow	-2600
ato	-2601
bert	-2602
cean	-2603
▁crit	-2604
▁Mother	-2605
▁perfect	-2606
.'	-2607
We	-2608
▁econom	-2609
▁Par	-2610
▁pictures	-2611
iers	-2612
▁fed	-2613
▁exact	-2614
uke	-2615
▁video	-2616
▁finish	-2617
▁position	-2618
play	-2619
▁clos	-2620
▁bri	-2621
uture	-2622
▁cake	-2623
ission	-2624
▁Se	-2625
oves	-2626
▁‘	-2627
ging	-2628
oose	-2629
▁although	-2630
look	-2631
▁bike	-2632
hel	-2633
rey	-2634
▁mach	-2635
▁daddy	-2636
▁everybody	-2637
ilar	-2638
ume	-2639
▁forest	-2640
epend	-2641
▁english	-2642
'.	-2643
▁final	-2644
▁sounds	-2645
▁From	-2646
▁ahead	-2647
▁career	-2648
▁mountain	-2649
▁Sec	-2650
▁esc	-2651
▁educ	-2652
▁House	-2653
▁weeks	-2654
▁proper	-2655
apanese	-2656
ello	-2657
ushed	-2658
▁bene	-2659
alian	-2660
▁Part	-2661
oot	-2662
▁returned	-2663
ination	-2664
▁!	-2665
▁Cap	-2666
▁National	-2667
▁bill	-2668
▁vers	-2669
▁honey	-2670
▁appear	-2671
▁flowers	-2672
▁cry	-2673
▁save	-2674
▁agre	-2675
▁cause	-2676
aff	-2677
▁Em	-2678
▁miles	-2679
▁caught	-2680
atter	-2681
ida	-2682
▁hous	-2683
▁cow	-2684
▁safe	-2685
bl	-2686
▁TO	-2687
▁lad	-2688
▁knows	-2689
ris	-2690
▁aut	-2691
▁wild	-2692
▁center	-2693
▁evening	-2694
▁everyone	-2695
▁mis	-2696
▁seat	-2697
bre	-2698
mon	-2699
▁central	-2700
▁political	-2701
▁fail	-2702
▁pen	-2703
▁meant	-2704
met	-2705
ivil	-2706
▁jour	-2707
▁except	-2708
▁straight	-2709
rit	-2710
oles	-2711
▁drive	-2712
▁anyone	-2713
▁jumping	-2714
ek	-2715
ander	-2716
field	-2717
But	-2718
▁goin	-2719
▁include	-2720
▁Jack	-2721
uction	-2722
▁London	-2723
▁recogn	-2724
▁decided	-2725
urity	-2726
AUN	-2727
▁ben	-2728
▁South	-2729
▁western	-2730
▁Ah	-2731
▁Cal	-2732
uk	-2733
ask	-2734
burg	-2735
▁warm	-2736
cher	-2737
▁susp	-2738
overed	-2739
▁ninet	-2740
▁treat	-2741
▁fle	-2742
iforn	-2743
laughing	-2744
▁self	-2745
▁basket	-2746
▁currently	-2747
come	-2748
▁account	-2749
you	-2750
lymp	-2751
shire	-2752
▁situ	-2753
▁thirty	-2754
▁health	-2755
aud	-2756
▁heavy	-2757
▁spell	-2758
▁future	-2759
eal	-2760
iant	-2761
▁Dad	-2762
▁nor	-2763
▁convers	-2764
▁singing	-2765
▁tall	-2766
ovember	-2767
▁rule	-2768
▁refer	-2769
ebruary	-2770
▁parents	-2771
▁various	-2772
▁Ag	-2773
aves	-2774
inist	-2775
▁fort	-2776
▁Asian	-2777
▁points	-2778
ceed	-2779
line	-2780
▁non	-2781
▁neigh	-2782
ifornia	-2783
▁kiss	-2784
]?	-2785
ichard	-2786
▁teacher	-2787
▁official	-2788
▁key	-2789
▁putting	-2790
ressed	-2791
▁pack	-2792
▁knock	-2793
▁busy	-2794
▁wide	-2795
▁sidewalk	-2796
sey	-2797
▁infl	-2798
▁micro	-2799
▁X	-2800
▁hosp	-2801
ums	-2802
▁Dor	-2803
▁esp	-2804
▁Indian	-2805
▁Che	-2806
▁danger	-2807
ray	-2808
▁international	-2809
ico	-2810
wood	-2811
▁figure	-2812
HV	-2813
▁relig	-2814
yle	-2815
sidered	-2816
▁singer	-2817
▁considered	-2818
▁cult	-2819
▁award	-2820
▁engine	-2821
▁telling	-2822
▁cy	-2823
▁Get	-2824
▁tonight	-2825
▁surround	-2826
▁June	-2827
omer	-2828
asing	-2829
▁league	-2830
ustralia	-2831
LLD	-2832
▁conn	-2833
▁cannot	-2834
▁garden	-2835
▁quickly	-2836
ccer	-2837
HSLLD	-2838
points	-2839
▁cream	-2840
▁needs	-2841
▁shoes	-2842
▁opened	-2843
▁lim	-2844
▁pool	-2845
▁expect	-2846
▁soccer	-2847
▁favor	-2848
▁pieces	-2849
▁broke	-2850
▁countries	-2851
▁hall	-2852
▁shot	-2853
▁project	-2854
▁mass	-2855
iger	-2856
▁mommy	-2857
▁giving	-2858
▁eld	-2859
▁compan	-2860
▁Have	-2861
▁fellow	-2862
▁discuss	-2863
▁jud	-2864
▁However	-2865
▁suit	-2866
▁politician	-2867
▁role	-2868
ference	-2869
▁anc	-2870
▁coat	-2871
▁dance	-2872
iday	-2873
edd	-2874
rug	-2875
▁Acc	-2876
time	-2877
vered	-2878
,--	-2879
▁loud	-2880
inging	-2881
ran	-2882
▁parts	-2883
▁worth	-2884
▁November	-2885
▁problems	-2886
▁whatever	-2887
▁construction	-2888
▁gray	-2889
▁type	-2890
▁spend	-2891
icle	-2892
teen	-2893
▁ham	-2894
▁burn	-2895
▁ocean	-2896
▁yours	-2897
▁forward	-2898
▁published	-2899
aining	-2900
▁tired	-2901
athe	-2902
▁North	-2903
▁study	-2904
▁comb	-2905
▁lunch	-2906
imate	-2907
▁cart	-2908
ET	-2909
order	-2910
▁bicy	-2911
▁decl	-2912
▁Maybe	-2913
▁George	-2914
▁February	-2915
▁fear	-2916
▁wear	-2917
▁disapp	-2918
▁die	-2919
▁Uh	-2920
▁fit	-2921
▁claim	-2922
ecially	-2923
▁accept	-2924
▁indust	-2925
▁ju	-2926
uted	-2927
▁ut	-2928
▁viol	-2929
▁reached	-2930
▁laughing	-2931
▁difficult	-2932
Well	-2933
bers	-2934
▁exec	-2935
▁product	-2936
▁December	-2937
▁belong	-2938
▁anymore	-2939
▁stopped	-2940
▁followed	-2941
iced	-2942
like	-2943
▁similar	-2944
gie	-2945
▁spir	-2946
▁certainly	-2947
ences	-2948
▁founded	-2949
essie	-2950
▁grew	-2951
▁holds	-2952
▁walks	-2953
▁puzz	-2954
▁manage	-2955
▁master	-2956
▁computer	-2957
ww	-2958
▁di	-2959
▁mad	-2960
lands	-2961
▁card	-2962
▁phys	-2963
,'	-2964
IT	-2965
ires	-2966
ption	-2967
▁truth	-2968
▁stone	-2969
▁corner	-2970
▁stro	-2971
itional	-2972
Th	-2973
▁meeting	-2974
ply	-2975
▁host	-2976
▁force	-2977
▁separ	-2978
▁noises	-2979
▁Sund	-2980
iament	-2981
ites	-2982
ament	-2983
▁peace	-2984
▁sept	-2985
▁beginning	-2986
▁Sm	-2987
▁km	-2988
reek	-2989
▁ver	-2990
▁prev	-2991
▁lau	-2992
▁metal	-2993
▁german	-2994
eg	-2995
ichael	-2996
▁path	-2997
▁While	-2998
▁IN	-2999
▁fund	-3000
▁social	-3001
▁assoc	-3002
▁feeling	-3003
▁Any	-3004
▁obser	-3005
▁Sis	-3006
razil	-3007
▁sick	-3008
▁Eve	-3009
▁battle	-3010
▁earl	-3011
▁ident	-3012
iform	-3013
▁employ	-3014
▁moving	-3015
ests	-3016
▁bal	-3017
thened	-3018
▁consider	-3019
▁luck	-3020
terday	-3021
ville	-3022
▁suppose	-3023
▁mix	-3024
itive	-3025
▁animal	-3026
TER	-3027
▁Pol	-3028
af	-3029
aser	-3030
▁mult	-3031
▁pants	-3032
▁beside	-3033
▁exactly	-3034
▁mem	-3035
nce	-3036
▁entire	-3037
▁concern	-3038
ees	-3039
itted	-3040
▁eleph	-3041
▁beat	-3042
▁hole	-3043
oph	-3044
▁nose	-3045
▁supposed	-3046
▁tax	-3047
▁wrest	-3048
▁horses	-3049
▁baseball	-3050
▁municipality	-3051
lic	-3052
osaur	-3053
▁West	-3054
▁legal	-3055
▁uncle	-3056
▁covered	-3057
▁pair	-3058
▁exist	-3059
▁surf	-3060
vir	-3061
▁See	-3062
▁ain	-3063
▁province	-3064
val	-3065
▁dam	-3066
ilver	-3067
▁military	-3068
▁september	-3069
▁)	-3070
▁broken	-3071
▁species	-3072
ids	-3073
▁dut	-3074
▁protect	-3075
▁Edna	-3076
stairs	-3077
▁histor	-3078
▁original	-3079
▁thr	-3080
lt	-3081
▁sky	-3082
▁imag	-3083
uses	-3084
ips	-3085
inal	-3086
▁storm	-3087
▁winter	-3088
▁mention	-3089
▁further	-3090
▁gar	-3091
▁indeed	-3092
▁appeared	-3093
▁Urs	-3094
▁sex	-3095
encil	-3096
▁civil	-3097
▁coast	-3098
▁modern	-3099
▁january	-3100
ustration	-3101
▁respons	-3102
▁Like	-3103
▁chick	-3104
▁trust	-3105
▁gas	-3106
▁William	-3107
▁strange	-3108
bles	-3109
▁quar	-3110
▁During	-3111
▁sevent	-3112
▁phil	-3113
▁services	-3114
cell	-3115
▁swimming	-3116
roy	-3117
str	-3118
▁signific	-3119
▁yesterday	-3120
ators	-3121
▁sits	-3122
▁doubt	-3123
▁itself	-3124
do	-3125
▁college	-3126
▁percent	-3127
II	-3128
omes	-3129
▁onto	-3130
▁sail	-3131
▁leaving	-3132
▁october	-3133
▁bra	-3134
▁shoot	-3135
▁travel	-3136
ift	-3137
riage	-3138
▁arch	-3139
▁pers	-3140
▁den	-3141
▁drop	-3142
▁july	-3143
kn	-3144
▁title	-3145
▁produced	-3146
▁CH	-3147
▁Su	-3148
▁Te	-3149
▁april	-3150
▁enc	-3151
rible	-3152
ograph	-3153
▁x	-3154
lim	-3155
▁Ke	-3156
pper	-3157
▁Thanks	-3158
ux	-3159
▁Hum	-3160
istan	-3161
▁apple	-3162
▁hospital	-3163
music	-3164
noon	-3165
▁Lea	-3166
▁shows	-3167
ria	-3168
▁adult	-3169
▁pencil	-3170
▁ii	-3171
▁Act	-3172
ression	-3173
LE	-3174
resh	-3175
▁carried	-3176
OM	-3177
▁Gl	-3178
▁feat	-3179
▁august	-3180
▁leaves	-3181
▁neck	-3182
▁runs	-3183
ocol	-3184
ables	-3185
▁cheese	-3186
▁especially	-3187
▁uniform	-3188
lect	-3189
▁Lord	-3190
▁names	-3191
▁leader	-3192
well	-3193
night	-3194
▁sense	-3195
▁independ	-3196
▁nove	-3197
isc	-3198
yer	-3199
▁Cent	-3200
▁leaf	-3201
▁blond	-3202
itor	-3203
▁glasses	-3204
AY	-3205
▁anyway	-3206
hood	-3207
what	-3208
▁Mc	-3209
▁capt	-3210
▁afternoon	-3211
▁lying	-3212
reme	-3213
▁tast	-3214
▁Sunday	-3215
▁according	-3216
hin	-3217
oop	-3218
▁Bo	-3219
▁lie	-3220
useum	-3221
▁Char	-3222
▁Even	-3223
▁tail	-3224
hington	-3225
hem	-3226
▁studio	-3227
▁Gen	-3228
▁europe	-3229
▁sleeping	-3230
ops	-3231
▁lengthened	-3232
▁Sat	-3233
fly	-3234
▁Mer	-3235
▁Jane	-3236
▁Peter	-3237
▁subject	-3238
yr	-3239
▁EX	-3240
ensive	-3241
▁areas	-3242
ira	-3243
ends	-3244
omen	-3245
reet	-3246
▁Tex	-3247
▁excl	-3248
▁seated	-3249
▁wooden	-3250
▁smiling	-3251
iated	-3252
▁Hello	-3253
▁british	-3254
▁dancing	-3255
▁natural	-3256
ught	-3257
▁sch	-3258
▁plann	-3259
ibility	-3260
▁necess	-3261
▁Ange	-3262
▁bull	-3263
▁eighty	-3264
aker	-3265
▁San	-3266
▁bell	-3267
▁allowed	-3268
▁november	-3269
elebr	-3270
▁assist	-3271
▁kingdom	-3272
▁Ald	-3273
that	-3274
▁Great	-3275
▁circle	-3276
▁purple	-3277
▁careful	-3278
oly	-3279
▁sight	-3280
fast	-3281
AP	-3282
▁din	-3283
▁liked	-3284
▁attention	-3285
That	-3286
▁cho	-3287
▁avail	-3288
▁starts	-3289
▁lose	-3290
▁elder	-3291
ouis	-3292
owing	-3293
▁dere	-3294
ym	-3295
lla	-3296
▁happens	-3297
US	-3298
olute	-3299
▁Santa	-3300
▁impro	-3301
wered	-3302
▁Party	-3303
▁Ear	-3304
▁hast	-3305
▁legs	-3306
▁sell	-3307
▁Germany	-3308
He	-3309
▁below	-3310
▁worry	-3311
▁anybody	-3312
alt	-3313
▁ris	-3314
viron	-3315
▁Roman	-3316
▁plate	-3317
hod	-3318
▁chief	-3319
▁speaking	-3320
iate	-3321
▁amount	-3322
▁joined	-3323
▁shorts	-3324
▁players	-3325
▁Ma	-3326
▁lake	-3327
▁french	-3328
▁Que	-3329
▁doc	-3330
▁private	-3331
▁ge	-3332
▁southern	-3333
urday	-3334
▁lift	-3335
▁offe	-3336
western	-3337
▁foc	-3338
▁Hi	-3339
bour	-3340
chie	-3341
antic	-3342
▁site	-3343
▁struct	-3344
inese	-3345
▁softly	-3346
ya	-3347
▁OK	-3348
▁simply	-3349
▁inf	-3350
▁influ	-3351
▁Richard	-3352
▁letters	-3353
▁bridge	-3354
▁helped	-3355
oming	-3356
▁flag	-3357
▁england	-3358
ique	-3359
▁www	-3360
alley	-3361
▁celebr	-3362
▁answered	-3363
oops	-3364
▁aff	-3365
tered	-3366
▁forty	-3367
gypt	-3368
ourt	-3369
ography	-3370
Ill	-3371
▁OF	-3372
▁Hen	-3373
▁Cong	-3374
▁Bessie	-3375
▁bottom	-3376
amm	-3377
▁nearly	-3378
▁plastic	-3379
of	-3380
rael	-3381
▁broad	-3382
irm	-3383
enny	-3384
antly	-3385
uments	-3386
▁sugar	-3387
▁toward	-3388
▁mater	-3389
▁America	-3390
▁]	-3391
▁Vis	-3392
▁Sorry	-3393
▁State	-3394
rel	-3395
ancy	-3396
▁German	-3397
▁formed	-3398
▁suddenly	-3399
▁total	-3400
▁nobody	-3401
anch	-3402
▁Park	-3403
▁john	-3404
▁actor	-3405
▁regard	-3406
▁AND	-3407
▁sad	-3408
▁Baby	-3409
▁reach	-3410
ago	-3411
ien	-3412
othy	-3413
▁feb	-3414
silver	-3415
▁director	-3416
▁arr	-3417
▁oppos	-3418
Illustration	-3419
oted	-3420
▁bye	-3421
▁february	-3422
view	-3423
▁sour	-3424
▁needed	-3425
▁continued	-3426
▁questions	-3427
oken	-3428
▁rob	-3429
worth	-3430
▁Four	-3431
▁bottle	-3432
ergy	-3433
shirt	-3434
▁Jeff	-3435
▁artist	-3436
omas	-3437
▁determ	-3438
igg	-3439
▁championship	-3440
off	-3441
▁Tur	-3442
cast	-3443
gress	-3444
▁grad	-3445
▁rich	-3446
▁stars	-3447
tt	-3448
▁arg	-3449
▁feed	-3450
▁share	-3451
ipped	-3452
▁introd	-3453
▁machine	-3454
▁union	-3455
▁Jer	-3456
▁White	-3457
▁hello	-3458
▁plant	-3459
▁According	-3460
▁performance	-3461
ID	-3462
fit	-3463
set	-3464
▁Cor	-3465
▁Red	-3466
▁performing	-3467
▁loved	-3468
▁purp	-3469
▁James	-3470
▁carry	-3471
▁workers	-3472
LL	-3473
▁sen	-3474
▁wel	-3475
iving	-3476
▁cloud	-3477
▁En	-3478
▁imm	-3479
▁meat	-3480
▁tiny	-3481
▁juice	-3482
vironment	-3483
▁calling	-3484
rect	-3485
▁exam	-3486
▁US	-3487
▁comfort	-3488
fact	-3489
▁pap	-3490
▁farm	-3491
▁spent	-3492
boy	-3493
ston	-3494
▁cust	-3495
▁First	-3496
▁charge	-3497
asons	-3498
▁bench	-3499
▁blank	-3500
▁council	-3501
▁interesting	-3502
za	-3503
ROG	-3504
ennis	-3505
▁accom	-3506
▁bread	-3507
▁fighting	-3508
▁research	-3509
▁community	-3510
▁mir	-3511
▁pet	-3512
▁scr	-3513
▁development	-3514
how	-3515
olf	-3516
▁vir	-3517
▁Aust	-3518
▁birds	-3519
▁smile	-3520
▁houses	-3521
ari	-3522
▁Ass	-3523
▁ais	-3524
▁epis	-3525
▁surv	-3526
▁blocks	-3527
▁helmet	-3528
▁likely	-3529
▁finally	-3530
▁“‘	-3531
▁tap	-3532
▁famil	-3533
▁bought	-3534
▁london	-3535
▁Mad	-3536
▁skate	-3537
▁caused	-3538
▁rights	-3539
▁starting	-3540
▁wonderful	-3541
cer	-3542
ini	-3543
▁june	-3544
▁rose	-3545
▁pit	-3546
▁rub	-3547
▁Port	-3548
iction	-3549
▁Texas	-3550
▁delight	-3551
▁bicycle	-3552
kin	-3553
▁coc	-3554
ential	-3555
▁christ	-3556
▁Ele	-3557
▁spl	-3558
▁crying	-3559
▁forgot	-3560
▁directed	-3561
▁IT	-3562
▁deg	-3563
▁rap	-3564
atory	-3565
incip	-3566
▁pun	-3567
▁van	-3568
▁earn	-3569
▁lock	-3570
▁jeans	-3571
▁available	-3572
▁december	-3573
nic	-3574
▁Ber	-3575
▁wheel	-3576
ny	-3577
aving	-3578
▁Nina	-3579
▁seeing	-3580
asc	-3581
▁Take	-3582
▁spoke	-3583
▁election	-3584
sy	-3585
hest	-3586
▁eff	-3587
▁pray	-3588
lished	-3589
▁finger	-3590
▁individual	-3591
▁distance	-3592
▁List	-3593
▁square	-3594
wr	-3595
▁ide	-3596
house	-3597
▁gaz	-3598
▁Many	-3599
incess	-3600
▁instr	-3601
▁Street	-3602
ils	-3603
▁bi	-3604
ental	-3605
▁scar	-3606
▁fresh	-3607
▁restaur	-3608
arm	-3609
bye	-3610
▁nar	-3611
▁wet	-3612
enced	-3613
inning	-3614
▁Somet	-3615
▁Qu	-3616
unity	-3617
▁Wait	-3618
▁chem	-3619
▁Fraser	-3620
▁dinosaur	-3621
▁conversation	-3622
RIC	-3623
arp	-3624
oid	-3625
light	-3626
▁prim	-3627
ij	-3628
va	-3629
▁puts	-3630
▁action	-3631
▁scared	-3632
▁driving	-3633
▁particip	-3634
reg	-3635
vad	-3636
▁Pal	-3637
▁insp	-3638
▁hy	-3639
ache	-3640
▁Ted	-3641
▁drug	-3642
▁thou	-3643
AM	-3644
ively	-3645
▁chann	-3646
atin	-3647
▁Sever	-3648
▁federal	-3649
ipe	-3650
▁Net	-3651
▁Bear	-3652
ushing	-3653
▁objects	-3654
▁material	-3655
▁butterfly	-3656
▁Erm	-3657
ending	-3658
▁address	-3659
▁respect	-3660
yond	-3661
▁Law	-3662
▁supper	-3663
iest	-3664
aches	-3665
▁Coll	-3666
▁eggs	-3667
▁thanks	-3668
▁Michael	-3669
▁replied	-3670
▁involved	-3671
EX	-3672
▁coun	-3673
▁init	-3674
▁ways	-3675
▁India	-3676
▁closed	-3677
▁drinking	-3678
▁flat	-3679
▁mail	-3680
▁Dorothy	-3681
▁inn	-3682
▁Olymp	-3683
ropical	-3684
▁bigger	-3685
▁added	-3686
▁administ	-3687
lass	-3688
▁Ann	-3689
▁Little	-3690
▁Saturday	-3691
▁education	-3692
olic	-3693
▁extra	-3694
▁ancient	-3695
▁officer	-3696
OW	-3697
ois	-3698
anie	-3699
▁weap	-3700
▁speed	-3701
▁Govern	-3702
▁lovely	-3703
▁puzzle	-3704
acks	-3705
inct	-3706
▁ought	-3707
▁royal	-3708
▁fourth	-3709
▁produc	-3710
▁established	-3711
▁scient	-3712
puts	-3713
▁dirt	-3714
▁chocol	-3715
▁stories	-3716
ateg	-3717
▁gri	-3718
▁Tell	-3719
▁kick	-3720
▁higher	-3721
AD	-3722
aus	-3723
stit	-3724
izing	-3725
roud	-3726
▁stock	-3727
▁filled	-3728
▁date	-3729
▁paid	-3730
▁breakfast	-3731
edy	-3732
aded	-3733
▁spring	-3734
▁Several	-3735
lam	-3736
▁emer	-3737
▁events	-3738
▁groups	-3739
▁raised	-3740
▁learned	-3741
▁Rob	-3742
xford	-3743
▁effort	-3744
de	-3745
oma	-3746
roat	-3747
vert	-3748
ients	-3749
▁destroy	-3750
CH	-3751
GRA	-3752
▁dig	-3753
ability	-3754
▁security	-3755
can	-3756
▁Co	-3757
asion	-3758
▁Queen	-3759
▁meaning	-3760
ify	-3761
ulf	-3762
▁push	-3763
▁radio	-3764
▁walked	-3765
▁&	-3766
rem	-3767
▁et	-3768
▁Black	-3769
▁novel	-3770
?”	-3771
▁Sy	-3772
▁Frank	-3773
▁brief	-3774
▁numbers	-3775
ams	-3776
ibly	-3777
ashion	-3778
▁relation	-3779
nal	-3780
▁inj	-3781
▁Italy	-3782
▁spread	-3783
▁attract	-3784
mond	-3785
▁Des	-3786
▁duck	-3787
▁liter	-3788
▁Jim	-3789
▁Rober	-3790
▁Intern	-3791
▁dropped	-3792
aimed	-3793
▁immed	-3794
ockey	-3795
▁showed	-3796
▁California	-3797
▁lots	-3798
▁discovered	-3799
aft	-3800
▁dry	-3801
▁size	-3802
▁jumps	-3803
ilities	-3804
oons	-3805
ummy	-3806
▁data	-3807
▁iron	-3808
▁offer	-3809
▁access	-3810
▁Captain	-3811
▁changes	-3812
▁describ	-3813
▁los	-3814
▁fence	-3815
▁stuck	-3816
▁placed	-3817
Why	-3818
▁Visit	-3819
▁model	-3820
▁newsp	-3821
▁straw	-3822
▁Although	-3823
IG	-3824
fri	-3825
▁shut	-3826
▁asking	-3827
▁developed	-3828
agn	-3829
fet	-3830
ledge	-3831
▁lines	-3832
▁shout	-3833
▁regular	-3834
▁students	-3835
rom	-3836
▁spot	-3837
▁Grand	-3838
▁guard	-3839
▁slight	-3840
▁promise	-3841
▁science	-3842
ashed	-3843
▁hero	-3844
▁Franc	-3845
▁chocolate	-3846
▁Washington	-3847
▁Our	-3848
ensus	-3849
makes	-3850
▁queen	-3851
▁Nor	-3852
itude	-3853
▁desp	-3854
orence	-3855
▁terms	-3856
▁whisp	-3857
▁financ	-3858
oms	-3859
▁und	-3860
▁favorite	-3861
▁training	-3862
▁somewhere	-3863
▁wa	-3864
peror	-3865
▁hate	-3866
ems	-3867
▁Ant	-3868
▁repe	-3869
▁chicken	-3870
▁languages	-3871
▁Jes	-3872
▁hol	-3873
iance	-3874
▁Lady	-3875
▁spoken	-3876
▁Minister	-3877
ords	-3878
rica	-3879
▁Med	-3880
▁teams	-3881
▁evidence	-3882
▁entertain	-3883
VE	-3884
itan	-3885
▁alive	-3886
▁sixty	-3887
▁leading	-3888
MA	-3889
▁Alex	-3890
▁soldiers	-3891
▁announced	-3892
▁wow	-3893
▁sung	-3894
▁tick	-3895
▁version	-3896
ification	-3897
Home	-3898
▁neg	-3899
▁trick	-3900
▁remark	-3901
▁elderly	-3902
▁Hist	-3903
▁Very	-3904
▁proud	-3905
▁spirit	-3906
ios	-3907
eech	-3908
atives	-3909
▁achie	-3910
▁movement	-3911
▁spr	-3912
▁none	-3913
otland	-3914
▁airpl	-3915
▁beyond	-3916
▁search	-3917
▁believed	-3918
▁particularly	-3919
urb	-3920
vey	-3921
elve	-3922
urse	-3923
▁pan	-3924
▁Aunt	-3925
▁fac	-3926
▁ears	-3927
▁sticks	-3928
▁offered	-3929
▁Mon	-3930
ously	-3931
▁School	-3932
▁Congress	-3933
]!	-3934
rupt	-3935
▁text	-3936
▁woods	-3937
▁castle	-3938
ais	-3939
rec	-3940
abeth	-3941
▁Mond	-3942
vere	-3943
pping	-3944
▁Serv	-3945
▁saint	-3946
▁mostly	-3947
▁simple	-3948
aign	-3949
berg	-3950
▁huge	-3951
▁angry	-3952
▁kitty	-3953
ware	-3954
▁Soc	-3955
adian	-3956
▁bound	-3957
▁slowly	-3958
▁writer	-3959
▁Russian	-3960
▁situation	-3961
inary	-3962
▁princip	-3963
▁Reg	-3964
▁East	-3965
▁European	-3966
asant	-3967
▁Dem	-3968
▁bab	-3969
▁lower	-3970
▁command	-3971
yy	-3972
bon	-3973
▁WH	-3974
▁Bec	-3975
▁Pat	-3976
▁Mor	-3977
▁Sam	-3978
▁falls	-3979
▁Father	-3980
▁Jul	-3981
▁cere	-3982
▁songs	-3983
▁personal	-3984
adow	-3985
▁Mic	-3986
▁rabb	-3987
▁tiger	-3988
hers	-3989
▁rate	-3990
▁gives	-3991
▁Ursula	-3992
▁tennis	-3993
▁serious	-3994
▁experience	-3995
CK	-3996
▁anx	-3997
▁talked	-3998
▁elected	-3999
▁provide	-4000
▁turning	-4001
▁accident	-4002
ka	-4003
pe	-4004
▁sle	-4005
ummer	-4006
▁clock	-4007
▁spoon	-4008
▁method	-4009
--------	-4010
▁motorcy	-4011
▁require	-4012
AK	-4013
ause	-4014
cend	-4015
▁Jon	-4016
▁fat	-4017
▁mor	-4018
▁compos	-4019
▁completely	-4020
icles	-4021
picks	-4022
▁Tony	-4023
▁tower	-4024
▁flower	-4025
▁included	-4026
iles	-4027
▁cab	-4028
▁Stop	-4029
▁occur	-4030
▁colors	-4031
▁length	-4032
▁constit	-4033
▁germany	-4034
▁organization	-4035
aped	-4036
aret	-4037
ghed	-4038
▁nina	-4039
▁pock	-4040
▁suff	-4041
▁aisne	-4042
▁significant	-4043
eds	-4044
▁teeth	-4045
▁picard	-4046
▁stayed	-4047
she	-4048
anced	-4049
▁Court	-4050
▁Henry	-4051
ological	-4052
gu	-4053
ails	-4054
▁chall	-4055
▁African	-4056
▁dollars	-4057
▁specific	-4058
▁competition	-4059
▁environment	-4060
BR	-4061
▁mel	-4062
▁minister	-4063
iber	-4064
▁pill	-4065
ros	-4066
wise	-4067
▁goal	-4068
▁difference	-4069
▁cred	-4070
▁disp	-4071
▁weren	-4072
cul	-4073
▁gall	-4074
▁stairs	-4075
Don	-4076
▁II	-4077
▁mart	-4078
▁Would	-4079
▁demand	-4080
▁opport	-4081
▁streng	-4082
▁Tw	-4083
▁cher	-4084
▁parl	-4085
▁defin	-4086
▁ended	-4087
▁slice	-4088
▁arrived	-4089
▁mountains	-4090
▁management	-4091
king	-4092
▁uses	-4093
▁Uncle	-4094
▁forth	-4095
▁rocks	-4096
▁expected	-4097
ki	-4098
hib	-4099
rugg	-4100
▁joy	-4101
▁normand	-4102
osta	-4103
utch	-4104
▁Bet	-4105
ooper	-4106
▁roman	-4107
ga	-4108
▁Jew	-4109
▁edge	-4110
▁energy	-4111
▁nature	-4112
▁review	-4113
▁temper	-4114
bel	-4115
aries	-4116
▁range	-4117
▁affect	-4118
▁japanese	-4119
▁basketball	-4120
▁microphone	-4121
▁balls	-4122
▁earlier	-4123
▁surrounded	-4124
▁log	-4125
▁conv	-4126
▁watched	-4127
▁Ste	-4128
▁dar	-4129
▁enemy	-4130
▁General	-4131
pan	-4132
▁Mal	-4133
▁sett	-4134
olutely	-4135
▁related	-4136
ona	-4137
lled	-4138
▁ber	-4139
▁Council	-4140
appy	-4141
▁cos	-4142
▁oil	-4143
▁Robert	-4144
▁threat	-4145
back	-4146
▁shown	-4147
▁cities	-4148
▁plants	-4149
▁Bob	-4150
▁rout	-4151
▁sens	-4152
▁magaz	-4153
▁shouldn	-4154
using	-4155
▁River	-4156
▁Since	-4157
▁settle	-4158
▁telephone	-4159
da	-4160
ares	-4161
▁Cup	-4162
▁hun	-4163
aching	-4164
▁debut	-4165
izabeth	-4166
▁fright	-4167
▁sports	-4168
▁appoint	-4169
▁collect	-4170
▁foreign	-4171
▁structure	-4172
▁throughout	-4173
▁Bel	-4174
▁Israel	-4175
▁display	-4176
▁northwest	-4177
▁footballer	-4178
ami	-4179
▁Out	-4180
▁yyy	-4181
ights	-4182
▁Most	-4183
▁yell	-4184
▁honor	-4185
▁medic	-4186
▁lawyer	-4187
▁distrib	-4188
▁airplane	-4189
▁shopping	-4190
▁surprise	-4191
rer	-4192
van	-4193
iana	-4194
▁aged	-4195
iately	-4196
▁victim	-4197
▁includes	-4198
▁tropical	-4199
▁Mex	-4200
▁lap	-4201
▁Paris	-4202
ota	-4203
usion	-4204
▁Hel	-4205
▁Ser	-4206
▁Hall	-4207
▁Marc	-4208
▁Really	-4209
▁laughed	-4210
She	-4211
▁Res	-4212
▁cous	-4213
▁steps	-4214
▁Wal	-4215
▁concert	-4216
▁decision	-4217
▁Sen	-4218
▁veh	-4219
▁york	-4220
▁breath	-4221
▁eastern	-4222
ittee	-4223
▁shore	-4224
▁style	-4225
▁contract	-4226
just	-4227
▁Sch	-4228
▁bat	-4229
father	-4230
▁movies	-4231
▁speech	-4232
▁showing	-4233
erve	-4234
▁emp	-4235
clock	-4236
utive	-4237
▁Women	-4238
▁campaign	-4239
▁listening	-4240
▁aqu	-4241
idden	-4242
vados	-4243
▁vote	-4244
▁wash	-4245
▁racing	-4246
▁calvados	-4247
ola	-4248
▁der	-4249
▁libr	-4250
▁youth	-4251
▁nation	-4252
▁actress	-4253
▁studied	-4254
▁skateboard	-4255
arts	-4256
▁Mont	-4257
▁arrest	-4258
▁Florence	-4259
▁investig	-4260
▁neighbor	-4261
▁pleasure	-4262
EW	-4263
FA	-4264
ques	-4265
▁EXP	-4266
oseph	-4267
icated	-4268
▁Christian	-4269
▁nd	-4270
▁buildings	-4271
▁transport	-4272
gen	-4273
▁Mil	-4274
▁gro	-4275
▁amaz	-4276
▁join	-4277
▁thus	-4278
ession	-4279
▁couch	-4280
▁satis	-4281
▁falling	-4282
mark	-4283
▁hide	-4284
▁scene	-4285
▁twelve	-4286
UT	-4287
vin	-4288
olar	-4289
▁fol	-4290
▁tar	-4291
▁value	-4292
▁agreed	-4293
▁episode	-4294
▁weather	-4295
HIS	-4296
cuse	-4297
▁excuse	-4298
▁terrible	-4299
ste	-4300
▁nap	-4301
itzer	-4302
▁Mart	-4303
▁chim	-4304
▁pupp	-4305
▁roof	-4306
▁trade	-4307
iled	-4308
▁Dou	-4309
aning	-4310
▁stom	-4311
▁pulled	-4312
,’	-4313
▁Bur	-4314
▁Pap	-4315
▁pian	-4316
▁highest	-4317
▁message	-4318
ease	-4319
▁ban	-4320
▁Hung	-4321
▁stret	-4322
viously	-4323
▁double	-4324
▁manager	-4325
▁generally	-4326
▁gentleman	-4327
▁necessary	-4328
▁Ro	-4329
▁flying	-4330
iar	-4331
cious	-4332
oking	-4333
▁hockey	-4334
omm	-4335
ube	-4336
▁More	-4337
▁occup	-4338
▁appears	-4339
den	-4340
ila	-4341
itation	-4342
▁Friday	-4343
▁Oxford	-4344
▁intell	-4345
▁Nothing	-4346
▁systems	-4347
wich	-4348
ading	-4349
▁bite	-4350
▁worse	-4351
▁Monday	-4352
▁contrib	-4353
ustralian	-4354
▁Jo	-4355
▁skin	-4356
▁smaller	-4357
▁clothing	-4358
▁companies	-4359
▁normandie	-4360
ita	-4361
pty	-4362
umn	-4363
▁pred	-4364
▁basse	-4365
▁cases	-4366
athered	-4367
▁Italian	-4368
▁purpose	-4369
tr	-4370
ads	-4371
ker	-4372
now	-4373
▁TV	-4374
enth	-4375
▁Dep	-4376
▁brave	-4377
▁likes	-4378
▁ladies	-4379
Ross	-4380
▁High	-4381
▁agree	-4382
▁swing	-4383
▁windows	-4384
▁collection	-4385
▁plat	-4386
ampion	-4387
▁journey	-4388
▁restaurant	-4389
NG	-4390
ho	-4391
ala	-4392
oses	-4393
▁fruit	-4394
▁ninety	-4395
▁entered	-4396
▁hanging	-4397
There	-4398
▁flew	-4399
▁note	-4400
▁tend	-4401
▁Louis	-4402
▁turns	-4403
singing	-4404
▁taught	-4405
▁schools	-4406
▁ON	-4407
sequ	-4408
▁Mama	-4409
▁Mass	-4410
▁print	-4411
▁society	-4412
▁younger	-4413
▁remained	-4414
▁religious	-4415
hand	-4416
oria	-4417
▁lies	-4418
▁hurry	-4419
▁quarter	-4420
▁interested	-4421
▁immediately	-4422
akistan	-4423
▁islands	-4424
▁greatest	-4425
▁Ac	-4426
▁[?	-4427
▁row	-4428
arian	-4429
▁cycl	-4430
▁coach	-4431
esta	-4432
uset	-4433
▁Old	-4434
ocratic	-4435
▁golden	-4436
▁Kingdom	-4437
▁magnets	-4438
▁prevent	-4439
aph	-4440
▁Mel	-4441
▁vac	-4442
iring	-4443
atholic	-4444
▁fingers	-4445
▁painting	-4446
ena	-4447
min	-4448
▁acqu	-4449
▁ange	-4450
▁murder	-4451
▁thinks	-4452
▁Charles	-4453
▁leaders	-4454
▁electric	-4455
▁Pet	-4456
iment	-4457
▁buck	-4458
▁link	-4459
lasses	-4460
▁maint	-4461
▁veget	-4462
▁choice	-4463
▁programs	-4464
▁traditional	-4465
ura	-4466
onse	-4467
")	-4468
'?	-4469
▁cit	-4470
holds	-4471
oring	-4472
▁craz	-4473
▁trip	-4474
▁knowledge	-4475
ANN	-4476
▁ur	-4477
door	-4478
▁taste	-4479
▁fishing	-4480
▁welcome	-4481
▁elephant	-4482
anor	-4483
▁Boy	-4484
usetts	-4485
▁compl	-4486
▁faith	-4487
cellent	-4488
▁issues	-4489
▁monkey	-4490
▁retired	-4491
achusetts	-4492
▁republic	-4493
▁financial	-4494
zen	-4495
aven	-4496
ills	-4497
▁Egypt	-4498
▁consist	-4499
▁Lot	-4500
▁condu	-4501
▁staff	-4502
looking	-4503
▁laughs	-4504
aved	-4505
▁manner	-4506
▁mentioned	-4507
▁therefore	-4508
▁independent	-4509
▁ma	-4510
▁laid	-4511
▁crack	-4512
▁crime	-4513
▁Someone	-4514
ani	-4515
▁ess	-4516
orida	-4517
rences	-4518
▁rough	-4519
▁gather	-4520
▁relationship	-4521
How	-4522
ript	-4523
▁hen	-4524
▁sac	-4525
ademy	-4526
ipment	-4527
▁Republic	-4528
lear	-4529
▁Smith	-4530
▁Spanish	-4531
▁emb	-4532
▁Thomas	-4533
▁picked	-4534
▁policy	-4535
ods	-4536
rid	-4537
▁Mus	-4538
▁ble	-4539
▁safet	-4540
▁museum	-4541
▁Chinese	-4542
▁australia	-4543
▁happening	-4544
▁wit	-4545
itect	-4546
▁smell	-4547
▁pocket	-4548
▁resour	-4549
▁screen	-4550
▁History	-4551
oos	-4552
arily	-4553
▁magic	-4554
▁safety	-4555
▁continue	-4556
▁Their	-4557
▁umbre	-4558
▁theory	-4559
▁practice	-4560
ado	-4561
▁tv	-4562
fits	-4563
▁Pri	-4564
itain	-4565
▁opening	-4566
▁ru	-4567
▁rom	-4568
▁strugg	-4569
OO	-4570
▁bik	-4571
chest	-4572
▁Does	-4573
▁Only	-4574
▁bowl	-4575
▁chap	-4576
▁boots	-4577
▁plain	-4578
▁reported	-4579
▁upstairs	-4580
▁Ol	-4581
host	-4582
▁Rec	-4583
▁tor	-4584
anges	-4585
▁grown	-4586
▁rules	-4587
▁pushed	-4588
▁extreme	-4589
▁musical	-4590
▁stomach	-4591
.’	-4592
SC	-4593
▁mo	-4594
ette	-4595
bered	-4596
friend	-4597
▁cheer	-4598
▁Cromer	-4599
▁forces	-4600
▁location	-4601
▁Sal	-4602
▁pig	-4603
under	-4604
▁Bill	-4605
▁twice	-4606
▁setting	-4607
eless	-4608
▁Brian	-4609
▁Scott	-4610
▁correct	-4611
▁greater	-4612
anda	-4613
▁Its	-4614
▁unc	-4615
▁meal	-4616
▁nope	-4617
▁organiz	-4618
▁successful	-4619
▁ash	-4620
▁nic	-4621
heast	-4622
▁bare	-4623
▁risk	-4624
▁League	-4625
▁quietly	-4626
▁brothers	-4627
▁division	-4628
▁equipment	-4629
▁Championship	-4630
COU	-4631
▁tong	-4632
isions	-4633
▁multip	-4634
▁valley	-4635
▁increase	-4636
St	-4637
▁Cam	-4638
▁Dolly	-4639
▁defend	-4640
▁fashion	-4641
▁striped	-4642
▁rank	-4643
▁census	-4644
▁designed	-4645
▁poet	-4646
▁sharp	-4647
ev	-4648
aled	-4649
▁bud	-4650
▁loss	-4651
▁divid	-4652
estival	-4653
▁medical	-4654
▁exclaimed	-4655
▁opin	-4656
encies	-4657
▁apart	-4658
▁signed	-4659
▁streets	-4660
RI	-4661
han	-4662
alys	-4663
song	-4664
▁fro	-4665
▁jer	-4666
▁Gold	-4667
orough	-4668
▁create	-4669
▁HE	-4670
aging	-4671
▁About	-4672
▁easily	-4673
.,	-4674
bed	-4675
lig	-4676
rant	-4677
▁fool	-4678
▁wave	-4679
▁section	-4680
▁production	-4681
▁sunglasses	-4682
▁crazy	-4683
▁Rod	-4684
icate	-4685
ishes	-4686
▁gate	-4687
▁direction	-4688
▁originally	-4689
jo	-4690
▁jew	-4691
▁pays	-4692
▁soul	-4693
▁tone	-4694
▁Young	-4695
▁fault	-4696
▁media	-4697
▁Canada	-4698
▁territ	-4699
▁america	-4700
▁Child	-4701
▁Church	-4702
▁driver	-4703
verage	-4704
▁calls	-4705
▁remem	-4706
▁asleep	-4707
▁native	-4708
▁channel	-4709
▁selling	-4710
▁required	-4711
▁DO	-4712
anny	-4713
▁owl	-4714
▁rac	-4715
▁Over	-4716
▁drew	-4717
▁dirty	-4718
▁commonly	-4719
▁gathered	-4720
ols	-4721
▁("	-4722
pect	-4723
anged	-4724
▁rabbit	-4725
▁Joe	-4726
▁tow	-4727
ishop	-4728
▁unless	-4729
▁blanket	-4730
▁excited	-4731
▁results	-4732
▁newspaper	-4733
ii	-4734
mm	-4735
▁Fin	-4736
▁Sure	-4737
▁sele	-4738
▁weak	-4739
▁escape	-4740
My	-4741
ava	-4742
▁ST	-4743
▁Ram	-4744
▁cant	-4745
▁Jesus	-4746
▁industry	-4747
▁Up	-4748
ffie	-4749
▁Japan	-4750
▁brand	-4751
▁decor	-4752
razilian	-4753
▁watches	-4754
itzerland	-4755
gn	-4756
lor	-4757
semb	-4758
▁Parl	-4759
▁Wood	-4760
▁perm	-4761
astern	-4762
▁price	-4763
▁throat	-4764
bled	-4765
ours	-4766
otten	-4767
uries	-4768
▁Care	-4769
▁estim	-4770
imately	-4771
▁advent	-4772
▁surface	-4773
hab	-4774
▁ast	-4775
▁CHAP	-4776
▁Other	-4777
▁missed	-4778
arr	-4779
aked	-4780
fall	-4781
▁Mag	-4782
▁mut	-4783
▁grant	-4784
▁plans	-4785
▁larger	-4786
▁studies	-4787
▁interview	-4788
asy	-4789
het	-4790
▁contact	-4791
▁growing	-4792
▁vot	-4793
▁laws	-4794
▁Nesta	-4795
▁CHAPTER	-4796
▁addition	-4797
▁anywhere	-4798
gl	-4799
▁BE	-4800
ossible	-4801
▁italian	-4802
▁release	-4803
▁standard	-4804
SS	-4805
erc	-4806
ett	-4807
▁amb	-4808
▁gir	-4809
ening	-4810
▁Mike	-4811
▁cute	-4812
▁demon	-4813
▁mouse	-4814
▁photo	-4815
▁commer	-4816
▁response	-4817
▁sentence	-4818
!'	-4819
HE	-4820
hum	-4821
cles	-4822
▁zoo	-4823
▁Rome	-4824
▁empty	-4825
▁advert	-4826
▁chemical	-4827
ERE	-4828
sec	-4829
They	-4830
▁rug	-4831
▁san	-4832
▁trib	-4833
▁wise	-4834
▁issue	-4835
▁architect	-4836
▁afterwards	-4837
istic	-4838
▁uhuh	-4839
▁Which	-4840
▁japan	-4841
▁honest	-4842
▁marriage	-4843
ansas	-4844
▁refe	-4845
▁closer	-4846
▁cooking	-4847
▁La	-4848
eaks	-4849
▁pin	-4850
ropol	-4851
ropri	-4852
▁China	-4853
▁climbing	-4854
ustr	-4855
▁flo	-4856
known	-4857
utions	-4858
▁Effie	-4859
▁liber	-4860
▁notice	-4861
▁captain	-4862
pet	-4863
abel	-4864
▁ren	-4865
adium	-4866
▁thick	-4867
▁Listen	-4868
▁Prince	-4869
▁nearby	-4870
▁protest	-4871
▁Parliament	-4872
oul	-4873
▁()	-4874
sych	-4875
▁tim	-4876
▁whis	-4877
▁heads	-4878
▁decide	-4879
▁narrow	-4880
▁recorded	-4881
▁strawber	-4882
aki	-4883
▁Air	-4884
▁Mac	-4885
▁adop	-4886
▁hasn	-4887
▁inqu	-4888
▁symb	-4889
▁Brown	-4890
▁tries	-4891
▁agency	-4892
▁oldest	-4893
▁economic	-4894
▁surprised	-4895
▁App	-4896
▁Sim	-4897
▁pil	-4898
▁Could	-4899
▁dread	-4900
▁sides	-4901
▁helping	-4902
ige	-4903
olt	-4904
illa	-4905
▁Fred	-4906
▁harm	-4907
ursday	-4908
writer	-4909
▁bunch	-4910
▁costs	-4911
▁gradu	-4912
▁walls	-4913
▁degree	-4914
▁Japanese	-4915
ella	-4916
▁Mur	-4917
▁beer	-4918
▁hats	-4919
nesday	-4920
herlands	-4921
▁neither	-4922
▁governor	-4923
▁hurrican	-4924
ias	-4925
Then	-4926
rance	-4927
▁hotel	-4928
▁potato	-4929
ednesday	-4930
ucky	-4931
inger	-4932
▁calm	-4933
▁firm	-4934
▁crown	-4935
▁performed	-4936
▁Pen	-4937
▁nut	-4938
▁bomb	-4939
▁tank	-4940
▁brain	-4941
▁Excuse	-4942
▁dangerous	-4943
▁whispered	-4944
▁beg	-4945
meric	-4946
▁owned	-4947
▁shape	-4948
▁content	-4949
▁seventy	-4950
▁willing	-4951
▁becoming	-4952
ano	-4953
upp	-4954
▁plane	-4955
▁threw	-4956
▁pretend	-4957
▁declared	-4958
bell	-4959
▁fer	-4960
▁Humph	-4961
▁Under	-4962
▁tears	-4963
▁Before	-4964
▁remain	-4965
▁pleased	-4966
▁spanish	-4967
▁winning	-4968
▁magazine	-4969
▁princess	-4970
▁Australia	-4971
ba	-4972
isco	-4973
ginia	-4974
▁cott	-4975
▁gods	-4976
▁yard	-4977
▁nomin	-4978
▁critic	-4979
▁imagine	-4980
chan	-4981
rial	-4982
▁Men	-4983
▁aim	-4984
▁lion	-4985
▁rise	-4986
▁colon	-4987
▁cowboy	-4988
▁instit	-4989
▁planet	-4990
▁Eleanor	-4991
▁described	-4992
erous	-4993
▁Dutch	-4994
▁enter	-4995
▁teach	-4996
▁trail	-4997
▁doggie	-4998
▁flight	-4999
▁forced	-5000
▁counter	-5001
▁managed	-5002
▁missing	-5003
oughs	-5004
▁Give	-5005
icious	-5006
▁fifth	-5007
▁saved	-5008
▁disease	-5009
▁strength	-5010
▁technology	-5011
mel	-5012
ighs	-5013
inda	-5014
▁Del	-5015
▁mac	-5016
▁suc	-5017
place	-5018
▁THAT	-5019
▁fold	-5020
▁picnic	-5021
▁excellent	-5022
osh	-5023
vis	-5024
▁Army	-5025
▁Brad	-5026
▁wake	-5027
▁cocoon	-5028
▁source	-5029
▁International	-5030
was	-5031
▁du	-5032
▁murd	-5033
▁faces	-5034
▁beauty	-5035
▁fought	-5036
▁network	-5037
ez	-5038
asty	-5039
▁bless	-5040
▁airport	-5041
▁mistake	-5042
▁traffic	-5043
▁Humphrey	-5044
▁wrestling	-5045
▁opportunity	-5046
kel	-5047
osc	-5048
▁bon	-5049
umber	-5050
▁remains	-5051
▁picardie	-5052
▁possibly	-5053
ata	-5054
▁Dar	-5055
▁Lab	-5056
▁Marg	-5057
▁awful	-5058
▁react	-5059
▁tells	-5060
▁border	-5061
▁centre	-5062
▁sposta	-5063
▁william	-5064
▁recently	-5065
▁jun	-5066
▁furn	-5067
▁qual	-5068
▁soup	-5069
▁Spain	-5070
▁giant	-5071
▁tongue	-5072
▁keeping	-5073
▁shoulder	-5074
rill	-5075
▁Jan	-5076
▁Ros	-5077
▁tan	-5078
ishing	-5079
▁serve	-5080
▁active	-5081
▁mainly	-5082
HT	-5083
▁Fed	-5084
▁lit	-5085
craft	-5086
icing	-5087
inton	-5088
▁contr	-5089
PA	-5090
Now	-5091
▁Sk	-5092
bury	-5093
▁Hug	-5094
itely	-5095
▁hadn	-5096
▁Union	-5097
▁minor	-5098
▁spect	-5099
▁sword	-5100
▁philos	-5101
ulations	-5102
▁bathroom	-5103
▁document	-5104
▁parliament	-5105
GMA	-5106
box	-5107
don	-5108
isl	-5109
case	-5110
rawn	-5111
▁Jud	-5112
▁Leg	-5113
▁alt	-5114
▁atl	-5115
alysis	-5116
▁purch	-5117
▁recent	-5118
▁records	-5119
▁audience	-5120
▁planning	-5121
▁prepared	-5122
IR	-5123
pa	-5124
▁Han	-5125
▁prem	-5126
iggles	-5127
▁painted	-5128
ague	-5129
▁Camp	-5130
▁brick	-5131
▁knife	-5132
▁slide	-5133
▁altern	-5134
▁applic	-5135
▁string	-5136
▁pressure	-5137
sm	-5138
gle	-5139
idents	-5140
▁Tommy	-5141
▁ideas	-5142
▁palace	-5143
Do	-5144
▁Sl	-5145
ocks	-5146
wide	-5147
▁Eric	-5148
ealand	-5149
▁Assoc	-5150
▁aware	-5151
▁clearly	-5152
▁separate	-5153
road	-5154
▁blow	-5155
▁salt	-5156
▁teen	-5157
▁weight	-5158
▁features	-5159
umes	-5160
▁duty	-5161
urance	-5162
▁fixed	-5163
▁ndash	-5164
▁cousin	-5165
▁scream	-5166
▁colored	-5167
▁library	-5168
▁Thursday	-5169
▁motorcycle	-5170
▁Massachusetts	-5171
cel	-5172
elly	-5173
▁ign	-5174
igned	-5175
▁pour	-5176
▁empire	-5177
▁encour	-5178
▁succeed	-5179
wor	-5180
onde	-5181
ching	-5182
oured	-5183
▁Sand	-5184
▁citiz	-5185
▁rides	-5186
▁formula	-5187
▁powerful	-5188
coh	-5189
ault	-5190
▁Off	-5191
▁judge	-5192
▁smart	-5193
▁usual	-5194
▁turtle	-5195
▁chimney	-5196
▁enjoying	-5197
▁..	-5198
uddy	-5199
aling	-5200
aming	-5201
▁reve	-5202
▁Russia	-5203
▁candid	-5204
▁handle	-5205
▁lights	-5206
▁journal	-5207
▁families	-5208
▁provided	-5209
▁impossible	-5210
ero	-5211
iot	-5212
stein	-5213
▁Rose	-5214
angers	-5215
▁Saint	-5216
▁Super	-5217
▁rapid	-5218
▁jumped	-5219
▁rocket	-5220
▁activities	-5221
▁responsible	-5222
mar	-5223
▁Ir	-5224
keep	-5225
ocal	-5226
▁bub	-5227
opher	-5228
change	-5229
▁Marcia	-5230
▁normal	-5231
▁explain	-5232
▁platform	-5233
AO	-5234
--"	-5235
elle	-5236
▁sym	-5237
▁tight	-5238
▁types	-5239
▁motion	-5240
▁directly	-5241
If	-5242
LY	-5243
ja	-5244
aria	-5245
ippi	-5246
▁Ell	-5247
▁Cast	-5248
▁domin	-5249
eer	-5250
urt	-5251
▁Luc	-5252
▁drag	-5253
▁pages	-5254
▁piano	-5255
▁impact	-5256
▁plenty	-5257
▁divided	-5258
▁express	-5259
▁Sus	-5260
▁neat	-5261
▁nurse	-5262
▁transl	-5263
▁occasion	-5264
▁establish	-5265
rif	-5266
▁tie	-5267
olved	-5268
▁Arab	-5269
▁Cont	-5270
▁heat	-5271
▁rare	-5272
uesday	-5273
▁psych	-5274
▁Island	-5275
▁prince	-5276
▁improve	-5277
▁passing	-5278
uz	-5279
put	-5280
amin	-5281
hens	-5282
▁Ill	-5283
▁copy	-5284
▁polic	-5285
chestra	-5286
▁Summer	-5287
▁proposed	-5288
▁recorder	-5289
▁continues	-5290
ora	-5291
uan	-5292
avis	-5293
▁bod	-5294
uckles	-5295
▁forms	-5296
▁kinds	-5297
▁hardly	-5298
▁Wednesday	-5299
▁absolutely	-5300
▁ven	-5301
oston	-5302
▁orders	-5303
▁average	-5304
▁figures	-5305
▁opposite	-5306
▁property	-5307
ned	-5308
▁ME	-5309
▁outdoor	-5310
▁resources	-5311
eorg	-5312
gent	-5313
▁Wil	-5314
▁shr	-5315
▁unit	-5316
ension	-5317
nament	-5318
▁choose	-5319
▁concent	-5320
▁Dist	-5321
▁eager	-5322
▁approx	-5323
▁desert	-5324
▁replaced	-5325
▁dom	-5326
▁lord	-5327
▁wine	-5328
issippi	-5329
▁dishes	-5330
▁nineteen	-5331
▁previous	-5332
▁teaching	-5333
ima	-5334
▁ce	-5335
kins	-5336
▁bang	-5337
▁Kitty	-5338
▁moves	-5339
▁waves	-5340
▁commerc	-5341
▁railway	-5342
▁serving	-5343
▁Olympics	-5344
▁medicine	-5345
vest	-5346
▁ens	-5347
iling	-5348
▁anti	-5349
▁loire	-5350
▁soldier	-5351
▁officers	-5352
imin	-5353
kend	-5354
▁opt	-5355
▁russ	-5356
atures	-5357
▁wings	-5358
▁wound	-5359
▁Joseph	-5360
▁cancer	-5361
▁papers	-5362
▁Perhaps	-5363
▁receive	-5364
▁deb	-5365
▁desk	-5366
▁purs	-5367
▁Green	-5368
▁Mount	-5369
▁Never	-5370
▁avoid	-5371
▁candy	-5372
▁branch	-5373
▁memory	-5374
▁comment	-5375
▁monster	-5376
▁reasons	-5377
▁umbrella	-5378
▁Elizabeth	-5379
mit	-5380
onia	-5381
reys	-5382
uten	-5383
▁Prov	-5384
▁whoa	-5385
edding	-5386
▁lucky	-5387
▁talks	-5388
▁drawing	-5389
!”	-5390
▁ho	-5391
▁rode	-5392
▁labor	-5393
▁Master	-5394
fficient	-5395
▁noticed	-5396
▁sandwich	-5397
▁Gar	-5398
icked	-5399
▁lips	-5400
▁Those	-5401
vention	-5402
▁shadow	-5403
war	-5404
ooks	-5405
▁bay	-5406
istry	-5407
▁Chief	-5408
▁Greek	-5409
▁score	-5410
eration	-5411
▁button	-5412
▁complex	-5413
▁connect	-5414
▁cutting	-5415
bey	-5416
gas	-5417
▁(;	-5418
talk	-5419
▁Fox	-5420
▁Rock	-5421
ctions	-5422
fortun	-5423
▁favour	-5424
▁request	-5425
▁silence	-5426
▁conference	-5427
▁southwestern	-5428
?'	-5429
▁Day	-5430
▁hab	-5431
▁lack	-5432
▁chain	-5433
▁condition	-5434
bu	-5435
lls	-5436
uing	-5437
wing	-5438
▁dish	-5439
▁pole	-5440
▁rope	-5441
▁Secret	-5442
▁recomm	-5443
▁struck	-5444
▁culture	-5445
▁worried	-5446
▁authority	-5447
pes	-5448
▁arts	-5449
▁conqu	-5450
▁reports	-5451
▁characters	-5452
car	-5453
eta	-5454
har	-5455
▁Um	-5456
▁eth	-5457
▁Papa	-5458
▁nurs	-5459
▁pron	-5460
▁frequ	-5461
▁prize	-5462
▁Aldred	-5463
▁target	-5464
▁promised	-5465
tha	-5466
▁cherry	-5467
▁rising	-5468
▁respond	-5469
▁referred	-5470
▁hurricane	-5471
▁Duke	-5472
idding	-5473
▁Charl	-5474
▁owner	-5475
▁smoke	-5476
▁circus	-5477
▁senior	-5478
▁conduct	-5479
iti	-5480
thur	-5481
▁Tod	-5482
▁code	-5483
▁shoe	-5484
▁prior	-5485
▁seconds	-5486
▁european	-5487
▁Rem	-5488
▁Vir	-5489
▁sav	-5490
eness	-5491
▁beard	-5492
▁temple	-5493
▁pushing	-5494
lem	-5495
ingu	-5496
▁Time	-5497
▁meas	-5498
itaine	-5499
ication	-5500
▁mission	-5501
▁destroyed	-5502
▁Ha	-5503
▁nav	-5504
▁grey	-5505
▁exhib	-5506
giggles	-5507
▁experi	-5508
▁biggest	-5509
▁measure	-5510
alent	-5511
▁scen	-5512
▁picks	-5513
▁towns	-5514
▁apprec	-5515
▁progress	-5516
▁southwest	-5517
odes	-5518
rees	-5519
▁Tri	-5520
ronic	-5521
▁alph	-5522
▁scary	-5523
▁begins	-5524
▁shirts	-5525
▁becomes	-5526
▁preparing	-5527
▁Emp	-5528
▁Sov	-5529
▁thee	-5530
▁cards	-5531
▁sweater	-5532
▁photograph	-5533
▁association	-5534
down	-5535
year	-5536
alend	-5537
oving	-5538
▁Fire	-5539
▁Award	-5540
▁Earth	-5541
▁alcoh	-5542
▁chest	-5543
▁dolly	-5544
▁fallen	-5545
▁approach	-5546
▁professor	-5547
▁eventually	-5548
Is	-5549
kr	-5550
▁IS	-5551
▁james	-5552
▁eleven	-5553
▁failed	-5554
▁saving	-5555
▁opinion	-5556
▁pleasant	-5557
▁religion	-5558
▁perfectly	-5559
▁organizations	-5560
ENT	-5561
col	-5562
▁Di	-5563
▁Bas	-5564
▁cas	-5565
▁fal	-5566
▁Sing	-5567
▁Islam	-5568
▁blind	-5569
▁conserv	-5570
▁descend	-5571
▁student	-5572
▁officially	-5573
rie	-5574
bout	-5575
▁Met	-5576
▁map	-5577
anche	-5578
erald	-5579
itors	-5580
▁Five	-5581
▁focus	-5582
▁remind	-5583
▁champion	-5584
▁administr	-5585
▁recording	-5586
▁Aye	-5587
▁Big	-5588
▁freed	-5589
▁descri	-5590
▁Tuesday	-5591
▁Western	-5592
▁emperor	-5593
▁gironde	-5594
▁carefully	-5595
apt	-5596
▁Ca	-5597
▁Bes	-5598
▁Iran	-5599
▁subst	-5600
▁stadium	-5601
▁gentlemen	-5602
outs	-5603
▁CHI	-5604
inois	-5605
▁Once	-5606
▁doin	-5607
▁pier	-5608
▁ships	-5609
▁despite	-5610
▁quality	-5611
▁Scotland	-5612
▁transfer	-5613
▁influence	-5614
erg	-5615
▁ox	-5616
iece	-5617
icago	-5618
takes	-5619
▁Jean	-5620
▁appl	-5621
▁aust	-5622
▁exerc	-5623
▁Jeffreys	-5624
▁presence	-5625
▁introduced	-5626
ua	-5627
▁Op	-5628
arted	-5629
▁notes	-5630
▁rings	-5631
▁easier	-5632
▁wealth	-5633
▁attached	-5634
▁positive	-5635
▁apartment	-5636
▁aquitaine	-5637
▁Gre	-5638
▁Hur	-5639
▁ath	-5640
otion	-5641
▁arrow	-5642
▁prime	-5643
▁patient	-5644
▁weekend	-5645
▁competed	-5646
▁multiple	-5647
▁commercial	-5648
▁instrument	-5649
oir	-5650
▁Life	-5651
▁mere	-5652
▁autom	-5653
▁mixed	-5654
▁custom	-5655
▁prefer	-5656
▁justice	-5657
▁disappoint	-5658
AB	-5659
▁CO	-5660
▁MOT	-5661
▁lat	-5662
▁nuc	-5663
adder	-5664
obile	-5665
▁fancy	-5666
▁grave	-5667
ELL	-5668
imp	-5669
▁Hot	-5670
gency	-5671
ushes	-5672
▁skirt	-5673
▁Social	-5674
▁fifteen	-5675
▁somewhat	-5676
HING	-5677
▁Sur	-5678
▁pra	-5679
▁Call	-5680
iverse	-5681
▁consum	-5682
▁sisters	-5683
▁concerned	-5684
▁obviously	-5685
kl	-5686
▁ye	-5687
eddy	-5688
pret	-5689
▁lic	-5690
▁cups	-5691
▁deck	-5692
▁Major	-5693
▁smiled	-5694
▁statue	-5695
▁ability	-5696
▁awarded	-5697
▁pakistan	-5698
zo	-5699
ouri	-5700
rick	-5701
▁dey	-5702
ufact	-5703
▁pump	-5704
haired	-5705
▁cloth	-5706
▁darling	-5707
▁Association	-5708
with	-5709
▁sem	-5710
ailed	-5711
▁noble	-5712
▁relax	-5713
▁crowded	-5714
▁weapons	-5715
ropolitan	-5716
▁intellig	-5717
cely	-5718
igan	-5719
ulpt	-5720
rison	-5721
▁mort	-5722
▁nerv	-5723
▁rice	-5724
▁Molly	-5725
▁Robin	-5726
▁confl	-5727
▁Muslim	-5728
▁settled	-5729
▁vehicle	-5730
▁elephants	-5731
CE	-5732
hew	-5733
tin	-5734
eman	-5735
▁Cons	-5736
▁webs	-5737
▁mirror	-5738
▁Another	-5739
▁article	-5740
▁matches	-5741
▁apparent	-5742
▁manufact	-5743
▁expression	-5744
So	-5745
owa	-5746
see	-5747
▁Next	-5748
▁bump	-5749
▁forever	-5750
▁appearance	-5751
In	-5752
KEN	-5753
▁rib	-5754
▁guns	-5755
▁rent	-5756
engers	-5757
▁comedy	-5758
▁george	-5759
▁presents	-5760
▁Something	-5761
cont	-5762
ners	-5763
▁ski	-5764
▁uns	-5765
erved	-5766
▁Carl	-5767
▁joke	-5768
▁opera	-5769
▁sales	-5770
▁proceed	-5771
▁orchestra	-5772
ST	-5773
▁WE	-5774
Ch	-5775
ae	-5776
ís	-5777
ilda	-5778
omed	-5779
▁Dis	-5780
▁Hon	-5781
orter	-5782
▁answ	-5783
▁image	-5784
▁majority	-5785
▁entertainment	-5786
▁cig	-5787
ipping	-5788
▁weird	-5789
▁attorn	-5790
▁resist	-5791
▁wedding	-5792
▁musician	-5793
uns	-5794
osen	-5795
▁aid	-5796
ivity	-5797
▁pale	-5798
bridge	-5799
▁Claus	-5800
▁Soviet	-5801
▁advice	-5802
mericans	-5803
▁pitched	-5804
▁bringing	-5805
IGHT	-5806
etch	-5807
▁bac	-5808
ements	-5809
▁Trans	-5810
▁categ	-5811
▁waste	-5812
▁buried	-5813
▁circum	-5814
▁produce	-5815
▁repeated	-5816
ram	-5817
▁NO	-5818
gend	-5819
rban	-5820
▁thy	-5821
▁Girl	-5822
▁dism	-5823
ublican	-5824
▁pulling	-5825
▁producer	-5826
▁Government	-5827
▁mal	-5828
▁Fore	-5829
▁Keep	-5830
▁nick	-5831
▁daily	-5832
▁attend	-5833
▁troops	-5834
▁throwing	-5835
abet	-5836
▁Love	-5837
▁Town	-5838
▁dust	-5839
▁gift	-5840
▁Mabel	-5841
▁units	-5842
▁College	-5843
▁Bu	-5844
▁GO	-5845
▁GAO	-5846
▁Ire	-5847
▁Los	-5848
▁dyn	-5849
▁lem	-5850
iture	-5851
▁Play	-5852
▁bend	-5853
▁drawn	-5854
▁Britain	-5855
ANT	-5856
lly	-5857
▁Guy	-5858
▁Hugo	-5859
ancing	-5860
ferent	-5861
▁boats	-5862
▁trial	-5863
▁knowing	-5864
▁critical	-5865
▁treatment	-5866
▁recognized	-5867
urd	-5868
esty	-5869
water	-5870
intend	-5871
▁clown	-5872
▁Angela	-5873
▁acting	-5874
▁corpor	-5875
▁sculpt	-5876
▁ordered	-5877
▁victory	-5878
▁numerous	-5879
▁secretary	-5880
▁suggested	-5881
aun	-5882
▁Six	-5883
▁gym	-5884
▁mos	-5885
overy	-5886
▁fant	-5887
▁thin	-5888
coughs	-5889
▁clouds	-5890
▁voices	-5891
▁worker	-5892
▁alcohol	-5893
▁balloon	-5894
▁planned	-5895
▁shoulders	-5896
och	-5897
arah	-5898
▁FOR	-5899
isher	-5900
▁items	-5901
▁upper	-5902
▁killer	-5903
▁enjoyed	-5904
▁thousands	-5905
▁frightened	-5906
▁strawberries	-5907
▁Art	-5908
▁Tim	-5909
▁lin	-5910
▁equal	-5911
▁chairs	-5912
▁mathem	-5913
▁mechan	-5914
▁function	-5915
nam	-5916
ader	-5917
izes	-5918
nods	-5919
▁Jac	-5920
aniel	-5921
icket	-5922
▁Minn	-5923
▁doct	-5924
▁Early	-5925
▁reign	-5926
▁parade	-5927
▁Clinton	-5928
▁climate	-5929
▁finding	-5930
▁associated	-5931
▁california	-5932
edia	-5933
gery	-5934
icted	-5935
illed	-5936
▁Fort	-5937
▁Post	-5938
▁Wall	-5939
▁dying	-5940
▁sings	-5941
▁Africa	-5942
▁strike	-5943
▁Individ	-5944
▁Ireland	-5945
▁Switzerland	-5946
▁Us	-5947
▁Hol	-5948
▁web	-5949
▁Group	-5950
▁assum	-5951
▁medal	-5952
▁Empire	-5953
▁calend	-5954
▁achieve	-5955
▁contain	-5956
▁effects	-5957
▁revolution	-5958
pton	-5959
rier	-5960
▁Ray	-5961
▁Scr	-5962
▁Ter	-5963
▁nea	-5964
▁Kent	-5965
▁boss	-5966
▁drum	-5967
▁Carol	-5968
▁roles	-5969
▁worst	-5970
▁adults	-5971
▁loudly	-5972
▁Service	-5973
▁matters	-5974
▁defeated	-5975
▁pa	-5976
oned	-5977
▁gal	-5978
amber	-5979
ashing	-5980
ildred	-5981
▁Maria	-5982
▁Royal	-5983
▁cliff	-5984
▁goals	-5985
▁useful	-5986
▁products	-5987
oes	-5988
olley	-5989
▁burst	-5990
▁willn	-5991
▁advant	-5992
▁budget	-5993
▁drinks	-5994
▁reform	-5995
▁upside	-5996
▁parties	-5997
▁settlement	-5998
lend	-5999
▁Rom	-6000
▁ded	-6001
▁odd	-6002
stone	-6003
▁Wind	-6004
▁behav	-6005
▁Edward	-6006
▁anxious	-6007
▁arrange	-6008
▁burning	-6009
▁software	-6010
▁increasing	-6011
▁remembered	-6012
_,	-6013
zer	-6014
abor	-6015
owed	-6016
▁Jenn	-6017
▁chop	-6018
▁prec	-6019
▁hills	-6020
▁prove	-6021
▁shock	-6022
▁annual	-6023
▁belief	-6024
▁fields	-6025
▁possess	-6026
▁contains	-6027
▁friendly	-6028
▁slightly	-6029
▁comfortable	-6030
All	-6031
emic	-6032
▁Bye	-6033
▁Squ	-6034
eping	-6035
ounce	-6036
whisp	-6037
▁Percy	-6038
▁upset	-6039
fection	-6040
▁income	-6041
▁engaged	-6042
▁heaven	-6043
▁symbol	-6044
▁waters	-6045
▁appropri	-6046
▁colorful	-6047
▁appointed	-6048
agers	-6049
ulous	-6050
▁vend	-6051
▁scott	-6052
ishment	-6053
▁credit	-6054
▁invent	-6055
▁benefits	-6056
▁carriage	-6057
▁executive	-6058
wan	-6059
▁Ge	-6060
▁Ry	-6061
gian	-6062
▁ves	-6063
▁bord	-6064
▁nuts	-6065
▁pile	-6066
▁damage	-6067
▁Children	-6068
▁relative	-6069
▁historical	-6070
uty	-6071
▁Fe	-6072
acle	-6073
▁Far	-6074
▁bags	-6075
tering	-6076
▁babies	-6077
▁bedroom	-6078
▁partner	-6079
▁Catholic	-6080
▁shooting	-6081
▁Everything	-6082
▁northwestern	-6083
ooge	-6084
venue	-6085
▁Gree	-6086
▁barn	-6087
▁ghost	-6088
▁keeps	-6089
▁olymp	-6090
▁suffe	-6091
▁pattern	-6092
▁calendar	-6093
▁crossing	-6094
▁determined	-6095
eks	-6096
esc	-6097
iro	-6098
alled	-6099
ivery	-6100
▁label	-6101
▁Walter	-6102
▁conditions	-6103
▁Mississippi	-6104
bb	-6105
eau	-6106
stood	-6107
▁Both	-6108
▁golf	-6109
▁saus	-6110
▁wore	-6111
▁crash	-6112
▁feels	-6113
▁franc	-6114
▁merry	-6115
▁oblig	-6116
▁pound	-6117
▁shove	-6118
ception	-6119
▁completed	-6120
▁previously	-6121
pack	-6122
▁Den	-6123
works	-6124
▁Donald	-6125
▁afford	-6126
▁Mildred	-6127
▁witness	-6128
▁Alexander	-6129
UST	-6130
▁Ev	-6131
athy	-6132
▁Lee	-6133
▁Step	-6134
▁clay	-6135
▁mont	-6136
▁resc	-6137
▁fount	-6138
▁Mexico	-6139
▁analysis	-6140
?]	-6141
CT	-6142
LA	-6143
esh	-6144
uits	-6145
spect	-6146
▁Pope	-6147
▁cats	-6148
▁fond	-6149
▁horn	-6150
ulated	-6151
▁Irish	-6152
▁Stand	-6153
ologist	-6154
▁limited	-6155
▁oranges	-6156
▁provides	-6157
▁Sometimes	-6158
▁ourselves	-6159
win	-6160
aron	-6161
enge	-6162
▁Bre	-6163
▁Ham	-6164
▁hyp	-6165
▁mud	-6166
▁sched	-6167
▁agencies	-6168
▁entirely	-6169
▁observed	-6170
▁physical	-6171
▁watermel	-6172
▁everywhere	-6173
▁instruments	-6174
ko	-6175
yo	-6176
phy	-6177
urns	-6178
▁Earl	-6179
▁pony	-6180
▁stir	-6181
▁vest	-6182
▁stream	-6183
▁terror	-6184
▁wheels	-6185
▁conflict	-6186
"]	-6187
vi	-6188
dam	-6189
pro	-6190
ugg	-6191
heim	-6192
▁Bay	-6193
▁doors	-6194
▁sheep	-6195
▁apolog	-6196
▁downstairs	-6197
vy	-6198
▁Hu	-6199
ador	-6200
fess	-6201
▁LSC	-6202
▁bug	-6203
▁hyd	-6204
ether	-6205
▁Work	-6206
▁ends	-6207
▁loll	-6208
▁cruel	-6209
▁highly	-6210
▁amazing	-6211
▁broadcast	-6212
▁statement	-6213
▁supported	-6214
▁grandfather	-6215
▁approximately	-6216
zy	-6217
▁SE	-6218
apes	-6219
asts	-6220
book	-6221
doors	-6222
▁Back	-6223
▁barb	-6224
▁evil	-6225
▁pean	-6226
▁Chris	-6227
▁urban	-6228
▁bodies	-6229
▁chosen	-6230
▁paying	-6231
▁Johnson	-6232
▁whisper	-6233
▁learning	-6234
li	-6235
foot	-6236
▁Barb	-6237
▁Mill	-6238
▁Star	-6239
▁diss	-6240
▁drugs	-6241
▁split	-6242
▁theat	-6243
▁dreams	-6244
▁losing	-6245
▁economy	-6246
▁killing	-6247
▁removed	-6248
▁extremely	-6249
▁Department	-6250
uba	-6251
▁cash	-6252
▁pond	-6253
anches	-6254
hedral	-6255
▁grace	-6256
▁bother	-6257
▁municipal	-6258
alem	-6259
▁Rel	-6260
▁Say	-6261
▁tip	-6262
▁unh	-6263
ardon	-6264
▁crew	-6265
▁Susan	-6266
▁drama	-6267
▁holes	-6268
▁plums	-6269
▁poison	-6270
▁nervous	-6271
▁Canadian	-6272
▁cleaning	-6273
▁industrial	-6274
▁tournament	-6275
gt	-6276
▁Sun	-6277
lying	-6278
orpor	-6279
▁hunt	-6280
▁sink	-6281
▁writ	-6282
▁Today	-6283
▁goods	-6284
▁Martin	-6285
▁faster	-6286
▁volume	-6287
▁Angeles	-6288
▁District	-6289
▁potential	-6290
ubs	-6291
▁Kore	-6292
anging	-6293
porary	-6294
▁Still	-6295
▁Doctor	-6296
▁humans	-6297
▁ladder	-6298
chuckles	-6299
▁suspect	-6300
▁politics	-6301
▁brazilian	-6302
▁emergency	-6303
▁otherwise	-6304
roll	-6305
▁dip	-6306
isted	-6307
▁dare	-6308
▁diam	-6309
agement	-6310
▁attacks	-6311
▁crossed	-6312
▁nuclear	-6313
▁Actually	-6314
▁animated	-6315
▁thoughts	-6316
▁christian	-6317
alu	-6318
▁MY	-6319
rete	-6320
force	-6321
owned	-6322
▁bass	-6323
▁paul	-6324
acific	-6325
▁Gerald	-6326
▁Second	-6327
▁arrested	-6328
▁forgotten	-6329
Come	-6330
▁Fil	-6331
▁pow	-6332
sighs	-6333
▁Fair	-6334
▁Zara	-6335
▁marry	-6336
▁Senate	-6337
▁covers	-6338
▁variety	-6339
▁attended	-6340
▁visitors	-6341
Not	-6342
ati	-6343
draw	-6344
estic	-6345
▁sake	-6346
▁task	-6347
▁tent	-6348
erable	-6349
▁Mummy	-6350
▁india	-6351
▁ruled	-6352
▁sunny	-6353
▁Office	-6354
▁Person	-6355
▁assemb	-6356
▁satisf	-6357
▁severe	-6358
▁waited	-6359
▁Austrian	-6360
▁increased	-6361
▁presented	-6362
▁FC	-6363
▁Wel	-6364
▁cad	-6365
ungle	-6366
▁Comp	-6367
▁Long	-6368
▁vent	-6369
▁dolls	-6370
▁guide	-6371
▁helps	-6372
▁Boston	-6373
▁column	-6374
▁facing	-6375
▁fairly	-6376
▁growth	-6377
▁fiction	-6378
▁primary	-6379
▁accepted	-6380
▁operating	-6381
azz	-6382
law	-6383
mes	-6384
▁HI	-6385
okes	-6386
▁kil	-6387
▁Pers	-6388
▁lawn	-6389
▁Prime	-6390
▁fully	-6391
▁weapon	-6392
▁agreement	-6393
▁interrupt	-6394
aura	-6395
▁max	-6396
▁Nort	-6397
▁maid	-6398
▁myth	-6399
▁loves	-6400
plement	-6401
▁cookie	-6402
▁trains	-6403
▁distinct	-6404
▁feelings	-6405
▁suffered	-6406
ront	-6407
▁cells	-6408
▁fired	-6409
▁snowy	-6410
▁Federal	-6411
▁staying	-6412
olleyball	-6413
▁compared	-6414
ION	-6415
rat	-6416
gged	-6417
▁fox	-6418
▁unf	-6419
angle	-6420
while	-6421
▁Stud	-6422
▁ramp	-6423
▁sons	-6424
▁uhoh	-6425
▁basis	-6426
▁batter	-6427
▁washer	-6428
▁artists	-6429
▁breaking	-6430
▁somethin	-6431
▁tradition	-6432
▁wondering	-6433
▁represented	-6434
▁Im	-6435
▁Cat	-6436
▁Way	-6437
▁Dire	-6438
▁Hold	-6439
▁aunt	-6440
corder	-6441
unning	-6442
▁excit	-6443
▁greek	-6444
▁pregn	-6445
▁salad	-6446
▁gained	-6447
▁legisl	-6448
▁levels	-6449
▁beneath	-6450
▁freedom	-6451
▁composer	-6452
▁goodness	-6453
▁prisoners	-6454
UG	-6455
kes	-6456
pir	-6457
quar	-6458
▁mas	-6459
▁coal	-6460
▁lone	-6461
▁nest	-6462
▁sang	-6463
▁Agnes	-6464
▁Happy	-6465
▁wished	-6466
▁Scrooge	-6467
▁challeng	-6468
▁delivery	-6469
▁Democratic	-6470
▁watermelon	-6471
▁Individuals	-6472
▁distributed	-6473
▁presidential	-6474
This	-6475
▁Atl	-6476
▁Wow	-6477
▁Home	-6478
▁Nice	-6479
▁china	-6480
▁signs	-6481
▁Portug	-6482
▁canada	-6483
▁lollip	-6484
▁totally	-6485
▁entrance	-6486
▁observing	-6487
▁Netherlands	-6488
▁neighborhood	-6489
awa	-6490
cho	-6491
omy	-6492
ses	-6493
▁ol	-6494
anna	-6495
▁BRO	-6496
▁Est	-6497
▁Nat	-6498
▁wid	-6499
ender	-6500
inent	-6501
▁THIS	-6502
▁henry	-6503
▁Museum	-6504
▁awards	-6505
▁silent	-6506
▁univers	-6507
▁elements	-6508
**	-6509
oln	-6510
onn	-6511
cake	-6512
▁Put	-6513
▁lou	-6514
▁Pict	-6515
▁inhab	-6516
▁hidden	-6517
▁priest	-6518
▁stated	-6519
▁besides	-6520
▁unclear	-6521
▁expensive	-6522
IM	-6523
lle	-6524
▁RE	-6525
▁UN	-6526
▁ax	-6527
ulty	-6528
▁Mhm	-6529
▁sequ	-6530
▁shel	-6531
▁seats	-6532
▁steel	-6533
▁hearts	-6534
▁Zealand	-6535
▁hearing	-6536
▁visible	-6537
▁Everyone	-6538
▁conductor	-6539
▁strolling	-6540
BC	-6541
eden	-6542
burgh	-6543
ylvan	-6544
▁bron	-6545
▁plus	-6546
ructed	-6547
▁frogs	-6548
▁mayor	-6549
▁silly	-6550
▁Columb	-6551
▁vessel	-6552
▁creature	-6553
▁exchange	-6554
RA	-6555
ns	-6556
▁Sea	-6557
▁Tre	-6558
▁ped	-6559
▁Nick	-6560
▁Turk	-6561
▁fier	-6562
▁chart	-6563
▁homes	-6564
▁loose	-6565
▁thrown	-6566
▁Austria	-6567
▁leaning	-6568
▁nations	-6569
▁activity	-6570
▁estimated	-6571
▁Commission	-6572
OUR	-6573
andy	-6574
▁wra	-6575
ulate	-6576
morrow	-6577
▁Woman	-6578
▁pitch	-6579
▁hiding	-6580
▁propos	-6581
▁holiday	-6582
▁branches	-6583
rol	-6584
▁Got	-6585
▁Max	-6586
▁Rev	-6587
▁mask	-6588
▁Becky	-6589
▁divor	-6590
▁wagon	-6591
▁rubber	-6592
▁reality	-6593
▁occurred	-6594
▁Secretary	-6595
ili	-6596
ugs	-6597
ilty	-6598
lers	-6599
rate	-6600
▁por	-6601
▁sam	-6602
▁Fine	-6603
▁sets	-6604
earing	-6605
▁snake	-6606
▁tough	-6607
utenant	-6608
▁splend	-6609
▁courage	-6610
▁treated	-6611
▁demonstr	-6612
▁intended	-6613
▁implement	-6614
▁disappeared	-6615
sk	-6616
oli	-6617
▁Att	-6618
▁WAS	-6619
▁era	-6620
▁Lake	-6621
incoln	-6622
▁innoc	-6623
▁Brazil	-6624
▁Cooper	-6625
▁efforts	-6626
▁rolling	-6627
▁sausage	-6628
▁Security	-6629
▁festival	-6630
▁instance	-6631
▁committee	-6632
▁bul	-6633
▁rat	-6634
▁ult	-6635
▁hind	-6636
▁Latin	-6637
▁Polly	-6638
stitute	-6639
▁retire	-6640
▁unlike	-6641
▁contest	-6642
▁picking	-6643
erecorder	-6644
▁Governor	-6645
▁consists	-6646
▁officials	-6647
▁photograp	-6648
EA	-6649
cr	-6650
isa	-6651
▁Cle	-6652
▁Cos	-6653
▁cone	-6654
▁dump	-6655
▁gain	-6656
icking	-6657
istics	-6658
▁Marie	-6659
▁useta	-6660
▁Profess	-6661
▁advance	-6662
▁goodbye	-6663
▁Missouri	-6664
iley	-6665
▁Hor	-6666
▁Lar	-6667
▁dim	-6668
▁gay	-6669
▁kar	-6670
▁Stan	-6671
▁Vict	-6672
apping	-6673
avaria	-6674
▁draft	-6675
▁habit	-6676
▁utter	-6677
▁charles	-6678
▁feature	-6679
▁lessons	-6680
▁territory	-6681
MB	-6682
▁hug	-6683
▁Legal	-6684
▁chase	-6685
▁screw	-6686
▁canton	-6687
▁balance	-6688
▁overall	-6689
▁reflect	-6690
▁touched	-6691
▁definitely	-6692
mo	-6693
VER	-6694
▁SO	-6695
▁Think	-6696
▁drove	-6697
▁eaten	-6698
▁flood	-6699
▁truly	-6700
ogether	-6701
▁pillow	-6702
▁billion	-6703
▁descent	-6704
▁evident	-6705
▁invited	-6706
▁seasons	-6707
▁Williams	-6708
▁familiar	-6709
OME	-6710
this	-6711
eable	-6712
there	-6713
▁dose	-6714
▁emph	-6715
▁gear	-6716
▁tied	-6717
ucking	-6718
▁bunny	-6719
▁italy	-6720
intendo	-6721
ylvania	-6722
▁Johnny	-6723
▁outfit	-6724
▁refused	-6725
▁circumst	-6726
▁citizens	-6727
▁uniforms	-6728
FF	-6729
aka	-6730
▁HA	-6731
▁News	-6732
▁Verm	-6733
▁file	-6734
▁jobs	-6735
eorgia	-6736
▁tooth	-6737
▁Career	-6738
▁expand	-6739
▁gloves	-6740
▁Central	-6741
▁lollipop	-6742
▁potatoes	-6743
▁seriously	-6744
▁excitement	-6745
▁vegetables	-6746
has	-6747
rin	-6748
izza	-6749
▁Hill	-6750
▁genus	-6751
▁device	-6752
▁evolution	-6753
▁passengers	-6754
▁administrative	-6755
▁Pan	-6756
▁Jake	-6757
▁belt	-6758
▁pipe	-6759
▁sees	-6760
itched	-6761
▁imper	-6762
▁meters	-6763
▁posing	-6764
▁element	-6765
▁package	-6766
▁realize	-6767
▁Province	-6768
▁alphabet	-6769
▁darkness	-6770
▁selected	-6771
▁eh	-6772
acher	-6773
elled	-6774
▁fairy	-6775
▁guilty	-6776
▁adopted	-6777
▁somehow	-6778
▁effective	-6779
▁operation	-6780
▁grandmother	-6781
▁/	-6782
Good	-6783
resp	-6784
▁Naz	-6785
▁hes	-6786
▁Bund	-6787
▁Sout	-6788
▁conce	-6789
▁frank	-6790
▁suppl	-6791
▁consequ	-6792
▁cookies	-6793
▁leather	-6794
▁outdoors	-6795
▁scarcely	-6796
▁situated	-6797
▁Americans	-6798
lyn	-6799
▁Rog	-6800
inces	-6801
▁Last	-6802
ajesty	-6803
▁Harry	-6804
▁Maine	-6805
▁Andrew	-6806
▁appeal	-6807
▁claims	-6808
▁pointed	-6809
▁connected	-6810
▁additional	-6811
▁alternative	-6812
sl	-6813
abs	-6814
oto	-6815
Mark	-6816
iques	-6817
▁bone	-6818
▁liqu	-6819
▁peak	-6820
▁agent	-6821
▁blame	-6822
▁chose	-6823
▁legend	-6824
▁impress	-6825
▁centuries	-6826
▁importance	-6827
▁understood	-6828
▁yo	-6829
▁Ukr	-6830
▁sax	-6831
chief	-6832
▁WHAT	-6833
▁chat	-6834
▁fork	-6835
▁gang	-6836
▁poll	-6837
▁teddy	-6838
▁views	-6839
▁latter	-6840
▁pickle	-6841
▁salami	-6842
▁surely	-6843
▁fountain	-6844
▁furniture	-6845
▁attempting	-6846
▁scientific	-6847
▁volleyball	-6848
An	-6849
MAL	-6850
rene	-6851
▁fan	-6852
▁alex	-6853
▁crim	-6854
▁tort	-6855
▁frame	-6856
▁sweat	-6857
▁defeat	-6858
▁grassy	-6859
▁guitarist	-6860
▁insurance	-6861
▁australian	-6862
▁temperature	-6863
AND	-6864
▁knee	-6865
▁todd	-6866
▁dozen	-6867
▁marked	-6868
▁Alright	-6869
▁servant	-6870
▁arranged	-6871
▁discover	-6872
vo	-6873
ela	-6874
ario	-6875
gues	-6876
uous	-6877
yers	-6878
▁Nic	-6879
▁Year	-6880
▁fame	-6881
▁vast	-6882
▁films	-6883
▁shook	-6884
▁horsie	-6885
▁needta	-6886
▁subway	-6887
▁hurried	-6888
▁knocked	-6889
▁fourteen	-6890
▁discussion	-6891
hus	-6892
ito	-6893
▁hay	-6894
▁lob	-6895
enger	-6896
▁Kong	-6897
▁tire	-6898
▁false	-6899
▁Report	-6900
▁Scient	-6901
▁sector	-6902
▁edition	-6903
▁explore	-6904
▁cultural	-6905
▁challenge	-6906
▁Republican	-6907
▁responsibility	-6908
aws	-6909
egr	-6910
oca	-6911
wick	-6912
▁Isn	-6913
ahoma	-6914
▁batt	-6915
▁pure	-6916
places	-6917
▁Const	-6918
▁route	-6919
▁creating	-6920
▁explained	-6921
▁literature	-6922
anes	-6923
renn	-6924
neath	-6925
▁cray	-6926
▁dess	-6927
elling	-6928
keeper	-6929
▁Jones	-6930
▁nickn	-6931
▁pears	-6932
▁sexual	-6933
▁failure	-6934
▁handsome	-6935
▁cellphone	-6936
▁neighbour	-6937
IA	-6938
oa	-6939
ras	-6940
top	-6941
rich	-6942
▁Haw	-6943
▁cro	-6944
▁tel	-6945
jamin	-6946
sters	-6947
▁keys	-6948
▁finds	-6949
▁witch	-6950
▁client	-6951
▁status	-6952
▁throne	-6953
▁smoking	-6954
ronounced	-6955
uj	-6956
▁AT	-6957
▁Tor	-6958
▁ire	-6959
▁unus	-6960
▁vice	-6961
▁purse	-6962
▁sorts	-6963
▁dollar	-6964
▁height	-6965
▁smiles	-6966
▁tracks	-6967
▁attacked	-6968
▁occupied	-6969
▁patients	-6970
▁standards	-6971
akh	-6972
▁Mir	-6973
edish	-6974
verse	-6975
▁cert	-6976
▁roads	-6977
century	-6978
▁causes	-6979
▁unique	-6980
▁closely	-6981
▁forgive	-6982
▁washing	-6983
▁protection	-6984
SE	-6985
▁Alf	-6986
▁Huh	-6987
adesh	-6988
encer	-6989
▁Gers	-6990
atever	-6991
▁Laura	-6992
▁editor	-6993
▁indian	-6994
▁Florida	-6995
▁dessert	-6996
▁creatures	-6997
▁reference	-6998
ds	-6999
cas	-7000
ika	-7001
ials	-7002
▁AEW	-7003
▁Ari	-7004
tries	-7005
▁Bull	-7006
▁fart	-7007
Mother	-7008
▁Later	-7009
▁basic	-7010
▁hadta	-7011
▁criter	-7012
▁follows	-7013
▁affected	-7014
▁hundreds	-7015
una	-7016
last	-7017
▁etc	-7018
irmed	-7019
mouth	-7020
otted	-7021
▁Best	-7022
▁Hong	-7023
▁wing	-7024
▁cents	-7025
▁hasta	-7026
▁raise	-7027
▁Nobody	-7028
▁actions	-7029
▁articles	-7030
▁attorney	-7031
▁advantage	-7032
▁commission	-7033
{\	-7034
HER	-7035
aza	-7036
▁iv	-7037
....	-7038
amma	-7039
ples	-7040
unts	-7041
▁Bru	-7042
▁Whe	-7043
▁wag	-7044
eling	-7045
raham	-7046
stead	-7047
▁bann	-7048
▁boom	-7049
▁rush	-7050
▁winds	-7051
▁ancest	-7052
▁plates	-7053
▁behavior	-7054
▁constitution	-7055
PE	-7056
mosp	-7057
▁impl	-7058
▁sixth	-7059
▁Middle	-7060
▁rushed	-7061
▁costume	-7062
▁regions	-7063
▁captured	-7064
ardo	-7065
hess	-7066
▁Gal	-7067
▁fab	-7068
Tilda	-7069
ipper	-7070
▁penn	-7071
▁quit	-7072
▁Merle	-7073
▁alley	-7074
▁annoy	-7075
klahoma	-7076
▁Jewish	-7077
▁albums	-7078
▁landsc	-7079
▁online	-7080
▁refers	-7081
▁roller	-7082
▁Academy	-7083
▁strateg	-7084
▁changing	-7085
▁distingu	-7086
▁starring	-7087
▁unfortun	-7088
▁musicians	-7089
▁preschool	-7090
ali	-7091
▁rh	-7092
▁Has	-7093
▁flu	-7094
▁iii	-7095
▁kne	-7096
▁Each	-7097
urally	-7098
▁joint	-7099
▁merch	-7100
▁quant	-7101
▁laying	-7102
quarters	-7103
▁feather	-7104
▁housing	-7105
▁shortly	-7106
▁recognize	-7107
▁Australian	-7108
▁independence	-7109
ova	-7110
rous	-7111
sect	-7112
▁Tra	-7113
athan	-7114
▁Down	-7115
▁Land	-7116
▁Prot	-7117
▁godd	-7118
▁iowa	-7119
▁tatt	-7120
▁wire	-7121
▁delay	-7122
▁rooms	-7123
▁burned	-7124
▁exciting	-7125
ophy	-7126
▁mex	-7127
akers	-7128
▁buff	-7129
▁spin	-7130
▁wars	-7131
▁guest	-7132
▁thirt	-7133
▁atmosp	-7134
▁attire	-7135
▁detect	-7136
▁explan	-7137
▁lifted	-7138
▁widely	-7139
▁fortune	-7140
▁Margaret	-7141
▁spending	-7142
▁splendid	-7143
▁discovery	-7144
----------------	-7145
"?	-7146
ban	-7147
▁ec	-7148
tape	-7149
▁Int	-7150
▁Nik	-7151
icide	-7152
sings	-7153
▁Sant	-7154
▁duke	-7155
▁laun	-7156
▁kings	-7157
▁Arthur	-7158
▁dragon	-7159
▁proved	-7160
▁details	-7161
▁disturb	-7162
▁rapidly	-7163
▁understanding	-7164
▁LI	-7165
arks	-7166
etic	-7167
soft	-7168
looks	-7169
rical	-7170
▁craw	-7171
▁elev	-7172
▁seek	-7173
▁reads	-7174
▁rider	-7175
▁clever	-7176
▁volcan	-7177
▁Emperor	-7178
▁kidding	-7179
▁organis	-7180
▁comments	-7181
▁pointing	-7182
▁FI	-7183
▁rhy	-7184
▁wik	-7185
clears	-7186
▁penny	-7187
▁pride	-7188
▁Mickey	-7189
▁honour	-7190
▁hoping	-7191
▁horror	-7192
▁powers	-7193
▁supply	-7194
▁vision	-7195
American	-7196
▁academy	-7197
▁founder	-7198
▁website	-7199
▁accompan	-7200
▁adventure	-7201
▁alongside	-7202
▁organized	-7203
▁remaining	-7204
▁electronic	-7205
▁SC	-7206
▁Ven	-7207
▁Yet	-7208
Where	-7209
▁Norm	-7210
▁Went	-7211
▁frag	-7212
▁holy	-7213
▁hood	-7214
▁badly	-7215
▁bones	-7216
▁stack	-7217
▁actual	-7218
▁marble	-7219
▁observ	-7220
▁Brother	-7221
▁Indians	-7222
▁cupcake	-7223
▁concrete	-7224
▁treasure	-7225
▁providing	-7226
▁assistance	-7227
bee	-7228
uls	-7229
otic	-7230
they	-7231
▁Bud	-7232
▁Kim	-7233
▁Rad	-7234
▁Sil	-7235
angar	-7236
▁Club	-7237
▁bears	-7238
▁Disney	-7239
▁Philip	-7240
▁bitter	-7241
▁estate	-7242
▁jersey	-7243
▁signal	-7244
▁bowling	-7245
▁Services	-7246
▁cathedral	-7247
▁presently	-7248
▁appreciate	-7249
▁songwriter	-7250
▁underneath	-7251
rep	-7252
rain	-7253
vard	-7254
amily	-7255
erves	-7256
orial	-7257
▁padd	-7258
▁torn	-7259
encing	-7260
itants	-7261
▁bands	-7262
▁shame	-7263
▁Castle	-7264
▁robert	-7265
▁shared	-7266
▁illustr	-7267
▁composed	-7268
▁mc	-7269
ghan	-7270
▁Bad	-7271
▁Ira	-7272
▁Ooh	-7273
▁cha	-7274
▁ing	-7275
Sarah	-7276
▁Bert	-7277
▁lect	-7278
▁samp	-7279
bourne	-7280
▁beans	-7281
▁shell	-7282
▁Auntie	-7283
▁athlet	-7284
▁locked	-7285
▁stones	-7286
▁winner	-7287
▁complic	-7288
▁deliver	-7289
▁factory	-7290
▁theater	-7291
▁backpack	-7292
▁romantic	-7293
▁companion	-7294
▁connection	-7295
▁operations	-7296
irk	-7297
elia	-7298
▁Amy	-7299
▁Bus	-7300
▁boo	-7301
▁gor	-7302
▁sup	-7303
acity	-7304
arthe	-7305
▁Bern	-7306
▁dock	-7307
▁misp	-7308
making	-7309
▁craft	-7310
▁desper	-7311
▁gazing	-7312
sylvania	-7313
▁benefit	-7314
▁:	-7315
ILL	-7316
iac	-7317
usc	-7318
amil	-7319
anks	-7320
some	-7321
ingly	-7322
▁Arch	-7323
▁Holy	-7324
▁worn	-7325
▁aside	-7326
▁begun	-7327
▁drunk	-7328
▁tract	-7329
▁virus	-7330
▁Easter	-7331
▁Justice	-7332
▁Vermont	-7333
▁blowing	-7334
▁florida	-7335
▁scotland	-7336
▁girlfriend	-7337
▁requirements	-7338
ao	-7339
▁Ly	-7340
▁ug	-7341
vant	-7342
▁NOT	-7343
▁Sol	-7344
▁pir	-7345
▁tag	-7346
emies	-7347
usted	-7348
▁Show	-7349
▁soap	-7350
▁symp	-7351
▁Water	-7352
▁pause	-7353
▁steam	-7354
▁earned	-7355
▁formal	-7356
▁checked	-7357
▁nominated	-7358
▁snowboard	-7359
▁investment	-7360
▁environmental	-7361
wa	-7362
ERS	-7363
alo	-7364
▁--	-7365
▁az	-7366
imum	-7367
inth	-7368
rose	-7369
unte	-7370
▁Ash	-7371
▁Bat	-7372
▁Tem	-7373
▁rod	-7374
arant	-7375
ented	-7376
inson	-7377
▁Scar	-7378
▁bush	-7379
▁eats	-7380
▁hipp	-7381
▁Holly	-7382
▁brush	-7383
▁dough	-7384
▁grade	-7385
▁Argent	-7386
▁apples	-7387
▁garage	-7388
▁hammer	-7389
▁Records	-7390
▁belongs	-7391
▁describe	-7392
▁receiving	-7393
▁satisfact	-7394
▁authorities	-7395
anz	-7396
ties	-7397
▁Ron	-7398
▁rum	-7399
chair	-7400
▁Make	-7401
▁Wild	-7402
▁pity	-7403
▁snap	-7404
▁breat	-7405
▁fleet	-7406
▁pizza	-7407
▁shake	-7408
▁shops	-7409
▁Labour	-7410
▁discip	-7411
▁writes	-7412
▁constant	-7413
▁restrict	-7414
▁sticking	-7415
Of	-7416
amas	-7417
know	-7418
mers	-7419
weet	-7420
▁Fre	-7421
▁Had	-7422
▁Nav	-7423
▁hik	-7424
aylor	-7425
onder	-7426
▁Cher	-7427
▁tunn	-7428
phones	-7429
umbled	-7430
▁boxes	-7431
▁evalu	-7432
▁rocky	-7433
▁dining	-7434
▁relief	-7435
▁dresses	-7436
▁aircraft	-7437
▁creation	-7438
▁youngest	-7439
ARD	-7440
Nina	-7441
lets	-7442
ores	-7443
▁Fri	-7444
▁fans	-7445
▁pant	-7446
▁Billy	-7447
▁brill	-7448
▁sites	-7449
▁secure	-7450
▁stores	-7451
▁Charlie	-7452
▁cricket	-7453
▁inspect	-7454
▁unknown	-7455
▁exercise	-7456
▁Institute	-7457
▁delicious	-7458
▁employees	-7459
ANG	-7460
Let	-7461
orp	-7462
▁Vo	-7463
issa	-7464
▁Gri	-7465
▁Hea	-7466
▁Pop	-7467
▁Vol	-7468
▁phr	-7469
ureau	-7470
ulting	-7471
▁absor	-7472
▁admit	-7473
▁folks	-7474
▁glance	-7475
▁reward	-7476
▁leaping	-7477
▁passage	-7478
▁Princess	-7479
▁Scottish	-7480
▁Virginia	-7481
▁listened	-7482
▁scottish	-7483
▁violence	-7484
▁Scientists	-7485
!’	-7486
bow	-7487
hoe	-7488
▁Da	-7489
yard	-7490
▁Bea	-7491
▁bid	-7492
▁tro	-7493
uther	-7494
which	-7495
▁Book	-7496
▁myst	-7497
▁marks	-7498
▁Should	-7499
▁perman	-7500
▁treaty	-7501
atherine	-7502
▁accused	-7503
▁victims	-7504
▁canadian	-7505
▁properly	-7506
▁thorough	-7507
lee	-7508
rus	-7509
▁Sn	-7510
▁{\	-7511
adel	-7512
goes	-7513
rane	-7514
tery	-7515
▁Div	-7516
▁III	-7517
▁bold	-7518
▁bund	-7519
ifying	-7520
insula	-7521
▁Tower	-7522
▁aband	-7523
▁refle	-7524
▁solid	-7525
▁stair	-7526
ications	-7527
▁hunting	-7528
▁whining	-7529
▁normally	-7530
▁assistant	-7531
▁recommend	-7532
▁journalist	-7533
▁’	-7534
aro	-7535
rot	-7536
▁Kh	-7537
eare	-7538
alous	-7539
enses	-7540
▁Anne	-7541
▁wolf	-7542
usalem	-7543
▁concl	-7544
▁faint	-7545
▁knees	-7546
▁rural	-7547
▁scale	-7548
▁stops	-7549
▁tribe	-7550
▁claimed	-7551
▁scratch	-7552
▁advanced	-7553
▁negative	-7554
▁realized	-7555
▁materials	-7556
Be	-7557
PS	-7558
...?	-7559
▁Van	-7560
▁wwe	-7561
▁mate	-7562
▁Jacob	-7563
▁hurts	-7564
▁illeg	-7565
▁lands	-7566
▁leads	-7567
▁limit	-7568
▁sauce	-7569
▁africa	-7570
▁lonely	-7571
whispers	-7572
▁causing	-7573
▁clients	-7574
▁defense	-7575
▁defined	-7576
▁Whatever	-7577
▁taperecorder	-7578
ext	-7579
ggy	-7580
obal	-7581
pher	-7582
▁nuh	-7583
atics	-7584
▁mand	-7585
▁Alice	-7586
▁Mavis	-7587
▁blonde	-7588
▁launch	-7589
▁turkey	-7590
olarship	-7591
▁methods	-7592
▁constitu	-7593
▁internal	-7594
▁regional	-7595
kh	-7596
eps	-7597
unno	-7598
▁Add	-7599
▁hom	-7600
▁lux	-7601
▁yum	-7602
inned	-7603
moves	-7604
▁Educ	-7605
▁folk	-7606
▁forb	-7607
▁valu	-7608
arette	-7609
▁Danny	-7610
▁Power	-7611
ichigan	-7612
▁Kansas	-7613
▁gotten	-7614
▁confess	-7615
▁forests	-7616
▁ireland	-7617
▁parking	-7618
▁visited	-7619
▁murdered	-7620
▁Committee	-7621
▁circumstances	-7622
Al	-7623
uv	-7624
ít	-7625
exp	-7626
iat	-7627
igr	-7628
▁SHE	-7629
▁Sub	-7630
▁Val	-7631
▁rif	-7632
andra	-7633
▁Didn	-7634
▁Such	-7635
▁cris	-7636
▁pose	-7637
▁rack	-7638
▁Found	-7639
▁grate	-7640
▁voted	-7641
umbling	-7642
▁astron	-7643
▁carbon	-7644
▁resort	-7645
▁ordinary	-7646
MT	-7647
leg	-7648
ffiti	-7649
▁Also	-7650
▁Matt	-7651
▁dese	-7652
iraffe	-7653
▁Anton	-7654
▁Music	-7655
▁accur	-7656
▁admir	-7657
▁louis	-7658
▁noted	-7659
▁paris	-7660
onsense	-7661
▁Jersey	-7662
▁affair	-7663
▁assess	-7664
▁desire	-7665
▁slaves	-7666
▁talent	-7667
referent	-7668
▁resting	-7669
▁sources	-7670
▁staring	-7671
▁stepped	-7672
▁horrible	-7673
▁pregnant	-7674
▁committed	-7675
▁succeeded	-7676
fin	-7677
olk	-7678
zech	-7679
▁Cur	-7680
▁Lie	-7681
▁nib	-7682
▁sar	-7683
agger	-7684
inter	-7685
▁Tour	-7686
▁clip	-7687
▁hook	-7688
▁virt	-7689
orious	-7690
urches	-7691
▁Swiss	-7692
▁slept	-7693
whining	-7694
▁speaks	-7695
▁concept	-7696
▁initial	-7697
▁Illinois	-7698
▁atlantic	-7699
▁innocent	-7700
▁relations	-7701
▁appropriate	-7702
__	-7703
▁;	-7704
dog	-7705
uge	-7706
mont	-7707
▁Adm	-7708
▁Ang	-7709
▁Desp	-7710
▁Tele	-7711
▁rear	-7712
▁toss	-7713
ivered	-7714
▁pilot	-7715
▁trave	-7716
▁Health	-7717
▁driven	-7718
▁gently	-7719
▁guests	-7720
▁whoops	-7721
▁Chicago	-7722
▁massive	-7723
▁documents	-7724
bc	-7725
▁gi	-7726
▁uk	-7727
amps	-7728
ardy	-7729
ooth	-7730
rets	-7731
▁Bra	-7732
akesp	-7733
orian	-7734
▁sigh	-7735
▁banks	-7736
▁hoped	-7737
▁consid	-7738
▁incred	-7739
▁enemies	-7740
▁trained	-7741
▁congress	-7742
▁swinging	-7743
▁suffering	-7744
▁apparently	-7745
▁investigation	-7746
▁Ba	-7747
gins	-7748
▁wre	-7749
▁Blue	-7750
▁Nana	-7751
▁Walk	-7752
▁mary	-7753
▁mile	-7754
▁obst	-7755
▁egypt	-7756
▁fever	-7757
▁stove	-7758
▁buying	-7759
▁integr	-7760
▁landed	-7761
▁sorrow	-7762
▁chinese	-7763
▁heavily	-7764
▁portion	-7765
stitution	-7766
▁Professor	-7767
▁candidate	-7768
▁engineering	-7769
.)	-7770
rd	-7771
ITH	-7772
gers	-7773
onds	-7774
rand	-7775
▁Cre	-7776
▁Road	-7777
▁Spec	-7778
▁peas	-7779
▁Bruce	-7780
▁Steve	-7781
▁funds	-7782
▁spare	-7783
▁warri	-7784
▁compar	-7785
▁offers	-7786
▁tender	-7787
▁Bavaria	-7788
▁affairs	-7789
▁dynasty	-7790
▁performs	-7791
▁reaching	-7792
Who	-7793
isy	-7794
▁RO	-7795
'...	-7796
comm	-7797
onel	-7798
umph	-7799
▁Ver	-7800
▁bou	-7801
▁glo	-7802
▁Foot	-7803
▁jury	-7804
▁armed	-7805
▁aston	-7806
▁swall	-7807
▁aspect	-7808
▁contem	-7809
▁mighty	-7810
▁rivers	-7811
▁applied	-7812
▁notable	-7813
▁programme	-7814
▁Revolution	-7815
▁surrounding	-7816
▁mispronounced	-7817
uis	-7818
olas	-7819
zing	-7820
▁Det	-7821
▁Lou	-7822
▁Mod	-7823
▁awo	-7824
▁asia	-7825
▁bent	-7826
▁adjust	-7827
▁cereal	-7828
▁prices	-7829
▁skills	-7830
▁wicked	-7831
▁greatly	-7832
▁graffiti	-7833
▁stranger	-7834
▁cigarette	-7835
▁districts	-7836
▁southeast	-7837
▁pronounced	-7838
)}	-7839
▁Jr	-7840
opes	-7841
bably	-7842
oscow	-7843
▁Turn	-7844
▁acad	-7845
▁cave	-7846
▁ugly	-7847
▁decre	-7848
▁Ramsey	-7849
▁copies	-7850
▁peanut	-7851
▁sought	-7852
▁passion	-7853
▁shouted	-7854
▁volunte	-7855
▁warning	-7856
akespeare	-7857
▁activist	-7858
▁sufficient	-7859
▁possibility	-7860
▁q	-7861
ART	-7862
alia	-7863
ammy	-7864
▁Fur	-7865
▁spo	-7866
▁von	-7867
iable	-7868
shine	-7869
▁Bush	-7870
▁flies	-7871
▁squee	-7872
▁Police	-7873
▁borrow	-7874
▁cheeks	-7875
▁issued	-7876
▁kissed	-7877
▁violin	-7878
heastern	-7879
▁answers	-7880
▁argument	-7881
▁gathering	-7882
▁screaming	-7883
▁confidence	-7884
▁generation	-7885
UCK	-7886
magn	-7887
▁Dam	-7888
▁Moh	-7889
esome	-7890
gment	-7891
▁Penn	-7892
▁cruc	-7893
inated	-7894
▁buddy	-7895
▁sciss	-7896
▁socks	-7897
▁theme	-7898
▁Hungry	-7899
▁allows	-7900
▁commit	-7901
▁expert	-7902
▁sarthe	-7903
▁Despite	-7904
▁Mexican	-7905
▁charged	-7906
▁consult	-7907
▁escaped	-7908
▁russian	-7909
▁offering	-7910
▁policies	-7911
▁transform	-7912
▁worldwide	-7913
▁directions	-7914
▁inhabitants	-7915
ked	-7916
rig	-7917
uzz	-7918
▁Bi	-7919
▁dia	-7920
▁orb	-7921
▁acts	-7922
▁bald	-7923
▁debt	-7924
▁dece	-7925
▁dutch	-7926
▁occas	-7927
▁trunk	-7928
▁wears	-7929
angaroo	-7930
▁Julius	-7931
▁depend	-7932
▁farmer	-7933
▁Eastern	-7934
▁doctors	-7935
▁returns	-7936
▁stronger	-7937
▁studying	-7938
▁household	-7939
▁UK	-7940
akin	-7941
enne	-7942
life	-7943
▁Lew	-7944
berry	-7945
esota	-7946
▁Hamp	-7947
▁flow	-7948
▁lung	-7949
stream	-7950
▁Times	-7951
▁dates	-7952
▁dunno	-7953
▁latin	-7954
▁spark	-7955
▁tools	-7956
▁votes	-7957
▁whist	-7958
chester	-7959
▁Daniel	-7960
▁serves	-7961
▁cottage	-7962
▁offices	-7963
▁Remember	-7964
▁attempts	-7965
▁confused	-7966
▁regarded	-7967
▁brilliant	-7968
▁elections	-7969
▁controlled	-7970
▁scientists	-7971
▁administration	-7972
asp	-7973
cks	-7974
eys	-7975
▁Gi	-7976
iner	-7977
▁hal	-7978
idays	-7979
▁Team	-7980
▁fasc	-7981
▁kore	-7982
▁reck	-7983
▁stew	-7984
▁tool	-7985
coming	-7986
iences	-7987
▁Armen	-7988
▁Betty	-7989
▁Inter	-7990
▁flash	-7991
▁persu	-7992
utation	-7993
▁cooper	-7994
▁handed	-7995
▁myster	-7996
▁Through	-7997
▁happily	-7998
▁Wentworth	-7999
▁computers	-8000
▁conducted	-8001
▁separated	-8002
▁profession	-8003
Ar	-8004
iry	-8005
sex	-8006
Here	-8007
▁ages	-8008
▁boot	-8009
▁merc	-8010
rennan	-8011
▁Trump	-8012
▁drums	-8013
▁proof	-8014
▁puppy	-8015
▁spite	-8016
▁spray	-8017
▁carpet	-8018
▁insect	-8019
▁proced	-8020
▁profit	-8021
▁ticket	-8022
atically	-8023
▁accompl	-8024
▁giraffe	-8025
▁guarant	-8026
▁monarch	-8027
▁sixteen	-8028
▁formerly	-8029
▁prisoner	-8030
▁Minnesota	-8031
▁confirmed	-8032
▁paintings	-8033
▁technical	-8034
IE	-8035
mod	-8036
▁Ze	-8037
▁os	-8038
pool	-8039
rows	-8040
▁ALL	-8041
▁SIS	-8042
cries	-8043
thony	-8044
▁Asia	-8045
▁Help	-8046
▁Prod	-8047
▁incl	-8048
▁sale	-8049
reamed	-8050
▁Watch	-8051
resents	-8052
▁survey	-8053
aughters	-8054
▁injured	-8055
▁unusual	-8056
▁yelling	-8057
▁incorpor	-8058
▁friendship	-8059
▁practicing	-8060
lon	-8061
nut	-8062
glas	-8063
ller	-8064
long	-8065
mate	-8066
uese	-8067
▁pyr	-8068
▁que	-8069
onent	-8070
state	-8071
uster	-8072
▁Free	-8073
▁Leon	-8074
▁cuts	-8075
▁murm	-8076
▁nodd	-8077
ington	-8078
▁Jerry	-8079
▁camps	-8080
▁crisis	-8081
▁ensure	-8082
▁reduce	-8083
pointing	-8084
▁borders	-8085
▁martial	-8086
▁category	-8087
▁domestic	-8088
▁whenever	-8089
ups	-8090
▁Mo	-8091
idae	-8092
plays	-8093
▁clar	-8094
▁Grace	-8095
▁punch	-8096
▁Anyway	-8097
▁compre	-8098
▁prayer	-8099
▁repair	-8100
▁unable	-8101
▁borough	-8102
▁liberal	-8103
▁speaker	-8104
▁covering	-8105
▁eighteen	-8106
▁inspired	-8107
▁determine	-8108
▁represents	-8109
▁considerable	-8110
agne	-8111
olen	-8112
▁sof	-8113
▁Thus	-8114
▁bars	-8115
▁holl	-8116
▁nail	-8117
comune	-8118
▁Again	-8119
▁negot	-8120
▁sneak	-8121
▁berlin	-8122
▁nuhhuh	-8123
▁tables	-8124
▁sending	-8125
▁Southern	-8126
▁identity	-8127
▁launched	-8128
▁revealed	-8129
▁existence	-8130
Did	-8131
aya	-8132
▁ta	-8133
fire	-8134
▁Dan	-8135
▁haw	-8136
break	-8137
▁graph	-8138
▁indic	-8139
▁sympt	-8140
playing	-8141
▁accord	-8142
▁breast	-8143
▁colour	-8144
▁emphas	-8145
▁ending	-8146
▁enthus	-8147
▁Philipp	-8148
▁curious	-8149
▁fellows	-8150
▁acquaint	-8151
▁struggle	-8152
▁commander	-8153
▁Hy	-8154
▁KN	-8155
▁Ok	-8156
▁ic	-8157
▁ze	-8158
bing	-8159
drop	-8160
▁Fer	-8161
▁Gro	-8162
▁tub	-8163
▁Gard	-8164
▁deer	-8165
▁dram	-8166
orters	-8167
▁recon	-8168
▁steep	-8169
▁calcul	-8170
▁carries	-8171
▁funding	-8172
▁moments	-8173
▁dreadful	-8174
▁existing	-8175
▁incident	-8176
▁delighted	-8177
▁graduated	-8178
▁happiness	-8179
▁regarding	-8180
▁Ob	-8181
stal	-8182
▁Hem	-8183
▁Tok	-8184
▁ros	-8185
▁sin	-8186
▁spy	-8187
ordan	-8188
▁Jews	-8189
▁bits	-8190
▁greet	-8191
issions	-8192
▁closet	-8193
▁passes	-8194
▁proven	-8195
▁safely	-8196
▁tricks	-8197
▁Stephen	-8198
▁kissing	-8199
▁prepare	-8200
▁stuffed	-8201
▁unhappy	-8202
▁historic	-8203
▁scissors	-8204
▁miserable	-8205
▁accompanied	-8206
▁headquarters	-8207
RY	-8208
ci	-8209
dor	-8210
omp	-8211
osl	-8212
▁Ow	-8213
aned	-8214
ifts	-8215
mony	-8216
pass	-8217
▁Kat	-8218
▁pas	-8219
▁sna	-8220
▁wil	-8221
Cause	-8222
▁arab	-8223
▁tale	-8224
▁ward	-8225
icians	-8226
yellow	-8227
▁Honey	-8228
▁hated	-8229
▁Rodger	-8230
▁remove	-8231
▁shovel	-8232
▁stared	-8233
▁washed	-8234
▁charges	-8235
▁classes	-8236
▁install	-8237
▁license	-8238
▁sounded	-8239
▁churches	-8240
▁delightful	-8241
▁permission	-8242
▁constructed	-8243
SI	-8244
.--	-8245
OUT	-8246
cut	-8247
▁Po	-8248
▁na	-8249
fish	-8250
▁Eur	-8251
▁INV	-8252
▁Str	-8253
ashes	-8254
oting	-8255
▁ours	-8256
▁slip	-8257
▁suits	-8258
attered	-8259
▁Oliver	-8260
▁gettin	-8261
▁merged	-8262
▁regret	-8263
▁shower	-8264
▁suffer	-8265
▁undert	-8266
standing	-8267
▁Islamic	-8268
▁Majesty	-8269
▁farther	-8270
▁featured	-8271
▁atmosphere	-8272
▁metropolitan	-8273
To	-8274
iva	-8275
nat	-8276
▁bc	-8277
ogne	-8278
pson	-8279
▁Dog	-8280
▁Jam	-8281
▁Kal	-8282
▁Mun	-8283
▁Ten	-8284
allas	-8285
heart	-8286
▁Iraq	-8287
▁Near	-8288
▁Song	-8289
▁WITH	-8290
▁tack	-8291
▁vain	-8292
▁anger	-8293
▁disag	-8294
▁Commun	-8295
▁amongst	-8296
▁capable	-8297
▁conclud	-8298
▁jealous	-8299
▁persons	-8300
▁triumph	-8301
▁requires	-8302
▁servants	-8303
▁principal	-8304
▁foundation	-8305
▁retirement	-8306
ALL	-8307
ESS	-8308
new	-8309
▁McC	-8310
apers	-8311
pherd	-8312
▁Bour	-8313
▁HAVE	-8314
▁bark	-8315
enance	-8316
▁Ingle	-8317
▁david	-8318
▁jewel	-8319
▁sheet	-8320
▁democr	-8321
▁nearer	-8322
▁rescue	-8323
▁script	-8324
▁seized	-8325
▁lawyers	-8326
▁obliged	-8327
▁richard	-8328
▁magnetic	-8329
▁solution	-8330
▁virginia	-8331
▁Everybody	-8332
▁difficulty	-8333
EO	-8334
KE	-8335
hl	-8336
keys	-8337
ogue	-8338
▁bol	-8339
going	-8340
noise	-8341
▁Open	-8342
▁guid	-8343
▁sche	-8344
▁apron	-8345
▁camer	-8346
▁brings	-8347
▁harder	-8348
▁lately	-8349
▁pepper	-8350
▁satell	-8351
▁tribes	-8352
▁michael	-8353
▁Benjamin	-8354
▁capacity	-8355
▁interact	-8356
▁kangaroo	-8357
▁millions	-8358
▁touching	-8359
▁Francisco	-8360
▁explanation	-8361
rad	-8362
▁Ty	-8363
hair	-8364
▁Mah	-8365
eding	-8366
▁Corn	-8367
▁Hans	-8368
▁carn	-8369
▁plot	-8370
▁Looks	-8371
▁advoc	-8372
▁alarm	-8373
▁rates	-8374
▁uncom	-8375
ultural	-8376
▁Awards	-8377
▁smooth	-8378
▁kilomet	-8379
▁ceremony	-8380
▁costumes	-8381
▁projects	-8382
▁dinosaurs	-8383
Ah	-8384
UL	-8385
ji	-8386
tti	-8387
▁DE	-8388
agen	-8389
lace	-8390
rels	-8391
▁nep	-8392
▁acid	-8393
▁cord	-8394
▁dipl	-8395
▁mood	-8396
▁stup	-8397
▁scarf	-8398
▁stool	-8399
▁Centre	-8400
▁infect	-8401
▁critics	-8402
▁intense	-8403
▁resolved	-8404
▁addressed	-8405
▁dedicated	-8406
▁typically	-8407
din	-8408
san	-8409
aman	-8410
imal	-8411
ints	-8412
mann	-8413
thel	-8414
unes	-8415
unks	-8416
▁Hmm	-8417
▁raw	-8418
▁wal	-8419
▁Kenn	-8420
▁Spir	-8421
▁YOUR	-8422
▁grab	-8423
▁obey	-8424
▁pitc	-8425
▁semi	-8426
▁subm	-8427
▁util	-8428
▁Night	-8429
▁packed	-8430
▁reject	-8431
▁Jackson	-8432
▁anticip	-8433
▁arrival	-8434
▁goddess	-8435
▁toddler	-8436
▁Football	-8437
▁contrast	-8438
▁stations	-8439
▁vacation	-8440
▁classical	-8441
▁confident	-8442
▁satisfied	-8443
▁supporting	-8444
▁intelligence	-8445
▁ty	-8446
ollo	-8447
onym	-8448
▁lod	-8449
▁hers	-8450
▁trem	-8451
ensity	-8452
ulture	-8453
▁cheap	-8454
▁shade	-8455
iations	-8456
▁Jennie	-8457
▁nights	-8458
▁parked	-8459
▁reviews	-8460
▁testing	-8461
▁earliest	-8462
▁resident	-8463
▁villages	-8464
▁interpret	-8465
án	-8466
arn	-8467
▁Ak	-8468
▁Lo	-8469
▁Rh	-8470
▁ok	-8471
Yeah	-8472
aren	-8473
only	-8474
▁Try	-8475
▁gum	-8476
▁pul	-8477
▁pup	-8478
based	-8479
inity	-8480
▁Wars	-8481
▁Ethel	-8482
▁Stone	-8483
▁awake	-8484
▁drops	-8485
▁opens	-8486
▁spots	-8487
aration	-8488
▁disney	-8489
▁liquid	-8490
ferences	-8491
▁Brennan	-8492
▁capture	-8493
▁degrees	-8494
▁highway	-8495
▁painter	-8496
▁slipped	-8497
ithe	-8498
ooke	-8499
▁Jos	-8500
▁Mat	-8501
▁Ori	-8502
▁Pre	-8503
▁cob	-8504
agged	-8505
itals	-8506
vious	-8507
▁Alan	-8508
▁Andy	-8509
▁waved	-8510
▁conven	-8511
▁donkey	-8512
▁extent	-8513
▁obtain	-8514
▁Besides	-8515
▁chamber	-8516
▁digital	-8517
▁criminal	-8518
▁Jerusalem	-8519
▁reporting	-8520
▁Ru	-8521
Whin	-8522
acon	-8523
ando	-8524
ells	-8525
igen	-8526
ture	-8527
▁Rub	-8528
▁jam	-8529
▁ske	-8530
▁unw	-8531
▁voy	-8532
▁asks	-8533
▁dawn	-8534
▁item	-8535
▁pear	-8536
Donald	-8537
anning	-8538
scream	-8539
▁Clara	-8540
▁Guard	-8541
▁enorm	-8542
▁queer	-8543
▁races	-8544
▁climbed	-8545
▁balloons	-8546
▁catching	-8547
▁channels	-8548
▁internet	-8549
▁wondered	-8550
▁customers	-8551
Mac	-8552
izz	-8553
▁OH	-8554
▁Ra	-8555
avia	-8556
viet	-8557
▁cann	-8558
▁sund	-8559
▁sust	-8560
▁Janet	-8561
▁horiz	-8562
▁ruler	-8563
▁stole	-8564
▁vocal	-8565
ription	-8566
▁arrive	-8567
▁infant	-8568
▁listed	-8569
▁involve	-8570
▁reduced	-8571
▁spirits	-8572
▁mistress	-8573
▁partners	-8574
▁sunshine	-8575
▁teachers	-8576
▁residents	-8577
▁leadership	-8578
▁Christopher	-8579
',	-8580
ih	-8581
▁AB	-8582
▁Sue	-8583
▁Ton	-8584
oples	-8585
uting	-8586
zburg	-8587
▁Conn	-8588
▁Were	-8589
▁lamb	-8590
rifice	-8591
sounds	-8592
▁Wrest	-8593
▁doggy	-8594
▁steal	-8595
▁users	-8596
▁Bertha	-8597
▁Norway	-8598
▁nickel	-8599
▁recall	-8600
▁skiing	-8601
▁bearing	-8602
▁briefly	-8603
▁surgery	-8604
▁wounded	-8605
▁catholic	-8606
▁extended	-8607
▁universe	-8608
▁backwards	-8609
▁childhood	-8610
▁daughters	-8611
▁peninsula	-8612
▁permanent	-8613
▁experienced	-8614
Can	-8615
bef	-8616
uto	-8617
abad	-8618
abri	-8619
gets	-8620
▁Ian	-8621
▁jul	-8622
▁sty	-8623
▁tox	-8624
itage	-8625
▁Tupp	-8626
▁gymn	-8627
itated	-8628
▁marsh	-8629
▁sandy	-8630
▁bronze	-8631
▁ethnic	-8632
▁shaped	-8633
▁tomato	-8634
▁Rangers	-8635
▁longest	-8636
▁subsequ	-8637
▁landscape	-8638
▁suspended	-8639
▁identified	-8640
Br	-8641
_.	-8642
ón	-8643
uma	-8644
aver	-8645
greg	-8646
ilia	-8647
ista	-8648
lock	-8649
ygen	-8650
▁Mem	-8651
▁ric	-8652
▁Luke	-8653
contin	-8654
▁advis	-8655
▁analy	-8656
▁angel	-8657
▁cries	-8658
Whinney	-8659
▁lesson	-8660
▁stroke	-8661
▁bottles	-8662
▁chasing	-8663
▁wrapped	-8664
▁Festival	-8665
▁Northern	-8666
▁advertis	-8667
▁chairman	-8668
▁counties	-8669
▁magnific	-8670
▁expressed	-8671
▁communities	-8672
▁architecture	-8673
▁—	-8674
iel	-8675
vet	-8676
▁SH	-8677
omic	-8678
▁jog	-8679
chers	-8680
gging	-8681
isbee	-8682
mates	-8683
▁cows	-8684
▁mock	-8685
▁panc	-8686
▁tear	-8687
unting	-8688
▁reply	-8689
▁surre	-8690
▁swear	-8691
▁Berlin	-8692
▁acknow	-8693
▁assass	-8694
▁bucket	-8695
▁debate	-8696
▁lasted	-8697
▁latest	-8698
▁soviet	-8699
▁believes	-8700
▁decisions	-8701
▁protected	-8702
May	-8703
ulk	-8704
aire	-8705
char	-8706
five	-8707
▁Jun	-8708
annel	-8709
ports	-8710
▁Bang	-8711
▁JUST	-8712
▁Pass	-8713
▁fict	-8714
▁solo	-8715
giving	-8716
▁Human	-8717
▁Prize	-8718
▁agric	-8719
▁cabin	-8720
▁depos	-8721
▁scoot	-8722
ouncill	-8723
▁Center	-8724
▁campus	-8725
▁headed	-8726
▁letting	-8727
▁nibbled	-8728
▁seventh	-8729
▁Tuppence	-8730
▁holidays	-8731
▁purchase	-8732
▁thirteen	-8733
▁application	-8734
▁transportation	-8735
aug	-8736
rim	-8737
▁ey	-8738
▁Leo	-8739
▁clo	-8740
▁obt	-8741
▁shy	-8742
achel	-8743
venge	-8744
▁Foll	-8745
▁Kids	-8746
▁Sher	-8747
▁butt	-8748
▁oops	-8749
▁zone	-8750
▁Hurry	-8751
▁mercy	-8752
▁Carter	-8753
▁Greece	-8754
▁images	-8755
▁sooner	-8756
▁suburb	-8757
▁convinc	-8758
▁devoted	-8759
▁eagerly	-8760
▁examples	-8761
▁maintain	-8762
▁precious	-8763
▁vehicles	-8764
IO	-8765
Sh	-8766
who	-8767
▁ba	-8768
enez	-8769
▁HER	-8770
cream	-8771
ilton	-8772
▁Soon	-8773
▁dull	-8774
▁fled	-8775
▁pope	-8776
▁sadd	-8777
acious	-8778
▁Shall	-8779
▁slave	-8780
oration	-8781
▁Romans	-8782
▁detail	-8783
▁martin	-8784
▁rolled	-8785
▁counsel	-8786
▁earthqu	-8787
▁focused	-8788
▁achieved	-8789
▁checking	-8790
▁identify	-8791
▁operated	-8792
▁Education	-8793
bar	-8794
pos	-8795
tes	-8796
▁["	-8797
brew	-8798
geon	-8799
llor	-8800
▁hid	-8801
allel	-8802
inian	-8803
oster	-8804
▁jail	-8805
▁skill	-8806
▁wales	-8807
▁Golden	-8808
▁Heaven	-8809
▁Maggie	-8810
▁Valley	-8811
▁thomas	-8812
▁Francis	-8813
▁distant	-8814
▁discussed	-8815
▁stretched	-8816
▁impressive	-8817
▁punishment	-8818
▁disappointed	-8819
TP	-8820
hs	-8821
des	-8822
gro	-8823
▁(,	-8824
▁Av	-8825
When	-8826
quet	-8827
▁Raj	-8828
▁Rap	-8829
▁tex	-8830
tical	-8831
umble	-8832
▁Kate	-8833
▁Rail	-8834
▁ache	-8835
▁embr	-8836
▁hits	-8837
verted	-8838
▁lemon	-8839
▁outer	-8840
▁swiss	-8841
▁tempt	-8842
▁toast	-8843
▁Battle	-8844
▁bishop	-8845
▁duties	-8846
▁scheme	-8847
▁shield	-8848
▁strict	-8849
▁Ukraine	-8850
▁ashamed	-8851
▁instant	-8852
▁theatre	-8853
▁Portugal	-8854
▁combined	-8855
▁valuable	-8856
▁Represent	-8857
▁controvers	-8858
▁threatened	-8859
ONE	-8860
nel	-8861
arse	-8862
ipes	-8863
oise	-8864
osis	-8865
▁Aud	-8866
▁Bor	-8867
▁Cop	-8868
▁Son	-8869
eenth	-8870
flies	-8871
illes	-8872
usive	-8873
▁Pier	-8874
cester	-8875
▁Bible	-8876
▁Leave	-8877
▁Mayor	-8878
▁Point	-8879
▁Seven	-8880
▁asian	-8881
▁groom	-8882
▁peter	-8883
iveness	-8884
section	-8885
▁deaths	-8886
▁mobile	-8887
▁oxygen	-8888
▁phrase	-8889
▁granted	-8890
▁heading	-8891
▁whispers	-8892
▁initially	-8893
▁remarkable	-8894
?’	-8895
ags	-8896
ieve	-8897
oust	-8898
uled	-8899
ulls	-8900
wait	-8901
▁Sel	-8902
▁aer	-8903
▁jes	-8904
comes	-8905
eline	-8906
▁Form	-8907
▁Ryan	-8908
▁beds	-8909
▁chin	-8910
▁kent	-8911
▁rapp	-8912
▁subs	-8913
inting	-8914
▁Games	-8915
▁acted	-8916
inating	-8917
▁kindly	-8918
▁mexico	-8919
▁sunset	-8920
▁Lincoln	-8921
▁Turkish	-8922
▁fantasy	-8923
▁Director	-8924
▁examining	-8925
▁northeast	-8926
▁partement	-8927
▁frequently	-8928
▁combination	-8929
▁PL	-8930
▁CON	-8931
▁Fat	-8932
▁ram	-8933
▁rig	-8934
ordon	-8935
▁Bell	-8936
▁Move	-8937
▁bree	-8938
▁mole	-8939
▁pine	-8940
▁woke	-8941
▁Booth	-8942
▁Tilly	-8943
▁entry	-8944
pitched	-8945
▁bubble	-8946
▁depart	-8947
▁stolen	-8948
▁values	-8949
▁bubbles	-8950
▁divorce	-8951
▁healthy	-8952
▁illness	-8953
▁shining	-8954
▁prospect	-8955
▁symptoms	-8956
▁Hampshire	-8957
▁practices	-8958
▁searching	-8959
Fr	-8960
TH	-8961
Are	-8962
bra	-8963
nda	-8964
bach	-8965
grim	-8966
term	-8967
▁Nap	-8968
▁bot	-8969
▁hem	-8970
▁vel	-8971
erick	-8972
rific	-8973
▁Dave	-8974
▁Know	-8975
▁Whoa	-8976
▁Wolf	-8977
▁anch	-8978
▁cage	-8979
▁zero	-8980
illing	-8981
▁abuse	-8982
▁comed	-8983
▁spain	-8984
▁Region	-8985
▁drives	-8986
▁tattoo	-8987
▁tunnel	-8988
▁earnest	-8989
▁survive	-8990
▁washers	-8991
▁instruct	-8992
▁obtained	-8993
▁reaction	-8994
▁subjects	-8995
▁interests	-8996
▁practical	-8997
▁primarily	-8998
▁celebrated	-8999
▁experiment	-9000
▁Caterpillar	-9001
dr	-9002
EST	-9003
JAK	-9004
jan	-9005
oen	-9006
sen	-9007
REAM	-9008
agle	-9009
gium	-9010
▁Bow	-9011
▁Top	-9012
▁owe	-9013
▁bore	-9014
ipedia	-9015
▁Emily	-9016
▁RIGHT	-9017
▁gross	-9018
▁inner	-9019
▁squir	-9020
▁tremb	-9021
▁Albert	-9022
▁agents	-9023
▁bloody	-9024
▁knight	-9025
▁merely	-9026
▁owners	-9027
▁scored	-9028
▁spider	-9029
▁depends	-9030
▁dialect	-9031
▁pressed	-9032
▁criteria	-9033
▁imperial	-9034
▁imprison	-9035
▁extensive	-9036
▁altogether	-9037
▁reputation	-9038
▁considering	-9039
NE	-9040
UE	-9041
WE	-9042
tic	-9043
alls	-9044
bird	-9045
chae	-9046
ieur	-9047
▁Bol	-9048
Thank	-9049
black	-9050
hetti	-9051
orous	-9052
piece	-9053
turns	-9054
inners	-9055
whines	-9056
▁solar	-9057
▁spons	-9058
▁stern	-9059
▁suitc	-9060
▁Democr	-9061
▁Sister	-9062
▁dating	-9063
▁louder	-9064
▁regist	-9065
▁remote	-9066
▁assault	-9067
▁illegal	-9068
▁tourist	-9069
▁Pictures	-9070
▁admitted	-9071
▁belonged	-9072
▁triangle	-9073
▁delivered	-9074
▁definition	-9075
▁opposition	-9076
▁governments	-9077
As	-9078
itts	-9079
scar	-9080
▁Ern	-9081
▁Yep	-9082
▁bee	-9083
▁cub	-9084
▁enh	-9085
itter	-9086
lings	-9087
▁Poor	-9088
▁Vill	-9089
▁foss	-9090
▁mild	-9091
▁tomb	-9092
▁wins	-9093
▁Mouse	-9094
▁feast	-9095
▁grape	-9096
▁mario	-9097
▁unexp	-9098
fielder	-9099
▁Palest	-9100
▁Poland	-9101
▁archer	-9102
▁dancer	-9103
▁exceed	-9104
▁hitting	-9105
▁singles	-9106
▁Internet	-9107
▁Russians	-9108
▁wrestler	-9109
MacWhinney	-9110
▁advertising	-9111
▁conservative	-9112
Go	-9113
iy	-9114
lan	-9115
zes	-9116
▁UP	-9117
▁ga	-9118
acht	-9119
▁cav	-9120
abama	-9121
child	-9122
▁Bird	-9123
▁airl	-9124
▁tube	-9125
ampton	-9126
weight	-9127
▁Carle	-9128
▁newly	-9129
▁porch	-9130
▁thumb	-9131
▁Bundle	-9132
▁inches	-9133
▁Without	-9134
▁females	-9135
▁grounds	-9136
▁cheerful	-9137
▁engineer	-9138
▁enormous	-9139
▁grateful	-9140
▁schedule	-9141
▁basically	-9142
▁collected	-9143
▁competing	-9144
▁fictional	-9145
▁returning	-9146
▁satisfaction	-9147
▁municipalities	-9148
them	-9149
▁Dev	-9150
▁Kar	-9151
▁Ken	-9152
▁Lib	-9153
▁Sky	-9154
▁abo	-9155
▁aye	-9156
▁poo	-9157
oleon	-9158
ourse	-9159
▁Hind	-9160
▁Speak	-9161
▁chess	-9162
▁faced	-9163
▁hopes	-9164
▁males	-9165
▁scrap	-9166
▁Stella	-9167
▁naught	-9168
▁poured	-9169
▁foolish	-9170
▁peoples	-9171
▁Independ	-9172
▁Somebody	-9173
▁extraord	-9174
▁laughter	-9175
▁machines	-9176
▁nonsense	-9177
▁substant	-9178
▁withdraw	-9179
▁Wrestling	-9180
▁conversing	-9181
▁businessman	-9182
AC	-9183
ju	-9184
IST	-9185
aga	-9186
bes	-9187
ema	-9188
omi	-9189
▁Ja	-9190
▁UE	-9191
quis	-9192
rors	-9193
▁Unt	-9194
abbed	-9195
▁Want	-9196
▁curt	-9197
▁mamm	-9198
▁root	-9199
▁Trust	-9200
▁compr	-9201
▁ducks	-9202
▁exped	-9203
▁loyal	-9204
▁seeds	-9205
▁tests	-9206
▁yield	-9207
▁fisher	-9208
▁poetry	-9209
▁telesc	-9210
▁thirst	-9211
▁awesome	-9212
▁equally	-9213
▁horseshoe	-9214
▁intellect	-9215
▁businesses	-9216
▁constantly	-9217
▁philosophy	-9218
▁Shakespeare	-9219
OL	-9220
NON	-9221
whe	-9222
▁"'	-9223
enly	-9224
ifer	-9225
pent	-9226
▁ARE	-9227
▁Joh	-9228
▁yer	-9229
ieval	-9230
itled	-9231
▁Dear	-9232
▁Head	-9233
▁choo	-9234
▁comr	-9235
▁fare	-9236
▁poly	-9237
▁raid	-9238
aunton	-9239
uccess	-9240
▁Among	-9241
▁Colin	-9242
▁Floss	-9243
▁flags	-9244
▁rugby	-9245
▁trump	-9246
▁Howard	-9247
▁barely	-9248
▁medium	-9249
▁resear	-9250
entially	-9251
▁grandma	-9252
▁lecture	-9253
▁opposed	-9254
▁raising	-9255
▁thunder	-9256
▁Personal	-9257
▁collabor	-9258
▁spelling	-9259
▁celebrate	-9260
▁responded	-9261
▁playground	-9262
▁specifically	-9263
▁concentration	-9264
??	-9265
py	-9266
▁Ö	-9267
!--	-9268
urg	-9269
eder	-9270
real	-9271
utor	-9272
▁DON	-9273
▁cod	-9274
▁ray	-9275
▁shh	-9276
▁via	-9277
eries	-9278
rogen	-9279
▁KNOW	-9280
▁dial	-9281
▁peek	-9282
▁Bunny	-9283
▁Death	-9284
▁alpes	-9285
▁cheek	-9286
▁cotton	-9287
▁explos	-9288
▁fierce	-9289
▁kicked	-9290
▁nephew	-9291
▁partly	-9292
▁switch	-9293
▁Barbara	-9294
▁Company	-9295
▁Georgia	-9296
▁Islands	-9297
▁Spencer	-9298
▁violent	-9299
▁academic	-9300
▁resulted	-9301
▁formation	-9302
▁literally	-9303
▁naturally	-9304
▁temporary	-9305
▁Lieutenant	-9306
▁possession	-9307
▁unexpected	-9308
EP	-9309
GRF	-9310
▁Os	-9311
also	-9312
engu	-9313
oral	-9314
usse	-9315
when	-9316
▁Hit	-9317
▁nah	-9318
▁wis	-9319
adows	-9320
gasps	-9321
▁Drew	-9322
▁caps	-9323
▁flav	-9324
▁garb	-9325
▁seas	-9326
▁slee	-9327
▁Girls	-9328
▁clubs	-9329
▁comic	-9330
▁ideal	-9331
▁minds	-9332
▁Having	-9333
▁beings	-9334
▁puppet	-9335
▁titles	-9336
▁Melissa	-9337
▁Nations	-9338
▁mothers	-9339
▁pitcher	-9340
▁Columbia	-9341
▁allowing	-9342
▁compound	-9343
▁nintendo	-9344
▁apologize	-9345
▁expecting	-9346
▁favourite	-9347
▁principle	-9348
▁selection	-9349
On	-9350
iza	-9351
rum	-9352
agan	-9353
bors	-9354
kind	-9355
umps	-9356
▁Ban	-9357
▁Die	-9358
▁OUT	-9359
▁Sav	-9360
▁Veg	-9361
▁toe	-9362
▁Conf	-9363
▁Duck	-9364
▁core	-9365
▁tray	-9366
▁Tokyo	-9367
▁bride	-9368
▁perce	-9369
▁retro	-9370
▁taxes	-9371
gerator	-9372
uration	-9373
▁Temple	-9374
▁metres	-9375
▁photos	-9376
▁suspic	-9377
▁dealing	-9378
▁feeding	-9379
▁gardens	-9380
▁pumpkin	-9381
▁replace	-9382
▁shaking	-9383
▁worship	-9384
▁Aldworth	-9385
▁purposes	-9386
▁conscious	-9387
▁essential	-9388
▁consisting	-9389
▁washington	-9390
LI	-9391
▁mr	-9392
dney	-9393
otam	-9394
▁Les	-9395
▁bob	-9396
▁syn	-9397
▁upd	-9398
gines	-9399
hands	-9400
osure	-9401
▁Chap	-9402
▁Must	-9403
▁Supp	-9404
▁rand	-9405
▁Griff	-9406
▁Milan	-9407
▁Wales	-9408
▁Turkey	-9409
▁mental	-9410
▁refuge	-9411
▁ribbon	-9412
▁sacred	-9413
▁Society	-9414
▁corresp	-9415
▁landing	-9416
▁invasion	-9417
▁shepherd	-9418
▁strongly	-9419
▁victoria	-9420
▁thoroughly	-9421
▁photographs	-9422
▁Pennsylvania	-9423
fs	-9424
two	-9425
▁Ri	-9426
burn	-9427
jack	-9428
lemn	-9429
▁Amb	-9430
▁fee	-9431
▁nas	-9432
▁Mean	-9433
▁Stay	-9434
▁beep	-9435
▁lane	-9436
▁seal	-9437
lessly	-9438
▁Agent	-9439
▁Eight	-9440
▁Helen	-9441
▁Jenny	-9442
▁apply	-9443
▁inher	-9444
▁towel	-9445
▁Econom	-9446
▁Sweden	-9447
▁junior	-9448
▁Welcome	-9449
▁cartoon	-9450
▁raining	-9451
ibilities	-9452
▁charming	-9453
▁suggests	-9454
▁democratic	-9455
▁employment	-9456
▁constituency	-9457
OOK	-9458
UNC	-9459
eck	-9460
thm	-9461
▁Du	-9462
ctic	-9463
held	-9464
hist	-9465
oked	-9466
▁Bam	-9467
▁Sup	-9468
▁fir	-9469
found	-9470
geant	-9471
unted	-9472
▁Mans	-9473
▁Snow	-9474
▁anne	-9475
▁fate	-9476
▁navy	-9477
wealth	-9478
▁gazed	-9479
▁Palace	-9480
▁behalf	-9481
▁betray	-9482
▁collea	-9483
▁waving	-9484
▁Israeli	-9485
▁awfully	-9486
▁portray	-9487
▁skating	-9488
▁alliance	-9489
▁delicate	-9490
▁necklace	-9491
▁parallel	-9492
▁suitcase	-9493
▁troubles	-9494
▁Therefore	-9495
▁contained	-9496
▁referring	-9497
▁scientist	-9498
▁strategic	-9499
▁uncertain	-9500
▁companions	-9501
▁impression	-9502
▁regulations	-9503
GRM	-9504
III	-9505
lie	-9506
mhm	-9507
net	-9508
▁ly	-9509
aisy	-9510
aska	-9511
lete	-9512
part	-9513
▁GET	-9514
▁Kir	-9515
▁cru	-9516
▁dea	-9517
▁Bank	-9518
▁chew	-9519
▁dign	-9520
▁pros	-9521
▁rein	-9522
former	-9523
▁Liber	-9524
▁Light	-9525
▁Nurse	-9526
▁squad	-9527
▁Wonder	-9528
▁edward	-9529
▁labour	-9530
▁stupid	-9531
▁classic	-9532
▁executed	-9533
▁attempted	-9534
▁breathing	-9535
▁sacrifice	-9536
▁satellite	-9537
▁approached	-9538
▁pretending	-9539
ogy	-9540
rup	-9541
OULD	-9542
cery	-9543
edge	-9544
▁Aha	-9545
▁Roy	-9546
▁Sum	-9547
▁lip	-9548
aders	-9549
apore	-9550
▁flip	-9551
▁rude	-9552
▁twin	-9553
▁Nonna	-9554
▁Order	-9555
▁Simon	-9556
▁cable	-9557
▁drain	-9558
▁flows	-9559
▁grain	-9560
▁ignor	-9561
▁impat	-9562
▁laund	-9563
talking	-9564
▁Jungle	-9565
▁colony	-9566
▁sovere	-9567
▁stress	-9568
▁worthy	-9569
▁bathing	-9570
▁context	-9571
▁writers	-9572
▁floating	-9573
▁monument	-9574
▁wikipedia	-9575
▁facilities	-9576
alm	-9577
ycl	-9578
▁Ku	-9579
issy	-9580
odox	-9581
▁Tak	-9582
▁Too	-9583
▁dol	-9584
ennes	-9585
oline	-9586
ridge	-9587
▁Nich	-9588
▁blew	-9589
▁cape	-9590
▁disg	-9591
▁emot	-9592
▁exha	-9593
▁isol	-9594
▁limb	-9595
▁pave	-9596
▁thri	-9597
igator	-9598
iments	-9599
irming	-9600
ranean	-9601
▁Linda	-9602
▁Techn	-9603
▁drift	-9604
▁rifle	-9605
▁symph	-9606
▁injury	-9607
▁Instead	-9608
▁cabinet	-9609
▁prayers	-9610
▁trading	-9611
▁Staunton	-9612
▁accounts	-9613
▁dropping	-9614
▁remarked	-9615
▁tourists	-9616
▁developing	-9617
▁communication	-9618
pha	-9619
▁JO	-9620
Just	-9621
icit	-9622
inny	-9623
orne	-9624
otch	-9625
sing	-9626
▁Ice	-9627
earch	-9628
uckle	-9629
▁Ball	-9630
▁Dale	-9631
▁UEFA	-9632
▁Vaud	-9633
▁Vice	-9634
▁jazz	-9635
▁user	-9636
antine	-9637
▁stays	-9638
▁Spirit	-9639
▁diving	-9640
▁muslim	-9641
igration	-9642
▁beaches	-9643
▁cycling	-9644
▁engines	-9645
▁operate	-9646
▁payment	-9647
▁Maryland	-9648
▁announce	-9649
▁concerns	-9650
▁medieval	-9651
▁railroad	-9652
▁Cambridge	-9653
▁positions	-9654
▁relatively	-9655
ND	-9656
lad	-9657
▁Li	-9658
ania	-9659
arms	-9660
belt	-9661
boat	-9662
cing	-9663
from	-9664
orus	-9665
wall	-9666
▁Las	-9667
▁hip	-9668
▁luc	-9669
orted	-9670
osing	-9671
▁bust	-9672
▁pige	-9673
ladesh	-9674
onents	-9675
▁Clare	-9676
▁Singh	-9677
▁THERE	-9678
▁aired	-9679
▁dared	-9680
▁plaid	-9681
▁tales	-9682
theless	-9683
▁Syrian	-9684
▁Though	-9685
▁diplom	-9686
▁prompt	-9687
▁Conserv	-9688
▁absence	-9689
▁assumed	-9690
▁compete	-9691
▁jackets	-9692
▁premier	-9693
▁episodes	-9694
▁memories	-9695
▁decorated	-9696
▁telescope	-9697
▁newspapers	-9698
▁spectators	-9699
AG	-9700
dy	-9701
Com	-9702
▁Yo	-9703
ashi	-9704
bean	-9705
daan	-9706
girl	-9707
otte	-9708
▁Abs	-9709
▁HIS	-9710
▁Mid	-9711
▁Woo	-9712
▁jet	-9713
▁les	-9714
▁pad	-9715
▁vig	-9716
hered	-9717
leans	-9718
▁Rimb	-9719
▁fits	-9720
▁gest	-9721
▁grav	-9722
▁warn	-9723
opotam	-9724
pering	-9725
▁Jimmy	-9726
▁Medic	-9727
▁Offic	-9728
▁fried	-9729
▁rival	-9730
▁toile	-9731
aghetti	-9732
borough	-9733
▁Brooke	-9734
▁Twenty	-9735
▁cattle	-9736
▁indign	-9737
▁stable	-9738
▁Outside	-9739
▁printed	-9740
▁renamed	-9741
▁counting	-9742
▁demanded	-9743
▁faithful	-9744
▁managers	-9745
▁boyfriend	-9746
▁classroom	-9747
▁featuring	-9748
▁approaching	-9749
▁electricity	-9750
▁recognition	-9751
UM	-9752
ITT	-9753
OOD	-9754
aco	-9755
agu	-9756
idy	-9757
lar	-9758
▁Es	-9759
inds	-9760
▁Aub	-9761
▁Bab	-9762
▁COM	-9763
▁End	-9764
▁blo	-9765
igers	-9766
rated	-9767
▁mama	-9768
▁papa	-9769
▁sauc	-9770
▁snip	-9771
▁Celia	-9772
▁patch	-9773
▁stamp	-9774
▁Afghan	-9775
▁Square	-9776
▁charts	-9777
▁guards	-9778
▁repeat	-9779
▁Douglas	-9780
▁Special	-9781
▁closing	-9782
▁nowhere	-9783
▁obvious	-9784
▁survived	-9785
▁visiting	-9786
▁Brazilian	-9787
▁introduce	-9788
▁prominent	-9789
▁influenced	-9790
▁principles	-9791
▁representative	-9792
dri	-9793
jac	-9794
uki	-9795
▁XX	-9796
▁Alb	-9797
▁lee	-9798
▁unp	-9799
gives	-9800
▁Rich	-9801
▁fuel	-9802
▁loan	-9803
▁mall	-9804
▁rust	-9805
▁sant	-9806
ilding	-9807
▁Force	-9808
▁Marsh	-9809
▁comin	-9810
▁heels	-9811
▁midst	-9812
▁swift	-9813
▁trace	-9814
enezuel	-9815
▁Spring	-9816
▁Taylor	-9817
▁burden	-9818
▁excess	-9819
ographic	-9820
onscious	-9821
▁african	-9822
▁angeles	-9823
▁crashed	-9824
▁crucial	-9825
▁figured	-9826
▁ringing	-9827
▁session	-9828
formation	-9829
▁peaceful	-9830
▁evidently	-9831
▁publication	-9832
Mr	-9833
hol	-9834
away	-9835
itus	-9836
▁Fle	-9837
▁Inc	-9838
▁bbc	-9839
▁rot	-9840
▁tin	-9841
▁una	-9842
apped	-9843
class	-9844
hetic	-9845
oirot	-9846
umper	-9847
▁Film	-9848
▁Kira	-9849
▁crou	-9850
▁helm	-9851
▁trap	-9852
entine	-9853
igible	-9854
▁Sweet	-9855
▁Until	-9856
▁belly	-9857
▁cycle	-9858
▁flour	-9859
▁penal	-9860
▁thief	-9861
▁Bridge	-9862
▁autumn	-9863
▁deeply	-9864
▁loving	-9865
▁portug	-9866
▁spoons	-9867
▁ceiling	-9868
▁diamond	-9869
▁doorway	-9870
▁physics	-9871
▁dressing	-9872
▁improved	-9873
▁proposal	-9874
iterranean	-9875
▁desperate	-9876
▁magnificent	-9877
For	-9878
awk	-9879
erk	-9880
▁"_	-9881
▁Ec	-9882
onge	-9883
phia	-9884
rait	-9885
rily	-9886
▁Bon	-9887
▁Hay	-9888
actly	-9889
andal	-9890
▁amus	-9891
▁cock	-9892
▁grat	-9893
▁leap	-9894
▁rejo	-9895
▁soda	-9896
▁subt	-9897
▁Roger	-9898
▁consc	-9899
▁pecul	-9900
▁pulls	-9901
▁ridic	-9902
▁simpl	-9903
igenous	-9904
reading	-9905
uctions	-9906
▁aboard	-9907
▁calais	-9908
▁harbor	-9909
▁solemn	-9910
▁picardy	-9911
▁suicide	-9912
▁facility	-9913
▁midnight	-9914
▁sporting	-9915
▁stopping	-9916
▁affection	-9917
▁construct	-9918
▁sculpture	-9919
▁containing	-9920
▁midfielder	-9921
▁resistance	-9922
▁destruction	-9923
▁representing	-9924
BA	-9925
GFA	-9926
adi	-9927
bly	-9928
Bill	-9929
baby	-9930
rome	-9931
▁Jay	-9932
▁MAN	-9933
ighed	-9934
lines	-9935
organ	-9936
ucing	-9937
▁THEY	-9938
▁blaz	-9939
▁dies	-9940
atched	-9941
idency	-9942
shakes	-9943
▁Chair	-9944
▁Lewis	-9945
▁aloud	-9946
▁diagn	-9947
▁yards	-9948
▁nodded	-9949
▁polish	-9950
▁powder	-9951
▁prosec	-9952
▁Greater	-9953
▁Hungary	-9954
▁beating	-9955
▁nursery	-9956
▁planets	-9957
▁referee	-9958
▁feathers	-9959
▁inquired	-9960
▁peculiar	-9961
▁restored	-9962
▁Argentina	-9963
▁execution	-9964
▁gradually	-9965
▁provinces	-9966
▁resulting	-9967
▁adventures	-9968
▁sweatshirt	-9969
▁photographer	-9970
▁extraordinary	-9971
sb	-9972
ée	-9973
▁IV	-9974
▁ft	-9975
Your	-9976
]...	-9977
oshi	-9978
▁Run	-9979
▁naz	-9980
▁oak	-9981
▁sed	-9982
athon	-9983
othes	-9984
▁Finn	-9985
teenth	-9986
▁Bobby	-9987
▁Check	-9988
▁Vegas	-9989
▁beast	-9990
▁bikes	-9991
▁blues	-9992
▁kinda	-9993
▁wreck	-9994
minster	-9995
▁Alfred	-9996
▁global	-9997
▁Harvard	-9998
▁Rimbolt	-9999
▁breathe	-10000
▁mounted	-10001
▁shallow	-10002
▁stripes	-10003
▁Pakistan	-10004
▁estimate	-10005
▁oklahoma	-10006
▁versions	-10007
▁differences	-10008
▁interrupted	-10009
BI	-10010
rav	-10011
via	-10012
▁AD	-10013
LING	-10014
adys	-10015
onto	-10016
otes	-10017
ouch	-10018
stan	-10019
▁Ast	-10020
▁bin	-10021
▁moo	-10022
▁vic	-10023
ategy	-10024
fight	-10025
woman	-10026
▁Arts	-10027
▁Hard	-10028
▁Moon	-10029
▁gene	-10030
▁lamp	-10031
▁pops	-10032
asures	-10033
ophone	-10034
▁Ready	-10035
▁cough	-10036
▁galax	-10037
▁liver	-10038
▁scare	-10039
antilly	-10040
onsieur	-10041
▁Corpor	-10042
▁Poirot	-10043
▁chapel	-10044
▁refuse	-10045
▁trunks	-10046
▁Raymond	-10047
▁anxiety	-10048
▁microsc	-10049
▁mystery	-10050
▁Egyptian	-10051
▁Franklin	-10052
▁literary	-10053
▁mistaken	-10054
▁depression	-10055
▁Championships	-10056
UD	-10057
UNT	-10058
lay	-10059
▁tu	-10060
mail	-10061
ovak	-10062
rine	-10063
▁Var	-10064
▁jim	-10065
rings	-10066
▁Dora	-10067
▁Exec	-10068
▁lets	-10069
▁oven	-10070
▁silk	-10071
▁soil	-10072
headed	-10073
uation	-10074
▁Basil	-10075
▁texas	-10076
▁trash	-10077
ignment	-10078
▁Jordan	-10079
▁Newman	-10080
▁abroad	-10081
▁assume	-10082
▁cooked	-10083
▁Flossie	-10084
▁Iranian	-10085
▁Univers	-10086
▁britain	-10087
▁factors	-10088
▁options	-10089
▁disaster	-10090
▁pavement	-10091
▁strategy	-10092
▁abandoned	-10093
▁disappear	-10094
▁movements	-10095
▁residence	-10096
▁shirtless	-10097
▁personality	-10098
hou	-10099
jab	-10100
pur	-10101
vas	-10102
amen	-10103
ante	-10104
iary	-10105
load	-10106
▁Ayl	-10107
▁ere	-10108
▁reb	-10109
▁tad	-10110
eller	-10111
sound	-10112
▁fuss	-10113
▁palm	-10114
▁sore	-10115
alling	-10116
arrass	-10117
enburg	-10118
thodox	-10119
▁Chuck	-10120
▁Civil	-10121
▁Keith	-10122
▁chips	-10123
▁hired	-10124
▁procl	-10125
▁stiff	-10126
ulatory	-10127
▁Peters	-10128
▁Public	-10129
▁bullet	-10130
▁drawer	-10131
▁format	-10132
▁surviv	-10133
▁Desmond	-10134
▁pacific	-10135
▁assembly	-10136
▁employed	-10137
▁icecream	-10138
▁informed	-10139
▁messages	-10140
▁intention	-10141
▁Foundation	-10142
▁netherlands	-10143
▁transferred	-10144
▁distribution	-10145
▁participated	-10146
▁AC	-10147
▁Lu	-10148
erry	-10149
otto	-10150
▁Cas	-10151
▁avo	-10152
▁dow	-10153
▁laz	-10154
▁paj	-10155
▁vul	-10156
pless	-10157
▁Gall	-10158
▁Mall	-10159
▁Ruth	-10160
▁clin	-10161
▁load	-10162
▁nood	-10163
ieties	-10164
incent	-10165
upiter	-10166
▁Willy	-10167
▁facts	-10168
▁islam	-10169
▁phase	-10170
inction	-10171
▁Sandra	-10172
▁voting	-10173
▁Antonio	-10174
▁Colonel	-10175
▁Finally	-10176
▁dragged	-10177
▁grocery	-10178
▁joining	-10179
▁shelter	-10180
▁swedish	-10181
▁typical	-10182
forcement	-10183
▁Anything	-10184
▁Champion	-10185
▁measures	-10186
▁confusion	-10187
▁spiritual	-10188
▁attractive	-10189
▁reasonable	-10190
Mar	-10191
bian	-10192
helm	-10193
▁Hoo	-10194
▁Nep	-10195
▁lif	-10196
ribly	-10197
▁Hope	-10198
▁Page	-10199
▁Vien	-10200
▁brid	-10201
▁keen	-10202
▁mini	-10203
▁subd	-10204
estone	-10205
ibbean	-10206
▁naked	-10207
▁swims	-10208
▁Aylmer	-10209
▁Family	-10210
▁crimes	-10211
▁joseph	-10212
▁kitten	-10213
▁russia	-10214
▁sprang	-10215
adelphia	-10216
▁Frisbee	-10217
▁deserve	-10218
▁existed	-10219
▁visitor	-10220
▁approved	-10221
▁attitude	-10222
▁defender	-10223
▁briefcase	-10224
aru	-10225
cup	-10226
▁Id	-10227
anne	-10228
▁Bal	-10229
▁Fif	-10230
▁sne	-10231
▁une	-10232
iders	-10233
olars	-10234
omers	-10235
▁Aren	-10236
▁Budd	-10237
▁Mand	-10238
▁hath	-10239
▁imit	-10240
▁Class	-10241
▁burnt	-10242
▁irish	-10243
▁refri	-10244
▁tires	-10245
▁Bishop	-10246
▁collar	-10247
▁option	-10248
▁reprod	-10249
▁resign	-10250
▁sleepy	-10251
ustrated	-10252
▁Patrick	-10253
▁Program	-10254
▁circles	-10255
▁mayenne	-10256
▁entering	-10257
▁expenses	-10258
▁embarrass	-10259
▁electrical	-10260
▁institution	-10261
▁territories	-10262
▁underground	-10263
▁competitions	-10264
▁establishment	-10265
▁manufacturing	-10266
adu	-10267
▁BY	-10268
erer	-10269
made	-10270
mund	-10271
orse	-10272
ynam	-10273
▁Sit	-10274
▁Syl	-10275
▁Wat	-10276
▁ink	-10277
▁ugh	-10278
▁vib	-10279
▁voc	-10280
▁Beat	-10281
▁FIFA	-10282
▁Goth	-10283
▁Lomb	-10284
▁bern	-10285
▁cafe	-10286
▁ford	-10287
▁shed	-10288
▁tops	-10289
icycle	-10290
▁Cross	-10291
▁Hotel	-10292
▁Kelly	-10293
▁Korea	-10294
▁cakes	-10295
▁canal	-10296
▁coats	-10297
▁crust	-10298
▁gates	-10299
▁nobel	-10300
▁patri	-10301
▁Esther	-10302
▁Forest	-10303
▁Polish	-10304
▁assets	-10305
▁beaten	-10306
▁begged	-10307
▁shares	-10308
▁largely	-10309
▁roughly	-10310
▁tractor	-10311
▁designer	-10312
▁injuries	-10313
▁invented	-10314
▁suitable	-10315
▁displayed	-10316
▁elizabeth	-10317
▁neighbors	-10318
▁seventeen	-10319
▁butterflies	-10320
▁corporation	-10321
▁restaurants	-10322
PP	-10323
▁HIM	-10324
▁Lad	-10325
▁jur	-10326
▁lan	-10327
verty	-10328
▁Poll	-10329
▁Rick	-10330
▁Talk	-10331
▁beet	-10332
▁dwar	-10333
▁fert	-10334
▁fulf	-10335
▁phen	-10336
▁shit	-10337
▁sole	-10338
▁whoo	-10339
master	-10340
▁Beach	-10341
▁devil	-10342
▁prote	-10343
▁santa	-10344
▁spill	-10345
▁widow	-10346
▁Indeed	-10347
▁Margot	-10348
▁israel	-10349
▁sample	-10350
▁Between	-10351
▁Supreme	-10352
▁cleared	-10353
▁decades	-10354
▁digging	-10355
▁poverty	-10356
▁Administ	-10357
▁Carolina	-10358
▁kneeling	-10359
▁superior	-10360
▁conclusion	-10361
▁incredible	-10362
▁necessarily	-10363
▁Metropolitan	-10364
▁intervention	-10365
▁contributions	-10366
▁representation	-10367
CA	-10368
ASE	-10369
bac	-10370
low	-10371
unc	-10372
▁AS	-10373
▁Ot	-10374
fers	-10375
isse	-10376
▁Kaz	-10377
▁Web	-10378
Brian	-10379
arson	-10380
refer	-10381
▁Case	-10382
▁Ford	-10383
▁Pret	-10384
▁Raby	-10385
▁buzz	-10386
▁ding	-10387
▁rage	-10388
ternal	-10389
▁Color	-10390
▁abbre	-10391
▁blade	-10392
▁moral	-10393
▁slope	-10394
sterdam	-10395
▁Apollo	-10396
▁Dragon	-10397
▁copper	-10398
▁crayon	-10399
▁elimin	-10400
▁horrid	-10401
▁confirm	-10402
▁deliber	-10403
▁designs	-10404
▁farmers	-10405
▁marched	-10406
▁precise	-10407
▁seeking	-10408
▁assigned	-10409
▁controls	-10410
▁discount	-10411
▁spaghetti	-10412
▁experiences	-10413
De	-10414
Wh	-10415
BAB	-10416
▁CD	-10417
▁Ep	-10418
▁Ms	-10419
Look	-10420
emet	-10421
hell	-10422
itol	-10423
nded	-10424
zona	-10425
▁arc	-10426
▁bib	-10427
▁gle	-10428
▁vit	-10429
ribed	-10430
▁Hank	-10431
▁crop	-10432
▁fake	-10433
▁goat	-10434
▁tons	-10435
▁carol	-10436
▁drank	-10437
▁shelf	-10438
covered	-10439
▁barrel	-10440
▁combat	-10441
▁fixing	-10442
▁intent	-10443
▁sailed	-10444
▁voiced	-10445
▁Hemings	-10446
▁Muslims	-10447
▁Pacific	-10448
▁battles	-10449
▁dismiss	-10450
▁fucking	-10451
▁kicking	-10452
▁monitor	-10453
▁proport	-10454
▁sharing	-10455
▁interior	-10456
▁promoted	-10457
▁functions	-10458
▁lightning	-10459
▁policeman	-10460
▁earthquake	-10461
TV	-10462
cb	-10463
ICE	-10464
IND	-10465
LES	-10466
avi	-10467
sar	-10468
▁NE	-10469
▁Ta	-10470
▁mi	-10471
iege	-10472
olis	-10473
▁Aff	-10474
▁Bos	-10475
▁CAN	-10476
asper	-10477
istol	-10478
▁Drum	-10479
▁Find	-10480
▁Hand	-10481
▁Holl	-10482
▁auth	-10483
▁cops	-10484
▁shar	-10485
▁tiss	-10486
bishop	-10487
enters	-10488
itable	-10489
ortion	-10490
▁Organ	-10491
▁chlor	-10492
▁initi	-10493
▁rolls	-10494
▁stead	-10495
acement	-10496
iceless	-10497
imental	-10498
▁Moscow	-10499
▁anthem	-10500
▁makeup	-10501
▁novels	-10502
▁scenes	-10503
▁titled	-10504
▁muscles	-10505
▁naughty	-10506
▁accommod	-10507
▁mistakes	-10508
▁opportun	-10509
▁shouting	-10510
▁sometime	-10511
▁Meanwhile	-10512
▁fundament	-10513
▁mythology	-10514
▁references	-10515
▁skateboarder	-10516
BS	-10517
du	-10518
rm	-10519
ACK	-10520
asm	-10521
cat	-10522
▁jr	-10523
achi	-10524
udes	-10525
▁BUT	-10526
▁Cub	-10527
▁Gib	-10528
▁Stu	-10529
ITTLE	-10530
inder	-10531
nding	-10532
ouses	-10533
▁Viet	-10534
▁gamb	-10535
▁pudd	-10536
▁toes	-10537
includ	-10538
▁Board	-10539
▁Nikki	-10540
▁arose	-10541
▁audit	-10542
▁depth	-10543
▁fetch	-10544
▁gifts	-10545
▁grief	-10546
▁multi	-10547
▁tryin	-10548
▁ummhm	-10549
emetery	-10550
▁Rachel	-10551
▁napkin	-10552
▁resemb	-10553
▁austria	-10554
▁camping	-10555
▁compens	-10556
▁glanced	-10557
▁revenge	-10558
▁tickets	-10559
▁Hollywood	-10560
▁efficient	-10561
▁Oxfordshire	-10562
▁manufacture	-10563
▁occasionally	-10564
▁successfully	-10565
▁participating	-10566
ATE	-10567
aho	-10568
may	-10569
oda	-10570
▁Eh	-10571
▁RA	-10572
▁Sa	-10573
▁kh	-10574
onom	-10575
rons	-10576
▁Age	-10577
▁Cad	-10578
▁Def	-10579
▁Dur	-10580
▁Gor	-10581
▁Lat	-10582
▁eur	-10583
lfare	-10584
▁Bart	-10585
▁Burg	-10586
▁Card	-10587
▁Dean	-10588
▁Edie	-10589
▁Line	-10590
▁amid	-10591
▁pace	-10592
▁wrap	-10593
itical	-10594
rafton	-10595
▁Spani	-10596
▁adopt	-10597
▁argue	-10598
issance	-10599
▁System	-10600
▁adding	-10601
▁bacter	-10602
▁banana	-10603
▁courts	-10604
▁ginger	-10605
▁overse	-10606
▁runner	-10607
inations	-10608
▁Windows	-10609
▁candles	-10610
▁charity	-10611
▁privile	-10612
▁warrant	-10613
▁welfare	-10614
▁Probably	-10615
▁illinois	-10616
▁opposing	-10617
▁protests	-10618
▁followers	-10619
▁passenger	-10620
▁Christians	-10621
▁correspond	-10622
▁instructions	-10623
sn	-10624
cus	-10625
rac	-10626
▁BO	-10627
atus	-10628
gain	-10629
gate	-10630
mill	-10631
▁Due	-10632
▁Him	-10633
▁Nar	-10634
▁mum	-10635
olves	-10636
▁Anna	-10637
▁Gulf	-10638
▁mike	-10639
▁rang	-10640
▁robe	-10641
▁sher	-10642
▁stan	-10643
▁worm	-10644
▁angle	-10645
▁aster	-10646
▁broom	-10647
▁choir	-10648
▁kidna	-10649
▁mamma	-10650
▁overt	-10651
assador	-10652
▁LITTLE	-10653
▁boring	-10654
▁pardon	-10655
▁random	-10656
▁steady	-10657
▁thrill	-10658
▁traged	-10659
▁wishes	-10660
▁Station	-10661
▁priests	-10662
▁supreme	-10663
abilities	-10664
continues	-10665
▁founding	-10666
▁smallest	-10667
▁traveling	-10668
▁Management	-10669
▁encouraged	-10670
▁Scholarship	-10671
▁intelligent	-10672
▁snowboarder	-10673
LW	-10674
Per	-10675
ROM	-10676
isk	-10677
▁om	-10678
fare	-10679
otta	-10680
seud	-10681
▁Cab	-10682
▁Edd	-10683
▁arb	-10684
▁bom	-10685
▁dun	-10686
▁tun	-10687
after	-10688
cules	-10689
front	-10690
graph	-10691
yrics	-10692
▁cane	-10693
▁kite	-10694
▁pork	-10695
wegian	-10696
▁Lucas	-10697
▁dwell	-10698
▁glory	-10699
▁lined	-10700
▁parad	-10701
▁slipp	-10702
▁swept	-10703
osition	-10704
retched	-10705
▁Scarfe	-10706
▁ascend	-10707
▁clergy	-10708
▁models	-10709
▁rebell	-10710
▁tastes	-10711
▁Anthony	-10712
▁Diandra	-10713
▁olympic	-10714
▁pennies	-10715
▁detailed	-10716
▁striking	-10717
▁Hungarian	-10718
▁commanded	-10719
▁finishing	-10720
▁greenbelt	-10721
▁institute	-10722
▁complicated	-10723
▁effectively	-10724
LS	-10725
Ph	-10726
vor	-10727
▁Fü	-10728
▁LO	-10729
anas	-10730
ilst	-10731
iped	-10732
▁Cir	-10733
▁hed	-10734
▁nhl	-10735
▁tal	-10736
▁vow	-10737
acles	-10738
aroni	-10739
count	-10740
exits	-10741
▁Nord	-10742
▁awoh	-10743
▁ment	-10744
▁rebu	-10745
▁stim	-10746
▁wipe	-10747
ithuan	-10748
sembly	-10749
umbles	-10750
▁arena	-10751
▁fires	-10752
▁recru	-10753
▁Becket	-10754
▁Morgan	-10755
▁Vienna	-10756
▁fabric	-10757
▁invite	-10758
▁pedest	-10759
▁pushes	-10760
▁rapper	-10761
▁videos	-10762
▁Develop	-10763
▁chicago	-10764
▁citizen	-10765
▁harness	-10766
▁knights	-10767
▁sailing	-10768
▁squeeze	-10769
▁strings	-10770
ittsburgh	-10771
▁Michigan	-10772
▁boundary	-10773
▁champions	-10774
▁conquered	-10775
▁convinced	-10776
▁partially	-10777
▁processes	-10778
▁successor	-10779
▁comprehens	-10780
▁statements	-10781
▁mathematics	-10782
▁refrigerator	-10783
RS	-10784
bi	-10785
ti	-10786
URE	-10787
aii	-10788
etr	-10789
obi	-10790
ori	-10791
uri	-10792
mble	-10793
pert	-10794
ucks	-10795
uine	-10796
▁Eva	-10797
▁Hal	-10798
oenix	-10799
oning	-10800
onsin	-10801
▁Cook	-10802
▁Lane	-10803
▁Shaw	-10804
▁hire	-10805
▁sofa	-10806
noises	-10807
▁Dream	-10808
▁Ghost	-10809
▁Kevin	-10810
▁paras	-10811
▁poses	-10812
▁roots	-10813
▁roses	-10814
▁strip	-10815
▁tramp	-10816
ulating	-10817
▁Author	-10818
▁Korean	-10819
▁Mister	-10820
▁ashore	-10821
▁feared	-10822
▁genius	-10823
▁thread	-10824
▁cyclist	-10825
▁exposed	-10826
▁liberty	-10827
▁pajamas	-10828
▁stretch	-10829
ouncillor	-10830
▁Drummond	-10831
▁sprinting	-10832
▁educational	-10833
▁performances	-10834
sa	-10835
iki	-10836
zed	-10837
hill	-10838
mans	-10839
oric	-10840
ules	-10841
▁Lau	-10842
▁Sab	-10843
▁Sad	-10844
▁cel	-10845
akota	-10846
ammad	-10847
attan	-10848
orage	-10849
▁Main	-10850
▁PLAY	-10851
▁echo	-10852
▁gaze	-10853
▁gulf	-10854
atical	-10855
▁Radio	-10856
▁armen	-10857
▁grows	-10858
▁shift	-10859
▁snack	-10860
▁stake	-10861
▁tummy	-10862
ouncing	-10863
related	-10864
▁Gladys	-10865
▁anyhow	-10866
▁archae	-10867
▁candle	-10868
▁depict	-10869
▁finest	-10870
▁racket	-10871
▁thrust	-10872
▁Project	-10873
▁Science	-10874
▁conspir	-10875
▁convent	-10876
▁defence	-10877
▁drummer	-10878
▁jewelry	-10879
▁secrets	-10880
▁Assembly	-10881
▁highlight	-10882
▁producing	-10883
▁sentences	-10884
▁technique	-10885
▁appearances	-10886
JO	-10887
▁¶	-10888
oyd	-10889
aude	-10890
iths	-10891
▁Oak	-10892
▁Roc	-10893
▁Tar	-10894
eland	-10895
elope	-10896
leton	-10897
somet	-10898
▁HERE	-10899
▁Half	-10900
▁Jess	-10901
▁barr	-10902
▁boil	-10903
▁crib	-10904
▁jane	-10905
▁lied	-10906
▁math	-10907
▁matt	-10908
▁orph	-10909
▁syll	-10910
employ	-10911
▁Krist	-10912
▁Peace	-10913
▁blast	-10914
▁brass	-10915
▁files	-10916
▁niece	-10917
igation	-10918
▁ceased	-10919
▁danced	-10920
▁fortun	-10921
▁hotels	-10922
▁ranked	-10923
▁spaces	-10924
▁tested	-10925
▁throws	-10926
isconsin	-10927
▁cousins	-10928
▁marbles	-10929
▁pouring	-10930
▁readers	-10931
▁spelled	-10932
Billboard	-10933
▁Division	-10934
▁brightly	-10935
▁kentucky	-10936
▁kindness	-10937
▁matching	-10938
▁sections	-10939
▁amusement	-10940
▁answering	-10941
▁concluded	-10942
▁emissions	-10943
▁impatient	-10944
▁recovered	-10945
▁challenges	-10946
▁publishing	-10947
▁struggling	-10948
▁whispering	-10949
▁appointment	-10950
▁unfortunate	-10951
▁applications	-10952
su	-10953
KID	-10954
bal	-10955
bie	-10956
osa	-10957
▁FE	-10958
▁Wr	-10959
four	-10960
iazz	-10961
inks	-10962
pers	-10963
▁THI	-10964
ifted	-10965
paper	-10966
pulls	-10967
ultan	-10968
▁Ferg	-10969
▁lays	-10970
▁tune	-10971
vation	-10972
▁Irene	-10973
▁Peggy	-10974
▁aimed	-10975
▁bills	-10976
▁cared	-10977
▁links	-10978
▁steak	-10979
▁topic	-10980
▁twist	-10981
onation	-10982
▁Dallas	-10983
▁insult	-10984
▁ruling	-10985
▁toilet	-10986
ennessee	-10987
▁Grafton	-10988
▁hastily	-10989
▁scooter	-10990
▁wanting	-10991
▁Lawrence	-10992
▁carnival	-10993
▁complain	-10994
▁generous	-10995
▁macaroni	-10996
▁olympics	-10997
▁pretends	-10998
▁Chantilly	-10999
▁historian	-11000
▁philosopher	-11001
▁opportunities	-11002
Bl	-11003
je	-11004
ARS	-11005
tub	-11006
anka	-11007
bott	-11008
esar	-11009
haus	-11010
icia	-11011
▁Ret	-11012
▁Sri	-11013
▁Via	-11014
▁gim	-11015
ammed	-11016
▁Bozo	-11017
▁Lucy	-11018
▁carl	-11019
▁Clear	-11020
▁alike	-11021
▁creek	-11022
▁harsh	-11023
▁jelly	-11024
▁jolly	-11025
▁pengu	-11026
▁brazil	-11027
▁franch	-11028
▁karate	-11029
▁poland	-11030
▁transm	-11031
▁beloved	-11032
▁consent	-11033
▁devices	-11034
▁dreamed	-11035
▁funeral	-11036
▁observe	-11037
▁tallest	-11038
▁tremend	-11039
referring	-11040
▁educated	-11041
▁entitled	-11042
▁imagined	-11043
ifications	-11044
▁economics	-11045
▁impressed	-11046
▁promotion	-11047
▁provision	-11048
▁Absolutely	-11049
▁Republicans	-11050
▁description	-11051
▁switzerland	-11052
▁difficulties	-11053
▁presentation	-11054
▁universities	-11055
IV	-11056
Un	-11057
MAN	-11058
awn	-11059
bat	-11060
usk	-11061
▁GR	-11062
▁XV	-11063
▁ri	-11064
erto	-11065
udge	-11066
▁Bry	-11067
▁NOW	-11068
▁Pot	-11069
▁ard	-11070
▁ups	-11071
----"	-11072
empts	-11073
geous	-11074
rians	-11075
▁Cind	-11076
▁Gary	-11077
▁Lion	-11078
▁Made	-11079
▁Wend	-11080
▁beef	-11081
▁diet	-11082
▁encl	-11083
▁fanc	-11084
▁grim	-11085
▁sled	-11086
ifully	-11087
▁Doesn	-11088
▁adapt	-11089
▁brows	-11090
▁frost	-11091
▁inaug	-11092
▁ketch	-11093
▁momma	-11094
ospital	-11095
screams	-11096
▁Justin	-11097
▁breaks	-11098
▁joking	-11099
▁premie	-11100
▁tigers	-11101
▁collaps	-11102
▁columns	-11103
▁genuine	-11104
▁nearest	-11105
▁puzzled	-11106
▁recover	-11107
▁savings	-11108
▁swallow	-11109
▁dramatic	-11110
▁publicly	-11111
▁quarters	-11112
▁scholars	-11113
▁supplies	-11114
▁sweeping	-11115
▁sovereign	-11116
▁percentage	-11117
▁structures	-11118
▁suggestion	-11119
▁participants	-11120
▁significantly	-11121
hu	-11122
ooh	-11123
tie	-11124
inea	-11125
loud	-11126
olve	-11127
umed	-11128
vell	-11129
▁Imp	-11130
▁Kid	-11131
adays	-11132
▁Base	-11133
▁Sean	-11134
▁bond	-11135
▁neut	-11136
▁ruin	-11137
forest	-11138
▁Camer	-11139
▁blows	-11140
▁click	-11141
▁eatin	-11142
▁jesus	-11143
▁panel	-11144
fashion	-11145
▁Indust	-11146
▁armies	-11147
▁chains	-11148
▁firmly	-11149
▁fruits	-11150
▁linked	-11151
▁postal	-11152
▁reserv	-11153
▁rhythm	-11154
▁select	-11155
▁sewing	-11156
▁Olympic	-11157
▁equival	-11158
▁railing	-11159
▁thirsty	-11160
▁zealand	-11161
▁approval	-11162
▁merchant	-11163
▁nickname	-11164
▁staircase	-11165
▁expedition	-11166
▁southeastern	-11167
hh	-11168
AKE	-11169
bro	-11170
die	-11171
▁Mi	-11172
ovie	-11173
▁Mmm	-11174
▁tug	-11175
▁yog	-11176
abled	-11177
iency	-11178
maker	-11179
▁Oper	-11180
▁Sene	-11181
▁Vava	-11182
▁eleg	-11183
▁kitt	-11184
▁narr	-11185
▁trim	-11186
iosity	-11187
starts	-11188
▁alleg	-11189
▁buses	-11190
▁essay	-11191
▁grill	-11192
▁layer	-11193
inburgh	-11194
▁Around	-11195
▁Manche	-11196
▁actors	-11197
▁needle	-11198
▁snakes	-11199
▁swings	-11200
▁trucks	-11201
▁virgin	-11202
▁Exactly	-11203
▁Persian	-11204
▁assured	-11205
▁beliefs	-11206
▁circuit	-11207
▁enthusi	-11208
▁lifting	-11209
▁pilgrim	-11210
▁guardian	-11211
▁instinct	-11212
▁judgment	-11213
▁marathon	-11214
▁symphony	-11215
▁chemistry	-11216
▁encourage	-11217
▁preferred	-11218
▁relatives	-11219
▁invitation	-11220
▁laboratory	-11221
▁manchester	-11222
▁introduction	-11223
;"	-11224
At	-11225
LIN	-11226
bus	-11227
rix	-11228
▁gy	-11229
KING	-11230
bted	-11231
feld	-11232
hall	-11233
hard	-11234
ymph	-11235
▁Exp	-11236
▁Nel	-11237
aping	-11238
thorp	-11239
▁Juan	-11240
▁Lill	-11241
▁Navy	-11242
▁mice	-11243
▁oath	-11244
▁vary	-11245
burger	-11246
ricate	-11247
▁Start	-11248
▁dried	-11249
▁drown	-11250
▁goose	-11251
▁renew	-11252
amation	-11253
holding	-11254
▁Aubrey	-11255
▁Fergus	-11256
▁Parker	-11257
▁courty	-11258
▁eighth	-11259
▁ruined	-11260
▁shells	-11261
▁talkin	-11262
▁therap	-11263
▁warned	-11264
▁worksh	-11265
▁Grandma	-11266
▁Morning	-11267
▁damaged	-11268
▁fencing	-11269
▁finance	-11270
▁prosper	-11271
▁Business	-11272
▁confront	-11273
▁coverage	-11274
▁expanded	-11275
▁heritage	-11276
▁measured	-11277
▁meetings	-11278
▁Geography	-11279
▁infection	-11280
▁pollution	-11281
▁sentenced	-11282
▁signature	-11283
▁Inglethorp	-11284
▁personally	-11285
▁techniques	-11286
▁substantial	-11287
▁contemporary	-11288
DP	-11289
gee	-11290
yon	-11291
▁Py	-11292
asha	-11293
dale	-11294
icop	-11295
ixon	-11296
oped	-11297
▁Non	-11298
▁Tag	-11299
▁kay	-11300
▁mim	-11301
Brown	-11302
oland	-11303
onnie	-11304
speak	-11305
ugosl	-11306
▁Rhod	-11307
▁summ	-11308
action	-11309
▁ABOUT	-11310
▁crept	-11311
▁fears	-11312
▁nasty	-11313
▁valid	-11314
▁weary	-11315
▁Lawyer	-11316
▁carved	-11317
▁engage	-11318
▁frozen	-11319
▁hosted	-11320
▁nothin	-11321
▁routes	-11322
▁visits	-11323
▁Bradley	-11324
▁Matthew	-11325
▁annoyed	-11326
▁density	-11327
▁snowman	-11328
irmingham	-11329
▁customer	-11330
▁weakness	-11331
▁describes	-11332
▁magazines	-11333
▁imagination	-11334
▁recommended	-11335
▁incorporated	-11336
▁championships	-11337
gi	-11338
té	-11339
ín	-11340
One	-11341
bas	-11342
▁Aw	-11343
▁LA	-11344
Miss	-11345
ikes	-11346
iven	-11347
olph	-11348
roid	-11349
▁DID	-11350
▁Mas	-11351
▁dum	-11352
▁sab	-11353
guard	-11354
ousin	-11355
▁bunk	-11356
▁burg	-11357
▁greg	-11358
▁heir	-11359
▁mode	-11360
▁rome	-11361
▁taxi	-11362
inking	-11363
orrect	-11364
▁Daisy	-11365
▁cares	-11366
▁moder	-11367
▁roast	-11368
▁solve	-11369
▁toler	-11370
▁vault	-11371
istical	-11372
removes	-11373
▁Beside	-11374
▁Hitler	-11375
▁bushes	-11376
▁hiking	-11377
▁parish	-11378
▁sailor	-11379
▁shouts	-11380
▁Channel	-11381
▁Skinner	-11382
▁ceremon	-11383
▁disagre	-11384
▁insects	-11385
▁laundry	-11386
▁maximum	-11387
▁absolute	-11388
▁bicycles	-11389
▁marching	-11390
▁perspect	-11391
▁protocol	-11392
▁register	-11393
▁traveled	-11394
▁Jefferson	-11395
▁attracted	-11396
▁identical	-11397
▁presenter	-11398
▁substance	-11399
▁suspected	-11400
▁colleagues	-11401
▁Environment	-11402
▁disappointment	-11403
mt	-11404
DER	-11405
dle	-11406
▁TW	-11407
▁Ut	-11408
MBER	-11409
alus	-11410
ggie	-11411
ibet	-11412
imet	-11413
quer	-11414
tuce	-11415
▁WWE	-11416
▁caf	-11417
▁goo	-11418
ATION	-11419
ascal	-11420
first	-11421
regon	-11422
stick	-11423
▁Balt	-11424
▁Band	-11425
▁Gray	-11426
▁budd	-11427
▁fuck	-11428
▁mant	-11429
olding	-11430
▁Crown	-11431
▁Enter	-11432
▁Evans	-11433
▁bells	-11434
▁blown	-11435
▁breed	-11436
▁catal	-11437
▁chill	-11438
▁vests	-11439
▁yells	-11440
▁Harvey	-11441
▁Hebrew	-11442
▁Martha	-11443
▁accent	-11444
▁cadets	-11445
▁surfer	-11446
▁voyage	-11447
ertainly	-11448
kerchief	-11449
▁Foreign	-11450
▁chances	-11451
▁chapter	-11452
▁counted	-11453
▁examine	-11454
▁reaches	-11455
▁shaving	-11456
▁sliding	-11457
▁wealthy	-11458
▁Atlantic	-11459
▁Hospital	-11460
▁Research	-11461
▁employee	-11462
▁external	-11463
▁opponent	-11464
▁payments	-11465
▁phenomen	-11466
▁relevant	-11467
▁speakers	-11468
▁Catherine	-11469
▁Executive	-11470
▁alexander	-11471
▁attending	-11472
▁converted	-11473
▁reflected	-11474
▁surfboard	-11475
▁competitive	-11476
▁composition	-11477
▁countryside	-11478
▁advertisement	-11479
▁skateboarding	-11480
pin	-11481
rah	-11482
▁gn	-11483
▁ni	-11484
babb	-11485
emed	-11486
enna	-11487
itis	-11488
sson	-11489
will	-11490
xide	-11491
▁Dri	-11492
▁haz	-11493
about	-11494
clist	-11495
ieved	-11496
▁Fran	-11497
▁Roll	-11498
▁Shah	-11499
▁alle	-11500
▁damn	-11501
▁fern	-11502
▁fest	-11503
▁flex	-11504
▁jean	-11505
▁jeff	-11506
▁mour	-11507
▁poem	-11508
▁Bring	-11509
▁Treat	-11510
▁coord	-11511
▁hydro	-11512
▁mines	-11513
▁pyram	-11514
▁shone	-11515
tingham	-11516
▁Things	-11517
▁dances	-11518
▁paused	-11519
▁visual	-11520
attempts	-11521
iversary	-11522
▁aspects	-11523
▁cluster	-11524
▁derived	-11525
▁forming	-11526
▁immense	-11527
▁interfe	-11528
▁whereas	-11529
▁whoever	-11530
▁Venezuel	-11531
▁glorious	-11532
▁sympathy	-11533
▁thankful	-11534
▁estimates	-11535
▁qualified	-11536
▁households	-11537
▁procedures	-11538
▁ridiculous	-11539
▁translated	-11540
▁Philippines	-11541
▁maintenance	-11542
▁Thanksgiving	-11543
▁distinguished	-11544
oni	-11545
uum	-11546
▁gh	-11547
icut	-11548
▁Arm	-11549
▁Beh	-11550
▁Lam	-11551
▁Rud	-11552
▁Tam	-11553
▁ali	-11554
▁hob	-11555
▁tas	-11556
bound	-11557
icken	-11558
ilian	-11559
▁Upon	-11560
▁bart	-11561
▁dude	-11562
▁inch	-11563
▁neur	-11564
▁peep	-11565
▁pion	-11566
▁tact	-11567
boards	-11568
castle	-11569
ournal	-11570
▁Brand	-11571
▁Broad	-11572
▁Ocean	-11573
▁booth	-11574
▁motiv	-11575
uddenly	-11576
writing	-11577
ynamite	-11578
▁Graham	-11579
▁admire	-11580
▁hunger	-11581
▁judges	-11582
▁modest	-11583
▁riders	-11584
▁savage	-11585
▁trials	-11586
▁courses	-11587
▁disgust	-11588
▁harvest	-11589
▁humming	-11590
▁outfits	-11591
▁placing	-11592
▁routine	-11593
▁scholar	-11594
▁surfing	-11595
▁temples	-11596
▁Reliance	-11597
▁chickens	-11598
▁concerts	-11599
▁creative	-11600
▁terribly	-11601
▁troubled	-11602
▁vanished	-11603
▁correctly	-11604
▁elsewhere	-11605
▁exhibition	-11606
▁mysterious	-11607
▁fascinating	-11608
MS	-11609
Re	-11610
elf	-11611
hah	-11612
kun	-11613
won	-11614
▁Ask	-11615
▁Aut	-11616
▁BBC	-11617
▁dod	-11618
▁eru	-11619
▁roo	-11620
armed	-11621
ingle	-11622
plate	-11623
talks	-11624
▁Gate	-11625
▁Jama	-11626
▁Joey	-11627
▁Lisa	-11628
▁None	-11629
▁cass	-11630
▁mans	-11631
▁mars	-11632
anting	-11633
ective	-11634
elines	-11635
wright	-11636
▁Diana	-11637
▁Donna	-11638
▁Doubs	-11639
▁Elite	-11640
▁Story	-11641
▁cloak	-11642
▁fewer	-11643
▁smith	-11644
▁Almost	-11645
▁Forget	-11646
▁Grammy	-11647
▁Harris	-11648
▁Marian	-11649
▁Native	-11650
▁chased	-11651
▁flames	-11652
▁gasped	-11653
▁heroes	-11654
▁insist	-11655
▁occurs	-11656
▁pirate	-11657
▁preced	-11658
▁sheets	-11659
▁slides	-11660
▁sticky	-11661
▁bending	-11662
▁cleaned	-11663
▁fathers	-11664
▁gymnast	-11665
▁helpful	-11666
▁jogging	-11667
▁blankets	-11668
▁comedian	-11669
▁distress	-11670
▁forehead	-11671
▁indicate	-11672
▁provence	-11673
▁christmas	-11674
▁curiosity	-11675
▁instantly	-11676
▁radiation	-11677
▁universal	-11678
▁hippopotam	-11679
▁mathematic	-11680
▁questioned	-11681
▁resolution	-11682
▁consideration	-11683
ME	-11684
pie	-11685
uda	-11686
yla	-11687
▁BR	-11688
▁Kn	-11689
cony	-11690
eyed	-11691
heus	-11692
hole	-11693
ieth	-11694
rary	-11695
▁DNA	-11696
▁Rea	-11697
▁fib	-11698
▁gee	-11699
▁pod	-11700
arten	-11701
icist	-11702
ivals	-11703
kward	-11704
ublin	-11705
▁Ohio	-11706
▁Stat	-11707
▁bean	-11708
▁chef	-11709
▁indo	-11710
▁wool	-11711
amount	-11712
erella	-11713
grunts	-11714
ttoman	-11715
▁Baker	-11716
▁Bourg	-11717
▁Diego	-11718
▁Domin	-11719
▁Twila	-11720
▁Wendy	-11721
▁backs	-11722
▁bloss	-11723
▁choos	-11724
▁deleg	-11725
▁flung	-11726
▁lover	-11727
▁parks	-11728
▁Better	-11729
▁Brooks	-11730
▁Greeks	-11731
▁bureau	-11732
▁denied	-11733
▁sitcom	-11734
▁sweden	-11735
▁Harwood	-11736
▁ketchup	-11737
▁promote	-11738
▁teenage	-11739
▁whistle	-11740
▁artistic	-11741
▁locations	-11742
▁secondary	-11743
▁conducting	-11744
▁occasional	-11745
▁presidency	-11746
▁fundamental	-11747
FE	-11748
IL	-11749
eur	-11750
ikh	-11751
nia	-11752
▁CL	-11753
▁Ky	-11754
▁Pu	-11755
▁wo	-11756
Have	-11757
acre	-11758
face	-11759
wear	-11760
▁Pig	-11761
▁ank	-11762
▁las	-11763
▁mob	-11764
inate	-11765
onian	-11766
ooped	-11767
prise	-11768
▁Cool	-11769
▁Ever	-11770
▁Josh	-11771
▁Karl	-11772
▁Khan	-11773
▁LIKE	-11774
ocated	-11775
ooklyn	-11776
▁Close	-11777
▁Czech	-11778
▁Eddie	-11779
▁Gates	-11780
▁Wayne	-11781
▁cadet	-11782
▁lakes	-11783
▁ninth	-11784
▁wrist	-11785
ologies	-11786
onomous	-11787
▁Bureau	-11788
▁Conway	-11789
▁Hoover	-11790
▁Postal	-11791
▁Wilson	-11792
▁breeze	-11793
▁factor	-11794
▁folded	-11795
▁whilst	-11796
▁Further	-11797
▁buttons	-11798
▁enhance	-11799
▁markets	-11800
▁periods	-11801
▁useless	-11802
▁warrior	-11803
▁Armenian	-11804
▁electron	-11805
▁formally	-11806
▁candidates	-11807
▁designated	-11808
▁discipline	-11809
▁stretching	-11810
▁unfortunately	-11811
▁Representatives	-11812
!_	-11813
INE	-11814
Ind	-11815
oro	-11816
▁Wy	-11817
hire	-11818
note	-11819
raph	-11820
▁Cry	-11821
▁Nec	-11822
anted	-11823
ctors	-11824
ntown	-11825
▁dict	-11826
▁germ	-11827
▁Being	-11828
▁Davis	-11829
▁alien	-11830
▁codes	-11831
▁flesh	-11832
▁hosts	-11833
▁leaps	-11834
▁ranks	-11835
▁tenth	-11836
hearted	-11837
▁Rodney	-11838
▁Steven	-11839
▁casual	-11840
▁eldest	-11841
▁loaded	-11842
▁notion	-11843
▁vendor	-11844
fortable	-11845
▁despair	-11846
▁harbour	-11847
▁lettuce	-11848
▁romania	-11849
▁departed	-11850
▁prepares	-11851
▁sensible	-11852
▁batteries	-11853
▁depending	-11854
▁franchise	-11855
▁immediate	-11856
▁nicknamed	-11857
▁purchased	-11858
▁discussing	-11859
▁industries	-11860
▁registered	-11861
▁sweetheart	-11862
▁arrangement	-11863
▁celebration	-11864
▁agricultural	-11865
▁significance	-11866
"),	-11867
FRI	-11868
iga	-11869
thy	-11870
▁AG	-11871
▁cm	-11872
▁rd	-11873
good	-11874
high	-11875
hums	-11876
imit	-11877
isen	-11878
town	-11879
▁Cec	-11880
▁GIR	-11881
▁Meg	-11882
▁kit	-11883
▁lun	-11884
aiwan	-11885
cular	-11886
▁Plan	-11887
▁Pont	-11888
▁noon	-11889
▁ouch	-11890
▁raft	-11891
▁shaw	-11892
▁soph	-11893
celona	-11894
isible	-11895
rified	-11896
▁Blood	-11897
▁Micro	-11898
▁Niger	-11899
▁Third	-11900
▁dense	-11901
▁diver	-11902
▁drill	-11903
▁etern	-11904
▁haste	-11905
▁meets	-11906
▁quack	-11907
▁shine	-11908
▁waist	-11909
ocation	-11910
ustomed	-11911
▁Holmes	-11912
▁Invest	-11913
▁attrib	-11914
▁decent	-11915
▁firing	-11916
▁limits	-11917
▁patron	-11918
▁queens	-11919
▁stages	-11920
▁viewed	-11921
▁fighter	-11922
▁runners	-11923
▁sweetie	-11924
▁tragedy	-11925
▁Standing	-11926
▁Suddenly	-11927
▁printing	-11928
▁stealing	-11929
▁Louisiana	-11930
▁Mansfield	-11931
▁acknowled	-11932
▁exception	-11933
▁guarantee	-11934
▁involving	-11935
▁equivalent	-11936
▁mechanical	-11937
▁unconscious	-11938
ić	-11939
AST	-11940
acc	-11941
chw	-11942
pow	-11943
▁PR	-11944
▁vs	-11945
anth	-11946
eled	-11947
kers	-11948
sole	-11949
▁Dec	-11950
▁Esp	-11951
▁FAT	-11952
▁Pur	-11953
▁cul	-11954
▁usa	-11955
asped	-11956
helle	-11957
▁Coch	-11958
▁Maur	-11959
▁Need	-11960
▁Nine	-11961
▁RANG	-11962
▁cran	-11963
▁ease	-11964
▁gran	-11965
▁junk	-11966
▁vine	-11967
kansas	-11968
parent	-11969
usions	-11970
▁Costa	-11971
▁Press	-11972
▁biker	-11973
▁bored	-11974
▁curly	-11975
▁flame	-11976
▁glove	-11977
▁jokes	-11978
▁mustn	-11979
▁poems	-11980
▁trips	-11981
▁troop	-11982
▁veter	-11983
▁Number	-11984
▁abbrev	-11985
▁arrows	-11986
▁decade	-11987
▁midair	-11988
▁rounds	-11989
▁sequel	-11990
▁shapes	-11991
▁stroll	-11992
ologists	-11993
▁artific	-11994
▁awkward	-11995
▁balcony	-11996
▁battery	-11997
▁lighted	-11998
▁noodles	-11999
▁penalty	-12000
▁senator	-12001
▁torture	-12002
fashioned	-12003
▁austrian	-12004
▁displays	-12005
▁examined	-12006
▁indicated	-12007
▁personnel	-12008
▁proceeded	-12009
▁sensitive	-12010
▁concerning	-12011
▁observation	-12012
OS	-12013
").	-12014
EAH	-12015
eno	-12016
gon	-12017
▁Pa	-12018
..."	-12019
eros	-12020
past	-12021
resa	-12022
slee	-12023
▁Bou	-12024
▁EPA	-12025
▁NEW	-12026
▁Obl	-12027
▁bew	-12028
▁kim	-12029
▁rip	-12030
antis	-12031
ombia	-12032
▁Brig	-12033
▁Hart	-12034
▁Hulk	-12035
▁coin	-12036
▁coup	-12037
▁punk	-12038
▁sock	-12039
▁stem	-12040
abriel	-12041
ainian	-12042
crying	-12043
onesia	-12044
orship	-12045
oscope	-12046
▁Olive	-12047
▁Stock	-12048
▁anton	-12049
▁canoe	-12050
▁eagle	-12051
▁holly	-12052
▁lords	-12053
▁risks	-12054
▁smack	-12055
▁sniff	-12056
▁tents	-12057
▁Except	-12058
▁Gordon	-12059
▁Jessie	-12060
▁Norman	-12061
▁Silver	-12062
▁marine	-12063
▁triple	-12064
▁desired	-12065
▁predict	-12066
▁starred	-12067
▁studios	-12068
itionally	-12069
▁accurate	-12070
▁acquired	-12071
▁helpless	-12072
▁junction	-12073
▁monaster	-12074
▁muttered	-12075
▁resigned	-12076
▁abilities	-12077
▁detective	-12078
▁scattered	-12079
▁scheduled	-12080
▁trembling	-12081
▁addressing	-12082
▁popularity	-12083
▁surprising	-12084
▁anniversary	-12085
▁enforcement	-12086
▁participate	-12087
▁perspective	-12088
▁uncomfortable	-12089
."]	-12090
END	-12091
PLE	-12092
usa	-12093
▁AR	-12094
Thou	-12095
ideo	-12096
inja	-12097
llas	-12098
omon	-12099
rett	-12100
runs	-12101
shot	-12102
star	-12103
tree	-12104
▁bos	-12105
▁dub	-12106
aucas	-12107
balls	-12108
orton	-12109
▁Game	-12110
▁Guys	-12111
▁anth	-12112
▁clim	-12113
▁synt	-12114
ndered	-12115
▁Clark	-12116
▁Nobel	-12117
▁beads	-12118
▁recip	-12119
▁stout	-12120
▁surve	-12121
▁twins	-12122
fecture	-12123
ruption	-12124
▁Deputy	-12125
▁Double	-12126
▁Gloria	-12127
▁Nation	-12128
▁Valent	-12129
▁entity	-12130
▁jungle	-12131
▁lookin	-12132
▁nicely	-12133
▁rarely	-12134
▁Section	-12135
▁catches	-12136
▁dignity	-12137
▁gallant	-12138
▁reserve	-12139
▁Napoleon	-12140
▁homeless	-12141
▁homework	-12142
▁involves	-12143
▁Bourgogne	-12144
▁courtyard	-12145
▁pretended	-12146
▁regularly	-12147
▁classified	-12148
▁lieutenant	-12149
▁membership	-12150
▁regardless	-12151
▁Development	-12152
▁documentary	-12153
▁influential	-12154
▁restrictions	-12155
BE	-12156
Ne	-12157
ANK	-12158
gal	-12159
olo	-12160
pat	-12161
sur	-12162
amic	-12163
colm	-12164
ldom	-12165
pany	-12166
riet	-12167
your	-12168
▁McK	-12169
▁ONE	-12170
▁doo	-12171
▁mah	-12172
▁zeb	-12173
iazza	-12174
still	-12175
urred	-12176
▁Cass	-12177
▁OKAY	-12178
▁Pete	-12179
▁Rabb	-12180
▁Stri	-12181
▁bees	-12182
▁calc	-12183
▁muse	-12184
▁rena	-12185
▁whip	-12186
▁Barry	-12187
▁Coast	-12188
▁Fight	-12189
▁Honor	-12190
▁Katie	-12191
▁abund	-12192
▁ruins	-12193
▁shots	-12194
▁Eloise	-12195
▁Knight	-12196
▁Marine	-12197
▁canvas	-12198
▁cement	-12199
▁meadow	-12200
▁nobles	-12201
▁phones	-12202
▁strain	-12203
Dynamite	-12204
▁Protest	-12205
▁extinct	-12206
▁lobster	-12207
▁revenue	-12208
▁shadows	-12209
▁statues	-12210
▁trailer	-12211
▁trumpet	-12212
▁upright	-12213
▁basement	-12214
▁dreaming	-12215
▁keyboard	-12216
▁punished	-12217
▁Community	-12218
▁fantastic	-12219
▁hospitals	-12220
▁reception	-12221
▁unsuccess	-12222
▁convenient	-12223
▁protecting	-12224
▁improvement	-12225
,]	-12226
ROW	-12227
his	-12228
orf	-12229
▁Ay	-12230
▁Gw	-12231
▁il	-12232
angs	-12233
card	-12234
onic	-12235
otyp	-12236
stad	-12237
stop	-12238
tail	-12239
upon	-12240
▁Fro	-12241
▁Joy	-12242
▁Pel	-12243
▁Shi	-12244
▁cin	-12245
▁dil	-12246
▁oct	-12247
▁pon	-12248
Comté	-12249
▁Anim	-12250
▁Bugs	-12251
▁Dark	-12252
▁Kath	-12253
▁Rain	-12254
▁YEAH	-12255
▁bolt	-12256
▁gogg	-12257
▁nord	-12258
▁synd	-12259
▁woof	-12260
ithely	-12261
ouston	-12262
▁Adrin	-12263
▁Ellen	-12264
▁Field	-12265
▁Madam	-12266
▁armor	-12267
▁chalk	-12268
▁endea	-12269
▁lists	-12270
▁sadly	-12271
▁scorn	-12272
arently	-12273
iration	-12274
ructure	-12275
▁Hallow	-12276
▁Samuel	-12277
▁columb	-12278
▁extrem	-12279
▁lyrics	-12280
▁tissue	-12281
attering	-12282
▁Swedish	-12283
▁crystal	-12284
▁drivers	-12285
▁experts	-12286
▁garbage	-12287
▁helicop	-12288
▁Jennifer	-12289
▁McDonald	-12290
▁elevator	-12291
▁findings	-12292
▁knocking	-12293
▁departure	-12294
▁descended	-12295
▁exclusive	-12296
▁preserved	-12297
▁strawberry	-12298
▁departments	-12299
▁respectively	-12300
▁representatives	-12301
./	-12302
AA	-12303
fr	-12304
vd	-12305
aux	-12306
hal	-12307
▁Il	-12308
▁MP	-12309
ampa	-12310
bons	-12311
cycl	-12312
▁Aid	-12313
▁Ali	-12314
▁CIO	-12315
▁Cou	-12316
▁Isa	-12317
▁ale	-12318
▁ell	-12319
▁fet	-12320
▁fog	-12321
▁sor	-12322
▁wha	-12323
▁Hang	-12324
▁Nazi	-12325
▁beam	-12326
▁carr	-12327
▁dime	-12328
▁shri	-12329
iddles	-12330
▁Track	-12331
▁datab	-12332
▁farms	-12333
▁korea	-12334
▁spear	-12335
▁trend	-12336
▁withd	-12337
igrants	-12338
▁Coming	-12339
▁Nathan	-12340
▁lowest	-12341
▁reader	-12342
▁trophy	-12343
ifferent	-12344
stration	-12345
▁Cochran	-12346
▁Whether	-12347
▁amounts	-12348
▁bathtub	-12349
▁closest	-12350
▁compass	-12351
▁crayons	-12352
▁dancers	-12353
▁grandpa	-12354
▁hugging	-12355
▁planted	-12356
▁pottery	-12357
▁sailors	-12358
▁Colorado	-12359
▁Lombardy	-12360
▁athletic	-12361
▁comrades	-12362
▁explains	-12363
▁rejected	-12364
ographical	-12365
▁Biography	-12366
▁appearing	-12367
▁perceived	-12368
▁surrender	-12369
▁vegetable	-12370
▁waterfall	-12371
fortunately	-12372
▁commitment	-12373
▁indigenous	-12374
▁protective	-12375
▁supporters	-12376
▁Afghanistan	-12377
▁differently	-12378
▁civilization	-12379
▁consequences	-12380
▁handkerchief	-12381
▁hippopotamus	-12382
▁relationships	-12383
▁characteristics	-12384
byn	-12385
sky	-12386
woo	-12387
Very	-12388
atsu	-12389
nuts	-12390
roph	-12391
▁Cow	-12392
▁Cro	-12393
▁USA	-12394
▁WHO	-12395
▁dug	-12396
▁lil	-12397
▁raz	-12398
▁sod	-12399
borne	-12400
ifies	-12401
▁Lind	-12402
▁dive	-12403
▁leis	-12404
▁lest	-12405
▁walt	-12406
angled	-12407
anking	-12408
member	-12409
▁Hills	-12410
▁Karen	-12411
▁Nazis	-12412
▁Nepal	-12413
▁Small	-12414
▁ambul	-12415
▁beats	-12416
▁daisy	-12417
▁disgr	-12418
▁overw	-12419
▁pairs	-12420
▁zebra	-12421
Franche	-12422
naments	-12423
▁Malays	-12424
▁Member	-12425
▁Unless	-12426
▁absurd	-12427
▁behave	-12428
▁counts	-12429
▁deputy	-12430
▁fights	-12431
▁oxford	-12432
▁robber	-12433
▁Vincent	-12434
▁athlete	-12435
▁coastal	-12436
▁custody	-12437
▁dispute	-12438
▁elector	-12439
▁emerged	-12440
▁monkeys	-12441
▁Nintendo	-12442
▁carolina	-12443
▁grandson	-12444
▁mainland	-12445
▁opinions	-12446
▁corporate	-12447
▁democracy	-12448
▁francisco	-12449
▁strangers	-12450
▁Portuguese	-12451
▁collecting	-12452
▁comparison	-12453
▁foreground	-12454
▁maintained	-12455
▁generations	-12456
▁residential	-12457
▁Constitution	-12458
▁announcement	-12459
Sp	-12460
bec	-12461
equ	-12462
fle	-12463
org	-12464
▁""	-12465
▁?[	-12466
▁Ho	-12467
▁PA	-12468
Some	-12469
____	-12470
ashm	-12471
care	-12472
gage	-12473
iano	-12474
phin	-12475
▁Dun	-12476
▁HOW	-12477
▁Hil	-12478
▁Ped	-12479
▁Sic	-12480
▁WOR	-12481
▁jar	-12482
berto	-12483
ettle	-12484
▁COME	-12485
▁Dead	-12486
▁GOOD	-12487
▁Greg	-12488
▁aube	-12489
▁caut	-12490
▁gosh	-12491
▁morn	-12492
▁prey	-12493
▁rais	-12494
▁reun	-12495
ailand	-12496
hattan	-12497
profit	-12498
▁Merry	-12499
▁escal	-12500
▁grind	-12501
▁hesit	-12502
▁lions	-12503
▁makin	-12504
▁muddy	-12505
▁nerve	-12506
▁prett	-12507
endment	-12508
lington	-12509
zantine	-12510
▁Cousin	-12511
▁Madrid	-12512
▁Murray	-12513
▁execut	-12514
▁grandd	-12515
▁praise	-12516
▁retrie	-12517
▁roared	-12518
▁sprink	-12519
▁tribal	-12520
▁Grandpa	-12521
▁Margery	-12522
▁Orleans	-12523
▁alleged	-12524
▁carrier	-12525
▁curtain	-12526
▁diverse	-12527
▁genetic	-12528
▁heights	-12529
▁helmets	-12530
▁lantern	-12531
▁minimum	-12532
▁rabbits	-12533
▁retreat	-12534
▁travels	-12535
▁frequent	-12536
▁supports	-12537
▁unemploy	-12538
▁Frederick	-12539
▁Universal	-12540
▁animation	-12541
▁attacking	-12542
▁continent	-12543
▁particles	-12544
▁requested	-12545
▁Conference	-12546
▁Nottingham	-12547
▁accustomed	-12548
▁conscience	-12549
▁federation	-12550
▁processing	-12551
▁suggesting	-12552
▁ultimately	-12553
▁collections	-12554
▁distinguish	-12555
▁overlooking	-12556
▁demonstration	-12557
▁recommendations	-12558
FL	-12559
aq	-12560
Man	-12561
sea	-12562
Adam	-12563
Dear	-12564
arta	-12565
race	-12566
▁Ath	-12567
▁MAR	-12568
▁Toy	-12569
▁dot	-12570
▁pok	-12571
▁tak	-12572
ester	-12573
▁Chag	-12574
▁LOOK	-12575
▁Lois	-12576
▁Sang	-12577
▁bisc	-12578
▁bugs	-12579
▁cush	-12580
▁haha	-12581
▁hose	-12582
▁prix	-12583
▁sank	-12584
iology	-12585
jacent	-12586
velope	-12587
▁baker	-12588
▁clips	-12589
▁coins	-12590
▁flock	-12591
▁innov	-12592
▁landl	-12593
▁lifet	-12594
isation	-12595
rection	-12596
ressing	-12597
uhammad	-12598
▁bikini	-12599
▁boxing	-12600
▁floors	-12601
▁fossil	-12602
▁funded	-12603
▁gender	-12604
▁margin	-12605
▁recycl	-12606
▁weekly	-12607
▁Airport	-12608
▁centers	-12609
▁decline	-12610
▁georgia	-12611
▁manners	-12612
▁romance	-12613
▁sharply	-12614
▁sincere	-12615
▁teasing	-12616
▁utterly	-12617
▁volumes	-12618
▁clearing	-12619
▁colonial	-12620
▁contents	-12621
▁distract	-12622
▁managing	-12623
▁portrait	-12624
▁relieved	-12625
▁squirrel	-12626
▁wherever	-12627
▁communist	-12628
▁extension	-12629
▁reduction	-12630
▁attraction	-12631
▁classification	-12632
BO	-12633
By	-12634
asi	-12635
cia	-12636
iko	-12637
nah	-12638
▁ID	-12639
▁ll	-12640
▁lt	-12641
alie	-12642
corn	-12643
edar	-12644
emen	-12645
mind	-12646
name	-12647
week	-12648
▁ANY	-12649
▁Abd	-12650
▁Ger	-12651
▁Kai	-12652
▁LET	-12653
▁pee	-12654
▁tam	-12655
amble	-12656
ateur	-12657
dials	-12658
imore	-12659
insky	-12660
uador	-12661
▁Fern	-12662
▁Horn	-12663
▁adap	-12664
▁iran	-12665
▁seed	-12666
ashmir	-12667
trying	-12668
ussell	-12669
▁Bacon	-12670
▁Julia	-12671
▁Larry	-12672
▁Slate	-12673
▁Storm	-12674
▁Train	-12675
▁apost	-12676
▁foods	-12677
▁scout	-12678
▁torch	-12679
▁twent	-12680
ensions	-12681
▁Johann	-12682
▁angels	-12683
▁assure	-12684
▁destro	-12685
▁luxury	-12686
▁muscle	-12687
▁polite	-12688
▁versus	-12689
▁Affairs	-12690
▁Country	-12691
▁colonel	-12692
▁shocked	-12693
▁coloring	-12694
▁horizont	-12695
▁inclined	-12696
▁overseas	-12697
▁Aldithely	-12698
▁assembled	-12699
▁belonging	-12700
▁container	-12701
▁boundaries	-12702
▁continuing	-12703
▁objectives	-12704
▁provisions	-12705
▁situations	-12706
▁traditionally	-12707
._	-12708
PH	-12709
TA	-12710
▁|	-12711
JOA	-12712
LOW	-12713
did	-12714
iop	-12715
oan	-12716
rik	-12717
folk	-12718
imer	-12719
izer	-12720
liga	-12721
word	-12722
▁Inv	-12723
▁apt	-12724
▁gon	-12725
▁mes	-12726
▁nit	-12727
inery	-12728
▁Soph	-12729
▁chip	-12730
ishops	-12731
▁Front	-12732
▁Hindu	-12733
▁Using	-12734
▁alert	-12735
▁clerk	-12736
▁error	-12737
▁hatch	-12738
▁shaft	-12739
▁souls	-12740
▁wrath	-12741
humming	-12742
▁Athens	-12743
▁Fourth	-12744
▁Ladies	-12745
▁Prague	-12746
▁atomic	-12747
▁expans	-12748
▁laptop	-12749
▁lively	-12750
▁mosque	-12751
pleasant	-12752
▁Capitol	-12753
▁Christa	-12754
▁Vietnam	-12755
▁cameras	-12756
▁extract	-12757
▁goggles	-12758
▁longing	-12759
▁pigeons	-12760
▁storage	-12761
▁winners	-12762
struction	-12763
umberland	-12764
▁Brothers	-12765
▁Penelope	-12766
▁Salzburg	-12767
▁envelope	-12768
▁minority	-12769
▁survival	-12770
▁warriors	-12771
▁alligator	-12772
▁marketing	-12773
▁reflection	-12774
▁challenging	-12775
bia	-12776
hmm	-12777
oba	-12778
pen	-12779
wic	-12780
▁IF	-12781
acea	-12782
apse	-12783
ayed	-12784
kets	-12785
nell	-12786
raig	-12787
roit	-12788
ulus	-12789
▁Ewo	-12790
▁Lip	-12791
▁Tro	-12792
▁lag	-12793
▁ooh	-12794
means	-12795
reats	-12796
▁Fund	-12797
▁Gook	-12798
▁Room	-12799
▁Tree	-12800
▁WANT	-12801
▁amen	-12802
▁bury	-12803
▁dumb	-12804
▁fred	-12805
▁lend	-12806
incial	-12807
▁aisle	-12808
▁alter	-12809
▁camel	-12810
▁humor	-12811
▁panic	-12812
▁pools	-12813
▁presc	-12814
▁sweep	-12815
▁wider	-12816
uscript	-12817
▁Grover	-12818
▁Junior	-12819
▁abrupt	-12820
▁ballet	-12821
▁elabor	-12822
▁exists	-12823
▁kansas	-12824
▁learnt	-12825
▁marvel	-12826
▁rulers	-12827
▁towers	-12828
▁Banbury	-12829
▁demands	-12830
▁exagger	-12831
▁francis	-12832
▁leisure	-12833
▁rocking	-12834
▁streams	-12835
▁trapped	-12836
▁colonies	-12837
▁downtown	-12838
▁graduate	-12839
▁guidance	-12840
▁reporter	-12841
▁teenager	-12842
▁tricycle	-12843
▁Following	-12844
▁accompany	-12845
▁horseback	-12846
▁physician	-12847
▁admiration	-12848
▁biological	-12849
▁consistent	-12850
▁microscope	-12851
▁transition	-12852
▁travelling	-12853
▁Corporation	-12854
▁consequence	-12855
▁contributed	-12856
▁preparation	-12857
▁stomachache	-12858
▁commonwealth	-12859
▁institutions	-12860
oi	-12861
cht	-12862
▁SS	-12863
ALLY	-12864
ROAN	-12865
Will	-12866
alid	-12867
asia	-12868
atar	-12869
etto	-12870
free	-12871
illo	-12872
ivan	-12873
ogen	-12874
rell	-12875
▁Gun	-12876
▁Suz	-12877
▁cer	-12878
bbles	-12879
ighty	-12880
▁FROM	-12881
▁Wien	-12882
▁deaf	-12883
▁hint	-12884
▁muff	-12885
▁rehe	-12886
ailing	-12887
shouts	-12888
▁Andre	-12889
▁Danie	-12890
▁audio	-12891
▁chuck	-12892
▁corps	-12893
▁czech	-12894
▁flute	-12895
▁gimme	-12896
▁skull	-12897
▁tones	-12898
iedmont	-12899
▁Common	-12900
▁Hanson	-12901
▁Miriam	-12902
▁Ronald	-12903
▁cliffs	-12904
▁condem	-12905
▁cultiv	-12906
▁PLAYING	-12907
▁Senator	-12908
▁compare	-12909
▁console	-12910
▁honored	-12911
▁pianist	-12912
▁praised	-12913
▁secured	-12914
▁striker	-12915
▁Moreover	-12916
▁Nicholas	-12917
▁cemetery	-12918
▁cheering	-12919
▁drawings	-12920
▁renowned	-12921
▁Griffiths	-12922
▁arguments	-12923
▁increases	-12924
▁umbrellas	-12925
▁engagement	-12926
▁occupation	-12927
▁originated	-12928
▁consumption	-12929
▁investigate	-12930
▁motorcycles	-12931
▁translation	-12932
▁acquaintance	-12933
▁contribution	-12934
▁comprehensive	-12935
▁mathematician	-12936
▁Administration	-12937
FC	-12938
UB	-12939
ão	-12940
EXP	-12941
THE	-12942
cod	-12943
iji	-12944
kee	-12945
roe	-12946
uno	-12947
▁OR	-12948
iami	-12949
icol	-12950
iper	-12951
izzy	-12952
vals	-12953
▁Gil	-12954
▁Kam	-12955
▁Mis	-12956
▁Won	-12957
▁tab	-12958
▁tyr	-12959
ammar	-12960
ovich	-12961
▁Benn	-12962
▁Dick	-12963
▁Fury	-12964
▁Ivan	-12965
▁Live	-12966
▁blah	-12967
▁exch	-12968
▁exit	-12969
▁fain	-12970
▁owns	-12971
▁porn	-12972
rolled	-12973
▁Judge	-12974
▁Price	-12975
▁Rocky	-12976
▁comma	-12977
▁effic	-12978
▁lemme	-12979
▁revol	-12980
▁suite	-12981
▁tapes	-12982
▁wides	-12983
colored	-12984
▁Corbyn	-12985
▁Leader	-12986
▁Nelson	-12987
▁Oblast	-12988
▁Sounds	-12989
▁checks	-12990
▁deadly	-12991
▁mining	-12992
▁ridden	-12993
▁seldom	-12994
▁sighed	-12995
▁smells	-12996
▁belgian	-12997
▁cancell	-12998
▁discont	-12999
▁gravely	-13000
▁miracle	-13001
▁organic	-13002
▁swimmer	-13003
▁Chairman	-13004
▁Columbus	-13005
▁Oklahoma	-13006
▁Tomorrow	-13007
▁handling	-13008
▁hopeless	-13009
▁hydrogen	-13010
▁mustache	-13011
▁operates	-13012
▁overcome	-13013
▁spinning	-13014
▁possessed	-13015
▁suspicion	-13016
▁Archbishop	-13017
▁artificial	-13018
▁convention	-13019
▁imprisoned	-13020
▁kilometers	-13021
▁manuscript	-13022
▁tremendous	-13023
▁wheelchair	-13024
▁constitutional	-13025
//	-13026
di	-13027
eh	-13028
ICK	-13029
ISH	-13030
auc	-13031
bet	-13032
orr	-13033
psy	-13034
uay	-13035
xed	-13036
▁BC	-13037
▁HO	-13038
▁Ka	-13039
▁fc	-13040
▁ry	-13041
Coma	-13042
enos	-13043
iors	-13044
list	-13045
omot	-13046
oque	-13047
uary	-13048
wald	-13049
▁Eun	-13050
▁FBI	-13051
▁Hod	-13052
▁Mos	-13053
▁aft	-13054
▁dan	-13055
asury	-13056
iscal	-13057
kered	-13058
ongol	-13059
pread	-13060
style	-13061
▁Amaz	-13062
▁Area	-13063
▁Iron	-13064
▁José	-13065
▁Kyle	-13066
▁Neci	-13067
▁cure	-13068
▁leon	-13069
▁pins	-13070
▁sack	-13071
▁sear	-13072
estion	-13073
person	-13074
▁Corps	-13075
▁Terry	-13076
▁bombs	-13077
▁deeds	-13078
▁marie	-13079
▁olive	-13080
▁whoop	-13081
achment	-13082
lookers	-13083
▁Always	-13084
▁Seneca	-13085
▁Thirty	-13086
▁Walker	-13087
▁argued	-13088
▁divers	-13089
▁nurses	-13090
▁serial	-13091
▁shrine	-13092
▁aggress	-13093
▁complim	-13094
▁comprom	-13095
▁masters	-13096
▁rushing	-13097
▁adjacent	-13098
▁contempt	-13099
▁entities	-13100
▁exposure	-13101
▁fortress	-13102
▁lifetime	-13103
▁memorial	-13104
▁pancakes	-13105
▁patience	-13106
▁produces	-13107
▁secretly	-13108
▁sequence	-13109
▁anxiously	-13110
▁criticism	-13111
▁diagnosed	-13112
▁Bangladesh	-13113
▁Television	-13114
▁executives	-13115
▁unpleasant	-13116
▁widespread	-13117
▁Information	-13118
▁arrangements	-13119
▁Unfortunately	-13120
▁congressional	-13121
po	-13122
bul	-13123
iah	-13124
igs	-13125
six	-13126
▁VI	-13127
▁ib	-13128
hent	-13129
neum	-13130
onda	-13131
onso	-13132
uffy	-13133
▁Inn	-13134
▁dna	-13135
▁hub	-13136
▁sew	-13137
▁tus	-13138
▁wax	-13139
emois	-13140
lined	-13141
monic	-13142
utter	-13143
venth	-13144
vocal	-13145
white	-13146
▁Boys	-13147
▁Burn	-13148
▁Doug	-13149
▁Whit	-13150
▁flee	-13151
▁gigg	-13152
▁gust	-13153
▁lugg	-13154
▁mush	-13155
▁soot	-13156
▁tide	-13157
▁yawn	-13158
asping	-13159
called	-13160
dinand	-13161
estyle	-13162
rester	-13163
▁Kings	-13164
▁Perse	-13165
▁Sandy	-13166
▁poles	-13167
▁quart	-13168
▁unint	-13169
▁Lawson	-13170
▁Miller	-13171
▁Murphy	-13172
▁Pierre	-13173
▁anchor	-13174
▁barbec	-13175
▁dashed	-13176
▁divide	-13177
▁enters	-13178
▁humble	-13179
▁medals	-13180
▁popped	-13181
▁pupils	-13182
▁reckon	-13183
▁ripped	-13184
▁salary	-13185
▁unfair	-13186
▁Friends	-13187
▁Indiana	-13188
▁Journal	-13189
▁blessed	-13190
▁couples	-13191
▁gallery	-13192
▁luggage	-13193
▁mercury	-13194
emoiselle	-13195
ugoslavia	-13196
▁abortion	-13197
▁backyard	-13198
▁honestly	-13199
▁hypothes	-13200
▁mischief	-13201
▁severely	-13202
▁Champions	-13203
▁Microsoft	-13204
▁Spaniards	-13205
▁Yorkshire	-13206
▁nomination	-13207
▁rainforest	-13208
▁destination	-13209
▁interpretation	-13210
Ex	-13211
Le	-13212
NT	-13213
XT	-13214
ni	-13215
New	-13216
eda	-13217
gel	-13218
iev	-13219
sun	-13220
▁DA	-13221
▁Ll	-13222
▁ot	-13223
▁py	-13224
alry	-13225
cons	-13226
hrer	-13227
mare	-13228
uman	-13229
▁Lyn	-13230
▁Tel	-13231
▁pel	-13232
bling	-13233
inals	-13234
ipher	-13235
lause	-13236
▁Clar	-13237
▁Jung	-13238
▁Lang	-13239
▁Shar	-13240
▁abol	-13241
▁clam	-13242
▁gown	-13243
▁knot	-13244
ocaust	-13245
rently	-13246
shaped	-13247
▁Bevis	-13248
▁Heart	-13249
▁Media	-13250
▁bases	-13251
▁bible	-13252
▁brace	-13253
▁coinc	-13254
▁firms	-13255
▁fraud	-13256
▁hangs	-13257
▁horns	-13258
▁parag	-13259
▁swung	-13260
▁wives	-13261
▁Dakota	-13262
▁Forces	-13263
▁Rhodes	-13264
▁amazed	-13265
▁andrew	-13266
▁korean	-13267
▁presum	-13268
▁transc	-13269
▁cheerle	-13270
▁drowned	-13271
▁exhibit	-13272
▁magical	-13273
▁mammals	-13274
▁tornado	-13275
▁absorbed	-13276
▁barefoot	-13277
▁contrary	-13278
▁gorgeous	-13279
▁murderer	-13280
▁murmured	-13281
▁overhead	-13282
▁removing	-13283
▁ultimate	-13284
▁unlikely	-13285
▁amazement	-13286
▁defending	-13287
▁invisible	-13288
▁occasions	-13289
▁physicist	-13290
▁volunteer	-13291
▁Manchester	-13292
▁portuguese	-13293
▁beautifully	-13294
▁Construction	-13295
▁Mediterranean	-13296
Or	-13297
Hey	-13298
asg	-13299
chi	-13300
had	-13301
hop	-13302
toy	-13303
why	-13304
▁Kr	-13305
▁Na	-13306
▁ko	-13307
ener	-13308
ezes	-13309
maid	-13310
post	-13311
▁CEO	-13312
▁Nov	-13313
▁duo	-13314
▁dur	-13315
▁fel	-13316
▁sib	-13317
bourg	-13318
▁Beth	-13319
▁Cath	-13320
▁Cave	-13321
▁Magn	-13322
▁auto	-13323
▁azur	-13324
▁fees	-13325
▁pots	-13326
active	-13327
orable	-13328
uously	-13329
▁Final	-13330
▁Maced	-13331
▁chron	-13332
▁exile	-13333
▁femin	-13334
▁indul	-13335
▁maria	-13336
▁plung	-13337
▁robot	-13338
▁siege	-13339
▁stare	-13340
▁Amanda	-13341
▁Avenue	-13342
▁Batman	-13343
▁Morris	-13344
▁Nettie	-13345
▁Orange	-13346
▁Reagan	-13347
▁Series	-13348
▁breach	-13349
▁hollow	-13350
▁intend	-13351
▁playin	-13352
▁storms	-13353
▁Chester	-13354
▁authors	-13355
▁congreg	-13356
▁conquer	-13357
▁lateral	-13358
▁selfish	-13359
▁treason	-13360
▁defended	-13361
▁immunity	-13362
▁relaxing	-13363
▁Detective	-13364
▁addresses	-13365
▁ambulance	-13366
▁slightest	-13367
▁automobile	-13368
▁categories	-13369
▁controversial	-13370
Cl	-13371
uf	-13372
ORE	-13373
agi	-13374
aye	-13375
jud	-13376
sie	-13377
vol	-13378
▁Cy	-13379
▁ps	-13380
Tell	-13381
assy	-13382
grow	-13383
▁Kap	-13384
▁alf	-13385
▁dio	-13386
▁jac	-13387
▁mol	-13388
drops	-13389
irect	-13390
smith	-13391
▁Bamb	-13392
▁Mind	-13393
▁Moor	-13394
▁gent	-13395
▁gree	-13396
▁itís	-13397
▁polo	-13398
▁reef	-13399
▁spar	-13400
▁unne	-13401
UGHING	-13402
indeer	-13403
ptions	-13404
▁Upper	-13405
▁basin	-13406
▁deals	-13407
▁hence	-13408
▁manip	-13409
▁meals	-13410
▁needn	-13411
▁rodeo	-13412
▁tails	-13413
▁toxic	-13414
▁urged	-13415
▁vital	-13416
ilation	-13417
▁Chance	-13418
▁Winter	-13419
▁bachel	-13420
▁chorus	-13421
▁consol	-13422
▁endeav	-13423
▁errand	-13424
▁galaxy	-13425
▁hanged	-13426
▁indoor	-13427
▁scramb	-13428
▁wisdom	-13429
▁wooded	-13430
▁Neither	-13431
▁cheaper	-13432
▁crowned	-13433
▁expense	-13434
▁flights	-13435
▁gravity	-13436
▁nursing	-13437
▁philipp	-13438
▁volcano	-13439
whispered	-13440
▁Courtney	-13441
▁Ministry	-13442
▁decrease	-13443
▁overwhel	-13444
▁resource	-13445
▁stroller	-13446
▁websites	-13447
▁Communist	-13448
▁defensive	-13449
▁gratitude	-13450
▁wandering	-13451
▁Cinderella	-13452
▁celebrating	-13453
▁examination	-13454
▁intellectual	-13455
▁subsequently	-13456
";	-13457
'!	-13458
MP	-13459
VID	-13460
agg	-13461
aks	-13462
aze	-13463
bai	-13464
bin	-13465
isi	-13466
toe	-13467
alle	-13468
auer	-13469
ayer	-13470
eges	-13471
eton	-13472
whis	-13473
▁Imm	-13474
▁PRO	-13475
▁ecc	-13476
▁kin	-13477
▁lid	-13478
▁tum	-13479
acker	-13480
aying	-13481
ortal	-13482
riers	-13483
storm	-13484
ussia	-13485
▁Chan	-13486
▁Expl	-13487
▁Full	-13488
▁crab	-13489
▁obsc	-13490
▁plug	-13491
icular	-13492
▁Adams	-13493
▁Aggie	-13494
▁Julie	-13495
▁Riley	-13496
▁Years	-13497
▁canon	-13498
▁cocoa	-13499
▁dated	-13500
▁ledge	-13501
▁recre	-13502
▁sanct	-13503
▁sends	-13504
▁stall	-13505
▁wheat	-13506
▁yacht	-13507
icester	-13508
isphere	-13509
putting	-13510
uggling	-13511
▁Kuwait	-13512
▁Sports	-13513
▁Venice	-13514
▁banned	-13515
▁biting	-13516
▁consec	-13517
▁exclud	-13518
▁maiden	-13519
▁mortal	-13520
▁summit	-13521
▁tickle	-13522
oucester	-13523
▁Commons	-13524
▁Ecuador	-13525
▁Malcolm	-13526
▁airline	-13527
▁convict	-13528
▁dischar	-13529
▁fireman	-13530
▁focuses	-13531
▁grabbed	-13532
▁hurting	-13533
▁indiana	-13534
▁lincoln	-13535
▁painful	-13536
▁puzzles	-13537
something	-13538
▁boarding	-13539
▁crackers	-13540
▁doctrine	-13541
▁humanity	-13542
▁unnecess	-13543
▁Democrats	-13544
▁Edinburgh	-13545
▁Forrester	-13546
▁Halloween	-13547
▁fireworks	-13548
▁hamburger	-13549
▁machinery	-13550
▁Apparently	-13551
▁parliamentary	-13552
▁revolutionary	-13553
):	-13554
NK	-13555
ISS	-13556
ahn	-13557
rys	-13558
tar	-13559
▁ay	-13560
hend	-13561
iago	-13562
inge	-13563
lder	-13564
rust	-13565
weed	-13566
ylum	-13567
▁Fal	-13568
▁SEE	-13569
▁Tal	-13570
▁Tot	-13571
▁mcc	-13572
▁tid	-13573
udson	-13574
▁Bald	-13575
▁Kill	-13576
▁Real	-13577
▁maps	-13578
▁recl	-13579
cyclop	-13580
ovakia	-13581
▁Place	-13582
▁arist	-13583
▁caves	-13584
▁diary	-13585
▁disgu	-13586
▁filed	-13587
▁genes	-13588
▁genre	-13589
▁hears	-13590
▁irrit	-13591
▁tobac	-13592
▁verse	-13593
▁wages	-13594
▁Arabic	-13595
▁Minnie	-13596
▁avenue	-13597
▁canine	-13598
▁convey	-13599
▁inject	-13600
▁orphan	-13601
▁saddle	-13602
▁saturn	-13603
▁summon	-13604
▁themes	-13605
▁vacuum	-13606
pretends	-13607
▁Connect	-13608
▁filling	-13609
▁furious	-13610
▁guessed	-13611
▁pirates	-13612
▁scandal	-13613
▁strikes	-13614
▁winding	-13615
▁Victoria	-13616
▁auditors	-13617
▁deserved	-13618
▁disorder	-13619
▁divorced	-13620
▁meantime	-13621
▁Commander	-13622
▁Singapore	-13623
▁exhausted	-13624
▁expansion	-13625
▁telegraph	-13626
▁criticized	-13627
▁goalkeeper	-13628
▁involvement	-13629
▁replacement	-13630
▁scholarship	-13631
▁astonishment	-13632
▁determination	-13633
ibi	-13634
imo	-13635
omo	-13636
til	-13637
vie	-13638
▁Hö	-13639
▁fu	-13640
▁ja	-13641
azar	-13642
blue	-13643
grat	-13644
iden	-13645
ioca	-13646
spec	-13647
undy	-13648
writ	-13649
▁Fem	-13650
▁Shh	-13651
▁cuc	-13652
▁ern	-13653
▁joe	-13654
▁jos	-13655
▁lam	-13656
▁liz	-13657
▁sul	-13658
draws	-13659
▁Boss	-13660
▁Hell	-13661
▁Rand	-13662
▁Rest	-13663
▁ants	-13664
▁bade	-13665
▁damp	-13666
▁idol	-13667
▁lean	-13668
▁rats	-13669
▁ties	-13670
▁turk	-13671
chwitz	-13672
ompson	-13673
▁Going	-13674
▁Henri	-13675
▁Youth	-13676
▁altar	-13677
▁appet	-13678
▁aspir	-13679
▁bites	-13680
▁chrom	-13681
▁ferry	-13682
▁lobby	-13683
▁masks	-13684
▁messy	-13685
▁reass	-13686
▁robes	-13687
▁skier	-13688
▁twink	-13689
iminals	-13690
▁Marion	-13691
▁RANGER	-13692
▁Roland	-13693
▁arthur	-13694
▁coward	-13695
▁daring	-13696
▁subsid	-13697
▁unions	-13698
aneously	-13699
▁Arizona	-13700
▁Denmark	-13701
▁Looking	-13702
▁Mallory	-13703
▁carpent	-13704
▁declare	-13705
▁farming	-13706
▁inquiry	-13707
▁peanuts	-13708
▁peasant	-13709
▁plainly	-13710
▁profile	-13711
▁ranging	-13712
▁samples	-13713
▁signals	-13714
▁springs	-13715
▁trusted	-13716
▁Clarence	-13717
▁backdrop	-13718
▁dominant	-13719
▁emphasis	-13720
▁insisted	-13721
▁isolated	-13722
▁nowadays	-13723
▁theories	-13724
▁volcanic	-13725
▁Venezuela	-13726
▁ancestors	-13727
▁fortunate	-13728
▁submitted	-13729
▁properties	-13730
▁subsequent	-13731
▁yourselves	-13732
▁programming	-13733
▁organisation	-13734
TO	-13735
zh	-13736
bag	-13737
gun	-13738
ogg	-13739
▁MO	-13740
▁ng	-13741
****	-13742
USIC	-13743
opol	-13744
said	-13745
sels	-13746
▁Nag	-13747
▁OMB	-13748
▁Pun	-13749
▁asc	-13750
▁eve	-13751
▁ssh	-13752
Never	-13753
anton	-13754
itics	-13755
izard	-13756
three	-13757
▁Cart	-13758
▁Jose	-13759
▁Prom	-13760
▁Stal	-13761
▁Test	-13762
▁WELL	-13763
▁dome	-13764
▁evac	-13765
▁insc	-13766
▁masc	-13767
▁ohio	-13768
▁plum	-13769
▁skys	-13770
▁vamp	-13771
INGING	-13772
ambers	-13773
brings	-13774
hester	-13775
omeday	-13776
resses	-13777
speaks	-13778
veland	-13779
▁Allen	-13780
▁Annie	-13781
▁Loire	-13782
▁Lower	-13783
▁Momma	-13784
▁Money	-13785
▁accus	-13786
▁borne	-13787
▁charl	-13788
▁crypt	-13789
▁dealt	-13790
▁denim	-13791
▁illum	-13792
▁maker	-13793
▁shave	-13794
▁umhum	-13795
icating	-13796
itarian	-13797
▁Bright	-13798
▁Engine	-13799
▁Guards	-13800
▁Origin	-13801
▁Popeye	-13802
▁Rights	-13803
▁brains	-13804
▁bundle	-13805
▁escort	-13806
▁fiscal	-13807
▁parlor	-13808
▁punish	-13809
▁reluct	-13810
children	-13811
ropriate	-13812
▁Abraham	-13813
▁Goodbye	-13814
▁adapted	-13815
▁emotion	-13816
▁mixture	-13817
▁spilled	-13818
▁tapioca	-13819
▁tobacco	-13820
▁walkway	-13821
▁Economic	-13822
▁credited	-13823
▁database	-13824
▁freezing	-13825
▁michigan	-13826
▁regiment	-13827
▁terrific	-13828
▁attorneys	-13829
▁biography	-13830
▁melbourne	-13831
▁socialist	-13832
▁strongest	-13833
▁Technology	-13834
▁suspicious	-13835
▁Westminster	-13836
▁Philadelphia	-13837
PR	-13838
WA	-13839
mi	-13840
ARY	-13841
dad	-13842
enh	-13843
igi	-13844
pot	-13845
vada	-13846
▁Bub	-13847
▁Bul	-13848
▁CAR	-13849
▁Fel	-13850
▁GOT	-13851
▁Lin	-13852
▁Lis	-13853
▁WHI	-13854
▁hir	-13855
▁lav	-13856
annie	-13857
araoh	-13858
grade	-13859
iates	-13860
imony	-13861
lical	-13862
oping	-13863
shows	-13864
vador	-13865
▁Days	-13866
▁Herm	-13867
▁Kurd	-13868
▁Phys	-13869
▁Zach	-13870
▁dise	-13871
▁lazy	-13872
▁mend	-13873
▁moth	-13874
▁nazi	-13875
▁quot	-13876
▁sexy	-13877
▁stub	-13878
August	-13879
market	-13880
rouble	-13881
▁Chile	-13882
▁Fairy	-13883
▁Manor	-13884
▁await	-13885
▁cargo	-13886
▁chris	-13887
▁cryst	-13888
▁derby	-13889
▁discl	-13890
▁gazes	-13891
▁leash	-13892
▁lungs	-13893
▁monks	-13894
▁rises	-13895
▁surpl	-13896
REAMING	-13897
▁Austin	-13898
▁Nature	-13899
▁Pretty	-13900
▁Trevor	-13901
▁jewels	-13902
▁rating	-13903
▁shriek	-13904
▁theore	-13905
▁volunt	-13906
izations	-13907
▁Alabama	-13908
▁Chamber	-13909
▁Frances	-13910
▁Kennedy	-13911
▁Network	-13912
▁angrily	-13913
▁blocked	-13914
▁bombing	-13915
▁crushed	-13916
▁debuted	-13917
▁fairies	-13918
▁lighter	-13919
▁pyramid	-13920
▁remarks	-13921
▁reverse	-13922
unciation	-13923
▁Sergeant	-13924
▁annually	-13925
▁everyday	-13926
▁headache	-13927
▁passport	-13928
▁patterns	-13929
▁steadily	-13930
▁Mountains	-13931
▁Valentine	-13932
▁commenced	-13933
▁geography	-13934
▁indicates	-13935
▁onlookers	-13936
▁qualities	-13937
▁surviving	-13938
▁Pittsburgh	-13939
▁contribute	-13940
▁encouraging	-13941
▁exceptional	-13942
▁questioning	-13943
▁massachusetts	-13944
);	-13945
?­	-13946
SA	-13947
ERY	-13948
OTH	-13949
aca	-13950
eto	-13951
him	-13952
unh	-13953
uru	-13954
▁FR	-13955
▁TR	-13956
OMAN	-13957
PEAK	-13958
gger	-13959
inas	-13960
lemy	-13961
yawn	-13962
▁Alc	-13963
▁McG	-13964
▁Rah	-13965
▁Ric	-13966
▁Win	-13967
▁abd	-13968
▁gap	-13969
▁hut	-13970
ector	-13971
isons	-13972
olics	-13973
ouver	-13974
vised	-13975
▁Cape	-13976
▁Cuba	-13977
▁Food	-13978
▁Germ	-13979
▁Opal	-13980
▁Tall	-13981
▁Week	-13982
▁bono	-13983
▁disl	-13984
▁kong	-13985
▁pand	-13986
▁tuck	-13987
▁ware	-13988
esliga	-13989
itches	-13990
pushes	-13991
▁Elect	-13992
▁Mario	-13993
▁Patty	-13994
▁banjo	-13995
▁bucks	-13996
▁curls	-13997
▁explo	-13998
▁locks	-13999
▁milit	-14000
▁mural	-14001
▁pneum	-14002
▁therm	-14003
▁whale	-14004
avering	-14005
because	-14006
osaurus	-14007
▁Carlos	-14008
▁Dublin	-14009
▁Sydney	-14010
▁Treaty	-14011
▁Victor	-14012
▁assert	-14013
▁deeper	-14014
▁defect	-14015
▁encoun	-14016
▁incent	-14017
▁ingred	-14018
▁misery	-14019
▁perpet	-14020
▁poster	-14021
▁rained	-14022
▁regime	-14023
▁traded	-14024
▁wagons	-14025
▁yelled	-14026
riptions	-14027
▁earning	-14028
▁happier	-14029
▁rehears	-14030
▁secular	-14031
▁touches	-14032
▁bachelor	-14033
▁ministry	-14034
▁reserved	-14035
▁certified	-14036
▁saxophone	-14037
▁struggled	-14038
▁approaches	-14039
▁assessment	-14040
▁conferences	-14041
▁threatening	-14042
▁Additionally	-14043
▁establishing	-14044
▁screenwriter	-14045
▁technologies	-14046
rr	-14047
too	-14048
▁Eb	-14049
▁lu	-14050
alph	-14051
anya	-14052
give	-14053
oopy	-14054
pled	-14055
tles	-14056
velt	-14057
▁Gra	-14058
▁Jed	-14059
▁Rex	-14060
▁Seb	-14061
▁ron	-14062
▁sla	-14063
▁sob	-14064
ERING	-14065
First	-14066
ccoli	-14067
could	-14068
ppers	-14069
ships	-14070
▁Cale	-14071
▁Ward	-14072
▁brut	-14073
▁calf	-14074
▁chir	-14075
▁deed	-14076
▁disk	-14077
▁dorm	-14078
▁mast	-14079
Please	-14080
magnet	-14081
▁Cissy	-14082
▁Rosam	-14083
▁Shane	-14084
▁accum	-14085
▁bonds	-14086
▁fries	-14087
▁frown	-14088
▁optim	-14089
▁pleas	-14090
▁scaff	-14091
▁shiny	-14092
▁sizes	-14093
▁stunt	-14094
▁tanks	-14095
include	-14096
▁Contin	-14097
▁Enough	-14098
▁Führer	-14099
▁Newton	-14100
▁allies	-14101
▁banner	-14102
▁bewild	-14103
▁boards	-14104
▁boston	-14105
▁crowds	-14106
▁endure	-14107
▁messed	-14108
▁openly	-14109
▁prepar	-14110
▁pursue	-14111
▁raises	-14112
▁rattle	-14113
▁skates	-14114
▁swords	-14115
▁timber	-14116
▁trauma	-14117
▁Belgium	-14118
▁Command	-14119
▁Finland	-14120
▁Madison	-14121
▁casting	-14122
▁caution	-14123
▁cleaner	-14124
▁congrat	-14125
▁convert	-14126
▁cracked	-14127
▁creates	-14128
▁museums	-14129
▁notably	-14130
▁restore	-14131
▁symbols	-14132
▁Highland	-14133
▁Marshall	-14134
▁Regional	-14135
▁arriving	-14136
▁chatting	-14137
▁psychiat	-14138
▁quantity	-14139
▁sciences	-14140
▁stressed	-14141
▁Entertain	-14142
▁billboard	-14143
▁explaining	-14144
▁legislative	-14145
▁neighboring	-14146
▁Conservative	-14147
rê	-14148
▁É	-14149
ORY	-14150
gor	-14151
zan	-14152
▁Ju	-14153
▁Mu	-14154
▁Ur	-14155
Only	-14156
With	-14157
asso	-14158
lett	-14159
▁Bed	-14160
▁Bri	-14161
▁Lil	-14162
▁Lim	-14163
▁Low	-14164
▁bil	-14165
▁woo	-14166
wheel	-14167
▁Cold	-14168
▁Hero	-14169
▁Mess	-14170
▁Stra	-14171
▁lent	-14172
▁mane	-14173
▁meow	-14174
▁rosy	-14175
▁shan	-14176
▁yuck	-14177
Father	-14178
inator	-14179
ittees	-14180
stands	-14181
▁Horse	-14182
▁THINK	-14183
▁ashes	-14184
▁bacon	-14185
▁crops	-14186
▁dimin	-14187
▁kelly	-14188
▁kills	-14189
▁perch	-14190
▁racer	-14191
▁repro	-14192
▁sober	-14193
▁vowel	-14194
▁Inside	-14195
▁Portia	-14196
▁Virgin	-14197
▁Within	-14198
▁cannon	-14199
▁carrot	-14200
▁exquis	-14201
▁kisses	-14202
▁mouths	-14203
▁prophe	-14204
▁styles	-14205
▁tribut	-14206
▁waking	-14207
▁Kristen	-14208
▁admired	-14209
▁bearded	-14210
▁butcher	-14211
▁crosses	-14212
▁drafted	-14213
▁pockets	-14214
▁propose	-14215
▁sandwic	-14216
▁sustain	-14217
▁traitor	-14218
▁venture	-14219
▁broccoli	-14220
▁cardinal	-14221
▁diseases	-14222
▁heartily	-14223
▁consisted	-14224
▁emotional	-14225
▁interfere	-14226
▁societies	-14227
▁valentine	-14228
▁components	-14229
▁evaluation	-14230
▁helicopter	-14231
▁historians	-14232
▁interstate	-14233
▁proportion	-14234
▁psychology	-14235
▁abbreviated	-14236
▁communicate	-14237
▁continental	-14238
▁partnership	-14239
▁researchers	-14240
▁accomplished	-14241
▁conservation	-14242
▁increasingly	-14243
▁characteristic	-14244
tv	-14245
ès	-14246
OUG	-14247
PAU	-14248
Sec	-14249
abe	-14250
ahl	-14251
ulu	-14252
▁SU	-14253
acts	-14254
emon	-14255
isms	-14256
▁CHR	-14257
▁Fun	-14258
▁bru	-14259
▁han	-14260
▁nag	-14261
arium	-14262
irdrê	-14263
llers	-14264
▁Cole	-14265
▁Crus	-14266
▁adam	-14267
▁anal	-14268
▁begg	-14269
▁dent	-14270
▁fury	-14271
▁rect	-14272
▁slim	-14273
reated	-14274
zerbai	-14275
▁Jesse	-14276
▁Nancy	-14277
▁Pratt	-14278
▁Short	-14279
▁boast	-14280
▁charm	-14281
▁draws	-14282
▁float	-14283
▁fract	-14284
▁infin	-14285
▁leans	-14286
▁lifts	-14287
▁mosqu	-14288
▁nails	-14289
▁nicer	-14290
▁orbit	-14291
▁scrub	-14292
▁tonic	-14293
holders	-14294
isition	-14295
lemagne	-14296
▁Cherry	-14297
▁Gentle	-14298
▁Warren	-14299
▁boiled	-14300
▁bulldo	-14301
▁daniel	-14302
▁expend	-14303
▁geomet	-14304
▁gravel	-14305
▁melted	-14306
▁meteor	-14307
▁paints	-14308
▁pierre	-14309
▁topics	-14310
▁wasted	-14311
▁worlds	-14312
uschwitz	-14313
▁baskets	-14314
▁belgium	-14315
▁choices	-14316
▁corners	-14317
▁denmark	-14318
▁hallway	-14319
▁hungary	-14320
▁philhar	-14321
▁pursuit	-14322
▁therapy	-14323
▁vessels	-14324
▁blessing	-14325
▁collapse	-14326
▁convince	-14327
▁daylight	-14328
▁explorer	-14329
▁fighters	-14330
▁observes	-14331
▁obstacle	-14332
▁orthodox	-14333
▁promises	-14334
▁retained	-14335
▁telegram	-14336
▁Norwegian	-14337
▁Political	-14338
▁believing	-14339
▁collapsed	-14340
▁explosion	-14341
▁fisherman	-14342
▁objection	-14343
▁philosoph	-14344
▁prevented	-14345
▁splashing	-14346
▁sustained	-14347
▁treasures	-14348
▁accessible	-14349
▁councillor	-14350
▁immigrants	-14351
▁inspiration	-14352
▁legislation	-14353
▁transformed	-14354
▁intersection	-14355
▁photographed	-14356
NO	-14357
--_	-14358
REE	-14359
uta	-14360
▁Gh	-14361
▁Ul	-14362
▁od	-14363
abby	-14364
arer	-14365
both	-14366
cott	-14367
dict	-14368
elli	-14369
furt	-14370
gard	-14371
path	-14372
rast	-14373
rium	-14374
▁Cru	-14375
▁NAT	-14376
▁Nam	-14377
▁Rue	-14378
▁Sax	-14379
OTHER	-14380
engal	-14381
every	-14382
green	-14383
posed	-14384
▁Andr	-14385
▁Edge	-14386
▁Joan	-14387
▁Peru	-14388
▁Zeus	-14389
▁babe	-14390
▁clan	-14391
▁ming	-14392
▁riot	-14393
▁sulf	-14394
▁swan	-14395
▁temp	-14396
▁tram	-14397
atinum	-14398
erving	-14399
ruguay	-14400
utiful	-14401
▁Apple	-14402
▁Kathy	-14403
▁Monte	-14404
▁Staff	-14405
▁THANK	-14406
▁awoke	-14407
▁champ	-14408
▁harry	-14409
▁hedge	-14410
▁punct	-14411
▁scold	-14412
angular	-14413
▁Anyone	-14414
▁Modern	-14415
▁Warner	-14416
▁beasts	-14417
▁divine	-14418
▁grapes	-14419
▁hoarse	-14420
▁retail	-14421
▁simult	-14422
▁specim	-14423
▁sponge	-14424
▁squeak	-14425
oosevelt	-14426
ventions	-14427
▁Deirdrê	-14428
▁Manager	-14429
▁flowing	-14430
▁inherit	-14431
▁rounded	-14432
▁Campbell	-14433
▁Superman	-14434
▁applying	-14435
▁cultures	-14436
▁curtains	-14437
▁grantees	-14438
▁networks	-14439
▁restless	-14440
▁stepping	-14441
▁Amsterdam	-14442
▁Charlotte	-14443
▁accordion	-14444
▁criminals	-14445
▁dismissed	-14446
▁disturbed	-14447
▁objective	-14448
▁chancellor	-14449
▁concentrate	-14450
▁descendants	-14451
▁essentially	-14452
▁politicians	-14453
▁requirement	-14454
▁nevertheless	-14455
Je	-14456
AID	-14457
IES	-14458
OUS	-14459
nik	-14460
uro	-14461
▁),	-14462
▁BM	-14463
▁PH	-14464
▁Si	-14465
▁si	-14466
atty	-14467
chen	-14468
clad	-14469
erek	-14470
qual	-14471
uces	-14472
urry	-14473
▁Ale	-14474
▁Anc	-14475
▁Doc	-14476
▁Sac	-14477
▁Sid	-14478
▁TAL	-14479
▁Vic	-14480
▁maj	-14481
▁mop	-14482
anned	-14483
cloth	-14484
never	-14485
offic	-14486
▁Coss	-14487
▁Face	-14488
▁Glen	-14489
▁anat	-14490
▁bapt	-14491
▁brun	-14492
▁clad	-14493
▁dots	-14494
▁khan	-14495
▁perf	-14496
▁rhin	-14497
▁roar	-14498
▁rows	-14499
▁sain	-14500
nother	-14501
semble	-14502
umbers	-14503
▁COVID	-14504
▁Catal	-14505
▁Cheer	-14506
▁Dance	-14507
▁Georg	-14508
▁Homer	-14509
▁Imper	-14510
▁Liver	-14511
▁Nicky	-14512
▁Rhode	-14513
▁Tamil	-14514
▁Weeks	-14515
▁Works	-14516
▁deter	-14517
▁erase	-14518
▁fatal	-14519
▁loans	-14520
▁raven	-14521
▁weigh	-14522
▁Behind	-14523
▁Friend	-14524
▁Hispan	-14525
▁Luther	-14526
▁Stuart	-14527
▁Unlike	-14528
▁arabic	-14529
▁burial	-14530
▁define	-14531
▁hither	-14532
▁jewish	-14533
▁plains	-14534
▁retain	-14535
▁sodium	-14536
speaking	-14537
▁Climate	-14538
▁Officer	-14539
▁Romania	-14540
▁carrots	-14541
▁chewing	-14542
▁elegant	-14543
▁ongoing	-14544
▁puppets	-14545
▁reforms	-14546
▁scenery	-14547
▁twisted	-14548
▁upwards	-14549
▁wasting	-14550
▁wrought	-14551
▁colleges	-14552
▁frontier	-14553
▁landmark	-14554
▁lighting	-14555
▁reindeer	-14556
▁vertical	-14557
▁Authority	-14558
▁balancing	-14559
▁dominican	-14560
▁gregorian	-14561
▁mortality	-14562
▁elementary	-14563
▁sandwiches	-14564
▁statistics	-14565
▁progressive	-14566
▁Independence	-14567
▁Entertainment	-14568
▁illustrations	-14569
Af	-14570
OP	-14571
bit	-14572
gum	-14573
ims	-14574
iph	-14575
oft	-14576
pre	-14577
zig	-14578
▁Ko	-14579
▁SW	-14580
anga	-14581
arro	-14582
eeds	-14583
ethe	-14584
ivia	-14585
offs	-14586
orph	-14587
thia	-14588
▁Adv	-14589
▁Ain	-14590
▁Bah	-14591
▁WHY	-14592
▁dvd	-14593
▁ist	-14594
▁lac	-14595
▁nom	-14596
▁rit	-14597
arter	-14598
asaki	-14599
asgow	-14600
mania	-14601
ooked	-14602
rived	-14603
table	-14604
yells	-14605
▁Gene	-14606
▁Left	-14607
▁Lily	-14608
▁Nope	-14609
▁Till	-14610
▁bail	-14611
▁bats	-14612
▁feud	-14613
▁fres	-14614
▁hier	-14615
▁kenn	-14616
▁ling	-14617
▁pigs	-14618
▁unre	-14619
entina	-14620
igrant	-14621
inence	-14622
mented	-14623
▁Fleet	-14624
▁Tiger	-14625
▁bowed	-14626
▁creep	-14627
▁dwarf	-14628
▁fatig	-14629
▁onion	-14630
▁peach	-14631
▁plaza	-14632
▁rainy	-14633
▁shark	-14634
▁slain	-14635
▁subsc	-14636
▁waits	-14637
Perhaps	-14638
angling	-14639
istance	-14640
▁Census	-14641
▁Michel	-14642
▁Reform	-14643
▁beheld	-14644
▁climbs	-14645
▁curren	-14646
▁freely	-14647
▁hoodie	-14648
▁knocks	-14649
▁metall	-14650
▁nerves	-14651
▁parcel	-14652
▁posted	-14653
▁stored	-14654
▁sunday	-14655
▁utmost	-14656
▁walkie	-14657
▁wholly	-14658
▁bidding	-14659
▁dislike	-14660
▁evolved	-14661
▁fastest	-14662
▁mineral	-14663
▁neutral	-14664
▁persian	-14665
▁shorter	-14666
▁Piedmont	-14667
▁asteroid	-14668
▁bacteria	-14669
▁bitterly	-14670
▁governed	-14671
▁releases	-14672
▁starving	-14673
▁vocalist	-14674
songwriter	-14675
▁earnestly	-14676
▁engineers	-14677
▁kidnapped	-14678
▁meanwhile	-14679
▁messenger	-14680
▁respected	-14681
▁stockings	-14682
ratulations	-14683
▁conspiracy	-14684
▁displaying	-14685
▁headphones	-14686
▁decorations	-14687
▁deliberately	-14688
▁expectations	-14689
GE	-14690
Gu	-14691
CLI	-14692
Nay	-14693
eem	-14694
sed	-14695
▁pi	-14696
agic	-14697
bbie	-14698
brid	-14699
cked	-14700
eyer	-14701
nick	-14702
pple	-14703
rend	-14704
wind	-14705
▁(),	-14706
▁Dom	-14707
▁Glo	-14708
▁Inf	-14709
▁Rus	-14710
▁Tax	-14711
▁oop	-14712
▁orn	-14713
▁tha	-14714
bbing	-14715
celer	-14716
ensed	-14717
eremy	-14718
grand	-14719
ileen	-14720
ndish	-14721
▁Gros	-14722
▁Mult	-14723
▁Neil	-14724
▁Reid	-14725
▁Sara	-14726
▁Send	-14727
▁Trib	-14728
▁WILL	-14729
▁Walt	-14730
▁cubs	-14731
▁foul	-14732
▁glac	-14733
▁gosp	-14734
▁hamm	-14735
▁orch	-14736
▁rays	-14737
▁ruff	-14738
▁ster	-14739
▁tore	-14740
commun	-14741
oubted	-14742
sticks	-14743
utches	-14744
▁Darth	-14745
▁Lloyd	-14746
▁Marco	-14747
▁Songs	-14748
▁Tracy	-14749
▁claws	-14750
▁nymph	-14751
▁rhine	-14752
▁scope	-14753
▁splin	-14754
berries	-14755
onymous	-14756
ovision	-14757
roatian	-14758
spector	-14759
▁Sebast	-14760
▁Wouldn	-14761
▁filmed	-14762
▁guinea	-14763
▁legacy	-14764
▁paddle	-14765
▁permit	-14766
▁precip	-14767
▁rested	-14768
▁sleeve	-14769
▁submit	-14770
▁tempor	-14771
▁wildly	-14772
▁Kenneth	-14773
▁Tonight	-14774
▁Workers	-14775
▁alabama	-14776
▁barrier	-14777
▁cavalry	-14778
▁dioxide	-14779
▁invaded	-14780
▁proudly	-14781
▁spotted	-14782
▁steward	-14783
▁villain	-14784
ationally	-14785
▁Kentucky	-14786
▁circular	-14787
▁concentr	-14788
▁farewell	-14789
▁misunder	-14790
▁peasants	-14791
▁saturday	-14792
▁slippers	-14793
▁upcoming	-14794
▁Obviously	-14795
▁cancelled	-14796
▁capturing	-14797
▁convicted	-14798
▁criterion	-14799
▁divisions	-14800
▁monastery	-14801
▁promising	-14802
▁replacing	-14803
▁teenagers	-14804
▁confession	-14805
▁interviews	-14806
▁provincial	-14807
▁recordings	-14808
▁regulatory	-14809
▁attractions	-14810
▁populations	-14811
▁statistical	-14812
▁unnecessary	-14813
▁Mademoiselle	-14814
▁accidentally	-14815
▁historically	-14816
DA	-14817
YS	-14818
COS	-14819
SIG	-14820
See	-14821
USE	-14822
eez	-14823
ieu	-14824
mot	-14825
owl	-14826
zzo	-14827
▁AL	-14828
▁ew	-14829
Okay	-14830
arre	-14831
atem	-14832
atra	-14833
cale	-14834
core	-14835
llen	-14836
oded	-14837
oren	-14838
rise	-14839
tion	-14840
▁Gon	-14841
▁Moo	-14842
▁Sem	-14843
▁Tit	-14844
▁Vik	-14845
▁gau	-14846
▁jan	-14847
▁kat	-14848
▁mit	-14849
▁rud	-14850
alion	-14851
aware	-14852
comed	-14853
eches	-14854
▁Bach	-14855
▁Conc	-14856
▁Erin	-14857
▁Poly	-14858
▁Saud	-14859
▁abst	-14860
▁cans	-14861
▁clue	-14862
▁glue	-14863
▁impe	-14864
▁melt	-14865
▁puff	-14866
▁vall	-14867
▁weld	-14868
hausen	-14869
▁Aaron	-14870
▁Haven	-14871
▁Kenny	-14872
▁Phill	-14873
▁Teddy	-14874
▁beige	-14875
▁guilt	-14876
▁hyper	-14877
▁madam	-14878
▁naval	-14879
▁sells	-14880
▁trous	-14881
atively	-14882
▁Caesar	-14883
▁Madame	-14884
▁Prison	-14885
▁Review	-14886
▁Rubens	-14887
▁amused	-14888
▁barber	-14889
▁calmly	-14890
▁footst	-14891
▁spared	-14892
▁timing	-14893
▁wilder	-14894
▁Account	-14895
▁Mariana	-14896
▁Picture	-14897
▁amateur	-14898
▁backing	-14899
▁biology	-14900
▁rebuilt	-14901
▁slavery	-14902
▁threats	-14903
▁Colombia	-14904
▁altitude	-14905
▁certific	-14906
▁columbia	-14907
▁consumer	-14908
▁infected	-14909
▁monsieur	-14910
▁mushroom	-14911
▁outbreak	-14912
▁pressing	-14913
▁priority	-14914
▁stunning	-14915
▁sunlight	-14916
▁Chagmouth	-14917
▁Clavering	-14918
▁Ukrainian	-14919
▁caterpill	-14920
▁chemicals	-14921
▁coalition	-14922
▁enthusias	-14923
▁installed	-14924
▁performer	-14925
▁spreading	-14926
▁stretches	-14927
onlyinclude	-14928
▁acceptable	-14929
▁aggressive	-14930
▁autonomous	-14931
▁hemisphere	-14932
▁horizontal	-14933
▁kilometres	-14934
▁performers	-14935
▁Charlemagne	-14936
▁achievement	-14937
▁illustrated	-14938
▁remembering	-14939
▁effectiveness	-14940
Ap	-14941
El	-14942
TE	-14943
”.	-14944
asa	-14945
ede	-14946
ija	-14947
imi	-14948
pit	-14949
urf	-14950
wig	-14951
▁Aj	-14952
▁Kl	-14953
▁LE	-14954
▁TI	-14955
ansk	-14956
dial	-14957
fold	-14958
holm	-14959
hour	-14960
ilts	-14961
imir	-14962
ingo	-14963
inos	-14964
ipel	-14965
zone	-14966
▁BAB	-14967
▁Cut	-14968
▁Dav	-14969
▁Eth	-14970
▁OFF	-14971
▁Rio	-14972
▁bor	-14973
▁ecl	-14974
▁gib	-14975
▁gig	-14976
▁ken	-14977
Every	-14978
arded	-14979
bread	-14980
erals	-14981
ierra	-14982
innie	-14983
odore	-14984
pling	-14985
poles	-14986
ulars	-14987
world	-14988
▁Dude	-14989
▁bout	-14990
▁dash	-14991
▁lace	-14992
▁loop	-14993
▁muzz	-14994
▁quad	-14995
▁volt	-14996
houses	-14997
istent	-14998
prints	-14999
▁Birth	-15000
▁Grant	-15001
▁Jamie	-15002
▁Scout	-15003
▁freak	-15004
▁moist	-15005
▁niger	-15006
▁scrib	-15007
▁seals	-15008
[...]
