{
  "version": "1.0",
  "truncation": null,
  "padding": null,
  "added_tokens": [
    {
      "id": 0,
      "content": "<unk>",
      "single_word": false,
      "lstrip": false,
      "rstrip": false,
      "normalized": false,
      "special": true
    },
    {
      "id": 1,
      "content": "<s>",
      "single_word": false,
      "lstrip": false,
      "rstrip": false,
      "normalized": false,
      "special": true
    },
    {
      "id": 2,
      "content": "</s>",
      "single_word": false,
      "lstrip": false,
      "rstrip": false,
      "normalized": false,
      "special": true
    },
    {
      "id": 3,
      "content": "<pad>",
      "single_word": false,
      "lstrip": false,
      "rstrip": false,
      "normalized": false,
      "special": true
    },
    {
      "id": 4,
      "content": "<mask>",
      "single_word": false,
      "lstrip": false,
      "rstrip": false,
      "normalized": false,
      "special": true
    }
  ],
  "normalizer": {
    "type": "Sequence",
    "normalizers": [
      {
        "type": "Prepend",
        "prepend": " "
      },
      {
        "type": "NFKC"
      },
      {
        "type": "Replace",
        "pattern": {
          "Regex": "\\n"
        },
        "content": "\n "
      },
      {
        "type": "Replace",
        "pattern": {
          "Regex": " *\\n"
        },
        "content": "\n"
      }
    ]
  },
  "pre_tokenizer": {
    "type": "Sequence",
    "pretokenizers": [
      {
        "type": "Split",
        "pattern": {
          "Regex": "[^\\r\\n\\p{L}\\p{N}]?[\\p{Lu}\\p{Lt}\\p{Lm}\\p{Lo}\\p{M}]*[\\p{Ll}\\p{Lm}\\p{Lo}\\p{M}]+|[^\\r\\n\\p{L}\\p{N}]?[\\p{Lu}\\p{Lt}\\p{Lm}\\p{Lo}\\p{M}]+[\\p{Ll}\\p{Lm}\\p{Lo}\\p{M}]*|\\p{N}| ?[^\\s\\p{L}\\p{N}]+[\\r\\n/]*|\\s*[\\r\\n]+|\\s+(?!\\S)|\\s+"
        },
        "behavior": "Isolated",
        "invert": false
      },
      {
        "type": "ByteLevel",
        "add_prefix_space": false,
        "trim_offsets": true,
        "use_regex": false
      },
      {
        "type": "Split",
        "pattern": {
          "Regex": ".{1,24}"
        },
        "behavior": "Isolated",
        "invert": false
      }
    ]
  },
  "post_processor": {
    "type": "TemplateProcessing",
    "single": [
      {
        "SpecialToken": {
          "id": "<s>",
          "type_id": 0
        }
      },
      {
        "Sequence": {
          "id": "A",
          "type_id": 0
        }
      },
      {
        "SpecialToken": {
          "id": "</s>",
          "type_id": 0
        }
      }
    ],
    "pair": [
      {
        "SpecialToken": {
          "id": "<s>",
          "type_id": 0
        }
      },
      {
        "Sequence": {
          "id": "A",
          "type_id": 0
        }
      },
      {
        "SpecialToken": {
          "id": "</s>",
          "type_id": 0
        }
      },
      {
        "SpecialToken": {
          "id": "<s>",
          "type_id": 0
        }
      },
      {
        "Sequence": {
          "id": "B",
          "type_id": 0
        }
      },
      {
        "SpecialToken": {
          "id": "</s>",
          "type_id": 0
        }
      }
    ],
    "special_tokens": {
      "</s>": {
        "id": "</s>",
        "ids": [
          2
        ],
        "tokens": [
          "</s>"
        ]
      },
      "<s>": {
        "id": "<s>",
        "ids": [
          1
        ],
        "tokens": [
          "<s>"
        ]
      }
    }
  },
  "decoder": {
    "type": "Sequence",
    "decoders": [
      {
        "type": "ByteLevel",
        "add_prefix_space": true,
        "trim_offsets": true,
        "use_regex": true
      },
      {
        "type": "Strip",
        "content": " ",
        "start": 1,
        "stop": 0
      },
      {
        "type": "Replace",
        "pattern": {
          "String": "\n "
        },
        "content": "\n"
      }
    ]
  },
  "model": {
    "type": "BPE",
    "dropout": null,
    "unk_token": "<unk>",
    "continuing_subword_prefix": null,
    "end_of_word_suffix": null,
    "fuse_unk": false,
    "byte_fallback": false,
    "ignore_merges": false,
    "vocab": {
      "<unk>": 0,
      "<s>": 1,
      "</s>": 2,
      "<pad>": 3,
      "<mask>": 4,
      "!": 5,
      "\"": 6,
      "#": 7,
      "$": 8,
      "%": 9,
      "&": 10,
      "'": 11,
      "(": 12,
      ")": 13,
      "*": 14,
      "+": 15,
      ",": 16,
      "-": 17,
      ".": 18,
      "/": 19,
      "0": 20,
      "1": 21,
      "2": 22,
      "3": 23,
      "4": 24,
      "5": 25,
      "6": 26,
      "7": 27,
      "8": 28,
      "9": 29,
      ":": 30,
      ";": 31,
      "=": 32,
      "?": 33,
      "@": 34,
      "A": 35,
      "B": 36,
      "C": 37,
      "D": 38,
      "E": 39,
      "F": 40,
      "G": 41,
      "H": 42,
      "I": 43,
      "J": 44,
      "K": 45,
      "L": 46,
      "M": 47,
      "N": 48,
      "O": 49,
      "P": 50,
      "Q": 51,
      "R": 52,
      "S": 53,
      "T": 54,
      "U": 55,
      "V": 56,
      "W": 57,
      "X": 58,
      "Y": 59,
      "Z": 60,
      "[": 61,
      "\\": 62,
      "]": 63,
      "^": 64,
      "_": 65,
      "`": 66,
      "a": 67,
      "b": 68,
      "c": 69,
      "d": 70,
      "e": 71,
      "f": 72,
      "g": 73,
      "h": 74,
      "i": 75,
      "j": 76,
      "k": 77,
      "l": 78,
      "m": 79,
      "n": 80,
      "o": 81,
      "p": 82,
      "q": 83,
      "r": 84,
      "s": 85,
      "t": 86,
      "u": 87,
      "v": 88,
      "w": 89,
      "x": 90,
      "y": 91,
      "z": 92,
      "{": 93,
      "|": 94,
      "}": 95,
      "~": 96,
      "¡": 97,
      "¢": 98,
      "£": 99,
      "¤": 100,
      "¥": 101,
      "¦": 102,
      "§": 103,
      "¨": 104,
      "©": 105,
      "ª": 106,
      "«": 107,
      "¬": 108,
      "®": 109,
      "¯": 110,
      "°": 111,
      "±": 112,
      "²": 113,
      "³": 114,
      "´": 115,
      "µ": 116,
      "¶": 117,
      "·": 118,
      "¸": 119,
      "¹": 120,
      "º": 121,
      "»": 122,
      "¼": 123,
      "½": 124,
      "¾": 125,
      "¿": 126,
      "Â": 127,
      "Ã": 128,
      "Ä": 129,
      "Å": 130,
      "Æ": 131,
      "Ç": 132,
      "È": 133,
      "É": 134,
      "Ê": 135,
      "Ë": 136,
      "Î": 137,
      "×": 138,
      "Ù": 139,
      "à": 140,
      "á": 141,
      "â": 142,
      "ã": 143,
      "ê": 144,
      "ï": 145,
      "ð": 146,
      "Ċ": 147,
      "Ġ": 148,
      "ġ": 149,
      "Ģ": 150,
      "ģ": 151,
      "Ĥ": 152,
      "ĥ": 153,
      "Ħ": 154,
      "ħ": 155,
      "Ĩ": 156,
      "ĩ": 157,
      "Ī": 158,
      "ī": 159,
      "Ĭ": 160,
      "ĭ": 161,
      "Į": 162,
      "į": 163,
      "İ": 164,
      "ı": 165,
      "Ĳ": 166,
      "ĳ": 167,
      "Ĵ": 168,
      "ĵ": 169,
      "Ķ": 170,
      "ķ": 171,
      "ĸ": 172,
      "Ĺ": 173,
      "ĺ": 174,
      "Ļ": 175,
      "ļ": 176,
      "Ľ": 177,
      "ľ": 178,
      "Ŀ": 179,
      "ŀ": 180,
      "Ł": 181,
      "ł": 182,
      "Ń": 183,
      "Ġt": 184,
      "he": 185,
      "Ġa": 186,
      ".Ċ": 187,
      "in": 188,
      "Ġw": 189,
      "Ġthe": 190,
      "Ġs": 191,
      "ou": 192,
      "re": 193,
      "Ġ*": 194,
      "Ġo": 195,
      "ha": 196,
      "er": 197,
      "nd": 198,
      "Ġb": 199,
      "it": 200,
      "is": 201,
      "Ġm": 202,
      "Ġc": 203,
      "Ġd": 204,
      "on": 205,
      "Ġy": 206,
      "Ġf": 207,
      "ĠI": 208,
      "ing": 209,
      "Ġto": 210,
      "ll": 211,
      "an": 212,
      "or": 213,
      "ed": 214,
      "es": 215,
      "en": 216,
      "Ġp": 217,
      "Ġyou": 218,
      "hat": 219,
      "Ġand": 220,
      "Ġl": 221,
      "Ġg": 222,
      "?Ċ": 223,
      "HI": 224,
      "ar": 225,
      "CHI": 226,
      "Ġn": 227,
      "Ġof": 228,
      "as": 229,
      "OT": 230,
      "MOT": 231,
      "Ġin": 232,
      "at": 233,
      "om": 234,
      "Ġhe": 235,
      "Ġh": 236,
      "ow": 237,
      "ot": 238,
      "le": 239,
      "'s": 240,
      "Ġha": 241,
      "Ġit": 242,
      "et": 243,
      "ay": 244,
      "ic": 245,
      "Ġth": 246,
      "ve": 247,
      "Ġon": 248,
      "Ġthat": 249,
      "ĠT": 250,
      "us": 251,
      "id": 252,
      "gh": 253,
      "Ġbe": 254,
      "ĠS": 255,
      "al": 256,
      "Ġ=": 257,
      "ĠA": 258,
      "Ġis": 259,
      "Ġwas": 260,
      "Ġe": 261,
      "ld": 262,
      "ut": 263,
      "Ġwe": 264,
      "ĠM": 265,
      "oo": 266,
      "im": 267,
      "ver": 268,
      "ac": 269,
      "ke": 270,
      "ad": 271,
      "Ġre": 272,
      "'t": 273,
      "ri": 274,
      "Ġ[": 275,
      "ĠW": 276,
      "Ġfor": 277,
      "ent": 278,
      "ir": 279,
      "ĠC": 280,
      "ght": 281,
      "Ġu": 282,
      "Ġst": 283,
      "ion": 284,
      "Ġdo": 285,
      "se": 286,
      "am": 287,
      "ĠH": 288,
      "ly": 289,
      "ĠB": 290,
      "st": 291,
      "Ġk": 292,
      "out": 293,
      "ro": 294,
      "Ġ\"": 295,
      "Ġme": 296,
      "ith": 297,
      "her": 298,
      "Ġwhat": 299,
      "Ġwh": 300,
      "Ġan": 301,
      "Ġwith": 302,
      "ĠThe": 303,
      "ea": 304,
      "ome": 305,
      "all": 306,
      "ur": 307,
      "..": 308,
      "Ġli": 309,
      "Ġse": 310,
      "ch": 311,
      "Ġat": 312,
      "!Ċ": 313,
      "Ġas": 314,
      "]Ċ": 315,
      "ter": 316,
      "ill": 317,
      "Ġgo": 318,
      "Ġnot": 319,
      "Ġthis": 320,
      "ĠY": 321,
      "ould": 322,
      "Ġhave": 323,
      "ĠD": 324,
      "ce": 325,
      "ĠP": 326,
      "AT": 327,
      "Ġkn": 328,
      "il": 329,
      "ĠN": 330,
      "Ġ-": 331,
      "xx": 332,
      "FAT": 333,
      "Ġher": 334,
      "Ġno": 335,
      "ust": 336,
      "ra": 337,
      "if": 338,
      "Ġone": 339,
      "Ġare": 340,
      "un": 341,
      "Ġthey": 342,
      "Ġhis": 343,
      "ant": 344,
      "ct": 345,
      "ĠO": 346,
      "ĠR": 347,
      "Ġshe": 348,
      "Ġknow": 349,
      "Ġso": 350,
      "Ġwhe": 351,
      "ĠG": 352,
      "Ġcan": 353,
      "ĠL": 354,
      "ell": 355,
      "Ġsa": 356,
      "op": 357,
      "ore": 358,
      "Ġup": 359,
      "Ġmy": 360,
      "Ġdon": 361,
      "ĠF": 362,
      "Ġj": 363,
      "Ġne": 364,
      "Ġall": 365,
      "ĠE": 366,
      "ook": 367,
      "Ġthere": 368,
      "rom": 369,
      "Ġhad": 370,
      "ge": 371,
      "pp": 372,
      "âĢ": 373,
      "ie": 374,
      "our": 375,
      "and": 376,
      "eah": 377,
      "Ġde": 378,
      "Ġbut": 379,
      "Ġyour": 380,
      "ĠJ": 381,
      "...Ċ": 382,
      "um": 383,
      "Ġdid": 384,
      "ry": 385,
      "ain": 386,
      "Ġal": 387,
      "Ġr": 388,
      "ĠHe": 389,
      "ul": 390,
      "art": 391,
      "ĠIt": 392,
      "Ġlike": 393,
      "ol": 394,
      "ack": 395,
      "ood": 396,
      "Ġab": 397,
      "Ġout": 398,
      "Ġhim": 399,
      "Ġsh": 400,
      "ight": 401,
      "Ġfrom": 402,
      "ake": 403,
      "th": 404,
      "red": 405,
      "Ġpl": 406,
      "ation": 407,
      "han": 408,
      "very": 409,
      "el": 410,
      "ab": 411,
      "ig": 412,
      "'re": 413,
      "Ġget": 414,
      "os": 415,
      "Ġsee": 416,
      "est": 417,
      "'m": 418,
      "ers": 419,
      "ess": 420,
      "right": 421,
      "ink": 422,
      "Ġwere": 423,
      "ist": 424,
      "Ġby": 425,
      "Ġsu": 426,
      "ound": 427,
      "itt": 428,
      "ame": 429,
      "ong": 430,
      "Ġwho": 431,
      "Ġsaid": 432,
      "Ġor": 433,
      "hi": 434,
      "ck": 435,
      "ĠYou": 436,
      "one": 437,
      "ind": 438,
      "Ġyeah": 439,
      "qu": 440,
      "na": 441,
      "Ġwor": 442,
      "Ġhere": 443,
      "nt": 444,
      "res": 445,
      "Ġthem": 446,
      "ast": 447,
      "Ġabout": 448,
      "Ġsome": 449,
      "\"Ċ": 450,
      "ive": 451,
      "Ġcom": 452,
      "Ġsp": 453,
      "em": 454,
      "ber": 455,
      "ard": 456,
      "use": 457,
      "Ġ(": 458,
      "Ġjust": 459,
      "xxx": 460,
      "Ġxxx": 461,
      "ep": 462,
      "own": 463,
      "Ġwant": 464,
      "Ġv": 465,
      "ak": 466,
      "Ġwould": 467,
      "Ġthink": 468,
      "Ġlook": 469,
      "au": 470,
      "ate": 471,
      "ice": 472,
      "Ġright": 473,
      "Ġtw": 474,
      "other": 475,
      "Ġif": 476,
      "ally": 477,
      "Ġwhen": 478,
      "Ġany": 479,
      "fe": 480,
      "kay": 481,
      "'ll": 482,
      "Ġnow": 483,
      "Ġman": 484,
      "od": 485,
      "Ġcon": 486,
      "ick": 487,
      "ime": 488,
      "ough": 489,
      "ear": 490,
      "Ġex": 491,
      "ap": 492,
      "ĠK": 493,
      "Ġoh": 494,
      "ag": 495,
      "Ġgot": 496,
      "hing": 497,
      "Ġsay": 498,
      "ittle": 499,
      "ort": 500,
      "ĠAnd": 501,
      "ich": 502,
      "Ġwill": 503,
      "].Ċ": 504,
      "Ġlittle": 505,
      "Ġus": 506,
      "ven": 507,
      "ine": 508,
      "ous": 509,
      "ĠU": 510,
      "ide": 511,
      "Ġ=Ċ": 512,
      "Ġthen": 513,
      "ther": 514,
      "IN": 515,
      "Ġhow": 516,
      "AR": 517,
      "Ġint": 518,
      "--": 519,
      "ost": 520,
      "Ġgood": 521,
      "Ġtoo": 522,
      "ca": 523,
      "Ġpro": 524,
      "Ġag": 525,
      "int": 526,
      "ies": 527,
      "Ġwhere": 528,
      "Ġpe": 529,
      "ity": 530,
      "Ġtwo": 531,
      "Ġtime": 532,
      "way": 533,
      "Ġmore": 534,
      "Ġbeen": 535,
      "Ġcould": 536,
      "Ġar": 537,
      "Ġcl": 538,
      "ite": 539,
      "Ġback": 540,
      "Ġokay": 541,
      ".\"Ċ": 542,
      "Ġput": 543,
      "Ġvery": 544,
      "Ġhas": 545,
      "Ġ'": 546,
      "lf": 547,
      "Ġgoing": 548,
      "Ġdown": 549,
      "ree": 550,
      "ace": 551,
      "Ġwhich": 552,
      "Ġtheir": 553,
      "Ġro": 554,
      "Ġover": 555,
      "ose": 556,
      "ĠâĢ": 557,
      "Ġbo": 558,
      "MAR": 559,
      "ond": 560,
      "reat": 561,
      "ish": 562,
      "Ġoff": 563,
      "ove": 564,
      "Ġother": 565,
      "ian": 566,
      "ĠWhat": 567,
      "ĠSt": 568,
      "end": 569,
      "Ġaf": 570,
      "ĠShe": 571,
      "alk": 572,
      "cause": 573,
      "Ġtr": 574,
      "Ġbl": 575,
      "Ġqu": 576,
      "ople": 577,
      "Ġthing": 578,
      "Ġcome": 579,
      "ud": 580,
      "ft": 581,
      "Ġwell": 582,
      "ase": 583,
      "augh": 584,
      "ure": 585,
      "orn": 586,
      "Ġlet": 587,
      ",\"": 588,
      "ark": 589,
      "ĠWe": 590,
      "Ġle": 591,
      "ment": 592,
      "are": 593,
      "omet": 594,
      "Ġfe": 595,
      "ia": 596,
      "hed": 597,
      "'ve": 598,
      "ty": 599,
      "Ġpeople": 600,
      "Ġthan": 601,
      "ĠTh": 602,
      "ĠIn": 603,
      "ĠBut": 604,
      "onna": 605,
      "INV": 606,
      "irst": 607,
      "Ġplay": 608,
      "ought": 609,
      "urn": 610,
      "Ġbr": 611,
      "pe": 612,
      "ue": 613,
      "Ġmake": 614,
      "Ġinto": 615,
      "ade": 616,
      "ary": 617,
      "ved": 618,
      "ater": 619,
      "Ġer": 620,
      "Ġcall": 621,
      "Ġgonna": 622,
      "Ġtell": 623,
      "ĠNo": 624,
      "ble": 625,
      "ĠV": 626,
      "Ġsomet": 627,
      "age": 628,
      "Ġway": 629,
      "ass": 630,
      "Ġday": 631,
      "iss": 632,
      "Ġagain": 633,
      "Ġwork": 634,
      "Ġdoes": 635,
      "Ġ%": 636,
      "ving": 637,
      "ord": 638,
      "ci": 639,
      "Ġfirst": 640,
      "ount": 641,
      "Ġmean": 642,
      "Ġtake": 643,
      "Ġco": 644,
      "my": 645,
      "RO": 646,
      "laugh": 647,
      "ne": 648,
      "Ġen": 649,
      "Ġafter": 650,
      "Ġhu": 651,
      "Ġwr": 652,
      "ff": 653,
      "Ġam": 654,
      "ran": 655,
      "Ġthr": 656,
      "IS": 657,
      "ire": 658,
      "self": 659,
      "ng": 660,
      "pl": 661,
      "mer": 662,
      "wn": 663,
      "ves": 664,
      "ather": 665,
      "Ġgr": 666,
      "Ġbet": 667,
      "Ġdis": 668,
      "pt": 669,
      "Ġpart": 670,
      "per": 671,
      "Ġwhy": 672,
      "...": 673,
      "so": 674,
      "ĠSo": 675,
      "ach": 676,
      "Ġevery": 677,
      "ĠThat": 678,
      "ps": 679,
      "Ġgu": 680,
      "ys": 681,
      "Ġdidn": 682,
      "uch": 683,
      "Ġhapp": 684,
      "Ġyear": 685,
      "Ġneed": 686,
      "Ġun": 687,
      "ool": 688,
      "Ġonly": 689,
      "ub": 690,
      "Ġpr": 691,
      "ĠMr": 692,
      "Ġshould": 693,
      "fore": 694,
      "ren": 695,
      "ouse": 696,
      "Ġbecause": 697,
      "Ġsomething": 698,
      "ĠThey": 699,
      "Ġfl": 700,
      "day": 701,
      "Ġour": 702,
      "laughs": 703,
      "âĢĻ": 704,
      "Ġmade": 705,
      "nder": 706,
      "les": 707,
      "ĠOh": 708,
      "ew": 709,
      "SIS": 710,
      "ock": 711,
      "ull": 712,
      "ĠYeah": 713,
      "Ġpre": 714,
      "act": 715,
      "Ġmuch": 716,
      "hen": 717,
      "able": 718,
      "thing": 719,
      "ress": 720,
      "Ġcha": 721,
      "ĠâĢľ": 722,
      "Ġthese": 723,
      "Ġtalk": 724,
      "Ġch": 725,
      "Ġte": 726,
      "zz": 727,
      "Ġcar": 728,
      "ady": 729,
      "oss": 730,
      "we": 731,
      "Ġlong": 732,
      "hy": 733,
      "ory": 734,
      "man": 735,
      "og": 736,
      "oll": 737,
      "Ġreally": 738,
      "be": 739,
      "BRO": 740,
      "ru": 741,
      "Ġhand": 742,
      "irl": 743,
      "ions": 744,
      "ied": 745,
      "ict": 746,
      "Ġwan": 747,
      "Ġchi": 748,
      "ated": 749,
      "Ġthree": 750,
      "Ġwent": 751,
      "Ġthrough": 752,
      "Ġsha": 753,
      "av": 754,
      "ang": 755,
      "Ġrem": 756,
      "Ġbig": 757,
      "Ġuh": 758,
      "ĠMom": 759,
      "Ġeat": 760,
      "ĠThis": 761,
      "add": 762,
      "ix": 763,
      "Ġyes": 764,
      "Ġim": 765,
      "cc": 766,
      "yes": 767,
      "ï¿": 768,
      "Ġbefore": 769,
      "ile": 770,
      "Ġcomp": 771,
      "Ġnever": 772,
      "ting": 773,
      "Ġad": 774,
      "Ġmay": 775,
      "old": 776,
      "Ġchild": 777,
      "'d": 778,
      "ĠWell": 779,
      "ĠUn": 780,
      "Ġold": 781,
      "Ġsc": 782,
      "ï¿½": 783,
      "ise": 784,
      "ody": 785,
      "Ġcame": 786,
      "Ġstill": 787,
      "ĠChi": 788,
      "Ġgreat": 789,
      "Ġunder": 790,
      "Ġke": 791,
      "iz": 792,
      "Ġalso": 793,
      "Ġask": 794,
      "Ġmo": 795,
      "Ġhel": 796,
      "Ġsm": 797,
      "Ġwanna": 798,
      "Ġeven": 799,
      "Ġbu": 800,
      "Ġgirl": 801,
      "ful": 802,
      "up": 803,
      "Ġaway": 804,
      "Ġpo": 805,
      "Ġthought": 806,
      "ĠCh": 807,
      "ence": 808,
      "atch": 809,
      "ip": 810,
      "Ġum": 811,
      "ks": 812,
      "cl": 813,
      "Ġapp": 814,
      "Ġthose": 815,
      "Ġact": 816,
      "gg": 817,
      "Ġturn": 818,
      "ons": 819,
      "Ġhome": 820,
      "ried": 821,
      "Ġlast": 822,
      "Ġper": 823,
      "uck": 824,
      "oc": 825,
      "ĠThere": 826,
      "Ġnew": 827,
      "Ġhappen": 828,
      "Ġgive": 829,
      "Ġname": 830,
      "ward": 831,
      "get": 832,
      "Ġstart": 833,
      "ect": 834,
      "land": 835,
      "ath": 836,
      "ors": 837,
      "Ġanother": 838,
      "ember": 839,
      "ign": 840,
      "ited": 841,
      "Ġlea": 842,
      "Ġdoing": 843,
      "UR": 844,
      "Ġwa": 845,
      "Ġthings": 846,
      "ates": 847,
      ":Ċ": 848,
      "Ġmust": 849,
      "ily": 850,
      "ĠMar": 851,
      "Ġmany": 852,
      "Ġhouse": 853,
      "riend": 854,
      "Ġbook": 855,
      "Ġtry": 856,
      "Ġmother": 857,
      "âĢĿ": 858,
      "Ġcont": 859,
      "Ġhelp": 860,
      "chool": 861,
      ".]Ċ": 862,
      "ob": 863,
      "ings": 864,
      "hes": 865,
      "here": 866,
      "igh": 867,
      "ny": 868,
      "ans": 869,
      "ung": 870,
      "Ġfind": 871,
      "Ġser": 872,
      "aby": 873,
      "Ġcr": 874,
      "Ġsl": 875,
      "ious": 876,
      "ance": 877,
      "pen": 878,
      "Ġra": 879,
      "Ġhead": 880,
      "Ġple": 881,
      "iv": 882,
      "xt": 883,
      "Ġfour": 884,
      "ina": 885,
      "Ġshow": 886,
      "Ġwon": 887,
      "Ġnight": 888,
      "Ġsec": 889,
      "hm": 890,
      "Ġown": 891,
      "oney": 892,
      "oy": 893,
      "air": 894,
      "te": 895,
      "Ġcalled": 896,
      "rd": 897,
      "Ġres": 898,
      "Ġbel": 899,
      "Ġkind": 900,
      "ert": 901,
      "Ġchan": 902,
      "oth": 903,
      "ah": 904,
      "Ġlove": 905,
      "ail": 906,
      "Ġmom": 907,
      "Ġyears": 908,
      ",Ċ": 909,
      "Ġboy": 910,
      "ars": 911,
      "ild": 912,
      "body": 913,
      "Ġfriend": 914,
      "ĠYes": 915,
      "URS": 916,
      "ms": 917,
      "ave": 918,
      "Ġhuh": 919,
      "Ġfound": 920,
      "ĠHow": 921,
      "Ġel": 922,
      "Ġread": 923,
      "Ġbetter": 924,
      "Ġche": 925,
      "Ġdone": 926,
      "ical": 927,
      "ĠIs": 928,
      "aking": 929,
      "side": 930,
      "Ġend": 931,
      "Ġmight": 932,
      "Ġrec": 933,
      "akes": 934,
      "Ġsure": 935,
      "als": 936,
      "med": 937,
      "Ġaround": 938,
      "Ġcomm": 939,
      "ult": 940,
      "Ġmin": 941,
      "Ġfeel": 942,
      "ways": 943,
      "aw": 944,
      "ince": 945,
      "vers": 946,
      "ican": 947,
      "ER": 948,
      "Ġplace": 949,
      "ĠBe": 950,
      "oh": 951,
      "Ġmost": 952,
      "ĠBr": 953,
      "Ġsuch": 954,
      "ĠIf": 955,
      "ĠMommy": 956,
      "Ġroom": 957,
      "Ġcount": 958,
      "Ġschool": 959,
      "Ġgl": 960,
      "Ġatt": 961,
      "Ġcare": 962,
      "port": 963,
      "Ġbeing": 964,
      "ident": 965,
      "ces": 966,
      "Ġtra": 967,
      "Ġits": 968,
      "Ġtold": 969,
      "Ġpres": 970,
      "Ġdif": 971,
      "Ġsupp": 972,
      "Ġanything": 973,
      "Ġkeep": 974,
      "Ġfather": 975,
      "Ġfin": 976,
      "ont": 977,
      "ere": 978,
      "ever": 979,
      "Ġwater": 980,
      "amp": 981,
      "Ġdes": 982,
      "Ġword": 983,
      "rent": 984,
      "Ġfive": 985,
      "Ġlife": 986,
      "Ġnext": 987,
      "mp": 988,
      "ee": 989,
      "Ġcour": 990,
      "ĠDo": 991,
      "Ġelse": 992,
      "inn": 993,
      "Ġnum": 994,
      "ually": 995,
      "ute": 996,
      "led": 997,
      "Ġbeg": 998,
      "ĠAs": 999,
      "ĠAl": 1000,
      "ĠAll": 1001,
      "Ġsil": 1002,
      "Ġsame": 1003,
      "Ġlot": 1004,
      "Ġbaby": 1005,
      "ction": 1006,
      "ĠAmer": 1007,
      "Ġever": 1008,
      "ug": 1009,
      "Ġwait": 1010,
      "Ġopen": 1011,
      "ream": 1012,
      "uc": 1013,
      "ĠMark": 1014,
      "imes": 1015,
      "orry": 1016,
      "ump": 1017,
      "Ġwhile": 1018,
      "Ġnice": 1019,
      "ott": 1020,
      "Ġalways": 1021,
      "Ġmen": 1022,
      "ĠAn": 1023,
      "Ġmhm": 1024,
      "?\"Ċ": 1025,
      "Ġbec": 1026,
      "Ġsaw": 1027,
      "Ġtook": 1028,
      "row": 1029,
      "Ġdoesn": 1030,
      "oot": 1031,
      "uh": 1032,
      "Ġpret": 1033,
      "Ġph": 1034,
      "ations": 1035,
      "mber": 1036,
      "ens": 1037,
      "Ġset": 1038,
      "Ġsw": 1039,
      "ird": 1040,
      "Ġsing": 1041,
      "Ġpol": 1042,
      "Ġstop": 1043,
      "Ġpie": 1044,
      "Ġused": 1045,
      "ition": 1046,
      "Ġbre": 1047,
      "ts": 1048,
      "ec": 1049,
      "ling": 1050,
      "li": 1051,
      "Ġbus": 1052,
      "ĠWh": 1053,
      "Ġwom": 1054,
      "Ġleft": 1055,
      "ins": 1056,
      "Ġmon": 1057,
      "Ġmag": 1058,
      "Ġsix": 1059,
      "Ġrun": 1060,
      "ister": 1061,
      "Ġfam": 1062,
      "Ġdr": 1063,
      "Ġele": 1064,
      "ros": 1065,
      "vent": 1066,
      "Ġdog": 1067,
      "orm": 1068,
      "vel": 1069,
      "ational": 1070,
      "Ġcle": 1071,
      "ĠTH": 1072,
      "ounds": 1073,
      "ĠWhy": 1074,
      "AN": 1075,
      "Ġind": 1076,
      "tern": 1077,
      "Ġfun": 1078,
      "Ġreal": 1079,
      "Ġunt": 1080,
      "arly": 1081,
      "Ġfar": 1082,
      "ĠUnited": 1083,
      "Ġremember": 1084,
      "Ġuse": 1085,
      "oun": 1086,
      "Ġworld": 1087,
      "outh": 1088,
      "Ġstay": 1089,
      "ĠOn": 1090,
      "Ġmoney": 1091,
      "aught": 1092,
      "ĠAr": 1093,
      "cle": 1094,
      "ished": 1095,
      "ĠAt": 1096,
      "Ġhard": 1097,
      "Ġnothing": 1098,
      "Ġnumber": 1099,
      "ndred": 1100,
      "ye": 1101,
      "Ġplease": 1102,
      "Ġdiffe": 1103,
      "ries": 1104,
      "ĠCha": 1105,
      "Ġblack": 1106,
      "Ġwar": 1107,
      "Ġwee": 1108,
      "the": 1109,
      "Ġwatch": 1110,
      "ness": 1111,
      "ĠâĢĵ": 1112,
      "ower": 1113,
      "ï¿½ï¿½": 1114,
      "Ġhundred": 1115,
      "Ġstick": 1116,
      "ĠKing": 1117,
      "Ġbelie": 1118,
      "Ġmar": 1119,
      "ĠNow": 1120,
      "ĠDon": 1121,
      "Ġgi": 1122,
      "Ġsit": 1123,
      "Ġacc": 1124,
      "Ġob": 1125,
      "usic": 1126,
      "ellow": 1127,
      "ĠDe": 1128,
      "ope": 1129,
      "erson": 1130,
      "pect": 1131,
      "ES": 1132,
      "ĠNew": 1133,
      "ph": 1134,
      "Ġret": 1135,
      "anc": 1136,
      "Ġgre": 1137,
      "ger": 1138,
      "oon": 1139,
      "Ġhold": 1140,
      "leep": 1141,
      "ween": 1142,
      "gether": 1143,
      "ret": 1144,
      "Ġtogether": 1145,
      "Ġac": 1146,
      "Ġhappened": 1147,
      "Ġknown": 1148,
      "ĠOkay": 1149,
      "Ġenough": 1150,
      "ets": 1151,
      "ĠMy": 1152,
      "Ġcourse": 1153,
      "ĠWhen": 1154,
      "Ġsays": 1155,
      "Ġyoung": 1156,
      "Ġgra": 1157,
      "Ġuntil": 1158,
      "Ġcol": 1159,
      "Ġdat": 1160,
      "ial": 1161,
      "ĠFran": 1162,
      "orning": 1163,
      "ĠEng": 1164,
      "Ġbad": 1165,
      "Ġbest": 1166,
      "ĠMiss": 1167,
      "ĠMrs": 1168,
      "io": 1169,
      "Ġdied": 1170,
      "Ġsecond": 1171,
      "Ġwalk": 1172,
      "Ġupon": 1173,
      "ased": 1174,
      "Ġhear": 1175,
      "LD": 1176,
      "gr": 1177,
      "Ġisn": 1178,
      "The": 1179,
      "CO": 1180,
      "rist": 1181,
      "Ġeyes": 1182,
      "Ġpick": 1183,
      ")Ċ": 1184,
      "ton": 1185,
      "Ġstand": 1186,
      "Ġsur": 1187,
      "Ġbetween": 1188,
      "Ġ_": 1189,
      "Ġdoor": 1190,
      "Ġthough": 1191,
      "fta": 1192,
      "Ġasked": 1193,
      "Ġmat": 1194,
      "oud": 1195,
      "ĠFor": 1196,
      "Ġsilver": 1197,
      "ĠAmerican": 1198,
      "Ġsorry": 1199,
      "Ġhafta": 1200,
      "ĠCan": 1201,
      "Ġfall": 1202,
      "oup": 1203,
      "Ġquite": 1204,
      "Ġalright": 1205,
      "eak": 1206,
      "Ġhimself": 1207,
      "mb": 1208,
      "Ġball": 1209,
      "ta": 1210,
      "Ġchildren": 1211,
      "ible": 1212,
      "ib": 1213,
      "Ġbed": 1214,
      "Ġpoint": 1215,
      "az": 1216,
      "Ġbit": 1217,
      "ubl": 1218,
      "oice": 1219,
      "ĠThen": 1220,
      "Ġmorning": 1221,
      "Ġlist": 1222,
      "uff": 1223,
      "Ġchar": 1224,
      "Ġside": 1225,
      "Ġlight": 1226,
      "aut": 1227,
      "ĠAd": 1228,
      "ject": 1229,
      "ures": 1230,
      "EL": 1231,
      "uring": 1232,
      "Ġrel": 1233,
      "ale": 1234,
      "ired": 1235,
      "ĠThan": 1236,
      "ohn": 1237,
      "Ġsmall": 1238,
      "Ġkill": 1239,
      "Ġcoming": 1240,
      "Ġonce": 1241,
      "Ġhm": 1242,
      "Ġmil": 1243,
      "Ġdist": 1244,
      "Ġpass": 1245,
      "Ġhur": 1246,
      "ĠZ": 1247,
      "Ġboth": 1248,
      "ents": 1249,
      "Ġwanted": 1250,
      "ollow": 1251,
      "enc": 1252,
      "ĠJan": 1253,
      "Ġface": 1254,
      "ĠNot": 1255,
      "Ġborn": 1256,
      "Ġseen": 1257,
      "addy": 1258,
      "Ġagainst": 1259,
      "Ġwithout": 1260,
      "Ġleave": 1261,
      "Ġfew": 1262,
      "Ġhigh": 1263,
      "Ġknew": 1264,
      "ĠRe": 1265,
      "ched": 1266,
      "vie": 1267,
      "Ġmind": 1268,
      "une": 1269,
      "ged": 1270,
      "Ġtoday": 1271,
      "ross": 1272,
      "ĠStates": 1273,
      "ĠHey": 1274,
      "ters": 1275,
      "Ġpretty": 1276,
      "Ġlooking": 1277,
      "Ġheard": 1278,
      "ĠJust": 1279,
      "ork": 1280,
      "ĠCl": 1281,
      "Ġent": 1282,
      "iet": 1283,
      "Ġstory": 1284,
      "Ġred": 1285,
      "Ġtop": 1286,
      "Ġdifferent": 1287,
      "Ġbase": 1288,
      "Ġeach": 1289,
      "ank": 1290,
      "Ġheart": 1291,
      "ĠAf": 1292,
      "Ġthank": 1293,
      "ING": 1294,
      "ered": 1295,
      "Ġbro": 1296,
      "Ġter": 1297,
      "oint": 1298,
      "Ġreg": 1299,
      "ctor": 1300,
      "Ġhung": 1301,
      "Ġstud": 1302,
      "),": 1303,
      "ning": 1304,
      "ĠEd": 1305,
      "ics": 1306,
      "Ġcons": 1307,
      "Ġeight": 1308,
      "raw": 1309,
      "enty": 1310,
      "ĠJohn": 1311,
      "ffe": 1312,
      "Ġstr": 1313,
      "ĠMay": 1314,
      "Ġeverything": 1315,
      "most": 1316,
      "aper": 1317,
      "Ġmet": 1318,
      "ier": 1319,
      "cha": 1320,
      "Ġshall": 1321,
      "ener": 1322,
      "Ġdec": 1323,
      "Ġhat": 1324,
      "orth": 1325,
      "Ġgetting": 1326,
      "Ġyet": 1327,
      "Ġlater": 1328,
      "Ġtable": 1329,
      "ĠSp": 1330,
      "Ġsong": 1331,
      "Ġwhole": 1332,
      "Ġlooked": 1333,
      "âĢĻs": 1334,
      "Ġkid": 1335,
      "Ġrest": 1336,
      "Ġdri": 1337,
      "ĠInd": 1338,
      "ĠGod": 1339,
      "cial": 1340,
      "Ġtalking": 1341,
      "Ġfr": 1342,
      "ĠLet": 1343,
      "ason": 1344,
      "Ġhands": 1345,
      "-s": 1346,
      "Ġgave": 1347,
      "Ġperson": 1348,
      "ĠEr": 1349,
      "ĠChrist": 1350,
      "Ġsleep": 1351,
      "rib": 1352,
      "Ġsoon": 1353,
      "Ġwasn": 1354,
      "Ġate": 1355,
      "ĠRoss": 1356,
      "Ġinv": 1357,
      "less": 1358,
      "ife": 1359,
      "Ġsk": 1360,
      "stand": 1361,
      "Ġwrite": 1362,
      "Ġmagn": 1363,
      "Ġfollow": 1364,
      "Ġfood": 1365,
      "Ġcity": 1366,
      "Ġair": 1367,
      "Ġdoll": 1368,
      "ames": 1369,
      "Ġcat": 1370,
      "Ġmaybe": 1371,
      "uss": 1372,
      "its": 1373,
      "any": 1374,
      "osed": 1375,
      "Ġsince": 1376,
      "!\"": 1377,
      "Ġfamily": 1378,
      "Ġtown": 1379,
      "?\"": 1380,
      "Ġpict": 1381,
      "ably": 1382,
      "onder": 1383,
      "Ġbeaut": 1384,
      "Ġgoes": 1385,
      "ĠCome": 1386,
      "Ġsent": 1387,
      "Ġca": 1388,
      "hip": 1389,
      "Ġzz": 1390,
      "Ġmove": 1391,
      "Ġdays": 1392,
      "huh": 1393,
      "oor": 1394,
      "Ġhaving": 1395,
      "Ġzzz": 1396,
      "ision": 1397,
      "OU": 1398,
      "ok": 1399,
      "ertain": 1400,
      "me": 1401,
      "Ġfire": 1402,
      "ĠTHE": 1403,
      "Ġans": 1404,
      "Ġwind": 1405,
      "aster": 1406,
      "Ġinst": 1407,
      "Ġhalf": 1408,
      "ined": 1409,
      "Ġbelieve": 1410,
      "Ġerm": 1411,
      "ape": 1412,
      "ating": 1413,
      "âĢĿĊ": 1414,
      "Ġmeet": 1415,
      "der": 1416,
      "Ġround": 1417,
      "Ġsn": 1418,
      "Ġgirls": 1419,
      "vern": 1420,
      "ĠGo": 1421,
      "ĠPr": 1422,
      "ĠSar": 1423,
      "tle": 1424,
      "ounc": 1425,
      "ines": 1426,
      "pped": 1427,
      "Ġgone": 1428,
      "Ġbring": 1429,
      "Ġstarted": 1430,
      "Ġpop": 1431,
      "Ġvoice": 1432,
      "ready": 1433,
      "pr": 1434,
      "iness": 1435,
      "ash": 1436,
      "Ġlive": 1437,
      "ĠSc": 1438,
      "ote": 1439,
      "Ġanim": 1440,
      "Ġquest": 1441,
      "und": 1442,
      "ike": 1443,
      "uth": 1444,
      "Ġaw": 1445,
      "sel": 1446,
      "Ġdear": 1447,
      "eng": 1448,
      "ball": 1449,
      "den": 1450,
      "Ġready": 1451,
      "rew": 1452,
      "Ġbrother": 1453,
      "Ġdrink": 1454,
      "cept": 1455,
      "ĠPh": 1456,
      "Ġlo": 1457,
      "Ġsaying": 1458,
      "Ġalready": 1459,
      "Ġhungry": 1460,
      "ney": 1461,
      "elt": 1462,
      "orrow": 1463,
      "Ġplan": 1464,
      "Ġson": 1465,
      "Ġfif": 1466,
      "Ġsy": 1467,
      "Ġpiece": 1468,
      "aj": 1469,
      "Ġmaking": 1470,
      "ey": 1471,
      "ither": 1472,
      "Ġdire": 1473,
      "Ġhor": 1474,
      "ully": 1475,
      "ual": 1476,
      "Ġhour": 1477,
      "Ġwrong": 1478,
      "ĠHis": 1479,
      "Ġid": 1480,
      "ised": 1481,
      "Ġcap": 1482,
      "Ġhey": 1483,
      "Ġalmost": 1484,
      "LO": 1485,
      "cted": 1486,
      "ern": 1487,
      "Ġdep": 1488,
      "ex": 1489,
      "ĠCom": 1490,
      "Ġcut": 1491,
      "ĠGer": 1492,
      "ery": 1493,
      "aken": 1494,
      "Ġbuild": 1495,
      "Ġsound": 1496,
      "Ġlaugh": 1497,
      "-b": 1498,
      "aid": 1499,
      "iful": 1500,
      "Ġtrying": 1501,
      "Ġcountry": 1502,
      "lish": 1503,
      "Ġbreak": 1504,
      "ows": 1505,
      "Ġimp": 1506,
      "Ġfoot": 1507,
      "Ġalong": 1508,
      "Ġwonder": 1509,
      "Ġhot": 1510,
      "Ġmiss": 1511,
      "ustr": 1512,
      "Ġexc": 1513,
      "clud": 1514,
      "Ġunderstand": 1515,
      "Ġi": 1516,
      "ivers": 1517,
      "eb": 1518,
      "Ġfriends": 1519,
      "wer": 1520,
      "Ġfight": 1521,
      "ison": 1522,
      "ield": 1523,
      "Ġmeans": 1524,
      "ĠAre": 1525,
      "Ġref": 1526,
      "Ġlar": 1527,
      "/H": 1528,
      "Ġcent": 1529,
      "Ġdisc": 1530,
      "wards": 1531,
      "Ġreturn": 1532,
      "Ġsort": 1533,
      "eth": 1534,
      "ues": 1535,
      "Ġeas": 1536,
      "You": 1537,
      "Ġlooks": 1538,
      "ober": 1539,
      "Ã©": 1540,
      "Ġrep": 1541,
      "aces": 1542,
      "Ġbecame": 1543,
      "Ġsub": 1544,
      "\",": 1545,
      "EN": 1546,
      "ities": 1547,
      "Ġwouldn": 1548,
      "ĠLook": 1549,
      "ining": 1550,
      "COL": 1551,
      "Ġland": 1552,
      "Ġpaper": 1553,
      "Ġwoman": 1554,
      "ten": 1555,
      "ĠTo": 1556,
      "ular": 1557,
      "ĠQ": 1558,
      "app": 1559,
      "Ġactually": 1560,
      "Ġage": 1561,
      "Ġgame": 1562,
      "Ġmoment": 1563,
      "Ġadd": 1564,
      "UN": 1565,
      "ped": 1566,
      "oke": 1567,
      "Ġguess": 1568,
      "ative": 1569,
      "ON": 1570,
      "ĠFl": 1571,
      "Ġbegan": 1572,
      "ax": 1573,
      "erest": 1574,
      "ush": 1575,
      "ury": 1576,
      "Ġtwenty": 1577,
      "Ġri": 1578,
      "olog": 1579,
      "eed": 1580,
      "Ġten": 1581,
      "isit": 1582,
      "aint": 1583,
      "Ġlead": 1584,
      "ĠWho": 1585,
      "Ġfine": 1586,
      "ĠOne": 1587,
      "ĠHer": 1588,
      "Ġspeak": 1589,
      "Ġmm": 1590,
      "Ġyellow": 1591,
      "ĠWill": 1592,
      "Ġguy": 1593,
      "ĠDid": 1594,
      "Ġtre": 1595,
      "to": 1596,
      "Ġhum": 1597,
      "Ġproble": 1598,
      "ĠWhere": 1599,
      "aul": 1600,
      "ants": 1601,
      "Ġwhite": 1602,
      "ital": 1603,
      "Ġdeath": 1604,
      "Ġguys": 1605,
      "br": 1606,
      "Ġbeautiful": 1607,
      "ĠCount": 1608,
      "ĠSarah": 1609,
      "Ġfore": 1610,
      "unt": 1611,
      "Ġfro": 1612,
      "Ġinc": 1613,
      "ony": 1614,
      "Ġidea": 1615,
      "Ġass": 1616,
      "Ġlost": 1617,
      "ster": 1618,
      "Ġnear": 1619,
      "Ġclose": 1620,
      "ene": 1621,
      "Ġparty": 1622,
      "Ġprom": 1623,
      "Ġtri": 1624,
      "Ġstuff": 1625,
      "ple": 1626,
      "Ġinf": 1627,
      "Ġdro": 1628,
      "Ġpresent": 1629,
      "Ġrecord": 1630,
      "Ġturned": 1631,
      "cess": 1632,
      "Ġsign": 1633,
      "ĠThank": 1634,
      "Ġfact": 1635,
      "Ġposs": 1636,
      "Ġhappy": 1637,
      "Ġphone": 1638,
      "bably": 1639,
      "oes": 1640,
      "ole": 1641,
      "Ġtele": 1642,
      "ÃŃ": 1643,
      "Ġcoll": 1644,
      "Ġsun": 1645,
      "Ġbrought": 1646,
      "Ġcertain": 1647,
      "ept": 1648,
      "Ġbox": 1649,
      "Ġplaying": 1650,
      "Ġwords": 1651,
      "Oh": 1652,
      "Ġconf": 1653,
      "ĠMot": 1654,
      "ĠRight": 1655,
      "ages": 1656,
      "ĠAdam": 1657,
      "Ġduring": 1658,
      "Ġlisten": 1659,
      "Ġpubl": 1660,
      "ouch": 1661,
      "Ġinterest": 1662,
      "Ġear": 1663,
      "Ġfull": 1664,
      "Ġcomes": 1665,
      "ĠCar": 1666,
      "Ġtimes": 1667,
      "eter": 1668,
      "ouble": 1669,
      "Ġlear": 1670,
      "Ġplayed": 1671,
      "AI": 1672,
      "Ġuhhuh": 1673,
      "Ġstre": 1674,
      "Ġweek": 1675,
      "Ġpoor": 1676,
      "Ġpolit": 1677,
      "sh": 1678,
      "Ġpay": 1679,
      "Ġblue": 1680,
      "ring": 1681,
      "Ġmonth": 1682,
      "ĠBl": 1683,
      "ense": 1684,
      "son": 1685,
      "urs": 1686,
      "Ġteam": 1687,
      "unch": 1688,
      "Ġsister": 1689,
      "ĠEnglish": 1690,
      "Ġmusic": 1691,
      "Ġrock": 1692,
      "ief": 1693,
      "Ġboys": 1694,
      "Ġmatter": 1695,
      "ution": 1696,
      "Ġbear": 1697,
      "ists": 1698,
      "ared": 1699,
      "Ġegg": 1700,
      "olly": 1701,
      "Ġhope": 1702,
      "Ġjob": 1703,
      "Ġdel": 1704,
      "Ġtaken": 1705,
      "no": 1706,
      "ama": 1707,
      "oe": 1708,
      "Ġmovie": 1709,
      "airs": 1710,
      "wh": 1711,
      "irth": 1712,
      "Ġable": 1713,
      "Ġext": 1714,
      "NA": 1715,
      "Ġwand": 1716,
      "Ġfell": 1717,
      "GLO": 1718,
      "----": 1719,
      "pri": 1720,
      "Ġinclud": 1721,
      "fully": 1722,
      ",âĢĿ": 1723,
      "ying": 1724,
      "Ġwrit": 1725,
      ".âĢĿĊ": 1726,
      "Ġherself": 1727,
      "It": 1728,
      "Ġminute": 1729,
      "ead": 1730,
      "gan": 1731,
      "utes": 1732,
      "ĠGe": 1733,
      "Ġmed": 1734,
      "Ġdress": 1735,
      "ĠSh": 1736,
      "amed": 1737,
      "Ġbeh": 1738,
      "Ġcir": 1739,
      "Ġdead": 1740,
      "Ġfelt": 1741,
      "ĠGood": 1742,
      "Ġgreen": 1743,
      "Ġking": 1744,
      "ned": 1745,
      "Ġwants": 1746,
      "where": 1747,
      "Ġmagnet": 1748,
      "room": 1749,
      "lease": 1750,
      "ĠPer": 1751,
      "ĠPro": 1752,
      "Ġsomeone": 1753,
      "ma": 1754,
      "ese": 1755,
      "Ġmyself": 1756,
      "Ġart": 1757,
      "tain": 1758,
      "Ġgotta": 1759,
      "ik": 1760,
      "Ġprod": 1761,
      "ipp": 1762,
      "MEL": 1763,
      "Ġsat": 1764,
      "key": 1765,
      "Ġlaw": 1766,
      "icha": 1767,
      "by": 1768,
      "Ġleg": 1769,
      "uary": 1770,
      "ze": 1771,
      "Ġinter": 1772,
      "Ġquick": 1773,
      "Ġcouldn": 1774,
      "Ġmakes": 1775,
      "Ġmine": 1776,
      "ided": 1777,
      "Ġletter": 1778,
      "Ġcup": 1779,
      "umb": 1780,
      "ald": 1781,
      "ĠFr": 1782,
      "ats": 1783,
      "âĢĻt": 1784,
      "ming": 1785,
      "Ġbar": 1786,
      "Ġ#": 1787,
      "Ġseemed": 1788,
      "not": 1789,
      "for": 1790,
      "Ġsim": 1791,
      "Ġbird": 1792,
      "Ġcontin": 1793,
      "Ġbra": 1794,
      "Ġsir": 1795,
      "used": 1796,
      "rench": 1797,
      "Ġhair": 1798,
      "Ġago": 1799,
      "idd": 1800,
      "eptember": 1801,
      "ises": 1802,
      "Ġlate": 1803,
      "Ġseven": 1804,
      "ica": 1805,
      "Ġoffic": 1806,
      "Ġchair": 1807,
      "oub": 1808,
      "Ġpounds": 1809,
      "Ġprobably": 1810,
      "itc": 1811,
      "ner": 1812,
      "Ġgener": 1813,
      "ĠAfter": 1814,
      "Ġfront": 1815,
      "ator": 1816,
      "haps": 1817,
      "ĠCounty": 1818,
      "selves": 1819,
      "Ġloc": 1820,
      "ham": 1821,
      "ĠPaul": 1822,
      "Ġmilk": 1823,
      "Ġshort": 1824,
      "Ġbehind": 1825,
      "ific": 1826,
      "bum": 1827,
      "Ġsoft": 1828,
      "Ġrather": 1829,
      ".\"": 1830,
      "Ġfloor": 1831,
      "Ġwood": 1832,
      "rest": 1833,
      "Ġstrong": 1834,
      "gin": 1835,
      "morrow": 1836,
      "\".": 1837,
      "Ġcry": 1838,
      "Ġbusiness": 1839,
      "Ġlived": 1840,
      "Ġgovern": 1841,
      "Ġbirth": 1842,
      "ousand": 1843,
      "ides": 1844,
      "itting": 1845,
      "Ġquestion": 1846,
      "Ġpri": 1847,
      "Ġinside": 1848,
      "ĠBro": 1849,
      "inner": 1850,
      "ĠGerman": 1851,
      "Ġswe": 1852,
      "Ġcolor": 1853,
      "Ġstate": 1854,
      "OR": 1855,
      "ĠSeptember": 1856,
      "ized": 1857,
      "Ġless": 1858,
      "la": 1859,
      "head": 1860,
      "Ġimport": 1861,
      "Ġoutside": 1862,
      "ians": 1863,
      "ize": 1864,
      "Ġwomen": 1865,
      "ati": 1866,
      "Ġcook": 1867,
      "ĠEx": 1868,
      "Ġpull": 1869,
      "Ġlady": 1870,
      "Ġhaven": 1871,
      "ments": 1872,
      "Ġminutes": 1873,
      "een": 1874,
      "ĠFrance": 1875,
      "Ġev": 1876,
      "Ġdeal": 1877,
      "Ġsqu": 1878,
      "ots": 1879,
      "ĠWor": 1880,
      "Ġsal": 1881,
      "ured": 1882,
      "Ġed": 1883,
      "irty": 1884,
      "fect": 1885,
      "nina": 1886,
      "Ġyep": 1887,
      "ĠSome": 1888,
      "ĠYour": 1889,
      "iversity": 1890,
      "ĠPhil": 1891,
      "Ġtrue": 1892,
      "Ġthousand": 1893,
      "ĠAb": 1894,
      "ĠBrit": 1895,
      "ĠLe": 1896,
      "ĠJanuary": 1897,
      "âĢĶ": 1898,
      "Ġcur": 1899,
      "Ġalone": 1900,
      "Ġpicture": 1901,
      "men": 1902,
      "Ġes": 1903,
      "Ġserv": 1904,
      "Ġfrog": 1905,
      "ĠOr": 1906,
      "Ġgrand": 1907,
      "ĠBen": 1908,
      "Ġcase": 1909,
      "ention": 1910,
      "Ġpower": 1911,
      "ford": 1912,
      "read": 1913,
      "atur": 1914,
      "aughter": 1915,
      "uly": 1916,
      "Ġlay": 1917,
      "born": 1918,
      "Ġforg": 1919,
      "ism": 1920,
      "Ġbott": 1921,
      "Ġran": 1922,
      "ĠGu": 1923,
      "ĠPar": 1924,
      "ety": 1925,
      "ĠMan": 1926,
      "Ġlik": 1927,
      "pill": 1928,
      "ley": 1929,
      "ĠDaddy": 1930,
      "Ġalbum": 1931,
      "ugust": 1932,
      "Ġins": 1933,
      "Ġchange": 1934,
      "Ġcreat": 1935,
      "ones": 1936,
      "uts": 1937,
      "Ġtaking": 1938,
      "Ġroad": 1939,
      "Ġpar": 1940,
      "Ġyourself": 1941,
      "Ġhon": 1942,
      "ider": 1943,
      "Ġexpl": 1944,
      "uro": 1945,
      "Ġyup": 1946,
      "ĠDav": 1947,
      "arent": 1948,
      "aterpill": 1949,
      "Ġprot": 1950,
      "els": 1951,
      "Ġfunny": 1952,
      "rian": 1953,
      "CHILD": 1954,
      "ox": 1955,
      "ĠSha": 1956,
      "Ġste": 1957,
      "ĠEl": 1958,
      "range": 1959,
      "Ġfifty": 1960,
      "Ġdark": 1961,
      "Ġgiven": 1962,
      "ĠMarch": 1963,
      "erv": 1964,
      "Ġhurt": 1965,
      "-c": 1966,
      "ane": 1967,
      "arth": 1968,
      "Ġwin": 1969,
      "Ġdream": 1970,
      "Ġmark": 1971,
      "ears": 1972,
      "Ġwish": 1973,
      "ches": 1974,
      "IC": 1975,
      "-t": 1976,
      "Ġoften": 1977,
      "ĠDr": 1978,
      "Ġtrain": 1979,
      "Ġbutter": 1980,
      "Ġbody": 1981,
      "ĠWith": 1982,
      "ĠHar": 1983,
      "Ġtrans": 1984,
      "Ġfeet": 1985,
      "pril": 1986,
      "Ġpu": 1987,
      "ask": 1988,
      "ilt": 1989,
      "Ġarea": 1990,
      "angu": 1991,
      "Ġones": 1992,
      "Ġgod": 1993,
      "ĠYork": 1994,
      "Ġprof": 1995,
      "ĠSw": 1996,
      "ĠYOU": 1997,
      "!\"Ċ": 1998,
      "What": 1999,
      "gy": 2000,
      "mother": 2001,
      "Ġcold": 2002,
      "Ġwife": 2003,
      "iously": 2004,
      "point": 2005,
      "ĠAugust": 2006,
      "Ġquiet": 2007,
      "Ġhist": 2008,
      "Ġform": 2009,
      "GAI": 2010,
      "ices": 2011,
      "ĠFrench": 2012,
      ".cha": 2013,
      "/CHILD": 2014,
      "_NA": 2015,
      "Ġrele": 2016,
      "Ġliving": 2017,
      "ctober": 2018,
      "Ġchildes": 2019,
      "/CHILDES": 2020,
      "Ġem": 2021,
      "AL": 2022,
      "rs": 2023,
      "ĠHere": 2024,
      "ĠMm": 2025,
      "Ġleast": 2026,
      "ĠGr": 2027,
      "ĠCon": 2028,
      "Ġworking": 2029,
      "Ġbuy": 2030,
      "Ġhorse": 2031,
      "Chi": 2032,
      "aterpillar": 2033,
      "Ġfav": 2034,
      "Ġtried": 2035,
      "Ġdraw": 2036,
      "artment": 2037,
      "aur": 2038,
      "but": 2039,
      "Ġz": 2040,
      "Ġdi": 2041,
      "Ġlarge": 2042,
      "-f": 2043,
      "Ġmill": 2044,
      "Ġjump": 2045,
      "ards": 2046,
      "rence": 2047,
      "ĠWorld": 2048,
      "Ġleng": 2049,
      "Ġnamed": 2050,
      "icip": 2051,
      "Ġtree": 2052,
      "Ġgrow": 2053,
      "Ġnews": 2054,
      "Ġanswer": 2055,
      "rap": 2056,
      "Ġfig": 2057,
      "Ġtape": 2058,
      "Ġwear": 2059,
      "ently": 2060,
      ").": 2061,
      "ĠTw": 2062,
      "Ġreason": 2063,
      "ately": 2064,
      "ained": 2065,
      "\".Ċ": 2066,
      "GR": 2067,
      "Ġfair": 2068,
      "ummer": 2069,
      "Ġsometimes": 2070,
      "-d": 2071,
      "ĠApril": 2072,
      "vision": 2073,
      "ĠChar": 2074,
      "Ġeither": 2075,
      "ĠPres": 2076,
      "fort": 2077,
      "Ġpast": 2078,
      "ĠPl": 2079,
      "Ġexpect": 2080,
      "ĠBecause": 2081,
      "bit": 2082,
      "ional": 2083,
      "aim": 2084,
      "ĠPe": 2085,
      "more": 2086,
      "rict": 2087,
      "Ġsea": 2088,
      "Ġtea": 2089,
      "let": 2090,
      "ĠJe": 2091,
      "Ġothers": 2092,
      "Ġâ": 2093,
      "Yes": 2094,
      "ĠOctober": 2095,
      "ĠGeor": 2096,
      "Ġbat": 2097,
      "Ġocc": 2098,
      "Ġclass": 2099,
      "mas": 2100,
      "Ġline": 2101,
      "ĠOf": 2102,
      "Ġmess": 2103,
      "Ġlangu": 2104,
      "Ġblock": 2105,
      "Ġimportant": 2106,
      "Ġlives": 2107,
      "ament": 2108,
      "RE": 2109,
      "com": 2110,
      "rit": 2111,
      "itten": 2112,
      "Ġadv": 2113,
      "Ġjo": 2114,
      "ĠWar": 2115,
      "Ġmember": 2116,
      "Ġkids": 2117,
      "alth": 2118,
      "Ġattack": 2119,
      "Ġtill": 2120,
      "Ġsend": 2121,
      "enn": 2122,
      "Ġpur": 2123,
      "ature": 2124,
      "ĠMe": 2125,
      "ĠEvery": 2126,
      "Ġreport": 2127,
      "Ġanimals": 2128,
      "ĠAm": 2129,
      "ĠTr": 2130,
      "Ġmoon": 2131,
      "ler": 2132,
      "rie": 2133,
      "ĠEuro": 2134,
      "Ġdad": 2135,
      "Ġhi": 2136,
      "Ġrece": 2137,
      "ula": 2138,
      "Ġconc": 2139,
      "Ġsold": 2140,
      "Ļª": 2141,
      "Ġfree": 2142,
      "Ġnine": 2143,
      "ai": 2144,
      "ls": 2145,
      "Ġbecome": 2146,
      "Ġcompany": 2147,
      "Ġtomorrow": 2148,
      "Ġkilled": 2149,
      "ĠBar": 2150,
      "ĠâĻª": 2151,
      "gue": 2152,
      "ĠAN": 2153,
      "ĠPlease": 2154,
      "ĠRep": 2155,
      "Ġglad": 2156,
      "Ġmain": 2157,
      "osp": 2158,
      "ement": 2159,
      "Ġconst": 2160,
      "And": 2161,
      "Ġexp": 2162,
      "Ġteac": 2163,
      "Ġacross": 2164,
      "Ġap": 2165,
      "Ġorder": 2166,
      "raid": 2167,
      "Ġcamp": 2168,
      "Ġstar": 2169,
      "Ġclean": 2170,
      "co": 2171,
      "ality": 2172,
      "ken": 2173,
      "Ġmer": 2174,
      "arch": 2175,
      "Ġtoys": 2176,
      "Ġheld": 2177,
      "Ġamong": 2178,
      "Ġearly": 2179,
      "No": 2180,
      "Ġcried": 2181,
      "Ġice": 2182,
      "Ġvisit": 2183,
      "Ġthinking": 2184,
      "Ġbirthday": 2185,
      "ĠDavid": 2186,
      "Ġmis": 2187,
      "ĠRuss": 2188,
      "Ġworked": 2189,
      "imb": 2190,
      "ara": 2191,
      "Ġstra": 2192,
      "Ġobject": 2193,
      "ffee": 2194,
      "Ġproblem": 2195,
      "ges": 2196,
      "ached": 2197,
      "Ġgets": 2198,
      "AS": 2199,
      "Ġfix": 2200,
      "Ġann": 2201,
      "icks": 2202,
      "Ġwall": 2203,
      "Ġfast": 2204,
      "Ġhit": 2205,
      "Ġreleased": 2206,
      "Ġgroup": 2207,
      "Ġband": 2208,
      "Ġnoise": 2209,
      "Ġeating": 2210,
      "itty": 2211,
      "ĠUniversity": 2212,
      "Ġcheck": 2213,
      "dden": 2214,
      "Ġfly": 2215,
      "aced": 2216,
      "Ġcor": 2217,
      "iddle": 2218,
      "Ġclear": 2219,
      "Ġrepl": 2220,
      "lo": 2221,
      "Ġfing": 2222,
      "Ġsomebody": 2223,
      "Ġhell": 2224,
      "Ġfinished": 2225,
      "ĠMarky": 2226,
      "ened": 2227,
      "Ġill": 2228,
      "Ġah": 2229,
      "Ġ\"Ċ": 2230,
      "Ġopp": 2231,
      "Ġbooks": 2232,
      "-p": 2233,
      "ĠMin": 2234,
      "ĠMother": 2235,
      "stem": 2236,
      "Ġdaddy": 2237,
      "ĠCol": 2238,
      "Ġtrouble": 2239,
      "che": 2240,
      "owed": 2241,
      "ĠItal": 2242,
      "Ġmarried": 2243,
      "Ġafraid": 2244,
      "Ġsingle": 2245,
      "ED": 2246,
      "Ġdem": 2247,
      "Ġton": 2248,
      "iny": 2249,
      "dy": 2250,
      "Ġdra": 2251,
      "Ġsudden": 2252,
      "urch": 2253,
      "Ġcompet": 2254,
      "inning": 2255,
      "cy": 2256,
      "Ġpain": 2257,
      "ĠNe": 2258,
      "ility": 2259,
      "Ġadm": 2260,
      "ait": 2261,
      "entle": 2262,
      "Ġspe": 2263,
      "ived": 2264,
      "Ġcond": 2265,
      "Ġcaterpillar": 2266,
      "Ġloud": 2267,
      "ician": 2268,
      "Ġsever": 2269,
      "ĠTO": 2270,
      "ĠEngland": 2271,
      "Ġya": 2272,
      "Ġnin": 2273,
      "illy": 2274,
      "Ġcorn": 2275,
      "Ġpos": 2276,
      "ically": 2277,
      "AUN": 2278,
      "music": 2279,
      "Ġfish": 2280,
      "fic": 2281,
      "Ġcoffee": 2282,
      "Ġforget": 2283,
      "cient": 2284,
      "Ġchance": 2285,
      "Ġtoy": 2286,
      "ering": 2287,
      "Ġresp": 2288,
      "ĠâĢĺ": 2289,
      "Ġdaughter": 2290,
      "then": 2291,
      "Ġkept": 2292,
      "Ġsweet": 2293,
      "Ġvill": 2294,
      "Ġeng": 2295,
      "ĠChristmas": 2296,
      "Ġpublic": 2297,
      "Ġbag": 2298,
      "Ġeye": 2299,
      "raz": 2300,
      "Ġgovernment": 2301,
      "We": 2302,
      "rand": 2303,
      "ana": 2304,
      "Ġsca": 2305,
      "Ġhoney": 2306,
      "Ġseveral": 2307,
      "phan": 2308,
      "ued": 2309,
      "Ġhors": 2310,
      "ising": 2311,
      "Ġsurpr": 2312,
      "ĠMary": 2313,
      "ĠBritish": 2314,
      "Ġthemselves": 2315,
      "itchen": 2316,
      "eared": 2317,
      "oman": 2318,
      "Ġprov": 2319,
      "iam": 2320,
      "anger": 2321,
      "band": 2322,
      "Ġstore": 2323,
      "Ġgold": 2324,
      "Ġow": 2325,
      "Ġmur": 2326,
      "ĠWas": 2327,
      "Ġwindow": 2328,
      "ays": 2329,
      "ains": 2330,
      "Ġmonths": 2331,
      "Ġdinner": 2332,
      "owers": 2333,
      "ĠThese": 2334,
      "ode": 2335,
      "laughing": 2336,
      "ories": 2337,
      "ĠSir": 2338,
      "Ġwithin": 2339,
      "Ġground": 2340,
      "Ġtouch": 2341,
      "But": 2342,
      "Ġnational": 2343,
      "Ġevent": 2344,
      "Ġmouth": 2345,
      "idge": 2346,
      "ĠJuly": 2347,
      "ĠEurope": 2348,
      "ĠSe": 2349,
      "Ġkitchen": 2350,
      "Ġmommy": 2351,
      "ajor": 2352,
      "Ġwhis": 2353,
      "ello": 2354,
      "velop": 2355,
      "Ġgoin": 2356,
      "Ġeasy": 2357,
      "Ġaren": 2358,
      "]?Ċ": 2359,
      "ted": 2360,
      "Ġbath": 2361,
      "ĠTom": 2362,
      "Ġstood": 2363,
      "ĠComm": 2364,
      "SL": 2365,
      "Ġmot": 2366,
      "ĠPresident": 2367,
      "'Ċ": 2368,
      "Ġfil": 2369,
      "Ġknows": 2370,
      "Ġrunning": 2371,
      "ĠCity": 2372,
      "overed": 2373,
      "Ġpot": 2374,
      "Ġhop": 2375,
      "iding": 2376,
      "âĢĵ": 2377,
      "Ġclot": 2378,
      "rey": 2379,
      "Ġgun": 2380,
      "ĠAh": 2381,
      "irt": 2382,
      "iron": 2383,
      "ovember": 2384,
      "Ġwhether": 2385,
      ",--": 2386,
      "bo": 2387,
      "gram": 2388,
      "ĠDad": 2389,
      "Ġeverybody": 2390,
      "Ġsitting": 2391,
      "you": 2392,
      "Ġorgan": 2393,
      "Ġperhaps": 2394,
      "actly": 2395,
      "Ġarm": 2396,
      "ruary": 2397,
      "ebruary": 2398,
      "asure": 2399,
      "cember": 2400,
      "Ġstru": 2401,
      "ov": 2402,
      "Ġabove": 2403,
      "ET": 2404,
      "Ġdoctor": 2405,
      "points": 2406,
      "nes": 2407,
      "Ġtem": 2408,
      "Ġfa": 2409,
      "ude": 2410,
      "ĠJack": 2411,
      "ĠUh": 2412,
      "yl": 2413,
      "Ġcake": 2414,
      "Ġcross": 2415,
      "ĠTe": 2416,
      "bs": 2417,
      "iver": 2418,
      "ĠCap": 2419,
      "Ġexper": 2420,
      "Ġdef": 2421,
      "Ġblood": 2422,
      "ccess": 2423,
      ").Ċ": 2424,
      "Ġmist": 2425,
      "urg": 2426,
      "lly": 2427,
      "ĠBy": 2428,
      "Ġslow": 2429,
      "Ġtreat": 2430,
      "ĠPart": 2431,
      "Ġseries": 2432,
      "teen": 2433,
      "Ġsounds": 2434,
      "Ġhang": 2435,
      "oof": 2436,
      "'S": 2437,
      "ĠDor": 2438,
      "Ġyours": 2439,
      "Ġcomple": 2440,
      "ĠCal": 2441,
      "Ġseems": 2442,
      "Ġwrote": 2443,
      "ĠIN": 2444,
      "Ġspecial": 2445,
      "Ġlonger": 2446,
      "Ġtonight": 2447,
      "'.Ċ": 2448,
      "sing": 2449,
      "ĠX": 2450,
      "Ġty": 2451,
      "-w": 2452,
      "Ġsystem": 2453,
      "Ġgentle": 2454,
      "Ġpage": 2455,
      "ĠSis": 2456,
      "Ġhuman": 2457,
      "Ġroll": 2458,
      "gar": 2459,
      "Ġest": 2460,
      "ium": 2461,
      "ĠGet": 2462,
      "ĠEm": 2463,
      "Ġfootball": 2464,
      "/HV": 2465,
      "/HSL": 2466,
      "/HSLLD": 2467,
      "Ġoffice": 2468,
      "Ġwhose": 2469,
      "mpions": 2470,
      "Ġhours": 2471,
      "astic": 2472,
      "Ġinstead": 2473,
      "Ġthird": 2474,
      "ĠChe": 2475,
      "Ġtelling": 2476,
      "ounced": 2477,
      "Ġring": 2478,
      "Ġhowever": 2479,
      "ushed": 2480,
      "Ġdoub": 2481,
      "ĠNational": 2482,
      "Ġthrow": 2483,
      "Ġprofess": 2484,
      "ĠAg": 2485,
      "Ġstep": 2486,
      "Ġboat": 2487,
      "Ġstreet": 2488,
      "que": 2489,
      "ager": 2490,
      "ĠNovember": 2491,
      "essie": 2492,
      "Ġtelevision": 2493,
      "ract": 2494,
      "Ġmeant": 2495,
      "unk": 2496,
      "Ġride": 2497,
      "Ġmod": 2498,
      "ĠJune": 2499,
      "Well": 2500,
      "Ġheav": 2501,
      "ĠFebruary": 2502,
      "Ġevening": 2503,
      "de": 2504,
      "dom": 2505,
      "Ġahead": 2506,
      "uthor": 2507,
      "unity": 2508,
      "Ġcand": 2509,
      "Ġanymore": 2510,
      "ĠHave": 2511,
      "Ġpartic": 2512,
      "mbers": 2513,
      "ondon": 2514,
      "Ġbuilt": 2515,
      "Ġappro": 2516,
      "ric": 2517,
      "Ġthirty": 2518,
      "ĠGreat": 2519,
      "usband": 2520,
      "Ġperfect": 2521,
      "Ġlad": 2522,
      "Ġhar": 2523,
      "Ġcarry": 2524,
      "ging": 2525,
      "joy": 2526,
      "rat": 2527,
      "itch": 2528,
      "ĠSant": 2529,
      "Ġwhatever": 2530,
      "Ġknock": 2531,
      "Ġsafe": 2532,
      "ĠDecember": 2533,
      "ouncil": 2534,
      "Ġwhom": 2535,
      "phone": 2536,
      "ĠFrom": 2537,
      "Ġpresident": 2538,
      "ored": 2539,
      "Ġanyone": 2540,
      "Ġbuilding": 2541,
      "Ġmillion": 2542,
      "ĠGeorge": 2543,
      "con": 2544,
      "ĠSouth": 2545,
      "Ġsupport": 2546,
      "TER": 2547,
      "ĠLondon": 2548,
      "ĠMaybe": 2549,
      "ĠSu": 2550,
      "ced": 2551,
      "Ġtruck": 2552,
      "Ġprison": 2553,
      "sc": 2554,
      "Ġmoved": 2555,
      "Ġwritten": 2556,
      "Ġcoup": 2557,
      "Ġstanding": 2558,
      "Ġpassed": 2559,
      "ror": 2560,
      "Ġclos": 2561,
      "Ġtired": 2562,
      "amb": 2563,
      "rigin": 2564,
      "Ġglass": 2565,
      "Ġsave": 2566,
      "ĠEve": 2567,
      "Ġweeks": 2568,
      "ron": 2569,
      "ï¿½ï¿½ï¿½ï¿½": 2570,
      "Ġpark": 2571,
      "Ġdefe": 2572,
      "ww": 2573,
      "ĠMa": 2574,
      "ĠHouse": 2575,
      "Ġnoises": 2576,
      "llustr": 2577,
      "Ġcontro": 2578,
      "Ġcool": 2579,
      "come": 2580,
      "ĠEdna": 2581,
      "Ġcirc": 2582,
      "Ġhistory": 2583,
      "Ġmount": 2584,
      "Ġcharac": 2585,
      "ĠAny": 2586,
      "Ġabs": 2587,
      "Ġswim": 2588,
      "Ġfit": 2589,
      "Ġtakes": 2590,
      "Ġru": 2591,
      "Ġwaiting": 2592,
      "terday": 2593,
      "Ġsand": 2594,
      "Ġdeep": 2595,
      "Ġfle": 2596,
      "ange": 2597,
      "Ġsick": 2598,
      "ping": 2599,
      "Ġhusband": 2600,
      "Ġlengthen": 2601,
      "Ġbow": 2602,
      "Ġtrees": 2603,
      "Ġlow": 2604,
      "ĠSec": 2605,
      "hold": 2606,
      "ressed": 2607,
      "Ġcop": 2608,
      "Ġlunch": 2609,
      "Ġdiv": 2610,
      "Ġdanger": 2611,
      "hin": 2612,
      "ilver": 2613,
      "unicip": 2614,
      "Ġwarm": 2615,
      "Ġbroke": 2616,
      "Ġbreat": 2617,
      "Ġcost": 2618,
      "ĠSee": 2619,
      "Ġteacher": 2620,
      "ĠNorth": 2621,
      "Ġcause": 2622,
      "Ġstraight": 2623,
      "Ġcast": 2624,
      "Ġparent": 2625,
      "iled": 2626,
      "Ġpossible": 2627,
      "emy": 2628,
      "Ġve": 2629,
      "Ġtest": 2630,
      "Ġdevelop": 2631,
      "Ġpretend": 2632,
      "ency": 2633,
      "Ġfinish": 2634,
      "eal": 2635,
      "ground": 2636,
      "Ġfear": 2637,
      "estern": 2638,
      "Ġsecret": 2639,
      "Ġsuppose": 2640,
      "IT": 2641,
      "ral": 2642,
      "Ġformer": 2643,
      "ĠUrs": 2644,
      "Ġspell": 2645,
      "Ġcertainly": 2646,
      "iter": 2647,
      "ĠCH": 2648,
      "ternational": 2649,
      "ĠSund": 2650,
      "Ġda": 2651,
      "idence": 2652,
      "resent": 2653,
      "Ġwriting": 2654,
      "-l": 2655,
      "Ġpen": 2656,
      "stairs": 2657,
      "Ġspace": 2658,
      "Ġpuzz": 2659,
      "mo": 2660,
      "reed": 2661,
      "uced": 2662,
      "fly": 2663,
      "Ġfur": 2664,
      "ĠDan": 2665,
      "Ġindeed": 2666,
      "Ġreturned": 2667,
      "AY": 2668,
      "Ġmembers": 2669,
      "Ġju": 2670,
      "Ġplaces": 2671,
      ",'": 2672,
      "uct": 2673,
      "Ġcannot": 2674,
      "Ġdisapp": 2675,
      "Ġyesterday": 2676,
      "Ġelephan": 2677,
      "Ġcaught": 2678,
      "att": 2679,
      "Ġseem": 2680,
      "Ġfeeling": 2681,
      "Ġsnow": 2682,
      "fer": 2683,
      "par": 2684,
      "Ġriver": 2685,
      "ospital": 2686,
      "Ġpost": 2687,
      "Ġclothes": 2688,
      "Ġeveryone": 2689,
      "Ġluck": 2690,
      "Ġsuccess": 2691,
      "kes": 2692,
      "ĠLord": 2693,
      "Ġarri": 2694,
      "Ġexactly": 2695,
      "Ġcars": 2696,
      "Ġlengthened": 2697,
      "Ġfellow": 2698,
      "ĠLike": 2699,
      "ulation": 2700,
      "ĠThanks": 2701,
      "ĠWilliam": 2702,
      "OM": 2703,
      "oose": 2704,
      "Ġord": 2705,
      "Ġpolice": 2706,
      "Ġvar": 2707,
      "hern": 2708,
      "Ġoper": 2709,
      "Ġkiss": 2710,
      "Ġworks": 2711,
      "Ġsupposed": 2712,
      "Ġprotect": 2713,
      "oul": 2714,
      "Ġenjoy": 2715,
      "ior": 2716,
      "Ġmiddle": 2717,
      "iday": 2718,
      "LE": 2719,
      "Ġstri": 2720,
      "ĠKe": 2721,
      "Ġusually": 2722,
      "Ġarms": 2723,
      "though": 2724,
      "Ġspec": 2725,
      "Ġdrive": 2726,
      "ĠIndian": 2727,
      "over": 2728,
      "Ġbes": 2729,
      "Ġdet": 2730,
      "arden": 2731,
      "Ġcouple": 2732,
      "Ġdecided": 2733,
      "Ã¡": 2734,
      "rop": 2735,
      "Ġprogram": 2736,
      "Ġdiffic": 2737,
      "Ġtruth": 2738,
      "Ġcal": 2739,
      "Ġdere": 2740,
      "Ġvict": 2741,
      "Ġval": 2742,
      "ĠLea": 2743,
      "ĠHello": 2744,
      "noon": 2745,
      "ĠEX": 2746,
      "Ġpieces": 2747,
      "encil": 2748,
      "ĠMer": 2749,
      "igg": 2750,
      "empt": 2751,
      "Ġclub": 2752,
      "Ġchanged": 2753,
      "Ġbroken": 2754,
      "llustration": 2755,
      "Ġdest": 2756,
      "Ġlanguage": 2757,
      "Ġpictures": 2758,
      "Ġorigin": 2759,
      "-m": 2760,
      "ĠBo": 2761,
      "Ġbright": 2762,
      "Ġcream": 2763,
      "ID": 2764,
      "ĠAld": 2765,
      "Ġsell": 2766,
      "ĠOK": 2767,
      "Ġcheese": 2768,
      "Illustration": 2769,
      "rible": 2770,
      "Ġmunicip": 2771,
      "Ġdistrict": 2772,
      "ology": 2773,
      "That": 2774,
      "ĠEle": 2775,
      "Ġsuper": 2776,
      "Ġwild": 2777,
      "uri": 2778,
      "Ġang": 2779,
      "Ġfollowing": 2780,
      "Ġpencil": 2781,
      "aser": 2782,
      "ĠAND": 2783,
      "Ġsouth": 2784,
      "Ġworry": 2785,
      "Ġafternoon": 2786,
      "Ġpolitician": 2787,
      "ichard": 2788,
      "Ġputting": 2789,
      "Ġcareful": 2790,
      "Ġanyway": 2791,
      "icy": 2792,
      "ĠWest": 2793,
      "hire": 2794,
      "II": 2795,
      "ĠSm": 2796,
      "ĠHi": 2797,
      "lin": 2798,
      "Ġgeneral": 2799,
      "He": 2800,
      "Ġsoftly": 2801,
      "Ġï¿½": 2802,
      "ĠWal": 2803,
      "Ġlaughing": 2804,
      "US": 2805,
      "Ġforward": 2806,
      "ĠPeter": 2807,
      "Ġuncle": 2808,
      "Ġcommon": 2809,
      "Ġhole": 2810,
      "ĠBessie": 2811,
      "Ġnorth": 2812,
      "Ġleaf": 2813,
      "Ġvillage": 2814,
      "ourn": 2815,
      "Ġanybody": 2816,
      "Ġchick": 2817,
      "Ġapple": 2818,
      "Ġvide": 2819,
      "Ġlevel": 2820,
      "Ġcomplete": 2821,
      "Ġbur": 2822,
      "Ġlearn": 2823,
      "Ġself": 2824,
      "Ġfavor": 2825,
      "Ġain": 2826,
      "ĠHen": 2827,
      "Ġdoubt": 2828,
      "iger": 2829,
      "ĠParty": 2830,
      "Ġarmy": 2831,
      "wered": 2832,
      "Ġserved": 2833,
      "Ġliked": 2834,
      "ĠSunday": 2835,
      "Ġrul": 2836,
      "Ġimag": 2837,
      "Ġdepartment": 2838,
      "ris": 2839,
      "ĠRichard": 2840,
      "Ġneeds": 2841,
      "Ġtur": 2842,
      "Ġpoints": 2843,
      "ĠPol": 2844,
      "Ġpract": 2845,
      "ighb": 2846,
      "night": 2847,
      "Ġequ": 2848,
      "Ġearth": 2849,
      "Ġsus": 2850,
      "amer": 2851,
      "ĠGl": 2852,
      "ffic": 2853,
      "-g": 2854,
      "Ġstopped": 2855,
      "Ġfigure": 2856,
      "LL": 2857,
      "that": 2858,
      "uce": 2859,
      "omb": 2860,
      "nce": 2861,
      "ĠCanad": 2862,
      "Ġfail": 2863,
      "ĠQue": 2864,
      "AP": 2865,
      "Ġcatch": 2866,
      "Ġhast": 2867,
      "yn": 2868,
      "Ġhappens": 2869,
      "Ġcareer": 2870,
      "Ġnose": 2871,
      "Ġesc": 2872,
      "ĠOF": 2873,
      "Ġopened": 2874,
      "Ġanswered": 2875,
      "Ġfield": 2876,
      "Ġstrange": 2877,
      "Ġmatch": 2878,
      "ended": 2879,
      "Ġwww": 2880,
      "Ġhello": 2881,
      "silver": 2882,
      "Ġcre": 2883,
      "aged": 2884,
      "ĠAnge": 2885,
      "Ġhorses": 2886,
      "lex": 2887,
      "ĠGermany": 2888,
      "Ġfill": 2889,
      "ĠSorry": 2890,
      "Ġeighty": 2891,
      "othy": 2892,
      "ĠTed": 2893,
      "Ġforty": 2894,
      "ording": 2895,
      "nel": 2896,
      "Ġauthor": 2897,
      "Ġproper": 2898,
      "Ġgiving": 2899,
      "Ġdie": 2900,
      "Ġquickly": 2901,
      "olved": 2902,
      "Ġhig": 2903,
      "hile": 2904,
      "Ġworth": 2905,
      "ample": 2906,
      "lt": 2907,
      "Ġtowards": 2908,
      "Ġbelong": 2909,
      "bb": 2910,
      "uke": 2911,
      "Ġsummer": 2912,
      "rod": 2913,
      "ege": 2914,
      "acy": 2915,
      "ĠBaby": 2916,
      "Ġav": 2917,
      "Ġprop": 2918,
      "Ġusing": 2919,
      "reen": 2920,
      "Ġled": 2921,
      "Ġdev": 2922,
      "ustral": 2923,
      "fast": 2924,
      "ding": 2925,
      "ceed": 2926,
      "Ġprin": 2927,
      "Ġgrew": 2928,
      "ĠÃ": 2929,
      "Ġholding": 2930,
      "Ġshoot": 2931,
      "Ġtrust": 2932,
      "Ġdesign": 2933,
      "Ġshot": 2934,
      "Ġreceived": 2935,
      "Ġheavy": 2936,
      "ination": 2937,
      "Ġmeeting": 2938,
      "Ġtast": 2939,
      "iew": 2940,
      "iced": 2941,
      "Ġexcept": 2942,
      "iers": 2943,
      "cell": 2944,
      "Ġparents": 2945,
      "Ġtot": 2946,
      "Ġbeat": 2947,
      "Ġseat": 2948,
      "iling": 2949,
      "MA": 2950,
      "Ġpat": 2951,
      "Ġlose": 2952,
      "ums": 2953,
      "Ġcover": 2954,
      "GH": 2955,
      "Ġship": 2956,
      "ino": 2957,
      "Ġpack": 2958,
      "Ġlau": 2959,
      "ĠAustral": 2960,
      "Ġforgot": 2961,
      "âĢĺ": 2962,
      "Ġburn": 2963,
      "Ġemp": 2964,
      "lands": 2965,
      "ĠSanta": 2966,
      "view": 2967,
      "ĠJeff": 2968,
      "inos": 2969,
      "oura": 2970,
      "ggest": 2971,
      "what": 2972,
      "ops": 2973,
      "olute": 2974,
      "ogn": 2975,
      "uture": 2976,
      "cially": 2977,
      "Ġrequ": 2978,
      "ĠNor": 2979,
      "order": 2980,
      "ichael": 2981,
      "Ġjuice": 2982,
      "Ġneighb": 2983,
      "Ġrad": 2984,
      "olution": 2985,
      "apan": 2986,
      "Ġcow": 2987,
      "Ġlab": 2988,
      "ille": 2989,
      "ffect": 2990,
      "-h": 2991,
      "ips": 2992,
      "Ġmaster": 2993,
      "Ġhospital": 2994,
      "ĠNina": 2995,
      "now": 2996,
      "Ġstation": 2997,
      "Ġrain": 2998,
      "Ġreading": 2999,
      "Ġreached": 3000,
      "Ġsuggest": 3001,
      "Ġnobody": 3002,
      "cer": 3003,
      "cher": 3004,
      "GRA": 3005,
      "ĠCent": 3006,
      "ĠDorothy": 3007,
      "CH": 3008,
      "ills": 3009,
      "ified": 3010,
      "ĠâĢľâĢĺ": 3011,
      "Ġwonderful": 3012,
      "Ġposition": 3013,
      "ius": 3014,
      "ira": 3015,
      "Ġsevent": 3016,
      "Ġpress": 3017,
      "ĠErm": 3018,
      "gest": 3019,
      "ĠIT": 3020,
      "Ġspir": 3021,
      "ances": 3022,
      "Ġquar": 3023,
      "Ġflowers": 3024,
      "Ġla": 3025,
      "Ġsol": 3026,
      "Ġconsider": 3027,
      "iol": 3028,
      "ases": 3029,
      "Ġexcl": 3030,
      "ĠAfr": 3031,
      "Ġtit": 3032,
      "Ġsuddenly": 3033,
      "Ġsight": 3034,
      "ĠSy": 3035,
      "Ġfort": 3036,
      "Ġshoes": 3037,
      "Ġletters": 3038,
      "ĠTwo": 3039,
      "Ġdanc": 3040,
      "ĠMc": 3041,
      "Ġstarts": 3042,
      "Ġinform": 3043,
      "AM": 3044,
      "ti": 3045,
      "Ġmad": 3046,
      "Ġthou": 3047,
      "ĠRea": 3048,
      "ander": 3049,
      "Ġplate": 3050,
      "ization": 3051,
      "OW": 3052,
      "Ġnor": 3053,
      "ĠBear": 3054,
      "Ġsense": 3055,
      "ĠNet": 3056,
      "ctions": 3057,
      "Ġloved": 3058,
      "Ġban": 3059,
      "ROG": 3060,
      "Ġforest": 3061,
      "Ġscared": 3062,
      "viously": 3063,
      "Ġseason": 3064,
      "Ġneck": 3065,
      "Ġfollowed": 3066,
      "itz": 3067,
      "ĠPark": 3068,
      "ĠEven": 3069,
      "ĠJo": 3070,
      "Ġsugar": 3071,
      "Ġsupper": 3072,
      "Ġce": 3073,
      "field": 3074,
      "Ġtail": 3075,
      "ĠCo": 3076,
      "Ġdogg": 3077,
      "Ġcommune": 3078,
      "Ġeduc": 3079,
      "Ġtap": 3080,
      "Ġhol": 3081,
      "Ġhous": 3082,
      "bl": 3083,
      "Ġbread": 3084,
      "por": 3085,
      "yer": 3086,
      "ĠJane": 3087,
      "aimed": 3088,
      "ĠPeople": 3089,
      "cent": 3090,
      "ograp": 3091,
      "-C": 3092,
      "EX": 3093,
      "Ġsad": 3094,
      "ĠMichael": 3095,
      "ocol": 3096,
      "ĠTell": 3097,
      "Ġbrown": 3098,
      "mon": 3099,
      "ĠList": 3100,
      "Ġgarden": 3101,
      "Ġcircle": 3102,
      "riage": 3103,
      "ishing": 3104,
      "Ġdance": 3105,
      "Ġeffect": 3106,
      "ĠLou": 3107,
      "ĠJapan": 3108,
      "Ġlovely": 3109,
      "ĠCaptain": 3110,
      "ences": 3111,
      "..Ċ": 3112,
      "Ġwat": 3113,
      "lymp": 3114,
      "ĠWait": 3115,
      "Ġactiv": 3116,
      "how": 3117,
      "well": 3118,
      "ĠAust": 3119,
      "rill": 3120,
      "Ġbusy": 3121,
      "ience": 3122,
      "Ġbeginning": 3123,
      "Ġaccept": 3124,
      "ĠTur": 3125,
      "iff": 3126,
      "Ġcharacter": 3127,
      "Ġpriv": 3128,
      "RIC": 3129,
      "VE": 3130,
      "Ġiss": 3131,
      "Ġstat": 3132,
      "ĠOlymp": 3133,
      "vin": 3134,
      "ĠTake": 3135,
      "Ġservice": 3136,
      "ives": 3137,
      "pers": 3138,
      "ĠChan": 3139,
      "Ġcalling": 3140,
      "Ġmoving": 3141,
      "Ġoffe": 3142,
      "ky": 3143,
      "Ġview": 3144,
      "Ġrecogn": 3145,
      "Ġbye": 3146,
      "ĠQu": 3147,
      "aturday": 3148,
      "Ġhealth": 3149,
      "Ġjud": 3150,
      "Ġthanks": 3151,
      ".S": 3152,
      "ache": 3153,
      "ĠTex": 3154,
      "sey": 3155,
      "ĠAmerica": 3156,
      "Ġfuture": 3157,
      "ĠFirst": 3158,
      "Why": 3159,
      "worth": 3160,
      "Ġtiny": 3161,
      "Ġincluding": 3162,
      "ĠRepubl": 3163,
      "ĠRed": 3164,
      "Ġproblems": 3165,
      "ĠOx": 3166,
      "ĠRob": 3167,
      "Ġought": 3168,
      "ĠWH": 3169,
      "Ġspend": 3170,
      "Ġboard": 3171,
      "chan": 3172,
      "ĠSomet": 3173,
      "rug": 3174,
      "Ġmajor": 3175,
      "Ġorange": 3176,
      "soci": 3177,
      "Ġcorner": 3178,
      "Ġvideo": 3179,
      "Ġcurrent": 3180,
      "Ġlie": 3181,
      "Th": 3182,
      "uty": 3183,
      "Ġcollect": 3184,
      "ĠSaturday": 3185,
      "iod": 3186,
      "makes": 3187,
      "puts": 3188,
      "Ġinvest": 3189,
      "ĠEn": 3190,
      "ĠFraser": 3191,
      "Ġgen": 3192,
      "Ġnina": 3193,
      "ĠAunt": 3194,
      "ummy": 3195,
      "Ġcrying": 3196,
      ".'Ċ": 3197,
      "AD": 3198,
      "Ġcomfort": 3199,
      "Ġleaving": 3200,
      "Ġdifficult": 3201,
      "Ġspoke": 3202,
      "Ġcreated": 3203,
      "Ġcompl": 3204,
      "Ġappear": 3205,
      "ray": 3206,
      "Ġbased": 3207,
      "Ġnames": 3208,
      "ĠMad": 3209,
      "ift": 3210,
      "Ġ&": 3211,
      "Ġblocks": 3212,
      "urse": 3213,
      "Ġbreakfast": 3214,
      "Ġgas": 3215,
      "itted": 3216,
      "Ġchurch": 3217,
      "Ġfinger": 3218,
      "Ġseeing": 3219,
      "ĠQueen": 3220,
      "ply": 3221,
      "resh": 3222,
      "Ġshar": 3223,
      "tered": 3224,
      "Ġdinos": 3225,
      "Ġexample": 3226,
      "Ġcompan": 3227,
      "ades": 3228,
      "iforn": 3229,
      "Ġreplied": 3230,
      "ission": 3231,
      "ruction": 3232,
      "chn": 3233,
      "pered": 3234,
      "itions": 3235,
      "Ġdelight": 3236,
      "asket": 3237,
      "go": 3238,
      "ek": 3239,
      "form": 3240,
      "picks": 3241,
      "Ġbas": 3242,
      "Ġmention": 3243,
      "Ġvol": 3244,
      "play": 3245,
      "ĠItaly": 3246,
      "ifornia": 3247,
      "val": 3248,
      "Ġbank": 3249,
      "Ġbottom": 3250,
      "]!Ċ": 3251,
      "ĠRoman": 3252,
      "Ġsixty": 3253,
      "Ġlocal": 3254,
      "Home": 3255,
      "ient": 3256,
      "itched": 3257,
      "ests": 3258,
      "ancy": 3259,
      "eder": 3260,
      "Ġpuzzle": 3261,
      "uted": 3262,
      "ĠJer": 3263,
      "ĠVisit": 3264,
      "Ġchocol": 3265,
      "ĠSchool": 3266,
      "Ġregion": 3267,
      "Ġcard": 3268,
      "ĠHa": 3269,
      "Ġsinging": 3270,
      "Ġwatching": 3271,
      "ument": 3272,
      "Ġresult": 3273,
      "Ġphot": 3274,
      "Ġdecl": 3275,
      "Ġshout": 3276,
      "aud": 3277,
      "Ġmunicipality": 3278,
      "Ġgames": 3279,
      "Ġanimal": 3280,
      "Ġrepresent": 3281,
      "ĠHist": 3282,
      "Ġhate": 3283,
      "Ġdiscuss": 3284,
      "ĠFlore": 3285,
      "CK": 3286,
      "oop": 3287,
      "ĠColl": 3288,
      "Ġbottle": 3289,
      "Ġbutterfly": 3290,
      "yy": 3291,
      "ĠTony": 3292,
      "Ġpopulation": 3293,
      "Ġlegs": 3294,
      "sy": 3295,
      "Ġcarried": 3296,
      "Ġbigger": 3297,
      "ĠAnn": 3298,
      "Ġquestions": 3299,
      "Ġcapital": 3300,
      "ĠMinister": 3301,
      "board": 3302,
      "Ġwow": 3303,
      "Ġitself": 3304,
      "oops": 3305,
      "ĠCalifornia": 3306,
      "Ġfurther": 3307,
      "Ġanx": 3308,
      "Ġaff": 3309,
      "mond": 3310,
      "Ġmix": 3311,
      "ĠGree": 3312,
      "Ġcrit": 3313,
      "ĠMart": 3314,
      "irm": 3315,
      "Ġstuck": 3316,
      "Ġalive": 3317,
      "Ġflat": 3318,
      "Ġspoon": 3319,
      "ĠJim": 3320,
      "Ġhelped": 3321,
      "ĠChampions": 3322,
      "work": 3323,
      "Ġ$": 3324,
      "Ġputs": 3325,
      "Ġasking": 3326,
      "Ġappeared": 3327,
      "ĠSan": 3328,
      "raft": 3329,
      "Ġcourt": 3330,
      "look": 3331,
      "ico": 3332,
      "Ġshop": 3333,
      "ĠHowever": 3334,
      "Ġaccount": 3335,
      "ĠTexas": 3336,
      "Ġpush": 3337,
      "--Ċ": 3338,
      "ĠStop": 3339,
      "itary": 3340,
      "Ġpi": 3341,
      "Ġtrack": 3342,
      "ĠFather": 3343,
      "Ġentire": 3344,
      "Ġlock": 3345,
      "ĠSam": 3346,
      "apa": 3347,
      "Ġclimb": 3348,
      "Ġbought": 3349,
      "Ġkitty": 3350,
      "ĠUrsula": 3351,
      "Ġep": 3352,
      "Ġsomewhere": 3353,
      "ĠVery": 3354,
      "Ġpromise": 3355,
      "Ġeggs": 3356,
      "min": 3357,
      "ĠMon": 3358,
      "Ġproud": 3359,
      "kin": 3360,
      "like": 3361,
      "reet": 3362,
      "Ġmid": 3363,
      "ĠRober": 3364,
      "ĠState": 3365,
      "Ġobjects": 3366,
      "AK": 3367,
      "Ġbab": 3368,
      "Ġrelig": 3369,
      "--------": 3370,
      "Ġhall": 3371,
      "ĠAlex": 3372,
      "ĠMond": 3373,
      "ourt": 3374,
      "Ġrace": 3375,
      "Ġwalked": 3376,
      "ĠReally": 3377,
      "omen": 3378,
      "gged": 3379,
      "Ġstudio": 3380,
      "Ġchocolate": 3381,
      "Ġtall": 3382,
      "ĠCrom": 3383,
      "Ġnearly": 3384,
      "ĠIndia": 3385,
      "af": 3386,
      "Ġchicken": 3387,
      "uation": 3388,
      "Ġyyy": 3389,
      "liament": 3390,
      "acing": 3391,
      "ĠLittle": 3392,
      "wood": 3393,
      "asant": 3394,
      "ĠCr": 3395,
      "pecially": 3396,
      "Ġfinal": 3397,
      "bles": 3398,
      "Ġpaint": 3399,
      "Ġwel": 3400,
      "Ġallowed": 3401,
      "Ġweren": 3402,
      "Ġbackground": 3403,
      "hood": 3404,
      "Ġduck": 3405,
      "cience": 3406,
      "ĠMarc": 3407,
      "iment": 3408,
      "Ġstars": 3409,
      "epend": 3410,
      "Ġfeed": 3411,
      "Ġsubject": 3412,
      "utch": 3413,
      "Ġdrop": 3414,
      "umph": 3415,
      "Ġcharge": 3416,
      "ĠRussian": 3417,
      "Ġtoward": 3418,
      "imate": 3419,
      "roy": 3420,
      "ĠGrand": 3421,
      "ume": 3422,
      "Ġpeace": 3423,
      "Ġmiles": 3424,
      "bers": 3425,
      "ĠMag": 3426,
      "ference": 3427,
      "ĠOxford": 3428,
      "Ġvers": 3429,
      "Ġfilm": 3430,
      "ghed": 3431,
      "Ġtor": 3432,
      "Ġpolitical": 3433,
      "unny": 3434,
      "ĠUncle": 3435,
      "Ġdesc": 3436,
      "Ġlearned": 3437,
      "ĠHenry": 3438,
      "She": 3439,
      "ause": 3440,
      "ĠLady": 3441,
      "Ġgrass": 3442,
      "RI": 3443,
      "Ġgar": 3444,
      "Ġlift": 3445,
      "eg": 3446,
      "king": 3447,
      "Ġsna": 3448,
      "ĠCor": 3449,
      "cious": 3450,
      "aus": 3451,
      "Ġplastic": 3452,
      "Ġshouldn": 3453,
      "Ġplayer": 3454,
      "Ġattention": 3455,
      "Ġaccident": 3456,
      "Ġinformation": 3457,
      "ĠWould": 3458,
      "Ġsticks": 3459,
      "Ġnatur": 3460,
      "ĠPort": 3461,
      "ĠSte": 3462,
      "ĠGovern": 3463,
      "ĠFlorence": 3464,
      "Ġstraw": 3465,
      "ils": 3466,
      "het": 3467,
      "Ġbirds": 3468,
      "EW": 3469,
      "va": 3470,
      "ĠJames": 3471,
      "ĠBlack": 3472,
      "Ġcontrol": 3473,
      "Ġmach": 3474,
      "ĠMic": 3475,
      "ĠBel": 3476,
      "roat": 3477,
      "Ġcentury": 3478,
      "ida": 3479,
      "ploy": 3480,
      "ĠEXP": 3481,
      "Ġperiod": 3482,
      "Ġdropped": 3483,
      "Ġcomb": 3484,
      "Ġparts": 3485,
      "-A": 3486,
      "oken": 3487,
      "ria": 3488,
      "urity": 3489,
      "raph": 3490,
      "osta": 3491,
      "COU": 3492,
      "Ġhurry": 3493,
      "Ġinteresting": 3494,
      "Ġengine": 3495,
      "FA": 3496,
      "NG": 3497,
      "aff": 3498,
      "ĠPat": 3499,
      "Ġshut": 3500,
      "ANN": 3501,
      "Ġextra": 3502,
      "Ġlots": 3503,
      "Ġflew": 3504,
      "ires": 3505,
      "ĠAct": 3506,
      "ĠCouncil": 3507,
      "Ġslice": 3508,
      "Ġrespect": 3509,
      "ration": 3510,
      "har": 3511,
      ",âĢĻ": 3512,
      "ĠBob": 3513,
      "Ġmem": 3514,
      "medi": 3515,
      "Ġfright": 3516,
      "Ġshowed": 3517,
      "ĠWhite": 3518,
      "ĠON": 3519,
      "ells": 3520,
      "gon": 3521,
      "Ġbeach": 3522,
      "Ġwalking": 3523,
      "Ġincre": 3524,
      "Ġ]Ċ": 3525,
      "ĠSpan": 3526,
      "fl": 3527,
      "Ġcloud": 3528,
      "ption": 3529,
      "Ġchief": 3530,
      "Ġleaves": 3531,
      "ya": 3532,
      "Ġsex": 3533,
      "rect": 3534,
      "Ġears": 3535,
      "ĠUS": 3536,
      "ĠFriday": 3537,
      "\")": 3538,
      "Ġnone": 3539,
      "ĠAnt": 3540,
      "Ġangry": 3541,
      "There": 3542,
      "HIS": 3543,
      "omin": 3544,
      "Ġhost": 3545,
      "ĠBet": 3546,
      "Ġjoined": 3547,
      "GMA": 3548,
      "nic": 3549,
      "ĠMor": 3550,
      "Ġlaughed": 3551,
      "Ġdar": 3552,
      "Ġrid": 3553,
      "esta": 3554,
      "Ġsleeping": 3555,
      "Ġdirected": 3556,
      "Don": 3557,
      "cuse": 3558,
      "Ġrese": 3559,
      "Ġviol": 3560,
      "ffie": 3561,
      "Ġbattle": 3562,
      "olutely": 3563,
      "Ġonto": 3564,
      "ĠThom": 3565,
      "Ġairpl": 3566,
      "round": 3567,
      "Ġdue": 3568,
      "Ġfarm": 3569,
      "Ġslowly": 3570,
      "Ġut": 3571,
      "Ġfem": 3572,
      "Ġpati": 3573,
      "Ġvo": 3574,
      "mm": 3575,
      "Ġpaid": 3576,
      "ĠMama": 3577,
      "Ġmeat": 3578,
      "ords": 3579,
      "ivil": 3580,
      "Ġearli": 3581,
      "singing": 3582,
      "Ġrepe": 3583,
      "Ġforth": 3584,
      "Ġfinally": 3585,
      "ĠNothing": 3586,
      "Ross": 3587,
      "off": 3588,
      "uk": 3589,
      "yle": 3590,
      "itive": 3591,
      "Ġturning": 3592,
      "Ġsurprise": 3593,
      "Ġwide": 3594,
      "Ġblank": 3595,
      "eneral": 3596,
      "UT": 3597,
      "of": 3598,
      "Ġcountries": 3599,
      "Ġexcuse": 3600,
      "ĠLaw": 3601,
      "clock": 3602,
      "Ã¼": 3603,
      "Ġmus": 3604,
      "Ġspent": 3605,
      "ses": 3606,
      "Ġreach": 3607,
      "ĠBrian": 3608,
      "pping": 3609,
      "Ġclock": 3610,
      "Ġstudy": 3611,
      "Ġneeded": 3612,
      "inal": 3613,
      "Ġforce": 3614,
      "ĠEast": 3615,
      "Ġconne": 3616,
      "ously": 3617,
      "Ġpopular": 3618,
      "Ġcous": 3619,
      "pper": 3620,
      "Ġworse": 3621,
      "Ġtalked": 3622,
      "Ġdirect": 3623,
      "ĠRobert": 3624,
      "Ġdam": 3625,
      "ashed": 3626,
      "ston": 3627,
      "ĠRam": 3628,
      "Ġrose": 3629,
      "anor": 3630,
      "Ġpock": 3631,
      "ĠHung": 3632,
      "ĠEffie": 3633,
      "OO": 3634,
      "uel": 3635,
      "Ġstage": 3636,
      "Ġperfor": 3637,
      "Ġconcern": 3638,
      "omes": 3639,
      "ili": 3640,
      "ĠOur": 3641,
      "aker": 3642,
      "Ġshare": 3643,
      "Ġattempt": 3644,
      "conom": 3645,
      "Ġdry": 3646,
      "ĠLot": 3647,
      "Ġterrible": 3648,
      "ĠCromer": 3649,
      "ĠMil": 3650,
      "ĠDem": 3651,
      "Ġrub": 3652,
      "Ġsky": 3653,
      "Ġleader": 3654,
      "Ġmagnets": 3655,
      ".âĢĻ": 3656,
      "Ġhy": 3657,
      "ĠPet": 3658,
      "Ġnecess": 3659,
      "Ġ#Ċ": 3660,
      "ĠMonday": 3661,
      "pes": 3662,
      "Ġtiger": 3663,
      "Ġaged": 3664,
      "Ġelect": 3665,
      "ĠReg": 3666,
      "ĠEuropean": 3667,
      "ids": 3668,
      "Ġrich": 3669,
      "Ġpray": 3670,
      "Ġstayed": 3671,
      "Ġcontinued": 3672,
      "Ġninety": 3673,
      "she": 3674,
      "ĠCup": 3675,
      "Ġprofessional": 3676,
      "rab": 3677,
      "ĠRiver": 3678,
      "Ġdogs": 3679,
      "Ġbite": 3680,
      "ĠJes": 3681,
      "Ġoffered": 3682,
      "mat": 3683,
      "ĠVer": 3684,
      "Ġpossib": 3685,
      "Ġfresh": 3686,
      "Ġlying": 3687,
      "Ġstories": 3688,
      "Ġnope": 3689,
      "Ġclosed": 3690,
      "Ġ[?": 3691,
      "ĠHel": 3692,
      "olf": 3693,
      "Ġ.Ċ": 3694,
      "reme": 3695,
      "ĠSer": 3696,
      "ĠDuring": 3697,
      "Ġkey": 3698,
      "ĠKingdom": 3699,
      "Ġadded": 3700,
      "'T": 3701,
      "set": 3702,
      "rel": 3703,
      "herry": 3704,
      "Ġenemy": 3705,
      "ĠBeck": 3706,
      "pha": 3707,
      "Ġbene": 3708,
      "stit": 3709,
      "Ġgrad": 3710,
      "Ġbegin": 3711,
      "Ġexcit": 3712,
      "Ġowl": 3713,
      "Ġfalls": 3714,
      "Ġsimply": 3715,
      "Ġelephant": 3716,
      "Ġfavorite": 3717,
      "ĠHam": 3718,
      "ression": 3719,
      "Ġelection": 3720,
      "elve": 3721,
      "Ġblow": 3722,
      "Ġbasket": 3723,
      "ĠSal": 3724,
      "Ġ(\"": 3725,
      "ĠFrank": 3726,
      "-day": 3727,
      "uses": 3728,
      "ĠMed": 3729,
      "ĠDolly": 3730,
      "icked": 3731,
      "Ġtype": 3732,
      "BR": 3733,
      "lor": 3734,
      "Ġcos": 3735,
      "Ġweap": 3736,
      "ville": 3737,
      "Ġport": 3738,
      "owd": 3739,
      "St": 3740,
      "Ġwasher": 3741,
      "ĠMex": 3742,
      "cture": 3743,
      "Ġvan": 3744,
      "ĠStreet": 3745,
      "ĠMel": 3746,
      "ĠNesta": 3747,
      "Ġspeaking": 3748,
      "Ġbrave": 3749,
      ";Ċ": 3750,
      "yond": 3751,
      "Ġ!Ċ": 3752,
      "Ġwash": 3753,
      "ĠHall": 3754,
      "Ġshows": 3755,
      "Ġenc": 3756,
      "Ġcaused": 3757,
      "uction": 3758,
      "ours": 3759,
      "oyal": 3760,
      "Ġcommand": 3761,
      "Ġlikes": 3762,
      "aft": 3763,
      "ĠCourt": 3764,
      "Ġprep": 3765,
      "ĠCharles": 3766,
      "cast": 3767,
      "father": 3768,
      "ĠPal": 3769,
      "Ġremark": 3770,
      "Ġimmedi": 3771,
      "Ġfighting": 3772,
      "ĠHigh": 3773,
      "Ġespecially": 3774,
      "isc": 3775,
      "Ġtower": 3776,
      "ami": 3777,
      "Ġconvers": 3778,
      "Ġairplane": 3779,
      "ĠBer": 3780,
      "Ġvarious": 3781,
      "Ġcab": 3782,
      "Ġhero": 3783,
      "Ġserious": 3784,
      "Ġpleasure": 3785,
      "Ġpers": 3786,
      "ĠMass": 3787,
      "Ġtelephone": 3788,
      "'?Ċ": 3789,
      "How": 3790,
      "isf": 3791,
      "ĠSch": 3792,
      "Ġcrack": 3793,
      "ĠHistory": 3794,
      "ially": 3795,
      "ĠHE": 3796,
      "Ġcoc": 3797,
      "Ġsle": 3798,
      "antly": 3799,
      "Ġupstairs": 3800,
      "bert": 3801,
      "ĠRod": 3802,
      "Ġthinks": 3803,
      "Ġuhuh": 3804,
      "Ġindust": 3805,
      "Ġtick": 3806,
      "Ġprocess": 3807,
      "Ġsinger": 3808,
      "Ġrelations": 3809,
      "Ġlaughs": 3810,
      "sp": 3811,
      "Ġiron": 3812,
      "Ġpal": 3813,
      "Ġhide": 3814,
      "oted": 3815,
      "razy": 3816,
      "Ġaut": 3817,
      "Ġways": 3818,
      "ĠBE": 3819,
      "ĠLi": 3820,
      "Ġspring": 3821,
      "ography": 3822,
      "'clock": 3823,
      "van": 3824,
      "Ġteeth": 3825,
      "Ġscar": 3826,
      "Ġmarket": 3827,
      "rer": 3828,
      "Ġbud": 3829,
      "Ġtrad": 3830,
      "ĠDoes": 3831,
      "Ġcomput": 3832,
      "Ġwelcome": 3833,
      "Ġcru": 3834,
      "rael": 3835,
      "Ġsoldiers": 3836,
      "dd": 3837,
      "ilar": 3838,
      "ularly": 3839,
      "line": 3840,
      "ĠRos": 3841,
      "Ġbreath": 3842,
      "ĠSure": 3843,
      "ival": 3844,
      "Ġofficer": 3845,
      "Ġtitle": 3846,
      "Ġhouses": 3847,
      "Ġspread": 3848,
      "ĠAbout": 3849,
      "ĠLeague": 3850,
      "ĠLouis": 3851,
      "inary": 3852,
      "Ġnorm": 3853,
      "Ġthreat": 3854,
      "ods": 3855,
      "HE": 3856,
      "oly": 3857,
      "Ġbell": 3858,
      "str": 3859,
      "Ġrole": 3860,
      "Ġdressed": 3861,
      "ĠCHAP": 3862,
      "-M": 3863,
      "ĠDes": 3864,
      "Ġsocial": 3865,
      "Ġamaz": 3866,
      "Ġpun": 3867,
      "Ġmass": 3868,
      "Ġspoken": 3869,
      "hington": 3870,
      "Ġobs": 3871,
      "whis": 3872,
      "ĠCHAPTER": 3873,
      "ĠST": 3874,
      "Ġchim": 3875,
      "Ġinfl": 3876,
      "Ġspirit": 3877,
      "hand": 3878,
      "ĠMal": 3879,
      "ooper": 3880,
      "ĠHan": 3881,
      "Ġlikely": 3882,
      "burg": 3883,
      "Ġfat": 3884,
      "Ġstone": 3885,
      "ural": 3886,
      "ĠJul": 3887,
      "Ġphys": 3888,
      "ĠEliz": 3889,
      "SS": 3890,
      "bre": 3891,
      "ĠJoe": 3892,
      "Ġexist": 3893,
      "Ġexec": 3894,
      "Ġenv": 3895,
      "rief": 3896,
      "Ġestab": 3897,
      "Ġexclaimed": 3898,
      "ups": 3899,
      "ĠII": 3900,
      "Ġisland": 3901,
      "Ġallow": 3902,
      "ERE": 3903,
      "ĠWhich": 3904,
      "Ġballs": 3905,
      "Ġdollars": 3906,
      "erve": 3907,
      "ĠPen": 3908,
      "ĠGeneral": 3909,
      "Ġscream": 3910,
      "ĠSmith": 3911,
      "Ġsmile": 3912,
      "Ġcommun": 3913,
      "Ġcompletely": 3914,
      "Ã¶": 3915,
      "Ġdate": 3916,
      "iance": 3917,
      "Ġslight": 3918,
      "ĠParis": 3919,
      "Ġfingers": 3920,
      "ĠEleanor": 3921,
      "Ġinn": 3922,
      "Ġstom": 3923,
      "Ġalthough": 3924,
      "Ġguard": 3925,
      "ĠTHAT": 3926,
      "Ġfalling": 3927,
      "-y": 3928,
      "ergy": 3929,
      "Ġsuff": 3930,
      "Ġplays": 3931,
      "Ġdifference": 3932,
      "Ġlawyer": 3933,
      "ĠWashington": 3934,
      "Ġemb": 3935,
      "ĠJew": 3936,
      "Ġwet": 3937,
      "Ġrab": 3938,
      "Ġquietly": 3939,
      "Ġinj": 3940,
      "Ġ)Ċ": 3941,
      "Ġden": 3942,
      "ĠMike": 3943,
      "Ġrights": 3944,
      "Ġfamous": 3945,
      ",I": 3946,
      "-Ċ": 3947,
      "Ġbeyond": 3948,
      "Ġjoy": 3949,
      "ashion": 3950,
      "Ġdinosaur": 3951,
      "host": 3952,
      "Ġthroat": 3953,
      "ĠPri": 3954,
      "ĠJose": 3955,
      "Ġstrawber": 3956,
      "itor": 3957,
      "arm": 3958,
      "Ġrefer": 3959,
      "My": 3960,
      "ki": 3961,
      "ĠSince": 3962,
      "arl": 3963,
      "ĠDutch": 3964,
      "ustom": 3965,
      "aining": 3966,
      "Ġarrest": 3967,
      "Ġinclude": 3968,
      "oming": 3969,
      "ĠCare": 3970,
      "ĠRo": 3971,
      "Ġjour": 3972,
      "aine": 3973,
      "ples": 3974,
      "icle": 3975,
      "oughs": 3976,
      "Ġrule": 3977,
      "Ġvictim": 3978,
      "Ġmir": 3979,
      "ĠHumph": 3980,
      "ĠGive": 3981,
      "Ġentered": 3982,
      "ĠScot": 3983,
      "met": 3984,
      "ĠMost": 3985,
      "ĠBert": 3986,
      "iles": 3987,
      "ĠEll": 3988,
      "Ġmagic": 3989,
      "Ġbroad": 3990,
      "Ġpurp": 3991,
      "ĠThomas": 3992,
      "Ġris": 3993,
      "ĠOnly": 3994,
      "They": 3995,
      "Ġpicked": 3996,
      "asion": 3997,
      "ruit": 3998,
      "ighs": 3999,
      "Ġwinter": 4000,
      "Ġcute": 4001,
      "Ġsearch": 4002,
      "ila": 4003,
      "Ġturns": 4004,
      "ĠMarg": 4005,
      "-in": 4006,
      "Ġrev": 4007,
      "Ġsepar": 4008,
      "Ġtwelve": 4009,
      "apers": 4010,
      "Ġraised": 4011,
      "Ġhigher": 4012,
      "Ġcrazy": 4013,
      "ĠIre": 4014,
      "Ġgall": 4015,
      "lect": 4016,
      "ĠMore": 4017,
      "ĠMany": 4018,
      "Ġproject": 4019,
      "rupt": 4020,
      "Ġevidence": 4021,
      "oons": 4022,
      "Ġdeg": 4023,
      "Ġspot": 4024,
      "ĠCanada": 4025,
      "kn": 4026,
      "vey": 4027,
      "Ġscr": 4028,
      "Ġterm": 4029,
      "Ġpublished": 4030,
      "Ġtaste": 4031,
      "ĠHumphrey": 4032,
      "vert": 4033,
      "ables": 4034,
      "Ġsposta": 4035,
      "Ġtechn": 4036,
      "Ġrespons": 4037,
      "ironment": 4038,
      "gigg": 4039,
      "has": 4040,
      "Ġimm": 4041,
      "Ġdriving": 4042,
      "Ġdestroy": 4043,
      "light": 4044,
      "ois": 4045,
      "Ġmurder": 4046,
      "Ġepis": 4047,
      "Ġide": 4048,
      "ĠAc": 4049,
      "Ġeast": 4050,
      "Ġasleep": 4051,
      "Ġvis": 4052,
      "Ġinvolved": 4053,
      "Ġjoin": 4054,
      "ĠAustralia": 4055,
      "Ġpocket": 4056,
      "Then": 4057,
      "ĠBraz": 4058,
      "Ġcrowd": 4059,
      "ĠListen": 4060,
      "pin": 4061,
      "ss": 4062,
      "wich": 4063,
      "ĠCong": 4064,
      "ession": 4065,
      "orts": 4066,
      "Ġlistening": 4067,
      "Ġfault": 4068,
      "holds": 4069,
      "Ġarrived": 4070,
      "Ġlim": 4071,
      "ĠKitty": 4072,
      "Ġmetal": 4073,
      "ĠChristian": 4074,
      "ĠScott": 4075,
      "Ġsum": 4076,
      "ĠTheir": 4077,
      "ĠFred": 4078,
      "Ġannounced": 4079,
      "Ġ()": 4080,
      "ĠExcuse": 4081,
      "Ġcocoon": 4082,
      "ĠMac": 4083,
      "sha": 4084,
      "aret": 4085,
      "Ġdeter": 4086,
      "onounced": 4087,
      "Ġpink": 4088,
      "Ġhappening": 4089,
      "ĠIsrael": 4090,
      "Ġmessage": 4091,
      "Ġninet": 4092,
      "Ġparticular": 4093,
      "Ġrabbit": 4094,
      "Ġnon": 4095,
      "eless": 4096,
      "Ġintrod": 4097,
      "Ġmonkey": 4098,
      "Ġdirector": 4099,
      "Ġdelic": 4100,
      "Ġswimming": 4101,
      "Ġtaught": 4102,
      "ites": 4103,
      "abeth": 4104,
      "Ġgives": 4105,
      "ĠPrince": 4106,
      "Ġsimple": 4107,
      "vies": 4108,
      "writ": 4109,
      "Ġscient": 4110,
      "Ġmouse": 4111,
      "Ġpotat": 4112,
      "Ġpet": 4113,
      "ĠGold": 4114,
      "Ġbelow": 4115,
      "Ġended": 4116,
      "Ġcounty": 4117,
      "Ġmilitary": 4118,
      "inc": 4119,
      "Ġwise": 4120,
      "cks": 4121,
      "Ġprivate": 4122,
      "Ġident": 4123,
      "otten": 4124,
      "ĠParliament": 4125,
      "Ġapart": 4126,
      "Ġpic": 4127,
      "ĠItalian": 4128,
      "ĠMarcia": 4129,
      "Ġladies": 4130,
      "Ġdoggie": 4131,
      "Ġtears": 4132,
      "erved": 4133,
      "Ġfool": 4134,
      "Ġhun": 4135,
      "ĠWomen": 4136,
      "ĠBat": 4137,
      "ĠDis": 4138,
      "aps": 4139,
      "ipped": 4140,
      "lam": 4141,
      "Ġlaid": 4142,
      "ĠIts": 4143,
      "Ġspeed": 4144,
      "agn": 4145,
      "Ġhasn": 4146,
      "Ġolder": 4147,
      "Ġaccom": 4148,
      "Ġmountain": 4149,
      "Ġjourney": 4150,
      "inite": 4151,
      "Ġwag": 4152,
      "Ġbill": 4153,
      "Ġinternational": 4154,
      "ota": 4155,
      "Ġwoods": 4156,
      "Ġwhispered": 4157,
      "Ġmotor": 4158,
      "Ġearlier": 4159,
      "ĠBrazil": 4160,
      "Ġï¿½ï¿½ï¿½ï¿½": 4161,
      "Ġlines": 4162,
      "Ġaction": 4163,
      "Ġnatural": 4164,
      "wise": 4165,
      "asons": 4166,
      "antic": 4167,
      "Ġwheel": 4168,
      "Ġconside": 4169,
      "Ġmovies": 4170,
      "ocrat": 4171,
      "Ġexcited": 4172,
      "Ġconsidered": 4173,
      "Now": 4174,
      "Ġbound": 4175,
      "Ġnut": 4176,
      "ppy": 4177,
      "Ġexam": 4178,
      "Ġoffer": 4179,
      "Ġinterested": 4180,
      "ux": 4181,
      "Ã³": 4182,
      "atives": 4183,
      "Ġanywhere": 4184,
      "gypt": 4185,
      "ĠMo": 4186,
      "Ġund": 4187,
      "ĠHug": 4188,
      "Ġchoice": 4189,
      "Ġstarting": 4190,
      "Ġbelieved": 4191,
      "Ġawful": 4192,
      "Ġsatisf": 4193,
      "vi": 4194,
      "rem": 4195,
      "Ġbeha": 4196,
      "ĠCould": 4197,
      "ĠRes": 4198,
      "ĠRec": 4199,
      "abel": 4200,
      "Ġmanage": 4201,
      "Ġdrug": 4202,
      "osing": 4203,
      "Ġ(;": 4204,
      "Ġfounded": 4205,
      "Ġpath": 4206,
      "ointed": 4207,
      "under": 4208,
      "ĠAcc": 4209,
      "ursday": 4210,
      "GHT": 4211,
      "Ġeducation": 4212,
      "Ġconversation": 4213,
      "LY": 4214,
      "bon": 4215,
      "ĠDO": 4216,
      "Ġtend": 4217,
      "Ġsoul": 4218,
      "Ġnurse": 4219,
      "ushing": 4220,
      "ĠSen": 4221,
      "Ġstairs": 4222,
      "elle": 4223,
      "Ġnumbers": 4224,
      "Ġbull": 4225,
      "Ġsail": 4226,
      "Ġhonest": 4227,
      "AU": 4228,
      "time": 4229,
      "Ġactor": 4230,
      "Ġfaith": 4231,
      "Ġ...": 4232,
      "ĠME": 4233,
      "ĠWed": 4234,
      "ĠUnion": 4235,
      "ĠUp": 4236,
      "ĠThursday": 4237,
      "Ġdrew": 4238,
      "ciety": 4239,
      "Ġafterwards": 4240,
      "Ġfourth": 4241,
      "ails": 4242,
      "Ġterms": 4243,
      "ja": 4244,
      "Ġcovered": 4245,
      "oring": 4246,
      "Ġhuge": 4247,
      "ĠRepublic": 4248,
      "IR": 4249,
      "Ġplaced": 4250,
      "ka": 4251,
      "Ġpill": 4252,
      "Ġpushed": 4253,
      "Ġthrew": 4254,
      "ĠTV": 4255,
      "ĠSand": 4256,
      "ĠDep": 4257,
      "ulf": 4258,
      "Ġwhoa": 4259,
      "ĠThree": 4260,
      "ĠBefore": 4261,
      "Ġsituation": 4262,
      "itude": 4263,
      "ĠLat": 4264,
      "Ġclaim": 4265,
      "Ġshowing": 4266,
      "nesday": 4267,
      "Ġcamer": 4268,
      "asc": 4269,
      "aded": 4270,
      "ĠWood": 4271,
      "ĠLuc": 4272,
      "ella": 4273,
      "orthern": 4274,
      "Ġamount": 4275,
      "ĠEric": 4276,
      "Ġmissed": 4277,
      "ĠMOT": 4278,
      "elling": 4279,
      "Ġneg": 4280,
      "Ġspee": 4281,
      "Ġsettle": 4282,
      "Ġdistance": 4283,
      "Ġemploy": 4284,
      "lie": 4285,
      "oved": 4286,
      "Ġthee": 4287,
      "Ġnap": 4288,
      "Ġplain": 4289,
      "Ġaddress": 4290,
      "Ġlocated": 4291,
      "If": 4292,
      "mel": 4293,
      "Ġcere": 4294,
      "Ġnature": 4295,
      "ales": 4296,
      "Ġeff": 4297,
      "Ġeconom": 4298,
      "acks": 4299,
      "Ġpleased": 4300,
      "Ġregard": 4301,
      "Ġdancing": 4302,
      "Ġmachine": 4303,
      "/M": 4304,
      "Ġtone": 4305,
      "lebr": 4306,
      "ĠDa": 4307,
      "ĠLab": 4308,
      "olt": 4309,
      "Ġagreed": 4310,
      "ĠâĻªĊ": 4311,
      "vere": 4312,
      "ĠChurch": 4313,
      "Ġskin": 4314,
      "Ġexpected": 4315,
      "Ġseventy": 4316,
      "Ġcivil": 4317,
      "eds": 4318,
      "cean": 4319,
      "ĠInternational": 4320,
      "Ġmissing": 4321,
      "ĠOlympics": 4322,
      "gen": 4323,
      "zen": 4324,
      "ads": 4325,
      "ĠCamp": 4326,
      "ĠBill": 4327,
      "Ġcalls": 4328,
      "Ġopport": 4329,
      "Ġturtle": 4330,
      "bed": 4331,
      "Ġsens": 4332,
      "ĠDi": 4333,
      "Ġunless": 4334,
      "Ġtraining": 4335,
      "arrow": 4336,
      "rain": 4337,
      "KEN": 4338,
      "ĠJean": 4339,
      "Ġgentleman": 4340,
      "ĠRose": 4341,
      "ĠFox": 4342,
      "Ġagree": 4343,
      "Ġcommunity": 4344,
      "Ġsett": 4345,
      "ourage": 4346,
      "Ġaward": 4347,
      "arian": 4348,
      "ĠSummer": 4349,
      "ĠAye": 4350,
      "Ġsuit": 4351,
      "Ġsmart": 4352,
      "Ġrecorder": 4353,
      "Ġimagine": 4354,
      "reys": 4355,
      "Ġdread": 4356,
      "ari": 4357,
      "etts": 4358,
      "achus": 4359,
      "uesday": 4360,
      "Ġimmediately": 4361,
      "hest": 4362,
      "Ġcart": 4363,
      "Ġfre": 4364,
      "Ġur": 4365,
      "Ġnotice": 4366,
      "ĠDist": 4367,
      "Ġknife": 4368,
      "ossible": 4369,
      "uckles": 4370,
      "Ġquarter": 4371,
      "Ġwatched": 4372,
      "Ġsize": 4373,
      "Ġdig": 4374,
      "ĠWhile": 4375,
      "Ġhadn": 4376,
      "ights": 4377,
      "Ġcollege": 4378,
      "Ġsimilar": 4379,
      "Ġzoo": 4380,
      "Ġmistake": 4381,
      "Ġbal": 4382,
      "Ġbless": 4383,
      "Ġcolors": 4384,
      "Ġmovement": 4385,
      "Ġwearing": 4386,
      "giggles": 4387,
      "arr": 4388,
      "ĠWE": 4389,
      "Ġspl": 4390,
      "Ġvote": 4391,
      "Ġmanner": 4392,
      "Ġshad": 4393,
      "ĠSpanish": 4394,
      "lim": 4395,
      "was": 4396,
      "Ġgrown": 4397,
      "enced": 4398,
      "Ġrocket": 4399,
      "Ġinvestig": 4400,
      "-S": 4401,
      "itan": 4402,
      "ledge": 4403,
      "ĠWednesday": 4404,
      "Ġpair": 4405,
      "ĠRome": 4406,
      "elly": 4407,
      "Ġremem": 4408,
      "pir": 4409,
      "asing": 4410,
      "Ġstran": 4411,
      "Ġstreng": 4412,
      "Ġflying": 4413,
      "Ġfilled": 4414,
      "achusetts": 4415,
      "ĠPapa": 4416,
      "Ġchimney": 4417,
      "ien": 4418,
      "ials": 4419,
      "inct": 4420,
      "Ġcell": 4421,
      "ĠJud": 4422,
      "ago": 4423,
      "Ġsongs": 4424,
      "Ġbeside": 4425,
      "ĠMassachusetts": 4426,
      "Ġwest": 4427,
      "ators": 4428,
      "ĠTuesday": 4429,
      "Ġteach": 4430,
      "Ġproduced": 4431,
      "Ġcousin": 4432,
      "Ġpicnic": 4433,
      "hered": 4434,
      "-song": 4435,
      "Ġcapt": 4436,
      "Ġassist": 4437,
      "ĠRussia": 4438,
      "ĠAldred": 4439,
      "jo": 4440,
      "pa": 4441,
      "Ġver": 4442,
      "ĠAir": 4443,
      "Ġtherefore": 4444,
      "Ġdey": 4445,
      "action": 4446,
      "Ġcloser": 4447,
      "ĠElizabeth": 4448,
      "Ġfol": 4449,
      "ĠMont": 4450,
      "ĠBur": 4451,
      "outhern": 4452,
      "Ġneither": 4453,
      "ĠUm": 4454,
      "bered": 4455,
      "Ġdiscovered": 4456,
      "Ġbrain": 4457,
      "Ġoriginal": 4458,
      "sociation": 4459,
      "Ġneat": 4460,
      "Ġbridge": 4461,
      "Ġdise": 4462,
      "ELL": 4463,
      "ĠJesus": 4464,
      "ram": 4465,
      "rif": 4466,
      "ĠDel": 4467,
      "ĠFin": 4468,
      "Ġstudied": 4469,
      "ĠOver": 4470,
      "ĠEgypt": 4471,
      "ĠBrad": 4472,
      "gu": 4473,
      "ho": 4474,
      "Ġdeli": 4475,
      "Ġplant": 4476,
      "Ġlanguages": 4477,
      "Ġdeterm": 4478,
      "gn": 4479,
      "Ġdirty": 4480,
      "Ġpour": 4481,
      "hips": 4482,
      "ĠFranc": 4483,
      "Ġdecision": 4484,
      "Ġsentence": 4485,
      "ini": 4486,
      "oups": 4487,
      "ĠOther": 4488,
      "Ġsurv": 4489,
      "Ġnineteen": 4490,
      "ĠMet": 4491,
      "Ġshirt": 4492,
      "Ġmedic": 4493,
      "Ġcorrect": 4494,
      "ĠMat": 4495,
      "ittee": 4496,
      "Ġdrinking": 4497,
      "Ġdangerous": 4498,
      "ĠCHI": 4499,
      "ĠWil": 4500,
      "Ġstock": 4501,
      "Ġhardly": 4502,
      "Ġlargest": 4503,
      "Ġsquare": 4504,
      "Ġsurprised": 4505,
      "ĠSuper": 4506,
      "oid": 4507,
      "rying": 4508,
      "ivid": 4509,
      "Ġfavour": 4510,
      "Ġcastle": 4511,
      "anda": 4512,
      "Ġdebut": 4513,
      "Ġfeat": 4514,
      "ANT": 4515,
      "ĠArmy": 4516,
      "Ġhonor": 4517,
      "Ġhistor": 4518,
      "Ġlength": 4519,
      "mont": 4520,
      "rid": 4521,
      "Ġcult": 4522,
      "ĠLa": 4523,
      "Ġmeaning": 4524,
      "Ġcoat": 4525,
      "Ġparticularly": 4526,
      "can": 4527,
      "Ġcoun": 4528,
      "HING": 4529,
      "ĠNever": 4530,
      "Ġindepend": 4531,
      "anced": 4532,
      "itzer": 4533,
      "olic": 4534,
      "Ġworried": 4535,
      "Ġtwice": 4536,
      "Ġexperience": 4537,
      "Ġsoup": 4538,
      "ĠTri": 4539,
      "usion": 4540,
      "ĠSus": 4541,
      "Ġpleasant": 4542,
      "Do": 4543,
      "takes": 4544,
      "ita": 4545,
      "Ġcherry": 4546,
      "Ġhid": 4547,
      "tering": 4548,
      "Ġnote": 4549,
      "ĠOld": 4550,
      "Ġsaved": 4551,
      "ograph": 4552,
      "Ġimpro": 4553,
      "Ġpromised": 4554,
      "Ġexplain": 4555,
      "Ġmurd": 4556,
      "moves": 4557,
      "AB": 4558,
      "Ġthus": 4559,
      "oph": 4560,
      "Ġcheer": 4561,
      "ensus": 4562,
      "ĠClaus": 4563,
      "Ġbrothers": 4564,
      "Ġartist": 4565,
      "Ġtotal": 4566,
      "ĠJeffreys": 4567,
      "Ġwake": 4568,
      "Ġlap": 4569,
      "Ġdeb": 4570,
      "Ġcandy": 4571,
      "Ġcelebr": 4572,
      "Ġlat": 4573,
      "Ġnet": 4574,
      "ĠMur": 4575,
      "ĠCat": 4576,
      "ify": 4577,
      "Ġcoach": 4578,
      "mpion": 4579,
      "Ġdolly": 4580,
      "iving": 4581,
      "nie": 4582,
      "Ġaud": 4583,
      "ĠApp": 4584,
      "ĠMolly": 4585,
      "Ġplenty": 4586,
      "Ġrap": 4587,
      "Ġpicks": 4588,
      "Ġtemper": 4589,
      "Ġcalm": 4590,
      "ournal": 4591,
      "Ġsharp": 4592,
      "eer": 4593,
      "ns": 4594,
      "Ġtou": 4595,
      "ĠAward": 4596,
      "Ġstro": 4597,
      "Ġrough": 4598,
      "Ġstrugg": 4599,
      "do": 4600,
      "ĠMaster": 4601,
      "Ġusual": 4602,
      "ĠSpain": 4603,
      "Ġoppos": 4604,
      "Ġabsolutely": 4605,
      "cellent": 4606,
      "Ġfemale": 4607,
      "Ġmult": 4608,
      "ĠCast": 4609,
      "ĠGreen": 4610,
      "ellig": 4611,
      "Ġruns": 4612,
      "hum": 4613,
      "ĠSim": 4614,
      "Ġareas": 4615,
      "ĠBrown": 4616,
      "Ġgods": 4617,
      "Ġlucky": 4618,
      "Ġescape": 4619,
      "Ġempty": 4620,
      "hel": 4621,
      "atic": 4622,
      "Ġhill": 4623,
      "ĠRem": 4624,
      "Ġobviously": 4625,
      "Is": 4626,
      "bout": 4627,
      "vious": 4628,
      "Ġble": 4629,
      "vell": 4630,
      "ĠTer": 4631,
      "Ġinflu": 4632,
      "isy": 4633,
      "enth": 4634,
      "ÃŃs": 4635,
      ".,": 4636,
      "ees": 4637,
      "gent": 4638,
      "just": 4639,
      "Ġcouch": 4640,
      "Ġfirm": 4641,
      "Ġeager": 4642,
      "ĠDuke": 4643,
      "ĠEarth": 4644,
      "ĠComp": 4645,
      "Ġtax": 4646,
      "ĠCath": 4647,
      "Ġflower": 4648,
      "Ġspeech": 4649,
      "-B": 4650,
      "cul": 4651,
      "icated": 4652,
      "Ġpersonal": 4653,
      "Ġpurpose": 4654,
      "Ġdouble": 4655,
      "alley": 4656,
      "ĠFire": 4657,
      "rance": 4658,
      "Ġgroups": 4659,
      "Ġappre": 4660,
      "inese": 4661,
      "Ġspecies": 4662,
      "ĠAfrican": 4663,
      "lig": 4664,
      "ners": 4665,
      "ĠIS": 4666,
      "orough": 4667,
      "Ġlips": 4668,
      "ĠOut": 4669,
      "Ġroof": 4670,
      "Ġbathroom": 4671,
      "Ġradio": 4672,
      "nded": 4673,
      "ishes": 4674,
      "Ġduty": 4675,
      "chie": 4676,
      "ĠChief": 4677,
      "Ġbeauty": 4678,
      "oking": 4679,
      "Ġpulled": 4680,
      "ĠSecret": 4681,
      "ĠRobin": 4682,
      "Ġcomputer": 4683,
      "Ġet": 4684,
      "Ġmater": 4685,
      "Ġinqu": 4686,
      "oms": 4687,
      "Ġtrip": 4688,
      "ĠHugo": 4689,
      "aign": 4690,
      "Ġwound": 4691,
      "iana": 4692,
      "Ġtravel": 4693,
      "Ġproduct": 4694,
      "Ġsuspect": 4695,
      "ĠJoseph": 4696,
      "iant": 4697,
      "inger": 4698,
      "ĠCO": 4699,
      "Ġdoin": 4700,
      "Ġmonster": 4701,
      "Ġclearly": 4702,
      "ï¿½ï¿½ï¿½": 4703,
      "Ġimpossible": 4704,
      "Ġdarling": 4705,
      "Ġresearch": 4706,
      "bye": 4707,
      "ĠDay": 4708,
      "ocratic": 4709,
      "onse": 4710,
      "ĠMus": 4711,
      "ĠCam": 4712,
      "ĠJos": 4713,
      "Ġtrick": 4714,
      "Ġeasily": 4715,
      "Ġwriter": 4716,
      "ĠFrancis": 4717,
      "-st": 4718,
      "CE": 4719,
      "viet": 4720,
      "ĠLove": 4721,
      "odes": 4722,
      "Ġwalks": 4723,
      "Ġsandwich": 4724,
      "Ġsour": 4725,
      "itation": 4726,
      "Ġtells": 4727,
      "ENT": 4728,
      "Ġcontinue": 4729,
      "Ġprincess": 4730,
      "**": 4731,
      "Ġwit": 4732,
      "Ġmic": 4733,
      "Ġweather": 4734,
      "Ġpercent": 4735,
      "Ġelected": 4736,
      "Ġgrave": 4737,
      "gress": 4738,
      "vince": 4739,
      "oured": 4740,
      "Ġpool": 4741,
      "ĠGot": 4742,
      "inda": 4743,
      "ĠÂ": 4744,
      "using": 4745,
      "umber": 4746,
      "Ġblanket": 4747,
      "ĠMabel": 4748,
      "ĠHur": 4749,
      "ching": 4750,
      "rank": 4751,
      "Ġscene": 4752,
      "Ġheads": 4753,
      "Ġconstruction": 4754,
      "Ġharm": 4755,
      "Ġjudge": 4756,
      "Ġcouncil": 4757,
      "Ġgate": 4758,
      "eta": 4759,
      "ĠSoviet": 4760,
      "Ġdistrib": 4761,
      "So": 4762,
      "Ġoil": 4763,
      "Ġcott": 4764,
      "Ġloss": 4765,
      "Ġaccording": 4766,
      "Ġdecide": 4767,
      "Ġbowl": 4768,
      "Ġtong": 4769,
      "Ġfruit": 4770,
      "Ġstudents": 4771,
      "Ġstruck": 4772,
      "cely": 4773,
      "ively": 4774,
      "Ġwilln": 4775,
      "Ġsecurity": 4776,
      "Ġfought": 4777,
      "ĠBig": 4778,
      "Ġshown": 4779,
      "rans": 4780,
      "ĠPerhaps": 4781,
      "Ġepisode": 4782,
      "-room": 4783,
      "mit": 4784,
      "Ġlion": 4785,
      "Ġjack": 4786,
      "Ġgentlemen": 4787,
      "Ġcircus": 4788,
      "itzerland": 4789,
      "Ã¨": 4790,
      "Ġliter": 4791,
      "ĠCont": 4792,
      "ĠHapp": 4793,
      "Ġcrime": 4794,
      "Ġperfectly": 4795,
      "oma": 4796,
      "Ġham": 4797,
      "ala": 4798,
      "ĠOnce": 4799,
      "Ġcaptain": 4800,
      "Ġoccur": 4801,
      "Ġfixed": 4802,
      "Ġdeclared": 4803,
      "Ġnecessary": 4804,
      "_,": 4805,
      "coughs": 4806,
      "omm": 4807,
      "ĠSk": 4808,
      "aled": 4809,
      "elled": 4810,
      "isted": 4811,
      "Ġkeeping": 4812,
      "ĠSwitzerland": 4813,
      "Ġstrawberries": 4814,
      "corder": 4815,
      "ĠLife": 4816,
      "Ġjumped": 4817,
      "ĠScotland": 4818,
      "tin": 4819,
      "Ġtv": 4820,
      "Ġtar": 4821,
      "aries": 4822,
      "ĠDar": 4823,
      "Ġrate": 4824,
      "Ġgreatest": 4825,
      "Ġdemand": 4826,
      "Ġanxious": 4827,
      "bury": 4828,
      "with": 4829,
      "asy": 4830,
      "ĠEmp": 4831,
      "ĠMaria": 4832,
      "Ġholds": 4833,
      "ĠAngela": 4834,
      "ST": 4835,
      "Ġbang": 4836,
      "ona": 4837,
      "ĠChina": 4838,
      "Ġdesp": 4839,
      "Ġearn": 4840,
      "Ġoccup": 4841,
      "Ġfrightened": 4842,
      "Ġcamera": 4843,
      "ferent": 4844,
      "Ġwilling": 4845,
      "Ġscary": 4846,
      "Ġdevelopment": 4847,
      "Ġenvironment": 4848,
      "Ġmut": 4849,
      "Ġfashion": 4850,
      "ĠBu": 4851,
      "ez": 4852,
      "ĠSaint": 4853,
      "Ġdoc": 4854,
      "Ġchannel": 4855,
      "Ġhotel": 4856,
      "ĠPercy": 4857,
      "Ġwooden": 4858,
      "ĠChampionship": 4859,
      "-up": 4860,
      "aven": 4861,
      "Ġthy": 4862,
      "ĠCle": 4863,
      "Ġarrow": 4864,
      "cip": 4865,
      "Ġcompeted": 4866,
      "Ġavail": 4867,
      "Ġwha": 4868,
      "Ġfancy": 4869,
      "Ġtow": 4870,
      "ĠAp": 4871,
      "Ġweak": 4872,
      "ĠMajor": 4873,
      "aches": 4874,
      "ĠBoy": 4875,
      "esty": 4876,
      "Ġdisp": 4877,
      "Ġfund": 4878,
      "ĠSing": 4879,
      "Ġvac": 4880,
      "Ġchampions": 4881,
      "ĠScr": 4882,
      "Ġpossibly": 4883,
      ".'": 4884,
      "?âĢĿĊ": 4885,
      "ique": 4886,
      "nods": 4887,
      "Ġfoc": 4888,
      "Ġgro": 4889,
      "ĠWind": 4890,
      "ĠDra": 4891,
      "Ġqueen": 4892,
      "Ġappl": 4893,
      "mes": 4894,
      "edy": 4895,
      "Ġpin": 4896,
      "ĠGO": 4897,
      "ĠFOR": 4898,
      "house": 4899,
      "Ġscience": 4900,
      "Ġopin": 4901,
      "ĠTim": 4902,
      "Ġweird": 4903,
      "ĠEarly": 4904,
      "ĠIsland": 4905,
      "-night": 4906,
      "inist": 4907,
      "ĠRay": 4908,
      "ĠRock": 4909,
      "Ġmanaged": 4910,
      "udd": 4911,
      "iction": 4912,
      "Ġcontact": 4913,
      "Ġloudly": 4914,
      "gas": 4915,
      "Ġcant": 4916,
      "berg": 4917,
      "ĠThose": 4918,
      "ĠVir": 4919,
      "Ġcoast": 4920,
      "Ġsilence": 4921,
      "Ġcompetition": 4922,
      "Ġir": 4923,
      "rees": 4924,
      "Ġcustom": 4925,
      "Ġlower": 4926,
      "Ġrow": 4927,
      "Ġdishes": 4928,
      "ava": 4929,
      "ĠChris": 4930,
      "Ġmarriage": 4931,
      "Ġsusp": 4932,
      "IGHT": 4933,
      "bel": 4934,
      "pan": 4935,
      "Ġ)": 4936,
      "Ġcuri": 4937,
      "etch": 4938,
      "Ġrising": 4939,
      "vis": 4940,
      "Ġtight": 4941,
      "Ġsac": 4942,
      "Ġnurs": 4943,
      "Ġmeal": 4944,
      "ĠNat": 4945,
      "ishop": 4946,
      "Ġenergy": 4947,
      "Ġrail": 4948,
      "Ġcontinues": 4949,
      "icycle": 4950,
      "Ġfold": 4951,
      "Ġthick": 4952,
      "ĠFe": 4953,
      "Ġleading": 4954,
      "Ġdisease": 4955,
      "Ġrom": 4956,
      "Ġcred": 4957,
      "ĠIran": 4958,
      "Ġstret": 4959,
      "Ġlibr": 4960,
      "Ġremained": 4961,
      "Ġregular": 4962,
      "ĠBye": 4963,
      "ĠFour": 4964,
      "Ġbutton": 4965,
      "umps": 4966,
      "Ġadvent": 4967,
      ".âĢĻĊ": 4968,
      "Ġstrength": 4969,
      "In": 4970,
      "ĠFore": 4971,
      "Ġboots": 4972,
      "ĠZara": 4973,
      "UST": 4974,
      "Ġprepared": 4975,
      "bur": 4976,
      "Ġbare": 4977,
      "Ġpitched": 4978,
      "Ġge": 4979,
      "lected": 4980,
      "ĠMinn": 4981,
      "illa": 4982,
      "ĠNO": 4983,
      "Ġadult": 4984,
      "Ġsword": 4985,
      "Ġnewsp": 4986,
      "ĠWalter": 4987,
      "All": 4988,
      "Ġnovel": 4989,
      "Ġgiant": 4990,
      "Ġacqu": 4991,
      "ĠSomething": 4992,
      "Ġye": 4993,
      "Ġyouth": 4994,
      "sec": 4995,
      "Ġnoticed": 4996,
      "Ġremind": 4997,
      "Ġattract": 4998,
      "Ġcarefully": 4999,
      "Ġdirection": 5000,
      "Ġcenter": 5001,
      "Ġestabl": 5002,
      "ĠAccording": 5003,
      "rig": 5004,
      "ĠHon": 5005,
      "aked": 5006,
      "ĠKat": 5007,
      "Ġcontract": 5008,
      "ilda": 5009,
      "ildred": 5010,
      "ribed": 5011,
      "Ġfifteen": 5012,
      "Ġcentre": 5013,
      "ĠGuy": 5014,
      "Ġelephants": 5015,
      "ĠKeep": 5016,
      "Ġstomach": 5017,
      "CT": 5018,
      "Ġtrib": 5019,
      "Ġbump": 5020,
      "ĠCons": 5021,
      "ste": 5022,
      "Ġcancer": 5023,
      "useum": 5024,
      "Ġarch": 5025,
      "Ġhelping": 5026,
      "known": 5027,
      "aves": 5028,
      "ĠDen": 5029,
      "ĠFar": 5030,
      "Ġshore": 5031,
      "peror": 5032,
      "Ġseconds": 5033,
      "ĠEverything": 5034,
      "?âĢĿ": 5035,
      "Ġourselves": 5036,
      "ĠGerald": 5037,
      "ederal": 5038,
      "Ġma": 5039,
      "ĠLee": 5040,
      "anges": 5041,
      "Ġstring": 5042,
      "Ġpractice": 5043,
      "ĠJapanese": 5044,
      "initely": 5045,
      "Ġsides": 5046,
      "erg": 5047,
      "Ġgaz": 5048,
      "ĠSay": 5049,
      "eaks": 5050,
      "ĠRy": 5051,
      "Ġplane": 5052,
      "Ġproduc": 5053,
      "ĠAfrica": 5054,
      "ker": 5055,
      "heart": 5056,
      "ouri": 5057,
      "ĠSun": 5058,
      "Ġstorm": 5059,
      "Ġunc": 5060,
      "Ġhandle": 5061,
      "pens": 5062,
      "ĠIslam": 5063,
      "Ġextreme": 5064,
      "talk": 5065,
      "Ġfurn": 5066,
      "Ġpan": 5067,
      "ript": 5068,
      "ĠHol": 5069,
      "Ġsaf": 5070,
      "ĠJenn": 5071,
      "osc": 5072,
      "istan": 5073,
      "Ġlights": 5074,
      "Ġopportunity": 5075,
      "reg": 5076,
      "orks": 5077,
      "ĠHum": 5078,
      "Ġdownstairs": 5079,
      "ĠChinese": 5080,
      "Ġcrown": 5081,
      "Ġmerry": 5082,
      "sighs": 5083,
      "Ġwed": 5084,
      "ĠMhm": 5085,
      "ademy": 5086,
      "Ġstream": 5087,
      "ĠHu": 5088,
      "ĠPope": 5089,
      "ĠGar": 5090,
      "Ġofficial": 5091,
      "Ġpurple": 5092,
      "Ġcam": 5093,
      "Ġnea": 5094,
      "Ġrings": 5095,
      "Ġsomethin": 5096,
      "Ġpainting": 5097,
      "-e": 5098,
      "mn": 5099,
      "ship": 5100,
      "ĠTod": 5101,
      "ĠMildred": 5102,
      "Ġformed": 5103,
      "ĠRel": 5104,
      "ĠJake": 5105,
      "Ġprice": 5106,
      "Ġgreater": 5107,
      "Ġopening": 5108,
      "Ġswing": 5109,
      "ĠEdward": 5110,
      "Ġdriver": 5111,
      "Ġhanging": 5112,
      "!'": 5113,
      "gie": 5114,
      "mar": 5115,
      "ĠIr": 5116,
      "ĠBas": 5117,
      "ura": 5118,
      "Ġvir": 5119,
      "ĠStill": 5120,
      "Ġinterview": 5121,
      "Ġmotion": 5122,
      "\"]Ċ": 5123,
      "IM": 5124,
      "ba": 5125,
      "Ġlog": 5126,
      "ooge": 5127,
      "ĠKent": 5128,
      "Ġchoose": 5129,
      "ĠBritain": 5130,
      "ĠCongress": 5131,
      "boy": 5132,
      "gs": 5133,
      "kins": 5134,
      "uten": 5135,
      "ĠHold": 5136,
      "Ġplums": 5137,
      "Ġsmiled": 5138,
      "Ġsteps": 5139,
      "Ġsouthw": 5140,
      "bet": 5141,
      "Ġmail": 5142,
      "aching": 5143,
      "chuckles": 5144,
      "ilies": 5145,
      "urns": 5146,
      "Ġcampaign": 5147,
      "ĠNether": 5148,
      "Ġmentioned": 5149,
      "Ġmemory": 5150,
      "-n": 5151,
      "Ġwrest": 5152,
      "ication": 5153,
      "ĠDoctor": 5154,
      "Ġgrowing": 5155,
      "Ġtongue": 5156,
      "Ġdying": 5157,
      "Ġpig": 5158,
      "ĠMY": 5159,
      "ĠCall": 5160,
      "Ġknowing": 5161,
      "ĠZeal": 5162,
      "This": 5163,
      "ĠCollege": 5164,
      "Ġappreci": 5165,
      "ault": 5166,
      "ij": 5167,
      "Ġtries": 5168,
      "ero": 5169,
      "Ġchanges": 5170,
      "Ġfeels": 5171,
      "ĠPrin": 5172,
      "ippi": 5173,
      "ĠPlay": 5174,
      "Ġsoldier": 5175,
      "EA": 5176,
      "eks": 5177,
      "arah": 5178,
      "ĠFil": 5179,
      "ends": 5180,
      "Ġprint": 5181,
      "ĠFlor": 5182,
      "Ġofficers": 5183,
      "Ġorders": 5184,
      "Ġboss": 5185,
      "ĠTown": 5186,
      "ĠWestern": 5187,
      "ĠBRO": 5188,
      "Ġkinds": 5189,
      "Ġevents": 5190,
      "Ġnormal": 5191,
      "SI": 5192,
      "Ġnerv": 5193,
      "Ġmere": 5194,
      "ilities": 5195,
      "Ġsaus": 5196,
      "Ġuses": 5197,
      "Ġprevent": 5198,
      "Ġkeeps": 5199,
      "Ġphil": 5200,
      "Ġfallen": 5201,
      "ification": 5202,
      "Ġfra": 5203,
      "Ġpapers": 5204,
      "Ġeld": 5205,
      "kel": 5206,
      "Ġwheels": 5207,
      "iel": 5208,
      "Ġplans": 5209,
      "Ġprim": 5210,
      "Ġsisters": 5211,
      "Ġcarrying": 5212,
      "ĠSometimes": 5213,
      "ĠNetherlands": 5214,
      "Ġsch": 5215,
      "Ġmoves": 5216,
      "Ġowned": 5217,
      "Ġterror": 5218,
      "-time": 5219,
      "Ġmodern": 5220,
      "Ġversion": 5221,
      "fit": 5222,
      "Ġwings": 5223,
      "oug": 5224,
      "Ġdare": 5225,
      "ĠRoyal": 5226,
      "ardon": 5227,
      "Ġtrade": 5228,
      "Ġactress": 5229,
      "erecorder": 5230,
      "Ġgolden": 5231,
      "Ġneighbor": 5232,
      "Ġsettled": 5233,
      "ĠScrooge": 5234,
      "sm": 5235,
      "Ġign": 5236,
      "anch": 5237,
      "ador": 5238,
      "Ġnoble": 5239,
      "eman": 5240,
      "ocal": 5241,
      "Ġeleven": 5242,
      "Ġsmaller": 5243,
      "ĠBarb": 5244,
      "ĠWHAT": 5245,
      "ĠGreek": 5246,
      "Come": 5247,
      "Ġbrief": 5248,
      "ening": 5249,
      "ĠServ": 5250,
      "ĠMummy": 5251,
      "ĠVal": 5252,
      "Ġkiller": 5253,
      "ological": 5254,
      "Ġresponse": 5255,
      "ĠAgnes": 5256,
      "ĠDistrict": 5257,
      "ĠZealand": 5258,
      "don": 5259,
      "aning": 5260,
      "Ġlord": 5261,
      "ĠTHIS": 5262,
      "keep": 5263,
      "iring": 5264,
      "sequ": 5265,
      "Ġknowledge": 5266,
      "ooks": 5267,
      "Ġshoe": 5268,
      "Ġflight": 5269,
      "Ġtext": 5270,
      "Ġsmell": 5271,
      "Ġchem": 5272,
      "Ġmostly": 5273,
      "Ġfrogs": 5274,
      "ĠIreland": 5275,
      "pet": 5276,
      "uit": 5277,
      "Ġloll": 5278,
      "kend": 5279,
      "ĠJac": 5280,
      "Ġblind": 5281,
      "Ġuhoh": 5282,
      "Ġindivid": 5283,
      "Ġdreams": 5284,
      "ĠBecky": 5285,
      "ban": 5286,
      "dam": 5287,
      "Ġho": 5288,
      "ĠWel": 5289,
      "Ġjoke": 5290,
      "Ġplat": 5291,
      "iano": 5292,
      "Ġqual": 5293,
      "izing": 5294,
      "Ġpoet": 5295,
      "Ġmatches": 5296,
      "Ġrocks": 5297,
      "ĠEmpire": 5298,
      "da": 5299,
      "Ġpound": 5300,
      "Ġghost": 5301,
      "ĠMount": 5302,
      "ĠWow": 5303,
      "ĠWay": 5304,
      "ĠFort": 5305,
      "Ġsuc": 5306,
      "Ġoranges": 5307,
      "ĠMississ": 5308,
      "Ġteams": 5309,
      "Ġdrawing": 5310,
      "Ġconcerned": 5311,
      "lend": 5312,
      "bey": 5313,
      "Ġremain": 5314,
      "Ġtrial": 5315,
      "Ġrules": 5316,
      "Ġbabies": 5317,
      "Ġideas": 5318,
      "uz": 5319,
      "Ġted": 5320,
      "erc": 5321,
      "Ġnic": 5322,
      "ĠMax": 5323,
      "ĠHot": 5324,
      "Ġexcellent": 5325,
      "Ġrob": 5326,
      "Ġtalks": 5327,
      "Ġhelmet": 5328,
      "Ġwindows": 5329,
      "Ġforever": 5330,
      "Ġfigures": 5331,
      "Ġrisk": 5332,
      "Ġrapid": 5333,
      "Ġess": 5334,
      "Ġdish": 5335,
      "enny": 5336,
      "ĠTra": 5337,
      "Ġant": 5338,
      "oston": 5339,
      "pering": 5340,
      "Ġwaited": 5341,
      "ĠAssociation": 5342,
      "Ġmarry": 5343,
      "Ġretired": 5344,
      "Ġoccasion": 5345,
      "ĠAustrian": 5346,
      "Ġcruel": 5347,
      "melon": 5348,
      "ĠHappy": 5349,
      "ĠMississippi": 5350,
      "OUR": 5351,
      "Ġnuts": 5352,
      "ether": 5353,
      "ading": 5354,
      "aki": 5355,
      "Ġuseta": 5356,
      "Ġbedroom": 5357,
      "Ġeasier": 5358,
      "ĠSwed": 5359,
      "fortun": 5360,
      "ĠWilliams": 5361,
      "Ġsucceed": 5362,
      "amin": 5363,
      "Ġsake": 5364,
      "Ġgoodness": 5365,
      "Ġflag": 5366,
      "Ġschools": 5367,
      "ĠDonald": 5368,
      "uan": 5369,
      "Ġemer": 5370,
      "ĠWAS": 5371,
      "ĠNick": 5372,
      "ems": 5373,
      "Ġbike": 5374,
      "ĠMill": 5375,
      "ĠHor": 5376,
      "ĠNice": 5377,
      "ĠLos": 5378,
      "Ġupset": 5379,
      "Ġalt": 5380,
      "place": 5381,
      "ĠCarol": 5382,
      "Ġburst": 5383,
      "Ġestablished": 5384,
      "Ġsafety": 5385,
      "Not": 5386,
      "ae": 5387,
      "llen": 5388,
      "otion": 5389,
      "ĠRon": 5390,
      "ĠStan": 5391,
      "iety": 5392,
      "arently": 5393,
      "-L": 5394,
      "Ġrib": 5395,
      "ĠBru": 5396,
      "Ġmel": 5397,
      "ĠRom": 5398,
      "ĠFine": 5399,
      "arts": 5400,
      "Ġworst": 5401,
      "avar": 5402,
      "Ġwalls": 5403,
      "gt": 5404,
      "ĠHI": 5405,
      "Ġsen": 5406,
      "Ġbi": 5407,
      "Ġfond": 5408,
      "ĠTy": 5409,
      "ĠHA": 5410,
      "Ġplants": 5411,
      "Ġarg": 5412,
      "Ġshape": 5413,
      "Ġforgotten": 5414,
      "Ġconstit": 5415,
      "Ġmodel": 5416,
      "ĠCanadian": 5417,
      "uf": 5418,
      "nding": 5419,
      "Ġbomb": 5420,
      "outs": 5421,
      "cel": 5422,
      "ĠPolly": 5423,
      "Ġvot": 5424,
      "ĠMissouri": 5425,
      "pronounced": 5426,
      "Ġloves": 5427,
      "ĠMexico": 5428,
      "VER": 5429,
      "craft": 5430,
      "Ġwished": 5431,
      "ĠSur": 5432,
      "Ġsigned": 5433,
      "Ġpowerful": 5434,
      "ĠCatholic": 5435,
      "Ġlollip": 5436,
      "-T": 5437,
      "inet": 5438,
      "Ġwaste": 5439,
      "Ġforces": 5440,
      "ucky": 5441,
      "Ġyounger": 5442,
      "ĠSecond": 5443,
      "Ġtotally": 5444,
      "Ġrepeated": 5445,
      "ĠCareer": 5446,
      "lla": 5447,
      "Ġpears": 5448,
      "Ġproceed": 5449,
      "Ġattend": 5450,
      "Ġwatermelon": 5451,
      "Ġclouds": 5452,
      "Ġfork": 5453,
      "ĠBan": 5454,
      "ĠEarl": 5455,
      "Ġrise": 5456,
      "Ġpresents": 5457,
      "Ġleaders": 5458,
      "aura": 5459,
      "bu": 5460,
      "ado": 5461,
      "ĠCooper": 5462,
      "roll": 5463,
      "Ġsociety": 5464,
      "Ġmanager": 5465,
      "Ġglo": 5466,
      "ĠArt": 5467,
      "Ġaware": 5468,
      "OME": 5469,
      "sych": 5470,
      "ĠAlexander": 5471,
      "Mark": 5472,
      "aun": 5473,
      "fess": 5474,
      "face": 5475,
      "ule": 5476,
      "Ġtheory": 5477,
      "Ġfaces": 5478,
      "ĠMaj": 5479,
      "ĠOk": 5480,
      "Ġjournal": 5481,
      "olars": 5482,
      "Ġcarriage": 5483,
      "Ġhighest": 5484,
      "-morrow": 5485,
      "BC": 5486,
      "Ġbother": 5487,
      "onia": 5488,
      "oria": 5489,
      "arily": 5490,
      "Ġweight": 5491,
      "ĠHome": 5492,
      "ĠPut": 5493,
      "ĠUN": 5494,
      "ĠUnder": 5495,
      "Ġunion": 5496,
      "Ġshoulder": 5497,
      "Ġfinding": 5498,
      "ĠPrime": 5499,
      "ĠSecretary": 5500,
      "Ġavailable": 5501,
      "las": 5502,
      "Ġcases": 5503,
      "Ġcups": 5504,
      "Ġcensus": 5505,
      "Ġpurs": 5506,
      "semb": 5507,
      "ĠJon": 5508,
      "ĠMarie": 5509,
      "AND": 5510,
      "gery": 5511,
      "Ġfal": 5512,
      "ĠBoston": 5513,
      "stood": 5514,
      "ĠPict": 5515,
      "ĠFC": 5516,
      "Ġrice": 5517,
      "ĠKore": 5518,
      "Ġdism": 5519,
      "Ġfeelings": 5520,
      "Ġfifth": 5521,
      "Ġmedical": 5522,
      "EP": 5523,
      "Ġcy": 5524,
      "Ġheaven": 5525,
      "ushes": 5526,
      "rial": 5527,
      "aming": 5528,
      "ĠRh": 5529,
      "Ġshock": 5530,
      "avis": 5531,
      "Ġwondering": 5532,
      "Ġstreets": 5533,
      "Ġsalt": 5534,
      "Ġreligious": 5535,
      "Ġvoices": 5536,
      "ION": 5537,
      "ras": 5538,
      "there": 5539,
      "Ġsilly": 5540,
      "hal": 5541,
      "icles": 5542,
      "Ġpolicy": 5543,
      "Ġbringing": 5544,
      "Ġgrandfather": 5545,
      "Ġordered": 5546,
      "wo": 5547,
      "Ġwore": 5548,
      "Ġprove": 5549,
      "Ġparticip": 5550,
      "Ġneedta": 5551,
      "Ġprotest": 5552,
      "Ġutter": 5553,
      "Ġteddy": 5554,
      "-I": 5555,
      "Ġpages": 5556,
      "ĠUk": 5557,
      "Ġaffe": 5558,
      "ĠIsn": 5559,
      "Ġpickle": 5560,
      "Ġsteal": 5561,
      "ĠActually": 5562,
      "Ġdegree": 5563,
      "Ġsite": 5564,
      "riff": 5565,
      "ĠBre": 5566,
      "Ġreported": 5567,
      "Ġsausage": 5568,
      "PE": 5569,
      "ef": 5570,
      "rick": 5571,
      "Ġcong": 5572,
      "ented": 5573,
      "Ġstates": 5574,
      "Ġsomewhat": 5575,
      "Ġrode": 5576,
      "ansas": 5577,
      "Ġcondition": 5578,
      "Ġdeveloped": 5579,
      "Ġcomfortable": 5580,
      "cake": 5581,
      "Ġaunt": 5582,
      "Ġinvent": 5583,
      "ĠAndrew": 5584,
      "places": 5585,
      "Ġcookie": 5586,
      "Ġglasses": 5587,
      "Ġgradu": 5588,
      "Ġrelationship": 5589,
      "hoe": 5590,
      "aring": 5591,
      "ĠShi": 5592,
      "ĠWall": 5593,
      "Ġforced": 5594,
      "ential": 5595,
      "ĠCos": 5596,
      "ĠBack": 5597,
      "Ġshr": 5598,
      "Ġconqu": 5599,
      "Ġeverywhere": 5600,
      "Ġevil": 5601,
      "Ġveget": 5602,
      "Ġlollipop": 5603,
      "Ġbod": 5604,
      "Ġfence": 5605,
      "ĠSix": 5606,
      "ĠScient": 5607,
      "opher": 5608,
      "this": 5609,
      "ĠStep": 5610,
      "Ġamb": 5611,
      "Ġfamilies": 5612,
      "Ġweekend": 5613,
      "Ġsalad": 5614,
      "Ġsuccessful": 5615,
      "Ġholes": 5616,
      "ĠAustria": 5617,
      "ĠDemocratic": 5618,
      "Ġmedicine": 5619,
      "MAL": 5620,
      "Ġocean": 5621,
      "Ġintern": 5622,
      "ĠTime": 5623,
      "Ġdose": 5624,
      "ĠPan": 5625,
      "Ġpean": 5626,
      "Ġsmoke": 5627,
      "ĠAlthough": 5628,
      "Ġmagaz": 5629,
      "ĠJohnson": 5630,
      "Ġcentral": 5631,
      "ĠProvince": 5632,
      "Ġremembered": 5633,
      "ĠMuslim": 5634,
      "zo": 5635,
      "Ġbunch": 5636,
      "Ġcit": 5637,
      "Ġcities": 5638,
      "onel": 5639,
      "Ġnarrow": 5640,
      "ĠSol": 5641,
      "amond": 5642,
      "Ġships": 5643,
      "asty": 5644,
      "rences": 5645,
      "zza": 5646,
      "Ġchest": 5647,
      "Ġaddition": 5648,
      "Ġamazing": 5649,
      "tries": 5650,
      "Ġdun": 5651,
      "ications": 5652,
      "Ġreign": 5653,
      "ĠHal": 5654,
      "ĠEv": 5655,
      "ube": 5656,
      "Ġserve": 5657,
      "Ġapolog": 5658,
      "Ġcompanies": 5659,
      "ĠGovernment": 5660,
      "Ġnervous": 5661,
      "Ġbunny": 5662,
      "ĠMi": 5663,
      "thur": 5664,
      "Ġbecoming": 5665,
      "Ġstaying": 5666,
      "ĠAuntie": 5667,
      "Ġscarcely": 5668,
      "Ġshadow": 5669,
      "-huh": 5670,
      "Ġmud": 5671,
      "ĠLI": 5672,
      "estival": 5673,
      "Ġgoodbye": 5674,
      "Ġtroub": 5675,
      "Ġforeign": 5676,
      "Ġincluded": 5677,
      "Ġservices": 5678,
      "Ġreligion": 5679,
      "rant": 5680,
      "Ġbone": 5681,
      "Ġgift": 5682,
      "ĠLaura": 5683,
      "ishment": 5684,
      "Ġserving": 5685,
      "Ġminister": 5686,
      "Ġcircum": 5687,
      "Ġfailed": 5688,
      "Ġpotatoes": 5689,
      "itar": 5690,
      "Ġstyle": 5691,
      "ĠBest": 5692,
      "iece": 5693,
      "Ġplanning": 5694,
      "Ġlaws": 5695,
      "Ġguns": 5696,
      "ĠAngeles": 5697,
      "sings": 5698,
      "Ġtourn": 5699,
      "Ġmor": 5700,
      "Ġmale": 5701,
      "ena": 5702,
      "Ġgira": 5703,
      "ada": 5704,
      "Ġstir": 5705,
      "ĠBund": 5706,
      "ogether": 5707,
      "ĠAnother": 5708,
      "they": 5709,
      "Ġenter": 5710,
      "Ġbarn": 5711,
      "ĠTrans": 5712,
      "ĠSpe": 5713,
      "Ġrelease": 5714,
      "ental": 5715,
      "ola": 5716,
      "ĠStar": 5717,
      "ocks": 5718,
      "Ġmatters": 5719,
      "ĠGovernor": 5720,
      "Ġbub": 5721,
      "Ġliber": 5722,
      "ĠGirl": 5723,
      "ibility": 5724,
      "Ġsalami": 5725,
      "ĠCharlie": 5726,
      "ĠMerle": 5727,
      "ĠSusan": 5728,
      "low": 5729,
      "Ġheat": 5730,
      "ĠWent": 5731,
      "urt": 5732,
      "Ġalpha": 5733,
      "Ġroy": 5734,
      "Ġsurround": 5735,
      "Ġgrandmother": 5736,
      "-year": 5737,
      "bled": 5738,
      "mission": 5739,
      "Ġtour": 5740,
      "Ġwond": 5741,
      "utive": 5742,
      "Ġkm": 5743,
      "ĠVan": 5744,
      "Ġmedal": 5745,
      "ĠHarry": 5746,
      "Ġtarget": 5747,
      "zer": 5748,
      "Ġcourage": 5749,
      "ĠAEW": 5750,
      "Ġsection": 5751,
      "Ġriding": 5752,
      "Ġscrew": 5753,
      "Ġsnake": 5754,
      "Ġplanet": 5755,
      "Ġcandid": 5756,
      "Ġprisoners": 5757,
      "ĠTor": 5758,
      "ĠSqu": 5759,
      "ols": 5760,
      "Ġsplend": 5761,
      "Ġthroughout": 5762,
      "ugs": 5763,
      "Ġhearts": 5764,
      "Ġedge": 5765,
      "Ġperforman": 5766,
      "ĠVirgin": 5767,
      "Good": 5768,
      "Mother": 5769,
      "ga": 5770,
      "ugg": 5771,
      "Ġfaster": 5772,
      "Ġreve": 5773,
      "ĠHy": 5774,
      "road": 5775,
      "Ġflo": 5776,
      "Ġadop": 5777,
      "Ġadvice": 5778,
      "Ġstrike": 5779,
      "Ġfac": 5780,
      "esome": 5781,
      "ĠBa": 5782,
      "ctors": 5783,
      "Ġtraffic": 5784,
      "Ġpolic": 5785,
      "Ġissue": 5786,
      "Ġpatient": 5787,
      "Ġinnoc": 5788,
      "ked": 5789,
      "run": 5790,
      "Ġmam": 5791,
      "atory": 5792,
      "ett": 5793,
      "ĠMavis": 5794,
      "ĠBea": 5795,
      "ĠRog": 5796,
      "Ġshell": 5797,
      "ucking": 5798,
      "Ġsurely": 5799,
      "Ġgenerally": 5800,
      "ĠNext": 5801,
      "Ġmountains": 5802,
      "Ġhasta": 5803,
      "Ġ/": 5804,
      "Ġmaid": 5805,
      "Ġinit": 5806,
      "acher": 5807,
      "Ġpreschool": 5808,
      "Ġsorts": 5809,
      "Ġcopy": 5810,
      "ĠMargaret": 5811,
      "ĠAcademy": 5812,
      "Ġopinion": 5813,
      "Sarah": 5814,
      "acon": 5815,
      "ĠOff": 5816,
      "Ġexerc": 5817,
      "-P": 5818,
      "?]Ċ": 5819,
      "mark": 5820,
      "Ġsings": 5821,
      "Ġdeck": 5822,
      "Ġblame": 5823,
      "Ġdesk": 5824,
      "ĠAlright": 5825,
      "clears": 5826,
      "ĠJohnny": 5827,
      "engers": 5828,
      "Ġdrawn": 5829,
      "Ġvalue": 5830,
      "-F": 5831,
      "HER": 5832,
      "phe": 5833,
      "Ġtie": 5834,
      "Ġachie": 5835,
      "Ġcards": 5836,
      "ette": 5837,
      "ĠLo": 5838,
      "ĠFair": 5839,
      "ĠEst": 5840,
      "ĠThink": 5841,
      "Ġhearing": 5842,
      "Ġkidding": 5843,
      "Ġcreature": 5844,
      "Ġadminist": 5845,
      "Ġappearance": 5846,
      "isions": 5847,
      "ĠPers": 5848,
      "ability": 5849,
      "Ġdepart": 5850,
      "Ġcritic": 5851,
      "Ġpillow": 5852,
      "\"?Ċ": 5853,
      "-G": 5854,
      "Ġwinning": 5855,
      "Ġpred": 5856,
      "astern": 5857,
      "ima": 5858,
      "Ġune": 5859,
      "Ġdoors": 5860,
      "Ġancient": 5861,
      "ĠDoug": 5862,
      "ĠVict": 5863,
      "Ġpartner": 5864,
      "Ġthoughts": 5865,
      "Ġactive": 5866,
      "Ġleague": 5867,
      "Ġrespond": 5868,
      "Ġcurrently": 5869,
      "writer": 5870,
      "Ġnest": 5871,
      "ĠArab": 5872,
      "Ġeh": 5873,
      "Ġlies": 5874,
      "ulous": 5875,
      "Ġoblig": 5876,
      "Ġorganization": 5877,
      "Ġwagon": 5878,
      "bour": 5879,
      "essel": 5880,
      "Ġlem": 5881,
      "ĠSO": 5882,
      "ĠBal": 5883,
      "ĠBra": 5884,
      "andy": 5885,
      "Ġpros": 5886,
      "Ġuniversity": 5887,
      "Ġgrey": 5888,
      "Ġdisappeared": 5889,
      "Ġweapons": 5890,
      "ILL": 5891,
      "bell": 5892,
      "back": 5893,
      "Ġhiding": 5894,
      "utions": 5895,
      "ĠHuh": 5896,
      "Ġhadta": 5897,
      "Ġsomehow": 5898,
      "Ġentertain": 5899,
      "ĠProfess": 5900,
      "Ġhorsie": 5901,
      "Ġtaperecorder": 5902,
      "ĠLabour": 5903,
      "FF": 5904,
      "fall": 5905,
      "ani": 5906,
      "ĠSHE": 5907,
      "chief": 5908,
      "Ġresc": 5909,
      "ĠArgent": 5910,
      "ĠScar": 5911,
      "ĠMickey": 5912,
      "Ġindustry": 5913,
      "Ġtouched": 5914,
      "ĠBruce": 5915,
      "vest": 5916,
      "Ġyard": 5917,
      "ĠIll": 5918,
      "Ġnation": 5919,
      "Ġgoal": 5920,
      "ĠYear": 5921,
      "...?Ċ": 5922,
      "Ġbegins": 5923,
      "Ġkingdom": 5924,
      "Ġunclear": 5925,
      "Ġmixed": 5926,
      "Ġmirror": 5927,
      "ĠSea": 5928,
      "ĠMaine": 5929,
      "ĠOl": 5930,
      "Ġupside": 5931,
      "ĠNobody": 5932,
      "Ġfriendly": 5933,
      "ounce": 5934,
      "Ġplanned": 5935,
      "Ġdrove": 5936,
      "ÃŃt": 5937,
      "Ġmispronounced": 5938,
      "Ġbesides": 5939,
      "Ġproperty": 5940,
      "Ġopposite": 5941,
      "pret": 5942,
      "ĠLy": 5943,
      "Ġjun": 5944,
      "ĠKim": 5945,
      "Ġarran": 5946,
      "ggy": 5947,
      "Ġcats": 5948,
      "Ġarrested": 5949,
      "tr": 5950,
      "erable": 5951,
      "isher": 5952,
      "Ġpale": 5953,
      "ata": 5954,
      "Ġkick": 5955,
      "ĠNic": 5956,
      "ĠGers": 5957,
      "Ġclimate": 5958,
      "hens": 5959,
      "Ġballoon": 5960,
      "Ġcookies": 5961,
      "ĠEveryone": 5962,
      "ĠAustralian": 5963,
      "ĠMartin": 5964,
      ",you": 5965,
      "draw": 5966,
      "Ġtear": 5967,
      "Ġcad": 5968,
      "ĠNik": 5969,
      "Ġsilent": 5970,
      "ĠArthur": 5971,
      "Ġbuildings": 5972,
      "ĠColumb": 5973,
      "ĠLatin": 5974,
      "tt": 5975,
      "Ġtun": 5976,
      "Ġdim": 5977,
      "Ġfreed": 5978,
      "Ġthin": 5979,
      "ĠWhe": 5980,
      "Ġsmiling": 5981,
      "Ġapples": 5982,
      "Ġpresence": 5983,
      "ension": 5984,
      "Ġlegal": 5985,
      "Ġforgive": 5986,
      "ĠTommy": 5987,
      "ĠTurk": 5988,
      "SE": 5989,
      "friend": 5990,
      "Ġsink": 5991,
      "....": 5992,
      "ĠLong": 5993,
      "Ġspill": 5994,
      "Ġvessel": 5995,
      "Ġarrange": 5996,
      "Ġgrace": 5997,
      "Ġbiggest": 5998,
      "Ġuseful": 5999,
      "Ġdolls": 6000,
      "Ġshooting": 6001,
      "Ġpressure": 6002,
      "-H": 6003,
      "Ġpony": 6004,
      "ĠTre": 6005,
      "irlf": 6006,
      "ĠOoh": 6007,
      "Ġsheep": 6008,
      "Ġrushed": 6009,
      "Ġcomment": 6010,
      "Ġslide": 6011,
      "Ġmeth": 6012,
      "Ġdefinitely": 6013,
      "Ġspecific": 6014,
      "Ġdetect": 6015,
      "ĠCentral": 6016,
      "Ġweapon": 6017,
      "ĠDisney": 6018,
      "die": 6019,
      "Ġpra": 6020,
      "ĠBoth": 6021,
      "oses": 6022,
      "quar": 6023,
      "ARD": 6024,
      "ĠStud": 6025,
      "Ġadvert": 6026,
      "Ġowner": 6027,
      "Ġservant": 6028,
      "Ġfairly": 6029,
      "Ġescap": 6030,
      "Ġburning": 6031,
      "!âĢĿ": 6032,
      "iest": 6033,
      "last": 6034,
      "nan": 6035,
      "Ġchat": 6036,
      "oos": 6037,
      "ĠBes": 6038,
      "Ġscore": 6039,
      "Ġhurried": 6040,
      "Ġmedia": 6041,
      "Ġcupcake": 6042,
      "ĠToday": 6043,
      "ĠScientists": 6044,
      "uries": 6045,
      "{\\": 6046,
      "Ġtooth": 6047,
      "ancial": 6048,
      "ĠRad": 6049,
      "ĠFI": 6050,
      "ĠWhatever": 6051,
      "Ġshoulders": 6052,
      "ailed": 6053,
      "ĠAtt": 6054,
      "Ġdestroyed": 6055,
      "Ġroyal": 6056,
      "Of": 6057,
      "car": 6058,
      "cho": 6059,
      "ĠLater": 6060,
      "ĠEs": 6061,
      "Ġrank": 6062,
      "hank": 6063,
      "ĠâĢĻ": 6064,
      "ĠAsian": 6065,
      "ĠRev": 6066,
      "Ġrecording": 6067,
      "Ġlibrary": 6068,
      "irlfriend": 6069,
      "iner": 6070,
      "Ġnative": 6071,
      "Ġnorthern": 6072,
      "ĠSIS": 6073,
      "Ġwhining": 6074,
      "Ġcray": 6075,
      "Ġcrim": 6076,
      "Ġrare": 6077,
      "ĠAmeric": 6078,
      "Ġaccess": 6079,
      "Ġproduction": 6080,
      "Ġdarkness": 6081,
      "ropol": 6082,
      "Ġdelicious": 6083,
      "ĠFlorida": 6084,
      "Where": 6085,
      "Ġborder": 6086,
      "ĠBad": 6087,
      "Ġnotes": 6088,
      "uments": 6089,
      "Ġrout": 6090,
      "Ġboats": 6091,
      "Ġpregn": 6092,
      "Ġchop": 6093,
      "Ġevident": 6094,
      "ĠPortug": 6095,
      "Let": 6096,
      "tape": 6097,
      "Ġfier": 6098,
      "ĠSE": 6099,
      "ĠAri": 6100,
      "Ġagre": 6101,
      "Ġuns": 6102,
      "Ġcontrib": 6103,
      "Ġrealize": 6104,
      "Ġinvited": 6105,
      "ĠGroup": 6106,
      "ĠGeorg": 6107,
      "Ġpenny": 6108,
      "Ġexcitement": 6109,
      "Ġtradition": 6110,
      "ĠIrish": 6111,
      "ua": 6112,
      "Ġodd": 6113,
      "Ġlone": 6114,
      "Ġnuh": 6115,
      "ĠMen": 6116,
      "ĠHas": 6117,
      "alled": 6118,
      "ĠPre": 6119,
      "ĠChild": 6120,
      "Ġtreated": 6121,
      "Ġveh": 6122,
      "case": 6123,
      "Ġwine": 6124,
      "Ġpsych": 6125,
      "aron": 6126,
      "Ġreasons": 6127,
      "Ġstaff": 6128,
      "ĠBi": 6129,
      "urb": 6130,
      "Ġintellig": 6131,
      "Ġchap": 6132,
      "Ġburied": 6133,
      "Ġends": 6134,
      "Ġrelated": 6135,
      "whining": 6136,
      "Ġtransport": 6137,
      "Ġknocked": 6138,
      "whispers": 6139,
      "'am": 6140,
      ".C": 6141,
      "Tilda": 6142,
      "rown": 6143,
      "while": 6144,
      "Ġfan": 6145,
      "Ġlosing": 6146,
      "ashing": 6147,
      "Ġcloth": 6148,
      "ĠSocial": 6149,
      "angle": 6150,
      "Ġdesce": 6151,
      "Ġpassing": 6152,
      "Ġpupp": 6153,
      "Ġmainly": 6154,
      "Ġeffort": 6155,
      "utenant": 6156,
      "Ġtournament": 6157,
      "itter": 6158,
      "Ġfired": 6159,
      "Ġsole": 6160,
      "Ġdesert": 6161,
      "Ġhandsome": 6162,
      "Ġtowns": 6163,
      "ITH": 6164,
      "ĠRecords": 6165,
      "Ġsouthwestern": 6166,
      "ware": 6167,
      "Ġbicycle": 6168,
      "ĠWork": 6169,
      "essert": 6170,
      "angar": 6171,
      "Ġsetting": 6172,
      "Ġbreaking": 6173,
      "Ġthousands": 6174,
      "Ġfairy": 6175,
      "Ġexpression": 6176,
      "Ġvictory": 6177,
      "Ġaver": 6178,
      "Ġyo": 6179,
      "acha": 6180,
      "ĠLu": 6181,
      "ĠEaster": 6182,
      "ĠJung": 6183,
      "ague": 6184,
      "Ġchoo": 6185,
      "Ġclever": 6186,
      "ĠAtl": 6187,
      "ĠShar": 6188,
      "Ġapartment": 6189,
      "ĠEmperor": 6190,
      "Ġprofessor": 6191,
      "Nina": 6192,
      "Ġwra": 6193,
      "Ġsang": 6194,
      "Ġdessert": 6195,
      "Ġpor": 6196,
      "ĠHea": 6197,
      "osen": 6198,
      "Ġremoved": 6199,
      "Ġslipp": 6200,
      "ĠBrother": 6201,
      "Ġdese": 6202,
      "Ġdivor": 6203,
      "Ġenjoyed": 6204,
      "Ġmicro": 6205,
      "Ġpa": 6206,
      "Ġhunt": 6207,
      "urance": 6208,
      "ateg": 6209,
      "Ġafford": 6210,
      "angers": 6211,
      "za": 6212,
      "Ġfart": 6213,
      "rol": 6214,
      "Ġanti": 6215,
      "ĠFive": 6216,
      "Ġrug": 6217,
      "icket": 6218,
      "pton": 6219,
      "Ġacting": 6220,
      "Ġlistened": 6221,
      "Ġexciting": 6222,
      "Ġphilos": 6223,
      "ev": 6224,
      "ĠIm": 6225,
      "Ġbeer": 6226,
      "ĠLake": 6227,
      "ĠYoung": 6228,
      "Ġtruly": 6229,
      "Ġpoison": 6230,
      "Ġfourteen": 6231,
      "bridge": 6232,
      "Ġpresently": 6233,
      "Ġpriest": 6234,
      "Ġpositive": 6235,
      "IA": 6236,
      "ĠIra": 6237,
      "Ġloose": 6238,
      "ĠAT": 6239,
      "ĠBilly": 6240,
      "ĠYet": 6241,
      "ĠDiv": 6242,
      "ĠRE": 6243,
      "istry": 6244,
      "Ġcompos": 6245,
      "Ġpicking": 6246,
      "ĠClub": 6247,
      "Ġlarger": 6248,
      "ĠDidn": 6249,
      "Ġlearning": 6250,
      "Ġcitiz": 6251,
      "Ġpity": 6252,
      "Ġlake": 6253,
      "Ġhorn": 6254,
      "ĠBay": 6255,
      "ĠLand": 6256,
      "ĠLast": 6257,
      "Ġprogress": 6258,
      "Ġclown": 6259,
      "Ġunderstood": 6260,
      "onsense": 6261,
      "Ġexchan": 6262,
      "Ġrecorded": 6263,
      "Ġlessons": 6264,
      "Ġconcent": 6265,
      "Ġannoy": 6266,
      "Ġbuddy": 6267,
      "Ġwedding": 6268,
      "Ġbodies": 6269,
      "Ġcircumst": 6270,
      "some": 6271,
      "iture": 6272,
      "ĠMake": 6273,
      "Ġreview": 6274,
      "ĠBull": 6275,
      "Ġwhoops": 6276,
      "tery": 6277,
      "ĠNaz": 6278,
      "Ġprefer": 6279,
      "Ġprevious": 6280,
      "Ġseriously": 6281,
      "ĠArch": 6282,
      "ĠShow": 6283,
      "ĠSomeone": 6284,
      "Ġcreate": 6285,
      "Ġdirectly": 6286,
      "ĠRemember": 6287,
      "Ġwitness": 6288,
      "wers": 6289,
      "ingu": 6290,
      "Ġgy": 6291,
      "ĠAmy": 6292,
      "ĠPop": 6293,
      "ĠNOT": 6294,
      "Ġsuffe": 6295,
      "Ġsports": 6296,
      "Ġcreatures": 6297,
      "Ġexpress": 6298,
      "Ġpipe": 6299,
      "Ġsettlement": 6300,
      "heast": 6301,
      "Ġcone": 6302,
      "oned": 6303,
      "Ġpil": 6304,
      "icide": 6305,
      "ĠHill": 6306,
      "ĠRO": 6307,
      "ulk": 6308,
      "ulty": 6309,
      "Ġshook": 6310,
      "eping": 6311,
      "ending": 6312,
      "Ġshame": 6313,
      "Ġteaching": 6314,
      "Ġhoping": 6315,
      "Ġfields": 6316,
      "looks": 6317,
      "Ġsnap": 6318,
      "Be": 6319,
      "goes": 6320,
      "ano": 6321,
      "Ġpause": 6322,
      "ilty": 6323,
      "Ġcrash": 6324,
      "Ġkilling": 6325,
      "ĠWentworth": 6326,
      "Ġsplendid": 6327,
      "'la": 6328,
      "Ġast": 6329,
      "unts": 6330,
      "gel": 6331,
      "Ġthrown": 6332,
      "Ġchain": 6333,
      "Ġrefused": 6334,
      "ervation": 6335,
      "Ġfortune": 6336,
      "!âĢĻ": 6337,
      "isa": 6338,
      "Ġdump": 6339,
      "Ġfaint": 6340,
      "Ġpants": 6341,
      "ĠTam": 6342,
      "andra": 6343,
      "âĢĻre": 6344,
      "okes": 6345,
      "Ġsymp": 6346,
      "Ġgovernor": 6347,
      "Ġcooking": 6348,
      "Ġformula": 6349,
      "Ġindependent": 6350,
      "stein": 6351,
      "UCK": 6352,
      "Ġaim": 6353,
      "ĠFoot": 6354,
      "Ġrat": 6355,
      "Ġquit": 6356,
      "Ġfeather": 6357,
      "ĠInstit": 6358,
      "Ġfinds": 6359,
      "Ġbadly": 6360,
      "Ġcutting": 6361,
      "Ġlocation": 6362,
      "Ġrequest": 6363,
      "Ġrubber": 6364,
      "TH": 6365,
      "gers": 6366,
      "Ġtough": 6367,
      "ĠBren": 6368,
      "ooking": 6369,
      "Ġvent": 6370,
      "âĢĻm": 6371,
      "Ġprepar": 6372,
      "Ġchosen": 6373,
      "Ġresponsible": 6374,
      "lict": 6375,
      "Ġ{\\": 6376,
      "Ġsons": 6377,
      "ann": 6378,
      "Ġpump": 6379,
      "Ġnib": 6380,
      "ĠNana": 6381,
      "istic": 6382,
      "ĠKN": 6383,
      "ontin": 6384,
      "ĠAnne": 6385,
      "Ġincludes": 6386,
      "Ġinterrupt": 6387,
      "Ġtransfer": 6388,
      "Ġchecked": 6389,
      "ĠRamsey": 6390,
      "iliar": 6391,
      "Ġpalace": 6392,
      "Ġdistributed": 6393,
      "avaria": 6394,
      "had": 6395,
      "Ġgirlfriend": 6396,
      "acle": 6397,
      "see": 6398,
      "ĠBavaria": 6399,
      "ĠKen": 6400,
      "Ġcontr": 6401,
      "ointment": 6402,
      "Ġmission": 6403,
      "Ġdemon": 6404,
      "Ġcereal": 6405,
      "Ġmaterial": 6406,
      "ĠMajesty": 6407,
      "war": 6408,
      "Ġmap": 6409,
      "ĠBud": 6410,
      "Ġplus": 6411,
      "emic": 6412,
      "Ġpeas": 6413,
      "Ġchampion": 6414,
      "ERS": 6415,
      "ANG": 6416,
      "anches": 6417,
      "-bye": 6418,
      "ĠPhilip": 6419,
      "Ġadvant": 6420,
      "Ġresults": 6421,
      "ĠRodger": 6422,
      "Ġnewspaper": 6423,
      "hem": 6424,
      "Ġpiano": 6425,
      "ĠAlf": 6426,
      "gging": 6427,
      "Ġraise": 6428,
      "ĠAlice": 6429,
      "ucle": 6430,
      "ception": 6431,
      "Ġprovince": 6432,
      "ĠDanny": 6433,
      "Ġentirely": 6434,
      "Ġbon": 6435,
      "ĠSwe": 6436,
      "ĠWild": 6437,
      "Ġchew": 6438,
      "Ġconditions": 6439,
      "looking": 6440,
      "ios": 6441,
      "Ġtal": 6442,
      "hamed": 6443,
      "Ġmort": 6444,
      "Ġhomes": 6445,
      "ĠHoney": 6446,
      "ĠEach": 6447,
      "elia": 6448,
      "Ġtroops": 6449,
      "Ġpaying": 6450,
      "Ġjobs": 6451,
      "Ġreceive": 6452,
      "ĠTeam": 6453,
      "Ġdefeated": 6454,
      "Ġkissed": 6455,
      "Ġextremely": 6456,
      "rate": 6457,
      "rough": 6458,
      "Ġsigh": 6459,
      "Ġcode": 6460,
      "Ġnomin": 6461,
      "ĠBern": 6462,
      "ĠDire": 6463,
      "Ġspo": 6464,
      "Ġbold": 6465,
      "Ġotherwise": 6466,
      "Ġsche": 6467,
      "Ġperform": 6468,
      "Ġstands": 6469,
      "Ġterrit": 6470,
      "Ġdelay": 6471,
      "ĠShould": 6472,
      "ĠSwiss": 6473,
      "Ġcredit": 6474,
      "ĠHAVE": 6475,
      "angaroo": 6476,
      "cries": 6477,
      "nds": 6478,
      "ĠDet": 6479,
      "Ġplates": 6480,
      "Ġrecently": 6481,
      "Ġpulling": 6482,
      "Ġrange": 6483,
      "Ġselling": 6484,
      "Ġpainted": 6485,
      "Ġdescri": 6486,
      "Ġdetermined": 6487,
      "Ġjacket": 6488,
      ")}": 6489,
      "cles": 6490,
      "yo": 6491,
      "Ġwestern": 6492,
      "referent": 6493,
      "sters": 6494,
      "ĠRa": 6495,
      "ĠGal": 6496,
      "ĠUK": 6497,
      "Ġcontent": 6498,
      "Ġdesper": 6499,
      "Ġmeters": 6500,
      "umbling": 6501,
      "Ġtransl": 6502,
      "playing": 6503,
      "ĠHelp": 6504,
      "Ġdocument": 6505,
      "Ġlonely": 6506,
      "ipe": 6507,
      "Ġdozen": 6508,
      "ĠHad": 6509,
      "Ġsees": 6510,
      "Ġrush": 6511,
      "--\"Ċ": 6512,
      "Ġappointed": 6513,
      "Ġwaves": 6514,
      "Ġhurts": 6515,
      "ĠCarl": 6516,
      "ĠINV": 6517,
      "Ġdescribed": 6518,
      "Ġslept": 6519,
      "ĠCastle": 6520,
      "Ġalphabet": 6521,
      "Ġnuhhuh": 6522,
      "-and": 6523,
      "An": 6524,
      "Ġaid": 6525,
      "Ġcrew": 6526,
      "ĠInt": 6527,
      "ĠSil": 6528,
      "ĠWITH": 6529,
      "ulations": 6530,
      "Ġguilty": 6531,
      "thel": 6532,
      "ALL": 6533,
      "Ġconcert": 6534,
      "Ġcloset": 6535,
      "Ġsuggested": 6536,
      "Ġcollection": 6537,
      "Ġlocked": 6538,
      "Ġtender": 6539,
      "Ġsuffered": 6540,
      "-le": 6541,
      "Cause": 6542,
      "RA": 6543,
      "Who": 6544,
      "book": 6545,
      "dess": 6546,
      "vy": 6547,
      "Ġwid": 6548,
      "orge": 6549,
      "Ġpure": 6550,
      "Ġrent": 6551,
      "ĠWatch": 6552,
      "ĠGra": 6553,
      "Ġjew": 6554,
      "ĠJam": 6555,
      "umn": 6556,
      "Ġguitar": 6557,
      "igned": 6558,
      "Ġdrama": 6559,
      "Ġsignific": 6560,
      "Ġcharacters": 6561,
      "ĠHungry": 6562,
      "Ġscratch": 6563,
      "ĠPrincess": 6564,
      ".--": 6565,
      "Ġtask": 6566,
      "Ġdust": 6567,
      "ĠSH": 6568,
      "ĠLie": 6569,
      "Ġclip": 6570,
      "Ġbranches": 6571,
      "Ġresist": 6572,
      "Ġdivided": 6573,
      "Ġissues": 6574,
      "ĠVermont": 6575,
      "ĠDepartment": 6576,
      "Ġsuspic": 6577,
      "Ġappreciate": 6578,
      "Whin": 6579,
      "bor": 6580,
      "fle": 6581,
      "Ã¦": 6582,
      "Ġ]": 6583,
      "Ġsorrow": 6584,
      "athered": 6585,
      "Ġbeans": 6586,
      "ĠALL": 6587,
      "Ġshel": 6588,
      "Ġconv": 6589,
      "issa": 6590,
      "âĢĻll": 6591,
      "Ġeaten": 6592,
      "Ġstudent": 6593,
      "Ġsquee": 6594,
      "bbed": 6595,
      "Ġshouted": 6596,
      "Ġperformance": 6597,
      "-V": 6598,
      "yr": 6599,
      "Ġtim": 6600,
      "Ġpile": 6601,
      "ĠWin": 6602,
      "Ġug": 6603,
      "ĠOw": 6604,
      "Ġours": 6605,
      "Ġeats": 6606,
      "Ġbitter": 6607,
      "Ġairport": 6608,
      "Ġreports": 6609,
      "Ġdefend": 6610,
      "ĠJacob": 6611,
      "Ġgiraffe": 6612,
      "Ġbid": 6613,
      "Ġbeast": 6614,
      "Ġaside": 6615,
      "ĠDown": 6616,
      "ĠEthel": 6617,
      "Ġrac": 6618,
      "Ġconference": 6619,
      "Ġscreen": 6620,
      "Ġmighty": 6621,
      "Ġswear": 6622,
      "Ġhidden": 6623,
      "Ġpeanut": 6624,
      ".A": 6625,
      "RY": 6626,
      "Ġbones": 6627,
      "ĠShan": 6628,
      "oles": 6629,
      "Ġroles": 6630,
      "Ġbranch": 6631,
      "ĠProt": 6632,
      "ĠAnyway": 6633,
      "Ġavoid": 6634,
      "Ġdesigned": 6635,
      "Ġincrease": 6636,
      "Ġmagazine": 6637,
      "Ġtied": 6638,
      "Ġdough": 6639,
      "Ġnail": 6640,
      "uties": 6641,
      "stone": 6642,
      "ĠKansas": 6643,
      "Ġgrant": 6644,
      "Ġgrate": 6645,
      "Ġglance": 6646,
      "Ġhorrible": 6647,
      "Ġadmit": 6648,
      "IE": 6649,
      "magn": 6650,
      "rot": 6651,
      "owing": 6652,
      "ĠTurn": 6653,
      "ĠPra": 6654,
      "emies": 6655,
      "--\"": 6656,
      "Ġclay": 6657,
      "ĠâĢĶ": 6658,
      "Ġshake": 6659,
      "ĠAsh": 6660,
      "Ġcrossed": 6661,
      "Ġfellows": 6662,
      "Ġauthority": 6663,
      "Ġpackage": 6664,
      "Ġproducer": 6665,
      "Ġfalse": 6666,
      "Whinney": 6667,
      "ĠPL": 6668,
      "ĠLar": 6669,
      "ĠJun": 6670,
      "ĠJones": 6671,
      "Ġbecomes": 6672,
      "Ġbaseball": 6673,
      "Ġincident": 6674,
      "Ġpossess": 6675,
      "Ġprize": 6676,
      "Ġsales": 6677,
      "Ġhonour": 6678,
      "Ġattacked": 6679,
      "Ġprovide": 6680,
      "dro": 6681,
      "Ġder": 6682,
      "Ġfant": 6683,
      "Ġgather": 6684,
      "Ġhipp": 6685,
      "ĠAng": 6686,
      "Ġwealth": 6687,
      "ĠMusic": 6688,
      "Ġassoci": 6689,
      "Ġspare": 6690,
      "Ġchase": 6691,
      "apping": 6692,
      "Ġprogramme": 6693,
      "Ġaffair": 6694,
      "Ġslightly": 6695,
      "Ġcounter": 6696,
      "KE": 6697,
      "ĠSa": 6698,
      "ĠYOUR": 6699,
      "ĠOpen": 6700,
      "Ġvalley": 6701,
      "ĠChic": 6702,
      "anche": 6703,
      "Ġtreasure": 6704,
      "comune": 6705,
      "ĠRepublican": 6706,
      "Ġseparate": 6707,
      "Ġinnocent": 6708,
      "esota": 6709,
      "omed": 6710,
      "owder": 6711,
      "Ġstove": 6712,
      "ĠBon": 6713,
      "Ġunf": 6714,
      "Ġfinancial": 6715,
      "ancing": 6716,
      "Ġsurface": 6717,
      "Ġinvol": 6718,
      "ĠBlue": 6719,
      "umbled": 6720,
      "Ġfailure": 6721,
      "Ġcowboy": 6722,
      "Ġbeneath": 6723,
      "ĠSenate": 6724,
      "Ġstranger": 6725,
      "ĠProfessor": 6726,
      "Ġlic": 6727,
      "amily": 6728,
      "apt": 6729,
      "ĠUs": 6730,
      "Ġthrone": 6731,
      "which": 6732,
      "ĠJersey": 6733,
      "ds": 6734,
      "walk": 6735,
      "Ġgay": 6736,
      "ĠSuch": 6737,
      "ĠHaw": 6738,
      "raine": 6739,
      "ĠGro": 6740,
      "abb": 6741,
      "Ġconce": 6742,
      "Ġoldest": 6743,
      "Ġsciss": 6744,
      "ESS": 6745,
      "Ġrestaur": 6746,
      "Ġsymb": 6747,
      "Ġproposed": 6748,
      "ĠBetty": 6749,
      "Ġfolks": 6750,
      "Ġcottage": 6751,
      "'...Ċ": 6752,
      "Here": 6753,
      "ko": 6754,
      "ĠBook": 6755,
      "stead": 6756,
      "Ġspite": 6757,
      "Ġbrush": 6758,
      "Ġbug": 6759,
      "aws": 6760,
      "ĠEverybody": 6761,
      "ĠReport": 6762,
      "Ġbelongs": 6763,
      "Ġburned": 6764,
      "ĠSteve": 6765,
      "ĠMinnesota": 6766,
      "put": 6767,
      "Ġx": 6768,
      "esh": 6769,
      "stra": 6770,
      "eps": 6771,
      "ĠVol": 6772,
      "Ġcovers": 6773,
      "Ġremains": 6774,
      "Ġanswers": 6775,
      "noise": 6776,
      "Ġexplained": 6777,
      "ĠTele": 6778,
      "Ġoriginally": 6779,
      "Ġactivist": 6780,
      "Ġdrugs": 6781,
      "Ġcanton": 6782,
      "Ġnearer": 6783,
      "Ġdunno": 6784,
      "Did": 6785,
      "upp": 6786,
      "vo": 6787,
      "Ġlob": 6788,
      "ĠSue": 6789,
      "ĠAwards": 6790,
      "Ġforms": 6791,
      "Ġseats": 6792,
      "ĠFree": 6793,
      "Ġracing": 6794,
      "Ġgettin": 6795,
      "Ġwhenever": 6796,
      "Ġconsequ": 6797,
      "Ġcheeks": 6798,
      "Ġfamiliar": 6799,
      "Ġobtain": 6800,
      "ĠLeon": 6801,
      "ĠGrace": 6802,
      "Ġtreatment": 6803,
      "ĠMaggie": 6804,
      "pensive": 6805,
      "-a": 6806,
      "Ah": 6807,
      "iation": 6808,
      "Ġgained": 6809,
      "Ġgathered": 6810,
      "aly": 6811,
      "Ġknee": 6812,
      "Ġcomedy": 6813,
      "Ġparties": 6814,
      "ubs": 6815,
      "ĠLooks": 6816,
      "ika": 6817,
      "Ġstepped": 6818,
      "Ġstructure": 6819,
      "Ġsafely": 6820,
      "ĠJerry": 6821,
      "Ġpizza": 6822,
      "Ġdreadful": 6823,
      "Ġchemical": 6824,
      "Ġobliged": 6825,
      "-W": 6826,
      "lings": 6827,
      "mouth": 6828,
      "Ġwicked": 6829,
      "Ġgently": 6830,
      "lyn": 6831,
      "ĠDON": 6832,
      "Ġhappiness": 6833,
      "Ġmoments": 6834,
      "Ġattached": 6835,
      "Ġswall": 6836,
      "Ġhated": 6837,
      "inois": 6838,
      "Ġcompanion": 6839,
      "Ġperformed": 6840,
      "Ġchampionship": 6841,
      "Ġhabit": 6842,
      "ĠAk": 6843,
      "ĠWater": 6844,
      "Ġkangaroo": 6845,
      "Ġsevere": 6846,
      "ĠRun": 6847,
      "geon": 6848,
      "ĠHealth": 6849,
      "ĠStand": 6850,
      "Ġhelps": 6851,
      "ĠSpir": 6852,
      "ĠBenj": 6853,
      "scream": 6854,
      "Ġholiday": 6855,
      "Ġscreaming": 6856,
      "uclear": 6857,
      "GFA": 6858,
      "hell": 6859,
      "Ġyum": 6860,
      "ora": 6861,
      "Ġnick": 6862,
      "icate": 6863,
      "Ġrefe": 6864,
      "ĠWrest": 6865,
      "ĠOli": 6866,
      "Ġcommer": 6867,
      "berry": 6868,
      "Ġcomplet": 6869,
      "Ġrooms": 6870,
      "Ġpassengers": 6871,
      "ĠIndians": 6872,
      "ĠProd": 6873,
      "Ġreplaced": 6874,
      "ĠAnton": 6875,
      "Ġmurdered": 6876,
      "Ġaverage": 6877,
      "To": 6878,
      "works": 6879,
      "Ġlack": 6880,
      "Ġlink": 6881,
      "ato": 6882,
      "ĠPower": 6883,
      "ĠPerson": 6884,
      "otted": 6885,
      "Ġrelief": 6886,
      "Ġstudies": 6887,
      "-de": 6888,
      "ĠTrump": 6889,
      "----------------": 6890,
      "ĠBertha": 6891,
      "Ġinfluence": 6892,
      "ĠChicago": 6893,
      "Ġsouthern": 6894,
      "orious": 6895,
      "ĠSC": 6896,
      "rier": 6897,
      "Ġmeasure": 6898,
      "usted": 6899,
      "ĠOH": 6900,
      "ela": 6901,
      "igan": 6902,
      "Ġjustice": 6903,
      "Ġvain": 6904,
      "Ġgotten": 6905,
      "ART": 6906,
      "Ġproved": 6907,
      "Ġboom": 6908,
      "Ġqueer": 6909,
      "Ġchallen": 6910,
      "OUT": 6911,
      "UNC": 6912,
      "-pitched": 6913,
      "ĠAgain": 6914,
      "Ġproperly": 6915,
      "Ġwashers": 6916,
      "Ġfeatures": 6917,
      "ĠIllinois": 6918,
      "Ġfreedom": 6919,
      "-R": 6920,
      "Ã¤": 6921,
      "Ġmate": 6922,
      "icing": 6923,
      "Ġreck": 6924,
      "akin": 6925,
      "Ġguests": 6926,
      "Ġchose": 6927,
      "bef": 6928,
      "Ġreality": 6929,
      "ĠEduc": 6930,
      "Ġrepresented": 6931,
      "Ġhunting": 6932,
      "Ġfurniture": 6933,
      "Ġindividual": 6934,
      "ĠAmericans": 6935,
      "Ġsympat": 6936,
      "name": 6937,
      "hemat": 6938,
      "Ġwitch": 6939,
      "ĠTon": 6940,
      "ĠSong": 6941,
      "eable": 6942,
      "olar": 6943,
      "Ġboot": 6944,
      "Ġenemies": 6945,
      "Ġunfortun": 6946,
      "Ġpride": 6947,
      "Ġproof": 6948,
      "iley": 6949,
      "ĠZe": 6950,
      "OULD": 6951,
      "Ġconfess": 6952,
      "Ġexperi": 6953,
      "ĠPolice": 6954,
      "Ġï¿½ï¿½ï¿½ï¿½ï¿½ï¿½ï¿½": 6955,
      "Ġetc": 6956,
      "ĠService": 6957,
      "-D": 6958,
      "-se": 6959,
      "WE": 6960,
      "ĠTar": 6961,
      "Ġrear": 6962,
      "Ġreward": 6963,
      "ĠHmm": 6964,
      "ĠPo": 6965,
      "Ġknees": 6966,
      "umes": 6967,
      "Ġhug": 6968,
      "merican": 6969,
      "ocr": 6970,
      "Ġsits": 6971,
      "Ġpointed": 6972,
      "Ġrelax": 6973,
      "Ġlifted": 6974,
      "Ġobserved": 6975,
      "Ġbroadcast": 6976,
      "Ġsource": 6977,
      "Ġromantic": 6978,
      "Ġpregnant": 6979,
      "Yeah": 6980,
      "Ġoops": 6981,
      "erves": 6982,
      "ĠBang": 6983,
      "Ġmeas": 6984,
      "Ġsport": 6985,
      "Ġ(,": 6986,
      "Ġguest": 6987,
      "Ġunha": 6988,
      "Ġrecomm": 6989,
      "eaking": 6990,
      "Ġsooner": 6991,
      ",--Ċ": 6992,
      "Ġrecognize": 6993,
      "Ġdelighted": 6994,
      "Ġsplit": 6995,
      "ĠVirginia": 6996,
      "?'": 6997,
      "Ġtire": 6998,
      "Ġaston": 6999,
      "Ġboo": 7000,
      "ĠIII": 7001,
      "ooke": 7002,
      "ĠBird": 7003,
      "Ġability": 7004,
      "rane": 7005,
      "Ġresident": 7006,
      "Ġdrown": 7007,
      "Ġdrunk": 7008,
      "Ġwarri": 7009,
      "Ġwarning": 7010,
      "pointing": 7011,
      "Ġstatement": 7012,
      "ĠMexican": 7013,
      "Ġcircumstances": 7014,
      "'M": 7015,
      "coh": 7016,
      "mpt": 7017,
      "yellow": 7018,
      "Ġ?Ċ": 7019,
      "ĠHER": 7020,
      "rog": 7021,
      "ĠHead": 7022,
      "ĠAndy": 7023,
      "Ġplayers": 7024,
      "iple": 7025,
      "Ġappears": 7026,
      "Ġbegun": 7027,
      "Ġmiserable": 7028,
      "ropolitan": 7029,
      "ghan": 7030,
      "orter": 7031,
      "ĠTry": 7032,
      "Ġwhist": 7033,
      "ĠOb": 7034,
      "ĠGames": 7035,
      "Ġexpensive": 7036,
      "ĠKnow": 7037,
      "Ġagent": 7038,
      "Ġclient": 7039,
      "neath": 7040,
      "Ġwaved": 7041,
      "Ġincred": 7042,
      "Ġmarked": 7043,
      "ĠDaniel": 7044,
      "ĠRoad": 7045,
      "/Mac": 7046,
      "Ġrapidly": 7047,
      "Ġmicrophone": 7048,
      "ĠInstitute": 7049,
      "BER": 7050,
      "UM": 7051,
      "When": 7052,
      "rets": 7053,
      "Ġgang": 7054,
      "Ġstack": 7055,
      "ĠJr": 7056,
      "umed": 7057,
      "Ġcris": 7058,
      "Ġruled": 7059,
      "Ġdiscussion": 7060,
      "Ġintroduced": 7061,
      "olarship": 7062,
      "Ġscissors": 7063,
      "ĠOliver": 7064,
      "ĠWoo": 7065,
      "Ġstole": 7066,
      "ĠBour": 7067,
      "rose": 7068,
      "Ġalarm": 7069,
      "Ġspark": 7070,
      "ĠKir": 7071,
      "Ġmayor": 7072,
      "Ġbreast": 7073,
      "inson": 7074,
      "Ġboxes": 7075,
      "Ġconflict": 7076,
      "priate": 7077,
      "ĠPhilipp": 7078,
      "Ġsupported": 7079,
      "Ġassistant": 7080,
      "Ġoccurred": 7081,
      "overy": 7082,
      "wan": 7083,
      "rels": 7084,
      "Ġfishing": 7085,
      "Ġgain": 7086,
      "Ġwashed": 7087,
      "ĠJUST": 7088,
      "icking": 7089,
      "pshire": 7090,
      "Ġkeys": 7091,
      "Ġresour": 7092,
      "Ġtravell": 7093,
      "ĠArmen": 7094,
      "Ġconduct": 7095,
      "ylvan": 7096,
      "Ġdoggy": 7097,
      "ĠIraq": 7098,
      "ooth": 7099,
      "Ġhes": 7100,
      "imp": 7101,
      "ĠDE": 7102,
      "Ġspect": 7103,
      "Ġfever": 7104,
      "ĠVo": 7105,
      "Ġdrum": 7106,
      "ONE": 7107,
      "ĠBelg": 7108,
      "ĠJewish": 7109,
      "ĠHurry": 7110,
      "ĠBrennan": 7111,
      "ĠBenjamin": 7112,
      "!--": 7113,
      "sounds": 7114,
      "Ġcraw": 7115,
      "ĠPier": 7116,
      "Ġrope": 7117,
      "Ġaffect": 7118,
      "Ġens": 7119,
      "atherine": 7120,
      "Ġcriter": 7121,
      "Ġsticking": 7122,
      "Ġreply": 7123,
      "Ġpolitics": 7124,
      "who": 7125,
      "Ġpropos": 7126,
      "ĠÃĸ": 7127,
      "Ġbalance": 7128,
      "ĠHeaven": 7129,
      "-ha": 7130,
      "gues": 7131,
      "heim": 7132,
      "Ġyelling": 7133,
      "Ġfully": 7134,
      "ĠIan": 7135,
      "Ġthorough": 7136,
      "ĠMiddle": 7137,
      "urd": 7138,
      "ĠNight": 7139,
      "ĠFound": 7140,
      "Ġrang": 7141,
      "hib": 7142,
      "ĠKate": 7143,
      "avy": 7144,
      "Ġawake": 7145,
      "Ġlanded": 7146,
      "ĠBesides": 7147,
      "Ġnibbled": 7148,
      "Ġugly": 7149,
      "OP": 7150,
      "ias": 7151,
      "ĠMove": 7152,
      "ĠWere": 7153,
      "ĠInter": 7154,
      "adder": 7155,
      "Ġattended": 7156,
      "GRF": 7157,
      "Ġapproach": 7158,
      "Ġrequired": 7159,
      "Ġaccepted": 7160,
      "Ġneighborhood": 7161,
      "ĠFootball": 7162,
      "/BR": 7163,
      "cest": 7164,
      "Ġmuseum": 7165,
      "ingly": 7166,
      "lection": 7167,
      "ĠBus": 7168,
      "Ġash": 7169,
      "Ġashamed": 7170,
      "intend": 7171,
      "Ġdollar": 7172,
      "Ġlately": 7173,
      "Ġservants": 7174,
      "Ġroads": 7175,
      "Ġdefeat": 7176,
      "Ġeffects": 7177,
      "Ġsuffering": 7178,
      "Ġimprove": 7179,
      "ĠJennie": 7180,
      "Ġarranged": 7181,
      "ĠKNOW": 7182,
      "/ER": 7183,
      "Ġaye": 7184,
      "Ġmac": 7185,
      "Ġbears": 7186,
      "ĠSl": 7187,
      "ĠSouthern": 7188,
      "ĠWalk": 7189,
      "ĠCub": 7190,
      "Ġ--": 7191,
      "ĠGun": 7192,
      "Ġimpl": 7193,
      "Ġhorror": 7194,
      "Ġsounded": 7195,
      "Ġtribe": 7196,
      "shine": 7197,
      "Ġsending": 7198,
      "ĠLeave": 7199,
      "Ġgarage": 7200,
      "Ġacquaint": 7201,
      "keeper": 7202,
      "&gt": 7203,
      "bow": 7204,
      "nels": 7205,
      "ture": 7206,
      "Ġox": 7207,
      "hara": 7208,
      "Ġbrill": 7209,
      "Ġthir": 7210,
      "ĠSpen": 7211,
      "Ġ[\"": 7212,
      "ĠCy": 7213,
      "ĠPac": 7214,
      "ĠPoor": 7215,
      "ĠLuke": 7216,
      "Ġsaving": 7217,
      "Ġjeal": 7218,
      "Ġcomr": 7219,
      "Ġgray": 7220,
      "ĠAlso": 7221,
      "Ġgreet": 7222,
      "Ġtrem": 7223,
      "Ġjumping": 7224,
      "Ġcondu": 7225,
      "Ġprovided": 7226,
      "Ġmurm": 7227,
      "Ġoperation": 7228,
      "Ġphotograph": 7229,
      "Ġarchite": 7230,
      "Ġjournalist": 7231,
      "Ġpant": 7232,
      "omy": 7233,
      "ĠTay": 7234,
      "ĠARE": 7235,
      "ĠWonder": 7236,
      "ĠBam": 7237,
      "ĠRIGHT": 7238,
      "ĠStella": 7239,
      "Ġdesire": 7240,
      "ĠAlan": 7241,
      "ĠJanet": 7242,
      "ĠClara": 7243,
      "Ġinstit": 7244,
      "Ġwrites": 7245,
      "Ġlesson": 7246,
      "Ġillustr": 7247,
      "ĠCommittee": 7248,
      "ĠJackson": 7249,
      "Ġpresidential": 7250,
      "Ġcritical": 7251,
      "Ġelectric": 7252,
      "sembly": 7253,
      "'RE": 7254,
      "LA": 7255,
      "box": 7256,
      "gency": 7257,
      "Ġfile": 7258,
      "ali": 7259,
      "ĠAB": 7260,
      "ĠWat": 7261,
      "ĠDam": 7262,
      "uls": 7263,
      "ques": 7264,
      "ĠVen": 7265,
      "mann": 7266,
      "Ġunderneath": 7267,
      "Ġrecords": 7268,
      "Ġhoped": 7269,
      "Ġdisappointed": 7270,
      "ĠNorway": 7271,
      "Ġrecognized": 7272,
      "Ġpersu": 7273,
      "Ġawarded": 7274,
      "Ġlatter": 7275,
      "ĠStephen": 7276,
      "lies": 7277,
      "mi": 7278,
      "uj": 7279,
      "Ġgoals": 7280,
      "ĠOs": 7281,
      "Ġtrunk": 7282,
      "Ġapparently": 7283,
      "Ġslipped": 7284,
      "chair": 7285,
      "whines": 7286,
      "Ġthrowing": 7287,
      "Ġfleet": 7288,
      "Ġdaily": 7289,
      "Ġdamage": 7290,
      "Ġautom": 7291,
      "Ġrevolution": 7292,
      "Ġvirus": 7293,
      "Ġelder": 7294,
      "Ġtip": 7295,
      "Ġobey": 7296,
      "Ġbark": 7297,
      "only": 7298,
      "Ġtoast": 7299,
      "Ġstared": 7300,
      "ĠUP": 7301,
      "Ġsecure": 7302,
      "Ġminor": 7303,
      "Ġstops": 7304,
      "Ġaircraft": 7305,
      "ĠLeo": 7306,
      "REAM": 7307,
      "Ġeventually": 7308,
      "Ġforests": 7309,
      "Ġmusical": 7310,
      "ĠBattle": 7311,
      "Ġinvestigation": 7312,
      "aunton": 7313,
      "-to": 7314,
      "tles": 7315,
      "zing": 7316,
      "Ġinha": 7317,
      "oli": 7318,
      "olen": 7319,
      "ints": 7320,
      "Ġprecious": 7321,
      "alend": 7322,
      "ĠFloss": 7323,
      "ĠWhoa": 7324,
      "Ġestate": 7325,
      "-looking": 7326,
      "Ġhorseshoe": 7327,
      "ĠScottish": 7328,
      "Ã³n": 7329,
      "ĠUkraine": 7330,
      "ĠBundle": 7331,
      "Ġwondered": 7332,
      "gment": 7333,
      "Ġtale": 7334,
      "ĠTen": 7335,
      "ĠWars": 7336,
      "entine": 7337,
      "Ġsocks": 7338,
      "ĠGET": 7339,
      "Ġspr": 7340,
      "ender": 7341,
      "Ġbron": 7342,
      "rang": 7343,
      "Ġshower": 7344,
      "Ġcommittee": 7345,
      "ĠCarle": 7346,
      "Ġdiamond": 7347,
      "Ġadvance": 7348,
      "Ġrolling": 7349,
      "ĠEmily": 7350,
      "OOK": 7351,
      "ĠJews": 7352,
      "talking": 7353,
      "Ġadvantage": 7354,
      "Ġjealous": 7355,
      "',": 7356,
      "och": 7357,
      "reck": 7358,
      "Ġmama": 7359,
      "Ġpushing": 7360,
      "Ġthrill": 7361,
      "Ġbeep": 7362,
      "ĠSon": 7363,
      "Ġhers": 7364,
      "ruct": 7365,
      "Ġappeal": 7366,
      "Ġkindly": 7367,
      "Ġsupply": 7368,
      "Ġbelief": 7369,
      "ouncill": 7370,
      "ologist": 7371,
      "Ġengaged": 7372,
      "Ġmunicipal": 7373,
      "-house": 7374,
      "Ġnetwork": 7375,
      "ylvania": 7376,
      "-k": 7377,
      "?âĢĻ": 7378,
      "Are": 7379,
      "UE": 7380,
      "Ġopt": 7381,
      "omer": 7382,
      "ĠSn": 7383,
      "Ġanger": 7384,
      "Ġmyst": 7385,
      "Ġseek": 7386,
      "ĠUE": 7387,
      "orney": 7388,
      "Ġstandard": 7389,
      "Ġdecor": 7390,
      "Ġmagnetic": 7391,
      "Ġwhispers": 7392,
      "-law": 7393,
      "Ã¡n": 7394,
      "Ġearnest": 7395,
      "Ġfocus": 7396,
      "Ġadventure": 7397,
      "ĠRevolution": 7398,
      "-th": 7399,
      "hus": 7400,
      "shire": 7401,
      "turns": 7402,
      "Ġpup": 7403,
      "ĠTem": 7404,
      "ĠNa": 7405,
      "ĠJa": 7406,
      "ulate": 7407,
      "Ġspin": 7408,
      "ĠStone": 7409,
      "ĠStaunton": 7410,
      "Ġgreatly": 7411,
      "Ġfarmer": 7412,
      "Ġimpati": 7413,
      "Ġgrandma": 7414,
      "Ġordinary": 7415,
      "Ġequal": 7416,
      "Ġshopping": 7417,
      "Ġconnected": 7418,
      "Ġencoura": 7419,
      "ĠPrize": 7420,
      "ĠPictures": 7421,
      "Ġgraduated": 7422,
      "Ġescaped": 7423,
      "Ġcompleted": 7424,
      "contin": 7425,
      "Ġsought": 7426,
      "riger": 7427,
      "Ġseized": 7428,
      "ĠPenn": 7429,
      "ĠNurse": 7430,
      "unting": 7431,
      "ĠRangers": 7432,
      "zzy": 7433,
      "Ġtrained": 7434,
      "Ġeighteen": 7435,
      "Ġstronger": 7436,
      "Ġsquir": 7437,
      "Ġilleg": 7438,
      "ĠHampshire": 7439,
      "Ġsatisfied": 7440,
      "ĠFrancisco": 7441,
      "Ġunhappy": 7442,
      "-N": 7443,
      "pro": 7444,
      "wide": 7445,
      "Ġborrow": 7446,
      "Ġcro": 7447,
      "Ġfederal": 7448,
      "Ġstones": 7449,
      "Ġdoctors": 7450,
      "ĠLau": 7451,
      "Ġsauce": 7452,
      "umble": 7453,
      "ĠKar": 7454,
      "icted": 7455,
      "upid": 7456,
      "Ġwave": 7457,
      "EST": 7458,
      "Ġcauses": 7459,
      "Ġprisoner": 7460,
      "Ġcosts": 7461,
      "Ġtorn": 7462,
      "ĠRegion": 7463,
      "Ġsuffer": 7464,
      "Ġwounded": 7465,
      "gasps": 7466,
      "ĠWrestling": 7467,
      "cohol": 7468,
      "!âĢĿĊ": 7469,
      "-off": 7470,
      "ND": 7471,
      "oise": 7472,
      "Ġwoke": 7473,
      "Ġowe": 7474,
      "Ġdom": 7475,
      "Ġpitch": 7476,
      "Ġnaught": 7477,
      "Ġnonsense": 7478,
      "Ġupper": 7479,
      "Ġaltern": 7480,
      "Ġflood": 7481,
      "ulls": 7482,
      "ollo": 7483,
      "Ġcontain": 7484,
      "Ġboyfriend": 7485,
      "ensive": 7486,
      "Ġpassage": 7487,
      "Ġtremb": 7488,
      "Ġbrand": 7489,
      "Ġattacks": 7490,
      "hetti": 7491,
      "ĠSweden": 7492,
      "aver": 7493,
      "pos": 7494,
      "Ġwing": 7495,
      "ithe": 7496,
      "Ġdiss": 7497,
      "lled": 7498,
      "Ġnah": 7499,
      "idays": 7500,
      "ĠCaterpillar": 7501,
      "Ġsched": 7502,
      "ĠMayor": 7503,
      "Ġfollows": 7504,
      "Ġdiscover": 7505,
      "GRM": 7506,
      "Ġsystems": 7507,
      "Ġsecretary": 7508,
      "Ġequip": 7509,
      "ĠGlad": 7510,
      "Ġbasketball": 7511,
      "-like": 7512,
      "Ġpowers": 7513,
      "Ġhills": 7514,
      "ĠTower": 7515,
      "Ġwashing": 7516,
      "ĠHolly": 7517,
      "Ġseated": 7518,
      "ĠOrd": 7519,
      "ĠFre": 7520,
      "ĠJenny": 7521,
      "ĠStay": 7522,
      "izes": 7523,
      "Ġresolved": 7524,
      "Ġache": 7525,
      "Ġanimated": 7526,
      "Ġawfully": 7527,
      "Ġclosely": 7528,
      "ĠGuard": 7529,
      "ĠAldworth": 7530,
      "ĠMelissa": 7531,
      "Ġexercise": 7532,
      "Thank": 7533,
      "nut": 7534,
      "ties": 7535,
      "Ġcash": 7536,
      "Ġthirst": 7537,
      "ĠCON": 7538,
      "ĠGi": 7539,
      "ĠLes": 7540,
      "ardy": 7541,
      "aka": 7542,
      "venue": 7543,
      "Ġarmed": 7544,
      "Ġtricks": 7545,
      "Ġworkers": 7546,
      "Ġprince": 7547,
      "Ġhanded": 7548,
      "Ġtrains": 7549,
      "ĠDef": 7550,
      "ublic": 7551,
      "Ġdrops": 7552,
      "Ġfactory": 7553,
      "Ġconfidence": 7554,
      "ĠShall": 7555,
      "ĠRepresent": 7556,
      "Ġmercy": 7557,
      "ĠBooth": 7558,
      "break": 7559,
      "ĠRyan": 7560,
      "Ġfarther": 7561,
      "May": 7562,
      "giving": 7563,
      "erry": 7564,
      "Ġlamb": 7565,
      "ĠCop": 7566,
      "ams": 7567,
      "Ġkings": 7568,
      "eare": 7569,
      "ĠDear": 7570,
      "ĠDog": 7571,
      "Ġslip": 7572,
      "ĠBrooke": 7573,
      "Ġaccused": 7574,
      "ĠCentre": 7575,
      "ĠIslamic": 7576,
      "ĠSpencer": 7577,
      "-man": 7578,
      "-cl": 7579,
      "LI": 7580,
      "NON": 7581,
      "cream": 7582,
      "iot": 7583,
      "uing": 7584,
      "Ġcries": 7585,
      "Ġdull": 7586,
      "Ġfenc": 7587,
      "Ġheight": 7588,
      "ĠSister": 7589,
      "ĠAyl": 7590,
      "ĠWant": 7591,
      "Ġshh": 7592,
      "Ġarcher": 7593,
      "IST": 7594,
      "actor": 7595,
      "Ġelev": 7596,
      "ĠTHERE": 7597,
      "Ġawesome": 7598,
      "Ġsympt": 7599,
      "Ġeastern": 7600,
      "Ġofficially": 7601,
      "Ġdivision": 7602,
      "Ġplatform": 7603,
      "Ġexchange": 7604,
      "nam": 7605,
      "iser": 7606,
      "Ġdirt": 7607,
      "ĠTok": 7608,
      "Ġ\"'": 7609,
      "ĠYep": 7610,
      "Ġgrade": 7611,
      "ockey": 7612,
      "alem": 7613,
      "Ġregret": 7614,
      "Ġdrinks": 7615,
      "ĠColin": 7616,
      "Ġdragon": 7617,
      "Ġbloody": 7618,
      "ynam": 7619,
      "ĠBobby": 7620,
      "ĠBerlin": 7621,
      "Ġfavourite": 7622,
      "Ġcurious": 7623,
      "ĠBarbara": 7624,
      "ĠEducation": 7625,
      "rigerator": 7626,
      ",and": 7627,
      ".I": 7628,
      "long": 7629,
      "isl": 7630,
      "Ġlung": 7631,
      "Ġgum": 7632,
      "ĠAub": 7633,
      "ĠCorn": 7634,
      "stant": 7635,
      "Ġjury": 7636,
      "Ġspy": 7637,
      "ardo": 7638,
      "Ġunit": 7639,
      "âĢĻve": 7640,
      "Ġrecent": 7641,
      "Ġdata": 7642,
      "Ġchart": 7643,
      "Ġexplan": 7644,
      "ĠGram": 7645,
      "Ġdifficulty": 7646,
      "ĠWales": 7647,
      "Ġdelightful": 7648,
      "Ġmanagement": 7649,
      "Ġmultiple": 7650,
      "Ġenvironmental": 7651,
      "quarters": 7652,
      "JAK": 7653,
      "__": 7654,
      "aurs": 7655,
      "py": 7656,
      "pre": 7657,
      "inals": 7658,
      "Ġben": 7659,
      "Ġmock": 7660,
      "Ġpanc": 7661,
      "ĠBall": 7662,
      "ĠRaj": 7663,
      "ĠGre": 7664,
      "Ġjail": 7665,
      "Ġprem": 7666,
      "Ġfunction": 7667,
      "Ġhundreds": 7668,
      "ĠDeath": 7669,
      "Ġinstr": 7670,
      "Ġinstance": 7671,
      "Ġringing": 7672,
      "ĠAgent": 7673,
      "Ġteachers": 7674,
      "Ġhousing": 7675,
      "hands": 7676,
      "/MT": 7677,
      "ĠWelcome": 7678,
      "ĠSpirit": 7679,
      "ĠUEFA": 7680,
      "On": 7681,
      "gle": 7682,
      "ington": 7683,
      "ĠTha": 7684,
      "ĠTilly": 7685,
      "ĠMouse": 7686,
      "iry": 7687,
      "ĠRub": 7688,
      "ĠFat": 7689,
      "ĠJO": 7690,
      "ĠKong": 7691,
      "ĠThus": 7692,
      "Ġbrings": 7693,
      "Ġbuck": 7694,
      "Ġpermission": 7695,
      "Ġcricket": 7696,
      "arson": 7697,
      "aughters": 7698,
      "ĠDev": 7699,
      "Ġchairs": 7700,
      "Ġexperiment": 7701,
      "Donald": 7702,
      "Ġvictims": 7703,
      "ĠAylmer": 7704,
      "As": 7705,
      "OL": 7706,
      "pher": 7707,
      "wa": 7708,
      "Ġmaint": 7709,
      "Ġgle": 7710,
      "atre": 7711,
      "ĠBab": 7712,
      "Ġshy": 7713,
      "Ġworn": 7714,
      "Ġdisplay": 7715,
      "Ġunus": 7716,
      "Ġimage": 7717,
      "gets": 7718,
      "Ġcolored": 7719,
      "Ġcharged": 7720,
      "Ġhighly": 7721,
      "Ġreturns": 7722,
      "Ġlands": 7723,
      "Ġsignal": 7724,
      "Ġwhisper": 7725,
      "iverse": 7726,
      "Ġtypes": 7727,
      "Ġbillion": 7728,
      "tes": 7729,
      "Ġta": 7730,
      "ito": 7731,
      "Ġmood": 7732,
      "ĠAra": 7733,
      "ĠBible": 7734,
      "ĠDun": 7735,
      "ifts": 7736,
      "ĠRail": 7737,
      "osh": 7738,
      "Ġpassion": 7739,
      "ĠSomebody": 7740,
      "Ġprinci": 7741,
      "Ġspirits": 7742,
      "ĠGolden": 7743,
      "Ġfrequ": 7744,
      "oscow": 7745,
      "Ġnominated": 7746,
      "Ġgrateful": 7747,
      "Ch": 7748,
      "Mr": 7749,
      "uous": 7750,
      "erk": 7751,
      "Ġforb": 7752,
      "ĠNorthern": 7753,
      "anta": 7754,
      "resp": 7755,
      "Ġintended": 7756,
      "Ġcheap": 7757,
      "inned": 7758,
      "ĠAss": 7759,
      "ĠChristopher": 7760,
      "Ġprior": 7761,
      "Ġamongst": 7762,
      "Ġtempt": 7763,
      "Ġvolume": 7764,
      "ĠGreece": 7765,
      "ĠCompany": 7766,
      "ĠRoger": 7767,
      "GE": 7768,
      "Go": 7769,
      "Ġeth": 7770,
      "Ġfate": 7771,
      "Ġlaughter": 7772,
      "keys": 7773,
      "ĠHoly": 7774,
      "Ġseal": 7775,
      "Ġpepper": 7776,
      "Ġflash": 7777,
      "Ġrealized": 7778,
      "ĠAfghan": 7779,
      "Ġconsult": 7780,
      "Ġinstant": 7781,
      "Ġpuppy": 7782,
      "Ġmillions": 7783,
      "Ġadmir": 7784,
      "Ġmistress": 7785,
      "Ġfortun": 7786,
      "ĠHelen": 7787,
      "Ġphysical": 7788,
      "Ġaltogether": 7789,
      "Just": 7790,
      "mhm": 7791,
      "nis": 7792,
      "Ġwolf": 7793,
      "Ġgal": 7794,
      "omi": 7795,
      "also": 7796,
      "ĠMoscow": 7797,
      "rily": 7798,
      "ĠHong": 7799,
      "ĠNations": 7800,
      "ĠFle": 7801,
      "venge": 7802,
      "Ġfeast": 7803,
      "ĠSoon": 7804,
      "Ġcommitted": 7805,
      "ibly": 7806,
      "Ġhumans": 7807,
      "Ġsunshine": 7808,
      "ĠAbs": 7809,
      "Ġdisappear": 7810,
      "kesp": 7811,
      "Ġprotection": 7812,
      "Ġdetails": 7813,
      "Ġpattern": 7814,
      "Ġclimbed": 7815,
      "Ġhyp": 7816,
      "Ġpotato": 7817,
      "Ġhammer": 7818,
      "ĠBasil": 7819,
      "Ġagreement": 7820,
      "ĠLieutenant": 7821,
      "Ġequipment": 7822,
      "NE": 7823,
      "mings": 7824,
      "oard": 7825,
      "vard": 7826,
      "win": 7827,
      "Ġcig": 7828,
      "Ġpit": 7829,
      "ĠAha": 7830,
      "ĠMAN": 7831,
      "Ġwhoo": 7832,
      "ĠYo": 7833,
      "cts": 7834,
      "ĠRap": 7835,
      "ĠGriff": 7836,
      "Ġdece": 7837,
      "ĠJay": 7838,
      "Ġsuffic": 7839,
      "Ġunw": 7840,
      "Ġunknown": 7841,
      "rows": 7842,
      "iversal": 7843,
      "Ġsigns": 7844,
      "ĠSecurity": 7845,
      "ĠJimmy": 7846,
      "Ġstruggle": 7847,
      "ĠFilm": 7848,
      "ufact": 7849,
      "Ġthirteen": 7850,
      "gins": 7851,
      "Ġwinner": 7852,
      "Ġdining": 7853,
      "Ġtomat": 7854,
      "eding": 7855,
      "ĠHoo": 7856,
      "Ġrude": 7857,
      "Ġcarpet": 7858,
      "obal": 7859,
      "Ġtrail": 7860,
      "-san": 7861,
      "Ġevolution": 7862,
      "Ġcorpor": 7863,
      "Ġmotorcy": 7864,
      "Ġeagerly": 7865,
      "net": 7866,
      "rac": 7867,
      "when": 7868,
      "Ġpond": 7869,
      "oti": 7870,
      "ĠSel": 7871,
      "ĠSky": 7872,
      "Ġwebs": 7873,
      "ĠBow": 7874,
      "ĠBol": 7875,
      "alling": 7876,
      "ĠDuck": 7877,
      "Ġsoap": 7878,
      "ĠFriend": 7879,
      "ĠEastern": 7880,
      "ieur": 7881,
      "Ġspeaks": 7882,
      "Ġvast": 7883,
      "Ġnights": 7884,
      "Ġkinda": 7885,
      "Ġminds": 7886,
      "Ġfootballer": 7887,
      "Ġauthorities": 7888,
      "Ġlabel": 7889,
      "Ġincreased": 7890,
      "Ġsexual": 7891,
      "Ġconnection": 7892,
      "Ġscientific": 7893,
      "Ġrescue": 7894,
      "ĠSweet": 7895,
      "kespeare": 7896,
      ".âĢĿ": 7897,
      "Ġbore": 7898,
      "ĠSud": 7899,
      "ĠAmb": 7900,
      "Ġancest": 7901,
      "Ġlif": 7902,
      "ĠDie": 7903,
      "rah": 7904,
      "ĠLew": 7905,
      "Ġsav": 7906,
      "ĠFestival": 7907,
      "ieve": 7908,
      "Ġvice": 7909,
      "ferences": 7910,
      "ĠVaud": 7911,
      "issy": 7912,
      "new": 7913,
      "ĠAsia": 7914,
      "Ġsets": 7915,
      "Ġgrape": 7916,
      "Ġcolon": 7917,
      "Ġearned": 7918,
      "Ġimportance": 7919,
      "Ġillness": 7920,
      "Ġbelonged": 7921,
      "Ġneighbour": 7922,
      "porary": 7923,
      "Ġresponsibility": 7924,
      "shakes": 7925,
      "ĠRaymond": 7926,
      "Ġdivorce": 7927,
      "ĠTaylor": 7928,
      "Can": 7929,
      "GHING": 7930,
      "belt": 7931,
      "ĠHIS": 7932,
      "Ġfox": 7933,
      "ĠCa": 7934,
      "ĠDale": 7935,
      "ifer": 7936,
      "Ġjoint": 7937,
      "ulated": 7938,
      "Ġletting": 7939,
      "Ġactual": 7940,
      "onscious": 7941,
      "Ġsixth": 7942,
      "Ġmathemat": 7943,
      "Ġimpact": 7944,
      "Ġfriendship": 7945,
      "ĠConf": 7946,
      "Ġlouder": 7947,
      "Ġscare": 7948,
      "Ġpretending": 7949,
      "ĠSyrian": 7950,
      "black": 7951,
      "ĠDesmond": 7952,
      "Ġtechnology": 7953,
      "Ġscientists": 7954,
      "Ġaccompl": 7955,
      "Ġfolk": 7956,
      "Ġstroke": 7957,
      "ĠHuman": 7958,
      "Ġbrilliant": 7959,
      "ĠFlossie": 7960,
      "Al": 7961,
      "KID": 7962,
      "ju": 7963,
      "water": 7964,
      "Ġtent": 7965,
      "itated": 7966,
      "enes": 7967,
      "Ġpardon": 7968,
      "ĠCur": 7969,
      "ĠOUT": 7970,
      "ĠRi": 7971,
      "ĠRimb": 7972,
      "Ġalcohol": 7973,
      "ĠKu": 7974,
      "agon": 7975,
      "Ġcurtain": 7976,
      "ĠChampionships": 7977,
      "Ġbenefit": 7978,
      "Ġcabin": 7979,
      "Ġaudience": 7980,
      "Ġoccupied": 7981,
      "ĠOffice": 7982,
      "zy": 7983,
      "Ġ*Ċ": 7984,
      "Ġpoll": 7985,
      "Ġpapa": 7986,
      "arc": 7987,
      "asp": 7988,
      "ĠTa": 7989,
      "ĠCAN": 7990,
      "Ġstool": 7991,
      "amas": 7992,
      "Ġ\"_": 7993,
      "ĠGor": 7994,
      "ĠForm": 7995,
      "Ġjam": 7996,
      "Ġnephe": 7997,
      "Ġbutt": 7998,
      "Ġshove": 7999,
      "Ġvoted": 8000,
      "agger": 8001,
      "aghetti": 8002,
      "ĠAnth": 8003,
      "Ġsixteen": 8004,
      "ĠNewman": 8005,
      "Ġdistingu": 8006,
      "Ġdriven": 8007,
      "Ġskill": 8008,
      "zech": 8009,
      "reading": 8010,
      "Ġpurse": 8011,
      "III": 8012,
      "Ġdinosaurs": 8013,
      "arrass": 8014,
      "ĠCambridge": 8015,
      "Ġsenior": 8016,
      "Ġvotes": 8017,
      "ĠPortugal": 8018,
      "ĠGeorgia": 8019,
      "Brian": 8020,
      "ĠSub": 8021,
      "ĠCOM": 8022,
      "ĠBunny": 8023,
      "ĠPoint": 8024,
      "ĠEp": 8025,
      "geant": 8026,
      "Ġdeer": 8027,
      "hant": 8028,
      "ĠChuck": 8029,
      "Ġumbre": 8030,
      "Ġpolite": 8031,
      "ĠNews": 8032,
      "Ġretire": 8033,
      "Ġcolour": 8034,
      "Ġsteel": 8035,
      "Ġstarring": 8036,
      "ĠKeith": 8037,
      "Ġindustrial": 8038,
      "Ġargument": 8039,
      "Ġevidently": 8040,
      "Ġrestaurant": 8041,
      "Ġnephew": 8042,
      "PS": 8043,
      "Ġwire": 8044,
      "nda": 8045,
      "eness": 8046,
      "lets": 8047,
      "ĠMans": 8048,
      "verse": 8049,
      "adium": 8050,
      "Ġstupid": 8051,
      "ĠNE": 8052,
      "ĠFer": 8053,
      "ighed": 8054,
      "Ġspider": 8055,
      "ĠUnt": 8056,
      "ordan": 8057,
      "Ġcoal": 8058,
      "Ġslave": 8059,
      "ivity": 8060,
      "Ġsurgery": 8061,
      "Ġentrance": 8062,
      "Ġpops": 8063,
      "Ġproduce": 8064,
      "ĠTwenty": 8065,
      "Ġexpecting": 8066,
      "Ġvisitors": 8067,
      "ĠDora": 8068,
      "Ġdawn": 8069,
      "stitution": 8070,
      "ĠSandra": 8071,
      ".D": 8072,
      "vet": 8073,
      "Ġward": 8074,
      "Ġnuclear": 8075,
      "ĠMust": 8076,
      "rific": 8077,
      "Ġstolen": 8078,
      "lying": 8079,
      "Ġmechan": 8080,
      "Ġseasons": 8081,
      "ĠPass": 8082,
      "ĠNich": 8083,
      "ĠEnd": 8084,
      "hia": 8085,
      "ivered": 8086,
      "aval": 8087,
      "Ġharder": 8088,
      "Ġworthy": 8089,
      "Ġaffairs": 8090,
      "-American": 8091,
      "Ġinjured": 8092,
      "Ġfoolish": 8093,
      "Ġapologize": 8094,
      "AC": 8095,
      "]...Ċ": 8096,
      "Ġtrop": 8097,
      "Ġax": 8098,
      "Ġmile": 8099,
      "Ġcows": 8100,
      "aned": 8101,
      "leg": 8102,
      "Ġbeings": 8103,
      "iro": 8104,
      "Ġselected": 8105,
      "child": 8106,
      "aging": 8107,
      "ĠVill": 8108,
      "ĠIslands": 8109,
      "Ġswift": 8110,
      "Ġmarble": 8111,
      "ĠIndepend": 8112,
      "lessly": 8113,
      "Ġincome": 8114,
      "Ġconfused": 8115,
      "Ġshortly": 8116,
      "ervative": 8117,
      "ĠGreater": 8118,
      "Ġhealthy": 8119,
      "ĠOxfordshire": 8120,
      "hetic": 8121,
      "Ġviolence": 8122,
      "Ġbarely": 8123,
      "Ġsucceeded": 8124,
      "Ġconstitu": 8125,
      "ĠDouglas": 8126,
      "Ġsolemn": 8127,
      "Ġchallenge": 8128,
      "Ġsymptoms": 8129,
      "lace": 8130,
      "pired": 8131,
      "sed": 8132,
      "Ġcert": 8133,
      "Ġyer": 8134,
      "Ġfuss": 8135,
      "Ġlod": 8136,
      "ĠMam": 8137,
      "ĠNonna": 8138,
      "ĠLight": 8139,
      "ĠMean": 8140,
      "Ġholidays": 8141,
      "achel": 8142,
      "Ġembarrass": 8143,
      "Ġnursery": 8144,
      "ĠArgentina": 8145,
      "Ġcrisis": 8146,
      "-hand": 8147,
      "gro": 8148,
      "gives": 8149,
      "eral": 8150,
      "Ġbent": 8151,
      "Ġfo": 8152,
      "Ġloyal": 8153,
      "ĠAS": 8154,
      "ĠWolf": 8155,
      "Ġgolf": 8156,
      "Ġshed": 8157,
      "ĠLad": 8158,
      "Ġcomin": 8159,
      "Ġmanufact": 8160,
      "Ġconcl": 8161,
      "Ġmob": 8162,
      "Ġmothers": 8163,
      "Ġslaves": 8164,
      "Ġbelt": 8165,
      "Ġdirections": 8166,
      "Ġtouching": 8167,
      "Ġrequire": 8168,
      "Ġactivity": 8169,
      "Ġmajority": 8170,
      "OOD": 8171,
      "ĠRomans": 8172,
      "ĠRimbolt": 8173,
      "!'Ċ": 8174,
      "ront": 8175,
      "Ġcord": 8176,
      "enger": 8177,
      "Ġpressed": 8178,
      "ĠAuthor": 8179,
      "Ġrhy": 8180,
      "Ġshit": 8181,
      "Ġuncom": 8182,
      "Ġteen": 8183,
      "Ġremove": 8184,
      "Ġasks": 8185,
      "Ġsmooth": 8186,
      "pected": 8187,
      "Ġconscious": 8188,
      "Ġconfir": 8189,
      "Ġpurcha": 8190,
      "Ġicecream": 8191,
      "ĠRussians": 8192,
      "ĠCommun": 8193,
      "Ġorganized": 8194,
      "adesh": 8195,
      "Ġcaptured": 8196,
      "rifice": 8197,
      "Ġculture": 8198,
      "Ġadopted": 8199,
      "Ġmamma": 8200,
      "Ġcitizens": 8201,
      "Ġresources": 8202,
      "fa": 8203,
      "sylvania": 8204,
      "Ã±": 8205,
      "ĠSnow": 8206,
      "Ġugh": 8207,
      "Ġpreviously": 8208,
      "Ġacted": 8209,
      "ection": 8210,
      "Ġraining": 8211,
      "ĠAnna": 8212,
      "Ġindign": 8213,
      "Ġloving": 8214,
      "Ġartists": 8215,
      "ipper": 8216,
      "ĠShakespeare": 8217,
      "-five": 8218,
      "Ġoccas": 8219,
      "ĠSeven": 8220,
      "Ġfaithful": 8221,
      "ĠHIM": 8222,
      "Ġscheme": 8223,
      "TP": 8224,
      "Your": 8225,
      "rim": 8226,
      "iting": 8227,
      "Ġthief": 8228,
      "Ġonline": 8229,
      "ĠTalk": 8230,
      "enters": 8231,
      "ĠOffic": 8232,
      "ĠRu": 8233,
      "Ġshining": 8234,
      "abor": 8235,
      "Ġsprang": 8236,
      "Ġcliff": 8237,
      "Ġdisg": 8238,
      "Ġunable": 8239,
      "Ġfled": 8240,
      "Ġconsist": 8241,
      "UNT": 8242,
      "Ġpresented": 8243,
      "Ġbasically": 8244,
      "Ġdelicate": 8245,
      "incol": 8246,
      "Ġeconomic": 8247,
      "Ġproducts": 8248,
      "ĠEsther": 8249,
      "ĠColumbia": 8250,
      "ĠTokyo": 8251,
      "'n": 8252,
      "BI": 8253,
      "ji": 8254,
      "lon": 8255,
      "lers": 8256,
      "lock": 8257,
      "Ġpenn": 8258,
      "Ġinfe": 8259,
      "ĠToo": 8260,
      "ĠMod": 8261,
      "ĠCzech": 8262,
      "ĠHay": 8263,
      "ĠRus": 8264,
      "Ġconvin": 8265,
      "Ġflies": 8266,
      "gedy": 8267,
      "ASE": 8268,
      "Ġtemple": 8269,
      "Ġrolled": 8270,
      "ĠAnything": 8271,
      "Ġpretends": 8272,
      "ĠDragon": 8273,
      "burgh": 8274,
      "Ġcamps": 8275,
      "ĠReliance": 8276,
      "&amp": 8277,
      "For": 8278,
      "JO": 8279,
      "bing": 8280,
      "from": 8281,
      "uals": 8282,
      "Ġ:Ċ": 8283,
      "Ġdu": 8284,
      "Ġduties": 8285,
      "Ġfits": 8286,
      "arms": 8287,
      "ader": 8288,
      "ĠCelia": 8289,
      "ĠRuth": 8290,
      "Ġplot": 8291,
      "elp": 8292,
      "Ġchanging": 8293,
      "Ġcommit": 8294,
      "Ġmarch": 8295,
      "Ġbeds": 8296,
      "Ġhath": 8297,
      "standing": 8298,
      "Ġarticle": 8299,
      "Ġmarks": 8300,
      "Ġcleaning": 8301,
      "ĠXX": 8302,
      "Ġheavily": 8303,
      "Ġbanks": 8304,
      "Ġpersons": 8305,
      "Ġnapkin": 8306,
      "Ġhistorical": 8307,
      "Ġcheerful": 8308,
      "LING": 8309,
      "cing": 8310,
      "mitted": 8311,
      "Ġcage": 8312,
      "Ġdaughters": 8313,
      "Ġtoe": 8314,
      "Ġpoo": 8315,
      "Ġpunch": 8316,
      "etic": 8317,
      "alo": 8318,
      "riam": 8319,
      "ĠBY": 8320,
      "Ġkil": 8321,
      "ĠPak": 8322,
      "ĠNep": 8323,
      "ĠLinda": 8324,
      "ĠKira": 8325,
      "Ġquality": 8326,
      "ogue": 8327,
      "Ġfounder": 8328,
      "Ġopens": 8329,
      "Ġcharges": 8330,
      "Ġsyll": 8331,
      "Ġtriangle": 8332,
      "Ġchairman": 8333,
      "Ġbottles": 8334,
      "ĠDrum": 8335,
      "ĠWithout": 8336,
      "ĠCenter": 8337,
      "Ġanxiety": 8338,
      "Ġpossibility": 8339,
      "Ġgazed": 8340,
      "Ġemergency": 8341,
      "ĠTurkish": 8342,
      "?'Ċ": 8343,
      "Bill": 8344,
      "rad": 8345,
      "Ġtummy": 8346,
      "Ġinse": 8347,
      "ĠTak": 8348,
      "uto": 8349,
      "ĠCher": 8350,
      "ĠCart": 8351,
      "ĠHank": 8352,
      "ĠBell": 8353,
      "ĠPy": 8354,
      "Ġvirt": 8355,
      "ogne": 8356,
      "Ġcompared": 8357,
      "Ġkeen": 8358,
      "Ġcommission": 8359,
      "ports": 8360,
      "ĠTHEY": 8361,
      "Ġinstru": 8362,
      "ĠLeg": 8363,
      "Ġclasses": 8364,
      "Ġadvanced": 8365,
      "Ġpacked": 8366,
      "Ġcompanions": 8367,
      "Ġbasis": 8368,
      "Ġblew": 8369,
      "Ġcandidate": 8370,
      "Ġsymbol": 8371,
      ",it": 8372,
      "bes": 8373,
      "uv": 8374,
      "Ãª": 8375,
      "Ġsin": 8376,
      "ĠMem": 8377,
      "ĠHit": 8378,
      "eau": 8379,
      "ĠLead": 8380,
      "Ġspoons": 8381,
      "Ġdisag": 8382,
      "Ġbuying": 8383,
      "Ġstays": 8384,
      "Ġdressing": 8385,
      "Ġdrawer": 8386,
      "Ġorganis": 8387,
      "Ġbreathe": 8388,
      "Ġactivities": 8389,
      "ĠMilan": 8390,
      "ĠÂ¶": 8391,
      "ACK": 8392,
      "UL": 8393,
      "Ġincl": 8394,
      "Ġhook": 8395,
      "ĠNord": 8396,
      "Ġsheet": 8397,
      "gend": 8398,
      "olas": 8399,
      "Ġpeek": 8400,
      "Ġtray": 8401,
      "ĠThrough": 8402,
      "Ġpronounced": 8403,
      "Ġprec": 8404,
      "uckle": 8405,
      "ĠChampion": 8406,
      "Ġpointing": 8407,
      "Ġcomplex": 8408,
      "ferring": 8409,
      "ĠPolish": 8410,
      "Ġlaunch": 8411,
      "ĠScholarship": 8412,
      "Ġticket": 8413,
      "ĠBrazilian": 8414,
      "ĠPersonal": 8415,
      "Ġthoroughly": 8416,
      "ĠPennsylvania": 8417,
      "BAB": 8418,
      "SC": 8419,
      "zburg": 8420,
      "Ġcents": 8421,
      "Ġdared": 8422,
      "Ġfed": 8423,
      "Ġfare": 8424,
      "Ġladder": 8425,
      "arant": 8426,
      "ĠThing": 8427,
      "ĠSit": 8428,
      "ĠMid": 8429,
      "unte": 8430,
      "ĠChair": 8431,
      "Ġyoungest": 8432,
      "ĠReady": 8433,
      "ĠJustice": 8434,
      "Ġsneak": 8435,
      "ĠPlan": 8436,
      "ĠColonel": 8437,
      "Ġmistakes": 8438,
      "Ġprograms": 8439,
      "Ġblowing": 8440,
      "Ġestablish": 8441,
      "Ġclaims": 8442,
      "Ġefforts": 8443,
      "Ġinquired": 8444,
      "LIN": 8445,
      "MAN": 8446,
      "TV": 8447,
      "bar": 8448,
      "fire": 8449,
      "west": 8450,
      "Ġmum": 8451,
      "Ġcalend": 8452,
      "Ġdea": 8453,
      "orse": 8454,
      "Ġpoured": 8455,
      "ĠAD": 8456,
      "ĠAren": 8457,
      "ĠBart": 8458,
      "ĠLincol": 8459,
      "Ġsauc": 8460,
      "ophy": 8461,
      "Ġvic": 8462,
      "Ġclo": 8463,
      "Ġelections": 8464,
      "Ġgrab": 8465,
      "Ġenthus": 8466,
      "-sh": 8467,
      "ribly": 8468,
      "Ġcapable": 8469,
      "Ġstores": 8470,
      "ĠCommission": 8471,
      "Ġvalu": 8472,
      "Ġwaters": 8473,
      "ĠTurkey": 8474,
      "Ġstatue": 8475,
      "ĠPatrick": 8476,
      "ĠHungary": 8477,
      "Ġthreatened": 8478,
      "Ġdegrees": 8479,
      "Ġdeliver": 8480,
      "ĠKorea": 8481,
      "ĠScarfe": 8482,
      "ĠJungle": 8483,
      "Ġï¿½ï¿½ï¿½ï¿½ï¿½ï¿½ï¿½ï¿": 8484,
      "-old": 8485,
      "FE": 8486,
      "Ġsne": 8487,
      "asters": 8488,
      "ĠBrand": 8489,
      "unched": 8490,
      "ĠGhost": 8491,
      "ĠFÃ¼": 8492,
      "Ġaloud": 8493,
      "Ġrum": 8494,
      "Ġvision": 8495,
      "agne": 8496,
      "aren": 8497,
      "cipl": 8498,
      "Ġbetray": 8499,
      "teenth": 8500,
      "ĠWilly": 8501,
      "unted": 8502,
      "Ġcops": 8503,
      "Ġlabor": 8504,
      "cipal": 8505,
      "ĠApollo": 8506,
      "Ġachieve": 8507,
      "Ġprospect": 8508,
      "ĠNikki": 8509,
      "ĠDirector": 8510,
      "ĠUntil": 8511,
      "may": 8512,
      "ridge": 8513,
      "Ġwreck": 8514,
      "Ġdial": 8515,
      "Ġpir": 8516,
      "Ġhom": 8517,
      "Ġbegged": 8518,
      "ademic": 8519,
      "ĠDoub": 8520,
      "ĠRoy": 8521,
      "Ġsore": 8522,
      "Ġcann": 8523,
      "ĠLO": 8524,
      "ĠFind": 8525,
      "Ġnowhere": 8526,
      "ARS": 8527,
      "Ġhappily": 8528,
      "Ġunits": 8529,
      "Ġundert": 8530,
      "Ġummhm": 8531,
      "Ġframe": 8532,
      "Ġhorrid": 8533,
      "Ġeditor": 8534,
      "Ġzeb": 8535,
      "Ġdrag": 8536,
      "Ġhopes": 8537,
      "ĠPoland": 8538,
      "Ġspending": 8539,
      "ĠIrene": 8540,
      "ĠMetropolitan": 8541,
      "Ġtroubles": 8542,
      "ĠGirls": 8543,
      "Ġfierce": 8544,
      "Ġfeathers": 8545,
      "ĠPLAY": 8546,
      "/TP": 8547,
      "LES": 8548,
      "bly": 8549,
      "baby": 8550,
      "cr": 8551,
      "uge": 8552,
      "zes": 8553,
      "Ġtales": 8554,
      "ndry": 8555,
      "Ġbay": 8556,
      "Ġbord": 8557,
      "Ġded": 8558,
      "ĠMoon": 8559,
      "Ġstern": 8560,
      "amps": 8561,
      "igen": 8562,
      "Ġspaghetti": 8563,
      "Ġending": 8564,
      "thew": 8565,
      "Ġbits": 8566,
      "Ġbearing": 8567,
      "Ġadmitted": 8568,
      "Ġclothing": 8569,
      "ĠCheck": 8570,
      "Ġbreathing": 8571,
      "ĠSingh": 8572,
      "Ġmerely": 8573,
      "Ġdesperate": 8574,
      "Ġcommercial": 8575,
      "continues": 8576,
      "ĠDrummond": 8577,
      "col": 8578,
      "foot": 8579,
      "Ġbree": 8580,
      "Ġmars": 8581,
      "Ġdign": 8582,
      "ĠIce": 8583,
      "ormed": 8584,
      "starts": 8585,
      "ĠRaby": 8586,
      "oples": 8587,
      "ĠEight": 8588,
      "olk": 8589,
      "istics": 8590,
      "Ġanyhow": 8591,
      "Ġexha": 8592,
      "ĠUr": 8593,
      "Ġbackwards": 8594,
      "Ġchill": 8595,
      "addle": 8596,
      "Ġimpr": 8597,
      "Ġchildhood": 8598,
      "onsieur": 8599,
      "Ġglanced": 8600,
      "Ġdistinct": 8601,
      "ĠClare": 8602,
      "ÃŃn": 8603,
      "ĠProbably": 8604,
      "Ġparliament": 8605,
      "Ġfigured": 8606,
      "Ġsubjects": 8607,
      "ĠLiber": 8608,
      "Ġexistence": 8609,
      "Ġvacation": 8610,
      "ĠWindows": 8611,
      "ĠForest": 8612,
      "Ġignor": 8613,
      "Ġaffected": 8614,
      "Ġbronze": 8615,
      "Ġwipe": 8616,
      "Ġbrie": 8617,
      "Ġcakes": 8618,
      "Ġbee": 8619,
      "Ġbeating": 8620,
      "ĠCad": 8621,
      "Ġsteak": 8622,
      "ĠBUT": 8623,
      "Ġsector": 8624,
      "ĠPret": 8625,
      "ĠRick": 8626,
      "Ġmyth": 8627,
      "Ġaband": 8628,
      "ĠIns": 8629,
      "Ġenorm": 8630,
      "Ġcheek": 8631,
      "Ġrelative": 8632,
      "Ġconfident": 8633,
      "Ġparade": 8634,
      "ĠSupp": 8635,
      "Ġviews": 8636,
      "Ġrepeat": 8637,
      "Ġnickel": 8638,
      "Ġaffection": 8639,
      "Ġillegal": 8640,
      "bie": 8641,
      "referring": 8642,
      "Ġfucking": 8643,
      "Ġtox": 8644,
      "esc": 8645,
      "ĠTop": 8646,
      "ĠMall": 8647,
      "ĠCD": 8648,
      "ĠHand": 8649,
      "ĠHERE": 8650,
      "ĠBir": 8651,
      "Ġath": 8652,
      "ĠOp": 8653,
      "ĠVin": 8654,
      "ĠVien": 8655,
      "âĢĻd": 8656,
      "awa": 8657,
      "Ġcounting": 8658,
      "ĠDean": 8659,
      "Ġkidna": 8660,
      "Ġsleepy": 8661,
      "exits": 8662,
      "Ġaddressed": 8663,
      "Ġpossession": 8664,
      "Ġgoddess": 8665,
      "coming": 8666,
      "Ġestim": 8667,
      "Ġcommonly": 8668,
      "ĠJohan": 8669,
      "Ġviolent": 8670,
      "Ġpunishment": 8671,
      "ĠIsraeli": 8672,
      "Ġtemperature": 8673,
      "Ġrailway": 8674,
      "Ġvegetables": 8675,
      "Ġsurrounded": 8676,
      ",but": 8677,
      "IG": 8678,
      "pulls": 8679,
      "Ġok": 8680,
      "hall": 8681,
      "Ġcave": 8682,
      "orf": 8683,
      "oting": 8684,
      "ĠMir": 8685,
      "ĠWoman": 8686,
      "ĠNap": 8687,
      "ĠRA": 8688,
      "Ġsuicide": 8689,
      "ĠKrist": 8690,
      "bec": 8691,
      "Ġeatin": 8692,
      "Ġrage": 8693,
      "Ġdeserve": 8694,
      "ĠAnim": 8695,
      "Ġelement": 8696,
      "Ġdistant": 8697,
      "Ġcuts": 8698,
      "ĠExactly": 8699,
      "ĠHarvard": 8700,
      "Ġexpert": 8701,
      "ITT": 8702,
      "Ġruler": 8703,
      "Ġconsiderable": 8704,
      "ederation": 8705,
      "ĠHaving": 8706,
      "rafton": 8707,
      "Ġextraord": 8708,
      "ĠHungarian": 8709,
      "Ġnormally": 8710,
      "ĠMargot": 8711,
      "ĠSpecial": 8712,
      "Ġexplanation": 8713,
      "ĠPakistan": 8714,
      "LW": 8715,
      "aire": 8716,
      "iber": 8717,
      "iven": 8718,
      "mun": 8719,
      "inity": 8720,
      "Ġcough": 8721,
      "Ġdomin": 8722,
      "anny": 8723,
      "Ġpul": 8724,
      "otam": 8725,
      "sell": 8726,
      "ĠHard": 8727,
      "ĠBO": 8728,
      "Ġdonkey": 8729,
      "orted": 8730,
      "IND": 8731,
      "Ġquant": 8732,
      "orne": 8733,
      "Ġfeature": 8734,
      "ĠThough": 8735,
      "ROM": 8736,
      "Ġflu": 8737,
      "rup": 8738,
      "ulture": 8739,
      "ĠAlbert": 8740,
      "Ġcollea": 8741,
      "Ġinsurance": 8742,
      "Ġdreamed": 8743,
      "ĠChant": 8744,
      "AKE": 8745,
      "Ġnaturally": 8746,
      "ĠMorgan": 8747,
      "ĠChildren": 8748,
      "Ġvehicle": 8749,
      "Ġsignificant": 8750,
      "screams": 8751,
      "Ġnaughty": 8752,
      "ĠAubrey": 8753,
      "ĠLewis": 8754,
      "De": 8755,
      "loud": 8756,
      "Ãĸ": 8757,
      "Ġcas": 8758,
      "ĠSad": 8759,
      "ĠBurg": 8760,
      "uns": 8761,
      "ĠGall": 8762,
      "ĠFederal": 8763,
      "ĠFerg": 8764,
      "ĠEh": 8765,
      "Ġsuitc": 8766,
      "Ġintense": 8767,
      "Ġshared": 8768,
      "ccer": 8769,
      "Ġactions": 8770,
      "Ġchannels": 8771,
      "Ġmomma": 8772,
      "Ġswitch": 8773,
      "oked": 8774,
      "ĠCarter": 8775,
      "ĠBozo": 8776,
      "ĠSpani": 8777,
      "Ġexecutive": 8778,
      "ĠLucy": 8779,
      "ĠMatthew": 8780,
      "ĠSimon": 8781,
      "ĠJosh": 8782,
      "Ġrevealed": 8783,
      "Ġcrayon": 8784,
      "ĠAbsolutely": 8785,
      "Ġumbrella": 8786,
      "Ġcalendar": 8787,
      "Ġbriefly": 8788,
      ",no": 8789,
      "AA": 8790,
      "bach": 8791,
      "rus": 8792,
      "Ġtad": 8793,
      "haw": 8794,
      "Ġboring": 8795,
      "Ġcou": 8796,
      "arse": 8797,
      "Ġstamp": 8798,
      "ĠBishop": 8799,
      "hers": 8800,
      "ĠFollow": 8801,
      "eling": 8802,
      "Ġexact": 8803,
      "ĠValley": 8804,
      "Ġguarant": 8805,
      "Ġprime": 8806,
      "Ġchin": 8807,
      "them": 8808,
      "Ġhats": 8809,
      "Ġawoh": 8810,
      "Ġdropping": 8811,
      "Ġdragged": 8812,
      "Ġburnt": 8813,
      "flies": 8814,
      "Ġremarked": 8815,
      "/she": 8816,
      "kind": 8817,
      "lass": 8818,
      "Ã£": 8819,
      "Ġcooper": 8820,
      "Ġgrief": 8821,
      "ĠTHI": 8822,
      "ĠSyl": 8823,
      "imately": 8824,
      "acious": 8825,
      "Ġreference": 8826,
      "ĠBor": 8827,
      "ĠDID": 8828,
      "ĠGrafton": 8829,
      "ĠLib": 8830,
      "opotam": 8831,
      "ĠFur": 8832,
      "ĠJordan": 8833,
      "estic": 8834,
      "Ġagents": 8835,
      "Ġclaimed": 8836,
      "Ġtryin": 8837,
      "Ġstopping": 8838,
      "Ġcleared": 8839,
      "pector": 8840,
      "Ġcharts": 8841,
      "Ġdrift": 8842,
      "Ã©e": 8843,
      "Ġdipl": 8844,
      "Ġbeaten": 8845,
      "ĠParker": 8846,
      "Ġmidst": 8847,
      "ĠCrown": 8848,
      "Ġtowel": 8849,
      "ĠFIFA": 8850,
      "inging": 8851,
      "ario": 8852,
      "Ġnood": 8853,
      "iceless": 8854,
      "ĠWan": 8855,
      "ĠWWE": 8856,
      "ĠHim": 8857,
      "ĠBank": 8858,
      "Ġknight": 8859,
      "ĠOt": 8860,
      "ĠGib": 8861,
      "ĠGulf": 8862,
      "ĠJess": 8863,
      "ĠKam": 8864,
      "Ġprob": 8865,
      "ĠStu": 8866,
      "izations": 8867,
      "Ġcommander": 8868,
      "Ġnumer": 8869,
      "ĠAssembly": 8870,
      "Ġphr": 8871,
      "ĠEdie": 8872,
      "Ġstrict": 8873,
      "ĠSpring": 8874,
      "enez": 8875,
      "noises": 8876,
      "ICE": 8877,
      "ĠTrust": 8878,
      "Ġenjoying": 8879,
      "Ġturkey": 8880,
      "Ġnegative": 8881,
      "Ġribbon": 8882,
      "Ġpoliceman": 8883,
      "BS": 8884,
      "Per": 8885,
      "ais": 8886,
      "azz": 8887,
      "mic": 8888,
      "rated": 8889,
      "wait": 8890,
      "itable": 8891,
      "Ġyell": 8892,
      "utor": 8893,
      "utation": 8894,
      "ĠMun": 8895,
      "iform": 8896,
      "Ġsometime": 8897,
      "Ġgrat": 8898,
      "Ġpartly": 8899,
      "ï¿½u": 8900,
      "URE": 8901,
      "ĠArts": 8902,
      "Ġmarbles": 8903,
      "ĠJustin": 8904,
      "ĠEddie": 8905,
      "Ġsteam": 8906,
      "ĠHarvey": 8907,
      "Ġabsor": 8908,
      "Ġcrept": 8909,
      "Ġsolid": 8910,
      "chant": 8911,
      "Ġincreasing": 8912,
      "Ġcousins": 8913,
      "Ġvisited": 8914,
      "Ġaccompan": 8915,
      "Ġprimary": 8916,
      "Ġbubble": 8917,
      "Ġlemon": 8918,
      "Ġcriminal": 8919,
      "Ġthirsty": 8920,
      "ĠHoover": 8921,
      "jack": 8922,
      "sl": 8923,
      "Ã§": 8924,
      "Ġbars": 8925,
      "Ġdrank": 8926,
      "Ġfetch": 8927,
      "anes": 8928,
      "Ġbelly": 8929,
      "ĠSum": 8930,
      "ĠSav": 8931,
      "ĠAP": 8932,
      "Ġreb": 8933,
      "ĠCatherine": 8934,
      "ĠHope": 8935,
      "ATE": 8936,
      "ĠRachel": 8937,
      "ĠEver": 8938,
      "osity": 8939,
      "inds": 8940,
      "Ġguide": 8941,
      "Ġlasted": 8942,
      "Ġperman": 8943,
      "vention": 8944,
      "Ġimpression": 8945,
      "Ġstuffed": 8946,
      "Ġgreenbelt": 8947,
      "force": 8948,
      "itches": 8949,
      "Ġridic": 8950,
      "ĠPeters": 8951,
      "Ġstretched": 8952,
      "Ġpumpkin": 8953,
      "Ġdescribe": 8954,
      "Ġunusual": 8955,
      "Ġpennies": 8956,
      "-hm": 8957,
      "dog": 8958,
      "iac": 8959,
      "mad": 8960,
      "sk": 8961,
      "Ġsung": 8962,
      "Ġcaut": 8963,
      "orpor": 8964,
      "Ġpine": 8965,
      "ĠAw": 8966,
      "ĠMich": 8967,
      "ĠMister": 8968,
      "ĠMuseum": 8969,
      "outheast": 8970,
      "Ġsew": 8971,
      "teries": 8972,
      "ĠNOW": 8973,
      "umper": 8974,
      "igers": 8975,
      "ements": 8976,
      "ĠKaz": 8977,
      "ĠKelly": 8978,
      "Ġquack": 8979,
      "ranch": 8980,
      "Ġimit": 8981,
      "iped": 8982,
      "Ġperce": 8983,
      "Ġattorney": 8984,
      "theless": 8985,
      "Ġfacts": 8986,
      "Ġmusician": 8987,
      "ĠMmm": 8988,
      "Ġstaring": 8989,
      "Ġdeeply": 8990,
      "Ġarrive": 8991,
      "Ġdetail": 8992,
      "ynasty": 8993,
      "Ġtastes": 8994,
      "Ġvolunte": 8995,
      "Ġclimbing": 8996,
      "Ġducks": 8997,
      "Ġpatients": 8998,
      "Ġindependence": 8999,
      "ĠIranian": 9000,
      "Ġmethod": 9001,
      "ĠAnthony": 9002,
      "lic": 9003,
      "oir": 9004,
      "Äĩ": 9005,
      "Ġwishes": 9006,
      "aru": 9007,
      "ĠMu": 9008,
      "iments": 9009,
      "ĠCamer": 9010,
      "ĠPost": 9011,
      "ĠFif": 9012,
      "Ġje": 9013,
      "Ġjoking": 9014,
      "Ġspots": 9015,
      "Ġwanting": 9016,
      "Ġven": 9017,
      "ĠVava": 9018,
      "Ġthrust": 9019,
      "ruck": 9020,
      "Ġreads": 9021,
      "ĠBeat": 9022,
      "retched": 9023,
      "Ġconsum": 9024,
      "Ġunderstanding": 9025,
      "Ġrefrigerator": 9026,
      "Ġdiscovery": 9027,
      "Ġleads": 9028,
      "umbles": 9029,
      "Ġexplos": 9030,
      "Ġbags": 9031,
      "Ġlevels": 9032,
      "-go": 9033,
      "ĠDoesn": 9034,
      "Ġdebt": 9035,
      "ĠSkinner": 9036,
      "Ġlobster": 9037,
      "Billboard": 9038,
      "ĠLincoln": 9039,
      "cri": 9040,
      "down": 9041,
      "sound": 9042,
      "somet": 9043,
      "ĠId": 9044,
      "Ġpowder": 9045,
      "oto": 9046,
      "icians": 9047,
      "ĠSene": 9048,
      "Ġrejo": 9049,
      "ĠHang": 9050,
      "ĠBBC": 9051,
      "Ġwithdraw": 9052,
      "ctic": 9053,
      "resents": 9054,
      "akh": 9055,
      "ĠKhan": 9056,
      "agement": 9057,
      "Ġmustn": 9058,
      "Ġmarched": 9059,
      "Ġgrain": 9060,
      "engu": 9061,
      "Ġalongside": 9062,
      "Ġreturning": 9063,
      "Ġgrowth": 9064,
      "ĠCharl": 9065,
      "urious": 9066,
      "ĠChannel": 9067,
      "Ġmidnight": 9068,
      "Ġintroduce": 9069,
      "Ġsurvive": 9070,
      "Ġliterature": 9071,
      "ĠNathan": 9072,
      "EAH": 9073,
      "ouncillor": 9074,
      "ĠGriffith": 9075,
      "-out": 9076,
      "KING": 9077,
      "Look": 9078,
      "iar": 9079,
      "ni": 9080,
      "vant": 9081,
      "wick": 9082,
      "removes": 9083,
      "Ġmask": 9084,
      "Ġcher": 9085,
      "Ġcrib": 9086,
      "ĠTag": 9087,
      "Ġren": 9088,
      "ĠCe": 9089,
      "Ġkitten": 9090,
      "ĠNort": 9091,
      "ĠLill": 9092,
      "Ġsale": 9093,
      "ando": 9094,
      "Ġrack": 9095,
      "quis": 9096,
      "Ġvow": 9097,
      "aug": 9098,
      "Ġblaz": 9099,
      "....Ċ": 9100,
      "Ġsecrets": 9101,
      "Ġcared": 9102,
      "Ġsnip": 9103,
      "Ġsubs": 9104,
      "Ġnearby": 9105,
      "ĠGeography": 9106,
      "ipping": 9107,
      "Ġsquad": 9108,
      "ronic": 9109,
      "Ġparking": 9110,
      "ĠKevin": 9111,
      "ĠJoan": 9112,
      "Ġfeeding": 9113,
      "Ġprayer": 9114,
      "Ġsatisfaction": 9115,
      "Ġunex": 9116,
      "Ġinhabit": 9117,
      "-kun": 9118,
      "phy": 9119,
      "ught": 9120,
      "Ġawards": 9121,
      "Ġoven": 9122,
      "Ġfasc": 9123,
      "aling": 9124,
      "ĠMs": 9125,
      "ĠMorning": 9126,
      "irts": 9127,
      "ĠCross": 9128,
      "ĠBrig": 9129,
      "ATION": 9130,
      "ĠGR": 9131,
      "Ġmyster": 9132,
      "ĠHemings": 9133,
      "Ġtheme": 9134,
      "ĠStart": 9135,
      "Ġlecture": 9136,
      "Ġpartners": 9137,
      "ĠSociety": 9138,
      "Ġpron": 9139,
      "Ġimper": 9140,
      "obile": 9141,
      "Ġdisturb": 9142,
      "ĠSpeak": 9143,
      "Ġinvite": 9144,
      "Ġrepresents": 9145,
      "END": 9146,
      "Ġbusinessman": 9147,
      "Ġinspired": 9148,
      "ĠAmong": 9149,
      "Ġwhispering": 9150,
      "Ġlaunched": 9151,
      "ĠPete": 9152,
      "Ġlimit": 9153,
      "ĠDiandra": 9154,
      "Ġtraditional": 9155,
      "Ġpilot": 9156,
      "ĠPrague": 9157,
      "ĠBangl": 9158,
      "ĠOrder": 9159,
      "Ġvaluable": 9160,
      "-known": 9161,
      "fish": 9162,
      "lav": 9163,
      "mates": 9164,
      "mosp": 9165,
      "rings": 9166,
      "Ġtag": 9167,
      "Ġding": 9168,
      "Ġdates": 9169,
      "Ġpha": 9170,
      "ashes": 9171,
      "ĠTour": 9172,
      "ĠCL": 9173,
      "alls": 9174,
      "Ġnothin": 9175,
      "uled": 9176,
      "inking": 9177,
      "earch": 9178,
      "ĠInc": 9179,
      "Ġunlike": 9180,
      "Ġprices": 9181,
      "Ġflung": 9182,
      "Ġtalkin": 9183,
      "ective": 9184,
      "ultural": 9185,
      "ĠForce": 9186,
      "Ġruin": 9187,
      "Ġimagined": 9188,
      "ĠDaisy": 9189,
      "Ġtribes": 9190,
      "Ġroute": 9191,
      "Ġpuppet": 9192,
      "Ġwrapped": 9193,
      "ĠDivision": 9194,
      "ĠMeanwhile": 9195,
      "Ġconfirmed": 9196,
      "-heart": 9197,
      ";\"": 9198,
      "EM": 9199,
      "PA": 9200,
      "_.": 9201,
      "brew": 9202,
      "Ġsam": 9203,
      "Ġmal": 9204,
      "Ġcells": 9205,
      "Ġpork": 9206,
      "asper": 9207,
      "Ġhits": 9208,
      "oween": 9209,
      "Ġthunder": 9210,
      "ĠSat": 9211,
      "ĠAy": 9212,
      "riot": 9213,
      "ĠCivil": 9214,
      "still": 9215,
      "Ġlied": 9216,
      "Ġliqu": 9217,
      "ĠPur": 9218,
      "ĠRud": 9219,
      "ĠLane": 9220,
      "ĠJessie": 9221,
      "ulpt": 9222,
      "Ġages": 9223,
      "pless": 9224,
      "Ġscored": 9225,
      "Ġkindness": 9226,
      "ilding": 9227,
      "Ġtrap": 9228,
      "ĠChristians": 9229,
      "-by": 9230,
      "axy": 9231,
      "Ġsunny": 9232,
      "Ġmerged": 9233,
      "Ġprofession": 9234,
      "Ġhastily": 9235,
      "bbing": 9236,
      "ĠJoey": 9237,
      "ĠMadam": 9238,
      "ĠFranklin": 9239,
      "Ġeconomy": 9240,
      "Ġdebate": 9241,
      "ĠHolmes": 9242,
      "Ġsqueeze": 9243,
      "ĠFergus": 9244,
      "oa": 9245,
      "Ġmild": 9246,
      "orms": 9247,
      "Ġlimb": 9248,
      "Ġhaha": 9249,
[...]
