{
  "version": "1.0",
  "truncation": {
    "direction": "Right",
    "max_length": 16,
    "strategy": "LongestFirst",
    "stride": 0
  },
  "padding": {
    "strategy": {
      "Fixed": 16
    },
    "direction": "Right",
    "pad_to_multiple_of": null,
    "pad_id": 3,
    "pad_type_id": 0,
    "pad_token": "<pad>"
  },
  "added_tokens": [
    {
      "id": 0,
      "content": "<unk>",
      "single_word": false,
      "lstrip": false,
      "rstrip": false,
      "normalized": false,
      "special": true
    },
    {
      "id": 1,
      "content": "<s>",
      "single_word": false,
      "lstrip": false,
      "rstrip": false,
      "normalized": false,
      "special": true
    },
    {
      "id": 2,
      "content": "</s>",
      "single_word": false,
      "lstrip": false,
      "rstrip": false,
      "normalized": false,
      "special": true
    },
    {
      "id": 3,
      "content": "<pad>",
      "single_word": false,
      "lstrip": false,
      "rstrip": false,
      "normalized": false,
      "special": true
    },
    {
      "id": 4,
      "content": "<mask>",
      "single_word": false,
      "lstrip": false,
      "rstrip": false,
      "normalized": false,
      "special": true
    }
  ],
  "normalizer": {
    "type": "Sequence",
    "normalizers": [
      {
        "type": "Prepend",
        "prepend": " "
      },
      {
        "type": "NFKC"
      },
      {
        "type": "Replace",
        "pattern": {
          "Regex": "\\n"
        },
        "content": "\n "
      },
      {
        "type": "Replace",
        "pattern": {
          "Regex": " *\\n"
        },
        "content": "\n"
      }
    ]
  },
  "pre_tokenizer": {
    "type": "Sequence",
    "pretokenizers": [
      {
        "type": "Split",
        "pattern": {
          "Regex": "[^\\r\\n\\p{L}\\p{N}]?[\\p{Lu}\\p{Lt}\\p{Lm}\\p{Lo}\\p{M}]*[\\p{Ll}\\p{Lm}\\p{Lo}\\p{M}]+|[^\\r\\n\\p{L}\\p{N}]?[\\p{Lu}\\p{Lt}\\p{Lm}\\p{Lo}\\p{M}]+[\\p{Ll}\\p{Lm}\\p{Lo}\\p{M}]*|\\p{N}| ?[^\\s\\p{L}\\p{N}]+[\\r\\n/]*|\\s*[\\r\\n]+|\\s+(?!\\S)|\\s+"
        },
        "behavior": "Isolated",
        "invert": false
      },
      {
        "type": "ByteLevel",
        "add_prefix_space": false,
        "trim_offsets": true,
        "use_regex": false
      },
      {
        "type": "Split",
        "pattern": {
          "Regex": ".{1,24}"
        },
        "behavior": "Isolated",
        "invert": false
      }
    ]
  },
  "post_processor": {
    "type": "TemplateProcessing",
    "single": [
      {
        "SpecialToken": {
          "id": "<s>",
          "type_id": 0
        }
      },
      {
        "Sequence": {
          "id": "A",
          "type_id": 0
        }
      },
      {
        "SpecialToken": {
          "id": "</s>",
          "type_id": 0
        }
      }
    ],
    "pair": [
      {
        "SpecialToken": {
          "id": "<s>",
          "type_id": 0
        }
      },
      {
        "Sequence": {
          "id": "A",
          "type_id": 0
        }
      },
      {
        "SpecialToken": {
          "id": "</s>",
          "type_id": 0
        }
      },
      {
        "SpecialToken": {
          "id": "<s>",
          "type_id": 0
        }
      },
      {
        "Sequence": {
          "id": "B",
          "type_id": 0
        }
      },
      {
        "SpecialToken": {
          "id": "</s>",
          "type_id": 0
        }
      }
    ],
    "special_tokens": {
      "</s>": {
        "id": "</s>",
        "ids": [
          2
        ],
        "tokens": [
          "</s>"
        ]
      },
      "<s>": {
        "id": "<s>",
        "ids": [
          1
        ],
        "tokens": [
          "<s>"
        ]
      }
    }
  },
  "decoder": {
    "type": "Sequence",
    "decoders": [
      {
        "type": "ByteLevel",
        "add_prefix_space": true,
        "trim_offsets": true,
        "use_regex": true
      },
      {
        "type": "Strip",
        "content": " ",
        "start": 1,
        "stop": 0
      },
      {
        "type": "Replace",
        "pattern": {
          "String": "\n "
        },
        "content": "\n"
      }
    ]
  },
  "model": {
    "type": "BPE",
    "dropout": null,
    "unk_token": "<unk>",
    "continuing_subword_prefix": null,
    "end_of_word_suffix": null,
    "fuse_unk": false,
    "byte_fallback": false,
    "ignore_merges": false,
    "vocab": {
      "<unk>": 0,
      "<s>": 1,
      "</s>": 2,
      "<pad>": 3,
      "<mask>": 4,
      "!": 5,
      "\"": 6,
      "#": 7,
      "$": 8,
      "%": 9,
      "&": 10,
      "'": 11,
      "(": 12,
      ")": 13,
      "*": 14,
      "+": 15,
      ",": 16,
      "-": 17,
      ".": 18,
      "/": 19,
      "0": 20,
      "1": 21,
      "2": 22,
      "3": 23,
      "4": 24,
      "5": 25,
      "6": 26,
      "7": 27,
      "8": 28,
      "9": 29,
      ":": 30,
      ";": 31,
      "<": 32,
      "=": 33,
      ">": 34,
      "?": 35,
      "@": 36,
      "A": 37,
      "B": 38,
      "C": 39,
      "D": 40,
      "E": 41,
      "F": 42,
      "G": 43,
      "H": 44,
      "I": 45,
      "J": 46,
      "K": 47,
      "L": 48,
      "M": 49,
      "N": 50,
      "O": 51,
      "P": 52,
      "Q": 53,
      "R": 54,
      "S": 55,
      "T": 56,
      "U": 57,
      "V": 58,
      "W": 59,
      "X": 60,
      "Y": 61,
      "Z": 62,
      "[": 63,
      "\\": 64,
      "]": 65,
      "^": 66,
      "_": 67,
      "`": 68,
      "a": 69,
      "b": 70,
      "c": 71,
      "d": 72,
      "e": 73,
      "f": 74,
      "g": 75,
      "h": 76,
      "i": 77,
      "j": 78,
      "k": 79,
      "l": 80,
      "m": 81,
      "n": 82,
      "o": 83,
      "p": 84,
      "q": 85,
      "r": 86,
      "s": 87,
      "t": 88,
      "u": 89,
      "v": 90,
      "w": 91,
      "x": 92,
      "y": 93,
      "z": 94,
      "{": 95,
      "|": 96,
      "}": 97,
      "~": 98,
      "¡": 99,
      "¢": 100,
      "£": 101,
      "¤": 102,
      "¥": 103,
      "¦": 104,
      "§": 105,
      "¨": 106,
      "©": 107,
      "ª": 108,
      "«": 109,
      "¬": 110,
      "®": 111,
      "¯": 112,
      "°": 113,
      "±": 114,
      "²": 115,
      "³": 116,
      "´": 117,
      "µ": 118,
      "¶": 119,
      "·": 120,
      "¸": 121,
      "¹": 122,
      "º": 123,
      "»": 124,
      "¼": 125,
      "½": 126,
      "¾": 127,
      "¿": 128,
      "À": 129,
      "Á": 130,
      "Â": 131,
      "Ã": 132,
      "Ä": 133,
      "Å": 134,
      "Æ": 135,
      "Ç": 136,
      "È": 137,
      "É": 138,
      "Ê": 139,
      "Ë": 140,
      "Ì": 141,
      "Í": 142,
      "Î": 143,
      "Ï": 144,
      "Ð": 145,
      "Ñ": 146,
      "Ò": 147,
      "Ó": 148,
      "Ô": 149,
      "Õ": 150,
      "Ö": 151,
      "×": 152,
      "Ø": 153,
      "Ù": 154,
      "Ú": 155,
      "Û": 156,
      "Ü": 157,
      "Ý": 158,
      "Þ": 159,
      "ß": 160,
      "à": 161,
      "á": 162,
      "â": 163,
      "ã": 164,
      "ä": 165,
      "å": 166,
      "æ": 167,
      "ç": 168,
      "è": 169,
      "é": 170,
      "ê": 171,
      "ë": 172,
      "ì": 173,
      "í": 174,
      "î": 175,
      "ï": 176,
      "ð": 177,
      "ñ": 178,
      "ò": 179,
      "ó": 180,
      "ô": 181,
      "õ": 182,
      "ö": 183,
      "÷": 184,
      "ø": 185,
      "ù": 186,
      "ú": 187,
      "û": 188,
      "ü": 189,
      "ý": 190,
      "þ": 191,
      "ÿ": 192,
      "Ā": 193,
      "ā": 194,
      "Ă": 195,
      "ă": 196,
      "Ą": 197,
      "ą": 198,
      "Ć": 199,
      "ć": 200,
      "Ĉ": 201,
      "ĉ": 202,
      "Ċ": 203,
      "ċ": 204,
      "Č": 205,
      "č": 206,
      "Ď": 207,
      "ď": 208,
      "Đ": 209,
      "đ": 210,
      "Ē": 211,
      "ē": 212,
      "Ĕ": 213,
      "ĕ": 214,
      "Ė": 215,
      "ė": 216,
      "Ę": 217,
      "ę": 218,
      "Ě": 219,
      "ě": 220,
      "Ĝ": 221,
      "ĝ": 222,
      "Ğ": 223,
      "ğ": 224,
      "Ġ": 225,
      "ġ": 226,
      "Ģ": 227,
      "ģ": 228,
      "Ĥ": 229,
      "ĥ": 230,
      "Ħ": 231,
      "ħ": 232,
      "Ĩ": 233,
      "ĩ": 234,
      "Ī": 235,
      "ī": 236,
      "Ĭ": 237,
      "ĭ": 238,
      "Į": 239,
      "į": 240,
      "İ": 241,
      "ı": 242,
      "Ĳ": 243,
      "ĳ": 244,
      "Ĵ": 245,
      "ĵ": 246,
      "Ķ": 247,
      "ķ": 248,
      "ĸ": 249,
      "Ĺ": 250,
      "ĺ": 251,
      "Ļ": 252,
      "ļ": 253,
      "Ľ": 254,
      "ľ": 255,
      "Ŀ": 256,
      "ŀ": 257,
      "Ł": 258,
      "ł": 259,
      "Ń": 260,
      "Ġt": 261,
      "he": 262,
      "Ġa": 263,
      "in": 264,
      "Ġw": 265,
      "Ġthe": 266,
      "re": 267,
      "Ġs": 268,
      "ou": 269,
      "Ġo": 270,
      "Ġ*": 271,
      "ha": 272,
      "er": 273,
      "nd": 274,
      "Ġb": 275,
      "it": 276,
      "is": 277,
      "Ġc": 278,
      "Ġm": 279,
      "on": 280,
      "Ġd": 281,
      "Ġf": 282,
      "ing": 283,
      "Ġto": 284,
      "ed": 285,
      "Ġy": 286,
      "ĠI": 287,
      "or": 288,
      "ll": 289,
      "es": 290,
      "en": 291,
      "an": 292,
      "Ġp": 293,
      "Ġand": 294,
      "ar": 295,
      "Ġl": 296,
      "hat": 297,
      "Ġyou": 298,
      "Ġof": 299,
      "Ġg": 300,
      "at": 301,
      "Ġin": 302,
      "as": 303,
      "Ġn": 304,
      "HI": 305,
      "CHI": 306,
      "om": 307,
      "OT": 308,
      "MOT": 309,
      "Ġhe": 310,
      "Ġh": 311,
      "ow": 312,
      "le": 313,
      "ic": 314,
      "ot": 315,
      "Ġha": 316,
      "et": 317,
      "Ġit": 318,
      "ve": 319,
      "'s": 320,
      "Ġon": 321,
      "ay": 322,
      "Ġth": 323,
      "Ġthat": 324,
      "us": 325,
      "ĠT": 326,
      "id": 327,
      "al": 328,
      "gh": 329,
      "Ġbe": 330,
      "Ġe": 331,
      "ĠS": 332,
      "Ġis": 333,
      "ĠA": 334,
      "ld": 335,
      "Ġwas": 336,
      "Ġre": 337,
      "ut": 338,
      "Ġwe": 339,
      "ac": 340,
      "ion": 341,
      "ent": 342,
      "im": 343,
      "ĠM": 344,
      "ver": 345,
      "oo": 346,
      "Ġfor": 347,
      "ad": 348,
      "ly": 349,
      "ir": 350,
      "Ġst": 351,
      "ri": 352,
      "ke": 353,
      "Ġ=": 354,
      "se": 355,
      "Ġu": 356,
      "am": 357,
      "ĠC": 358,
      "..": 359,
      "st": 360,
      "ght": 361,
      "ro": 362,
      "ĠW": 363,
      "Ġ[": 364,
      "'t": 365,
      "ĠH": 366,
      "Ġdo": 367,
      "ith": 368,
      "ĠB": 369,
      "her": 370,
      "Ġwh": 371,
      "out": 372,
      "Ġwith": 373,
      "Ġk": 374,
      "Ġme": 375,
      "Ġan": 376,
      "Ġ\"": 377,
      "ur": 378,
      "ĠThe": 379,
      "Ġwhat": 380,
      "Ġas": 381,
      "all": 382,
      "Ġse": 383,
      "ter": 384,
      "ch": 385,
      "Ġat": 386,
      "ce": 387,
      "ome": 388,
      "Ġli": 389,
      "ill": 390,
      "ea": 391,
      "il": 392,
      "ct": 393,
      "Ġnot": 394,
      "ould": 395,
      "Ġthis": 396,
      "Ġgo": 397,
      "ĠP": 398,
      "Ġhave": 399,
      "ĠD": 400,
      "ra": 401,
      "Ġare": 402,
      "if": 403,
      "Ġher": 404,
      "Ġhis": 405,
      "ĠN": 406,
      "ĠY": 407,
      "AT": 408,
      "un": 409,
      "Ġkn": 410,
      "ust": 411,
      "ant": 412,
      "Ġthey": 413,
      "xx": 414,
      "Ġno": 415,
      "Ġone": 416,
      "FAT": 417,
      "ore": 418,
      "Ġwhe": 419,
      "ĠR": 420,
      "Ġshe": 421,
      "pp": 422,
      "Ġso": 423,
      "rom": 424,
      "Ġ-": 425,
      "ĠO": 426,
      "Ġne": 427,
      "ge": 428,
      "ĠG": 429,
      "ĠF": 430,
      "Ġcan": 431,
      "Ġde": 432,
      "ĠL": 433,
      "and": 434,
      "...": 435,
      "um": 436,
      "op": 437,
      "ĠE": 438,
      "Ġup": 439,
      "Ġknow": 440,
      "Ġall": 441,
      "ell": 442,
      "Ġj": 443,
      "ain": 444,
      "Ġhad": 445,
      "Ġmy": 446,
      "ul": 447,
      "our": 448,
      "ation": 449,
      "ie": 450,
      "th": 451,
      "Ġthere": 452,
      "ook": 453,
      "red": 454,
      "ol": 455,
      "Ġr": 456,
      "Ġsa": 457,
      "Ġdon": 458,
      "Ġfrom": 459,
      "Ġbut": 460,
      "Ġal": 461,
      "Ġyour": 462,
      "art": 463,
      "ĠJ": 464,
      "ers": 465,
      "est": 466,
      "ab": 467,
      "ack": 468,
      "ry": 469,
      "Ġsh": 470,
      "ess": 471,
      "os": 472,
      "ood": 473,
      "ig": 474,
      "eah": 475,
      "Ġpl": 476,
      "ight": 477,
      "âĢ": 478,
      "Ġab": 479,
      "Ġlike": 480,
      "em": 481,
      "el": 482,
      "Ġby": 483,
      "Ġdid": 484,
      "ist": 485,
      "Ġhim": 486,
      "Ġout": 487,
      "Ġsu": 488,
      "han": 489,
      "Ġor": 490,
      "ake": 491,
      "ĠIt": 492,
      "qu": 493,
      "ĠHe": 494,
      "Ġwere": 495,
      "very": 496,
      "ound": 497,
      "res": 498,
      "ong": 499,
      "nt": 500,
      "hi": 501,
      "Ġwho": 502,
      "Ġcom": 503,
      "ame": 504,
      "Ġcon": 505,
      "Ġv": 506,
      "Ġget": 507,
      "itt": 508,
      "Ġsp": 509,
      "ink": 510,
      "ck": 511,
      "ate": 512,
      "ive": 513,
      "right": 514,
      "Ġwor": 515,
      "ast": 516,
      "ard": 517,
      "'re": 518,
      "ind": 519,
      "one": 520,
      "Ġthem": 521,
      "'m": 522,
      "Ġex": 523,
      "use": 524,
      "Ġsome": 525,
      "ber": 526,
      "ally": 527,
      "Ġsaid": 528,
      "na": 529,
      "Ġyeah": 530,
      "fe": 531,
      "ep": 532,
      "Ġabout": 533,
      "ak": 534,
      "Ġhere": 535,
      "ear": 536,
      "ĠYou": 537,
      "own": 538,
      "ough": 539,
      "Ġsee": 540,
      "Ġwould": 541,
      "Ġtw": 542,
      "ice": 543,
      "od": 544,
      "ort": 545,
      "Ġjust": 546,
      "xxx": 547,
      "ap": 548,
      "Ġxxx": 549,
      "Ġman": 550,
      "Ġpro": 551,
      "Ġwhen": 552,
      "Ġ(": 553,
      "ich": 554,
      "other": 555,
      "ag": 556,
      "Ġwant": 557,
      "Ġif": 558,
      "au": 559,
      "ime": 560,
      "Ġlook": 561,
      "ous": 562,
      "Ġany": 563,
      "ies": 564,
      "ide": 565,
      "ick": 566,
      "ity": 567,
      "Ġright": 568,
      "Ġthink": 569,
      "ĠK": 570,
      "Ġus": 571,
      "Ġnow": 572,
      "ther": 573,
      "Ġint": 574,
      "ine": 575,
      "hing": 576,
      "ven": 577,
      "ost": 578,
      "Ġwill": 579,
      "ĠU": 580,
      "kay": 581,
      "Ġtheir": 582,
      "'ll": 583,
      "Ġoh": 584,
      "ittle": 585,
      "Ġar": 586,
      "Ġsay": 587,
      "Ġcl": 588,
      "ca": 589,
      "Ġgot": 590,
      "Ġwhich": 591,
      "Ġlittle": 592,
      "Ġmore": 593,
      "Ġwhere": 594,
      "Ġag": 595,
      "].": 596,
      "ite": 597,
      "Ġthen": 598,
      "Ġpe": 599,
      "Ġhow": 600,
      "Ġtwo": 601,
      "int": 602,
      "ment": 603,
      "Ġtime": 604,
      "ud": 605,
      "ace": 606,
      "way": 607,
      "ure": 608,
      "reat": 609,
      "Ġcould": 610,
      "Ġbeen": 611,
      "Ġtoo": 612,
      "Ġhas": 613,
      "Ġro": 614,
      "AR": 615,
      "ĠAnd": 616,
      "ree": 617,
      "IN": 618,
      "lf": 619,
      "ond": 620,
      "Ġgood": 621,
      "end": 622,
      "Ġover": 623,
      "Ġtr": 624,
      "Ġother": 625,
      "Ġback": 626,
      ".\"": 627,
      "ose": 628,
      "ish": 629,
      "Ġdown": 630,
      "Ġaf": 631,
      "Ġvery": 632,
      "ove": 633,
      "Ġput": 634,
      "Ġoff": 635,
      "ĠIn": 636,
      "oy": 637,
      "hed": 638,
      "--": 639,
      "Ġokay": 640,
      "Ġbl": 641,
      "cause": 642,
      "ved": 643,
      "Ġle": 644,
      "ian": 645,
      "Ġgoing": 646,
      "ĠSt": 647,
      "Ġ'": 648,
      "Ġqu": 649,
      "Ġfe": 650,
      "ect": 651,
      "ark": 652,
      "ci": 653,
      "ase": 654,
      "ft": 655,
      "MAR": 656,
      "ople": 657,
      "ings": 658,
      "are": 659,
      "Ġthan": 660,
      "ue": 661,
      "ater": 662,
      "Ġen": 663,
      "ĠTh": 664,
      "age": 665,
      "pt": 666,
      "alk": 667,
      "ary": 668,
      "Ġdis": 669,
      "ass": 670,
      "ia": 671,
      "Ġinto": 672,
      "Ġwell": 673,
      "ĠShe": 674,
      "urn": 675,
      "Ġpeople": 676,
      "Ġlet": 677,
      "orn": 678,
      "irst": 679,
      "ĠâĢ": 680,
      "Ġcome": 681,
      "Ġbr": 682,
      "ving": 683,
      ",\"": 684,
      "augh": 685,
      "oll": 686,
      "ble": 687,
      "ade": 688,
      "omet": 689,
      "pl": 690,
      "ount": 691,
      "ĠWhat": 692,
      "ty": 693,
      "ire": 694,
      "Ġgr": 695,
      "Ġplay": 696,
      "Ġun": 697,
      "ĠWe": 698,
      "ought": 699,
      "Ġmake": 700,
      "ord": 701,
      "Ġwork": 702,
      "INV": 703,
      "Ġday": 704,
      "ĠV": 705,
      "'ve": 706,
      "ren": 707,
      "Ġcall": 708,
      "Ġpart": 709,
      "ves": 710,
      "onna": 711,
      "ated": 712,
      "ff": 713,
      "Ġfirst": 714,
      "Ġafter": 715,
      "per": 716,
      "iss": 717,
      "Ġpr": 718,
      "Ġthr": 719,
      "Ġway": 720,
      "ans": 721,
      "Ġagain": 722,
      "Ġer": 723,
      "Ġam": 724,
      "act": 725,
      "ach": 726,
      "mer": 727,
      "Ġsomet": 728,
      "wn": 729,
      "Ġgonna": 730,
      "Ġtell": 731,
      "ions": 732,
      "so": 733,
      "Ġyear": 734,
      "ather": 735,
      "able": 736,
      "ps": 737,
      "cc": 738,
      "Ġdoes": 739,
      "ru": 740,
      "old": 741,
      "Ġ%": 742,
      "Ġtake": 743,
      "Ġbet": 744,
      "my": 745,
      "Ġevery": 746,
      "Ġhu": 747,
      "ĠBut": 748,
      "Ġfl": 749,
      "self": 750,
      "fore": 751,
      "ng": 752,
      "Ġpre": 753,
      "iz": 754,
      "Ġbecause": 755,
      "Ġad": 756,
      "RO": 757,
      "Ġwr": 758,
      "ĠNo": 759,
      "Ġim": 760,
      "Ġonly": 761,
      "ance": 762,
      "ile": 763,
      "Ġcomp": 764,
      "ool": 765,
      "Ġrem": 766,
      "laugh": 767,
      "ress": 768,
      "les": 769,
      "ub": 770,
      "og": 771,
      "IS": 772,
      "Ġte": 773,
      "nder": 774,
      "Ġour": 775,
      "Ġcha": 776,
      "Ġneed": 777,
      "oc": 778,
      "ang": 779,
      "ew": 780,
      "ouse": 781,
      "ock": 782,
      "oss": 783,
      "ull": 784,
      "Ġwhy": 785,
      "uch": 786,
      "Ġshould": 787,
      "Ġgu": 788,
      "Ġthese": 789,
      "Ġcar": 790,
      "Ġch": 791,
      "Ġmade": 792,
      "Ġapp": 793,
      "ne": 794,
      "ory": 795,
      "we": 796,
      "ĠSo": 797,
      "pe": 798,
      "hen": 799,
      "Ġhapp": 800,
      "cl": 801,
      "Ġthrough": 802,
      "day": 803,
      "hy": 804,
      "ied": 805,
      "ict": 806,
      "Ġchi": 807,
      "Ġlong": 808,
      "Ġdidn": 809,
      "ĠThey": 810,
      "Ġsha": 811,
      "ady": 812,
      "Ġsomething": 813,
      "laughs": 814,
      "ign": 815,
      "SIS": 816,
      "ence": 817,
      "Ġmuch": 818,
      "Ġsc": 819,
      "Ġhand": 820,
      "ĠThis": 821,
      "Ġper": 822,
      "Ġchild": 823,
      "Ġthree": 824,
      "ĠUn": 825,
      "Ġbefore": 826,
      "av": 827,
      "thing": 828,
      "ĠThat": 829,
      "Ġres": 830,
      "irl": 831,
      "Ġcont": 832,
      "ix": 833,
      "Ġsm": 834,
      "Ġmay": 835,
      "Ġunder": 836,
      "ise": 837,
      "ting": 838,
      "Ġalso": 839,
      "be": 840,
      "Ġtalk": 841,
      "Ġpo": 842,
      "man": 843,
      "ors": 844,
      "ip": 845,
      "BRO": 846,
      "Ġgreat": 847,
      "ĠMr": 848,
      "iv": 849,
      "ons": 850,
      "Ġeat": 851,
      "Ġmean": 852,
      "ĠOh": 853,
      "yes": 854,
      "ĠâĢľ": 855,
      "ates": 856,
      "Ġbig": 857,
      "ks": 858,
      "Ġwan": 859,
      "Ġold": 860,
      "Ġnew": 861,
      "Ġke": 862,
      "Ġmo": 863,
      "Ġact": 864,
      "Ġeven": 865,
      "Ġwent": 866,
      "Ġbu": 867,
      "add": 868,
      "âĢĻ": 869,
      "Ġnever": 870,
      "ody": 871,
      "Ġboy": 872,
      "ĠMom": 873,
      "Ġreally": 874,
      "Ġser": 875,
      "Ġhel": 876,
      "ful": 877,
      "Ġuh": 878,
      "zz": 879,
      "ited": 880,
      "Ġaway": 881,
      "ĠCh": 882,
      "up": 883,
      "Ġstill": 884,
      "Ġyes": 885,
      "ward": 886,
      "ĠYeah": 887,
      "ath": 888,
      "gg": 889,
      "Ġcame": 890,
      "ens": 891,
      "ical": 892,
      "land": 893,
      "Ġthose": 894,
      "Ġgirl": 895,
      "ily": 896,
      "ĠChi": 897,
      "atch": 898,
      "Ġhome": 899,
      "igh": 900,
      "Ġmany": 901,
      "orm": 902,
      "'d": 903,
      "ious": 904,
      "Ġlea": 905,
      "hes": 906,
      "Ġcr": 907,
      "get": 908,
      "Ġturn": 909,
      "Ġra": 910,
      "ult": 911,
      "Ġwanna": 912,
      "ail": 913,
      "Ġthought": 914,
      "ob": 915,
      "ĠWell": 916,
      "Ġrec": 917,
      "ried": 918,
      "Ġlast": 919,
      "Ġstart": 920,
      "Ġsec": 921,
      "Ġask": 922,
      "Ġbel": 923,
      "Ġmust": 924,
      "chool": 925,
      "oth": 926,
      "Ġanother": 927,
      "als": 928,
      "Ġum": 929,
      "ert": 930,
      "Ġsl": 931,
      "ï¿": 932,
      "Ġits": 933,
      "Ġco": 934,
      "ĠThere": 935,
      "uck": 936,
      "Ġname": 937,
      "Ġbook": 938,
      "?\"": 939,
      "Ġthing": 940,
      "ened": 941,
      "Ġhouse": 942,
      "ï¿½": 943,
      "riend": 944,
      "te": 945,
      "Ġwhile": 946,
      "Ġshow": 947,
      "Ġgive": 948,
      "Ġhead": 949,
      "ung": 950,
      "ĠMar": 951,
      "Ġown": 952,
      "Ġhelp": 953,
      "Ġdes": 954,
      "anc": 955,
      "Ġwa": 956,
      "Ġatt": 957,
      "Ġmother": 958,
      "Ġnum": 959,
      "Ġfind": 960,
      "ember": 961,
      "Ġcomm": 962,
      "air": 963,
      "Ġbo": 964,
      "UR": 965,
      "ations": 966,
      "ys": 967,
      "Ġfound": 968,
      "xt": 969,
      "Ġthings": 970,
      "vers": 971,
      "Ġyears": 972,
      "vel": 973,
      "Ġmost": 974,
      "Ġfour": 975,
      ".]": 976,
      "ition": 977,
      "Ġchan": 978,
      "ince": 979,
      "Ġdoing": 980,
      "side": 981,
      "ild": 982,
      "Ġtry": 983,
      "here": 984,
      "Ġnight": 985,
      "Ġend": 986,
      "ina": 987,
      "ny": 988,
      "Ġear": 989,
      "aby": 990,
      "ĠAs": 991,
      "Ġsuch": 992,
      "Ġche": 993,
      "Ġple": 994,
      "âĢĿ": 995,
      "port": 996,
      "aking": 997,
      "ĠAl": 998,
      "Ġtra": 999,
      "rd": 1000,
      "ident": 1001,
      "Ġdif": 1002,
      "Ġcalled": 1003,
      "ever": 1004,
      "ction": 1005,
      "uc": 1006,
      "oney": 1007,
      "ah": 1008,
      "Ġwater": 1009,
      "ec": 1010,
      "Ġind": 1011,
      "Ġcount": 1012,
      "Ġmom": 1013,
      "Ġkind": 1014,
      "Ġgl": 1015,
      "Ġfin": 1016,
      "Ġfriend": 1017,
      "Ġpres": 1018,
      "Ġbeing": 1019,
      "ĠFr": 1020,
      "Ġop": 1021,
      "ĠHow": 1022,
      "Ġwon": 1023,
      "Ġread": 1024,
      "rent": 1025,
      "Ġel": 1026,
      "Ġmin": 1027,
      "hm": 1028,
      "aw": 1029,
      "ĠIf": 1030,
      "Ġmight": 1031,
      "Ġlove": 1032,
      "Ġaround": 1033,
      "Ġsupp": 1034,
      "ĠBr": 1035,
      "Ġschool": 1036,
      "akes": 1037,
      "ning": 1038,
      "Ġplace": 1039,
      "led": 1040,
      "amp": 1041,
      "ents": 1042,
      "Ġbec": 1043,
      "ave": 1044,
      "URS": 1045,
      "Ġroom": 1046,
      "Ġfeel": 1047,
      "Ġcare": 1048,
      "ually": 1049,
      "ars": 1050,
      "Ġhuh": 1051,
      "Ġbeg": 1052,
      "enc": 1053,
      "ont": 1054,
      "ĠIs": 1055,
      "Ġbetter": 1056,
      "body": 1057,
      "Ġused": 1058,
      "ĠBe": 1059,
      "ial": 1060,
      "ways": 1061,
      "Ġlife": 1062,
      "uring": 1063,
      "Ġdone": 1064,
      "Ġnumber": 1065,
      "Ġsure": 1066,
      "oh": 1067,
      "Ġsame": 1068,
      "ute": 1069,
      "Ġword": 1070,
      "ere": 1071,
      "Ġele": 1072,
      "li": 1073,
      "Ġset": 1074,
      "Ġkeep": 1075,
      "Ġfive": 1076,
      "tern": 1077,
      "Ġstr": 1078,
      "ph": 1079,
      "ican": 1080,
      "ĠMommy": 1081,
      "Ġfather": 1082,
      "Ġsil": 1083,
      "Ġmen": 1084,
      "Ġac": 1085,
      "Ġacc": 1086,
      "imes": 1087,
      "Ġsw": 1088,
      "Ġmon": 1089,
      "ream": 1090,
      "Ġnext": 1091,
      "ott": 1092,
      "ros": 1093,
      "Ġret": 1094,
      "Ġob": 1095,
      "ER": 1096,
      "Ġcour": 1097,
      "ĠAn": 1098,
      "ts": 1099,
      "ĠOn": 1100,
      "ĠYes": 1101,
      "ational": 1102,
      "ms": 1103,
      "ished": 1104,
      "Ġwom": 1105,
      "ins": 1106,
      "Ġunt": 1107,
      "Ġfam": 1108,
      "Ġsing": 1109,
      "vent": 1110,
      "ness": 1111,
      "row": 1112,
      "Ġever": 1113,
      "Ġanything": 1114,
      "ug": 1115,
      "Ġuse": 1116,
      "Ġbre": 1117,
      "ee": 1118,
      "Ġtold": 1119,
      "Ġca": 1120,
      "ower": 1121,
      "Ġelse": 1122,
      "ĠAmer": 1123,
      "Ġtook": 1124,
      "mp": 1125,
      "ird": 1126,
      "ank": 1127,
      "Ġbaby": 1128,
      "ling": 1129,
      "Ġbelie": 1130,
      "Ġpol": 1131,
      "Ġexp": 1132,
      "ĠMark": 1133,
      "Ġreg": 1134,
      "oot": 1135,
      "Ġent": 1136,
      "Ġdr": 1137,
      "mber": 1138,
      "Ġwait": 1139,
      "Ġfar": 1140,
      "Ġalways": 1141,
      "gr": 1142,
      "ĠAll": 1143,
      "Ġleft": 1144,
      "Ġcle": 1145,
      "ters": 1146,
      "ween": 1147,
      "Ġlot": 1148,
      "ollow": 1149,
      "Ġsaw": 1150,
      "Ġworld": 1151,
      "Ġpie": 1152,
      "Ġsur": 1153,
      "ĠDo": 1154,
      "ĠAt": 1155,
      "Ġstud": 1156,
      "Ġdiffe": 1157,
      "ĠUnited": 1158,
      "outh": 1159,
      "mb": 1160,
      "Ġmag": 1161,
      "Ġseem": 1162,
      "Ġuntil": 1163,
      "Ġreal": 1164,
      "Ġmhm": 1165,
      "Ġpret": 1166,
      "Ġpers": 1167,
      "Ġwar": 1168,
      "Ġsix": 1169,
      "oun": 1170,
      "ible": 1171,
      "ject": 1172,
      "Ġnice": 1173,
      "ĠAf": 1174,
      "Ġsit": 1175,
      "Ġrun": 1176,
      "Ġbus": 1177,
      "pped": 1178,
      "ures": 1179,
      "uh": 1180,
      "Ġrel": 1181,
      "ner": 1182,
      "Ġ.": 1183,
      "Ġdoesn": 1184,
      "Ġph": 1185,
      "ĠRe": 1186,
      "ĠKing": 1187,
      "Ġwee": 1188,
      "form": 1189,
      "Ġboth": 1190,
      "ĠNew": 1191,
      "ets": 1192,
      "Ġbetween": 1193,
      "ĠAr": 1194,
      "Ġdog": 1195,
      "Ġsmall": 1196,
      "Ġcons": 1197,
      "ating": 1198,
      "Ġfun": 1199,
      "ounds": 1200,
      "Ġhold": 1201,
      "cle": 1202,
      "Ġpass": 1203,
      "Ġchildren": 1204,
      "Ġblack": 1205,
      "Ġyoung": 1206,
      "Ġgi": 1207,
      "Ġupon": 1208,
      "fect": 1209,
      "orry": 1210,
      "Ġgre": 1211,
      "Ġyet": 1212,
      "Ġhigh": 1213,
      "Ġcol": 1214,
      "Ġdist": 1215,
      "Ġgra": 1216,
      "!\"": 1217,
      "ndred": 1218,
      "ased": 1219,
      "ĠWh": 1220,
      "Ġstay": 1221,
      "ries": 1222,
      "ĠCha": 1223,
      "Ġchar": 1224,
      "Ġstand": 1225,
      "ib": 1226,
      "Ġmar": 1227,
      "ret": 1228,
      "ĠEng": 1229,
      "aught": 1230,
      "ired": 1231,
      "oup": 1232,
      "Ġhundred": 1233,
      "ĠDe": 1234,
      "ump": 1235,
      "Ġhard": 1236,
      "ubl": 1237,
      "io": 1238,
      "ĠTH": 1239,
      "ered": 1240,
      "Ġmoney": 1241,
      "az": 1242,
      "Ġthough": 1243,
      "ellow": 1244,
      "gether": 1245,
      "ye": 1246,
      "Ġsecond": 1247,
      "Ġtogether": 1248,
      "the": 1249,
      "Ġinst": 1250,
      "ope": 1251,
      "ger": 1252,
      "ross": 1253,
      "Ġnothing": 1254,
      "Ġdat": 1255,
      "Ġsays": 1256,
      "ics": 1257,
      "AN": 1258,
      "Ġmat": 1259,
      "Ġonce": 1260,
      "Ġbest": 1261,
      "Ġwithout": 1262,
      "Ġwatch": 1263,
      "ener": 1264,
      "its": 1265,
      "Ġenough": 1266,
      "Ġknown": 1267,
      "ĠWhen": 1268,
      "Ġsy": 1269,
      "Ġremember": 1270,
      "Ġmet": 1271,
      "Ġpoint": 1272,
      "leep": 1273,
      "ĠFor": 1274,
      "ces": 1275,
      "clud": 1276,
      "cial": 1277,
      "Ġdisc": 1278,
      "Ġagainst": 1279,
      "Ġinv": 1280,
      "oon": 1281,
      "usic": 1282,
      "Ġstick": 1283,
      "Ġlight": 1284,
      "Ġplease": 1285,
      "Ġfr": 1286,
      "ular": 1287,
      "Ġopen": 1288,
      "Ġside": 1289,
      "Ġfew": 1290,
      "Ġimp": 1291,
      "Ġeyes": 1292,
      "orning": 1293,
      "ister": 1294,
      "Ġeach": 1295,
      "Ġfollow": 1296,
      "Ġwalk": 1297,
      "Ġred": 1298,
      "oud": 1299,
      "Ġnear": 1300,
      "Ġhimself": 1301,
      "rist": 1302,
      "Ġmil": 1303,
      "Ġter": 1304,
      "Ġdoor": 1305,
      "ched": 1306,
      "ĠWhy": 1307,
      "ton": 1308,
      "eak": 1309,
      "ane": 1310,
      "ES": 1311,
      "Ġdec": 1312,
      "ork": 1313,
      "ĠMiss": 1314,
      "rib": 1315,
      "ĠAd": 1316,
      "ĠZ": 1317,
      "Ġfall": 1318,
      "ĠSp": 1319,
      "ĠCan": 1320,
      "CO": 1321,
      "less": 1322,
      "Ġdifferent": 1323,
      "Ġdied": 1324,
      "Ġpick": 1325,
      "ĠMy": 1326,
      "Ġhear": 1327,
      "Ġsk": 1328,
      "Ġbad": 1329,
      "Ġrest": 1330,
      "Ġbed": 1331,
      "ined": 1332,
      "ĠNow": 1333,
      "Ġmorning": 1334,
      "Ġsilver": 1335,
      "iet": 1336,
      "Ġface": 1337,
      "Ġcourse": 1338,
      "Ġball": 1339,
      "Ġfood": 1340,
      "oice": 1341,
      "med": 1342,
      "The": 1343,
      "Ġsub": 1344,
      "Ġhappened": 1345,
      "Ġdep": 1346,
      "ĠDon": 1347,
      "ale": 1348,
      "Ġsince": 1349,
      "Ġheart": 1350,
      "ged": 1351,
      "Ġperson": 1352,
      "ange": 1353,
      "ĠStates": 1354,
      "ertain": 1355,
      "LD": 1356,
      "Ġquite": 1357,
      "ific": 1358,
      "Ġtop": 1359,
      "ual": 1360,
      "cept": 1361,
      "fta": 1362,
      "ier": 1363,
      "Ġkill": 1364,
      "uff": 1365,
      "ĠInd": 1366,
      "oint": 1367,
      "Ġair": 1368,
      "Ġhafta": 1369,
      "Ġlist": 1370,
      "aut": 1371,
      "uss": 1372,
      "Ġcap": 1373,
      "orth": 1374,
      "Ġinc": 1375,
      "ctor": 1376,
      "ities": 1377,
      "ta": 1378,
      "Ġisn": 1379,
      "\".": 1380,
      "Ġalright": 1381,
      "ĠThen": 1382,
      "Ġdri": 1383,
      "Ġdra": 1384,
      "Ġlar": 1385,
      "une": 1386,
      "Ġadd": 1387,
      "Ġlater": 1388,
      "EL": 1389,
      "Ġass": 1390,
      "Ġleave": 1391,
      "Ġasked": 1392,
      "any": 1393,
      "Ġbro": 1394,
      "ĠAmerican": 1395,
      "vie": 1396,
      "Ġmind": 1397,
      "ines": 1398,
      "-s": 1399,
      "ohn": 1400,
      "),": 1401,
      "Ġhur": 1402,
      "Ġseen": 1403,
      "vern": 1404,
      "hip": 1405,
      "osed": 1406,
      "ï¿½ï¿½": 1407,
      "ason": 1408,
      "ĠOkay": 1409,
      "ĠCl": 1410,
      "Ġstop": 1411,
      "Ġbase": 1412,
      "Ġ_": 1413,
      "Ġwanted": 1414,
      "Ġfamily": 1415,
      "ote": 1416,
      "Ġcat": 1417,
      "Ġcoming": 1418,
      "Ġtoday": 1419,
      "Ġbit": 1420,
      "aper": 1421,
      "me": 1422,
      "idd": 1423,
      "cha": 1424,
      "Ġknew": 1425,
      "ative": 1426,
      "Ġhaving": 1427,
      "ĠEd": 1428,
      "Ġhm": 1429,
      "Ġalong": 1430,
      "Ġsign": 1431,
      "Ġreturn": 1432,
      "Ġheard": 1433,
      "Ġhung": 1434,
      "most": 1435,
      "aint": 1436,
      "und": 1437,
      "enty": 1438,
      "Ġeight": 1439,
      "Ġstory": 1440,
      "Ġdays": 1441,
      "addy": 1442,
      "ames": 1443,
      "stand": 1444,
      "Ġcity": 1445,
      "Ġeverything": 1446,
      "ĠâĢĵ": 1447,
      "Ġhands": 1448,
      "Ġwind": 1449,
      "Ġmove": 1450,
      "Ġinclud": 1451,
      "ĠMrs": 1452,
      "cess": 1453,
      "Ġsorry": 1454,
      "Ġwhole": 1455,
      "Ġlooking": 1456,
      "Ġtable": 1457,
      "ision": 1458,
      "aster": 1459,
      "Ġmagn": 1460,
      "ĠChrist": 1461,
      "ife": 1462,
      "ĠJust": 1463,
      "ently": 1464,
      "Ġrep": 1465,
      "Ġcent": 1466,
      "Ġpretty": 1467,
      "tle": 1468,
      "Ġfire": 1469,
      "uth": 1470,
      "Ġbelieve": 1471,
      "Ġsleep": 1472,
      "ĠJohn": 1473,
      "Ġposs": 1474,
      "ned": 1475,
      "aj": 1476,
      "oor": 1477,
      "sel": 1478,
      "Ġref": 1479,
      "Ġdoll": 1480,
      "Ġduring": 1481,
      "Ġhalf": 1482,
      "der": 1483,
      "Ġthank": 1484,
      "Ġhat": 1485,
      "Ġsent": 1486,
      "Ġsoon": 1487,
      "eng": 1488,
      "ING": 1489,
      "ows": 1490,
      "ĠNot": 1491,
      "Ġlooked": 1492,
      "ene": 1493,
      "Ġloc": 1494,
      "olog": 1495,
      "Ġev": 1496,
      "Ġgetting": 1497,
      "Ġtown": 1498,
      ").": 1499,
      "Ġsong": 1500,
      "ivers": 1501,
      "ok": 1502,
      "Ġanim": 1503,
      "ĠThan": 1504,
      "ĠMay": 1505,
      "ably": 1506,
      "Ġlead": 1507,
      "Ġsn": 1508,
      "ĠRoss": 1509,
      "Ġgave": 1510,
      "ants": 1511,
      "ists": 1512,
      "Ġpict": 1513,
      "Ġmeet": 1514,
      "ully": 1515,
      "Ġhum": 1516,
      "Ġate": 1517,
      "Ġshall": 1518,
      "ĠGod": 1519,
      "Ġdire": 1520,
      "ape": 1521,
      "ex": 1522,
      "eter": 1523,
      "br": 1524,
      "Ġquest": 1525,
      "Ġbeaut": 1526,
      "ield": 1527,
      "Ġbring": 1528,
      "Ġgirls": 1529,
      "ĠCom": 1530,
      "ues": 1531,
      "Ġpop": 1532,
      "ĠHey": 1533,
      "Ġcoll": 1534,
      "ready": 1535,
      "ash": 1536,
      "Ġland": 1537,
      "ounc": 1538,
      "ĠPr": 1539,
      "ĠSc": 1540,
      "Ġwrite": 1541,
      "onder": 1542,
      "iness": 1543,
      "elt": 1544,
      "Ġborn": 1545,
      "lish": 1546,
      "ury": 1547,
      "Ġhour": 1548,
      "ither": 1549,
      "ric": 1550,
      "Ġext": 1551,
      "Ġage": 1552,
      "ĠAfter": 1553,
      "Ġtalking": 1554,
      "ution": 1555,
      "ney": 1556,
      "Ġwasn": 1557,
      "Ġmaking": 1558,
      "pect": 1559,
      "Ġgoes": 1560,
      "Ġaw": 1561,
      "Ġem": 1562,
      "ained": 1563,
      "rew": 1564,
      "ining": 1565,
      "Ġbuild": 1566,
      "Ġmaybe": 1567,
      "Ġcountry": 1568,
      "ustr": 1569,
      "Ġround": 1570,
      "ately": 1571,
      "Ġprod": 1572,
      "Ġalready": 1573,
      "Ġstarted": 1574,
      "ised": 1575,
      "ten": 1576,
      "Ġhor": 1577,
      "ĠTo": 1578,
      "ense": 1579,
      "Ġeas": 1580,
      "aces": 1581,
      "OU": 1582,
      "Ġkid": 1583,
      "ĠTHE": 1584,
      "Ġbecame": 1585,
      "ĠLet": 1586,
      "-b": 1587,
      "ĠSar": 1588,
      "ĠHis": 1589,
      "ized": 1590,
      "ital": 1591,
      "ured": 1592,
      "Ġdrink": 1593,
      "Ġconf": 1594,
      "Ġvoice": 1595,
      "zzz": 1596,
      "huh": 1597,
      "Ġzzz": 1598,
      "Ġlo": 1599,
      "Ġans": 1600,
      "ike": 1601,
      "Ġsim": 1602,
      "wer": 1603,
      "Ġcertain": 1604,
      "pr": 1605,
      "Ġtri": 1606,
      "Ġfif": 1607,
      "Ġfact": 1608,
      "Ġbrother": 1609,
      "ison": 1610,
      "ages": 1611,
      "Ġready": 1612,
      "Ġlive": 1613,
      "Ġtre": 1614,
      "aken": 1615,
      "Ġri": 1616,
      "orrow": 1617,
      "ster": 1618,
      "Ġlear": 1619,
      "ĠGo": 1620,
      "Ġmeans": 1621,
      "ax": 1622,
      "Ġprom": 1623,
      "Ġgone": 1624,
      "Ġcut": 1625,
      "Ġvis": 1626,
      "cted": 1627,
      "Ġpubl": 1628,
      "Ġdeath": 1629,
      "Ġpiece": 1630,
      "rop": 1631,
      "Ġson": 1632,
      "Ġmiss": 1633,
      "Ġhot": 1634,
      "ĠCome": 1635,
      "Ġexc": 1636,
      "ĠGer": 1637,
      "Ġalmost": 1638,
      "Ġsound": 1639,
      "Ġbegan": 1640,
      "eth": 1641,
      "Ġfriends": 1642,
      "Ġhungry": 1643,
      "Ġunderstand": 1644,
      "Ġbreak": 1645,
      "ey": 1646,
      "ments": 1647,
      "\",": 1648,
      "Ġerm": 1649,
      "dd": 1650,
      "Ġplan": 1651,
      "Ġmoment": 1652,
      "Ġid": 1653,
      "ple": 1654,
      "Ġfight": 1655,
      "Ġtrans": 1656,
      "aid": 1657,
      "ĠPh": 1658,
      "Ġinter": 1659,
      "used": 1660,
      "Ġwhite": 1661,
      "Ġmed": 1662,
      "ided": 1663,
      "Ġocc": 1664,
      "eed": 1665,
      "Ġfore": 1666,
      "gan": 1667,
      "Ġfoot": 1668,
      "Ġwoman": 1669,
      "urs": 1670,
      "Ġmonth": 1671,
      "Ġwin": 1672,
      "ared": 1673,
      "Ġsaying": 1674,
      "iful": 1675,
      "Ġdear": 1676,
      "LO": 1677,
      "erest": 1678,
      "Ġwrong": 1679,
      "ball": 1680,
      "Ġgener": 1681,
      "to": 1682,
      "Ġsun": 1683,
      "Ġclose": 1684,
      "Ġwonder": 1685,
      "Ġart": 1686,
      "Ġteam": 1687,
      "ush": 1688,
      "âĢĻs": 1689,
      "Ġpaper": 1690,
      "ĠOne": 1691,
      "Ġproble": 1692,
      "app": 1693,
      "Ġlaugh": 1694,
      "Ġtrying": 1695,
      "Ã©": 1696,
      "Ġdel": 1697,
      "ĠQ": 1698,
      "Ġparty": 1699,
      "Ġhey": 1700,
      "Ġfull": 1701,
      "Ġprov": 1702,
      "oke": 1703,
      "Ġyellow": 1704,
      "Ġspeak": 1705,
      "ted": 1706,
      "Ġgame": 1707,
      "Ġrecord": 1708,
      "iting": 1709,
      "alth": 1710,
      "ĠHer": 1711,
      "wards": 1712,
      "gin": 1713,
      "Ġactually": 1714,
      "ĠFl": 1715,
      "Ġtwenty": 1716,
      "COL": 1717,
      "ead": 1718,
      "ony": 1719,
      "Ġlost": 1720,
      "ize": 1721,
      "rog": 1722,
      "ĠJan": 1723,
      "Ġless": 1724,
      "ides": 1725,
      "Ġweek": 1726,
      "Ġcreat": 1727,
      "eb": 1728,
      "/H": 1729,
      "Ġten": 1730,
      "Ġstra": 1731,
      "ring": 1732,
      "Ġtimes": 1733,
      "Ġpri": 1734,
      "ati": 1735,
      "Ġcur": 1736,
      "els": 1737,
      "ats": 1738,
      "Ġcontin": 1739,
      "oes": 1740,
      "ober": 1741,
      "ĠEnglish": 1742,
      "Ġinterest": 1743,
      "Ġwords": 1744,
      "Ġlooks": 1745,
      "ĠAre": 1746,
      "ĠBl": 1747,
      "ole": 1748,
      "ming": 1749,
      "Ġbra": 1750,
      "ffe": 1751,
      "ĠCount": 1752,
      "Ġbrought": 1753,
      "Ġbeh": 1754,
      "UN": 1755,
      "Ġpresent": 1756,
      "Ġi": 1757,
      "aul": 1758,
      "Ġfine": 1759,
      "Ġable": 1760,
      "Ġturned": 1761,
      "Ġplaying": 1762,
      "Ġgovern": 1763,
      "Ġed": 1764,
      "Ġmark": 1765,
      "EN": 1766,
      "ery": 1767,
      "Ġboys": 1768,
      "ept": 1769,
      "Ġwouldn": 1770,
      "ĠEr": 1771,
      "ying": 1772,
      "Ġbar": 1773,
      "ices": 1774,
      "Ġdin": 1775,
      "stem": 1776,
      "ief": 1777,
      "ĠCar": 1778,
      "ains": 1779,
      "Ġrock": 1780,
      "Ġsort": 1781,
      "Ġbeautiful": 1782,
      "Ġleg": 1783,
      "Ġidea": 1784,
      "Ġpoor": 1785,
      "Ġcir": 1786,
      "Ġins": 1787,
      "Ġtaken": 1788,
      "velop": 1789,
      "Ġwomen": 1790,
      "ĠSarah": 1791,
      "ON": 1792,
      "Ġphone": 1793,
      "Ġbox": 1794,
      "by": 1795,
      "ouch": 1796,
      "Ġpower": 1797,
      "Ġfelt": 1798,
      "room": 1799,
      "ouble": 1800,
      "fully": 1801,
      "Ġblue": 1802,
      "Ġrece": 1803,
      "Ġwithin": 1804,
      "though": 1805,
      "Ġmm": 1806,
      "Ġpay": 1807,
      "ĠMot": 1808,
      "ĠWill": 1809,
      "Ġlarge": 1810,
      "ern": 1811,
      "amed": 1812,
      "Ġgreen": 1813,
      "Ġclear": 1814,
      "Ġmatter": 1815,
      "Ġtele": 1816,
      "Ġimport": 1817,
      "Ġguess": 1818,
      "You": 1819,
      "atur": 1820,
      "Ġegg": 1821,
      "Ġcomes": 1822,
      "Ġrele": 1823,
      "airs": 1824,
      "not": 1825,
      "erv": 1826,
      "utes": 1827,
      "Ġmusic": 1828,
      "unch": 1829,
      "ze": 1830,
      "Ġlaw": 1831,
      "Ġbehind": 1832,
      "Ġshort": 1833,
      "Ġquick": 1834,
      "Ġes": 1835,
      "irth": 1836,
      "Ġprot": 1837,
      "Ġform": 1838,
      "Ġrather": 1839,
      "bs": 1840,
      "oe": 1841,
      "Ġoften": 1842,
      "Ġbear": 1843,
      "iversity": 1844,
      "iter": 1845,
      "Ġstate": 1846,
      "ism": 1847,
      "ĠLook": 1848,
      "Ġjob": 1849,
      "Ġguy": 1850,
      "Ġstuff": 1851,
      "Ġcomple": 1852,
      "no": 1853,
      "Ġexpl": 1854,
      "Ġguys": 1855,
      "reet": 1856,
      "Ġdress": 1857,
      "Ġdi": 1858,
      "ĠWith": 1859,
      "ians": 1860,
      "Ġwand": 1861,
      "Ġconst": 1862,
      "ator": 1863,
      "ĠDid": 1864,
      "Ġherself": 1865,
      "Ġpolit": 1866,
      "AI": 1867,
      "Ġsomeone": 1868,
      "Ġking": 1869,
      "ises": 1870,
      "ĠAdam": 1871,
      "Ġhappy": 1872,
      "Ġpartic": 1873,
      "ention": 1874,
      "Ġserv": 1875,
      "ider": 1876,
      "olly": 1877,
      "ĠPer": 1878,
      "Ġmakes": 1879,
      "unt": 1880,
      "Ġbody": 1881,
      "Ġfell": 1882,
      "Ġwood": 1883,
      "ĠBrit": 1884,
      "sh": 1885,
      "ility": 1886,
      "ached": 1887,
      "Ġsat": 1888,
      "bably": 1889,
      "ĠAp": 1890,
      "ones": 1891,
      "ĠWho": 1892,
      "-c": 1893,
      "NA": 1894,
      "ÃŃ": 1895,
      "Ġplayed": 1896,
      "Ġfront": 1897,
      "arch": 1898,
      "Ġoffic": 1899,
      "ik": 1900,
      "gy": 1901,
      "Ġuhhuh": 1902,
      "Ġsal": 1903,
      "Ġadv": 1904,
      "-f": 1905,
      "ots": 1906,
      "Ġarea": 1907,
      "ature": 1908,
      "ĠCon": 1909,
      "selves": 1910,
      ".âĢĿ": 1911,
      "Ġcond": 1912,
      "rench": 1913,
      "Ġsoft": 1914,
      "ousand": 1915,
      "Ġbird": 1916,
      "Ġmagnet": 1917,
      "wh": 1918,
      "ĠPro": 1919,
      "GLO": 1920,
      "Ġfloor": 1921,
      "ĠWhere": 1922,
      "itting": 1923,
      "ese": 1924,
      "read": 1925,
      "ety": 1926,
      "Ġhope": 1927,
      "ĠTr": 1928,
      "where": 1929,
      "ĠSh": 1930,
      "ipp": 1931,
      "ama": 1932,
      "Ġinside": 1933,
      "Ġhair": 1934,
      "Ġstrong": 1935,
      "ĠWor": 1936,
      "ears": 1937,
      "Ġmilk": 1938,
      "Ġletter": 1939,
      "Ġlay": 1940,
      "ma": 1941,
      "uro": 1942,
      "uly": 1943,
      "key": 1944,
      "ches": 1945,
      "Ġchair": 1946,
      "ĠGe": 1947,
      "ĠSome": 1948,
      "Ġconc": 1949,
      "Ġcolor": 1950,
      "Ġgrow": 1951,
      "Ġoutside": 1952,
      "Ġseemed": 1953,
      "Ġpar": 1954,
      "rying": 1955,
      "âĢĶ": 1956,
      "Ġpounds": 1957,
      "Ġsystem": 1958,
      "Ġothers": 1959,
      "Ġsqu": 1960,
      "Ġthousand": 1961,
      "aced": 1962,
      "Ġmill": 1963,
      "umb": 1964,
      "Ġseven": 1965,
      "uary": 1966,
      "Ġste": 1967,
      "Ġchange": 1968,
      "ards": 1969,
      "Ġhist": 1970,
      "haps": 1971,
      "ald": 1972,
      "Ġcup": 1973,
      "ived": 1974,
      "Ġquestion": 1975,
      "eptember": 1976,
      "ford": 1977,
      "Ġminute": 1978,
      "Ġacross": 1979,
      "Ġmyself": 1980,
      "Ġtaking": 1981,
      "Ġago": 1982,
      "aim": 1983,
      "Ġdead": 1984,
      "Ġhappen": 1985,
      "arent": 1986,
      "MEL": 1987,
      "rest": 1988,
      "Ġdevelop": 1989,
      "son": 1990,
      "Ġ#": 1991,
      "Ġbirth": 1992,
      "icha": 1993,
      "head": 1994,
      "ham": 1995,
      "ĠThank": 1996,
      "Ġty": 1997,
      "Ġbusiness": 1998,
      "ĠMin": 1999,
      "Oh": 2000,
      "ĠRight": 2001,
      "bum": 2002,
      "Ġclass": 2003,
      "Ġmovie": 2004,
      "Ġwants": 2005,
      "Ġroad": 2006,
      "Ġresp": 2007,
      "Ġest": 2008,
      "Ġswe": 2009,
      "ĠLe": 2010,
      "tain": 2011,
      "Ġgiven": 2012,
      "ically": 2013,
      "ĠEx": 2014,
      "Ġmine": 2015,
      ",âĢĿ": 2016,
      "Ġrequ": 2017,
      "cient": 2018,
      "Ġcase": 2019,
      "Ġdark": 2020,
      "ĠGr": 2021,
      "Ġpur": 2022,
      "ask": 2023,
      "ĠSeptember": 2024,
      "Ġgotta": 2025,
      "oub": 2026,
      "ges": 2027,
      "Ġspec": 2028,
      "mon": 2029,
      "Ġprof": 2030,
      "Ġminutes": 2031,
      "ilt": 2032,
      "Ġamong": 2033,
      "Ġpos": 2034,
      "ĠGerman": 2035,
      "Ġpull": 2036,
      "ĠPar": 2037,
      "empt": 2038,
      "angu": 2039,
      "Ġheld": 2040,
      "Ġlived": 2041,
      "Ġstru": 2042,
      "men": 2043,
      "uts": 2044,
      "ĠPaul": 2045,
      "Ġhon": 2046,
      "Ġcor": 2047,
      "Ġcouldn": 2048,
      "Ġcook": 2049,
      "ĠBro": 2050,
      "Ġbat": 2051,
      "iously": 2052,
      "rence": 2053,
      "ĠCounty": 2054,
      "Ġpicture": 2055,
      "ox": 2056,
      "Ġsum": 2057,
      "Ġexper": 2058,
      "Ġbott": 2059,
      "osp": 2060,
      "ering": 2061,
      "Ġtrue": 2062,
      "Ġfeet": 2063,
      "ĠFrance": 2064,
      "Ġgroup": 2065,
      "morrow": 2066,
      "Ġreport": 2067,
      "ĠGood": 2068,
      "Ġill": 2069,
      "Ġprobably": 2070,
      "itc": 2071,
      "-t": 2072,
      "Ġalone": 2073,
      "overed": 2074,
      "ional": 2075,
      "----": 2076,
      "Ġdeal": 2077,
      "It": 2078,
      "eared": 2079,
      "nina": 2080,
      "ĠGu": 2081,
      "Ġworking": 2082,
      "OR": 2083,
      "Ġmod": 2084,
      "com": 2085,
      "Ġsever": 2086,
      "irty": 2087,
      "ĠJanuary": 2088,
      "Ġopp": 2089,
      "ĠOr": 2090,
      "Ġimportant": 2091,
      "bit": 2092,
      "Ġgrand": 2093,
      "Ġliving": 2094,
      "ĠYork": 2095,
      "Ġ,": 2096,
      "anger": 2097,
      "Ġdepart": 2098,
      "ĠPhil": 2099,
      "ement": 2100,
      "ĠWorld": 2101,
      "-d": 2102,
      "aughter": 2103,
      "een": 2104,
      "Ġones": 2105,
      "pill": 2106,
      "rie": 2107,
      "Ġlady": 2108,
      "fl": 2109,
      "fic": 2110,
      "kes": 2111,
      "Ġfrog": 2112,
      "gram": 2113,
      "ril": 2114,
      "Ġallow": 2115,
      "Ġfree": 2116,
      "rap": 2117,
      "Ġpast": 2118,
      "Ġalbum": 2119,
      "Ġyep": 2120,
      "Ġlate": 2121,
      "iron": 2122,
      "Ġleast": 2123,
      "Ġtreat": 2124,
      "Ġfig": 2125,
      "Ġearly": 2126,
      "ĠMan": 2127,
      "Ġeng": 2128,
      "ĠWar": 2129,
      "Ġhorse": 2130,
      "Ġbecome": 2131,
      "Ġleng": 2132,
      "Ġarri": 2133,
      "ament": 2134,
      "ĠEuro": 2135,
      "Ġteac": 2136,
      "Ġbegin": 2137,
      "Ġobject": 2138,
      "Ġsister": 2139,
      "Ġcamp": 2140,
      "aterpill": 2141,
      "Ġattack": 2142,
      "Ġlisten": 2143,
      "Ġlangu": 2144,
      "ĠFrench": 2145,
      "Ġsingle": 2146,
      "ĠPl": 2147,
      "Ġwall": 2148,
      "Ġappro": 2149,
      "Ġnews": 2150,
      "Ġfair": 2151,
      "ĠHar": 2152,
      "ĠSha": 2153,
      "Ġsold": 2154,
      "Ġsir": 2155,
      "ality": 2156,
      "Ġnamed": 2157,
      "Ġjo": 2158,
      "Ġexpect": 2159,
      "Ġrepl": 2160,
      "Ġdream": 2161,
      "Ġforg": 2162,
      "ajor": 2163,
      "fort": 2164,
      "ugust": 2165,
      "Ġhaven": 2166,
      "ĠDaddy": 2167,
      "Ġbutter": 2168,
      "Ġtree": 2169,
      "Ġwish": 2170,
      "Ġfav": 2171,
      "Ġline": 2172,
      "ls": 2173,
      "ĠMarch": 2174,
      "Ġeither": 2175,
      "Ġseveral": 2176,
      "ĠDav": 2177,
      "Ġfifty": 2178,
      "la": 2179,
      "Ġcold": 2180,
      "ĠYour": 2181,
      "Ġpu": 2182,
      "-p": 2183,
      "ĠAm": 2184,
      "enn": 2185,
      "rian": 2186,
      "Ġtrain": 2187,
      "ley": 2188,
      "âĢĻt": 2189,
      "ĠUniversity": 2190,
      "Ġorgan": 2191,
      "Ġsea": 2192,
      "Ġz": 2193,
      "rs": 2194,
      "Ġyourself": 2195,
      "Ġgovernment": 2196,
      "aur": 2197,
      "min": 2198,
      "IC": 2199,
      "Ġpublic": 2200,
      "Ġblock": 2201,
      "Ġyup": 2202,
      "ĠAb": 2203,
      "Ġwear": 2204,
      "ĠSw": 2205,
      "iding": 2206,
      "Ġquiet": 2207,
      "mother": 2208,
      "ising": 2209,
      "Ġreason": 2210,
      "lo": 2211,
      "iddle": 2212,
      "Ġmer": 2213,
      "unic": 2214,
      "Ġap": 2215,
      "CHILD": 2216,
      "Ġfunny": 2217,
      "Ġhuman": 2218,
      "ler": 2219,
      "ued": 2220,
      "uct": 2221,
      "Ġsometimes": 2222,
      "aterpillar": 2223,
      "ica": 2224,
      "Ġtried": 2225,
      "Ġwife": 2226,
      "Ġspe": 2227,
      "ĠAugust": 2228,
      "Ġjump": 2229,
      "Ġvar": 2230,
      "rict": 2231,
      "Ġfil": 2232,
      "Ġmess": 2233,
      "ium": 2234,
      "ĠTw": 2235,
      "Ġann": 2236,
      "ĠYOU": 2237,
      "Ġanimals": 2238,
      "Ġbuy": 2239,
      "ored": 2240,
      "Ġpassed": 2241,
      "Ġorder": 2242,
      "Ġwhether": 2243,
      "Ġsupport": 2244,
      "urch": 2245,
      "Ġtape": 2246,
      "Ġclean": 2247,
      "lease": 2248,
      "itten": 2249,
      "Ġblood": 2250,
      "Ġhurt": 2251,
      "GAI": 2252,
      "ĠBecause": 2253,
      "Chi": 2254,
      "Ġkids": 2255,
      "Ġpot": 2256,
      "Ġcompany": 2257,
      "iny": 2258,
      "ĠPe": 2259,
      "ended": 2260,
      "Ġmain": 2261,
      "Ġmoon": 2262,
      "AL": 2263,
      "ĠDr": 2264,
      "gue": 2265,
      "point": 2266,
      "Ġice": 2267,
      "ĠApril": 2268,
      "ĠBen": 2269,
      "ĠPres": 2270,
      "Ġsend": 2271,
      "Ġmember": 2272,
      "ĠRuss": 2273,
      "ĠThese": 2274,
      "Ġmonths": 2275,
      "Ġcompet": 2276,
      "but": 2277,
      ".cha": 2278,
      "/CHILD": 2279,
      "_NA": 2280,
      "ctober": 2281,
      "Ġchildes": 2282,
      "/CHILDES": 2283,
      "Ġtea": 2284,
      "ĠEurope": 2285,
      "Ġground": 2286,
      "Ġnine": 2287,
      "Ġdraw": 2288,
      "ĠBar": 2289,
      "ĠChar": 2290,
      "mas": 2291,
      "ula": 2292,
      "GR": 2293,
      "Ġnational": 2294,
      "ccess": 2295,
      "more": 2296,
      "Ġinform": 2297,
      "Ġlives": 2298,
      "dden": 2299,
      "Ġdro": 2300,
      "Ġvisit": 2301,
      "Ġtest": 2302,
      "ĠHere": 2303,
      "Ġstar": 2304,
      "nes": 2305,
      "ced": 2306,
      "Ġcheck": 2307,
      "ories": 2308,
      "que": 2309,
      "Ġhar": 2310,
      "Ġran": 2311,
      "Ġdef": 2312,
      "Ġbooks": 2313,
      "Ġanswer": 2314,
      "Ġfix": 2315,
      "ĠGeor": 2316,
      "ĠEngland": 2317,
      "ĠMe": 2318,
      "ĠBritish": 2319,
      "unity": 2320,
      "Ġfast": 2321,
      "ays": 2322,
      "rigin": 2323,
      "Ġsudden": 2324,
      "Ġcontro": 2325,
      "Ġfish": 2326,
      "Ġlow": 2327,
      "ĠNe": 2328,
      "ĠEar": 2329,
      "vision": 2330,
      "Ġgold": 2331,
      "ĠJe": 2332,
      "ken": 2333,
      "Ġeating": 2334,
      "Ġproblem": 2335,
      "Ġeye": 2336,
      "hile": 2337,
      "ffect": 2338,
      "Ġcorn": 2339,
      "ara": 2340,
      "ĠRep": 2341,
      "RE": 2342,
      "Ġdet": 2343,
      "born": 2344,
      "ĠBy": 2345,
      "ĠOctober": 2346,
      "Ġfollowing": 2347,
      "Ġmis": 2348,
      "Ġav": 2349,
      "AS": 2350,
      "ract": 2351,
      "Ġ?": 2352,
      "Ġusing": 2353,
      "Ġmot": 2354,
      "mbers": 2355,
      "Ġtoys": 2356,
      "Ġthemselves": 2357,
      "ency": 2358,
      "Ġtem": 2359,
      "Ġtill": 2360,
      "iam": 2361,
      "Ġrese": 2362,
      "ĠEvery": 2363,
      "What": 2364,
      "cy": 2365,
      "Ġtomorrow": 2366,
      "Ġnoise": 2367,
      "Ġgets": 2368,
      "Ġâ": 2369,
      "Ġserved": 2370,
      "iver": 2371,
      "ĠHowever": 2372,
      "Ġkilled": 2373,
      "Ġdesign": 2374,
      "Ġband": 2375,
      "dom": 2376,
      "Ġfing": 2377,
      "Ġfly": 2378,
      "Ġhi": 2379,
      "Ġfail": 2380,
      "ffee": 2381,
      "Ġhit": 2382,
      "icks": 2383,
      "Ġcause": 2384,
      "ĠDavid": 2385,
      "Ġgod": 2386,
      "Ġfinished": 2387,
      "ĠAN": 2388,
      "ĠPlease": 2389,
      "ior": 2390,
      "Ġinstead": 2391,
      "Ġprogram": 2392,
      "Ġhors": 2393,
      "Ġdeep": 2394,
      "Ġwindow": 2395,
      "uthor": 2396,
      "Ġstep": 2397,
      "Ġhealth": 2398,
      "ĠNational": 2399,
      "entle": 2400,
      "Ġvill": 2401,
      "fer": 2402,
      "ked": 2403,
      "Ġstood": 2404,
      "over": 2405,
      "ron": 2406,
      "bo": 2407,
      "Ġdad": 2408,
      "hers": 2409,
      "Ġloud": 2410,
      "idge": 2411,
      "ĠMother": 2412,
      "Ġlevel": 2413,
      "Ġpain": 2414,
      "let": 2415,
      "Ġabove": 2416,
      "Ġworked": 2417,
      "ĠAlthough": 2418,
      "asure": 2419,
      "rand": 2420,
      "oman": 2421,
      "Ġbirthday": 2422,
      "Ġkept": 2423,
      "ĠMarky": 2424,
      "Ļª": 2425,
      "Ġtrouble": 2426,
      "Ġentire": 2427,
      "Ġcost": 2428,
      "Ġstore": 2429,
      "itty": 2430,
      "ode": 2431,
      "Ġthinking": 2432,
      "pping": 2433,
      "Ġbag": 2434,
      "ĠCol": 2435,
      "Ġreleased": 2436,
      "idence": 2437,
      "Ġmur": 2438,
      "Ġcommon": 2439,
      "itchen": 2440,
      "Ġlonger": 2441,
      "Ġspecial": 2442,
      "ĠTe": 2443,
      "ĠItal": 2444,
      "Ġval": 2445,
      "Ġton": 2446,
      "Ġmouth": 2447,
      "Ġhours": 2448,
      "ĠâĻª": 2449,
      "Ġcaterpillar": 2450,
      "Ġchance": 2451,
      "Ġdue": 2452,
      "Ġslow": 2453,
      "ED": 2454,
      "Ġglad": 2455,
      "joy": 2456,
      "mpions": 2457,
      "Ġcharac": 2458,
      "Ġprotect": 2459,
      "Ġmillion": 2460,
      "ĠFrom": 2461,
      "ffic": 2462,
      "Ġoper": 2463,
      "ĠMm": 2464,
      "Ġcross": 2465,
      "Ġve": 2466,
      "Ġsca": 2467,
      "ude": 2468,
      "ager": 2469,
      "par": 2470,
      "Ġkitchen": 2471,
      "Ġabs": 2472,
      "ai": 2473,
      "Ġeffect": 2474,
      "irt": 2475,
      "Ġcoffee": 2476,
      "con": 2477,
      "Ġcra": 2478,
      "Ġtouch": 2479,
      "Ġseries": 2480,
      "ging": 2481,
      "ording": 2482,
      "dy": 2483,
      "Ġda": 2484,
      "ĠCap": 2485,
      "gar": 2486,
      "Ġsafe": 2487,
      "then": 2488,
      "ana": 2489,
      "Ġarm": 2490,
      "band": 2491,
      "eal": 2492,
      "Ġspace": 2493,
      "owers": 2494,
      "Ġequ": 2495,
      "Ġwhose": 2496,
      "uced": 2497,
      "Ġsomebody": 2498,
      "Yes": 2499,
      "Ġbuilt": 2500,
      "ĠComm": 2501,
      "Ġsweet": 2502,
      "Ġmount": 2503,
      "Ġsol": 2504,
      "ĠOf": 2505,
      "Ġincluding": 2506,
      "Ġeasy": 2507,
      "Ġcried": 2508,
      "ĠSouth": 2509,
      "Ġsurpr": 2510,
      "che": 2511,
      "raid": 2512,
      "ĠPart": 2513,
      "ĠChristmas": 2514,
      "oof": 2515,
      "-w": 2516,
      "Ġah": 2517,
      "ĠSir": 2518,
      "ov": 2519,
      "Ġheav": 2520,
      "imb": 2521,
      "Ġpress": 2522,
      "ĠTO": 2523,
      "ĠEl": 2524,
      "resent": 2525,
      "ogn": 2526,
      "ral": 2527,
      "Ġtoy": 2528,
      "Ġnin": 2529,
      "Ġorigin": 2530,
      "Ġdaughter": 2531,
      "Ġya": 2532,
      "ceed": 2533,
      "Ġsuccess": 2534,
      "ĠCity": 2535,
      "Ġmist": 2536,
      "Ġmembers": 2537,
      "ology": 2538,
      "Ġexact": 2539,
      "And": 2540,
      "Ġcre": 2541,
      "Ġstreet": 2542,
      "atic": 2543,
      "Ġperform": 2544,
      "pper": 2545,
      "Ġfur": 2546,
      "sing": 2547,
      "Ġrunning": 2548,
      "ases": 2549,
      "ushed": 2550,
      "Ġhell": 2551,
      "Ġevening": 2552,
      "ances": 2553,
      "ĠMary": 2554,
      "'.": 2555,
      "hant": 2556,
      "Ġdinner": 2557,
      "âĢĵ": 2558,
      "Ġclot": 2559,
      "Ġwhis": 2560,
      "Ġdaddy": 2561,
      "Ġcomplete": 2562,
      "Ġhistory": 2563,
      "illy": 2564,
      "Ġreceived": 2565,
      "AUN": 2566,
      "Ġdem": 2567,
      "Ġreached": 2568,
      "ĠSe": 2569,
      "Ġcirc": 2570,
      "Ġanyone": 2571,
      "Ġdoctor": 2572,
      "Ġcast": 2573,
      "Ġthird": 2574,
      "ĠCal": 2575,
      "Ġfa": 2576,
      "Ġpossible": 2577,
      "ĠWas": 2578,
      "Ġmarried": 2579,
      "Ġhoney": 2580,
      "itch": 2581,
      "Ġfre": 2582,
      "Ġcannot": 2583,
      "Ġdefe": 2584,
      "ĠJuly": 2585,
      "Ġow": 2586,
      "Ġhig": 2587,
      "Ġforget": 2588,
      "chn": 2589,
      "Ġsitting": 2590,
      "ulation": 2591,
      "Ġstanding": 2592,
      "Ġparticular": 2593,
      "Ġhowever": 2594,
      "Ġperhaps": 2595,
      "Ġresult": 2596,
      "yl": 2597,
      "urg": 2598,
      "astic": 2599,
      "ouncil": 2600,
      "uce": 2601,
      "ĠâĢĺ": 2602,
      "Ġbuilding": 2603,
      "Ġroll": 2604,
      "No": 2605,
      "ĠPresident": 2606,
      "de": 2607,
      "Ġafraid": 2608,
      "Ġcand": 2609,
      "ondon": 2610,
      "Ġfear": 2611,
      "ĠX": 2612,
      "Ġcal": 2613,
      "Ġgentle": 2614,
      "Ġfle": 2615,
      "ror": 2616,
      "Ġtrees": 2617,
      "Ġbath": 2618,
      "teen": 2619,
      "Ġenjoy": 2620,
      "Ġdiffic": 2621,
      "Ġevent": 2622,
      "ivid": 2623,
      "Ġaren": 2624,
      "iew": 2625,
      "Ġprison": 2626,
      "Ġmoved": 2627,
      "music": 2628,
      "ĠHouse": 2629,
      "Ġoffice": 2630,
      "Ġvict": 2631,
      "laughing": 2632,
      "Ġled": 2633,
      "Ġdev": 2634,
      "ĠLondon": 2635,
      "Ġweeks": 2636,
      "Ġgun": 2637,
      "Ġring": 2638,
      "Ġstri": 2639,
      "Ġreturned": 2640,
      "ospital": 2641,
      "come": 2642,
      "Ġparent": 2643,
      "ĠSec": 2644,
      "Ġmommy": 2645,
      "ruary": 2646,
      "Ġincre": 2647,
      "ebruary": 2648,
      "ĠSis": 2649,
      "Ġgoin": 2650,
      "ovember": 2651,
      "ified": 2652,
      "Ġbow": 2653,
      "Ġeveryone": 2654,
      "cember": 2655,
      "lt": 2656,
      "ĠNorth": 2657,
      "Ġglass": 2658,
      "SL": 2659,
      "Ġformer": 2660,
      "hern": 2661,
      "Ġusually": 2662,
      "]?": 2663,
      "Ġclos": 2664,
      "Ġpract": 2665,
      "Ġthrow": 2666,
      "Ġseems": 2667,
      "Ġdest": 2668,
      "ĠEm": 2669,
      "rit": 2670,
      "emy": 2671,
      "aged": 2672,
      "Ġposition": 2673,
      "Ġdiv": 2674,
      "Ġknows": 2675,
      "Ġwhom": 2676,
      "Ġcell": 2677,
      "Ġlab": 2678,
      "Ġcoup": 2679,
      "Ġjour": 2680,
      "Ġdanger": 2681,
      "Ġhang": 2682,
      "Ġeverybody": 2683,
      "for": 2684,
      "Ġpost": 2685,
      "Ġpage": 2686,
      "ĠChe": 2687,
      "Ġwrote": 2688,
      "ĠJune": 2689,
      "ET": 2690,
      "hold": 2691,
      "ĠIN": 2692,
      "ĠGreat": 2693,
      "Ġprofess": 2694,
      "Ġperfect": 2695,
      "Ġahead": 2696,
      "Ġpen": 2697,
      "unk": 2698,
      "Ġproper": 2699,
      "Ġattempt": 2700,
      "sc": 2701,
      "rey": 2702,
      "Ġcool": 2703,
      "Ġdoub": 2704,
      "Ġprop": 2705,
      "ĠDad": 2706,
      "Ġtonight": 2707,
      "Ġhop": 2708,
      "Ġsto": 2709,
      "ĠJack": 2710,
      "Ġcake": 2711,
      "Ġrad": 2712,
      "Ġord": 2713,
      "ounced": 2714,
      "ait": 2715,
      "Ġpark": 2716,
      "usband": 2717,
      "Ġelect": 2718,
      "-l": 2719,
      "points": 2720,
      "ĠTom": 2721,
      "ĠSu": 2722,
      "essie": 2723,
      "Ġsounds": 2724,
      "Ġ...": 2725,
      "ĠCanad": 2726,
      "estern": 2727,
      "Ġmajor": 2728,
      "Ġgen": 2729,
      "Ġiss": 2730,
      "Ġregard": 2731,
      "We": 2732,
      "Ġwarm": 2733,
      "Ġgeneral": 2734,
      "Ġlanguage": 2735,
      "Ġfield": 2736,
      "ĠFebruary": 2737,
      "Ġboat": 2738,
      "co": 2739,
      "Ġsnow": 2740,
      "Ġru": 2741,
      "Ġsuper": 2742,
      "ĠNovember": 2743,
      "ĠAg": 2744,
      "Ġmeant": 2745,
      "Ġview": 2746,
      "Ġtruck": 2747,
      "att": 2748,
      "rod": 2749,
      "ĠDecember": 2750,
      "ĠDor": 2751,
      "iod": 2752,
      "oose": 2753,
      "Ġappear": 2754,
      "Ġswim": 2755,
      "ground": 2756,
      "Ġdirect": 2757,
      "Ġarms": 2758,
      "ustral": 2759,
      "Ġsus": 2760,
      "Ġride": 2761,
      "ggest": 2762,
      "Ġrecogn": 2763,
      "ient": 2764,
      "Ġsand": 2765,
      "ran": 2766,
      "amb": 2767,
      "'S": 2768,
      "fly": 2769,
      "nect": 2770,
      "Ġauthor": 2771,
      "ello": 2772,
      "Ġsave": 2773,
      "Ġappeared": 2774,
      "Ġwild": 2775,
      "itions": 2776,
      "ternational": 2777,
      "Ġtoward": 2778,
      "Ġwritten": 2779,
      "-m": 2780,
      "Ġsuggest": 2781,
      "itted": 2782,
      "Ġwriting": 2783,
      "you": 2784,
      "ĠSund": 2785,
      "Ġactiv": 2786,
      "Ġstudy": 2787,
      "/HV": 2788,
      "/HSL": 2789,
      "/HSLLD": 2790,
      "Ġtakes": 2791,
      "Ġhusband": 2792,
      "Ġesc": 2793,
      "Ġthirty": 2794,
      "ĠSant": 2795,
      "Ġeduc": 2796,
      "Ġbreat": 2797,
      "Ġmiddle": 2798,
      "Ġexcept": 2799,
      "Ġpresident": 2800,
      "But": 2801,
      "Ġknock": 2802,
      "olved": 2803,
      "Ġself": 2804,
      "Ġyours": 2805,
      "Ġneeds": 2806,
      "Ġlearn": 2807,
      "Ġcurrent": 2808,
      "ops": 2809,
      "ishing": 2810,
      "Ġtelling": 2811,
      "phone": 2812,
      "Ġwaiting": 2813,
      "Ġsick": 2814,
      "Ġfeeling": 2815,
      ",--": 2816,
      "ĠAustral": 2817,
      "ills": 2818,
      "view": 2819,
      "ĠWest": 2820,
      "Ġadm": 2821,
      "Ġriver": 2822,
      "Ġtelevision": 2823,
      "Ġbes": 2824,
      "Ġdisapp": 2825,
      "Ġgard": 2826,
      "iled": 2827,
      "Ġnoises": 2828,
      "Ġestab": 2829,
      "ĠEdna": 2830,
      "Ġpat": 2831,
      "Ġrul": 2832,
      "Ġcry": 2833,
      "Ġsecret": 2834,
      "ample": 2835,
      "Ġquickly": 2836,
      "ĠAh": 2837,
      "str": 2838,
      "Ġremain": 2839,
      "Ġconsider": 2840,
      "Ġstraight": 2841,
      "Ġfit": 2842,
      "ĠEve": 2843,
      "Ġclub": 2844,
      "Ġworks": 2845,
      "Ġexperi": 2846,
      "por": 2847,
      "Ġindivid": 2848,
      "Ġcertainly": 2849,
      "ĠGeorge": 2850,
      "Ġmatch": 2851,
      "iers": 2852,
      "Ġlunch": 2853,
      "Ġwhatever": 2854,
      "olution": 2855,
      "Ġsouth": 2856,
      "Ġant": 2857,
      "ĠLord": 2858,
      "ization": 2859,
      "Ġfootball": 2860,
      "Ġbright": 2861,
      "ĠUh": 2862,
      "lands": 2863,
      "Ġexactly": 2864,
      "ĠGet": 2865,
      "Ġspell": 2866,
      "Ġforward": 2867,
      "Ġfill": 2868,
      "ician": 2869,
      "ives": 2870,
      "iday": 2871,
      "Ġplaces": 2872,
      "Ġpolice": 2873,
      "icy": 2874,
      "Ġanymore": 2875,
      "Ġcouple": 2876,
      "Ġce": 2877,
      "Ġarmy": 2878,
      "val": 2879,
      "Ġenc": 2880,
      "sequ": 2881,
      "cially": 2882,
      "ploy": 2883,
      "Ġindeed": 2884,
      "Ġlad": 2885,
      "unicip": 2886,
      "ply": 2887,
      "llustr": 2888,
      "oop": 2889,
      "stairs": 2890,
      "terday": 2891,
      "ĠPol": 2892,
      "Ġ!": 2893,
      "ressed": 2894,
      "Ġbelong": 2895,
      "Ġcover": 2896,
      "-g": 2897,
      "ĠHum": 2898,
      "thened": 2899,
      ".'": 2900,
      "ĠLea": 2901,
      "Ġearth": 2902,
      "Ġobs": 2903,
      "Ġcollect": 2904,
      "Ġinvest": 2905,
      "Ġfavor": 2906,
      "Ġnorth": 2907,
      "ĠMa": 2908,
      "uri": 2909,
      "Ġdiscuss": 2910,
      "medi": 2911,
      "Well": 2912,
      "Ġla": 2913,
      "Ġpieces": 2914,
      "Ġpuzz": 2915,
      "ww": 2916,
      "Ġbur": 2917,
      "ĠSm": 2918,
      "uture": 2919,
      "acy": 2920,
      "Ġbroke": 2921,
      "Ġdecided": 2922,
      "cent": 2923,
      "Ġpoints": 2924,
      "rug": 2925,
      "Ġtit": 2926,
      "ĠSince": 2927,
      "Ġvide": 2928,
      "ĠUrs": 2929,
      "ĠHave": 2930,
      "Ġprocess": 2931,
      "IT": 2932,
      "Ġsell": 2933,
      "Ġcreated": 2934,
      "Ġtired": 2935,
      "mo": 2936,
      "Ġfellow": 2937,
      "Ġfinal": 2938,
      "ĠIndian": 2939,
      "Ġleaving": 2940,
      "hin": 2941,
      "ires": 2942,
      "Ġkiss": 2943,
      "Ġfinish": 2944,
      "uses": 2945,
      "Ġban": 2946,
      "ĠSy": 2947,
      "Ġsitu": 2948,
      "Ġang": 2949,
      "ighb": 2950,
      "oul": 2951,
      "Ġcars": 2952,
      "cer": 2953,
      "hys": 2954,
      "Ġnearly": 2955,
      "noon": 2956,
      "ination": 2957,
      "Ġhospital": 2958,
      "Ġbene": 2959,
      "Ġhorses": 2960,
      "ĠSunday": 2961,
      "Ġholding": 2962,
      "Ġcaught": 2963,
      "Ġdecl": 2964,
      "Ġprin": 2965,
      "Ġaccept": 2966,
      "Ġju": 2967,
      "Ġsummer": 2968,
      "ege": 2969,
      "reen": 2970,
      "Ġhous": 2971,
      "Ġcream": 2972,
      "Ġfort": 2973,
      "encil": 2974,
      "Ġtot": 2975,
      "ĠGl": 2976,
      "oura": 2977,
      "Ġtruth": 2978,
      "Ġelep": 2979,
      "Ġdrive": 2980,
      "Ġfigure": 2981,
      "ĠAny": 2982,
      "hire": 2983,
      "Ġbroken": 2984,
      "Ġimag": 2985,
      "Ġclothes": 2986,
      "Ġafternoon": 2987,
      "soci": 2988,
      "Ġlocal": 2989,
      "ĠAld": 2990,
      "Ġpictures": 2991,
      "ĠWilliam": 2992,
      "Ġparents": 2993,
      "amer": 2994,
      "Ġperiod": 2995,
      "Ġdifficult": 2996,
      "king": 2997,
      "Ġclaim": 2998,
      "Ġcareer": 2999,
      "ĠCent": 3000,
      "ĠEle": 3001,
      "TER": 3002,
      "ĠParty": 3003,
      "ĠSee": 3004,
      "Ġleaf": 3005,
      "like": 3006,
      "Ġcharacter": 3007,
      "ID": 3008,
      "gest": 3009,
      "viously": 3010,
      "Ġheavy": 3011,
      "Ġstat": 3012,
      "Ġtur": 3013,
      "Ġstation": 3014,
      "ĠWhile": 3015,
      "ending": 3016,
      "Ġyesterday": 3017,
      "iol": 3018,
      "omb": 3019,
      "ission": 3020,
      "ences": 3021,
      "Ġfollowed": 3022,
      "Ġvillage": 3023,
      "Ġtechn": 3024,
      "ips": 3025,
      "Ġident": 3026,
      "aser": 3027,
      "ĠMer": 3028,
      "ĠNet": 3029,
      "Ġris": 3030,
      "ĠMaybe": 3031,
      "Ġlengthened": 3032,
      "Ġrepresent": 3033,
      "Ġburn": 3034,
      "iced": 3035,
      "Ġinformation": 3036,
      "Ġpencil": 3037,
      "ilver": 3038,
      "ĠDan": 3039,
      "ĠDuring": 3040,
      "Ġopened": 3041,
      "Ġlikely": 3042,
      "Ġspir": 3043,
      "Ġworth": 3044,
      "Ġagre": 3045,
      "ichard": 3046,
      "ray": 3047,
      "Ġlim": 3048,
      "Ġship": 3049,
      "Ġsuppose": 3050,
      "cell": 3051,
      "Ġvol": 3052,
      "Ġcatch": 3053,
      "ift": 3054,
      "Ġfurther": 3055,
      "AY": 3056,
      "ĠBessie": 3057,
      "Ġseason": 3058,
      "ĠEX": 3059,
      "Ġputting": 3060,
      "Ġuncle": 3061,
      "Ġchanged": 3062,
      "Ġcaused": 3063,
      "Ġgrew": 3064,
      "Ġut": 3065,
      "Ġcheese": 3066,
      "antly": 3067,
      "ĠEven": 3068,
      "Ġreading": 3069,
      "Ġsoftly": 3070,
      "Ġpack": 3071,
      "Ġdere": 3072,
      "Ġmunicip": 3073,
      "rible": 3074,
      "ris": 3075,
      "Ã¡": 3076,
      "Ġtiny": 3077,
      "Ġmaster": 3078,
      "OM": 3079,
      "ially": 3080,
      "lin": 3081,
      "work": 3082,
      "Ġfuture": 3083,
      "Ġdise": 3084,
      "Ġpossess": 3085,
      "LE": 3086,
      "play": 3087,
      "Ġchick": 3088,
      "Ġluck": 3089,
      "Ġnor": 3090,
      "ĠHen": 3091,
      "ĠDes": 3092,
      "ĠKe": 3093,
      "kin": 3094,
      "lex": 3095,
      "Ġnatur": 3096,
      "ument": 3097,
      "Ġcomb": 3098,
      "nel": 3099,
      "Ġhast": 3100,
      "Ġgiving": 3101,
      "viron": 3102,
      "Ġhole": 3103,
      "ĠLike": 3104,
      "Ġneighb": 3105,
      "iger": 3106,
      "Ġcareful": 3107,
      "ĠRichard": 3108,
      "Ġfeat": 3109,
      "Ġpriv": 3110,
      "fast": 3111,
      "Ġsupposed": 3112,
      "Ġgas": 3113,
      "Ġdoubt": 3114,
      "yn": 3115,
      "igg": 3116,
      "apan": 3117,
      "Ġdistrict": 3118,
      "Ġforest": 3119,
      "uke": 3120,
      "Ġmeeting": 3121,
      "night": 3122,
      "zy": 3123,
      "eder": 3124,
      "ruction": 3125,
      "Ġrain": 3126,
      "Ġstopped": 3127,
      "bb": 3128,
      "now": 3129,
      "Ġsugar": 3130,
      "Ġphot": 3131,
      "Ġpaint": 3132,
      "llustration": 3133,
      "Ġshot": 3134,
      "Ġwat": 3135,
      "Ġpati": 3136,
      "ĠBra": 3137,
      "Ġsense": 3138,
      "acing": 3139,
      "ades": 3140,
      "ĠWal": 3141,
      "Ġnose": 3142,
      "Ġdepartment": 3143,
      "cture": 3144,
      "ĠAND": 3145,
      "-h": 3146,
      "Ġimmedi": 3147,
      "II": 3148,
      "ests": 3149,
      "Ġcontrol": 3150,
      "Illustration": 3151,
      "Ġbas": 3152,
      "ocr": 3153,
      "Ġapple": 3154,
      "Ġsight": 3155,
      "Ġmoving": 3156,
      "har": 3157,
      "resh": 3158,
      "Ġstrange": 3159,
      "ergy": 3160,
      "Ġdeter": 3161,
      "Ġcommand": 3162,
      "Ġlaughing": 3163,
      "Ġconnect": 3164,
      "order": 3165,
      "Ġforty": 3166,
      "ï¿½ï¿½ï¿½ï¿½": 3167,
      "ĠQue": 3168,
      "ĠThanks": 3169,
      "ĠCH": 3170,
      "Ġcompan": 3171,
      "ĠAnge": 3172,
      "ption": 3173,
      "Ġteacher": 3174,
      "Ġapart": 3175,
      "Ġseat": 3176,
      "ĠGermany": 3177,
      "ites": 3178,
      "Ġremained": 3179,
      "ĠAmerica": 3180,
      "nce": 3181,
      "imate": 3182,
      "Ġhappens": 3183,
      "Ġtrust": 3184,
      "Ġregion": 3185,
      "Ġsuddenly": 3186,
      "Ġletters": 3187,
      "tered": 3188,
      "Ġliked": 3189,
      "sy": 3190,
      "Ġoffe": 3191,
      "Ġhy": 3192,
      "Ġquar": 3193,
      "Ġservice": 3194,
      "US": 3195,
      "olute": 3196,
      "itive": 3197,
      "Ġexist": 3198,
      "LL": 3199,
      "rill": 3200,
      "aug": 3201,
      "Ġbrown": 3202,
      "Ġbeginning": 3203,
      "Ġ)": 3204,
      "Ġ]": 3205,
      "Ġbeat": 3206,
      "ĠPeter": 3207,
      "Ġvarious": 3208,
      "Ġport": 3209,
      "ĠJapan": 3210,
      "Ġshar": 3211,
      "pes": 3212,
      "ĠNor": 3213,
      "ĠTwo": 3214,
      "ids": 3215,
      "Ġeighty": 3216,
      ",'": 3217,
      "ural": 3218,
      "Ġexample": 3219,
      "Ġanyway": 3220,
      "ĠJane": 3221,
      "epend": 3222,
      "Ġproblems": 3223,
      "field": 3224,
      "Ġhol": 3225,
      "Ġcarried": 3226,
      "ĠCaptain": 3227,
      "Ġarrived": 3228,
      "board": 3229,
      "Ġtail": 3230,
      "acks": 3231,
      "irm": 3232,
      "cience": 3233,
      "Ġcentury": 3234,
      "ped": 3235,
      "ĠBaby": 3236,
      "iff": 3237,
      "Ġcompl": 3238,
      "ĠBo": 3239,
      "ĠPark": 3240,
      "vironment": 3241,
      "Ġain": 3242,
      "ĠCo": 3243,
      "ĠGree": 3244,
      "Ġanimal": 3245,
      "vin": 3246,
      "ĠHi": 3247,
      "ĠOx": 3248,
      "ume": 3249,
      "Ġbread": 3250,
      "Ġtast": 3251,
      "ĠHa": 3252,
      "ĠTed": 3253,
      "iment": 3254,
      "Ġep": 3255,
      "Ġwww": 3256,
      "ĠOK": 3257,
      "Ġjud": 3258,
      "ocol": 3259,
      "Ġchurch": 3260,
      "Ġmix": 3261,
      "othy": 3262,
      "omes": 3263,
      "iling": 3264,
      "Ġpopulation": 3265,
      "Ġgarden": 3266,
      "Ġcrit": 3267,
      "ĠJeff": 3268,
      "He": 3269,
      "conom": 3270,
      "riage": 3271,
      "MA": 3272,
      "Ġdanc": 3273,
      "Ġcow": 3274,
      "Ġshoot": 3275,
      "ĠSanta": 3276,
      "lymp": 3277,
      "ĠHello": 3278,
      "Ġanybody": 3279,
      "Ġtravel": 3280,
      "Ġsubject": 3281,
      "Ġdie": 3282,
      "uty": 3283,
      "aff": 3284,
      "go": 3285,
      "Ġï¿½": 3286,
      "Ġexcl": 3287,
      "Ġsimply": 3288,
      "Ġbased": 3289,
      "Ġlose": 3290,
      "ilar": 3291,
      "Ġdesc": 3292,
      "Ġstudents": 3293,
      "uted": 3294,
      "Ġstarts": 3295,
      "ino": 3296,
      "Ġcop": 3297,
      "ĠOlymp": 3298,
      "Ġflowers": 3299,
      "ĠChampions": 3300,
      "Ġdiscovered": 3301,
      "Ġoccur": 3302,
      "Ġtowards": 3303,
      "Ġfinally": 3304,
      "well": 3305,
      "Ġdam": 3306,
      "ĠVis": 3307,
      "Ġboard": 3308,
      "That": 3309,
      "ĠCr": 3310,
      "Ġsevent": 3311,
      "Ġworry": 3312,
      "Ġremark": 3313,
      "Ġshare": 3314,
      "Ġdelight": 3315,
      "Ġfilm": 3316,
      "what": 3317,
      "Ġreach": 3318,
      "Ġaccom": 3319,
      "using": 3320,
      "Ġhello": 3321,
      "rect": 3322,
      "pecially": 3323,
      "ille": 3324,
      "Ġcard": 3325,
      "ĠIT": 3326,
      "ĠFirst": 3327,
      "Ġreplied": 3328,
      "hel": 3329,
      "Ġneeded": 3330,
      "AP": 3331,
      "uction": 3332,
      "ĠSchool": 3333,
      "Ġwonderful": 3334,
      "Ġquestions": 3335,
      "hood": 3336,
      "iforn": 3337,
      "ĠNina": 3338,
      "Ġmention": 3339,
      "stit": 3340,
      "ĠOF": 3341,
      "ously": 3342,
      "Ġparts": 3343,
      "that": 3344,
      "ĠUS": 3345,
      "itary": 3346,
      "ĠTex": 3347,
      "ĠRed": 3348,
      "Ġrelig": 3349,
      "Ġcapt": 3350,
      "Ġitself": 3351,
      "Ġseeing": 3352,
      "Ġaccount": 3353,
      "Ġbelieved": 3354,
      "ĠPeople": 3355,
      "bl": 3356,
      "ils": 3357,
      "ĠRoman": 3358,
      "ĠQu": 3359,
      "Ġcircle": 3360,
      "Ġ$": 3361,
      "Ġneck": 3362,
      "Ġrole": 3363,
      "ifornia": 3364,
      "rely": 3365,
      "Ġmid": 3366,
      "Ġshoes": 3367,
      "ference": 3368,
      "ograp": 3369,
      "Ġsignific": 3370,
      "Ġengine": 3371,
      "ius": 3372,
      "Ġgames": 3373,
      "Ġvideo": 3374,
      "Ġproject": 3375,
      "ky": 3376,
      "Ġwide": 3377,
      "Ġdogg": 3378,
      "ĠEn": 3379,
      "ĠTur": 3380,
      "Ġallowed": 3381,
      "Ġcorner": 3382,
      "Ġjuice": 3383,
      "-C": 3384,
      "ĠMc": 3385,
      "GRA": 3386,
      "ĠÃ": 3387,
      "Ġplate": 3388,
      "wered": 3389,
      "Ġforgot": 3390,
      "OW": 3391,
      "Ġinit": 3392,
      "Ġnobody": 3393,
      "Ġnecess": 3394,
      "ĠFin": 3395,
      "ĠBear": 3396,
      "Ġvers": 3397,
      "ĠState": 3398,
      "GH": 3399,
      "ROG": 3400,
      "Ġcourt": 3401,
      "Ġassist": 3402,
      ".S": 3403,
      "CH": 3404,
      "Ġmus": 3405,
      "aturday": 3406,
      "ĠCalifornia": 3407,
      "ums": 3408,
      "Ġimm": 3409,
      "Ġshowed": 3410,
      "Ġsupper": 3411,
      "Ġcountries": 3412,
      "worth": 3413,
      "Ġphys": 3414,
      "Ġgar": 3415,
      "lect": 3416,
      "Ġforce": 3417,
      "ĠJo": 3418,
      "Ġshows": 3419,
      "ĠDorothy": 3420,
      "Ġonto": 3421,
      "Ġobjects": 3422,
      "pers": 3423,
      "liament": 3424,
      "Ġmiles": 3425,
      "ichael": 3426,
      "Ġdance": 3427,
      "Ġtap": 3428,
      "Ġmem": 3429,
      "Ġcomfort": 3430,
      "omen": 3431,
      "ĠAunt": 3432,
      "ĠMed": 3433,
      "Ġrace": 3434,
      "Ġorange": 3435,
      "silver": 3436,
      "Ġloved": 3437,
      "Ġbreakfast": 3438,
      "round": 3439,
      "Ġinfl": 3440,
      "Ġeff": 3441,
      "urity": 3442,
      "Ġbottom": 3443,
      "zer": 3444,
      "Ġattention": 3445,
      "Ġindust": 3446,
      "Ġemploy": 3447,
      "Ġnames": 3448,
      "ĠCor": 3449,
      "raph": 3450,
      "Ġkey": 3451,
      "Ġanswered": 3452,
      "ĠSorry": 3453,
      "ĠLou": 3454,
      "ourt": 3455,
      "ancy": 3456,
      "EX": 3457,
      "Ġtype": 3458,
      "Ġmass": 3459,
      "ression": 3460,
      "Ġlovely": 3461,
      "Ġhall": 3462,
      "Ġfeed": 3463,
      "Ġpolitical": 3464,
      "Ġlock": 3465,
      "chie": 3466,
      "Ġrespect": 3467,
      "ĠKingdom": 3468,
      "Ġblocks": 3469,
      "rel": 3470,
      "erve": 3471,
      "Ġfat": 3472,
      "ublic": 3473,
      "Ġcapital": 3474,
      "Ġprep": 3475,
      "Ġscared": 3476,
      "ĠOxford": 3477,
      "AM": 3478,
      "yer": 3479,
      "Ġought": 3480,
      "Ġtour": 3481,
      "erved": 3482,
      "Ġhost": 3483,
      "Ġ&": 3484,
      "ĠAct": 3485,
      "oring": 3486,
      "Ġinf": 3487,
      "orts": 3488,
      "Ġdisease": 3489,
      "ivil": 3490,
      "ĠIndia": 3491,
      "het": 3492,
      "ĠMon": 3493,
      "ples": 3494,
      "Ġchocol": 3495,
      "Ġcloud": 3496,
      "Ġbusy": 3497,
      "Ġmater": 3498,
      "ico": 3499,
      "ĠSan": 3500,
      "Ġsocial": 3501,
      "Ġlocated": 3502,
      "bers": 3503,
      "ration": 3504,
      "asion": 3505,
      "Ġbell": 3506,
      "Ġlift": 3507,
      "ĠSaturday": 3508,
      "ĠAust": 3509,
      "Ġviol": 3510,
      "Ġcarry": 3511,
      "Ġaddition": 3512,
      "Ġscient": 3513,
      "Ġcalling": 3514,
      "Ġcomput": 3515,
      "eg": 3516,
      "Ġbank": 3517,
      "Ġwel": 3518,
      "oops": 3519,
      "Ġanx": 3520,
      "ĠRes": 3521,
      "Ġshout": 3522,
      "Ġexam": 3523,
      "Ġsixty": 3524,
      "AD": 3525,
      "RIC": 3526,
      "af": 3527,
      "puts": 3528,
      "Ġtall": 3529,
      "Ġimpro": 3530,
      "Ġmarket": 3531,
      "Ġmad": 3532,
      "reme": 3533,
      "urse": 3534,
      "Ġrespons": 3535,
      "Ġhigher": 3536,
      "Ġtor": 3537,
      "ĠMichael": 3538,
      "Ġarr": 3539,
      "ĠTexas": 3540,
      "ira": 3541,
      "Ġur": 3542,
      "Ġgrass": 3543,
      "gged": 3544,
      "Ġlegs": 3545,
      "ĠWH": 3546,
      "ables": 3547,
      "Ġtrad": 3548,
      "ĠReg": 3549,
      "omin": 3550,
      "ĠAcc": 3551,
      "Ġfinger": 3552,
      "mond": 3553,
      "ĠMany": 3554,
      "Ġlie": 3555,
      "ĠJer": 3556,
      "Ġspoke": 3557,
      "ĠEuropean": 3558,
      "Ġfresh": 3559,
      "ĠFraser": 3560,
      "Ġnon": 3561,
      "Ġstage": 3562,
      "Ġplastic": 3563,
      "agn": 3564,
      "Ġbattle": 3565,
      "Ġsinging": 3566,
      "Ġpopular": 3567,
      "Ġdinos": 3568,
      "imin": 3569,
      "Ġplaced": 3570,
      "Ġbackground": 3571,
      "Ġwatching": 3572,
      "ĠItaly": 3573,
      "Ġfarm": 3574,
      "Ġaccident": 3575,
      "ĠCouncil": 3576,
      "Ġflat": 3577,
      "Ġimmediately": 3578,
      "VE": 3579,
      "Ġnorm": 3580,
      "Ġbirds": 3581,
      "Ġcrying": 3582,
      "Ġgrad": 3583,
      "-y": 3584,
      "look": 3585,
      "utch": 3586,
      "Ġwalked": 3587,
      "Ġaut": 3588,
      "Ġpath": 3589,
      "ĠColl": 3590,
      "Ġclimb": 3591,
      "Ġestabl": 3592,
      "Ġsad": 3593,
      "Ġnina": 3594,
      "ili": 3595,
      "ĠMinister": 3596,
      "ĠQueen": 3597,
      "Ġstars": 3598,
      "Ġproduct": 3599,
      "Ġpolitician": 3600,
      "Ġearli": 3601,
      "makes": 3602,
      "oved": 3603,
      "ĠMart": 3604,
      "ĠWhite": 3605,
      "Ġextra": 3606,
      "ĠRob": 3607,
      "Ġbye": 3608,
      "udd": 3609,
      "Ġresearch": 3610,
      "how": 3611,
      "Ġcoc": 3612,
      "Ġdrop": 3613,
      "ummy": 3614,
      "ĠEast": 3615,
      "Ġshut": 3616,
      "Ġhelped": 3617,
      "Ġchocolate": 3618,
      "itched": 3619,
      "Ġfem": 3620,
      "ĠBlack": 3621,
      "pite": 3622,
      "uel": 3623,
      "Ġleaves": 3624,
      "ĠSomet": 3625,
      "Ġalive": 3626,
      "Ġpeace": 3627,
      "Ġsepar": 3628,
      "ĠMost": 3629,
      "Ġasking": 3630,
      "Ġcult": 3631,
      "Ġmach": 3632,
      "pered": 3633,
      "Ġespecially": 3634,
      "Ġpuzzle": 3635,
      "Ġsour": 3636,
      "oms": 3637,
      "ĠTake": 3638,
      "Ġbeha": 3639,
      "Ġbigger": 3640,
      "Ġthanks": 3641,
      "Ġcommune": 3642,
      "Ġcontinued": 3643,
      "line": 3644,
      "ek": 3645,
      "ida": 3646,
      "sey": 3647,
      "Ġevidence": 3648,
      "Ġlearned": 3649,
      "ĠRussian": 3650,
      "ners": 3651,
      "wood": 3652,
      "ĠMad": 3653,
      "Ġspent": 3654,
      "chan": 3655,
      "icle": 3656,
      "Ġrose": 3657,
      "ĠGovern": 3658,
      "ĠErm": 3659,
      "Ġbottle": 3660,
      "owd": 3661,
      "ĠAlex": 3662,
      "Ġconvers": 3663,
      "yle": 3664,
      "Ġdisp": 3665,
      "Ġproud": 3666,
      "Ġsimilar": 3667,
      "ĠSpan": 3668,
      "Ġrefer": 3669,
      "Ġeggs": 3670,
      "oid": 3671,
      "roy": 3672,
      "Ġareas": 3673,
      "Ġjourney": 3674,
      "ĠCanada": 3675,
      "hod": 3676,
      "Ġinj": 3677,
      "ends": 3678,
      "Ġelection": 3679,
      "yy": 3680,
      "ĠAnn": 3681,
      "Ġaff": 3682,
      "ĠFlore": 3683,
      "Ġpush": 3684,
      "Ġspecies": 3685,
      "ĠAustralia": 3686,
      "Ġspread": 3687,
      "Ġamount": 3688,
      "Ġbutterfly": 3689,
      "Ġchicken": 3690,
      "light": 3691,
      "Ġdeterm": 3692,
      "yond": 3693,
      "Ġrepe": 3694,
      "Ġrelations": 3695,
      "Ġwalking": 3696,
      "Ġjoined": 3697,
      "Ġcompletely": 3698,
      "Th": 3699,
      "Ġver": 3700,
      "asant": 3701,
      "Ġskin": 3702,
      "bles": 3703,
      "Ġsuff": 3704,
      "Ġconside": 3705,
      "Ġnatural": 3706,
      "Ġconsidered": 3707,
      "cher": 3708,
      "Ġcher": 3709,
      "âĢĺ": 3710,
      "ĠTony": 3711,
      "Ġbeach": 3712,
      "ĠRiver": 3713,
      "ĠList": 3714,
      "ĠVisit": 3715,
      "picks": 3716,
      "Ġsens": 3717,
      "ria": 3718,
      "asket": 3719,
      "Ġslowly": 3720,
      "Ġdrug": 3721,
      "apa": 3722,
      "Ġentered": 3723,
      "Ġcharge": 3724,
      "iving": 3725,
      "ses": 3726,
      "Ġbab": 3727,
      "Ġpal": 3728,
      "Ġvan": 3729,
      "Ġputs": 3730,
      "Ġteeth": 3731,
      "Ġstuck": 3732,
      "ĠBet": 3733,
      "ĠFather": 3734,
      "Ġsomewhere": 3735,
      "Ġenvironment": 3736,
      "CK": 3737,
      "Home": 3738,
      "Ġfoc": 3739,
      "ival": 3740,
      "Ġprevent": 3741,
      "ĠUrsula": 3742,
      "FA": 3743,
      "Ġbought": 3744,
      "ĠGrand": 3745,
      "Ġrich": 3746,
      "]!": 3747,
      "Ġdry": 3748,
      "Ġcancer": 3749,
      "Ġsticks": 3750,
      "Ġspecific": 3751,
      "ĠPat": 3752,
      "ĠUncle": 3753,
      "ĠMic": 3754,
      "ĠLittle": 3755,
      "Ġjoy": 3756,
      "Ġpromise": 3757,
      "Ġsoldiers": 3758,
      "Ġthreat": 3759,
      "Ġslice": 3760,
      "Ġsna": 3761,
      "Ġnone": 3762,
      "Ġsex": 3763,
      "Ġrub": 3764,
      "ĠJim": 3765,
      "Ġsituation": 3766,
      "oming": 3767,
      "Ġkitty": 3768,
      "Ġsearch": 3769,
      "Ġslight": 3770,
      "Ġbrain": 3771,
      "Why": 3772,
      "aud": 3773,
      "Ġenergy": 3774,
      "Ġleader": 3775,
      "Ġbrie": 3776,
      "ĠTell": 3777,
      "ĠBel": 3778,
      "ĠPort": 3779,
      "ppy": 3780,
      "Ġspot": 3781,
      "Ġchief": 3782,
      "Ġinclude": 3783,
      "Ġoffered": 3784,
      "Ġeconom": 3785,
      "ential": 3786,
      "ify": 3787,
      "ĠLady": 3788,
      "Ġthou": 3789,
      "Ġemb": 3790,
      "ĠSum": 3791,
      "Ġyyy": 3792,
      "Ġenemy": 3793,
      "ords": 3794,
      "Ġeducation": 3795,
      "ĠHenry": 3796,
      "nal": 3797,
      "Ġwow": 3798,
      "Ġho": 3799,
      "ĠWould": 3800,
      "ĠFrank": 3801,
      "Ġterm": 3802,
      "?âĢĿ": 3803,
      "ators": 3804,
      "ĠâĢľâĢĺ": 3805,
      "Ġturning": 3806,
      "Ġsky": 3807,
      "ause": 3808,
      "gon": 3809,
      "ĠHung": 3810,
      "unny": 3811,
      "Ġpossib": 3812,
      "bon": 3813,
      "ĠAnt": 3814,
      "ĠMond": 3815,
      "ĠCrom": 3816,
      "ston": 3817,
      "ĠPal": 3818,
      "Ġprim": 3819,
      "Ġdogs": 3820,
      "set": 3821,
      "asing": 3822,
      "Ġhate": 3823,
      "ĠCourt": 3824,
      "Ġplant": 3825,
      "Ġtrack": 3826,
      "cious": 3827,
      "Ġwit": 3828,
      "Ġcru": 3829,
      "Ġmult": 3830,
      "Ġweap": 3831,
      "Ġmeat": 3832,
      "Ġspoon": 3833,
      "ya": 3834,
      "raft": 3835,
      "ĠRober": 3836,
      "cia": 3837,
      "ĠJames": 3838,
      "ĠSte": 3839,
      "ledge": 3840,
      "RI": 3841,
      "Ġide": 3842,
      "Ġund": 3843,
      "ĠWait": 3844,
      "COU": 3845,
      "oken": 3846,
      "-A": 3847,
      "ensive": 3848,
      "Ġbroad": 3849,
      "Ġdevelopment": 3850,
      "ĠJew": 3851,
      "Ġplayer": 3852,
      "pha": 3853,
      "Ġdeg": 3854,
      "Ġrights": 3855,
      "Ġcommunity": 3856,
      "Ġpock": 3857,
      "Ġisland": 3858,
      "ĠCup": 3859,
      "ander": 3860,
      "iance": 3861,
      "Ġavail": 3862,
      "Ġduck": 3863,
      "Ġhun": 3864,
      "Ġsleeping": 3865,
      "Ġdropped": 3866,
      "off": 3867,
      "ĠHist": 3868,
      "Ġblank": 3869,
      "Ġstraw": 3870,
      "Ġforth": 3871,
      "Ġclock": 3872,
      "Ġears": 3873,
      "ĠFlorence": 3874,
      "ĠHigh": 3875,
      "atives": 3876,
      "isf": 3877,
      "Ġcous": 3878,
      "Ġoffer": 3879,
      "Ġflew": 3880,
      "ĠSam": 3881,
      "ĠUp": 3882,
      "reng": 3883,
      "Ġstone": 3884,
      "ĠEXP": 3885,
      "ashed": 3886,
      "Ġmanage": 3887,
      "Ġexec": 3888,
      "ĠVery": 3889,
      "Ġadded": 3890,
      "Ġfund": 3891,
      "vey": 3892,
      "Ġaddress": 3893,
      "Ġpurp": 3894,
      "Ġhouses": 3895,
      "AK": 3896,
      "Ġrev": 3897,
      "oyal": 3898,
      "Ġens": 3899,
      "roat": 3900,
      "Ġaction": 3901,
      "Ġstayed": 3902,
      "Ġmunicipality": 3903,
      "nic": 3904,
      "Ġiron": 3905,
      "Ġdate": 3906,
      "Ġstories": 3907,
      "Ġblow": 3908,
      "Ġtitle": 3909,
      "inct": 3910,
      "oups": 3911,
      "Ġbelow": 3912,
      "ĠFranc": 3913,
      "ĠBefore": 3914,
      "ials": 3915,
      "Ġways": 3916,
      "Ġserious": 3917,
      "of": 3918,
      "Ġlots": 3919,
      "cend": 3920,
      "ulf": 3921,
      "Ġspend": 3922,
      "Ġdistance": 3923,
      "Ġairpl": 3924,
      "Ġestablished": 3925,
      "ique": 3926,
      "ĠFriday": 3927,
      "ato": 3928,
      "Ġbeyond": 3929,
      "Ġneg": 3930,
      "Ġweren": 3931,
      "Ġclosed": 3932,
      "Ġsurprise": 3933,
      "cast": 3934,
      "va": 3935,
      "hem": 3936,
      "Ġachie": 3937,
      "ĠDem": 3938,
      "Ġalthough": 3939,
      "Ġstudio": 3940,
      "Ġfighting": 3941,
      "Ġinteresting": 3942,
      "Ġhero": 3943,
      "ĠMil": 3944,
      "Ġspring": 3945,
      "ĠCla": 3946,
      "Ġfru": 3947,
      "Ġshouldn": 3948,
      "ĠRam": 3949,
      "ĠStop": 3950,
      "Ġrisk": 3951,
      "uals": 3952,
      "ĠHel": 3953,
      "Ġvo": 3954,
      "ails": 3955,
      "olutely": 3956,
      "Ġworse": 3957,
      "eneral": 3958,
      "Ġnut": 3959,
      "esta": 3960,
      "osta": 3961,
      "ĠThom": 3962,
      "EW": 3963,
      "rican": 3964,
      "ĠOur": 3965,
      "action": 3966,
      "izing": 3967,
      "Ġrap": 3968,
      "ki": 3969,
      "Ġlines": 3970,
      "ĠSer": 3971,
      "aining": 3972,
      "Ġappl": 3973,
      "Ġsurv": 3974,
      "Ġopport": 3975,
      "arr": 3976,
      "ales": 3977,
      "ims": 3978,
      "ĠLeague": 3979,
      "Ġpaid": 3980,
      "olf": 3981,
      "Ġofficer": 3982,
      "anor": 3983,
      "usion": 3984,
      "erson": 3985,
      "Ġwinter": 3986,
      "Ġemer": 3987,
      "enced": 3988,
      "aimed": 3989,
      "Ġtemper": 3990,
      "ĠAccording": 3991,
      "Ġcust": 3992,
      "ĠChan": 3993,
      "icked": 3994,
      "ĠStreet": 3995,
      "Ġspirit": 3996,
      "-in": 3997,
      "Ã¼": 3998,
      "ĠLaw": 3999,
      "Ġjoin": 4000,
      "ĠPri": 4001,
      "ANN": 4002,
      "Ġmagnets": 4003,
      "ĠHall": 4004,
      "cul": 4005,
      "mm": 4006,
      "HIS": 4007,
      "lend": 4008,
      "oted": 4009,
      "ĠBob": 4010,
      "ĠON": 4011,
      "Ġpray": 4012,
      "clock": 4013,
      "Ġangry": 4014,
      "GMA": 4015,
      "Ġtower": 4016,
      "Ġpun": 4017,
      "Ġnature": 4018,
      "Ġpublished": 4019,
      "bre": 4020,
      "pan": 4021,
      "Ġtiger": 4022,
      "Ġsle": 4023,
      "Ġterrible": 4024,
      "Ġsimple": 4025,
      "ĠMor": 4026,
      "osing": 4027,
      "aker": 4028,
      "Ġintrod": 4029,
      "elve": 4030,
      "Ġcrowd": 4031,
      "sequently": 4032,
      "NG": 4033,
      "Ġindic": 4034,
      "Ġmovement": 4035,
      "Ġlength": 4036,
      "lam": 4037,
      "ĠMex": 4038,
      "She": 4039,
      "Ġbill": 4040,
      "Ġwash": 4041,
      "aching": 4042,
      "Ġfavorite": 4043,
      "UT": 4044,
      "isc": 4045,
      "Ġfright": 4046,
      "itude": 4047,
      "ĠSch": 4048,
      "rael": 4049,
      "Ġgroups": 4050,
      "Ġscar": 4051,
      "Ross": 4052,
      "ĠHam": 4053,
      "ĠDolly": 4054,
      "ively": 4055,
      "ffie": 4056,
      "Ġraised": 4057,
      "Ġbite": 4058,
      "arm": 4059,
      "Ġpercent": 4060,
      "--------": 4061,
      "Ġstreng": 4062,
      "ĠBrian": 4063,
      "Ġexcuse": 4064,
      "inary": 4065,
      "Ġaffect": 4066,
      "Ġindepend": 4067,
      "Ġsett": 4068,
      "Ġdollars": 4069,
      "Ġninety": 4070,
      "Ġexperience": 4071,
      "aughed": 4072,
      "ĠRobert": 4073,
      "ĠII": 4074,
      "Ġprivate": 4075,
      "nown": 4076,
      "Ġdressed": 4077,
      "nie": 4078,
      "Ġlower": 4079,
      "Ġlaughed": 4080,
      "ciety": 4081,
      "Ġbreath": 4082,
      "Ġgall": 4083,
      "ems": 4084,
      "Ġspeed": 4085,
      "Ġwelcome": 4086,
      "Ġcos": 4087,
      "ĠAra": 4088,
      "Ġstom": 4089,
      "Ġparticularly": 4090,
      "Ġrid": 4091,
      "Ġmeaning": 4092,
      "anced": 4093,
      "Ġepis": 4094,
      "sp": 4095,
      "Ġdar": 4096,
      "Ġlying": 4097,
      "Ġguard": 4098,
      "Ġfamous": 4099,
      "Ġdifference": 4100,
      "Ġfalls": 4101,
      "Ġmountain": 4102,
      "vere": 4103,
      "ĠLot": 4104,
      "Ġmedic": 4105,
      "singing": 4106,
      "ipped": 4107,
      "van": 4108,
      "Ġbound": 4109,
      "Ġcab": 4110,
      "Ġpet": 4111,
      "ĠSal": 4112,
      "Ġscr": 4113,
      "ĠBer": 4114,
      "ĠEffie": 4115,
      "ruct": 4116,
      "ĠReally": 4117,
      "ĠScot": 4118,
      "Ġelephant": 4119,
      "eds": 4120,
      "hips": 4121,
      "ĠVer": 4122,
      "Ġcorrect": 4123,
      "Ġinvestig": 4124,
      "Ġmir": 4125,
      "Ġloss": 4126,
      "ĠAc": 4127,
      "Ġdeli": 4128,
      "Ġdirected": 4129,
      "Ġspeaking": 4130,
      "ĠMonday": 4131,
      "Ġsize": 4132,
      "Ġyell": 4133,
      "Ġtraining": 4134,
      "Ġtotal": 4135,
      "ĠCromer": 4136,
      "-day": 4137,
      "Ġhide": 4138,
      "ĠMama": 4139,
      "Ġnope": 4140,
      "Ġupstairs": 4141,
      "Ġpleasure": 4142,
      "Ġmetal": 4143,
      "Ġtelephone": 4144,
      "Ġearlier": 4145,
      "Ġmaint": 4146,
      "Ġeast": 4147,
      "Ġuses": 4148,
      "Ġstarting": 4149,
      "azing": 4150,
      "Ġleading": 4151,
      "ĠRec": 4152,
      "Ġsole": 4153,
      "Ġtalked": 4154,
      "'?": 4155,
      "ois": 4156,
      "Ġden": 4157,
      "ĠMal": 4158,
      "Ġolder": 4159,
      "Ġmessage": 4160,
      "OO": 4161,
      "Ġoil": 4162,
      "iles": 4163,
      "ours": 4164,
      "Ġairplane": 4165,
      "vious": 4166,
      "Ġinn": 4167,
      "Ġ[?": 4168,
      "Ġmilitary": 4169,
      "ooper": 4170,
      "rupt": 4171,
      "Ġexpected": 4172,
      "Ġowl": 4173,
      "cuse": 4174,
      "lebr": 4175,
      "aded": 4176,
      "ĠDep": 4177,
      "ĠBeck": 4178,
      "Ġinvolved": 4179,
      "Ġavailable": 4180,
      "hered": 4181,
      "itor": 4182,
      "anch": 4183,
      "Ġfilled": 4184,
      "ss": 4185,
      "za": 4186,
      "Ġess": 4187,
      "ĠNesta": 4188,
      "ĠJes": 4189,
      "Ġhuge": 4190,
      "Ġchem": 4191,
      "ĠParis": 4192,
      "ups": 4193,
      "ville": 4194,
      "Ġtick": 4195,
      "ĠHan": 4196,
      "aps": 4197,
      "hest": 4198,
      "Ġdig": 4199,
      "ĠMel": 4200,
      "Ġsharp": 4201,
      "'T": 4202,
      "aft": 4203,
      "she": 4204,
      "arrow": 4205,
      "Ġeager": 4206,
      "ĠRod": 4207,
      "Ġmanner": 4208,
      "hington": 4209,
      "ĠOnce": 4210,
      "ĠMass": 4211,
      "outhern": 4212,
      "ĠCong": 4213,
      "apers": 4214,
      "Ġfalling": 4215,
      "ĠEarth": 4216,
      "'clock": 4217,
      "father": 4218,
      "ĠMore": 4219,
      "ĠCharles": 4220,
      "Ġprofessional": 4221,
      "St": 4222,
      "met": 4223,
      "Ġcivil": 4224,
      "ushing": 4225,
      "aled": 4226,
      "ĠParliament": 4227,
      "Ġinflu": 4228,
      "onse": 4229,
      "asc": 4230,
      "ĠDar": 4231,
      "ĠDutch": 4232,
      "Ġstrugg": 4233,
      "Ġaged": 4234,
      "Ġlaughs": 4235,
      "Ġinternational": 4236,
      "Ġlargest": 4237,
      "BR": 4238,
      "Ġweight": 4239,
      "ĠOnly": 4240,
      "ointed": 4241,
      "Ġbrave": 4242,
      "Ġfingers": 4243,
      "SS": 4244,
      "Ġbal": 4245,
      "asons": 4246,
      "ashion": 4247,
      "Ġmurder": 4248,
      "Ġwet": 4249,
      "ĠMac": 4250,
      "ĠLat": 4251,
      "Ġ(\"": 4252,
      "Ġplays": 4253,
      "Ġended": 4254,
      "Ġnecessary": 4255,
      "hand": 4256,
      "ĠGold": 4257,
      "ĠLab": 4258,
      "ĠWashington": 4259,
      "Ġdestroy": 4260,
      "Ġconversation": 4261,
      "ami": 4262,
      "ĠBat": 4263,
      "ĠRo": 4264,
      "Ġsmile": 4265,
      "ĠChristian": 4266,
      "isters": 4267,
      "Ġnet": 4268,
      "Don": 4269,
      "ipe": 4270,
      "oons": 4271,
      "ĠMarg": 4272,
      "Ġnumbers": 4273,
      "Ġballs": 4274,
      "Ġbasket": 4275,
      "imately": 4276,
      "vert": 4277,
      "ĠHE": 4278,
      "Ġplants": 4279,
      "Ġscream": 4280,
      "Ġdata": 4281,
      "Ġhurry": 4282,
      "bed": 4283,
      "Ġtears": 4284,
      "Ġaward": 4285,
      "Ġshowing": 4286,
      "Ġswimming": 4287,
      "Ġchoice": 4288,
      "Ġhistor": 4289,
      "\")": 4290,
      "Ġtaught": 4291,
      "has": 4292,
      "Ġspoken": 4293,
      "Ġchim": 4294,
      "Ġdriving": 4295,
      "ĠMike": 4296,
      "ĠRos": 4297,
      "ĠIsrael": 4298,
      "Ġsatisf": 4299,
      "ourage": 4300,
      "Ã¶": 4301,
      "ĠSen": 4302,
      "tering": 4303,
      "ĠGeneral": 4304,
      "ĠJoe": 4305,
      "Ġthinks": 4306,
      "Ġshad": 4307,
      "Ġuhuh": 4308,
      "Ġoriginal": 4309,
      "Ġfrequ": 4310,
      "Ġbeside": 4311,
      "wise": 4312,
      "Ġadult": 4313,
      "Ġprovide": 4314,
      "ography": 4315,
      "ĠWomen": 4316,
      "Ġvote": 4317,
      "pty": 4318,
      "Ġmagic": 4319,
      "ĠSmith": 4320,
      "Ġreve": 4321,
      "Ġstro": 4322,
      "Ġvir": 4323,
      "Ġtwelve": 4324,
      "Ġarrest": 4325,
      "ĠNothing": 4326,
      "Ġcomputer": 4327,
      "Ġdinosaur": 4328,
      "burg": 4329,
      "aches": 4330,
      "cean": 4331,
      "Ġbud": 4332,
      "ĠBE": 4333,
      "bert": 4334,
      "orthern": 4335,
      "Ġfaith": 4336,
      "Ġrule": 4337,
      "Ġlack": 4338,
      "Ġsettle": 4339,
      "Ġproduced": 4340,
      "Ġquietly": 4341,
      "ĠLouis": 4342,
      "HE": 4343,
      "vi": 4344,
      "Ġtar": 4345,
      "Ġlikes": 4346,
      "Ġchanges": 4347,
      "Ġterms": 4348,
      "Ġoccup": 4349,
      ",âĢĻ": 4350,
      "host": 4351,
      "ĠMag": 4352,
      "Ġvac": 4353,
      "Ġrab": 4354,
      "lected": 4355,
      "ĠST": 4356,
      "antic": 4357,
      "Ġunc": 4358,
      "Ġpicked": 4359,
      "Ġconcer": 4360,
      "There": 4361,
      "inc": 4362,
      "ĠBill": 4363,
      "ĠChurch": 4364,
      "Ġregular": 4365,
      "rica": 4366,
      "whis": 4367,
      "Ġcelebr": 4368,
      "mit": 4369,
      "llen": 4370,
      "-M": 4371,
      "Ġformed": 4372,
      "ĠPet": 4373,
      "Ġtherefore": 4374,
      "Ġgives": 4375,
      "Ġpocket": 4376,
      "ns": 4377,
      "isted": 4378,
      "Ġturns": 4379,
      "Ġparticip": 4380,
      "Ġmotor": 4381,
      "Ġfool": 4382,
      "Ġpair": 4383,
      "ila": 4384,
      "Ġneither": 4385,
      "Ġsuit": 4386,
      "oughs": 4387,
      "Ġproceed": 4388,
      "eech": 4389,
      "Ġcolors": 4390,
      "minist": 4391,
      "ien": 4392,
      "Ġtend": 4393,
      "Ġwest": 4394,
      "Ġpersonal": 4395,
      "Ġmissing": 4396,
      "Ġcastle": 4397,
      "omm": 4398,
      "ĠBert": 4399,
      "ograph": 4400,
      "mpire": 4401,
      "icious": 4402,
      "Ġcollege": 4403,
      "zen": 4404,
      "ĠMOT": 4405,
      "Ġcamer": 4406,
      "Ġweather": 4407,
      "ilities": 4408,
      "Ġaccording": 4409,
      "Ġlocation": 4410,
      "lor": 4411,
      "Ġcovered": 4412,
      "Ġpink": 4413,
      "Ġstock": 4414,
      "ĠFred": 4415,
      "Ġcrack": 4416,
      "Ġacqu": 4417,
      "cise": 4418,
      "arian": 4419,
      "Ġpretend": 4420,
      "Ġannounced": 4421,
      "pir": 4422,
      "ads": 4423,
      "Ġdoc": 4424,
      "ability": 4425,
      "ĠUnion": 4426,
      "Ġdeveloped": 4427,
      ".âĢĻ": 4428,
      "wich": 4429,
      "ĠThomas": 4430,
      "aret": 4431,
      "rem": 4432,
      "ĠBoy": 4433,
      "Ġwoods": 4434,
      "Ġsquare": 4435,
      "Ġoppos": 4436,
      "ka": 4437,
      "rer": 4438,
      "Ġinqu": 4439,
      "ĠCould": 4440,
      "otten": 4441,
      "Ġfac": 4442,
      "Ġstates": 4443,
      "ĠCons": 4444,
      "Ġdecision": 4445,
      "ari": 4446,
      "ERE": 4447,
      "Ġwheel": 4448,
      "Ġremains": 4449,
      "ĠEliz": 4450,
      "Ġwag": 4451,
      "Ġdrew": 4452,
      "Ġthroat": 4453,
      "Ġexcited": 4454,
      "ĠAir": 4455,
      "Ġmethod": 4456,
      "Ġeasily": 4457,
      "ĠEleanor": 4458,
      "Ġir": 4459,
      "Ġcere": 4460,
      "Ġevents": 4461,
      "Ġoccasion": 4462,
      "Ġstrawber": 4463,
      "How": 4464,
      "Ġnotice": 4465,
      "ĠTHAT": 4466,
      "Ġcenter": 4467,
      "Ġindividuals": 4468,
      "Ġbull": 4469,
      "ĠMo": 4470,
      "ĠPen": 4471,
      "idden": 4472,
      "ĠAbout": 4473,
      "Ġpurpose": 4474,
      "ĠTra": 4475,
      "rif": 4476,
      "aine": 4477,
      "Ġwearing": 4478,
      "Ġwise": 4479,
      "Ġbi": 4480,
      "Ġcoun": 4481,
      "ĠJose": 4482,
      "Ġsusp": 4483,
      "Ġaud": 4484,
      "arc": 4485,
      "Ġasleep": 4486,
      "ĠOver": 4487,
      "Ġinterested": 4488,
      "Ġhonor": 4489,
      "gu": 4490,
      "erous": 4491,
      "Ġthrew": 4492,
      "Ġsail": 4493,
      "istic": 4494,
      "Ġholds": 4495,
      "ological": 4496,
      "Ġdemand": 4497,
      "Ġtaste": 4498,
      "Ġcontact": 4499,
      "Ġmonkey": 4500,
      "Ġincluded": 4501,
      "holds": 4502,
      "Ġrabbit": 4503,
      "Ġtax": 4504,
      "Ġmic": 4505,
      "Ġdemon": 4506,
      "ellig": 4507,
      "Ġsaf": 4508,
      "ighs": 4509,
      "ĠDoes": 4510,
      "ĠRepublic": 4511,
      "-st": 4512,
      "Ġsoul": 4513,
      "olic": 4514,
      "ĠIts": 4515,
      "Ġcontinue": 4516,
      "Ġhonest": 4517,
      "Ġmouse": 4518,
      "Ġheat": 4519,
      "Ġstairs": 4520,
      "Ġdeb": 4521,
      "Ġplain": 4522,
      "ossible": 4523,
      "Ġclearly": 4524,
      "Ġsignificant": 4525,
      "Ġrapid": 4526,
      "aign": 4527,
      "ux": 4528,
      "inite": 4529,
      "Ġpin": 4530,
      "ĠOld": 4531,
      "Ġsinger": 4532,
      "Ġlearning": 4533,
      "Ġlawyer": 4534,
      "Ġagreed": 4535,
      "ram": 4536,
      "Ġlat": 4537,
      "atory": 4538,
      "Ġshop": 4539,
      "cks": 4540,
      "Ġunless": 4541,
      "Ġcalls": 4542,
      "ĠChina": 4543,
      "Ġcounty": 4544,
      "ĠRussia": 4545,
      "mel": 4546,
      "onounced": 4547,
      "Ġpill": 4548,
      "Ġpushed": 4549,
      "Ġcocoon": 4550,
      "itation": 4551,
      "Ġthick": 4552,
      "ĠTV": 4553,
      "ache": 4554,
      "Ġknowledge": 4555,
      "Ġbridge": 4556,
      "Ġfounded": 4557,
      "Ġmodel": 4558,
      "Ġdoggie": 4559,
      "ĠSpanish": 4560,
      "ĠDO": 4561,
      "ĠJul": 4562,
      "ĠKitty": 4563,
      "Ġgreater": 4564,
      "face": 4565,
      "ĠTheir": 4566,
      "abeth": 4567,
      "Ġdirector": 4568,
      "Ġpractice": 4569,
      "Ġdangerous": 4570,
      "Ġdeclared": 4571,
      "Ġtruly": 4572,
      "ĠOlympics": 4573,
      "Ġgrown": 4574,
      "ribed": 4575,
      "Ġresponse": 4576,
      "ĠSummer": 4577,
      "ees": 4578,
      "Ġfirm": 4579,
      "arily": 4580,
      "Ġsposta": 4581,
      "Ġanywhere": 4582,
      "Ġproduc": 4583,
      "Ġstruck": 4584,
      "ĠAfrican": 4585,
      "Ġcy": 4586,
      "Ġstated": 4587,
      "ĠOther": 4588,
      "ĠPrince": 4589,
      "Ġflying": 4590,
      "sociation": 4591,
      "aries": 4592,
      "ights": 4593,
      "bered": 4594,
      "Ġcondition": 4595,
      "Ġharm": 4596,
      "Ġliter": 4597,
      "Ġnation": 4598,
      "abel": 4599,
      "ittee": 4600,
      "ĠThree": 4601,
      "Ġcoast": 4602,
      "Ġescape": 4603,
      "Ġknife": 4604,
      "Ġcreate": 4605,
      "Ġgentleman": 4606,
      "ho": 4607,
      "asp": 4608,
      "Ġdebut": 4609,
      "ĠMarcia": 4610,
      "Ġsentence": 4611,
      "ĠScott": 4612,
      "Ġsuspect": 4613,
      "Ġladies": 4614,
      "ĠHumph": 4615,
      "Ã³": 4616,
      "Ġtext": 4617,
      "Ġwound": 4618,
      "ĠWed": 4619,
      "Ġaware": 4620,
      "Ġrequired": 4621,
      "ĠBraz": 4622,
      "My": 4623,
      "sha": 4624,
      "time": 4625,
      "ware": 4626,
      "Ġpool": 4627,
      "rig": 4628,
      "Ġrough": 4629,
      "Ġlaid": 4630,
      "ĠHug": 4631,
      "Ġnote": 4632,
      "Ġspeech": 4633,
      "ĠAfrica": 4634,
      "Ġrecorder": 4635,
      "gypt": 4636,
      "Ġwhispered": 4637,
      "Ġdancing": 4638,
      "Ġmachine": 4639,
      "gigg": 4640,
      "Ġtone": 4641,
      "Ġcute": 4642,
      "ening": 4643,
      "Ġgate": 4644,
      "Ġnurse": 4645,
      "Ġthus": 4646,
      "Ġheads": 4647,
      "Ġfourth": 4648,
      "Ġprepared": 4649,
      "Ġcart": 4650,
      "Ġpurs": 4651,
      "Ġmanaged": 4652,
      "ĠArmy": 4653,
      "Ġfault": 4654,
      "Ġradio": 4655,
      "Ġexclaimed": 4656,
      "-year": 4657,
      "-S": 4658,
      "under": 4659,
      "Ġdouble": 4660,
      "ĠSure": 4661,
      "Ġstorm": 4662,
      "alley": 4663,
      "Ġrate": 4664,
      "Ġmissed": 4665,
      "ursday": 4666,
      "Ġcloser": 4667,
      "eless": 4668,
      "fection": 4669,
      "ĠHistory": 4670,
      "ĠHumphrey": 4671,
      ".,": 4672,
      "Ġpic": 4673,
      "Ġeld": 4674,
      "ĠFollow": 4675,
      "anda": 4676,
      "Ġagree": 4677,
      "ĠDemocr": 4678,
      "can": 4679,
      "ĠME": 4680,
      "ching": 4681,
      "ĠRome": 4682,
      "ĠInternational": 4683,
      "olt": 4684,
      "Ġspl": 4685,
      "Ġconstruction": 4686,
      "Ġstrength": 4687,
      "ĠCamp": 4688,
      "ĠSpain": 4689,
      "Ġextreme": 4690,
      "Ġdrinking": 4691,
      "nesday": 4692,
      "Ġninet": 4693,
      "Ġwatched": 4694,
      "Then": 4695,
      "reys": 4696,
      "ĠTri": 4697,
      "ago": 4698,
      "cip": 4699,
      "ĠThursday": 4700,
      "Ġlap": 4701,
      "ĠWind": 4702,
      "Ġremem": 4703,
      "Ġscene": 4704,
      "inese": 4705,
      "Ġgrowing": 4706,
      "icles": 4707,
      "uset": 4708,
      "elle": 4709,
      "Ġroof": 4710,
      "Ġthroughout": 4711,
      "ĠZeal": 4712,
      "Ġsongs": 4713,
      "Ġregarding": 4714,
      "enth": 4715,
      "ĠDa": 4716,
      "Ġshown": 4717,
      "Ġsmell": 4718,
      "Ġsmart": 4719,
      "uesday": 4720,
      "Ġhappening": 4721,
      "orough": 4722,
      "essel": 4723,
      "ĠLa": 4724,
      "Ġappre": 4725,
      "Ġseventy": 4726,
      "ĠBrazil": 4727,
      "itan": 4728,
      "ishes": 4729,
      "Ġdread": 4730,
      "ĠApp": 4731,
      "amin": 4732,
      "ilies": 4733,
      "Ġusual": 4734,
      "ĠComp": 4735,
      "Ġgods": 4736,
      "ĠItalian": 4737,
      "lie": 4738,
      "Ġnap": 4739,
      "ĠDi": 4740,
      "raw": 4741,
      "Ġconstit": 4742,
      "Ġzoo": 4743,
      "Ġcrazy": 4744,
      "Ġfemale": 4745,
      "Ġlog": 4746,
      "vell": 4747,
      "iring": 4748,
      "ĠRose": 4749,
      "AU": 4750,
      "LY": 4751,
      "oly": 4752,
      "uk": 4753,
      "reg": 4754,
      "atoes": 4755,
      "ĠAward": 4756,
      "Ġweak": 4757,
      "ĠDis": 4758,
      "ĠDel": 4759,
      "Ġrow": 4760,
      "Ġcoat": 4761,
      "Ġaccess": 4762,
      "Ġsmaller": 4763,
      "ĠSecret": 4764,
      "Ġnormal": 4765,
      "Ġcousin": 4766,
      "Ġforced": 4767,
      "ĠOp": 4768,
      "ĠGive": 4769,
      "Ġserve": 4770,
      "ĠAldred": 4771,
      "Ġquarter": 4772,
      "ĠZealand": 4773,
      "ban": 4774,
      "iant": 4775,
      "Ġreb": 4776,
      "ĠCast": 4777,
      "Ġtwice": 4778,
      "achuset": 4779,
      "Ġstudied": 4780,
      "Ġlanguages": 4781,
      "ederal": 4782,
      ",I": 4783,
      "-e": 4784,
      "gen": 4785,
      "gress": 4786,
      "Ġyouth": 4787,
      "omed": 4788,
      "ota": 4789,
      "ods": 4790,
      "Ġimpossible": 4791,
      "ĠCHAP": 4792,
      "achusetts": 4793,
      "Ġcred": 4794,
      "Ġhill": 4795,
      "ĠDist": 4796,
      "Ġhasn": 4797,
      "Ġpleased": 4798,
      "Ġtransport": 4799,
      "ĠScotland": 4800,
      "ym": 4801,
      "Ġcott": 4802,
      "ĠWil": 4803,
      "ĠMassachusetts": 4804,
      "Ġsafety": 4805,
      "boy": 4806,
      "ti": 4807,
      "Ġsac": 4808,
      "oma": 4809,
      "utions": 4810,
      "ĠMet": 4811,
      "Ġcontract": 4812,
      "Ġkeeping": 4813,
      "ĠWhich": 4814,
      "ĠExcuse": 4815,
      "Ġfailed": 4816,
      "ĠCHAPTER": 4817,
      "ĠTuesday": 4818,
      "ĠNever": 4819,
      "Ġcheer": 4820,
      "Ġdistrib": 4821,
      "iety": 4822,
      "Ġleaders": 4823,
      "den": 4824,
      "house": 4825,
      "just": 4826,
      "Ġlink": 4827,
      "Ġmerely": 4828,
      "Ġarch": 4829,
      "ification": 4830,
      "Ġlistening": 4831,
      "ĠSuper": 4832,
      "Ġfruit": 4833,
      "ĠWednesday": 4834,
      "ĠWood": 4835,
      "Ġshore": 4836,
      "Ġteach": 4837,
      "Ġchimney": 4838,
      "ĠMus": 4839,
      "They": 4840,
      "Ġbeauty": 4841,
      "Ġexplain": 4842,
      "uf": 4843,
      "ĠÂ": 4844,
      "Ġfol": 4845,
      "ĠCat": 4846,
      "ĠDuke": 4847,
      "Ġvessel": 4848,
      "Ġremoved": 4849,
      "Ġmedical": 4850,
      "ĠListen": 4851,
      "Ġsite": 4852,
      "ĠPapa": 4853,
      "ĠEric": 4854,
      "Ġsecurity": 4855,
      "Ġsteps": 4856,
      "bury": 4857,
      "ĠCHI": 4858,
      "Ġduty": 4859,
      "Ġstream": 4860,
      "ĠBur": 4861,
      "cellent": 4862,
      "Ġscience": 4863,
      "Ġstret": 4864,
      "Ġopin": 4865,
      "oured": 4866,
      "Ġdirty": 4867,
      "Ġpred": 4868,
      "Ġstre": 4869,
      "Ġelected": 4870,
      "Ġconditions": 4871,
      "Ġturtle": 4872,
      "Ġmemory": 4873,
      "Ġopportunity": 4874,
      "rid": 4875,
      "ĠMat": 4876,
      "ript": 4877,
      "Ġmeal": 4878,
      "ĠGreen": 4879,
      "Ġforces": 4880,
      "ĠCO": 4881,
      "ĠFore": 4882,
      "Ġspr": 4883,
      "ĠBrown": 4884,
      "Ġofficial": 4885,
      "Ġmurd": 4886,
      "!'": 4887,
      "/M": 4888,
      "ja": 4889,
      "ini": 4890,
      "ĠSand": 4891,
      "Ġworried": 4892,
      "uckles": 4893,
      "Ġbrothers": 4894,
      "Ġwitness": 4895,
      "Ġepisode": 4896,
      "Ġfra": 4897,
      "ĠLuc": 4898,
      "Ġmov": 4899,
      "Ġindividual": 4900,
      "ĠMont": 4901,
      "sec": 4902,
      "ĠWE": 4903,
      "ĠDay": 4904,
      "oph": 4905,
      "ella": 4906,
      "Ġrising": 4907,
      "Ġafterwards": 4908,
      "iction": 4909,
      "Ġgreatest": 4910,
      "Ġreported": 4911,
      "Ġmodern": 4912,
      "Ġmentioned": 4913,
      "GHT": 4914,
      "Ġcherry": 4915,
      "Ġdemonstr": 4916,
      "amm": 4917,
      "ĠEgypt": 4918,
      "useum": 4919,
      "Ġcontent": 4920,
      "Ġcells": 4921,
      "Ġcases": 4922,
      "Ġhadn": 4923,
      "ols": 4924,
      "Ġwilling": 4925,
      "Ġprice": 4926,
      "Ġnumerous": 4927,
      "Ġempty": 4928,
      "Ġtrial": 4929,
      "Ġbenef": 4930,
      "Ġmut": 4931,
      "Ġge": 4932,
      "Ġearn": 4933,
      "Ġdirection": 4934,
      "Ġtrip": 4935,
      "ĠJeffreys": 4936,
      "ĠChampionship": 4937,
      "Ġoccurred": 4938,
      "-B": 4939,
      "erg": 4940,
      "Ġlibr": 4941,
      "elly": 4942,
      "Ġbless": 4943,
      "Ġprint": 4944,
      "ĠIslam": 4945,
      "Ġrequest": 4946,
      "ĠNether": 4947,
      "lig": 4948,
      "Ã¨": 4949,
      "ading": 4950,
      "rial": 4951,
      "Ġsaved": 4952,
      "Ġplans": 4953,
      "Ġwhoa": 4954,
      "Ġtrade": 4955,
      "Ġcarrying": 4956,
      "Ġperm": 4957,
      "Ġcompetition": 4958,
      "Ġimagine": 4959,
      "Now": 4960,
      "ĠCath": 4961,
      "Ġdey": 4962,
      "ELL": 4963,
      "oking": 4964,
      "Ġrocket": 4965,
      "Ġservices": 4966,
      "Ġcampaign": 4967,
      "Ġfixed": 4968,
      "ĠCont": 4969,
      "Ġwooden": 4970,
      "Ġabsolutely": 4971,
      "ĠElizabeth": 4972,
      "Ġmistake": 4973,
      "Ġcalm": 4974,
      "Ġmaterial": 4975,
      "Ġbrief": 4976,
      "ĠJesus": 4977,
      "edd": 4978,
      "ĠCare": 4979,
      "Ġattract": 4980,
      "ĠNetherlands": 4981,
      "Ġfro": 4982,
      "ĠCle": 4983,
      "umber": 4984,
      "Ġflower": 4985,
      "Ġbecoming": 4986,
      "Ġcarefully": 4987,
      "giggles": 4988,
      "Ġmovies": 4989,
      "Ġpan": 4990,
      "ĠSing": 4991,
      "ĠHot": 4992,
      "Ġschools": 4993,
      "Ġentirely": 4994,
      "Ġdefend": 4995,
      "-room": 4996,
      "gn": 4997,
      "reland": 4998,
      "Ġwaste": 4999,
      "Ġ()": 5000,
      "Ġserving": 5001,
      "ĠIsland": 5002,
      "mpion": 5003,
      "Ġwindows": 5004,
      "Ġign": 5005,
      "Ġtrib": 5006,
      "Ġsoup": 5007,
      "Ġplenty": 5008,
      "ensus": 5009,
      "Ġruns": 5010,
      "Ġpromised": 5011,
      "Ġrelease": 5012,
      "Ġresults": 5013,
      "eer": 5014,
      "inal": 5015,
      "Ġgaz": 5016,
      "ĠSim": 5017,
      "ĠSaint": 5018,
      "alled": 5019,
      "Ġsilence": 5020,
      "Ġprovided": 5021,
      "Ġpulled": 5022,
      "Ġpicnic": 5023,
      "ault": 5024,
      "Ġcouncil": 5025,
      "Ġneat": 5026,
      "Ġdecide": 5027,
      "Ġjudge": 5028,
      "uit": 5029,
      "ĠDou": 5030,
      "ĠFe": 5031,
      "rences": 5032,
      "Ġsurround": 5033,
      "ĠBritain": 5034,
      "Ġcandy": 5035,
      "Ġperfectly": 5036,
      "Ġobserved": 5037,
      "ental": 5038,
      "ĠRem": 5039,
      "ĠFox": 5040,
      "anges": 5041,
      "Ġrail": 5042,
      "Ġpour": 5043,
      "ĠMolly": 5044,
      "--\"": 5045,
      "Ġchampions": 5046,
      "Ġcontrib": 5047,
      "ĠPerhaps": 5048,
      "ĠIreland": 5049,
      "ĠRock": 5050,
      "ava": 5051,
      "Ġhotel": 5052,
      "Ġstructure": 5053,
      "Ġfigures": 5054,
      "Ġstomach": 5055,
      "gent": 5056,
      "ĠSus": 5057,
      "elled": 5058,
      "Ġshirt": 5059,
      "Ġveget": 5060,
      "Ġpressure": 5061,
      "moves": 5062,
      "Ġcamera": 5063,
      "wr": 5064,
      "ĠIS": 5065,
      "ĠScient": 5066,
      "Ġnovel": 5067,
      "Ġawful": 5068,
      "Ġfavour": 5069,
      "Ġmotion": 5070,
      "-up": 5071,
      "jo": 5072,
      "ĠTer": 5073,
      "ala": 5074,
      "Ġrise": 5075,
      "ĠVir": 5076,
      "ĠChinese": 5077,
      "Ġdetect": 5078,
      "Ġincrease": 5079,
      "ĠFrancis": 5080,
      "!âĢĿ": 5081,
      "ĠMaster": 5082,
      "ĠJud": 5083,
      "Ġsuc": 5084,
      "Ġpicks": 5085,
      "Ġdolly": 5086,
      "Ġhighest": 5087,
      "Ġnoticed": 5088,
      "odies": 5089,
      "Ġcrime": 5090,
      "ĠJean": 5091,
      "ĠGreek": 5092,
      "If": 5093,
      "iber": 5094,
      "Ġtou": 5095,
      "Ġsch": 5096,
      "umed": 5097,
      "Ġchoose": 5098,
      "Ġmonster": 5099,
      "-song": 5100,
      "Ġtarget": 5101,
      "ship": 5102,
      "ita": 5103,
      "Ġcouch": 5104,
      "Ġtow": 5105,
      "ĠIran": 5106,
      "ĠMajor": 5107,
      "semb": 5108,
      "Ġfamilies": 5109,
      "Ġcausing": 5110,
      "Ġenter": 5111,
      "Ġsucceed": 5112,
      "known": 5113,
      "Ġwake": 5114,
      "Ġtheory": 5115,
      "Ġfashion": 5116,
      "lla": 5117,
      "Ġlips": 5118,
      "ĠOut": 5119,
      "Ġrob": 5120,
      "angers": 5121,
      "ĠChief": 5122,
      "Ġcurrently": 5123,
      "Ġcustom": 5124,
      "ademy": 5125,
      "Ġmel": 5126,
      "Ġplat": 5127,
      "Ġstudies": 5128,
      "Ġeasier": 5129,
      "IR": 5130,
      "mont": 5131,
      "takes": 5132,
      "Ġtong": 5133,
      "orks": 5134,
      "ession": 5135,
      "Ġhandle": 5136,
      "Ġwalks": 5137,
      "Ġcontinues": 5138,
      "KEN": 5139,
      "ĠMur": 5140,
      "Ġdishes": 5141,
      "ANT": 5142,
      "Ġincludes": 5143,
      "Ġbathroom": 5144,
      "Ġtradition": 5145,
      "ĠClaus": 5146,
      "viet": 5147,
      "Ġbare": 5148,
      "ĠMount": 5149,
      "ste": 5150,
      "Ġancient": 5151,
      "Ġrout": 5152,
      "Ġtrick": 5153,
      "peror": 5154,
      "Ġproduction": 5155,
      "Ġwalls": 5156,
      "Ġdaily": 5157,
      "do": 5158,
      "Ġfought": 5159,
      "owed": 5160,
      "ĠGar": 5161,
      "ĠFour": 5162,
      "Ġpleasant": 5163,
      "ĠZara": 5164,
      "Ġchemical": 5165,
      "Ġintern": 5166,
      "Ġnurs": 5167,
      "Ġnerv": 5168,
      "Ġsurprised": 5169,
      "ĠMabel": 5170,
      "Ġjack": 5171,
      "Ġhardly": 5172,
      "Ġsandwich": 5173,
      "Ġblanket": 5174,
      "bur": 5175,
      "craft": 5176,
      "Ġ..": 5177,
      "Ġtight": 5178,
      "Ġcuri": 5179,
      "ĠEmpire": 5180,
      "Ġqueen": 5181,
      "Ġnewsp": 5182,
      "Ġdirectly": 5183,
      "Ġfeatures": 5184,
      "ĠAye": 5185,
      "ĠHur": 5186,
      "ateg": 5187,
      "ĠSoviet": 5188,
      "Ġcoach": 5189,
      "Ġcentral": 5190,
      "ĠCongress": 5191,
      "ĠFire": 5192,
      "Ġexer": 5193,
      "ĠBrad": 5194,
      "Ġmarriage": 5195,
      "idding": 5196,
      "Ġbowl": 5197,
      "sych": 5198,
      "ij": 5199,
      "ĠStud": 5200,
      "Ġactive": 5201,
      "Ġcrown": 5202,
      "Ġopening": 5203,
      "bet": 5204,
      "hum": 5205,
      "Ġfold": 5206,
      "ancial": 5207,
      "Ġlion": 5208,
      "HING": 5209,
      "Ġreview": 5210,
      "Ġsword": 5211,
      "Ġlarger": 5212,
      "-n": 5213,
      "isy": 5214,
      "ĠBas": 5215,
      "Ġmeas": 5216,
      "Ġdescend": 5217,
      "Ġtreatment": 5218,
      "Ġeffort": 5219,
      "Ġideas": 5220,
      "Ġnineteen": 5221,
      "AB": 5222,
      "aven": 5223,
      "ĠUnder": 5224,
      "Ġgrant": 5225,
      "Ġpossibly": 5226,
      "ĠHugo": 5227,
      "bout": 5228,
      "Ġgoal": 5229,
      "aked": 5230,
      "hens": 5231,
      "obal": 5232,
      "Ġcauses": 5233,
      "ibility": 5234,
      "Ġinvol": 5235,
      "Ġfifteen": 5236,
      "Ġprior": 5237,
      "Ġofficers": 5238,
      "fortun": 5239,
      "Ġrules": 5240,
      "ĠJapanese": 5241,
      "CE": 5242,
      "Ġtask": 5243,
      "ĠSun": 5244,
      "roll": 5245,
      "ĠRel": 5246,
      "igned": 5247,
      "Ġhelping": 5248,
      "Ġalongside": 5249,
      "Ġreceive": 5250,
      "was": 5251,
      "ĠJos": 5252,
      "osc": 5253,
      "ferent": 5254,
      "Ġdism": 5255,
      "gery": 5256,
      "Ġissues": 5257,
      "ule": 5258,
      "istan": 5259,
      "ĠThose": 5260,
      "Ġresour": 5261,
      "ension": 5262,
      "Ġmatters": 5263,
      "Ġjumped": 5264,
      "ĠFollowing": 5265,
      "Ġthee": 5266,
      "Ġfurn": 5267,
      "Ġtells": 5268,
      "Ġpresence": 5269,
      "Ġissue": 5270,
      "Ġadop": 5271,
      "Ġshape": 5272,
      "Ġmostly": 5273,
      "Ġgenerally": 5274,
      "Ġtyp": 5275,
      "vis": 5276,
      "ona": 5277,
      "Ġconv": 5278,
      "ĠUm": 5279,
      "ĠMaria": 5280,
      "Ġobviously": 5281,
      "Ġgrave": 5282,
      "aves": 5283,
      "iation": 5284,
      "ĠIr": 5285,
      "Ġfinding": 5286,
      "Ġswing": 5287,
      "Ġinterview": 5288,
      "Ġpowerful": 5289,
      "Ġprincess": 5290,
      "uries": 5291,
      "ĠAnother": 5292,
      "Ġloudly": 5293,
      "Ġsettled": 5294,
      "ae": 5295,
      "bye": 5296,
      "pet": 5297,
      "Ġï¿½ï¿½ï¿½ï¿½": 5298,
      "Ġsides": 5299,
      "verage": 5300,
      "ĠBig": 5301,
      "umps": 5302,
      "Ġrange": 5303,
      "Ġadvent": 5304,
      "Ġveh": 5305,
      "Ġanxious": 5306,
      "Ġdegree": 5307,
      "Ġham": 5308,
      "amps": 5309,
      "ĠWestern": 5310,
      "Ġvot": 5311,
      "Ġclimate": 5312,
      "Ġunion": 5313,
      "Ġcircum": 5314,
      "ĠTown": 5315,
      "Ġdoin": 5316,
      "Ġsociety": 5317,
      "Ġadminist": 5318,
      "ĠProv": 5319,
      "Ġvalue": 5320,
      "Ġneighbor": 5321,
      "Ġresponsible": 5322,
      "Ġble": 5323,
      "Ġfancy": 5324,
      "Ġalt": 5325,
      "inda": 5326,
      "Ġremind": 5327,
      "Ġcommun": 5328,
      "corder": 5329,
      "itzer": 5330,
      "Ġfaces": 5331,
      "outs": 5332,
      "ĠDra": 5333,
      "ĠRoyal": 5334,
      "ĠLife": 5335,
      "Ġarrow": 5336,
      "Ġcaptain": 5337,
      "Ġcompeted": 5338,
      "Ġavoid": 5339,
      "Ġclouds": 5340,
      "olars": 5341,
      "Ġlights": 5342,
      "Ġversion": 5343,
      "Ġgradu": 5344,
      "Ġappreci": 5345,
      "**": 5346,
      "BC": 5347,
      "CT": 5348,
      "Is": 5349,
      "mpt": 5350,
      "Ġbone": 5351,
      "inger": 5352,
      "ĠBan": 5353,
      "Ġactor": 5354,
      "Ġsecure": 5355,
      "ĠFlor": 5356,
      "Ġcompanies": 5357,
      "ĠJoseph": 5358,
      "coughs": 5359,
      "ker": 5360,
      "otion": 5361,
      "ĠCam": 5362,
      "Ġblind": 5363,
      "iana": 5364,
      "iano": 5365,
      "place": 5366,
      "Ġphil": 5367,
      "Ġgiant": 5368,
      "Ġrequire": 5369,
      "Ġwha": 5370,
      "Ġdying": 5371,
      "ĠHol": 5372,
      "cely": 5373,
      "eping": 5374,
      "Ġwriter": 5375,
      "ĠArt": 5376,
      "Ġyounger": 5377,
      "Ġcentre": 5378,
      "Ġlegal": 5379,
      "ĠGuy": 5380,
      "Ġgentlemen": 5381,
      "Ġlucky": 5382,
      "nods": 5383,
      "Ġnoble": 5384,
      "Ġknowing": 5385,
      "ĠThr": 5386,
      "ructed": 5387,
      "Ġprefer": 5388,
      "Ġprevious": 5389,
      "Ġsalt": 5390,
      "Ġconcern": 5391,
      "Ġbutton": 5392,
      "Ġmoves": 5393,
      "Ġglo": 5394,
      "Ġartist": 5395,
      "Ġsen": 5396,
      "Ġgro": 5397,
      "etch": 5398,
      "esty": 5399,
      "Ġflag": 5400,
      "ube": 5401,
      "Ġfeels": 5402,
      "Ġseconds": 5403,
      "Ġstrawberries": 5404,
      "Do": 5405,
      "Ġbump": 5406,
      "aring": 5407,
      "eta": 5408,
      "Ġthin": 5409,
      "ĠBu": 5410,
      "ĠLove": 5411,
      "ĠUN": 5412,
      "Ġboots": 5413,
      "Ġpolicy": 5414,
      "Ġdrawing": 5415,
      "Ġconcerned": 5416,
      "rees": 5417,
      "Ġtooth": 5418,
      "ĠSol": 5419,
      "Ġwaited": 5420,
      "ervation": 5421,
      "ĠPercy": 5422,
      "Ġrepeated": 5423,
      "Ġwished": 5424,
      "ĠFort": 5425,
      "ooks": 5426,
      "Ġarg": 5427,
      "Ġchest": 5428,
      "Ġkinds": 5429,
      "_,": 5430,
      "uan": 5431,
      "aning": 5432,
      "Ġemp": 5433,
      "illa": 5434,
      "Ġdriver": 5435,
      "ENT": 5436,
      "Ġrocks": 5437,
      "ĠRobin": 5438,
      "ĠScientists": 5439,
      "In": 5440,
      "ĠTy": 5441,
      "ĠNat": 5442,
      "ĠGO": 5443,
      "ilda": 5444,
      "ÃŃs": 5445,
      "Ġfrogs": 5446,
      "Ġdesigned": 5447,
      "Ġeffects": 5448,
      "Ġperformance": 5449,
      "Ġburst": 5450,
      "Ġindustry": 5451,
      "tin": 5452,
      "ingu": 5453,
      "ata": 5454,
      "kel": 5455,
      "Ġplane": 5456,
      "Ġappears": 5457,
      "Ġchannel": 5458,
      "Ġsurface": 5459,
      "Ġpurple": 5460,
      "icycle": 5461,
      "oles": 5462,
      "Ġconqu": 5463,
      "Ġscary": 5464,
      "Ġteams": 5465,
      "Ġlaws": 5466,
      "Ġconcent": 5467,
      "Ġgolden": 5468,
      "Ġmail": 5469,
      "astern": 5470,
      "Ġsection": 5471,
      "ĠGot": 5472,
      "Ġeleven": 5473,
      "Ġimpact": 5474,
      "Ġplanet": 5475,
      "-time": 5476,
      "stitute": 5477,
      "ĠFOR": 5478,
      "Ġqual": 5479,
      "Ġkeeps": 5480,
      "Ġpassing": 5481,
      "ĠPlay": 5482,
      "Ġcircus": 5483,
      "Ġvictory": 5484,
      "Ġappearance": 5485,
      "Ġimprove": 5486,
      "eks": 5487,
      "ĠHI": 5488,
      "ĠStill": 5489,
      "Ġterror": 5490,
      "Ġorders": 5491,
      "Ġordered": 5492,
      "Ġrelationship": 5493,
      "ST": 5494,
      "onia": 5495,
      "aming": 5496,
      "Ġlies": 5497,
      "ĠPope": 5498,
      "ĠLos": 5499,
      "Ġstring": 5500,
      "ience": 5501,
      "nament": 5502,
      "vest": 5503,
      "eaks": 5504,
      "Ġships": 5505,
      "Ġexcellent": 5506,
      "Ġfallen": 5507,
      "ĠPrime": 5508,
      "ĠProf": 5509,
      "Ġsouthw": 5510,
      "\"]": 5511,
      "-T": 5512,
      "Ġtv": 5513,
      "Ġthy": 5514,
      "ĠPers": 5515,
      "ĠJake": 5516,
      "hants": 5517,
      "ocal": 5518,
      "Ġsecured": 5519,
      "ĠAssociation": 5520,
      "Ġfunction": 5521,
      "Ġhearing": 5522,
      "ĠPrin": 5523,
      "ĠScr": 5524,
      "Ġapprox": 5525,
      "Ġutter": 5526,
      "ĠCollege": 5527,
      "ĠMexico": 5528,
      "Ġdarling": 5529,
      "ĠSecretary": 5530,
      "Ġtongue": 5531,
      "iven": 5532,
      "aling": 5533,
      "ĠDoctor": 5534,
      "Ġrespond": 5535,
      "Ġapproach": 5536,
      "Ġmerry": 5537,
      "Ġreligion": 5538,
      "Ġfocus": 5539,
      "kra": 5540,
      "mes": 5541,
      "Ġnarrow": 5542,
      "Ġwheels": 5543,
      "ĠJenn": 5544,
      "Ġourselves": 5545,
      "Ġstudent": 5546,
      "gs": 5547,
      "Ġwings": 5548,
      "Ġpitched": 5549,
      "icated": 5550,
      "ĠFil": 5551,
      "Ġrode": 5552,
      "ishop": 5553,
      "ero": 5554,
      "Ġmale": 5555,
      "ĠMild": 5556,
      "stood": 5557,
      "ĠFar": 5558,
      "uments": 5559,
      "hib": 5560,
      "Ġdownstairs": 5561,
      "Ġtraffic": 5562,
      "Ġbecomes": 5563,
      "Ġtypes": 5564,
      "Ġsoldier": 5565,
      "Ġpatient": 5566,
      "ĠArab": 5567,
      "Ġmedicine": 5568,
      "-L": 5569,
      "ouri": 5570,
      "Ġbac": 5571,
      "Ġnic": 5572,
      "kend": 5573,
      "ĠHapp": 5574,
      "ĠBest": 5575,
      "Ġshock": 5576,
      "Ġwilln": 5577,
      "ishment": 5578,
      "Ġcarriage": 5579,
      "Ġedge": 5580,
      "ĠTrans": 5581,
      "Ġtreated": 5582,
      "ba": 5583,
      "ef": 5584,
      "edy": 5585,
      "Ġpig": 5586,
      "Ġinvent": 5587,
      "Ġassoci": 5588,
      "arts": 5589,
      "Ġbegins": 5590,
      "Ġbringing": 5591,
      "ĠAngela": 5592,
      "ĠGovernment": 5593,
      "Ġcruel": 5594,
      "Ġnervous": 5595,
      "Ġopt": 5596,
      "enny": 5597,
      "Ġjun": 5598,
      "Ġ(;": 5599,
      "oston": 5600,
      "Ġdisplay": 5601,
      "Ġflight": 5602,
      "anged": 5603,
      "ï¿½ï¿½ï¿½": 5604,
      "ĠSwed": 5605,
      "Ġsource": 5606,
      "Ġocean": 5607,
      "Ġma": 5608,
      "Ġghost": 5609,
      "asy": 5610,
      "ĠServ": 5611,
      "Ġdoct": 5612,
      "ĠKat": 5613,
      "Ġsmoke": 5614,
      "Ġmedia": 5615,
      "ĠSecond": 5616,
      "Ġhanging": 5617,
      "sm": 5618,
      "isions": 5619,
      "alent": 5620,
      "ĠMill": 5621,
      "stances": 5622,
      "ola": 5623,
      "Ġpros": 5624,
      "Ġroy": 5625,
      "Ġforeign": 5626,
      "Ġmountains": 5627,
      "Ġsisters": 5628,
      "Ġpages": 5629,
      "ĠNaz": 5630,
      "Ġkiller": 5631,
      "Ġexchan": 5632,
      "Ġproperty": 5633,
      "Ġfrightened": 5634,
      "EA": 5635,
      "So": 5636,
      "oned": 5637,
      "Ġpa": 5638,
      "Ġnuts": 5639,
      "Ġsaus": 5640,
      "Ġsomewhat": 5641,
      "Ġattend": 5642,
      "Ġbeneath": 5643,
      "Ġbabies": 5644,
      "-night": 5645,
      "kins": 5646,
      "talk": 5647,
      "Ġbomb": 5648,
      "Ġcourage": 5649,
      "Ġye": 5650,
      "ĠTim": 5651,
      "Ġwasher": 5652,
      "Ġshoe": 5653,
      "Ġrecognized": 5654,
      "ĠMildred": 5655,
      "Ġrom": 5656,
      "Ġforms": 5657,
      "berg": 5658,
      "pering": 5659,
      "Ġfifth": 5660,
      "Ġplanning": 5661,
      "ĠWalter": 5662,
      "Ġreligious": 5663,
      "initely": 5664,
      "Ġstreets": 5665,
      "?]": 5666,
      "ez": 5667,
      "Ġder": 5668,
      "Ġforever": 5669,
      "Ġsuccessful": 5670,
      "ĠSometimes": 5671,
      "bel": 5672,
      "Ġmor": 5673,
      "ĠTod": 5674,
      "ĠWhe": 5675,
      "Ġrings": 5676,
      "ĠKent": 5677,
      "Ġshoulder": 5678,
      "Ġbuildings": 5679,
      "Ġsystems": 5680,
      "with": 5681,
      "Ġfaster": 5682,
      "Ġpapers": 5683,
      "Ġstyle": 5684,
      "Ġplums": 5685,
      "Ġprogress": 5686,
      "Ġintended": 5687,
      "Ġhelmet": 5688,
      "Ġbedroom": 5689,
      "Ġteaching": 5690,
      "Ġvictim": 5691,
      "IM": 5692,
      "ga": 5693,
      "gie": 5694,
      "Ġpound": 5695,
      "uten": 5696,
      "ĠRom": 5697,
      "Ġdeparted": 5698,
      "ĠCanadian": 5699,
      "Ġelephants": 5700,
      "Ġopinion": 5701,
      "Ġcities": 5702,
      "places": 5703,
      "Ġsomethin": 5704,
      "Ġowned": 5705,
      "Ġexpress": 5706,
      "Ġdrawn": 5707,
      "Ġperformed": 5708,
      "Ġcandid": 5709,
      "ĠDespite": 5710,
      "Ġindependent": 5711,
      "ĠLatin": 5712,
      "Ġet": 5713,
      "Ġbike": 5714,
      "riff": 5715,
      "ĠHu": 5716,
      "eman": 5717,
      "Ġuns": 5718,
      "Ġthoughts": 5719,
      "itzerland": 5720,
      "pa": 5721,
      "Ġfully": 5722,
      "Ġnest": 5723,
      "Ġanal": 5724,
      "Ġliber": 5725,
      "ĠRay": 5726,
      "Ġunable": 5727,
      "Ġflo": 5728,
      "ropri": 5729,
      "Ġforgotten": 5730,
      "UST": 5731,
      "ĠCatholic": 5732,
      "Ġrib": 5733,
      "Ġaim": 5734,
      "Ġgift": 5735,
      "Ġalpha": 5736,
      "Ġhelps": 5737,
      "Ġorganization": 5738,
      "rant": 5739,
      "Ġcong": 5740,
      "ĠIra": 5741,
      "ĠDen": 5742,
      "Ġunf": 5743,
      "ĠChris": 5744,
      "ĠDonald": 5745,
      "Ġthousands": 5746,
      "ĠSwitzerland": 5747,
      "Ġjournal": 5748,
      "Ġast": 5749,
      "itz": 5750,
      "Ġheaven": 5751,
      "ĠNO": 5752,
      "ĠLee": 5753,
      "iel": 5754,
      "Ġintellig": 5755,
      "ocks": 5756,
      "Ġcontr": 5757,
      "Ġexcit": 5758,
      "Ġlevels": 5759,
      "Ġshadow": 5760,
      "Ġted": 5761,
      "Ġcit": 5762,
      "Ġcant": 5763,
      "ĠHome": 5764,
      "ĠBRO": 5765,
      "Ġsympt": 5766,
      "ĠEarly": 5767,
      "Ġnea": 5768,
      "ĠSea": 5769,
      "illed": 5770,
      "anging": 5771,
      "Ġpresents": 5772,
      "erecorder": 5773,
      "ĠAmeric": 5774,
      "Ġdiscover": 5775,
      "ĠDistrict": 5776,
      "IGHT": 5777,
      "Ġdish": 5778,
      "Ġnative": 5779,
      "verse": 5780,
      "Ġstir": 5781,
      "cel": 5782,
      "estival": 5783,
      "Ġconce": 5784,
      "Ġdespite": 5785,
      "fficient": 5786,
      "ĠCentral": 5787,
      "Ġcabin": 5788,
      "ĠMusl": 5789,
      "ĠSur": 5790,
      "ĠHon": 5791,
      "ĠBre": 5792,
      "ĠBoston": 5793,
      "Ġspin": 5794,
      "asty": 5795,
      "urns": 5796,
      "Ġfeelings": 5797,
      "ĠCarol": 5798,
      "Ġprisoners": 5799,
      "Ġslightly": 5800,
      "vy": 5801,
      "chuckles": 5802,
      "ucle": 5803,
      "Ġfinancial": 5804,
      "Ġsilent": 5805,
      "Ġterrit": 5806,
      "Ġplanned": 5807,
      "Ġmedal": 5808,
      "Ġlessons": 5809,
      "Ġarrange": 5810,
      "ĠAcademy": 5811,
      "ĠVirgin": 5812,
      "Ġpsych": 5813,
      "etic": 5814,
      "ĠFC": 5815,
      "Ġpartner": 5816,
      "Ġpreviously": 5817,
      "ĠEdward": 5818,
      "nam": 5819,
      "Ġmud": 5820,
      "Ġgir": 5821,
      "utive": 5822,
      "Ġweird": 5823,
      "ĠMY": 5824,
      "Ġstaff": 5825,
      "Ġrushed": 5826,
      "emic": 5827,
      "Ġsuffe": 5828,
      "Ġscore": 5829,
      "ailed": 5830,
      "Ġcommunic": 5831,
      "Ġhurried": 5832,
      "Ġbarn": 5833,
      "aura": 5834,
      "Ġmultip": 5835,
      "melon": 5836,
      "don": 5837,
      "sighs": 5838,
      "tr": 5839,
      "Ġaverage": 5840,
      "Ġwore": 5841,
      "Ġfond": 5842,
      "Ġhabit": 5843,
      "Ġsake": 5844,
      "osen": 5845,
      "Ġmanager": 5846,
      "Ġstands": 5847,
      "ĠBarb": 5848,
      "Ġfields": 5849,
      "ĠAlexander": 5850,
      "Ġfrequently": 5851,
      "itar": 5852,
      "Ġfal": 5853,
      "ĠSpe": 5854,
      "ooge": 5855,
      "ĠWall": 5856,
      "ĠRy": 5857,
      "Ġpickle": 5858,
      "Ġpurcha": 5859,
      "ĠAustria": 5860,
      "Ġdetermined": 5861,
      "Ġremembered": 5862,
      "OUR": 5863,
      "SI": 5864,
      "Ġcups": 5865,
      "Ġgather": 5866,
      "ĠWin": 5867,
      "ĠWay": 5868,
      "ĠRon": 5869,
      "ĠFair": 5870,
      "Ġrice": 5871,
      "Ġriding": 5872,
      "Ġoranges": 5873,
      "Ġmatches": 5874,
      "ĠGerald": 5875,
      "Ġcollection": 5876,
      "ĠProfess": 5877,
      "Ġboss": 5878,
      "ĠWater": 5879,
      "bey": 5880,
      "ĠKeep": 5881,
      "ĠAngeles": 5882,
      "Ġdamage": 5883,
      "Ġtries": 5884,
      "Ġcards": 5885,
      "Ġpoll": 5886,
      "arah": 5887,
      "Ġloll": 5888,
      "ĠPolly": 5889,
      "istry": 5890,
      "Ġimpl": 5891,
      "ĠChild": 5892,
      "Ġrecent": 5893,
      "Ġevident": 5894,
      "Ġtransfer": 5895,
      "Ġdocument": 5896,
      "Ġroyal": 5897,
      "mark": 5898,
      "athered": 5899,
      "ications": 5900,
      "ĠBoth": 5901,
      "ĠBye": 5902,
      "Ġtroub": 5903,
      "Ġretired": 5904,
      "Ġpolic": 5905,
      "Ġglasses": 5906,
      "ĠWHAT": 5907,
      "Ġopposite": 5908,
      "Ġwond": 5909,
      "hal": 5910,
      "edom": 5911,
      "icide": 5912,
      "ada": 5913,
      "ĠHold": 5914,
      "Ġkm": 5915,
      "ctions": 5916,
      "Ġdeck": 5917,
      "Ġability": 5918,
      "Ġvent": 5919,
      "ĠStan": 5920,
      "Ġfailure": 5921,
      "ĠSomething": 5922,
      "ĠDemocratic": 5923,
      "?'": 5924,
      "lict": 5925,
      "Ġwrest": 5926,
      "quar": 5927,
      "Ġquality": 5928,
      "izes": 5929,
      "ĠSocial": 5930,
      "Ġdesire": 5931,
      "Ġrelated": 5932,
      "Ġpatients": 5933,
      "Ġholes": 5934,
      "da": 5935,
      "heart": 5936,
      "Ġwealth": 5937,
      "ado": 5938,
      "tery": 5939,
      "ĠPan": 5940,
      "ĠYear": 5941,
      "Ġshell": 5942,
      "Ġworst": 5943,
      "ippi": 5944,
      "Ġcopy": 5945,
      "Ġvoices": 5946,
      "bour": 5947,
      "hoe": 5948,
      "Ġbodies": 5949,
      "Ġdare": 5950,
      "Ġnorthern": 5951,
      "Ġdose": 5952,
      "ura": 5953,
      "ĠEach": 5954,
      "artment": 5955,
      "ĠJon": 5956,
      "Ġwatermelon": 5957,
      "Ġsurely": 5958,
      "Ġweekend": 5959,
      "Ġcomfortable": 5960,
      "This": 5961,
      "back": 5962,
      "Ġcrew": 5963,
      "ether": 5964,
      "ushes": 5965,
      "ĠHor": 5966,
      "Ġnotes": 5967,
      "ĠLu": 5968,
      "Ġupset": 5969,
      "Ġmyster": 5970,
      "Ġcreature": 5971,
      "Ġadvice": 5972,
      "Ġphysical": 5973,
      "Ġfence": 5974,
      "ĠHy": 5975,
      "Ġprepar": 5976,
      "Ġmarked": 5977,
      "Ġprotest": 5978,
      "arently": 5979,
      "Ġdreams": 5980,
      "Ġenjoyed": 5981,
      "Ġelectric": 5982,
      "iliar": 5983,
      "Ġdrugs": 5984,
      "Ġweapon": 5985,
      "ĠScrooge": 5986,
      "Ġteddy": 5987,
      "ication": 5988,
      "ĠMummy": 5989,
      "Ġtalks": 5990,
      "anches": 5991,
      "Ġsymb": 5992,
      "Ġsnake": 5993,
      "Ġwondering": 5994,
      "Ġcritic": 5995,
      "Ġpra": 5996,
      "ĠEv": 5997,
      "Ġamb": 5998,
      "otted": 5999,
      "Ġentertain": 6000,
      "ĠEarl": 6001,
      "Ġeventually": 6002,
      "Ġvirus": 6003,
      "All": 6004,
      "Come": 6005,
      "ĠTHIS": 6006,
      "amond": 6007,
      "ĠOff": 6008,
      "Ġpean": 6009,
      "Ġdesert": 6010,
      "Ġsigned": 6011,
      "Ġpotatoes": 6012,
      "ĠNext": 6013,
      "ĠBecky": 6014,
      "Ġsausage": 6015,
      "Ġlollip": 6016,
      "rat": 6017,
      "ĠIm": 6018,
      "Ġpears": 6019,
      "ĠWAS": 6020,
      "Ġrecomm": 6021,
      "Ġuseful": 6022,
      "Ġevil": 6023,
      "ĠFlorida": 6024,
      "VER": 6025,
      "Ġinha": 6026,
      "ĠFine": 6027,
      "ĠLo": 6028,
      "Ġjoke": 6029,
      "iece": 6030,
      "ĠHealth": 6031,
      "ĠMississ": 6032,
      "Ġrefused": 6033,
      "Ġdarkness": 6034,
      "Ġdrove": 6035,
      "ĠEverything": 6036,
      "ĠAgnes": 6037,
      "Ġhomes": 6038,
      "ĠShi": 6039,
      "ĠBru": 6040,
      "ĠBund": 6041,
      "ĠNick": 6042,
      "Ġsho": 6043,
      "ĠKore": 6044,
      "Ġcompos": 6045,
      "Ġresc": 6046,
      "anche": 6047,
      "Ġstaying": 6048,
      "Ġincident": 6049,
      "Ġcosts": 6050,
      "Ġprimary": 6051,
      "Ġmicro": 6052,
      "dam": 6053,
      "mar": 6054,
      "rison": 6055,
      "wo": 6056,
      "ena": 6057,
      "Ġgrie": 6058,
      "ĠCooper": 6059,
      "cho": 6060,
      "ĠJac": 6061,
      "ansas": 6062,
      "ucky": 6063,
      "Ġgrey": 6064,
      "Ġcolon": 6065,
      "Ġpositive": 6066,
      "Ġanti": 6067,
      "ĠWilliams": 6068,
      "Ġachieve": 6069,
      "ĠSay": 6070,
      "Ġrat": 6071,
      "Ġprove": 6072,
      "Ġwhenever": 6073,
      "Ġuseta": 6074,
      "Ġgoodness": 6075,
      "Ġafford": 6076,
      "Ġpregn": 6077,
      "Ġsmiled": 6078,
      "Ġuhoh": 6079,
      "Ġpreschool": 6080,
      "Ġdisappeared": 6081,
      "EP": 6082,
      "Ġtear": 6083,
      "Ġcad": 6084,
      "Ġyard": 6085,
      "Ġlake": 6086,
      "Ġlord": 6087,
      "ador": 6088,
      "rol": 6089,
      "ĠHA": 6090,
      "Ġmeasure": 6091,
      "uns": 6092,
      "ardon": 6093,
      "Ġchosen": 6094,
      "ounce": 6095,
      "Ġloves": 6096,
      "Ġprompt": 6097,
      "Ġactivity": 6098,
      "Ġescap": 6099,
      "Ġdescribed": 6100,
      "Ġelder": 6101,
      "Mark": 6102,
      "road": 6103,
      "ĠLaura": 6104,
      "Ġadvert": 6105,
      "Ġowner": 6106,
      "ĠAtl": 6107,
      "Ġrealize": 6108,
      "Ġdistinct": 6109,
      "ĠScar": 6110,
      "pronounced": 6111,
      "Ġwinning": 6112,
      "Ġexcitement": 6113,
      "gas": 6114,
      "Ġbub": 6115,
      "urt": 6116,
      "ĠEst": 6117,
      "icking": 6118,
      "Ġpoet": 6119,
      "Ġmixed": 6120,
      "Ġpalace": 6121,
      "Ġbones": 6122,
      "ĠMhm": 6123,
      "lying": 6124,
      "ulations": 6125,
      "Ġrank": 6126,
      "ques": 6127,
      "Ġresist": 6128,
      "Ġcris": 6129,
      "Ġmagaz": 6130,
      "ĠMissouri": 6131,
      "Ġmainly": 6132,
      "ĠActually": 6133,
      "Ġweapons": 6134,
      "Ġinnoc": 6135,
      "ĠMississippi": 6136,
      "PE": 6137,
      "rance": 6138,
      "Ġaunt": 6139,
      "Ġfier": 6140,
      "Ġgathered": 6141,
      "ĠMax": 6142,
      "ĠWow": 6143,
      "Ġwaves": 6144,
      "Ġsetting": 6145,
      "-r": 6146,
      "Not": 6147,
      "pass": 6148,
      "ugg": 6149,
      "oria": 6150,
      "ima": 6151,
      "ĠCall": 6152,
      "Ġdoors": 6153,
      "ulous": 6154,
      "oses": 6155,
      "Ġcommer": 6156,
      "Ġspect": 6157,
      "angle": 6158,
      "ĠMarie": 6159,
      "Ġhighly": 6160,
      "Ġconflict": 6161,
      "Ġmission": 6162,
      "Ġenvironmental": 6163,
      "MAL": 6164,
      "fall": 6165,
      "Ġtun": 6166,
      "Ġaid": 6167,
      "Ġgained": 6168,
      "ĠBay": 6169,
      "ĠOk": 6170,
      "ĠYoung": 6171,
      "Ġcloth": 6172,
      "Ġbranches": 6173,
      "Ġeverywhere": 6174,
      "Ġchoo": 6175,
      "Ġrealized": 6176,
      "AND": 6177,
      "Ġcats": 6178,
      "ĠJohnson": 6179,
      "Ġdolls": 6180,
      "Ġcomplex": 6181,
      "Ġhealthy": 6182,
      "Ġburning": 6183,
      "Ġefforts": 6184,
      "ĠIrish": 6185,
      "Ġsuffered": 6186,
      "cles": 6187,
      "Ġwedd": 6188,
      "Ġlosing": 6189,
      "Ġconcept": 6190,
      "Ġrecently": 6191,
      "Ġmajority": 6192,
      "Ġseparate": 6193,
      "Ġresources": 6194,
      "cake": 6195,
      "Ġbother": 6196,
      "Ġchat": 6197,
      "Ġshel": 6198,
      "ĠLI": 6199,
      "Ġshr": 6200,
      "ĠStar": 6201,
      "Ġmarry": 6202,
      "Ġdelay": 6203,
      "Ġgrandfather": 6204,
      "Ġcharacters": 6205,
      "Ġadditional": 6206,
      "aun": 6207,
      "tries": 6208,
      "iture": 6209,
      "ĠMaj": 6210,
      "Ġult": 6211,
      "Ġflu": 6212,
      "Ġsched": 6213,
      "Ġunderstood": 6214,
      "Ġrecall": 6215,
      "ĠAuntie": 6216,
      "ĠLabour": 6217,
      "Ġlibrary": 6218,
      "ev": 6219,
      "Ġbunny": 6220,
      "owing": 6221,
      "ĠBack": 6222,
      "ĠYet": 6223,
      "aki": 6224,
      "odes": 6225,
      "Ġblame": 6226,
      "avis": 6227,
      "Ġinvited": 6228,
      "Ġkingdom": 6229,
      "ĠMartin": 6230,
      "Ġsymptoms": 6231,
      "Ġlollipop": 6232,
      "sed": 6233,
      "Ġmaid": 6234,
      "Ġpale": 6235,
      "Ġfork": 6236,
      "see": 6237,
      "ulate": 6238,
      "icted": 6239,
      "Ġexpression": 6240,
      "Ġhearts": 6241,
      "Ġhumans": 6242,
      "Ġadvant": 6243,
      "Ġpattern": 6244,
      "-P": 6245,
      "there": 6246,
      "Ġox": 6247,
      "Ġgain": 6248,
      "ett": 6249,
      "ĠTre": 6250,
      "ĠTor": 6251,
      "Ġupper": 6252,
      "ĠBal": 6253,
      "chief": 6254,
      "ĠStep": 6255,
      "Ġfriendly": 6256,
      "pret": 6257,
      "Ġsink": 6258,
      "Ġaltern": 6259,
      "aging": 6260,
      "Ġgrace": 6261,
      "Ġshoulders": 6262,
      "Ġservant": 6263,
      "Ġsalad": 6264,
      "ĠHarry": 6265,
      "ĠAustralian": 6266,
      "Ġpossessed": 6267,
      "ĠMargaret": 6268,
      "yr": 6269,
      "zo": 6270,
      "ĠWork": 6271,
      "ĠHal": 6272,
      "ulting": 6273,
      "Ġconclud": 6274,
      "ĠInstitute": 6275,
      "ucking": 6276,
      "Ġoblig": 6277,
      "Ġkilling": 6278,
      "OME": 6279,
      "gl": 6280,
      "while": 6281,
      "ĠLater": 6282,
      "Ġneedta": 6283,
      "Ġacting": 6284,
      "Ġstandard": 6285,
      "Ġpotential": 6286,
      "Ġguns": 6287,
      "Ġhoping": 6288,
      "Ġmirror": 6289,
      "Ġextremely": 6290,
      "ĠHappy": 6291,
      "mn": 6292,
      "ĠSqu": 6293,
      "ĠBea": 6294,
      "Ġsports": 6295,
      "ĠKim": 6296,
      "Ġappointed": 6297,
      "Ġscrew": 6298,
      "Ġboats": 6299,
      "Ġsalami": 6300,
      "Ġauthority": 6301,
      "Ġremaining": 6302,
      "ĠPortug": 6303,
      "Ġensure": 6304,
      "Ġscarcely": 6305,
      "Ġwagon": 6306,
      "Ġphilos": 6307,
      "Ġmultiple": 6308,
      "overy": 6309,
      "Ġwine": 6310,
      "Ġselected": 6311,
      "ĠUK": 6312,
      "ĠAndrew": 6313,
      "Ġgoodbye": 6314,
      "Ġresident": 6315,
      "Ġcontain": 6316,
      "Ġmeters": 6317,
      "Ġstrike": 6318,
      "ĠTurk": 6319,
      "Ġrapidly": 6320,
      "-H": 6321,
      "Ġsilly": 6322,
      "Ġdun": 6323,
      "Ġpony": 6324,
      "Ġhiding": 6325,
      "ĠDiv": 6326,
      "Ġapolog": 6327,
      "Ġtechnology": 6328,
      "Ġsettlement": 6329,
      "Ġpil": 6330,
      "ashing": 6331,
      "ogether": 6332,
      "Ġchose": 6333,
      "Ġleague": 6334,
      "ugs": 6335,
      "Ġhandsome": 6336,
      "Ġillness": 6337,
      "Ġscientists": 6338,
      "Ġpit": 6339,
      "icate": 6340,
      "ĠSix": 6341,
      "uties": 6342,
      "ĠGirl": 6343,
      "Ġroles": 6344,
      "Ġdesk": 6345,
      "Ġends": 6346,
      "ĠRev": 6347,
      "Ġbrand": 6348,
      "ĠColumb": 6349,
      "Ġremarked": 6350,
      "ĠAustrian": 6351,
      "Ġcredit": 6352,
      "-le": 6353,
      "-morrow": 6354,
      "bled": 6355,
      "iest": 6356,
      "wers": 6357,
      "ĠAEW": 6358,
      "Ġreasons": 6359,
      "ĠLand": 6360,
      "Ġworkers": 6361,
      "ĠAsian": 6362,
      "Ġbelief": 6363,
      "Ġtowns": 6364,
      "Ġjobs": 6365,
      "Ġconduct": 6366,
      "Ġcookie": 6367,
      "Ġapproximately": 6368,
      "Ġfired": 6369,
      "ette": 6370,
      "Ġitems": 6371,
      "ĠSl": 6372,
      "ulty": 6373,
      "thur": 6374,
      "abor": 6375,
      "Ġsplend": 6376,
      "Ġuniversity": 6377,
      "ĠVan": 6378,
      "Ġbiggest": 6379,
      "Ġbreast": 6380,
      "Ġdrum": 6381,
      "Ġconsist": 6382,
      "Ġrecorded": 6383,
      "Ġsorts": 6384,
      "Ġadvance": 6385,
      "Ġgrowth": 6386,
      "coh": 6387,
      "put": 6388,
      "iner": 6389,
      "Ġwestern": 6390,
      "ĠTime": 6391,
      "amma": 6392,
      "ĠPre": 6393,
      "andy": 6394,
      "ancing": 6395,
      "Ġbreaking": 6396,
      "ĠGroup": 6397,
      "Ġfairly": 6398,
      "ĠResear": 6399,
      "Ġdestroyed": 6400,
      "car": 6401,
      "Ġtim": 6402,
      "heast": 6403,
      "Ġwra": 6404,
      "Ġmort": 6405,
      "ĠInt": 6406,
      "Ġpure": 6407,
      "Ġrefe": 6408,
      "ĠPict": 6409,
      "ĠRad": 6410,
      "ĠEll": 6411,
      "ague": 6412,
      "Ġshared": 6413,
      "Ġactions": 6414,
      "Ġunclear": 6415,
      "Ġplatform": 6416,
      "draw": 6417,
      "Ġwid": 6418,
      "Ġboo": 6419,
      "Ġpha": 6420,
      "Ġlem": 6421,
      "Ġaside": 6422,
      "ĠFre": 6423,
      "ĠUkra": 6424,
      "ĠThink": 6425,
      "Ġelev": 6426,
      "Ġconsum": 6427,
      "Ġsuggested": 6428,
      "Ġestablish": 6429,
      "gt": 6430,
      "ping": 6431,
      "Ġpor": 6432,
      "ĠNic": 6433,
      "ĠNice": 6434,
      "ĠGra": 6435,
      "Ġaband": 6436,
      "Ġcomment": 6437,
      "Ġraise": 6438,
      "Ġslide": 6439,
      "Ġproposed": 6440,
      "Ġapartment": 6441,
      "Ġbalance": 6442,
      "Ġtouched": 6443,
      "Ġalphabet": 6444,
      "-G": 6445,
      "ION": 6446,
      "sings": 6447,
      "Ġhidden": 6448,
      "ĠMavis": 6449,
      "stead": 6450,
      "ĠWent": 6451,
      "Ġvast": 6452,
      "ropol": 6453,
      "ĠShould": 6454,
      "Ġinfluence": 6455,
      "ĠSusan": 6456,
      "Ġcitiz": 6457,
      "-and": 6458,
      "uz": 6459,
      "Ġmap": 6460,
      "stone": 6461,
      "ĠLong": 6462,
      "this": 6463,
      "osis": 6464,
      "rene": 6465,
      "ivity": 6466,
      "Ġdesper": 6467,
      "they": 6468,
      "Ġballoon": 6469,
      "Ġcapable": 6470,
      "Ġcreatures": 6471,
      "ĠCharlie": 6472,
      "Ġequal": 6473,
      "Ġproducts": 6474,
      "ĠGovernor": 6475,
      "Ġcircumstances": 6476,
      "Ġtie": 6477,
      "Ġcensus": 6478,
      "ĠSO": 6479,
      "ĠKar": 6480,
      "Ġpoison": 6481,
      "Ġoldest": 6482,
      "Ġglobal": 6483,
      "Ġcondu": 6484,
      "Ġgrandmother": 6485,
      "ĠGeorg": 6486,
      "ĠEmperor": 6487,
      "Ġfortune": 6488,
      "Ġhasta": 6489,
      "Ġtournament": 6490,
      "-old": 6491,
      "SE": 6492,
      "Ġsorrow": 6493,
      "Ġfan": 6494,
      "ĠIll": 6495,
      "ani": 6496,
      "Ġinfect": 6497,
      "ĠMen": 6498,
      "ĠDire": 6499,
      "ĠLake": 6500,
      "ĠEs": 6501,
      "Ġthrone": 6502,
      "Ġchap": 6503,
      "Ġinstit": 6504,
      "Ġhorsie": 6505,
      "Ġoriginally": 6506,
      "Ġdefeated": 6507,
      "keep": 6508,
      "Ġsomehow": 6509,
      "Ġpeas": 6510,
      "Ġparties": 6511,
      "Ġamazing": 6512,
      "Ġchallen": 6513,
      "Ġactress": 6514,
      "Ġslipp": 6515,
      "engers": 6516,
      "Ġincreased": 6517,
      "ĠMerle": 6518,
      "Ġshooting": 6519,
      "Ġpillow": 6520,
      "-F": 6521,
      "gment": 6522,
      "uing": 6523,
      "Ġloose": 6524,
      "ĠMir": 6525,
      "elling": 6526,
      "Ġproved": 6527,
      "ĠIsn": 6528,
      "Ġtotally": 6529,
      "ooth": 6530,
      "rick": 6531,
      "Ġsouthern": 6532,
      "ĠSHE": 6533,
      "ĠCos": 6534,
      "ĠHea": 6535,
      "ĠBa": 6536,
      "ĠPo": 6537,
      "Ġhadta": 6538,
      "Ġrac": 6539,
      "Ġtroops": 6540,
      "ĠAtt": 6541,
      "ĠDepartment": 6542,
      "ufact": 6543,
      "ropriate": 6544,
      "Good": 6545,
      "lies": 6546,
      "Ġ/": 6547,
      "Ġcode": 6548,
      "ĠMiddle": 6549,
      "ĠPut": 6550,
      "lfriend": 6551,
      "Ġfeather": 6552,
      "Ġillustr": 6553,
      "Ġlabor": 6554,
      "Ġtaperecorder": 6555,
      "Ġscientific": 6556,
      "Ġcounter": 6557,
      "works": 6558,
      "Ġsought": 6559,
      "ĠFI": 6560,
      "ĠLast": 6561,
      "Ġburied": 6562,
      "Ġrooms": 6563,
      "encer": 6564,
      "Ġselling": 6565,
      "Sarah": 6566,
      "Ġdust": 6567,
      "Ġpump": 6568,
      "Ġpause": 6569,
      "apt": 6570,
      "ARD": 6571,
      "ĠVict": 6572,
      "ĠAlright": 6573,
      "ERS": 6574,
      "Ġrecording": 6575,
      "Ġexplained": 6576,
      "Ġdescri": 6577,
      "Ġarrested": 6578,
      "ua": 6579,
      "Ġpiano": 6580,
      "aria": 6581,
      "Ġnucle": 6582,
      "ĠRog": 6583,
      "Ġdiss": 6584,
      "Ġminor": 6585,
      "Ġrelief": 6586,
      "okes": 6587,
      "Ġcookies": 6588,
      "Ġbesides": 6589,
      "ĠIraq": 6590,
      "Ġborder": 6591,
      "atched": 6592,
      "ĠSE": 6593,
      "Ġsevere": 6594,
      "ĠGers": 6595,
      "Ġseek": 6596,
      "Ġchew": 6597,
      "Ġreplaced": 6598,
      "Ġincreasing": 6599,
      "Ġprofessor": 6600,
      "Ġcritical": 6601,
      "Ġwedding": 6602,
      "-I": 6603,
      "Ġsings": 6604,
      "Ġreign": 6605,
      "acle": 6606,
      "opher": 6607,
      "Ġclown": 6608,
      "Ġbranch": 6609,
      "Ġflood": 6610,
      "Ġreality": 6611,
      "Ġlistened": 6612,
      "Ġproduce": 6613,
      "ĠEveryone": 6614,
      "Ġpainting": 6615,
      "ĠCastle": 6616,
      "ĠProvince": 6617,
      "Ġbunch": 6618,
      "ann": 6619,
      "Ġwebs": 6620,
      "urb": 6621,
      "Ġplus": 6622,
      "Ġchain": 6623,
      "Ġapples": 6624,
      "Ġcooking": 6625,
      "Ġmispronounced": 6626,
      "Ġdivided": 6627,
      "Ġactivities": 6628,
      "ĠAmericans": 6629,
      "erves": 6630,
      "ams": 6631,
      "ĠBes": 6632,
      "urance": 6633,
      "Ġscreen": 6634,
      "ĠArch": 6635,
      "clears": 6636,
      "Ġmanagement": 6637,
      "ĠRodger": 6638,
      "Mother": 6639,
      "Ġbicycle": 6640,
      "ĠSong": 6641,
      "ĠCher": 6642,
      "Ġupside": 6643,
      "tt": 6644,
      "Ġsons": 6645,
      "Ġpile": 6646,
      "lection": 6647,
      "Ġsheep": 6648,
      "gel": 6649,
      "Ġvalley": 6650,
      "Ġfamiliar": 6651,
      "Ġpenny": 6652,
      "Ġculture": 6653,
      "last": 6654,
      "tape": 6655,
      "oni": 6656,
      "Ġpity": 6657,
      "ĠWild": 6658,
      "Ġrug": 6659,
      "Ġmanufact": 6660,
      "Ġotherwise": 6661,
      "Ġcray": 6662,
      "ĠJohnny": 6663,
      "Ġengaged": 6664,
      "Ġaccompan": 6665,
      "-to": 6666,
      ".C": 6667,
      "Ġsin": 6668,
      "ĠOl": 6669,
      "Ġplayers": 6670,
      "Ġrare": 6671,
      "aws": 6672,
      "Ġcupcake": 6673,
      "ITH": 6674,
      "Ġcompanion": 6675,
      "Ġlocked": 6676,
      "ĠMickey": 6677,
      "Ġodd": 6678,
      "eding": 6679,
      "Ġlone": 6680,
      "ĠSub": 6681,
      "ĠHad": 6682,
      "Ġkidding": 6683,
      "eable": 6684,
      "ĠNOT": 6685,
      "icket": 6686,
      "Ġpride": 6687,
      "Ġfourteen": 6688,
      "Ġcutting": 6689,
      "Ġdelicious": 6690,
      "Ġmerc": 6691,
      "Ġdefinitely": 6692,
      "Ġdiscussion": 6693,
      "Ġcottage": 6694,
      "Ġsouthwestern": 6695,
      "ĠToday": 6696,
      "ano": 6697,
      "Ġeh": 6698,
      "ĠSIS": 6699,
      "Ġren": 6700,
      "olar": 6701,
      "Ġcrash": 6702,
      "ontin": 6703,
      "Ġawarded": 6704,
      "owder": 6705,
      "acher": 6706,
      "Ġwhining": 6707,
      "Ġmechan": 6708,
      "pton": 6709,
      "Ġpersu": 6710,
      "ĠUpon": 6711,
      "-th": 6712,
      "ios": 6713,
      "Ġlung": 6714,
      "omy": 6715,
      "acha": 6716,
      "ĠBad": 6717,
      "ĠBull": 6718,
      "umes": 6719,
      "Ġalcoh": 6720,
      "Ġremove": 6721,
      "Ġfinds": 6722,
      "Ġproperly": 6723,
      "ĠRecords": 6724,
      "Ġtender": 6725,
      "ties": 6726,
      "Ġpipe": 6727,
      "stant": 6728,
      "ĠHill": 6729,
      "Ġdozen": 6730,
      "ilty": 6731,
      "usted": 6732,
      "ĠEaster": 6733,
      "Ġcovers": 6734,
      "ĠArthur": 6735,
      "ĠProt": 6736,
      "Ġexciting": 6737,
      "Ġtransl": 6738,
      "Ġformula": 6739,
      "Ġcompleted": 6740,
      "Ġmiser": 6741,
      "Ġdetermine": 6742,
      "FF": 6743,
      "case": 6744,
      "phe": 6745,
      "Ġdump": 6746,
      "Ġheight": 6747,
      "Ġseats": 6748,
      "unts": 6749,
      "Ġjew": 6750,
      "ooking": 6751,
      "essert": 6752,
      "Ġconcl": 6753,
      "Ġseriously": 6754,
      "Ġglance": 6755,
      "Ġminister": 6756,
      "Ġpicking": 6757,
      "ointment": 6758,
      "Ġadmit": 6759,
      "Ġinitial": 6760,
      "Ġsuffering": 6761,
      "Ġexercise": 6762,
      "\"?": 6763,
      "-huh": 6764,
      "Tilda": 6765,
      "ds": 6766,
      "goes": 6767,
      "Ġthorough": 6768,
      "ĠSuch": 6769,
      "andra": 6770,
      "umn": 6771,
      "Ġdese": 6772,
      "Ġprize": 6773,
      "Ġannoy": 6774,
      "Ġpainted": 6775,
      "wide": 6776,
      "Ġdessert": 6777,
      "Ġnomin": 6778,
      "ĠAri": 6779,
      "sters": 6780,
      "ulk": 6781,
      "ulated": 6782,
      "Ġplates": 6783,
      "Ġclay": 6784,
      "Ġprote": 6785,
      "ĠTrump": 6786,
      "Ġchecked": 6787,
      "Ġsafely": 6788,
      "Ġassistant": 6789,
      "Ġnetwork": 6790,
      "Ġcone": 6791,
      "Ġunit": 6792,
      "Ġinstr": 6793,
      "Ġfairy": 6794,
      "Ġtemperature": 6795,
      "whispers": 6796,
      "Ã¦": 6797,
      "inn": 6798,
      "Ġbon": 6799,
      "Ġlic": 6800,
      "Ġbears": 6801,
      "ĠAng": 6802,
      "Ġguitar": 6803,
      "Ġcarbon": 6804,
      "Ġdesp": 6805,
      "Ġbitter": 6806,
      "Ġteachers": 6807,
      "Ġprotection": 6808,
      "Ġhunting": 6809,
      "Ġintroduced": 6810,
      "Nina": 6811,
      "Ġrent": 6812,
      "ĠHaw": 6813,
      "Ġgoals": 6814,
      "ĠRa": 6815,
      "Ġimage": 6816,
      "Ġattached": 6817,
      "Ġearned": 6818,
      "bridge": 6819,
      "Ġpolitics": 6820,
      "Ġsales": 6821,
      "Ġstepped": 6822,
      "Ġdetails": 6823,
      "ĠSenate": 6824,
      "ĠProfessor": 6825,
      "Ġcrisis": 6826,
      "ILL": 6827,
      "ias": 6828,
      "zing": 6829,
      "ĠMaine": 6830,
      "Ġproof": 6831,
      "Ġshame": 6832,
      "Ġtransform": 6833,
      "Ġfreedom": 6834,
      "Ġattempted": 6835,
      "Ġknocked": 6836,
      "Ġrubber": 6837,
      "Ġnewspaper": 6838,
      "die": 6839,
      "Ġfaint": 6840,
      "ingly": 6841,
      "Ġyo": 6842,
      "ĠAk": 6843,
      "Ġshook": 6844,
      "angar": 6845,
      "Ġeaten": 6846,
      "ĠArgent": 6847,
      "Ġanswers": 6848,
      "Ġprovides": 6849,
      "Ġpaying": 6850,
      "Ġexperiment": 6851,
      "ĠHungry": 6852,
      "rot": 6853,
      "uous": 6854,
      "Ġsang": 6855,
      "Ġded": 6856,
      "ĠLy": 6857,
      "Ġsymp": 6858,
      "Ġevolution": 6859,
      "Ġtreasure": 6860,
      "Ġclosely": 6861,
      "whining": 6862,
      "ĠSwiss": 6863,
      "Ġbelongs": 6864,
      "Ġstatement": 6865,
      "Ġburned": 6866,
      "Ġagreement": 6867,
      "iraffe": 6868,
      "Ġcereal": 6869,
      "Ġgirlfriend": 6870,
      "nels": 6871,
      "war": 6872,
      "Ġbold": 6873,
      "Ġnuh": 6874,
      "Ġbeans": 6875,
      "ĠNik": 6876,
      "ĠFound": 6877,
      "Ġresolved": 6878,
      "Ġexpand": 6879,
      "Ġinspect": 6880,
      "Ġpulling": 6881,
      "iverse": 6882,
      "Ġaccepted": 6883,
      "Ġlimited": 6884,
      "ĠHaving": 6885,
      "Ġcowboy": 6886,
      "looks": 6887,
      "mouth": 6888,
      "ĠSouthern": 6889,
      "Ġanger": 6890,
      "Ġspark": 6891,
      "Ġcompared": 6892,
      "Ġchampion": 6893,
      "Ġcho": 6894,
      "Ġpresently": 6895,
      "thel": 6896,
      "Ġmunicipal": 6897,
      "Ġconnected": 6898,
      "Ġholiday": 6899,
      "utenant": 6900,
      "book": 6901,
      "lled": 6902,
      "uls": 6903,
      "Ġquant": 6904,
      "ggy": 6905,
      "Ġattended": 6906,
      "Ġexpensive": 6907,
      "Ġhundreds": 6908,
      "ĠIndians": 6909,
      "Ġpresented": 6910,
      "Ġattacked": 6911,
      "porary": 6912,
      "ĠDisney": 6913,
      "Ġhorn": 6914,
      "ĠHuh": 6915,
      "Ġ--": 6916,
      "ĠGal": 6917,
      "Ġsav": 6918,
      "Ġunfortun": 6919,
      "Ġthrown": 6920,
      "Ġnearby": 6921,
      "Ġrestaur": 6922,
      "Ġarticle": 6923,
      "Ġrecords": 6924,
      "bbed": 6925,
      "Ġaccompl": 6926,
      "Ġslept": 6927,
      "ĠVirginia": 6928,
      "Ġsplendid": 6929,
      "-like": 6930,
      "cing": 6931,
      "lings": 6932,
      "Ġfishing": 6933,
      "ĠAlf": 6934,
      "ĠMake": 6935,
      "ĠRE": 6936,
      "ĠFoot": 6937,
      "ĠThough": 6938,
      "Ġsmiling": 6939,
      "Ġcrimin": 6940,
      "ĠAnne": 6941,
      "Ġpriest": 6942,
      "ĠBlue": 6943,
      "Ġdiagn": 6944,
      "Ġprograms": 6945,
      "Ġsnap": 6946,
      "ĠJewish": 6947,
      "Ġexchange": 6948,
      "Ġfalse": 6949,
      "-se": 6950,
      "RA": 6951,
      "friend": 6952,
      "some": 6953,
      "ĠMusic": 6954,
      "Ġspare": 6955,
      "ateful": 6956,
      "izza": 6957,
      "Ġstranger": 6958,
      "Ġdriven": 6959,
      "ĠDidn": 6960,
      "Ġreports": 6961,
      "Ġpupp": 6962,
      "Ġtemple": 6963,
      "Ġdivor": 6964,
      "Ġrecognize": 6965,
      "ĠThrough": 6966,
      "'la": 6967,
      "walk": 6968,
      "hamed": 6969,
      "Ġfile": 6970,
      "Ġwhoops": 6971,
      "ĠRO": 6972,
      "ĠLar": 6973,
      "ĠEthel": 6974,
      "Ġconference": 6975,
      "ĠKen": 6976,
      "Ġunique": 6977,
      "Ġgreatly": 6978,
      "Ġmoments": 6979,
      "Ġbegun": 6980,
      "Ġinstant": 6981,
      "Ġsubsequently": 6982,
      "Ġcreating": 6983,
      "Ġdeeply": 6984,
      "Ġlabel": 6985,
      "ĠTommy": 6986,
      "stitution": 6987,
      "Ġarranged": 6988,
      "ĠBruce": 6989,
      "-D": 6990,
      "IA": 6991,
      "Ġx": 6992,
      "Ġnib": 6993,
      "ĠSk": 6994,
      "Ġrear": 6995,
      "rier": 6996,
      "ĠBi": 6997,
      "ĠNana": 6998,
      "ĠOoh": 6999,
      "Ġmighty": 7000,
      "Ġskills": 7001,
      "Ġaircraft": 7002,
      "ĠEduc": 7003,
      "Ġeastern": 7004,
      "Ġprogramme": 7005,
      "Ġdefeat": 7006,
      "Ġiniti": 7007,
      "Ġarchite": 7008,
      "ĠRemember": 7009,
      "'am": 7010,
      "-ha": 7011,
      "ĠJun": 7012,
      "Ġunlike": 7013,
      "Ġguilty": 7014,
      "onsense": 7015,
      "encing": 7016,
      "Ġwarning": 7017,
      "Ġdistingu": 7018,
      "Ġchart": 7019,
      "Ġlands": 7020,
      "Ġconcert": 7021,
      "Ġkissed": 7022,
      "Ġsuffer": 7023,
      "ĠJews": 7024,
      "archers": 7025,
      "Ġbeer": 7026,
      "geon": 7027,
      "ĠEastern": 7028,
      "Ġrush": 7029,
      "Ġvia": 7030,
      "Ġwrit": 7031,
      "Ġhappiness": 7032,
      "Ġarrival": 7033,
      "Ġoperation": 7034,
      "Ġphotograph": 7035,
      "Ġwaters": 7036,
      "Ġindustrial": 7037,
      ",you": 7038,
      "UCK": 7039,
      "bor": 7040,
      "gues": 7041,
      "gency": 7042,
      "Ġdough": 7043,
      "Ġhes": 7044,
      "ĠAwards": 7045,
      "Ġstove": 7046,
      "urd": 7047,
      "Ġsees": 7048,
      "ĠWhatever": 7049,
      "gging": 7050,
      "Ġcriter": 7051,
      "-bye": 7052,
      "apping": 7053,
      "Ġcrossed": 7054,
      "Ġpackage": 7055,
      "Ġdelighted": 7056,
      "Ġoccupied": 7057,
      "Ġappreciate": 7058,
      "Ġfer": 7059,
      "Ġmere": 7060,
      "ĠGames": 7061,
      "Ġconsequ": 7062,
      "Ġexha": 7063,
      "ĠStand": 7064,
      "ĠNobody": 7065,
      "Ġguests": 7066,
      "Ġinstance": 7067,
      "Ġsigns": 7068,
      "Ġinterrupt": 7069,
      "Ġprovince": 7070,
      "Ġmarks": 7071,
      "ĠShar": 7072,
      "Ġresearchers": 7073,
      "ĠINV": 7074,
      "Ġeconomic": 7075,
      "ĠBattle": 7076,
      "fle": 7077,
      "Ġsust": 7078,
      "Ġsigh": 7079,
      "Ġfart": 7080,
      "Ġgay": 7081,
      "ĠAT": 7082,
      "ĠJung": 7083,
      "hank": 7084,
      "Ġcheeks": 7085,
      "Ġdrama": 7086,
      "Ġbadly": 7087,
      "ĠClub": 7088,
      "ĠPolice": 7089,
      "Ġbuddy": 7090,
      "stein": 7091,
      "Ġjacket": 7092,
      "-R": 7093,
      "Let": 7094,
      "{\\": 7095,
      "Ġtied": 7096,
      "Ġbang": 7097,
      "Ġnail": 7098,
      "Ġthrill": 7099,
      "ĠBilly": 7100,
      "ĠFive": 7101,
      "Ġquit": 7102,
      "Ġshake": 7103,
      "Ġcoal": 7104,
      "Ġsurgery": 7105,
      "Ġhousing": 7106,
      "looking": 7107,
      "ĠPrincess": 7108,
      "angaroo": 7109,
      "WE": 7110,
      "nan": 7111,
      "Ġpup": 7112,
      "Ġpants": 7113,
      "Ġbend": 7114,
      "Ġbeast": 7115,
      "Ġstones": 7116,
      "amily": 7117,
      "Ġjoint": 7118,
      "uled": 7119,
      "Ġsciss": 7120,
      "Ġsupply": 7121,
      "Ġdecor": 7122,
      "Ġairport": 7123,
      "umbling": 7124,
      "Ġilleg": 7125,
      "Ġapproached": 7126,
      "Ġsupported": 7127,
      "Ġfleet": 7128,
      "Ġlifted": 7129,
      "Ġchampionship": 7130,
      "Ġpeanut": 7131,
      "ĠWentworth": 7132,
      "TH": 7133,
      "Where": 7134,
      "upp": 7135,
      "Ġaston": 7136,
      "Ġcro": 7137,
      "Ġfederal": 7138,
      "ora": 7139,
      "Ġpant": 7140,
      "ĠTem": 7141,
      "Ġstack": 7142,
      "ĠBac": 7143,
      "Ġlif": 7144,
      "Ġsport": 7145,
      "ĠKN": 7146,
      "Ġappeal": 7147,
      "Ġsits": 7148,
      "Ġadvanced": 7149,
      "umbled": 7150,
      "Ġforgive": 7151,
      "Ġequip": 7152,
      "Ġshouted": 7153,
      "Ġadvantage": 7154,
      "Ġaccompanied": 7155,
      "Ġtough": 7156,
      "isl": 7157,
      "Ġtox": 7158,
      "esh": 7159,
      "Ġlob": 7160,
      "omer": 7161,
      "imp": 7162,
      "ĠJones": 7163,
      "Ġeats": 7164,
      "Ġwave": 7165,
      "iversal": 7166,
      "Ġconfess": 7167,
      "Ġgovernor": 7168,
      "ÃŃt": 7169,
      "ĠConsequently": 7170,
      "Ġprinci": 7171,
      "Ġrepresented": 7172,
      "ĠIslamic": 7173,
      "Ġfurniture": 7174,
      "Ġlonely": 7175,
      "-a": 7176,
      "rane": 7177,
      "water": 7178,
      "ĠALL": 7179,
      "stra": 7180,
      "ĠPac": 7181,
      "ĠNations": 7182,
      "eps": 7183,
      "Ġbrush": 7184,
      "Ġchase": 7185,
      "adder": 7186,
      "Ġboot": 7187,
      "ĠAlso": 7188,
      "Ġreturning": 7189,
      "ĠSomeone": 7190,
      "ĠTeam": 7191,
      "ynam": 7192,
      "ĠBelg": 7193,
      "Ġbillion": 7194,
      "Ġdistributed": 7195,
      "Ġinnocent": 7196,
      "cest": 7197,
      "isa": 7198,
      "orge": 7199,
      "Ġgiraffe": 7200,
      "icip": 7201,
      "icago": 7202,
      "ĠBud": 7203,
      "rain": 7204,
      "ĠNav": 7205,
      "Ġjustice": 7206,
      "ĠUE": 7207,
      "Ġserves": 7208,
      "Ġswall": 7209,
      "ronic": 7210,
      "ĠVermont": 7211,
      "Ġdeliver": 7212,
      "Ġstruggle": 7213,
      "ĠHAVE": 7214,
      "egr": 7215,
      "rown": 7216,
      "Ġtale": 7217,
      "ĠSwe": 7218,
      "ĠFree": 7219,
      "ells": 7220,
      "abb": 7221,
      "Ġunus": 7222,
      "Ġbug": 7223,
      "Ġwarri": 7224,
      "ublican": 7225,
      "Ġbroadcast": 7226,
      "Ġacquaint": 7227,
      "ĠCareer": 7228,
      "cries": 7229,
      "Ġbrill": 7230,
      "Ġcert": 7231,
      "Ġdom": 7232,
      "ĠHoney": 7233,
      "emies": 7234,
      "ĠVen": 7235,
      "ĠBrother": 7236,
      "Ġswift": 7237,
      "Ġclever": 7238,
      "Ġdistant": 7239,
      "ĠTele": 7240,
      "ylvan": 7241,
      "Ġforests": 7242,
      "Ġcaptured": 7243,
      "Ġneighborhood": 7244,
      "rate": 7245,
      "ture": 7246,
      "Ġdim": 7247,
      "ĠPower": 7248,
      "elia": 7249,
      "Ġagent": 7250,
      "Ġfeature": 7251,
      "ĠâĢĻ": 7252,
      "Ġgray": 7253,
      "Ġkeys": 7254,
      "Ġboom": 7255,
      "ĠAsh": 7256,
      "Ġswear": 7257,
      "Ġroads": 7258,
      "Ġpropos": 7259,
      "Ġclaimed": 7260,
      "Ġconnection": 7261,
      "Ġsources": 7262,
      "ĠRamsey": 7263,
      "Ġinvestigation": 7264,
      "sembly": 7265,
      "Ġdoctors": 7266,
      "Ġetc": 7267,
      "'...": 7268,
      "Ġtrop": 7269,
      "orter": 7270,
      "icing": 7271,
      "rose": 7272,
      "ĠWITH": 7273,
      "ĠBang": 7274,
      "unning": 7275,
      "ĠLie": 7276,
      "...?": 7277,
      "Ġcontains": 7278,
      "Ġtrained": 7279,
      "Ġvictims": 7280,
      "Ġauthorities": 7281,
      "ĠMeliss": 7282,
      "Ġvegetables": 7283,
      "ĠMajesty": 7284,
      "Ġsympat": 7285,
      "gly": 7286,
      "vior": 7287,
      "had": 7288,
      "Ġtom": 7289,
      "Ġonline": 7290,
      "ĠSil": 7291,
      "ĠWel": 7292,
      "ĠPra": 7293,
      "gend": 7294,
      "Ġracing": 7295,
      "ivered": 7296,
      "berry": 7297,
      "Ġintense": 7298,
      "Ġregions": 7299,
      "Ġrequires": 7300,
      "Ġautom": 7301,
      "ĠRoad": 7302,
      "Ġbenefit": 7303,
      "Ġalcohol": 7304,
      "Ġ:": 7305,
      "Ġmuseum": 7306,
      "Ġpond": 7307,
      "Ġreaching": 7308,
      "ĠCorn": 7309,
      "ĠDown": 7310,
      "Ġsoil": 7311,
      "ANG": 7312,
      "ĠShow": 7313,
      "ĠCommittee": 7314,
      "Ġhyp": 7315,
      "Ġscratch": 7316,
      "Ġlatter": 7317,
      "KE": 7318,
      "LA": 7319,
      "Who": 7320,
      "Ġreward": 7321,
      "iry": 7322,
      "ĠHem": 7323,
      "Ġkick": 7324,
      "Ġvain": 7325,
      "ĠKansas": 7326,
      "Ġbron": 7327,
      "Ġrelative": 7328,
      "Ġunderstanding": 7329,
      "Ġcloset": 7330,
      "Ġnegative": 7331,
      "Ġstroke": 7332,
      "hus": 7333,
      "ĠTower": 7334,
      "ĠBook": 7335,
      "Ġvision": 7336,
      "Ġaffection": 7337,
      "Ġguest": 7338,
      "âĢĻm": 7339,
      "Ġtravell": 7340,
      "ĠFran": 7341,
      "Ġartists": 7342,
      "Ġsquee": 7343,
      "Ġmillions": 7344,
      "ĠLeon": 7345,
      "Ġencoura": 7346,
      "Ġhyd": 7347,
      "Ġexistence": 7348,
      "hetic": 7349,
      "Ġaffair": 7350,
      "Ġmagazine": 7351,
      "HER": 7352,
      "esome": 7353,
      "Ġgently": 7354,
      "ĠShan": 7355,
      "Ġreact": 7356,
      "Ġseated": 7357,
      "ĠFur": 7358,
      "ĠKnow": 7359,
      "Ġmob": 7360,
      "ĠTherefore": 7361,
      "Ġregret": 7362,
      "Ġlanded": 7363,
      "Ġconfidence": 7364,
      "ĠJerry": 7365,
      "iot": 7366,
      "mans": 7367,
      "yo": 7368,
      "Ġbid": 7369,
      "lement": 7370,
      "Ġreck": 7371,
      "Ġpassengers": 7372,
      "Ġbaseball": 7373,
      "Ġawake": 7374,
      "Ġconfir": 7375,
      "Ġordinary": 7376,
      "ĠAgain": 7377,
      "Ġruled": 7378,
      "Ġsymbol": 7379,
      "Ġpregnant": 7380,
      "Whin": 7381,
      "name": 7382,
      "shire": 7383,
      "Ġtire": 7384,
      "Ġtip": 7385,
      "Ġwing": 7386,
      "Ġsam": 7387,
      "isher": 7388,
      "Ġgal": 7389,
      "Ġhills": 7390,
      "Ġash": 7391,
      "venue": 7392,
      "ception": 7393,
      "Ġincred": 7394,
      "Ġtribe": 7395,
      "ĠPhilip": 7396,
      "Ġarrive": 7397,
      "Ġattacks": 7398,
      "Ġfellows": 7399,
      "Ġnuhhuh": 7400,
      "Ġequipment": 7401,
      "tles": 7402,
      "Ġeth": 7403,
      "Ġduties": 7404,
      "ĠTam": 7405,
      "sect": 7406,
      "ĠBon": 7407,
      "Ġknee": 7408,
      "ĠForm": 7409,
      "Ġallows": 7410,
      "Ġjury": 7411,
      "Ġconvin": 7412,
      "Ġspo": 7413,
      "ĠStone": 7414,
      "ocated": 7415,
      "ĠChicago": 7416,
      "ĠAlice": 7417,
      "Ġgreet": 7418,
      "Ġincome": 7419,
      "UNC": 7420,
      "Ġestim": 7421,
      "ĠPhilipp": 7422,
      "Ġregarded": 7423,
      "Ġmusical": 7424,
      "Ġreferred": 7425,
      "Ġwounded": 7426,
      "-k": 7427,
      "PS": 7428,
      "Ġwicked": 7429,
      "ĠBam": 7430,
      "ĠBern": 7431,
      "Ġknees": 7432,
      "Ġrope": 7433,
      "inson": 7434,
      "ĠArmen": 7435,
      "Ġinstruct": 7436,
      "eaking": 7437,
      "which": 7438,
      "Ġcorpor": 7439,
      "playing": 7440,
      "Ġviolence": 7441,
      "Ġscissors": 7442,
      "-V": 7443,
      "ghan": 7444,
      "rels": 7445,
      "Ġpizza": 7446,
      "Ġnick": 7447,
      "ĠHas": 7448,
      "ĠYOUR": 7449,
      "ender": 7450,
      "ĠâĢĶ": 7451,
      "Ġamaz": 7452,
      "ibly": 7453,
      "Ġhorrible": 7454,
      "Ġlesson": 7455,
      "Ġprisoner": 7456,
      "Ġrevolution": 7457,
      "ĠBertha": 7458,
      "ĠWindows": 7459,
      "ĠFrancisco": 7460,
      "olarship": 7461,
      "ĠService": 7462,
      "ĠUEFA": 7463,
      "oa": 7464,
      "Ġfant": 7465,
      "ĠSC": 7466,
      "ĠSH": 7467,
      "ĠAmy": 7468,
      "lyn": 7469,
      "ĠWatch": 7470,
      "Ġkil": 7471,
      "ifts": 7472,
      "ĠKong": 7473,
      "Ġsmooth": 7474,
      "Ġelement": 7475,
      "Ġpassage": 7476,
      "Ġboxes": 7477,
      "-five": 7478,
      "Ġvolume": 7479,
      "Ġbasic": 7480,
      "Ġrevealed": 7481,
      "Ġdreadful": 7482,
      "ĠOpen": 7483,
      "Ġassociated": 7484,
      "-W": 7485,
      "magn": 7486,
      "enes": 7487,
      "Ġsem": 7488,
      "ĠPenn": 7489,
      "oli": 7490,
      "Ġclient": 7491,
      "Ġcliff": 7492,
      "ĠInter": 7493,
      "Ġbrings": 7494,
      "Ġera": 7495,
      "Ġcommitted": 7496,
      "vention": 7497,
      "Ġsignal": 7498,
      "Ġestate": 7499,
      "Ġsending": 7500,
      "Ġdrops": 7501,
      "Ġcraw": 7502,
      "ĠHuman": 7503,
      "Ġlaunch": 7504,
      "ĠAnyway": 7505,
      "Ġsplit": 7506,
      "Ġnuclear": 7507,
      "ylvania": 7508,
      "Whinney": 7509,
      "Of": 7510,
      "nut": 7511,
      "Ġwis": 7512,
      "referent": 7513,
      "Ġtools": 7514,
      "ĠIII": 7515,
      "ĠSue": 7516,
      "Ġkangaroo": 7517,
      "resp": 7518,
      "Ġspite": 7519,
      "Ġspending": 7520,
      "Ġworn": 7521,
      "Ġgotten": 7522,
      "Ġunknown": 7523,
      "iley": 7524,
      "Ġours": 7525,
      "Ġconsult": 7526,
      "Ġreduce": 7527,
      "Ġhurts": 7528,
      "Ġtrem": 7529,
      "noise": 7530,
      "Ġmagnetic": 7531,
      "Ġsolid": 7532,
      "!âĢĻ": 7533,
      "An": 7534,
      "iar": 7535,
      "Ġfaced": 7536,
      "esc": 7537,
      "Ġhipp": 7538,
      "lets": 7539,
      "imum": 7540,
      "ĠMove": 7541,
      "ĠBav": 7542,
      "Ġwhist": 7543,
      "Ġalarm": 7544,
      "resents": 7545,
      "ĠVol": 7546,
      "Ġhanded": 7547,
      "Ġelements": 7548,
      "Ġcharts": 7549,
      "ĠZe": 7550,
      "Ġtremb": 7551,
      "Ġsteel": 7552,
      "Ġhonour": 7553,
      "Ġcraft": 7554,
      "Ġdevice": 7555,
      "ĠCenter": 7556,
      "Ġmaterials": 7557,
      "ĠRevolution": 7558,
      "long": 7559,
      "Ġ{\\": 7560,
      "Ġtempt": 7561,
      "Ġcash": 7562,
      "Ġpanc": 7563,
      "ĠTurn": 7564,
      "Ġwashed": 7565,
      "Ġwashers": 7566,
      "ĠHong": 7567,
      "ĠDet": 7568,
      "Ġvit": 7569,
      "ĠUs": 7570,
      "Ġprem": 7571,
      "Ġteen": 7572,
      "Ġslipped": 7573,
      "Ġrepresents": 7574,
      "Ġdollar": 7575,
      "Ġhorror": 7576,
      "Ġallowing": 7577,
      "Ġlaun": 7578,
      "-off": 7579,
      "bu": 7580,
      "hell": 7581,
      "Ġdull": 7582,
      "Ġfate": 7583,
      "Ġyum": 7584,
      "orious": 7585,
      "Ġliqu": 7586,
      "Ġenemies": 7587,
      "Ġframe": 7588,
      "ESS": 7589,
      "Ġfactory": 7590,
      "Ġimportance": 7591,
      "ALL": 7592,
      "ĠJersey": 7593,
      "Ġchallenge": 7594,
      "Be": 7595,
      "och": 7596,
      "Ġborrow": 7597,
      "ented": 7598,
      "oos": 7599,
      "ĠBren": 7600,
      "ĠBible": 7601,
      "Ġdece": 7602,
      "Ġentrance": 7603,
      "Ġdiamond": 7604,
      "ĠDanny": 7605,
      "break": 7606,
      "writer": 7607,
      "Ġsucceeded": 7608,
      "ĠRomans": 7609,
      ")}": 7610,
      "RY": 7611,
      "ko": 7612,
      "wa": 7613,
      "happy": 7614,
      "Ġwashing": 7615,
      "....": 7616,
      "Ġseized": 7617,
      "intend": 7618,
      "Ġfever": 7619,
      "Ġcommittee": 7620,
      "Ġvisible": 7621,
      "ĠSecurity": 7622,
      "Ġspirits": 7623,
      "-house": 7624,
      "Ġresponsibility": 7625,
      "ĠSteve": 7626,
      "Ġmurdered": 7627,
      "Ġtypically": 7628,
      "ĠSweden": 7629,
      "Ġescaped": 7630,
      "Ġdunno": 7631,
      "ropolitan": 7632,
      "Ġhal": 7633,
      "ĠSa": 7634,
      "riger": 7635,
      "ores": 7636,
      "ĠOw": 7637,
      "ĠJam": 7638,
      "Ġgettin": 7639,
      "Ġprecious": 7640,
      "ĠAsia": 7641,
      "Ġrelax": 7642,
      "Ġreturns": 7643,
      "Ġsooner": 7644,
      "ervative": 7645,
      "Ġstores": 7646,
      "Ġscale": 7647,
      "Ġpressed": 7648,
      "Ġrolling": 7649,
      "ĠMaggie": 7650,
      "ĠJacob": 7651,
      "ĠEducation": 7652,
      "Here": 7653,
      "Ġmal": 7654,
      "Ġstole": 7655,
      "ĠWrest": 7656,
      "ĠBour": 7657,
      "ĠGard": 7658,
      "ela": 7659,
      "Ġclip": 7660,
      "merican": 7661,
      "Ġflow": 7662,
      "Ġactual": 7663,
      "âĢĻre": 7664,
      "Ġdrunk": 7665,
      "lessly": 7666,
      "Ġoccas": 7667,
      "Ġservants": 7668,
      "-pitched": 7669,
      "Ġcommonly": 7670,
      "Ġtorn": 7671,
      "Ġaffected": 7672,
      "Ġproducer": 7673,
      "Ġwondered": 7674,
      "pro": 7675,
      "Ġax": 7676,
      "lleng": 7677,
      "ĠTar": 7678,
      "Ġuna": 7679,
      "Ġkings": 7680,
      "Ġancest": 7681,
      "Ġgodd": 7682,
      "ĠGro": 7683,
      "Ġhug": 7684,
      "Ġaccused": 7685,
      "Ġdrown": 7686,
      "Ġdrinks": 7687,
      "ONE": 7688,
      "Ġjumping": 7689,
      "Ġinformed": 7690,
      "Ġtests": 7691,
      "ĠGreece": 7692,
      "Ġbriefly": 7693,
      "ĠHelp": 7694,
      "box": 7695,
      "lers": 7696,
      "Ã¤": 7697,
      "Ġcub": 7698,
      "Ġthir": 7699,
      "Ġbeings": 7700,
      "irk": 7701,
      "Ġugly": 7702,
      "olen": 7703,
      "igen": 7704,
      "akin": 7705,
      "Ġqueer": 7706,
      "cipl": 7707,
      "Ġperce": 7708,
      "Ġundert": 7709,
      "âĢĻll": 7710,
      "Ġvisited": 7711,
      "ĠCarl": 7712,
      "Ġfortun": 7713,
      "ĠNorway": 7714,
      "Ġgarage": 7715,
      "Ġessential": 7716,
      "Ġhistorical": 7717,
      "ĠCompany": 7718,
      "Ġgazed": 7719,
      "Ġcommercial": 7720,
      "ĠBesides": 7721,
      "_.": 7722,
      "lock": 7723,
      "rets": 7724,
      "Ġcave": 7725,
      "Ġmate": 7726,
      "Ġpowers": 7727,
      "Ġpitch": 7728,
      "ĠCy": 7729,
      "ĠCub": 7730,
      "ĠHoly": 7731,
      "ĠBird": 7732,
      "eare": 7733,
      "Ġsoap": 7734,
      "ĠOb": 7735,
      "Ġcomr": 7736,
      "ĠThus": 7737,
      "Ġpointed": 7738,
      "Ġshortly": 7739,
      "shine": 7740,
      "ĠProd": 7741,
      "-de": 7742,
      "pointing": 7743,
      "ĠEverybody": 7744,
      "Ġbelonged": 7745,
      "ĠAnton": 7746,
      "Ġsenior": 7747,
      "-cl": 7748,
      "IE": 7749,
      "mosp": 7750,
      "pired": 7751,
      "ront": 7752,
      "Ġwitch": 7753,
      "eral": 7754,
      "Ġpushing": 7755,
      "ĠNight": 7756,
      "ĠRail": 7757,
      "ART": 7758,
      "Ġending": 7759,
      "ĠAss": 7760,
      "OULD": 7761,
      "ĠCommission": 7762,
      "Ġdivision": 7763,
      "Ġhoped": 7764,
      "ĠJackson": 7765,
      "Ġscreaming": 7766,
      "ĠScottish": 7767,
      "Ġvehicle": 7768,
      "Ġobliged": 7769,
      "Cause": 7770,
      "sounds": 7771,
      "Ġoops": 7772,
      "Ġdu": 7773,
      "Ġgle": 7774,
      "asks": 7775,
      "Ġhunt": 7776,
      "ĠWars": 7777,
      "ĠBus": 7778,
      "ĠPop": 7779,
      "ĠPoint": 7780,
      "ĠOli": 7781,
      "ĠEnd": 7782,
      "Ġsufficient": 7783,
      "Ġtrunk": 7784,
      "ĠIntern": 7785,
      "Ġfeast": 7786,
      "ĠSpir": 7787,
      "Ġmurm": 7788,
      "Ġbanks": 7789,
      "Ġidentify": 7790,
      "Ġemployed": 7791,
      "Ġbehavior": 7792,
      "Ġachieved": 7793,
      "Ġfoolish": 7794,
      "Ġcurious": 7795,
      "ĠJennie": 7796,
      "ĠChildren": 7797,
      "fa": 7798,
      "vard": 7799,
      "Ġtiss": 7800,
      "anny": 7801,
      "keys": 7802,
      "Ġasks": 7803,
      "Ġashamed": 7804,
      "ĠNurse": 7805,
      "Ġvirt": 7806,
      "Ġarmed": 7807,
      "Ġlets": 7808,
      "Ġfled": 7809,
      "Ġchalleng": 7810,
      "bef": 7811,
      "ysis": 7812,
      "Ġreceiving": 7813,
      "ĠChampionships": 7814,
      "Ġdoggy": 7815,
      "ĠGolden": 7816,
      "Ġaudience": 7817,
      "Ġtraditional": 7818,
      "Ġroute": 7819,
      "quarters": 7820,
      "ĠBundle": 7821,
      "GFA": 7822,
      "low": 7823,
      "oard": 7824,
      "Ġack": 7825,
      "onel": 7826,
      "orpor": 7827,
      "Ġ[\"": 7828,
      "Ġatmosp": 7829,
      "ĠLi": 7830,
      "umble": 7831,
      "istics": 7832,
      "Ġconstantly": 7833,
      "ika": 7834,
      "ĠConf": 7835,
      "Ġmercy": 7836,
      "Ġthrowing": 7837,
      "Ġanxiety": 7838,
      "Ġcandidate": 7839,
      "tes": 7840,
      "Ġben": 7841,
      "Ġbark": 7842,
      "Ġincl": 7843,
      "ĠTay": 7844,
      "ĠWonder": 7845,
      "ĠHard": 7846,
      "Ġnoted": 7847,
      "iform": 7848,
      "ĠNa": 7849,
      "ĠGulf": 7850,
      "ĠHead": 7851,
      "ĠKate": 7852,
      "Ġprecise": 7853,
      "Ġcolored": 7854,
      "Ġfollows": 7855,
      "Ġexpert": 7856,
      "ĠGuard": 7857,
      "GRF": 7858,
      "nesota": 7859,
      "ĠRepublican": 7860,
      "Ġabsor": 7861,
      "ĠSyrian": 7862,
      "Ġinitially": 7863,
      "ĠBetty": 7864,
      "Ġsexual": 7865,
      "ĠHeaven": 7866,
      "Ġmos": 7867,
      "Ġgang": 7868,
      "ints": 7869,
      "ĠStr": 7870,
      "Ġunits": 7871,
      "atherine": 7872,
      "Ġflash": 7873,
      "ĠAdd": 7874,
      "Ġsteal": 7875,
      "Ġorganized": 7876,
      "-looking": 7877,
      "Ġviews": 7878,
      "Ġclaims": 7879,
      "',": 7880,
      ".A": 7881,
      "vant": 7882,
      "ygen": 7883,
      "itated": 7884,
      "ĠIan": 7885,
      "asters": 7886,
      "ĠSky": 7887,
      "ĠCa": 7888,
      "ĠWalk": 7889,
      "ulls": 7890,
      "Ġwaved": 7891,
      "Ġacad": 7892,
      "Ġfarmer": 7893,
      "Ġimpati": 7894,
      "ĠGrace": 7895,
      "Ġhorseshoe": 7896,
      "Ġfeaturing": 7897,
      "Ġfolks": 7898,
      "Ġvotes": 7899,
      "keeper": 7900,
      "Ġdiet": 7901,
      "Ġgum": 7902,
      "ĠARE": 7903,
      "ĠCaterpillar": 7904,
      "unn": 7905,
      "unting": 7906,
      "ĠOH": 7907,
      "ĠJUST": 7908,
      "orney": 7909,
      "Ġcomposed": 7910,
      "Ġcharged": 7911,
      "Ġstops": 7912,
      "Ġstronger": 7913,
      "ĠLeo": 7914,
      "kesp": 7915,
      "Ġvisitors": 7916,
      "ĠRepresent": 7917,
      "force": 7918,
      "-law": 7919,
      "Ġidentity": 7920,
      "Ġclimbed": 7921,
      "ĠBetween": 7922,
      "Ġadopted": 7923,
      "Ġromantic": 7924,
      "Ġmiserable": 7925,
      "win": 7926,
      "ito": 7927,
      "Ġdining": 7928,
      "Ġdirt": 7929,
      "oti": 7930,
      "ĠPoor": 7931,
      "estic": 7932,
      "Ġexceed": 7933,
      "Ġremo": 7934,
      "mann": 7935,
      "Ġslaves": 7936,
      "Ġmothers": 7937,
      "Ġretire": 7938,
      "OUT": 7939,
      "Ġdeaths": 7940,
      "ĠMinnesota": 7941,
      "Ġwhispers": 7942,
      "ĠAldworth": 7943,
      "ĠDaniel": 7944,
      "Ġemergency": 7945,
      "ĠBerlin": 7946,
      "oscow": 7947,
      "ĠOffice": 7948,
      "Ġmicrophone": 7949,
      "Ġconcluded": 7950,
      "Ġnibbled": 7951,
      "ĠOliver": 7952,
      ".--": 7953,
      "MB": 7954,
      "To": 7955,
      "bow": 7956,
      "giving": 7957,
      "Ġward": 7958,
      "Ġwire": 7959,
      "Ġcries": 7960,
      "Ġmac": 7961,
      "idays": 7962,
      "ali": 7963,
      "ĠAB": 7964,
      "Ġsector": 7965,
      "ĠRaj": 7966,
      "Ġcann": 7967,
      "aka": 7968,
      "Ġguide": 7969,
      "Ġdesired": 7970,
      "Ġkindly": 7971,
      "Ġassault": 7972,
      "Ġsolution": 7973,
      "Ġdemocr": 7974,
      "inois": 7975,
      "ĠOxfordshire": 7976,
      "Ġeconomy": 7977,
      "Ġdegrees": 7978,
      "Ġearnest": 7979,
      "Ġfarther": 7980,
      "contin": 7981,
      "vo": 7982,
      "zed": 7983,
      "lling": 7984,
      "arms": 7985,
      "Ġthirst": 7986,
      "ĠMoscow": 7987,
      "Ġforb": 7988,
      "Ġsocks": 7989,
      "ĠLuke": 7990,
      "ĠAndy": 7991,
      "Ġapparently": 7992,
      "Ġmayor": 7993,
      "Ġcommission": 7994,
      "Ġconscious": 7995,
      "Ġsticking": 7996,
      "Ġvalu": 7997,
      "ffici": 7998,
      "Ġdelightful": 7999,
      "Ġcapture": 8000,
      "Ġyelling": 8001,
      "Ġoccasionally": 8002,
      "/Mac": 8003,
      "Ġnearer": 8004,
      "Ġshopping": 8005,
      "ĠIllinois": 8006,
      "'M": 8007,
      "Al": 8008,
      "tained": 8009,
      "Ġbore": 8010,
      "Ġlaughter": 8011,
      "entially": 8012,
      "stream": 8013,
      "Ġjeal": 8014,
      "Ġintegr": 8015,
      "Ġwrites": 8016,
      "Ġimages": 8017,
      "neath": 8018,
      "Ġslip": 8019,
      "Ġshower": 8020,
      "encies": 8021,
      "ĠBenj": 8022,
      "ĠReport": 8023,
      "Ġadmitted": 8024,
      "Ġsecretary": 8025,
      "Ġexperienced": 8026,
      "Ġbasis": 8027,
      "Ġurban": 8028,
      "Ã³n": 8029,
      "Ġadventure": 8030,
      "ĠMuslim": 8031,
      "Ġacknow": 8032,
      "kespeare": 8033,
      "Ġfox": 8034,
      "Ġtoast": 8035,
      "ĠTry": 8036,
      "Ġaspect": 8037,
      "Ġhers": 8038,
      "igan": 8039,
      "Ġunhappy": 8040,
      "Ġpartners": 8041,
      "Ġchildhood": 8042,
      "Ġchannels": 8043,
      "ĠDev": 8044,
      "ĠClara": 8045,
      "Ġreflect": 8046,
      "ologist": 8047,
      "Ġconfident": 8048,
      "Ġsounded": 8049,
      "Ġchairs": 8050,
      "scream": 8051,
      "ĠPrize": 8052,
      "/BR": 8053,
      "yellow": 8054,
      "Ġyield": 8055,
      "Ġlau": 8056,
      "ashes": 8057,
      "alu": 8058,
      "ĠSn": 8059,
      "ĠMod": 8060,
      "Ġstared": 8061,
      "ĠDam": 8062,
      "Ġgrateful": 8063,
      "pshire": 8064,
      "ĠAlan": 8065,
      "Ġtrail": 8066,
      "Ġtrains": 8067,
      "Ġexpressed": 8068,
      "aughters": 8069,
      "ĠAmong": 8070,
      "Ġeffective": 8071,
      "ĠDesmond": 8072,
      "Ġnaturally": 8073,
      "ĠWales": 8074,
      "ĠMexican": 8075,
      "Ġargument": 8076,
      "Ġprospect": 8077,
      "ĠFootball": 8078,
      "'RE": 8079,
      "When": 8080,
      "__": 8081,
      "iac": 8082,
      "Ġobey": 8083,
      "Ġcateg": 8084,
      "Ġmock": 8085,
      "ĠWoo": 8086,
      "ĠDON": 8087,
      "ĠRun": 8088,
      "ĠRangers": 8089,
      "ĠOrd": 8090,
      "ĠJa": 8091,
      "Ġshove": 8092,
      "ĠVo": 8093,
      "izations": 8094,
      "ĠAfghan": 8095,
      "alem": 8096,
      "ĠIndeed": 8097,
      "Ġdifficulty": 8098,
      "Ġgenu": 8099,
      "Ġanticip": 8100,
      "ĠHelen": 8101,
      "talking": 8102,
      "Ġlaunched": 8103,
      "gle": 8104,
      "heim": 8105,
      "Ġcamps": 8106,
      "Ġreference": 8107,
      "imal": 8108,
      "adium": 8109,
      "Ġstress": 8110,
      "Ġsheet": 8111,
      "ophy": 8112,
      "Ġtricks": 8113,
      "Ġletting": 8114,
      "Ġunw": 8115,
      "Ġbuck": 8116,
      "Ġcheap": 8117,
      "ĠSpencer": 8118,
      "Ġsubm": 8119,
      "Ġcollabor": 8120,
      "Ġextended": 8121,
      "Ġexplan": 8122,
      "Ġsquir": 8123,
      "Ġinjured": 8124,
      "Ġbarely": 8125,
      "ĠPortugal": 8126,
      "Ġcitizens": 8127,
      "ĠKNOW": 8128,
      "/ER": 8129,
      "Bill": 8130,
      "bell": 8131,
      "mod": 8132,
      "Ġdomin": 8133,
      "iments": 8134,
      "ĠHolly": 8135,
      "alling": 8136,
      "ĠDNA": 8137,
      "ĠOs": 8138,
      "Ġspots": 8139,
      "Ġgrade": 8140,
      "Ġchanging": 8141,
      "Ġretreat": 8142,
      "Ġsites": 8143,
      "Ġbeds": 8144,
      "ĠLooks": 8145,
      "Ġclasses": 8146,
      "comune": 8147,
      "Ġengage": 8148,
      "Ġorganis": 8149,
      "ĠCentre": 8150,
      "Ġsubjects": 8151,
      "Ġbrilliant": 8152,
      "Did": 8153,
      "vet": 8154,
      "Ġwolf": 8155,
      "Ġcord": 8156,
      "ington": 8157,
      "eness": 8158,
      "ĠScience": 8159,
      "ĠPier": 8160,
      "ĠFriend": 8161,
      "Ġsauce": 8162,
      "ĠUnt": 8163,
      "ĠWere": 8164,
      "ockey": 8165,
      "Ġmole": 8166,
      "ulture": 8167,
      "ĠNews": 8168,
      "Ġpassion": 8169,
      "ĠFloss": 8170,
      "Ġprotected": 8171,
      "Ġissued": 8172,
      "Ġdisappointed": 8173,
      "Ġutil": 8174,
      "Ġpossibility": 8175,
      "Ġfunds": 8176,
      "Ġpermission": 8177,
      "ĠHurry": 8178,
      "Ġjealous": 8179,
      "Ġgenuine": 8180,
      "PA": 8181,
      "Yeah": 8182,
      "bar": 8183,
      "cream": 8184,
      "wan": 8185,
      "inian": 8186,
      "only": 8187,
      "Ġlit": 8188,
      "Ġitem": 8189,
      "ĠTen": 8190,
      "ĠCur": 8191,
      "ĠHER": 8192,
      "ĠGriff": 8193,
      "Ġrhy": 8194,
      "Ġrates": 8195,
      "osity": 8196,
      "Ġplot": 8197,
      "ĠUP": 8198,
      "Ġoffering": 8199,
      "ollo": 8200,
      "ĠVal": 8201,
      "Ġcarpet": 8202,
      "Ġheading": 8203,
      "Ġsets": 8204,
      "Ġsurvey": 8205,
      "Ġcharges": 8206,
      "Ġsubs": 8207,
      "Ġhated": 8208,
      "Ġcollea": 8209,
      "ouncill": 8210,
      "ĠCarle": 8211,
      "Ġconstructed": 8212,
      "Ġportion": 8213,
      "----------------": 8214,
      "Ah": 8215,
      "Ġmood": 8216,
      "Ġfo": 8217,
      "ĠAuthor": 8218,
      "teries": 8219,
      "Ġgolf": 8220,
      "ĠFat": 8221,
      "Ġprob": 8222,
      "ĠStella": 8223,
      "Ġprince": 8224,
      "Ġprices": 8225,
      "Ġresulting": 8226,
      "ports": 8227,
      "Ġache": 8228,
      "Ġsixth": 8229,
      "Ġmathem": 8230,
      "chair": 8231,
      "Ġcleaning": 8232,
      "Ġpresidential": 8233,
      "Ġadmir": 8234,
      "Ġdisappear": 8235,
      "Ġfavourite": 8236,
      "ĠBasil": 8237,
      "Ġgranted": 8238,
      "pher": 8239,
      "turns": 8240,
      "Ġtalent": 8241,
      "reck": 8242,
      "illing": 8243,
      "anta": 8244,
      "ĠRIGHT": 8245,
      "Ġjail": 8246,
      "ulpt": 8247,
      "ogue": 8248,
      "gets": 8249,
      "Ġassumed": 8250,
      "standing": 8251,
      "Ġconstant": 8252,
      "ĠPlan": 8253,
      "Ġpuppy": 8254,
      "REAM": 8255,
      "Ġheavily": 8256,
      "Ġringing": 8257,
      "Ġsatisfied": 8258,
      "ĠForest": 8259,
      "Ġinhabit": 8260,
      "Ġillegal": 8261,
      "LI": 8262,
      "Ġwoke": 8263,
      "Ġcou": 8264,
      "Ġmama": 8265,
      "Ġlately": 8266,
      "Ġnah": 8267,
      "aly": 8268,
      "child": 8269,
      "ĠFederal": 8270,
      "ection": 8271,
      "orders": 8272,
      "Ġunderneath": 8273,
      "Ġrelie": 8274,
      "Ġminds": 8275,
      "ĠMayor": 8276,
      "ĠWithout": 8277,
      "Ġdeveloping": 8278,
      "Ġvariety": 8279,
      "Ġdawn": 8280,
      "ĠGreater": 8281,
      "Ġliterature": 8282,
      "cipal": 8283,
      "Ġï¿½ï¿½ï¿½ï¿½ï¿½ï¿½ï¿½": 8284,
      "Ġoxygen": 8285,
      "ĠDirector": 8286,
      "Ġwebsite": 8287,
      "ĠBavaria": 8288,
      "rigerator": 8289,
      "!--": 8290,
      "Ch": 8291,
      "ND": 8292,
      "bra": 8293,
      "Ġtan": 8294,
      "Ġtherap": 8295,
      "erving": 8296,
      "Ġcig": 8297,
      "Ġmice": 8298,
      "Ġmild": 8299,
      "Ġpul": 8300,
      "leg": 8301,
      "Ġbeep": 8302,
      "ĠMem": 8303,
      "ĠHoo": 8304,
      "ĠDE": 8305,
      "ifying": 8306,
      "Ġuncom": 8307,
      "Ġcompar": 8308,
      "Ġcommit": 8309,
      "Ġobtained": 8310,
      "theless": 8311,
      "Ġproviding": 8312,
      "Ġcreation": 8313,
      "Ġclothing": 8314,
      "Ġattempting": 8315,
      "Ġactivist": 8316,
      "Ã¡n": 8317,
      "Ġmaintain": 8318,
      "Ġsacrif": 8319,
      "ĠGeorgia": 8320,
      "aurs": 8321,
      "rad": 8322,
      "sylvania": 8323,
      "uj": 8324,
      "uge": 8325,
      "zes": 8326,
      "Ġdial": 8327,
      "aned": 8328,
      "atures": 8329,
      "Ġnonsense": 8330,
      "ĠSon": 8331,
      "Ġweb": 8332,
      "ĠHmm": 8333,
      "Ġseal": 8334,
      "Ġven": 8335,
      "Ġboyfriend": 8336,
      "Ġgrape": 8337,
      "EST": 8338,
      "ĠIndepend": 8339,
      "Ġreply": 8340,
      "Ġleads": 8341,
      "Ġrivers": 8342,
      "Ġofficially": 8343,
      "ĠShakespeare": 8344,
      "Ġdetail": 8345,
      "Ġdirections": 8346,
      "Ġruler": 8347,
      "Ġprepare": 8348,
      "Ġeagerly": 8349,
      "ĠReliance": 8350,
      "Ġhammer": 8351,
      "ĠMelissa": 8352,
      "Ġbronze": 8353,
      "-N": 8354,
      "-man": 8355,
      "EO": 8356,
      "rical": 8357,
      "Ġfuel": 8358,
      "Ġlamb": 8359,
      "oting": 8360,
      "ĠMans": 8361,
      "ĠPL": 8362,
      "ĠNorthern": 8363,
      "Ġshed": 8364,
      "venge": 8365,
      "aval": 8366,
      "upid": 8367,
      "Ġstrict": 8368,
      "Ġmarch": 8369,
      "Ġdrift": 8370,
      "Ġanimated": 8371,
      "Ġwinner": 8372,
      "who": 8373,
      "Ġparliament": 8374,
      "Ġannual": 8375,
      "ĠRussians": 8376,
      "Ġtouching": 8377,
      "ĠEmily": 8378,
      "Ġstatus": 8379,
      "Ġfeatured": 8380,
      "Ġthreatened": 8381,
      "ĠHampshire": 8382,
      "Ġintelligence": 8383,
      "Ġfierce": 8384,
      "ĠBenjamin": 8385,
      "itable": 8386,
      "orial": 8387,
      "Ġloyal": 8388,
      "atics": 8389,
      "Ġinfection": 8390,
      "Ġinsect": 8391,
      "ĠSel": 8392,
      "ĠAyl": 8393,
      "Ġseasons": 8394,
      "Ġcomedy": 8395,
      "Ġvice": 8396,
      "Ġintention": 8397,
      "Ġchamber": 8398,
      "Ġacted": 8399,
      "Ġdrain": 8400,
      "Ġfriendship": 8401,
      "Ġsunshine": 8402,
      "ĠJanet": 8403,
      "coming": 8404,
      "Ġcollected": 8405,
      "Ġcommanded": 8406,
      "Ġmuscles": 8407,
      "hetti": 8408,
      "Ġinjury": 8409,
      "ĠMilan": 8410,
      "Ġparticipated": 8411,
      "ĠBarbara": 8412,
      "Ġconclusion": 8413,
      "NON": 8414,
      "cript": 8415,
      "Ġbent": 8416,
      "ĠBart": 8417,
      "ĠRub": 8418,
      "ĠLau": 8419,
      "ĠJr": 8420,
      "ĠJenny": 8421,
      "Ġdisag": 8422,
      "Ġsche": 8423,
      "Ġslave": 8424,
      "Ġfounder": 8425,
      "whines": 8426,
      "ĠMean": 8427,
      "Ġconsiderable": 8428,
      "Ġlimit": 8429,
      "Ġsurrounded": 8430,
      "Ġthoroughly": 8431,
      "ĠWrestling": 8432,
      "ĠTaylor": 8433,
      "UE": 8434,
      "belt": 8435,
      "rac": 8436,
      "rated": 8437,
      "ĠHIS": 8438,
      "inction": 8439,
      "Ġbay": 8440,
      "ĠMuseum": 8441,
      "ĠBol": 8442,
      "ĠDog": 8443,
      "ifer": 8444,
      "ĠGre": 8445,
      "ardo": 8446,
      "Ġpretending": 8447,
      "ĠTHERE": 8448,
      "Ġmetres": 8449,
      "Ġgrandma": 8450,
      "GRM": 8451,
      "Ġresemb": 8452,
      "Ġencount": 8453,
      "Ġmassive": 8454,
      "Ġnormally": 8455,
      "Ġaffairs": 8456,
      "Ġadults": 8457,
      "Ġrescue": 8458,
      "Ġthirteen": 8459,
      "Ġing": 8460,
      "Ġtent": 8461,
      "Ġfires": 8462,
      "enger": 8463,
      "Ġhid": 8464,
      "ĠTa": 8465,
      "ĠAmb": 8466,
      "acity": 8467,
      "Ġstolen": 8468,
      "ĠRi": 8469,
      "ĠGET": 8470,
      "ĠLight": 8471,
      "ĠKu": 8472,
      "Ġpecul": 8473,
      "Ġoffers": 8474,
      "ĠSociety": 8475,
      "Ġrecover": 8476,
      "Ġenthus": 8477,
      "Ġharder": 8478,
      "Ġmistress": 8479,
      "Ġemerged": 8480,
      "Ġpunishment": 8481,
      "Ġmethods": 8482,
      "Ġconstitu": 8483,
      "ĠUkraine": 8484,
      "Ġpeculiar": 8485,
      "SC": 8486,
      "bly": 8487,
      "Ġaye": 8488,
      "erk": 8489,
      "Ġfed": 8490,
      "ario": 8491,
      "Ġinaug": 8492,
      "ĠTon": 8493,
      "ĠBell": 8494,
      "Ġath": 8495,
      "agers": 8496,
      "Ġpepper": 8497,
      "ordan": 8498,
      "Ġflies": 8499,
      "ĠChristopher": 8500,
      "Ġbearing": 8501,
      "Ġattempts": 8502,
      "Ġbreathing": 8503,
      "Ġvanished": 8504,
      "hands": 8505,
      "burgh": 8506,
      "Ġjournalist": 8507,
      "Ġfeathers": 8508,
      "Ġunusual": 8509,
      "ĠPennsylvania": 8510,
      "ĠAylmer": 8511,
      "Ġencountered": 8512,
      "chers": 8513,
      "Ġhom": 8514,
      "ĠAub": 8515,
      "ĠMi": 8516,
      "ĠPerson": 8517,
      "ĠDie": 8518,
      "ĠFestival": 8519,
      "hia": 8520,
      "ferences": 8521,
      "agon": 8522,
      "Ġeighteen": 8523,
      "Ġawesome": 8524,
      "Ġdelicate": 8525,
      "Ġamongst": 8526,
      "Ġsituated": 8527,
      "Ġworthy": 8528,
      "ĠHungary": 8529,
      "Ġinquired": 8530,
      "Ġatmosphere": 8531,
      "Ġvaluable": 8532,
      "Billboard": 8533,
      "ares": 8534,
      "Ã±": 8535,
      "Ġtales": 8536,
      "Ġfare": 8537,
      "Ġfeared": 8538,
      "enly": 8539,
      "arant": 8540,
      "omi": 8541,
      "rific": 8542,
      "ĠBurg": 8543,
      "ĠPass": 8544,
      "ĠNich": 8545,
      "ĠFle": 8546,
      "Ġdeer": 8547,
      "ĠLib": 8548,
      "Ġshh": 8549,
      "eling": 8550,
      "Ġspy": 8551,
      "Ġspider": 8552,
      "Ġprime": 8553,
      "Ġcompre": 8554,
      "Ġperman": 8555,
      "Ġcolour": 8556,
      "ĠDef": 8557,
      "Ġemot": 8558,
      "Ġconfused": 8559,
      "Ġdelivered": 8560,
      "ĠTrust": 8561,
      "ĠLeg": 8562,
      "Ġpotato": 8563,
      "ĠLeave": 8564,
      "Ġcompanions": 8565,
      "Ġcheerful": 8566,
      "ĠFilm": 8567,
      "gasps": 8568,
      "Ġrestaurant": 8569,
      "bing": 8570,
      "cri": 8571,
      "lon": 8572,
      "anes": 8573,
      "Ġec": 8574,
      "Ġstations": 8575,
      "ĠBBC": 8576,
      "agger": 8577,
      "IST": 8578,
      "Ġcricket": 8579,
      "Ġsurre": 8580,
      "Ġdragon": 8581,
      "Ġpurse": 8582,
      "Ġstruct": 8583,
      "ĠSeven": 8584,
      "Ġprofession": 8585,
      "Ġstatue": 8586,
      "ĠBobby": 8587,
      "Ġindependence": 8588,
      "Ġsolemn": 8589,
      "OOK": 8590,
      "Ġproceeded": 8591,
      "ĠStephen": 8592,
      "vation": 8593,
      "Ġcows": 8594,
      "Ġdaughters": 8595,
      "ĠTour": 8596,
      "alls": 8597,
      "ĠOffic": 8598,
      "oples": 8599,
      "Ġspray": 8600,
      "Ġages": 8601,
      "Ġappropriate": 8602,
      "ĠNewman": 8603,
      "ĠArts": 8604,
      "Ġsyll": 8605,
      "oked": 8606,
      "Ġlandsc": 8607,
      "Ġawfully": 8608,
      "Ġrolled": 8609,
      "Ġelections": 8610,
      "Ġpacked": 8611,
      "Ġholidays": 8612,
      "ĠÃĸ": 8613,
      "Ġfolk": 8614,
      "Ġgaze": 8615,
      "JAK": 8616,
      "nis": 8617,
      "uv": 8618,
      "Ġsession": 8619,
      "nda": 8620,
      "nded": 8621,
      "edge": 8622,
      "Ġpowder": 8623,
      "utation": 8624,
      "enters": 8625,
      "amas": 8626,
      "Ġseeds": 8627,
      "ĠRac": 8628,
      "ĠEp": 8629,
      "Ġshining": 8630,
      "osure": 8631,
      "ĠStay": 8632,
      "Ġenorm": 8633,
      "Ġbelt": 8634,
      "Ġnights": 8635,
      "Ġphr": 8636,
      "Ġyoungest": 8637,
      "ĠDeath": 8638,
      "Ġdepos": 8639,
      "ĠWhoa": 8640,
      "Ġcalcul": 8641,
      "Ġnursery": 8642,
      "Ġaltogether": 8643,
      "Ġcanton": 8644,
      "Ġscheme": 8645,
      "inity": 8646,
      "Ġbree": 8647,
      "ithe": 8648,
      "Ġlod": 8649,
      "Ġreject": 8650,
      "ĠMouse": 8651,
      "ĠWr": 8652,
      "ĠDuck": 8653,
      "osh": 8654,
      "Ġspeaks": 8655,
      "orne": 8656,
      "Ġguid": 8657,
      "cling": 8658,
      "Ġscrap": 8659,
      "ultural": 8660,
      "teenth": 8661,
      "arson": 8662,
      "Ġobst": 8663,
      "Ġpolite": 8664,
      "Ġfoods": 8665,
      "Ġdressing": 8666,
      "Ġclassroom": 8667,
      "Ġenjoying": 8668,
      "Ġpractical": 8669,
      "Ġfarmers": 8670,
      "Ġspecifically": 8671,
      "ĠUntil": 8672,
      ",and": 8673,
      "fire": 8674,
      "iat": 8675,
      "tons": 8676,
      "Ġtheat": 8677,
      "ooke": 8678,
      "Ġstem": 8679,
      "Ġnodd": 8680,
      "Ġrum": 8681,
      "Ġconven": 8682,
      "Ġscat": 8683,
      "Ġhousehold": 8684,
      "Ġacid": 8685,
      "Ġswitch": 8686,
      "Ġpersons": 8687,
      "Ġinvite": 8688,
      "Ġpops": 8689,
      "-based": 8690,
      "Ġsummon": 8691,
      "ĠColin": 8692,
      "Ġmistakes": 8693,
      "ederation": 8694,
      "Ġphoto": 8695,
      "Ġfeeding": 8696,
      "lendar": 8697,
      "/MT": 8698,
      "Ġbacter": 8699,
      "Ġnominated": 8700,
      "ĠLieutenant": 8701,
      "ĠSpirit": 8702,
      "Just": 8703,
      "ients": 8704,
      "rep": 8705,
      "Ġsan": 8706,
      "Ġbond": 8707,
      "Ġfits": 8708,
      "Ġbee": 8709,
      "ĠCivil": 8710,
      "ĠNE": 8711,
      "ĠRuth": 8712,
      "ĠLew": 8713,
      "Ġrude": 8714,
      "Ġaloud": 8715,
      "ĠJO": 8716,
      "elp": 8717,
      "Ġwhereas": 8718,
      "Ġroot": 8719,
      "Ġsculpt": 8720,
      "Ġumbre": 8721,
      "Ġaccur": 8722,
      "Ġcleared": 8723,
      "Ġskill": 8724,
      "Ġaddressed": 8725,
      "Ġoperating": 8726,
      "Ġimproved": 8727,
      "ĠJimmy": 8728,
      "Ġsurvive": 8729,
      "shakes": 8730,
      "Ġemphas": 8731,
      "Ġshelter": 8732,
      "Ġdesperate": 8733,
      "&gt": 8734,
      "Are": 8735,
      "bes": 8736,
      "lace": 8737,
      "rum": 8738,
      "ĠMAN": 8739,
      "ĠCON": 8740,
      "ĠBall": 8741,
      "ĠBab": 8742,
      "unte": 8743,
      "geant": 8744,
      "ths": 8745,
      "olk": 8746,
      "Ġshy": 8747,
      "ements": 8748,
      "Ġproced": 8749,
      "ĠValley": 8750,
      "ĠSoon": 8751,
      "Ġmonarch": 8752,
      "rows": 8753,
      "Ġmarble": 8754,
      "Ġdiscovery": 8755,
      "Ġcenturies": 8756,
      "-by": 8757,
      "Ġload": 8758,
      "Ġbottles": 8759,
      "ĠHarvard": 8760,
      "Ġwhisper": 8761,
      "Ġhopes": 8762,
      "ĠPoland": 8763,
      "Ġidentified": 8764,
      "ĠIsraeli": 8765,
      "Ġrecommend": 8766,
      "Ġdivorce": 8767,
      "Ġconvinced": 8768,
      "ĠBrennan": 8769,
      "Ġta": 8770,
      "Ġwishes": 8771,
      "Ġcough": 8772,
      "Ġcooper": 8773,
      "Ġpoured": 8774,
      "oto": 8775,
      "ĠTilly": 8776,
      "ĠMust": 8777,
      "ĠCre": 8778,
      "ĠBunny": 8779,
      "Ġ\"'": 8780,
      "ĠFerg": 8781,
      "ĠJay": 8782,
      "ighed": 8783,
      "Ġunex": 8784,
      "izz": 8785,
      "ĠIslands": 8786,
      "Ġsixteen": 8787,
      "Ġfacts": 8788,
      "Ġceased": 8789,
      "ĠBooth": 8790,
      "Ġdebate": 8791,
      "Ġphase": 8792,
      "-hand": 8793,
      ".D": 8794,
      "LIN": 8795,
      "ext": 8796,
      "west": 8797,
      "Ġdign": 8798,
      "ĠAut": 8799,
      "Ġreaction": 8800,
      "ĠWWE": 8801,
      "Ġsequ": 8802,
      "Ġnephe": 8803,
      "ĠFer": 8804,
      "ĠFind": 8805,
      "quis": 8806,
      "Ġgrat": 8807,
      "Ġacts": 8808,
      "Ġindign": 8809,
      "Ġcuts": 8810,
      "Ġsteam": 8811,
      "Ġlouder": 8812,
      "Ġbasketball": 8813,
      "Ġsatisfaction": 8814,
      "incol": 8815,
      "Ġnephew": 8816,
      "Thank": 8817,
      "fish": 8818,
      "iques": 8819,
      "mhm": 8820,
      "ras": 8821,
      "Ġtad": 8822,
      "Ġcage": 8823,
      "ĠIce": 8824,
      "ĠTok": 8825,
      "ĠLiber": 8826,
      "emed": 8827,
      "Ġtheme": 8828,
      "aks": 8829,
      "Ġthrust": 8830,
      "Ġcompelled": 8831,
      "Ġrage": 8832,
      "Ġkindness": 8833,
      "pected": 8834,
      "Ġchairman": 8835,
      "Ġrecognition": 8836,
      "ĠPolish": 8837,
      "Ġpossession": 8838,
      "ynasty": 8839,
      "Ġwidely": 8840,
      "Ġimmense": 8841,
      "arrass": 8842,
      "Ġmaintained": 8843,
      "ĠFlossie": 8844,
      "phan": 8845,
      "inent": 8846,
      "Ġsadd": 8847,
      "iser": 8848,
      "Ġmile": 8849,
      "orse": 8850,
      "Ġnations": 8851,
      "ĠTha": 8852,
      "Ġecho": 8853,
      "ĠAD": 8854,
      "Ġreform": 8855,
      "ĠMP": 8856,
      "ĠHospital": 8857,
      "ĠNonna": 8858,
      "ĠGiven": 8859,
      "ĠLead": 8860,
      "Ġjam": 8861,
      "Ġsuicide": 8862,
      "ĠInstead": 8863,
      "Ġuniform": 8864,
      "Ġcalendar": 8865,
      "Ġregional": 8866,
      "Ġstays": 8867,
      "ĠChair": 8868,
      "zech": 8869,
      "Ġstrongly": 8870,
      "Ġicecream": 8871,
      "ĠDora": 8872,
      "Ġimagined": 8873,
      "ĠRegion": 8874,
      "Ġdinosaurs": 8875,
      "Ġsearching": 8876,
      "Ġterritory": 8877,
      "ĠSpecial": 8878,
      "ĠColumbia": 8879,
      "ĠResearch": 8880,
      "respond": 8881,
      "TV": 8882,
      "uzz": 8883,
      "Ġsore": 8884,
      "Ġowe": 8885,
      "Ġcam": 8886,
      "Ġfuss": 8887,
      "lly": 8888,
      "icians": 8889,
      "Ġstool": 8890,
      "Ġstupid": 8891,
      "ĠHit": 8892,
      "ĠRimb": 8893,
      "inking": 8894,
      "ĠUr": 8895,
      "Ġtract": 8896,
      "ĠStat": 8897,
      "ĠStart": 8898,
      "ĠVill": 8899,
      "Ġguarant": 8900,
      "âĢĻve": 8901,
      "Ġcounting": 8902,
      "Ġobtain": 8903,
      "Ġgrab": 8904,
      "Ġgrain": 8905,
      "Ġinstantly": 8906,
      "Ġpointing": 8907,
      "Ġimpression": 8908,
      "Ġdepend": 8909,
      "urious": 8910,
      "Ġneighbour": 8911,
      "Ġgradually": 8912,
      "Ġclimbing": 8913,
      "ĠRyan": 8914,
      "ĠScarfe": 8915,
      "ĠTurkish": 8916,
      "ĠPictures": 8917,
      "ĠInternet": 8918,
      "BI": 8919,
      "Brian": 8920,
      "GE": 8921,
      "KID": 8922,
      "down": 8923,
      "Ġmars": 8924,
      "rily": 8925,
      "stance": 8926,
      "ĠWant": 8927,
      "ĠHand": 8928,
      "ĠPak": 8929,
      "ĠYo": 8930,
      "Ġgoods": 8931,
      "Ġcheek": 8932,
      "Ġmarched": 8933,
      "rogen": 8934,
      "Ġsquad": 8935,
      "Ġmistaken": 8936,
      "adesh": 8937,
      "Ġsignificantly": 8938,
      "ĠSpani": 8939,
      "Donald": 8940,
      "ĠCambridge": 8941,
      "aunton": 8942,
      "ĠRoger": 8943,
      "AC": 8944,
      "As": 8945,
      "Can": 8946,
      "when": 8947,
      "hab": 8948,
      "Ġmental": 8949,
      "Ġdates": 8950,
      "Ġtoe": 8951,
      "Ġtool": 8952,
      "Ġyards": 8953,
      "Ġpenn": 8954,
      "Ġnaught": 8955,
      "acious": 8956,
      "ĠMoon": 8957,
      "eau": 8958,
      "ĠPost": 8959,
      "ĠOUT": 8960,
      "umph": 8961,
      "Ġsale": 8962,
      "Ġouter": 8963,
      "Ġvoted": 8964,
      "aghetti": 8965,
      "Ġnowhere": 8966,
      "Ġtrace": 8967,
      "Ġpartly": 8968,
      "Ġpronounced": 8969,
      "Ġconsists": 8970,
      "Ġtriangle": 8971,
      "Ġeditor": 8972,
      "reading": 8973,
      "ĠTwenty": 8974,
      "ASE": 8975,
      "Ġequally": 8976,
      "Ġstopping": 8977,
      "black": 8978,
      "Ġapplied": 8979,
      "Ġfaithful": 8980,
      "Ġevidently": 8981,
      "Ġscheduled": 8982,
      "Ġgalax": 8983,
      "Ġliquid": 8984,
      "igenous": 8985,
      "-J": 8986,
      "Ġsou": 8987,
      "Ġcas": 8988,
      "Ġpir": 8989,
      "Ġladder": 8990,
      "ĠToo": 8991,
      "ĠSkin": 8992,
      "ustomed": 8993,
      "ĠRus": 8994,
      "olas": 8995,
      "Ġsaving": 8996,
      "Ġhappily": 8997,
      "ĠDean": 8998,
      "Ġassess": 8999,
      "Ġrepair": 9000,
      "engu": 9001,
      "Ġinspired": 9002,
      "ĠDrum": 9003,
      "Ġexisted": 9004,
      "ĠJohan": 9005,
      "Ġinjuries": 9006,
      "OOD": 9007,
      "Ġvacation": 9008,
      "Ġgraduated": 9009,
      "Ġprotein": 9010,
      "ĠArgentina": 9011,
      "-the": 9012,
      "?âĢĻ": 9013,
      "life": 9014,
      "rome": 9015,
      "Ġdared": 9016,
      "Ġpi": 9017,
      "Ġpapa": 9018,
      "arse": 9019,
      "ĠAS": 9020,
      "ĠCop": 9021,
      "ĠCart": 9022,
      "ĠCross": 9023,
      "ĠDri": 9024,
      "ĠDale": 9025,
      "ĠGi": 9026,
      "ĠLincol": 9027,
      "Ġvig": 9028,
      "Ġtwin": 9029,
      "orted": 9030,
      "Ġdisg": 9031,
      "Ġdiscipl": 9032,
      "enses": 9033,
      "Ġglanced": 9034,
      "Ġentering": 9035,
      "ĠDevelop": 9036,
      "Ġresting": 9037,
      "Ġdrawer": 9038,
      "Ġofficials": 9039,
      "ĠCrown": 9040,
      "Ġembarrass": 9041,
      "Ġrailway": 9042,
      "Ġcommunities": 9043,
      "Ġmunicipalities": 9044,
      "Ġgoddess": 9045,
      "Ġacademic": 9046,
      "NE": 9047,
      "gins": 9048,
      "lar": 9049,
      "Ġwipe": 9050,
      "Ġpoo": 9051,
      "Ġbegged": 9052,
      "ĠSnow": 9053,
      "ĠAP": 9054,
      "Ġweary": 9055,
      "ammy": 9056,
      "ĠBY": 9057,
      "una": 9058,
      "ĠGall": 9059,
      "Ġsailed": 9060,
      "ĠJordan": 9061,
      "Ġpee": 9062,
      "Ġexposed": 9063,
      "Ġtransm": 9064,
      "Ġcurt": 9065,
      "UNT": 9066,
      "ĠApollo": 9067,
      "flies": 9068,
      "ĠCheck": 9069,
      "ĠSupp": 9070,
      "Ġassistance": 9071,
      "Ġextraord": 9072,
      "Ġcousins": 9073,
      "Ġexecution": 9074,
      "Ġtribes": 9075,
      "ĠDougl": 9076,
      "Ġmeasures": 9077,
      "Ġvehicles": 9078,
      "ĠPacific": 9079,
      "Go": 9080,
      "gro": 9081,
      "net": 9082,
      "held": 9083,
      "haw": 9084,
      "onent": 9085,
      "Ġnerve": 9086,
      "Ġhook": 9087,
      "Ġthief": 9088,
      "alo": 9089,
      "ĠSister": 9090,
      "iro": 9091,
      "ĠCAN": 9092,
      "ĠCOM": 9093,
      "ĠCelia": 9094,
      "ĠWolf": 9095,
      "ĠBrig": 9096,
      "ĠDear": 9097,
      "ĠGor": 9098,
      "Ġoverall": 9099,
      "Ġlegend": 9100,
      "pless": 9101,
      "ĠVien": 9102,
      "ĠChuck": 9103,
      "obile": 9104,
      "Ġattorney": 9105,
      "ilding": 9106,
      "thew": 9107,
      "Ġreduced": 9108,
      "Ġrefers": 9109,
      "Ġtemporary": 9110,
      "Ġcrossing": 9111,
      "going": 9112,
      "ĠTurkey": 9113,
      "-American": 9114,
      "Ġblowing": 9115,
      "ĠScholarship": 9116,
      "Ġconcentration": 9117,
      "Ġnickel": 9118,
      "ĠDivision": 9119,
      "ĠGirls": 9120,
      "Ġabandoned": 9121,
      "Ġdescribe": 9122,
      "Ġdedicated": 9123,
      "ĠSweet": 9124,
      "col": 9125,
      "fers": 9126,
      "wick": 9127,
      "Ġtummy": 9128,
      "Ġske": 9129,
      "Ġcakes": 9130,
      "Ġmask": 9131,
      "inging": 9132,
      "Ġpine": 9133,
      "Ġpunch": 9134,
      "Ġnort": 9135,
      "vering": 9136,
      "riot": 9137,
      "ĠCD": 9138,
      "ĠBA": 9139,
      "ĠBrand": 9140,
      "ĠRh": 9141,
      "Ġagric": 9142,
      "Ġunp": 9143,
      "rup": 9144,
      "ipes": 9145,
      "Ġopens": 9146,
      "Ġoccurs": 9147,
      "ĠSomebody": 9148,
      "Ġprofound": 9149,
      "ĠShall": 9150,
      "Ġdreamed": 9151,
      "Ġbloody": 9152,
      "Ġbags": 9153,
      "ĠTechn": 9154,
      "Ġoperations": 9155,
      "ĠAgent": 9156,
      "Ġintroduce": 9157,
      "ĠÂ¶": 9158,
      "Ġignor": 9159,
      "ĠRimbolt": 9160,
      "-j": 9161,
      "GHING": 9162,
      "On": 9163,
      "gives": 9164,
      "may": 9165,
      "ridge": 9166,
      "uper": 9167,
      "Ġoption": 9168,
      "Ġmamma": 9169,
      "Ġdea": 9170,
      "Ġtoler": 9171,
      "orf": 9172,
      "usive": 9173,
      "ĠSad": 9174,
      "Ġstable": 9175,
      "ĠCzech": 9176,
      "ĠNin": 9177,
      "olve": 9178,
      "akers": 9179,
      "perial": 9180,
      "Ġneedle": 9181,
      "iped": 9182,
      "Ġrestrict": 9183,
      "Ġdragged": 9184,
      "Ġadding": 9185,
      "Ġsneak": 9186,
      "Ġloving": 9187,
      "Ġsoftware": 9188,
      "Ġviolent": 9189,
      "Ġreferring": 9190,
      "ĠHungarian": 9191,
      "ĠMargot": 9192,
      "Ġmotorcy": 9193,
      "Ġdebt": 9194,
      "ĠBrazilian": 9195,
      "Ġlinked": 9196,
      "ĠIranian": 9197,
      "ĠDouglas": 9198,
      "-ter": 9199,
      "OL": 9200,
      "TP": 9201,
      "from": 9202,
      "kind": 9203,
      "pos": 9204,
      "whel": 9205,
      "Ġtum": 9206,
      "Ġbits": 9207,
      "itter": 9208,
      "Ġfasc": 9209,
      "ĠId": 9210,
      "asm": 9211,
      "ĠSat": 9212,
      "Ġstern": 9213,
      "Ġugh": 9214,
      "Ġexhib": 9215,
[...]
