{
  "version": "1.0",
  "truncation": null,
  "padding": null,
  "added_tokens": [
    {
      "id": 0,
      "content": "<pad>",
      "single_word": false,
      "lstrip": false,
      "rstrip": false,
      "normalized": false,
      "special": true
    }
  ],
  "normalizer": null,
  "pre_tokenizer": {
    "type": "ByteLevel",
    "add_prefix_space": true,
    "trim_offsets": true,
    "use_regex": true
  },
  "post_processor": {
    "type": "TemplateProcessing",
    "single": [
      {
        "Sequence": {
          "id": "A",
          "type_id": 0
        }
      }
    ],
    "pair": [
      {
        "Sequence": {
          "id": "A",
          "type_id": 0
        }
      },
      {
        "Sequence": {
          "id": "B",
          "type_id": 1
        }
      }
    ],
    "special_tokens": {}
  },
  "decoder": {
    "type": "ByteLevel",
    "add_prefix_space": true,
    "trim_offsets": true,
    "use_regex": true
  },
  "model": {
    "type": "BPE",
    "dropout": null,
    "unk_token": null,
    "continuing_subword_prefix": null,
    "end_of_word_suffix": null,
    "fuse_unk": false,
    "byte_fallback": false,
    "ignore_merges": false,
    "vocab": {
      "<pad>": 0,
      "!": 1,
      "\"": 2,
      "#": 3,
      "$": 4,
      "%": 5,
      "&": 6,
      "'": 7,
      "(": 8,
      ")": 9,
      "*": 10,
      "+": 11,
      ",": 12,
      "-": 13,
      ".": 14,
      "/": 15,
      "0": 16,
      "1": 17,
      "2": 18,
      "3": 19,
      "4": 20,
      "5": 21,
      "6": 22,
      "7": 23,
      "8": 24,
      "9": 25,
      ":": 26,
      ";": 27,
      "<": 28,
      "=": 29,
      ">": 30,
      "?": 31,
      "@": 32,
      "A": 33,
      "B": 34,
      "C": 35,
      "D": 36,
      "E": 37,
      "F": 38,
      "G": 39,
      "H": 40,
      "I": 41,
      "J": 42,
      "K": 43,
      "L": 44,
      "M": 45,
      "N": 46,
      "O": 47,
      "P": 48,
      "Q": 49,
      "R": 50,
      "S": 51,
      "T": 52,
      "U": 53,
      "V": 54,
      "W": 55,
      "X": 56,
      "Y": 57,
      "Z": 58,
      "[": 59,
      "\\": 60,
      "]": 61,
      "^": 62,
      "_": 63,
      "`": 64,
      "a": 65,
      "b": 66,
      "c": 67,
      "d": 68,
      "e": 69,
      "f": 70,
      "g": 71,
      "h": 72,
      "i": 73,
      "j": 74,
      "k": 75,
      "l": 76,
      "m": 77,
      "n": 78,
      "o": 79,
      "p": 80,
      "q": 81,
      "r": 82,
      "s": 83,
      "t": 84,
      "u": 85,
      "v": 86,
      "w": 87,
      "x": 88,
      "y": 89,
      "z": 90,
      "{": 91,
      "|": 92,
      "}": 93,
      "~": 94,
      "¡": 95,
      "¢": 96,
      "£": 97,
      "¤": 98,
      "¥": 99,
      "¦": 100,
      "§": 101,
      "¨": 102,
      "©": 103,
      "ª": 104,
      "«": 105,
      "¬": 106,
      "®": 107,
      "¯": 108,
      "°": 109,
      "±": 110,
      "²": 111,
      "³": 112,
      "´": 113,
      "µ": 114,
      "¶": 115,
      "·": 116,
      "¸": 117,
      "¹": 118,
      "º": 119,
      "»": 120,
      "¼": 121,
      "½": 122,
      "¾": 123,
      "¿": 124,
      "À": 125,
      "Á": 126,
      "Â": 127,
      "Ã": 128,
      "Ä": 129,
      "Å": 130,
      "Æ": 131,
      "Ç": 132,
      "È": 133,
      "É": 134,
      "Ê": 135,
      "Ë": 136,
      "Ì": 137,
      "Í": 138,
      "Î": 139,
      "Ï": 140,
      "Ð": 141,
      "Ñ": 142,
      "Ò": 143,
      "Ó": 144,
      "Ô": 145,
      "Õ": 146,
      "Ö": 147,
      "×": 148,
      "Ø": 149,
      "Ù": 150,
      "Ú": 151,
      "Û": 152,
      "Ü": 153,
      "Ý": 154,
      "Þ": 155,
      "ß": 156,
      "à": 157,
      "á": 158,
      "â": 159,
      "ã": 160,
      "ä": 161,
      "å": 162,
      "æ": 163,
      "ç": 164,
      "è": 165,
      "é": 166,
      "ê": 167,
      "ë": 168,
      "ì": 169,
      "í": 170,
      "î": 171,
      "ï": 172,
      "ð": 173,
      "ñ": 174,
      "ò": 175,
      "ó": 176,
      "ô": 177,
      "õ": 178,
      "ö": 179,
      "÷": 180,
      "ø": 181,
      "ù": 182,
      "ú": 183,
      "û": 184,
      "ü": 185,
      "ý": 186,
      "þ": 187,
      "ÿ": 188,
      "Ā": 189,
      "ā": 190,
      "Ă": 191,
      "ă": 192,
      "Ą": 193,
      "ą": 194,
      "Ć": 195,
      "ć": 196,
      "Ĉ": 197,
      "ĉ": 198,
      "Ċ": 199,
      "ċ": 200,
      "Č": 201,
      "č": 202,
      "Ď": 203,
      "ď": 204,
      "Đ": 205,
      "đ": 206,
      "Ē": 207,
      "ē": 208,
      "Ĕ": 209,
      "ĕ": 210,
      "Ė": 211,
      "ė": 212,
      "Ę": 213,
      "ę": 214,
      "Ě": 215,
      "ě": 216,
      "Ĝ": 217,
      "ĝ": 218,
      "Ğ": 219,
      "ğ": 220,
      "Ġ": 221,
      "ġ": 222,
      "Ģ": 223,
      "ģ": 224,
      "Ĥ": 225,
      "ĥ": 226,
      "Ħ": 227,
      "ħ": 228,
      "Ĩ": 229,
      "ĩ": 230,
      "Ī": 231,
      "ī": 232,
      "Ĭ": 233,
      "ĭ": 234,
      "Į": 235,
      "į": 236,
      "İ": 237,
      "ı": 238,
      "Ĳ": 239,
      "ĳ": 240,
      "Ĵ": 241,
      "ĵ": 242,
      "Ķ": 243,
      "ķ": 244,
      "ĸ": 245,
      "Ĺ": 246,
      "ĺ": 247,
      "Ļ": 248,
      "ļ": 249,
      "Ľ": 250,
      "ľ": 251,
      "Ŀ": 252,
      "ŀ": 253,
      "Ł": 254,
      "ł": 255,
      "Ń": 256,
      "Ġt": 257,
      "Ġa": 258,
      "he": 259,
      "in": 260,
      "re": 261,
      "Ġthe": 262,
      "on": 263,
      "Ġs": 264,
      "er": 265,
      "at": 266,
      "Ġw": 267,
      "ou": 268,
      "Ġc": 269,
      "nd": 270,
      "Ġo": 271,
      "es": 272,
      "it": 273,
      "is": 274,
      "Ġb": 275,
      "ing": 276,
      "en": 277,
      "Ġf": 278,
      "Ġp": 279,
      "or": 280,
      "an": 281,
      "Ġm": 282,
      "al": 283,
      "Ġto": 284,
      "Ġd": 285,
      "ed": 286,
      "ar": 287,
      "Ġof": 288,
      "Ġand": 289,
      "Ġin": 290,
      "Ġh": 291,
      "le": 292,
      "Ġth": 293,
      "ic": 294,
      "as": 295,
      "ion": 296,
      "ro": 297,
      "Ġy": 298,
      "Ġl": 299,
      "ll": 300,
      "Ġg": 301,
      "ve": 302,
      "Ġyou": 303,
      "Ġn": 304,
      "Ġe": 305,
      "om": 306,
      "us": 307,
      "ent": 308,
      "Ġis": 309,
      "ct": 310,
      "et": 311,
      "Ġre": 312,
      "ly": 313,
      "ow": 314,
      "ot": 315,
      "ĠI": 316,
      "Ġbe": 317,
      "id": 318,
      "Ġon": 319,
      "im": 320,
      "ig": 321,
      "Ġthat": 322,
      "ay": 323,
      "Ġit": 324,
      "ĠT": 325,
      "Ġfor": 326,
      "st": 327,
      "ut": 328,
      "ce": 329,
      "Ġhe": 330,
      "ra": 331,
      "ch": 332,
      "ĠA": 333,
      "Ġst": 334,
      "ir": 335,
      "ld": 336,
      "ver": 337,
      "'s": 338,
      "se": 339,
      "Ġha": 340,
      "OT": 341,
      "MOT": 342,
      "oo": 343,
      "ur": 344,
      "ith": 345,
      "ation": 346,
      "am": 347,
      "ĠS": 348,
      "Ġare": 349,
      "ke": 350,
      "Ġwith": 351,
      "Ġwh": 352,
      "Ġwe": 353,
      "Ġan": 354,
      "if": 355,
      "CH": 356,
      "il": 357,
      "Ġas": 358,
      "CHI": 359,
      "ad": 360,
      "ĠC": 361,
      "ol": 362,
      "ter": 363,
      "her": 364,
      "Ġpro": 365,
      "ul": 366,
      "out": 367,
      "un": 368,
      "igh": 369,
      "Ġor": 370,
      "Ġcan": 371,
      "ill": 372,
      "Ġcon": 373,
      "est": 374,
      "ge": 375,
      "pe": 376,
      "um": 377,
      "th": 378,
      "ĠThe": 379,
      "Ġse": 380,
      "Ġmo": 381,
      "ĠM": 382,
      "ant": 383,
      "ĠW": 384,
      "Ġdo": 385,
      "Ġcom": 386,
      "ure": 387,
      "ck": 388,
      "ĠB": 389,
      "ess": 390,
      "Ġwas": 391,
      "ab": 392,
      "ight": 393,
      "ate": 394,
      "Ġr": 395,
      "ers": 396,
      "Ġde": 397,
      "qu": 398,
      "Ġat": 399,
      "Ġyour": 400,
      "ive": 401,
      "ain": 402,
      "Ġex": 403,
      "up": 404,
      "ĠP": 405,
      "Ġhave": 406,
      "Ġne": 407,
      "op": 408,
      "and": 409,
      "Ġsh": 410,
      "Ġus": 411,
      "'t": 412,
      "Ġnot": 413,
      "rom": 414,
      "ri": 415,
      "ist": 416,
      "Ġv": 417,
      "ĠH": 418,
      "em": 419,
      "Ġk": 420,
      "Ġch": 421,
      "our": 422,
      "ust": 423,
      "âĢ": 424,
      "os": 425,
      "ould": 426,
      "Ġal": 427,
      "Ġthis": 428,
      "ome": 429,
      "ity": 430,
      "ment": 431,
      "Ġle": 432,
      "..": 433,
      "ĠD": 434,
      "Ġfrom": 435,
      "ies": 436,
      "all": 437,
      "Ġme": 438,
      "Ġ(": 439,
      "Ġ1": 440,
      "gh": 441,
      "Ġpl": 442,
      "res": 443,
      "ort": 444,
      "hat": 445,
      "art": 446,
      "ally": 447,
      "ĠF": 448,
      "el": 449,
      "Ġby": 450,
      "fe": 451,
      "Ġthey": 452,
      "Ġab": 453,
      "nt": 454,
      "red": 455,
      "Ġso": 456,
      "Ġli": 457,
      "Ġwhe": 458,
      "ard": 459,
      "ak": 460,
      "ud": 461,
      "ood": 462,
      "rou": 463,
      "pp": 464,
      "ĠR": 465,
      "te": 466,
      "Ġen": 467,
      "ĠE": 468,
      "ide": 469,
      "The": 470,
      "Ġall": 471,
      "ie": 472,
      "Ġgo": 473,
      "ci": 474,
      "ook": 475,
      "ake": 476,
      "ine": 477,
      "Ġj": 478,
      "per": 479,
      "ĠN": 480,
      "Ġwor": 481,
      "Ġ2": 482,
      "ĠG": 483,
      "Ġ\"": 484,
      "ĠL": 485,
      "od": 486,
      "ich": 487,
      "Ġone": 488,
      "now": 489,
      "Ġsu": 490,
      "iv": 491,
      "ction": 492,
      "Ġwill": 493,
      "ther": 494,
      "Ġbut": 495,
      "Ġte": 496,
      "ry": 497,
      "ast": 498,
      "pt": 499,
      "ag": 500,
      "Ġup": 501,
      "Ġtheir": 502,
      "ind": 503,
      "Ġout": 504,
      "one": 505,
      "ack": 506,
      "Ġim": 507,
      "pl": 508,
      "age": 509,
      "og": 510,
      "ac": 511,
      "Ġmore": 512,
      "ong": 513,
      "ater": 514,
      "ns": 515,
      "Ġlike": 516,
      "ore": 517,
      "ĠO": 518,
      "so": 519,
      "Ġthere": 520,
      "Ġknow": 521,
      "iz": 522,
      "very": 523,
      "ous": 524,
      "Ġad": 525,
      "du": 526,
      "Ġcomp": 527,
      "are": 528,
      "act": 529,
      "Ġsa": 530,
      "Ġthem": 531,
      "ated": 532,
      "ans": 533,
      "able": 534,
      "ice": 535,
      "Ġhas": 536,
      "Ġabout": 537,
      "Ġcl": 538,
      "Ġwhat": 539,
      "Ġint": 540,
      "ical": 541,
      "ep": 542,
      "Ġwhich": 543,
      "ance": 544,
      "Ġman": 545,
      "aus": 546,
      "Ġfe": 547,
      "Ġtim": 548,
      "Ġsome": 549,
      "ame": 550,
      "ach": 551,
      "00": 552,
      "ap": 553,
      "Ġsp": 554,
      "Ġun": 555,
      "ru": 556,
      "Ġother": 557,
      "ult": 558,
      "Ġget": 559,
      "ip": 560,
      "ink": 561,
      "cc": 562,
      "ib": 563,
      "Ġcont": 564,
      "ition": 565,
      "estion": 566,
      "Ġwhen": 567,
      "ĠIt": 568,
      "Ġdis": 569,
      "Ġmy": 570,
      "Ġif": 571,
      "Ġinc": 572,
      "Ġhis": 573,
      "ear": 574,
      "ell": 575,
      "Ġro": 576,
      "his": 577,
      "ace": 578,
      "ah": 579,
      "...": 580,
      "Ġco": 581,
      "Ġspe": 582,
      "ial": 583,
      "av": 584,
      "und": 585,
      "ass": 586,
      "ough": 587,
      "wer": 588,
      "ĠJ": 589,
      "ite": 590,
      "Ġres": 591,
      "reat": 592,
      "ick": 593,
      "ose": 594,
      "Ġher": 595,
      "ĠU": 596,
      "ase": 597,
      "ber": 598,
      "You": 599,
      "orm": 600,
      "vel": 601,
      "ound": 602,
      "Ġany": 603,
      "Ġwere": 604,
      "ence": 605,
      "Ġqu": 606,
      "Qu": 607,
      "Ġalso": 608,
      "port": 609,
      "Ġhad": 610,
      "Ġshe": 611,
      "ne": 612,
      "ary": 613,
      "ild": 614,
      "ations": 615,
      "ents": 616,
      "ays": 617,
      "ress": 618,
      "Ġpre": 619,
      "ire": 620,
      "Ġtime": 621,
      "ĠIn": 622,
      "ause": 623,
      "ven": 624,
      "Ġfl": 625,
      "Ġpe": 626,
      "Ġno": 627,
      "oc": 628,
      "ens": 629,
      "Ġper": 630,
      "Ġover": 631,
      "ign": 632,
      "ue": 633,
      "ors": 634,
      "Ġinto": 635,
      "Ġwork": 636,
      "Ġjust": 637,
      "ree": 638,
      "ia": 639,
      "ings": 640,
      "Ġdon": 641,
      "Ġwould": 642,
      "'re": 643,
      "row": 644,
      "Ġwho": 645,
      "Ġbl": 646,
      "Ġbec": 647,
      "ile": 648,
      "Ġneed": 649,
      "Ġthan": 650,
      "Ġhow": 651,
      "itt": 652,
      "Ġpart": 653,
      "we": 654,
      "Question": 655,
      "ren": 656,
      "ff": 657,
      "nswer": 658,
      "ish": 659,
      "Ġar": 660,
      "Ġtw": 661,
      "ĠAnswer": 662,
      "ang": 663,
      "Ġtra": 664,
      "Ġbeen": 665,
      "hy": 666,
      "Ġpo": 667,
      "Ġlook": 668,
      "Ġoff": 669,
      "Ġmay": 670,
      "ond": 671,
      "Ġag": 672,
      "Ġsee": 673,
      "Ġbet": 674,
      "Ġdif": 675,
      "les": 676,
      "own": 677,
      "Ġthese": 678,
      "ces": 679,
      "ĠâĢ": 680,
      "Ġhel": 681,
      "ount": 682,
      "ople": 683,
      "eah": 684,
      "Ġsy": 685,
      "ord": 686,
      "rent": 687,
      "ions": 688,
      "Ġwant": 689,
      "rough": 690,
      "Ġour": 691,
      "Ġuse": 692,
      "eth": 693,
      "int": 694,
      "fect": 695,
      "Ġmake": 696,
      "ĠThis": 697,
      "IN": 698,
      "ark": 699,
      "Ġhelp": 700,
      "Ġthen": 701,
      "Ġapp": 702,
      "Ġdid": 703,
      "Ġthink": 704,
      "als": 705,
      "ĠK": 706,
      "Ġaf": 707,
      "ple": 708,
      "ub": 709,
      "Ġund": 710,
      "ning": 711,
      "round": 712,
      "Ġam": 713,
      "the": 714,
      "Ġhim": 715,
      "Ġtr": 716,
      "Ġra": 717,
      "Ġsc": 718,
      "Ġcar": 719,
      "Ġcomm": 720,
      "ĠWhat": 721,
      "Ġpeople": 722,
      "irst": 723,
      "ric": 724,
      "oh": 725,
      "ating": 726,
      "Ġwater": 727,
      "ory": 728,
      "Ġyear": 729,
      "Ġits": 730,
      "no": 731,
      "xx": 732,
      "ific": 733,
      "Ġ20": 734,
      "Ġtwo": 735,
      "ons": 736,
      "Ġcould": 737,
      "Ġshould": 738,
      "Ġback": 739,
      "Ġcons": 740,
      "ving": 741,
      "form": 742,
      "Ġsaid": 743,
      "ool": 744,
      "Ġunder": 745,
      "ail": 746,
      "cess": 747,
      "erm": 748,
      "Ġsm": 749,
      "ari": 750,
      "lect": 751,
      "Ġused": 752,
      "Ġdes": 753,
      "'m": 754,
      "Ġdoes": 755,
      "Ġrec": 756,
      "Ġnew": 757,
      "ĠHe": 758,
      "Ġonly": 759,
      "Ġ3": 760,
      "ft": 761,
      "Ġstud": 762,
      "Ġright": 763,
      "Ġcol": 764,
      "Ġind": 765,
      "Ġdiffe": 766,
      "ove": 767,
      "mer": 768,
      "ĠSt": 769,
      "Ġgood": 770,
      "Ġwell": 771,
      "Ġvery": 772,
      "Ġmost": 773,
      "oy": 774,
      "ble": 775,
      "ise": 776,
      "ost": 777,
      "olog": 778,
      "hes": 779,
      "Ġwhere": 780,
      "'ll": 781,
      "Ġsuch": 782,
      "fore": 783,
      "dition": 784,
      "Ġhere": 785,
      "Ġact": 786,
      "ĠCh": 787,
      "oth": 788,
      "ting": 789,
      "ved": 790,
      "hed": 791,
      "Ġthrough": 792,
      "xt": 793,
      "Ġ19": 794,
      ".\"": 795,
      "Ġfirst": 796,
      "ect": 797,
      "ates": 798,
      "Ġway": 799,
      "vers": 800,
      "Ġdown": 801,
      "uch": 802,
      "Ġgen": 803,
      "ature": 804,
      "sel": 805,
      "ular": 806,
      "ade": 807,
      "Ġbu": 808,
      "other": 809,
      "lud": 810,
      "INV": 811,
      "ph": 812,
      "Ġnow": 813,
      "aking": 814,
      "ange": 815,
      "stem": 816,
      "hen": 817,
      "Ġprodu": 818,
      "Ġke": 819,
      "Ġacc": 820,
      "ower": 821,
      "ĠV": 822,
      "Ġsup": 823,
      "oss": 824,
      "Ġgot": 825,
      "end": 826,
      "Ġmany": 827,
      "Ġlong": 828,
      "Ġrem": 829,
      "uring": 830,
      "ife": 831,
      "iss": 832,
      "alth": 833,
      "ob": 834,
      "Ġfo": 835,
      "Ġevery": 836,
      "Ġtoo": 837,
      "ful": 838,
      "Ġdi": 839,
      "'ve": 840,
      "Ġbecause": 841,
      "what": 842,
      "AT": 843,
      "ull": 844,
      "ility": 845,
      "ram": 846,
      "It": 847,
      "ittle": 848,
      "ĠY": 849,
      "ves": 850,
      "wn": 851,
      "get": 852,
      ").": 853,
      "Ġser": 854,
      "na": 855,
      "Ġinclud": 856,
      "here": 857,
      "its": 858,
      "cial": 859,
      "ian": 860,
      "vent": 861,
      "Ġmuch": 862,
      "Ġprov": 863,
      "Ġpr": 864,
      "Ġplay": 865,
      "Ġimp": 866,
      "].": 867,
      "ics": 868,
      "Ġafter": 869,
      "tain": 870,
      "Ġsur": 871,
      "ĠĠ": 872,
      "ks": 873,
      "ced": 874,
      "Ġrel": 875,
      "ject": 876,
      "Ġreg": 877,
      "Ġtake": 878,
      "Ġeven": 879,
      "ities": 880,
      "ments": 881,
      "gg": 882,
      "Ġsystem": 883,
      "you": 884,
      "Ġhigh": 885,
      "Ġac": 886,
      "au": 887,
      "Ġlittle": 888,
      "ually": 889,
      "ual": 890,
      "Ġdifferent": 891,
      "ative": 892,
      "âĢĻ": 893,
      "ave": 894,
      "ible": 895,
      "Ġgoing": 896,
      "ath": 897,
      "lic": 898,
      "Ġche": 899,
      "ily": 900,
      ",\"": 901,
      "Ġty": 902,
      "arm": 903,
      "urn": 904,
      "Ġspec": 905,
      "Ġinter": 906,
      "Ġbr": 907,
      "ts": 908,
      "cy": 909,
      "ty": 910,
      "ween": 911,
      "ather": 912,
      "Ġem": 913,
      "Ġcall": 914,
      "Ġsom": 915,
      "be": 916,
      "What": 917,
      "ased": 918,
      "Ġput": 919,
      "Ġ'": 920,
      "air": 921,
      "Ġ[": 922,
      "ody": 923,
      "way": 924,
      "Ġsay": 925,
      "akes": 926,
      "Ġhand": 927,
      "ĠYou": 928,
      "ants": 929,
      "atter": 930,
      "Ġob": 931,
      "Ġbetween": 932,
      "ĠThey": 933,
      "ps": 934,
      "Ġph": 935,
      "li": 936,
      "Ġbefore": 937,
      "chn": 938,
      "Ġdec": 939,
      "In": 940,
      "old": 941,
      "ious": 942,
      "ract": 943,
      "ins": 944,
      "Ġfood": 945,
      "Ġhealth": 946,
      "Ġfind": 947,
      "ock": 948,
      "Ġmin": 949,
      "Ġmod": 950,
      "Ġtrans": 951,
      "yeah": 952,
      "alk": 953,
      "Ġimport": 954,
      "Ġchild": 955,
      "Ġ-": 956,
      "ward": 957,
      "ten": 958,
      "velop": 959,
      "Ġear": 960,
      "Ġcre": 961,
      "Ġexper": 962,
      "Ġ4": 963,
      "Ġmade": 964,
      "Ġinst": 965,
      "erg": 966,
      "Ġsim": 967,
      "llow": 968,
      "ever": 969,
      "Ġgu": 970,
      "Ġgl": 971,
      "pect": 972,
      "Ġlight": 973,
      "rit": 974,
      "ness": 975,
      "Ġform": 976,
      "ize": 977,
      "ĠHow": 978,
      "Ġthough": 979,
      "Ġyears": 980,
      "Ġsub": 981,
      "Ġsk": 982,
      "Ġstart": 983,
      "ef": 984,
      "Ġgrow": 985,
      "gan": 986,
      "ĠIf": 987,
      "Ġagain": 988,
      "Ġset": 989,
      "Ġcome": 990,
      "Ġfound": 991,
      "ng": 992,
      "Ġthose": 993,
      "ĠUn": 994,
      "Ġnum": 995,
      "Ġeach": 996,
      "Ġdet": 997,
      "ix": 998,
      "ines": 999,
      "Ġatt": 1000,
      "Ġvari": 1001,
      "Ġcle": 1002,
      "ffect": 1003,
      "Ġbel": 1004,
      "Ġmain": 1005,
      "Ġread": 1006,
      "He": 1007,
      "Ġpres": 1008,
      "ont": 1009,
      "kay": 1010,
      "Ġwhile": 1011,
      "Ġair": 1012,
      "Ġprocess": 1013,
      "Ġaround": 1014,
      "yes": 1015,
      "that": 1016,
      "Ġsec": 1017,
      "Ġusing": 1018,
      "self": 1019,
      "Ġday": 1020,
      "read": 1021,
      "Ġ201": 1022,
      "Ġdevelop": 1023,
      "Ġpers": 1024,
      "Ġbo": 1025,
      "arch": 1026,
      "uh": 1027,
      "Ġins": 1028,
      "âĢĿ": 1029,
      "Ġadd": 1030,
      "Ġhome": 1031,
      "Ġbeing": 1032,
      "Ġlar": 1033,
      "ss": 1034,
      "ouse": 1035,
      "omm": 1036,
      "orn": 1037,
      "FAT": 1038,
      "Ġown": 1039,
      "Ġ5": 1040,
      "Ġgra": 1041,
      "Ġshow": 1042,
      "chool": 1043,
      "ures": 1044,
      "ural": 1045,
      "Ġtechn": 1046,
      "Ġinv": 1047,
      "Ġsame": 1048,
      "ĠWe": 1049,
      "ict": 1050,
      "Ġhapp": 1051,
      "Ġlife": 1052,
      "ution": 1053,
      "day": 1054,
      "AR": 1055,
      "Ġlear": 1056,
      "Ġsmall": 1057,
      "iron": 1058,
      "ething": 1059,
      "Ġsign": 1060,
      "stand": 1061,
      "Ġfun": 1062,
      "Ġeffect": 1063,
      "Ġhum": 1064,
      "Ġinte": 1065,
      "ational": 1066,
      "Ġgener": 1067,
      "ĠâĢĵ": 1068,
      "Ġsl": 1069,
      "ird": 1070,
      "Ġimportant": 1071,
      "cl": 1072,
      "aw": 1073,
      "Ġlet": 1074,
      "Ġend": 1075,
      "ank": 1076,
      "sh": 1077,
      "Ġworld": 1078,
      "We": 1079,
      "ĠWh": 1080,
      "ctions": 1081,
      "Ġkeep": 1082,
      "Ġdist": 1083,
      "Ġreally": 1084,
      "Ġdog": 1085,
      "xxx": 1086,
      "rib": 1087,
      "),": 1088,
      "atch": 1089,
      "Ġstr": 1090,
      "augh": 1091,
      "ited": 1092,
      "ety": 1093,
      "Ġrequ": 1094,
      "ology": 1095,
      "Ġsomething": 1096,
      "Ġexp": 1097,
      "Ġmon": 1098,
      "thing": 1099,
      "Ġcare": 1100,
      "Ġexam": 1101,
      "Ġdisc": 1102,
      "ied": 1103,
      "ec": 1104,
      "Ġrese": 1105,
      "ically": 1106,
      "Ġstill": 1107,
      "ms": 1108,
      "cept": 1109,
      "ets": 1110,
      "ues": 1111,
      "Ġev": 1112,
      "Ġprote": 1113,
      "Ġve": 1114,
      "Ġcur": 1115,
      "ages": 1116,
      "land": 1117,
      "Ġart": 1118,
      "Ġbest": 1119,
      "ality": 1120,
      "Ġeas": 1121,
      "ew": 1122,
      "Ġgreat": 1123,
      "ential": 1124,
      "ĠTh": 1125,
      "And": 1126,
      "Ġmight": 1127,
      "Ġboth": 1128,
      "Ġduring": 1129,
      "Ġfollow": 1130,
      "Ġsol": 1131,
      "Ġav": 1132,
      "Ġfact": 1133,
      "Ġbetter": 1134,
      "let": 1135,
      "Ġmust": 1136,
      "reen": 1137,
      "ists": 1138,
      "Ġthings": 1139,
      "ient": 1140,
      "Ġmed": 1141,
      "ĠAnd": 1142,
      "Ġent": 1143,
      "Ġthree": 1144,
      "ys": 1145,
      "Ġold": 1146,
      "ized": 1147,
      "ider": 1148,
      "ergy": 1149,
      "ute": 1150,
      "rop": 1151,
      "Ġpoint": 1152,
      "Ġmean": 1153,
      "ĠAs": 1154,
      "Ġanim": 1155,
      "Ġpot": 1156,
      "cer": 1157,
      "Ġvis": 1158,
      "Ġop": 1159,
      "eng": 1160,
      "Ġelect": 1161,
      "iqu": 1162,
      "Ġallow": 1163,
      "Ġperson": 1164,
      "Ġincre": 1165,
      "Ġproble": 1166,
      "led": 1167,
      "Ġbig": 1168,
      "ways": 1169,
      "viron": 1170,
      "Ġass": 1171,
      "ats": 1172,
      "uc": 1173,
      "any": 1174,
      "Ġlot": 1175,
      "Ġlevel": 1176,
      "ĠAl": 1177,
      "io": 1178,
      "ĠSo": 1179,
      "ident": 1180,
      "Ġtem": 1181,
      "ince": 1182,
      "aterial": 1183,
      "Ġfeel": 1184,
      "--": 1185,
      "Ġext": 1186,
      "ases": 1187,
      "Ġbook": 1188,
      "ars": 1189,
      "This": 1190,
      "Ġtell": 1191,
      "ĠAn": 1192,
      "Ġchar": 1193,
      "Ġpop": 1194,
      "ork": 1195,
      "Ġplace": 1196,
      "tern": 1197,
      "Ġresult": 1198,
      "Ġap": 1199,
      "Ġref": 1200,
      "Ġdesign": 1201,
      "Ġed": 1202,
      "Ġlead": 1203,
      "ale": 1204,
      "ason": 1205,
      "Ġloc": 1206,
      "ĠBut": 1207,
      "Ġfam": 1208,
      "Ġoften": 1209,
      "Ġexpl": 1210,
      "Ġbre": 1211,
      "riend": 1212,
      "Ġsw": 1213,
      "Ġanother": 1214,
      "Ġhead": 1215,
      "ides": 1216,
      "ash": 1217,
      "Ġprog": 1218,
      "ices": 1219,
      "Ġaut": 1220,
      "Ġaway": 1221,
      "Ġgiv": 1222,
      "Ġrep": 1223,
      "ax": 1224,
      "ĠFor": 1225,
      "Ġcount": 1226,
      "Ġpartic": 1227,
      "Ġless": 1228,
      "Ġ6": 1229,
      "Ġposs": 1230,
      "ĠPro": 1231,
      "Ġtry": 1232,
      "ined": 1233,
      "Ġunderstand": 1234,
      "Ġnumber": 1235,
      "Ġval": 1236,
      "ared": 1237,
      "der": 1238,
      "Ġinform": 1239,
      "ger": 1240,
      "ĠRe": 1241,
      "Ġfin": 1242,
      "Ġcalled": 1243,
      "Ġsure": 1244,
      "do": 1245,
      "Ġrun": 1246,
      "Ġlast": 1247,
      "ining": 1248,
      "rap": 1249,
      "Ġschool": 1250,
      "Ġmaterial": 1251,
      "meric": 1252,
      "rol": 1253,
      "How": 1254,
      "Ġdr": 1255,
      "Ġbody": 1256,
      "vironment": 1257,
      "ired": 1258,
      "iew": 1259,
      "ruct": 1260,
      "Ġdra": 1261,
      "rest": 1262,
      "Ġmet": 1263,
      "ye": 1264,
      "ata": 1265,
      "Ġgive": 1266,
      "Ġel": 1267,
      "ĠThere": 1268,
      "ember": 1269,
      "Ġenergy": 1270,
      "Ġwhy": 1271,
      "ling": 1272,
      "Ġcell": 1273,
      "Ġredu": 1274,
      "Ġadv": 1275,
      "Ġcomple": 1276,
      "If": 1277,
      "ush": 1278,
      "Ġtyp": 1279,
      "ivers": 1280,
      "less": 1281,
      "Ġfew": 1282,
      "Ġexperi": 1283,
      "Ġpain": 1284,
      "Ġinf": 1285,
      "ield": 1286,
      "Ġsci": 1287,
      "Ġeng": 1288,
      "ner": 1289,
      "Ġgr": 1290,
      "Ġnever": 1291,
      "Ġtop": 1292,
      "Ġopt": 1293,
      "Ġwithout": 1294,
      "de": 1295,
      "ross": 1296,
      "til": 1297,
      "Ġ200": 1298,
      "ency": 1299,
      "Ġpur": 1300,
      "erv": 1301,
      "Ġbeh": 1302,
      "Ġcent": 1303,
      "ional": 1304,
      "els": 1305,
      "Ġknown": 1306,
      "pend": 1307,
      "Ġcor": 1308,
      "Ġcommon": 1309,
      "Ġcommun": 1310,
      "Ġmaking": 1311,
      "But": 1312,
      "Ġcondition": 1313,
      "apt": 1314,
      "ids": 1315,
      "Ġpower": 1316,
      "Ġhard": 1317,
      "ott": 1318,
      "Ġdire": 1319,
      "ĠAmeric": 1320,
      "put": 1321,
      "Ġclass": 1322,
      "imate": 1323,
      "ffic": 1324,
      "ters": 1325,
      "Ġtest": 1326,
      "ivid": 1327,
      "my": 1328,
      "Ġbra": 1329,
      "Ġplan": 1330,
      "Ġproper": 1331,
      "Ġide": 1332,
      "Ġequ": 1333,
      "cing": 1334,
      "Ġthing": 1335,
      "where": 1336,
      "No": 1337,
      "Ġstand": 1338,
      "Ġplant": 1339,
      "Ġbuild": 1340,
      "ering": 1341,
      "Ġchildren": 1342,
      "Ġwee": 1343,
      "Ġ10": 1344,
      "hys": 1345,
      "Ġreal": 1346,
      "Ġalways": 1347,
      "20": 1348,
      "Ġcour": 1349,
      "Ġask": 1350,
      "onna": 1351,
      "ier": 1352,
      "Ġopen": 1353,
      "me": 1354,
      "Ġwr": 1355,
      "Ġdoing": 1356,
      "Ġresp": 1357,
      "Ġhouse": 1358,
      "Ġproduct": 1359,
      "Ġstudents": 1360,
      "ug": 1361,
      "ism": 1362,
      "Ġtre": 1363,
      "Ġtalk": 1364,
      "Ġkind": 1365,
      "ried": 1366,
      "Ġdidn": 1367,
      "Ġtemper": 1368,
      "cent": 1369,
      "pr": 1370,
      "cle": 1371,
      "rence": 1372,
      "ium": 1373,
      "Ġben": 1374,
      "Ġrest": 1375,
      "ips": 1376,
      "Ġlarge": 1377,
      "oney": 1378,
      "ape": 1379,
      "Ġtreat": 1380,
      "ished": 1381,
      "Ġprof": 1382,
      "Ġname": 1383,
      "Ġenvironment": 1384,
      "ense": 1385,
      "ĠTo": 1386,
      "lease": 1387,
      "uck": 1388,
      "ral": 1389,
      "Ġbit": 1390,
      "Ġmus": 1391,
      "Ġens": 1392,
      "bs": 1393,
      "Ġocc": 1394,
      "acter": 1395,
      "iness": 1396,
      "Ġorgan": 1397,
      "ĠAr": 1398,
      "Ġinformation": 1399,
      "Ġspecies": 1400,
      "ĠThese": 1401,
      "Oh": 1402,
      "Ġxxx": 1403,
      "Ġbro": 1404,
      "ethod": 1405,
      "Ġret": 1406,
      "Ġfriend": 1407,
      "Ġdone": 1408,
      "Ġcr": 1409,
      "Ġgonna": 1410,
      "br": 1411,
      "Ġcolor": 1412,
      "Ġer": 1413,
      "az": 1414,
      "ime": 1415,
      "That": 1416,
      "Ġbus": 1417,
      "Ġele": 1418,
      "Ġenough": 1419,
      "to": 1420,
      "So": 1421,
      "amp": 1422,
      "Ġchange": 1423,
      "'d": 1424,
      "Ġpos": 1425,
      "Ġmove": 1426,
      "Yeah": 1427,
      "ulation": 1428,
      "Ġ8": 1429,
      "Ġchang": 1430,
      "There": 1431,
      "ron": 1432,
      "oun": 1433,
      "Ġbi": 1434,
      "bab": 1435,
      "Ġpress": 1436,
      "Ġtemperature": 1437,
      "ator": 1438,
      "Ġbas": 1439,
      "aring": 1440,
      "Ġprogram": 1441,
      "Ġsit": 1442,
      "Ġsupport": 1443,
      "Ġpol": 1444,
      "ries": 1445,
      "hm": 1446,
      "ieve": 1447,
      "Ġpass": 1448,
      "ĠSe": 1449,
      "Ġturn": 1450,
      "Ġland": 1451,
      "oms": 1452,
      "Ġquestion": 1453,
      "Ġimpro": 1454,
      "ĠSh": 1455,
      "Ġlove": 1456,
      "Ġgrou": 1457,
      "Ġmark": 1458,
      "ĠWhen": 1459,
      "outh": 1460,
      "Ġstudy": 1461,
      "Ġincluding": 1462,
      "Ġsecond": 1463,
      "pos": 1464,
      "Ġphot": 1465,
      "Ġstate": 1466,
      "Ġprovide": 1467,
      "Ġresearch": 1468,
      "ane": 1469,
      "oes": 1470,
      "ĠAd": 1471,
      "wh": 1472,
      "Ġ7": 1473,
      "Ġdoesn": 1474,
      "Ġdata": 1475,
      "Ġthought": 1476,
      "Ġword": 1477,
      "Ġris": 1478,
      "ex": 1479,
      "Ġdef": 1480,
      "Ġnat": 1481,
      "Ġexample": 1482,
      "man": 1483,
      "Ġnext": 1484,
      "irl": 1485,
      "ots": 1486,
      "Ġeat": 1487,
      "PAR": 1488,
      "ital": 1489,
      "aj": 1490,
      "Ġfull": 1491,
      "Ġlearn": 1492,
      "ertain": 1493,
      "ior": 1494,
      "000": 1495,
      "Ġclean": 1496,
      "Ġfour": 1497,
      "hers": 1498,
      "ĠShe": 1499,
      "ention": 1500,
      "Ġdise": 1501,
      "ording": 1502,
      "Ġmethod": 1503,
      "Ġcreat": 1504,
      "sc": 1505,
      "Ġconf": 1506,
      "Ġcontin": 1507,
      "not": 1508,
      "Ġappe": 1509,
      "ently": 1510,
      "right": 1511,
      "Ġiss": 1512,
      "Ġcut": 1513,
      "Ġarea": 1514,
      "Ġseem": 1515,
      "Ġpract": 1516,
      "Ġside": 1517,
      "ains": 1518,
      "Ġcook": 1519,
      "itive": 1520,
      "line": 1521,
      "Ġste": 1522,
      "Ġable": 1523,
      "Ġcal": 1524,
      "over": 1525,
      "ĠĠĠĠ": 1526,
      "Ġstep": 1527,
      "Ġcaus": 1528,
      "Ġcontrol": 1529,
      "Well": 1530,
      "ctor": 1531,
      "Ġlow": 1532,
      "Ġterm": 1533,
      "ĠBe": 1534,
      "Ġspecific": 1535,
      "ER": 1536,
      "Ġperform": 1537,
      "ĠâĢľ": 1538,
      "Ġpat": 1539,
      "Ġmeans": 1540,
      "agn": 1541,
      "Ġhy": 1542,
      "Ġmil": 1543,
      "Ġuntil": 1544,
      "Ġappro": 1545,
      "Ġwent": 1546,
      "uss": 1547,
      "Ġactiv": 1548,
      "âĢľ": 1549,
      "Ġbenef": 1550,
      "Ġisn": 1551,
      "Ġbab": 1552,
      "Ġcause": 1553,
      "add": 1554,
      "Ġwind": 1555,
      "okay": 1556,
      "ĠDe": 1557,
      "Ġhuman": 1558,
      "ĠInd": 1559,
      "Ġplants": 1560,
      "gin": 1561,
      "Ġwa": 1562,
      "Ġindivid": 1563,
      "Ġpresent": 1564,
      "ards": 1565,
      "of": 1566,
      "Ġpub": 1567,
      "Ġhappen": 1568,
      "ify": 1569,
      "Ġtype": 1570,
      "Ġtext": 1571,
      "Ġnear": 1572,
      "Ġlist": 1573,
      "Ġmeas": 1574,
      "Ġcreate": 1575,
      "ted": 1576,
      "Ġcost": 1577,
      "Ġwithin": 1578,
      "con": 1579,
      "com": 1580,
      "ĠIs": 1581,
      "aper": 1582,
      "Ġlo": 1583,
      "Ġtoget": 1584,
      "Ġcap": 1585,
      "Ġtogether": 1586,
      "Ġinterest": 1587,
      "Ġtimes": 1588,
      "oid": 1589,
      "aut": 1590,
      "Ġ9": 1591,
      "ones": 1592,
      "iversity": 1593,
      "Ġcame": 1594,
      "ĠHowever": 1595,
      "ump": 1596,
      "Ġcat": 1597,
      "Ġserv": 1598,
      "Ġtru": 1599,
      "Ġsing": 1600,
      "Ġphys": 1601,
      "Ġleft": 1602,
      "ique": 1603,
      "ope": 1604,
      "ĠCl": 1605,
      "Ġsurf": 1606,
      "Ġlay": 1607,
      "rodu": 1608,
      "Ġhour": 1609,
      "ills": 1610,
      "Ġconst": 1611,
      "Ġwon": 1612,
      "Ġsound": 1613,
      "there": 1614,
      "ision": 1615,
      "icle": 1616,
      "ï¿": 1617,
      "aces": 1618,
      "ï¿½": 1619,
      "ination": 1620,
      "Ġnight": 1621,
      "Ġmem": 1622,
      "bo": 1623,
      "ĠPl": 1624,
      "Ġprevent": 1625,
      "look": 1626,
      "Ġboy": 1627,
      "bers": 1628,
      "Ġsever": 1629,
      "Ġdays": 1630,
      "ĠNew": 1631,
      "Ġcourse": 1632,
      "Ġ.": 1633,
      "ĠMr": 1634,
      "Ġbird": 1635,
      "?\"": 1636,
      "ĠOn": 1637,
      "Ġes": 1638,
      "Ġsle": 1639,
      "Ġess": 1640,
      "NA": 1641,
      "ĠAf": 1642,
      "Ġfree": 1643,
      "Ġconsider": 1644,
      "Ġmakes": 1645,
      "âĢĶ": 1646,
      "Ġfamily": 1647,
      "Ġhold": 1648,
      "Ġbecome": 1649,
      "Ġalong": 1650,
      "orth": 1651,
      "Ġcurrent": 1652,
      "Th": 1653,
      "Ġcomb": 1654,
      "Ġmar": 1655,
      "arent": 1656,
      "Ġblood": 1657,
      "imes": 1658,
      "Ġprom": 1659,
      "Ġhaving": 1660,
      "fort": 1661,
      "ret": 1662,
      "Ġpossible": 1663,
      "hing": 1664,
      "Ġdam": 1665,
      "Ġroom": 1666,
      "ches": 1667,
      "Ġteam": 1668,
      "ny": 1669,
      "ccess": 1670,
      "Ġest": 1671,
      "Ġsince": 1672,
      "ream": 1673,
      "Ġimm": 1674,
      "ource": 1675,
      "When": 1676,
      "ern": 1677,
      "Ġproject": 1678,
      "ization": 1679,
      "aster": 1680,
      "Ġyoung": 1681,
      "ives": 1682,
      "Ġsym": 1683,
      "ware": 1684,
      "Ġinclude": 1685,
      "Ġoper": 1686,
      "Ġgirl": 1687,
      "Ġactually": 1688,
      "Ġstop": 1689,
      "Ġneeds": 1690,
      "Ġdev": 1691,
      "ental": 1692,
      "ability": 1693,
      "Ġmonth": 1694,
      "ither": 1695,
      "Ġfil": 1696,
      "ĠFr": 1697,
      "Ġcomes": 1698,
      "iver": 1699,
      "par": 1700,
      "Ġnut": 1701,
      "Ġseveral": 1702,
      "Ġproblem": 1703,
      "Ġfollowing": 1704,
      "Ġcertain": 1705,
      "inal": 1706,
      "Ġmind": 1707,
      "Ġtool": 1708,
      "ead": 1709,
      "ĠThat": 1710,
      "Ġexperience": 1711,
      "att": 1712,
      "Ġsun": 1713,
      "most": 1714,
      "Ġpie": 1715,
      "Ġdue": 1716,
      "iting": 1717,
      "Ġgame": 1718,
      "Ġlooking": 1719,
      "Ġavail": 1720,
      "Ġhist": 1721,
      "oint": 1722,
      "Ġnatural": 1723,
      "alf": 1724,
      "Ġred": 1725,
      "ames": 1726,
      "utes": 1727,
      "Ġspace": 1728,
      "Ġvarious": 1729,
      "Ġheat": 1730,
      "Yes": 1731,
      "ĠCan": 1732,
      "Ġanything": 1733,
      "ients": 1734,
      "eds": 1735,
      "ĠBl": 1736,
      "Ġrepl": 1737,
      "Ġwom": 1738,
      "Ġever": 1739,
      "Ġfar": 1740,
      "Ġamount": 1741,
      "Ġmoney": 1742,
      "ton": 1743,
      "ring": 1744,
      "Ġdiff": 1745,
      "gen": 1746,
      "side": 1747,
      "ised": 1748,
      "arden": 1749,
      "Ġspecial": 1750,
      "oice": 1751,
      "Ġstra": 1752,
      "Ġcomput": 1753,
      "Ġsignific": 1754,
      "Ġsays": 1755,
      "une": 1756,
      "Ġprofess": 1757,
      "ration": 1758,
      "Ġinvol": 1759,
      "Ġareas": 1760,
      "Ġpar": 1761,
      "Ġgreen": 1762,
      "light": 1763,
      "Ġgetting": 1764,
      "ocus": 1765,
      "gs": 1766,
      "anna": 1767,
      "Ġaddition": 1768,
      "Ġhig": 1769,
      "ĠAt": 1770,
      "Ġwhite": 1771,
      "Ġcase": 1772,
      "Ġlive": 1773,
      "Ġfre": 1774,
      "ured": 1775,
      "Ġfr": 1776,
      "ances": 1777,
      "by": 1778,
      "ury": 1779,
      "Ġtoday": 1780,
      "Ġans": 1781,
      "As": 1782,
      "ories": 1783,
      "Ġcir": 1784,
      "hip": 1785,
      "Ġconne": 1786,
      "Ġonce": 1787,
      "Ġmen": 1788,
      "Ġwin": 1789,
      "Ġmot": 1790,
      "Ġline": 1791,
      "ilar": 1792,
      "aps": 1793,
      "10": 1794,
      "Ġopp": 1795,
      "Ġanimals": 1796,
      "iod": 1797,
      "ply": 1798,
      "Ġfish": 1799,
      "Ġseen": 1800,
      "Ġorder": 1801,
      "Ġshort": 1802,
      "Ġfall": 1803,
      "Ġlim": 1804,
      "ote": 1805,
      "Ġ18": 1806,
      "ered": 1807,
      "Ġpost": 1808,
      "Ġblack": 1809,
      "aves": 1810,
      "Ġquick": 1811,
      "Ġheart": 1812,
      "Wh": 1813,
      "ert": 1814,
      "Ġusually": 1815,
      "Ġeyes": 1816,
      "oose": 1817,
      "Ġdep": 1818,
      "soci": 1819,
      "can": 1820,
      "ĠEng": 1821,
      "Ġage": 1822,
      "Ġsoil": 1823,
      "Ġpressure": 1824,
      "Ġmill": 1825,
      "ajor": 1826,
      "Ġsize": 1827,
      "iding": 1828,
      "ately": 1829,
      "Ġcra": 1830,
      "cially": 1831,
      "atic": 1832,
      "âĢ¦": 1833,
      "Ġelse": 1834,
      "idd": 1835,
      "ified": 1836,
      "Ġagainst": 1837,
      "Ġgiven": 1838,
      "They": 1839,
      "Ġident": 1840,
      "Ġbaby": 1841,
      "Ġstruct": 1842,
      "Ġvol": 1843,
      "etic": 1844,
      "urther": 1845,
      "Ġtur": 1846,
      "osp": 1847,
      "ĠNo": 1848,
      "ences": 1849,
      "icro": 1850,
      "cted": 1851,
      "Ġfore": 1852,
      "Ġavailable": 1853,
      "Ġflow": 1854,
      "Ġprobab": 1855,
      "Ġearly": 1856,
      "ina": 1857,
      "Ġmatter": 1858,
      "Ġant": 1859,
      "wards": 1860,
      "Ġball": 1861,
      "Ġdeterm": 1862,
      "Ġbased": 1863,
      "Ġfunction": 1864,
      "Ġothers": 1865,
      "Ġworking": 1866,
      "fer": 1867,
      "rown": 1868,
      "lish": 1869,
      "\".": 1870,
      "Ġengine": 1871,
      "Ġleast": 1872,
      "Ġquite": 1873,
      "tend": 1874,
      "Ġclose": 1875,
      "Ġaffect": 1876,
      "ery": 1877,
      "Ġrequire": 1878,
      "Ġfeature": 1879,
      "Ġrange": 1880,
      "Ġfield": 1881,
      "Ġground": 1882,
      "Ġoccur": 1883,
      "hor": 1884,
      "Ġsal": 1885,
      "ĠEx": 1886,
      "Ġsuccess": 1887,
      "Ġpri": 1888,
      "Ġanal": 1889,
      "Ġfocus": 1890,
      "Ġsugg": 1891,
      "Ġcells": 1892,
      "ĠAmerican": 1893,
      "Ġscient": 1894,
      "19": 1895,
      "Ġmult": 1896,
      "Ġeye": 1897,
      "ires": 1898,
      "Ġstrong": 1899,
      "etimes": 1900,
      "ung": 1901,
      "pped": 1902,
      "AD": 1903,
      "Ġsum": 1904,
      "Ġbreak": 1905,
      "Ġparticular": 1906,
      "but": 1907,
      "Ġrad": 1908,
      "ready": 1909,
      "Ġsignificant": 1910,
      "work": 1911,
      "Ġcheck": 1912,
      "ok": 1913,
      "af": 1914,
      "ĠSp": 1915,
      "ĠBy": 1916,
      "uff": 1917,
      "Ġz": 1918,
      "ided": 1919,
      "Ġbusiness": 1920,
      "ources": 1921,
      "ĠZ": 1922,
      "cri": 1923,
      "Ġstay": 1924,
      "Ġdem": 1925,
      "Ġmaterials": 1926,
      "St": 1927,
      "mm": 1928,
      "Ġfive": 1929,
      "Ġdig": 1930,
      "Ġdri": 1931,
      "room": 1932,
      "Ġgroup": 1933,
      "Ġbed": 1934,
      "ĠLe": 1935,
      "Ġindust": 1936,
      "Ġreason": 1937,
      "view": 1938,
      "Ġlearning": 1939,
      "Ġeasy": 1940,
      "Ġdepend": 1941,
      "ption": 1942,
      "EX": 1943,
      "Ġwar": 1944,
      "Ġgre": 1945,
      "Ġtypes": 1946,
      "Ġacross": 1947,
      "oor": 1948,
      "Ġeduc": 1949,
      "Ġdevelopment": 1950,
      "cul": 1951,
      "icult": 1952,
      "Ġimpact": 1953,
      "Ġegg": 1954,
      "Ġbuy": 1955,
      "Ġ$": 1956,
      "ĠWith": 1957,
      "Ġmom": 1958,
      "Ġrece": 1959,
      "Ġcomplete": 1960,
      "Ġensure": 1961,
      "Ġpotential": 1962,
      "aken": 1963,
      "Ġsurface": 1964,
      "go": 1965,
      "sing": 1966,
      "astic": 1967,
      "Ġyet": 1968,
      "ode": 1969,
      "Ġconditions": 1970,
      "Ġsleep": 1971,
      "Ġoil": 1972,
      "Ġnon": 1973,
      "ĠWhich": 1974,
      "Ġrisk": 1975,
      "co": 1976,
      "Ġobject": 1977,
      "Ġmach": 1978,
      "olution": 1979,
      "Ġsystems": 1980,
      "Ġwhole": 1981,
      "ik": 1982,
      "Ġmajor": 1983,
      "Ġsens": 1984,
      "Ġeffic": 1985,
      "ommend": 1986,
      "bon": 1987,
      "Ġbad": 1988,
      "Ġquality": 1989,
      "IS": 1990,
      "Ġclear": 1991,
      "Ġpick": 1992,
      "Ġtas": 1993,
      "Ġtri": 1994,
      "Ġdisease": 1995,
      "Ġhalf": 1996,
      "ĠCon": 1997,
      "Ġhot": 1998,
      "Ġnecess": 1999,
      "like": 2000,
      "Ġlooks": 2001,
      "ĠUniversity": 2002,
      "Ġtechnology": 2003,
      "Ġface": 2004,
      "come": 2005,
      "Ġabove": 2006,
      "well": 2007,
      "ĠPh": 2008,
      "Ġeffective": 2009,
      "eter": 2010,
      "Ġmodel": 2011,
      "pose": 2012,
      "ows": 2013,
      "ĠAll": 2014,
      "ateg": 2015,
      "Ġkey": 2016,
      "Ġproblems": 2017,
      "Ġtree": 2018,
      "Ġpaper": 2019,
      "vious": 2020,
      "Ġsn": 2021,
      "Ġorig": 2022,
      "Ġwanna": 2023,
      "Ġpast": 2024,
      "uture": 2025,
      "ĠCom": 2026,
      "Ġfire": 2027,
      "asing": 2028,
      "Ġreport": 2029,
      "por": 2030,
      "Ġdry": 2031,
      "use": 2032,
      "pecially": 2033,
      "Ġ12": 2034,
      "ission": 2035,
      "Ġ15": 2036,
      "ully": 2037,
      "body": 2038,
      "rist": 2039,
      "Ġsoft": 2040,
      "Ġwalk": 2041,
      "Ġmother": 2042,
      "Ġlater": 2043,
      "ples": 2044,
      "Ġalready": 2045,
      "joy": 2046,
      "lf": 2047,
      "arc": 2048,
      "ological": 2049,
      "Ġsimilar": 2050,
      "ored": 2051,
      "Ġcult": 2052,
      "Ġchem": 2053,
      "Ġwood": 2054,
      "Ġweight": 2055,
      "Ġperiod": 2056,
      "ables": 2057,
      "Ġcontain": 2058,
      "Ġcool": 2059,
      "Ġsafe": 2060,
      "Ġmor": 2061,
      "Ġlikely": 2062,
      "ned": 2063,
      "Ġeverything": 2064,
      "laugh": 2065,
      "Ġpay": 2066,
      "Ġgas": 2067,
      "Ġet": 2068,
      "ĠRes": 2069,
      "Ġinfl": 2070,
      "illed": 2071,
      "Ġidea": 2072,
      "Ġstory": 2073,
      "Ġbring": 2074,
      "for": 2075,
      "Ġbehav": 2076,
      "Why": 2077,
      "just": 2078,
      "Ġwarm": 2079,
      "idence": 2080,
      "Ġprim": 2081,
      "uro": 2082,
      "Ġgarden": 2083,
      "EXP": 2084,
      "ler": 2085,
      "Ġimprove": 2086,
      "osed": 2087,
      "Ġcy": 2088,
      "Ġhor": 2089,
      "Ġfoot": 2090,
      "Ġdraw": 2091,
      "Ġgoes": 2092,
      "ĠCar": 2093,
      "Ġpred": 2094,
      "Ġrecommend": 2095,
      "Ġtook": 2096,
      "Ġ&": 2097,
      "âĢĵ": 2098,
      "Ġmeet": 2099,
      "Ġweek": 2100,
      "Ch": 2101,
      "app": 2102,
      "angu": 2103,
      "Ġsaw": 2104,
      "ged": 2105,
      "Ġapplic": 2106,
      "ĠTe": 2107,
      "Ġlocal": 2108,
      "ĠUnited": 2109,
      "Ġcorre": 2110,
      "ication": 2111,
      "Ġdirect": 2112,
      "ging": 2113,
      "Ġpict": 2114,
      "Ġdifficult": 2115,
      "Ġmaintain": 2116,
      "avor": 2117,
      "Ġbegin": 2118,
      "ĠFl": 2119,
      "Ġsuggest": 2120,
      "oot": 2121,
      "though": 2122,
      "ole": 2123,
      "Ġnice": 2124,
      "oe": 2125,
      "Ġeither": 2126,
      "Ġaccess": 2127,
      "Ġbox": 2128,
      "RO": 2129,
      "Ġrole": 2130,
      "ength": 2131,
      "yle": 2132,
      "ises": 2133,
      "Ġhigher": 2134,
      "Ġbott": 2135,
      "Ġdogs": 2136,
      "ming": 2137,
      "!\"": 2138,
      "Ġ0": 2139,
      "ene": 2140,
      "Ġgrowth": 2141,
      "ustom": 2142,
      "Ġlevels": 2143,
      "che": 2144,
      "ney": 2145,
      "Ġminutes": 2146,
      "Ġconsum": 2147,
      "Ġproducts": 2148,
      "ĠSome": 2149,
      "ression": 2150,
      "Ġamong": 2151,
      "Ġessential": 2152,
      "Ġbar": 2153,
      "Ġbeaut": 2154,
      "Ġabs": 2155,
      "Ġsingle": 2156,
      "For": 2157,
      "val": 2158,
      "eding": 2159,
      "Ġcold": 2160,
      "ese": 2161,
      "Ġport": 2162,
      "bit": 2163,
      "ched": 2164,
      "Ġbal": 2165,
      "Ġincrease": 2166,
      "Ġleave": 2167,
      "Ġways": 2168,
      "erc": 2169,
      "ilt": 2170,
      "Ġwond": 2171,
      "aced": 2172,
      "Ġsqu": 2173,
      "verage": 2174,
      "Ġfrequ": 2175,
      "Ġenjoy": 2176,
      "Ġjob": 2177,
      "Ġbelieve": 2178,
      "Ġcharacter": 2179,
      "Ġtaking": 2180,
      "ĠOr": 2181,
      "Ġtreatment": 2182,
      "To": 2183,
      "ogn": 2184,
      "Ġexpect": 2185,
      "Ġalmost": 2186,
      "Ġsimple": 2187,
      "Ġcirc": 2188,
      "Ġimage": 2189,
      "Ġi": 2190,
      "Ġfuture": 2191,
      "Ġlower": 2192,
      "usion": 2193,
      "ĠOne": 2194,
      "She": 2195,
      "Ġhours": 2196,
      "Ġcountry": 2197,
      "Ġchanges": 2198,
      "selves": 2199,
      "Ġtold": 2200,
      "udd": 2201,
      "Ġrather": 2202,
      "Ġpublic": 2203,
      ".âĢĿ": 2204,
      "Ġgover": 2205,
      "ĠMar": 2206,
      "nder": 2207,
      "Ġlab": 2208,
      "Now": 2209,
      "Ġupon": 2210,
      "Ġinside": 2211,
      "Ġill": 2212,
      "ators": 2213,
      "Ġtrees": 2214,
      "Ġworks": 2215,
      "Ġmicro": 2216,
      "Ġach": 2217,
      "ummy": 2218,
      "ĠEn": 2219,
      "Ġespecially": 2220,
      "Ġcam": 2221,
      "Ġnothing": 2222,
      "ann": 2223,
      "Ġnorm": 2224,
      "ĠCol": 2225,
      "Ġresults": 2226,
      "Ġprotect": 2227,
      "ilities": 2228,
      "Ġskin": 2229,
      "Ġregular": 2230,
      "ising": 2231,
      "new": 2232,
      "Ġblue": 2233,
      "Ġlaw": 2234,
      "Ġ30": 2235,
      "fully": 2236,
      "Ġwhether": 2237,
      "Ġenc": 2238,
      "Ġwide": 2239,
      "Ġcapt": 2240,
      "ley": 2241,
      "Ġreduce": 2242,
      "Ġfurther": 2243,
      "An": 2244,
      "AN": 2245,
      "pro": 2246,
      "Ġview": 2247,
      "Do": 2248,
      "ograp": 2249,
      "Ġplease": 2250,
      "ike": 2251,
      "oring": 2252,
      "ister": 2253,
      "Ġcoming": 2254,
      "Ġpret": 2255,
      "Ġdiscuss": 2256,
      "ĠYour": 2257,
      "amm": 2258,
      "Ġoutside": 2259,
      "Ġanimal": 2260,
      "Ġrespons": 2261,
      "Ġassoci": 2262,
      "Ġvir": 2263,
      "ee": 2264,
      "Ġrecord": 2265,
      "Ġrepres": 2266,
      "ox": 2267,
      "Ġexc": 2268,
      "Ġposition": 2269,
      "ges": 2270,
      "Ġchall": 2271,
      "Ġparts": 2272,
      "Ġbatter": 2273,
      "On": 2274,
      "Ġfeet": 2275,
      "ster": 2276,
      "Ġhair": 2277,
      "Ġmanage": 2278,
      "Ġdifference": 2279,
      "ison": 2280,
      "Ġprobably": 2281,
      "Ġhands": 2282,
      "eral": 2283,
      "Ġla": 2284,
      "Ġwall": 2285,
      "\",": 2286,
      "Ġvide": 2287,
      "Ġdamage": 2288,
      "ledge": 2289,
      "Ġhealthy": 2290,
      "roll": 2291,
      "Ġpatter": 2292,
      "Ġsomeone": 2293,
      "Ġavoid": 2294,
      "Ġsoon": 2295,
      "ES": 2296,
      "Ġsil": 2297,
      "anced": 2298,
      "cks": 2299,
      "Ġaccording": 2300,
      "50": 2301,
      "Ġobs": 2302,
      "Ġpopular": 2303,
      "Ġwild": 2304,
      "Ġloss": 2305,
      "Ġvalue": 2306,
      "aching": 2307,
      "Ġhistory": 2308,
      "ellow": 2309,
      "Ġtraining": 2310,
      "Ġâ": 2311,
      "Ġyourself": 2312,
      "Ġcompany": 2313,
      "Ġblock": 2314,
      "mhm": 2315,
      "ially": 2316,
      "Ġ=": 2317,
      "omes": 2318,
      "ensive": 2319,
      "Ġstarted": 2320,
      "ĠWor": 2321,
      "edi": 2322,
      "ĠDo": 2323,
      "izing": 2324,
      "Ġlif": 2325,
      "Ġissues": 2326,
      "ta": 2327,
      "itch": 2328,
      "Ġtradition": 2329,
      "Ġunique": 2330,
      "Ġ199": 2331,
      "ivity": 2332,
      "Ġgovern": 2333,
      "lished": 2334,
      "Ġround": 2335,
      "ym": 2336,
      "uel": 2337,
      "Is": 2338,
      "fl": 2339,
      "ĠStates": 2340,
      "Ġsix": 2341,
      "Ġwatch": 2342,
      "Ġlonger": 2343,
      "Ġdiet": 2344,
      "Ġtable": 2345,
      "raph": 2346,
      "Ġtrying": 2347,
      "igns": 2348,
      "Ġliving": 2349,
      "Ġsocial": 2350,
      "ores": 2351,
      "cause": 2352,
      "uf": 2353,
      "Ġdoor": 2354,
      "Ġremember": 2355,
      "Ġones": 2356,
      "Ġinvest": 2357,
      "Ġdark": 2358,
      "Ġbuilding": 2359,
      ".,": 2360,
      "atory": 2361,
      "Ġda": 2362,
      "Ġlangu": 2363,
      "ales": 2364,
      "TE": 2365,
      "Ġswe": 2366,
      "Ġperfect": 2367,
      "Ġpretty": 2368,
      "Ġcity": 2369,
      "ouch": 2370,
      "Al": 2371,
      "Ġmix": 2372,
      "Ġanswer": 2373,
      "ĠTH": 2374,
      "Ġveh": 2375,
      "Ġoffer": 2376,
      "chan": 2377,
      "Ġleg": 2378,
      "Ġfront": 2379,
      "itting": 2380,
      "Ġtaken": 2381,
      "orry": 2382,
      "ze": 2383,
      "Ġcru": 2384,
      "Ġeffects": 2385,
      "ĠEar": 2386,
      "Ġphysical": 2387,
      "Ġdrink": 2388,
      "Ġhear": 2389,
      "ON": 2390,
      "how": 2391,
      "Ġparent": 2392,
      "Ġbur": 2393,
      "Ġspeed": 2394,
      "nam": 2395,
      "Ġheav": 2396,
      "Ġready": 2397,
      "ibility": 2398,
      "lex": 2399,
      "gr": 2400,
      "Ġcolle": 2401,
      "Ġteac": 2402,
      "Ġspeak": 2403,
      "Ġfather": 2404,
      "Ġelectric": 2405,
      "Ġmarket": 2406,
      "ball": 2407,
      "Ġsort": 2408,
      "Ġyes": 2409,
      "Ġhelps": 2410,
      "Ġwords": 2411,
      "Ġce": 2412,
      "Ġauthor": 2413,
      "ustain": 2414,
      "ĠNe": 2415,
      "Ġsource": 2416,
      "ĠUS": 2417,
      "Ġmonths": 2418,
      "ĠQu": 2419,
      "iment": 2420,
      "they": 2421,
      ",âĢĿ": 2422,
      "Ġuh": 2423,
      "Ġcustom": 2424,
      "Ġbehind": 2425,
      "oon": 2426,
      "Ġgone": 2427,
      "ief": 2428,
      "ands": 2429,
      "Ġpersonal": 2430,
      "Ġrele": 2431,
      "30": 2432,
      "ploy": 2433,
      "ived": 2434,
      "Ġtrue": 2435,
      "OR": 2436,
      "uals": 2437,
      "Ġbrain": 2438,
      "oll": 2439,
      "Ġfast": 2440,
      "Ġsometimes": 2441,
      "Ġtot": 2442,
      "aim": 2443,
      "oura": 2444,
      "ae": 2445,
      "airs": 2446,
      "Ġability": 2447,
      "12": 2448,
      "ians": 2449,
      "Ġdeep": 2450,
      "Ġdetail": 2451,
      "hem": 2452,
      "Ġbenefits": 2453,
      "Ġprep": 2454,
      "Ġscience": 2455,
      "Ġmass": 2456,
      "Ġseason": 2457,
      "ortun": 2458,
      "istic": 2459,
      "Ġnecessary": 2460,
      "Ġvers": 2461,
      "this": 2462,
      "Ġcomputer": 2463,
      "aging": 2464,
      "Ġintern": 2465,
      "ĠCent": 2466,
      "Ġconcer": 2467,
      "Ġneeded": 2468,
      "Ġproduction": 2469,
      "Ġfarm": 2470,
      "Ġdeg": 2471,
      "Ġwanted": 2472,
      "Ġmillion": 2473,
      "Ġchemical": 2474,
      "oke": 2475,
      "Ġasked": 2476,
      "Ġevent": 2477,
      "Ġcontrib": 2478,
      "Ġsaf": 2479,
      "rict": 2480,
      "Ġunderstanding": 2481,
      "Ġindividual": 2482,
      "Ġeff": 2483,
      "Ġcannot": 2484,
      "Ġokay": 2485,
      "Ġ*": 2486,
      "Ġexist": 2487,
      "Ġappear": 2488,
      "Ġdesigned": 2489,
      "Ġcarbon": 2490,
      "Ġsubst": 2491,
      ".]": 2492,
      "ĠInst": 2493,
      "ruction": 2494,
      "Ġwomen": 2495,
      "Ġtakes": 2496,
      "Ġhowever": 2497,
      "mber": 2498,
      "Ġpet": 2499,
      "ument": 2500,
      "OU": 2501,
      "Ġindic": 2502,
      "aling": 2503,
      "Ġpercent": 2504,
      "Ġtravel": 2505,
      "Ġcrit": 2506,
      "tle": 2507,
      "ĠPr": 2508,
      "ĠSci": 2509,
      "resh": 2510,
      "zz": 2511,
      "ĠChrist": 2512,
      "Ġbelow": 2513,
      "aving": 2514,
      "nds": 2515,
      "Ġago": 2516,
      "ĠâĢĶ": 2517,
      "ils": 2518,
      "ems": 2519,
      "Ġflu": 2520,
      "ptoms": 2521,
      "Ġcompon": 2522,
      "Ġsent": 2523,
      "Ġpack": 2524,
      "cell": 2525,
      "Ġeffort": 2526,
      "Ġfru": 2527,
      "umb": 2528,
      "head": 2529,
      "izes": 2530,
      "Ġstress": 2531,
      "Ġmeasure": 2532,
      "Ġresearc": 2533,
      "ony": 2534,
      "ification": 2535,
      "Ġcomfort": 2536,
      "Ġsubject": 2537,
      "Ġsense": 2538,
      "Ġfactors": 2539,
      "All": 2540,
      "ura": 2541,
      "Ġproduce": 2542,
      "Ġextra": 2543,
      "conom": 2544,
      "Ġmorning": 2545,
      "ray": 2546,
      "Ġpan": 2547,
      "Ġheard": 2548,
      "Ġenh": 2549,
      "Ġcoll": 2550,
      "Ġ202": 2551,
      "era": 2552,
      "ĠSc": 2553,
      "Ġself": 2554,
      "Ġmusic": 2555,
      "lying": 2556,
      "anger": 2557,
      "Ġfac": 2558,
      "Ġmiss": 2559,
      "Ġinj": 2560,
      "Ġ...": 2561,
      "ĠMay": 2562,
      "ï¿½ï¿½": 2563,
      "aged": 2564,
      "Ġallows": 2565,
      "action": 2566,
      "reng": 2567,
      "unt": 2568,
      "Ġ100": 2569,
      "Ġshall": 2570,
      "Ġsafety": 2571,
      "play": 2572,
      "Ġfat": 2573,
      "Ġsea": 2574,
      "Ġknowledge": 2575,
      "Ġselect": 2576,
      "Ġsepar": 2577,
      "Ġcomplex": 2578,
      "Ġemb": 2579,
      "ufact": 2580,
      "Ġnet": 2581,
      "ought": 2582,
      "Ġter": 2583,
      "idered": 2584,
      "Ġquickly": 2585,
      "huh": 2586,
      "Ġut": 2587,
      "vert": 2588,
      "ude": 2589,
      "ĠCal": 2590,
      "iques": 2591,
      "ference": 2592,
      "ohn": 2593,
      "Ġmoment": 2594,
      "urope": 2595,
      "Ġleaves": 2596,
      "ĠNorth": 2597,
      "Ġvariety": 2598,
      "Ġpopulation": 2599,
      "Ġtar": 2600,
      "aches": 2601,
      "Ġskills": 2602,
      "Ġgeneral": 2603,
      "Ġhur": 2604,
      "Ġsitu": 2605,
      "Ġcommunity": 2606,
      "Ġmilk": 2607,
      "pping": 2608,
      "Ġquestions": 2609,
      "ai": 2610,
      "yl": 2611,
      "Ġwrit": 2612,
      "Ġprovides": 2613,
      "Ġmagn": 2614,
      "Ġentire": 2615,
      "Ġfriends": 2616,
      "One": 2617,
      "Ġfit": 2618,
      "Ġcover": 2619,
      "Ġ,": 2620,
      "oud": 2621,
      "Ġdou": 2622,
      "Ġdeath": 2623,
      "Ġcompet": 2624,
      "gar": 2625,
      "Ġmention": 2626,
      "ement": 2627,
      "Ġmechan": 2628,
      "artment": 2629,
      "Ġcry": 2630,
      "ĠGod": 2631,
      "Ġglass": 2632,
      "ĠComm": 2633,
      "Ġinit": 2634,
      "wo": 2635,
      "My": 2636,
      "she": 2637,
      "aur": 2638,
      "Ġstick": 2639,
      "Ġconsidered": 2640,
      "lo": 2641,
      "crib": 2642,
      "Ġsat": 2643,
      "ĠDr": 2644,
      "unch": 2645,
      "ili": 2646,
      "Ġreturn": 2647,
      "Ġnoise": 2648,
      "iet": 2649,
      "erve": 2650,
      "oles": 2651,
      "Ġneg": 2652,
      "ĠThen": 2653,
      "obal": 2654,
      "Ġbecame": 2655,
      "Ġremain": 2656,
      "Ġservice": 2657,
      "laughs": 2658,
      "plement": 2659,
      "Ġhope": 2660,
      "Ġremo": 2661,
      "Can": 2662,
      "Ġice": 2663,
      "iddle": 2664,
      "Ġpath": 2665,
      "rought": 2666,
      "ĠAfter": 2667,
      "Ġopportun": 2668,
      "Ġclimate": 2669,
      "Ġtools": 2670,
      "Ġbirds": 2671,
      "Ġcorrect": 2672,
      "Ġcontact": 2673,
      "ecause": 2674,
      "Ġarticle": 2675,
      "Ġeasily": 2676,
      "Ġhyd": 2677,
      "Ġwrong": 2678,
      "Ġnature": 2679,
      "ĠNational": 2680,
      "Ġstructure": 2681,
      "Ġmachine": 2682,
      "Ġfine": 2683,
      "Ġmodern": 2684,
      "ĠAust": 2685,
      "Ġcondu": 2686,
      "Ġrob": 2687,
      "Ġveget": 2688,
      "EN": 2689,
      "Ġslow": 2690,
      "Ġrepresent": 2691,
      "Ġjour": 2692,
      "inary": 2693,
      "reme": 2694,
      "anks": 2695,
      "Ġthemselves": 2696,
      "Ġcases": 2697,
      "ĠAm": 2698,
      "iter": 2699,
      "Ġpull": 2700,
      "Ġpiece": 2701,
      "ounds": 2702,
      "Ġcreated": 2703,
      "ites": 2704,
      "Ġrelations": 2705,
      "Ġhumans": 2706,
      "cts": 2707,
      "Ġperformance": 2708,
      "het": 2709,
      "utions": 2710,
      "Ġchoose": 2711,
      "ĠEurope": 2712,
      "Ġyellow": 2713,
      "irth": 2714,
      "Don": 2715,
      "Ġintrodu": 2716,
      "Ġ_": 2717,
      "Ġstri": 2718,
      "Ġexact": 2719,
      "ocal": 2720,
      "Ġmedical": 2721,
      "ervation": 2722,
      "ww": 2723,
      "Ġsummer": 2724,
      "Re": 2725,
      "ground": 2726,
      "Ġstreng": 2727,
      "imal": 2728,
      "Ġgrowing": 2729,
      "rig": 2730,
      "Ġinstead": 2731,
      "Ġrequired": 2732,
      "Ġhappened": 2733,
      "iful": 2734,
      "Ġrecogn": 2735,
      "iency": 2736,
      "rel": 2737,
      "ING": 2738,
      "Ġharm": 2739,
      "Ġindustry": 2740,
      "Ġvac": 2741,
      "Ġeconom": 2742,
      "igure": 2743,
      "Ġ11": 2744,
      "sy": 2745,
      "see": 2746,
      "itten": 2747,
      "gest": 2748,
      "Ġmanufact": 2749,
      "Ġ198": 2750,
      "Ġfeatures": 2751,
      "ograph": 2752,
      "Ġadult": 2753,
      "Ġsymptoms": 2754,
      "ying": 2755,
      "Ġep": 2756,
      "ads": 2757,
      "Ġcompan": 2758,
      "Ġprofessional": 2759,
      "enty": 2760,
      "Let": 2761,
      "Ġcollect": 2762,
      "Ġprin": 2763,
      "Ġing": 2764,
      "AS": 2765,
      "ĠIm": 2766,
      "Ġcou": 2767,
      "rew": 2768,
      "Ġkids": 2769,
      "pes": 2770,
      "iring": 2771,
      "ume": 2772,
      "Ġ16": 2773,
      "ady": 2774,
      "ĠFe": 2775,
      "addy": 2776,
      "ping": 2777,
      "ulations": 2778,
      "Ġpen": 2779,
      "Ġbegan": 2780,
      "Ġshape": 2781,
      "ened": 2782,
      "Ġlate": 2783,
      "Ġfail": 2784,
      "Ġ50": 2785,
      "Ġlanguage": 2786,
      "ĠSte": 2787,
      "Ġtalking": 2788,
      "Ġactivities": 2789,
      "Ġindividuals": 2790,
      "more": 2791,
      "ached": 2792,
      "Ġyeah": 2793,
      "Ġbag": 2794,
      "Ġpositive": 2795,
      "ĠWorld": 2796,
      "Ġprotein": 2797,
      "Ġeating": 2798,
      "Ġattention": 2799,
      "Ġlink": 2800,
      "IC": 2801,
      "Ġresearchers": 2802,
      "ĠMe": 2803,
      "Ġpoints": 2804,
      "Ġmess": 2805,
      "icles": 2806,
      "rences": 2807,
      "ued": 2808,
      "Ġbase": 2809,
      "amin": 2810,
      "Ġrate": 2811,
      "min": 2812,
      "Ġonline": 2813,
      "Ġdel": 2814,
      "ift": 2815,
      "ĠPe": 2816,
      "Ġfeed": 2817,
      "ped": 2818,
      "Ġsustain": 2819,
      "Ġsaying": 2820,
      "Ġlost": 2821,
      "Ġaren": 2822,
      "Ġpoll": 2823,
      "Ġexplain": 2824,
      "Ġsam": 2825,
      "Ġstuff": 2826,
      "Ġgets": 2827,
      "Ġbehavior": 2828,
      "Ġtarget": 2829,
      "Ġthroughout": 2830,
      "Ġgovernment": 2831,
      "Ġaddress": 2832,
      "ography": 2833,
      "Ġhar": 2834,
      "Ġlooked": 2835,
      "Ġtechniques": 2836,
      "ĠGra": 2837,
      "haps": 2838,
      "Ġpage": 2839,
      "Ġcop": 2840,
      "Ġ14": 2841,
      "ĠGu": 2842,
      "Ġvisit": 2843,
      "Ġexerc": 2844,
      "Ġmultip": 2845,
      "Ġquant": 2846,
      "Ġplaying": 2847,
      "Ġtypically": 2848,
      "Ġdro": 2849,
      "ĠGerm": 2850,
      "Ġitself": 2851,
      "Ġwinter": 2852,
      "Ġcancer": 2853,
      "Ġtowards": 2854,
      "Ġdead": 2855,
      "Ġrespect": 2856,
      "Ġapproach": 2857,
      "Ġchance": 2858,
      "Ġactivity": 2859,
      "Ġattack": 2860,
      "Ġmount": 2861,
      "Ġweeks": 2862,
      "Ġten": 2863,
      "Ġmov": 2864,
      "Ġsuit": 2865,
      "ival": 2866,
      "Ġaccount": 2867,
      "Ġadvant": 2868,
      "Ġvideo": 2869,
      "Be": 2870,
      "Ex": 2871,
      "Ġassociated": 2872,
      "Ġfram": 2873,
      "Ġlog": 2874,
      "idge": 2875,
      "elt": 2876,
      "Ġcarry": 2877,
      "ĠWhile": 2878,
      "Ġetc": 2879,
      "Ġhaven": 2880,
      "Ġlayer": 2881,
      "Ġeggs": 2882,
      "Ġswim": 2883,
      "istance": 2884,
      "Ġsuper": 2885,
      "Ġadded": 2886,
      "ino": 2887,
      "Ġinflu": 2888,
      "Ġur": 2889,
      "Ġdest": 2890,
      "ĠPer": 2891,
      "Ġlives": 2892,
      "rate": 2893,
      "uit": 2894,
      "Ġoffic": 2895,
      "Ġsimply": 2896,
      "Ġsand": 2897,
      "Ġcontent": 2898,
      "ĠYes": 2899,
      "Ġenvironmental": 2900,
      "Ġfro": 2901,
      "ĠMy": 2902,
      "asons": 2903,
      "Ġemploy": 2904,
      "ĠCO": 2905,
      "Ġshop": 2906,
      "Ġcrucial": 2907,
      "Ġann": 2908,
      "Ġox": 2909,
      "isc": 2910,
      "hern": 2911,
      "ysis": 2912,
      "Ġchalleng": 2913,
      "Ġinstall": 2914,
      "Ġtouch": 2915,
      "Ã©": 2916,
      "Ġwaste": 2917,
      "Ġmethods": 2918,
      "ober": 2919,
      "ĠX": 2920,
      "Ġsteps": 2921,
      "Ġeducation": 2922,
      "Ġinfe": 2923,
      "Ġweather": 2924,
      "Ġreading": 2925,
      "Ġpoor": 2926,
      "Ġshows": 2927,
      "verse": 2928,
      "Ġwear": 2929,
      "Ġwonder": 2930,
      "mb": 2931,
      "Ġfair": 2932,
      "Ġserious": 2933,
      "ystem": 2934,
      "Ġbacter": 2935,
      "Ġfight": 2936,
      "imum": 2937,
      "time": 2938,
      "Ġpractice": 2939,
      "Ġpatients": 2940,
      "Ġoverall": 2941,
      "Ġrunning": 2942,
      "Ġissue": 2943,
      "king": 2944,
      "Ġwasn": 2945,
      "Ġnews": 2946,
      "Ġincludes": 2947,
      "Ġplastic": 2948,
      "Ġwouldn": 2949,
      "ĠAfric": 2950,
      "Ġestab": 2951,
      "Ġaverage": 2952,
      "Ġmat": 2953,
      "ĠGe": 2954,
      "Ġthinking": 2955,
      "Ġtraditional": 2956,
      "Ġge": 2957,
      "Ġknew": 2958,
      "Ġmole": 2959,
      "ĠEarth": 2960,
      "ĠAb": 2961,
      "Ġmeat": 2962,
      "Ġpicture": 2963,
      "Ġhappy": 2964,
      "ĠEnglish": 2965,
      "Ġgave": 2966,
      "Ġchoice": 2967,
      "Ġseries": 2968,
      "Sh": 2969,
      "Ġearth": 2970,
      "Ġterms": 2971,
      "Ġcolors": 2972,
      "Ġstrateg": 2973,
      "ĠSouth": 2974,
      "Ġroll": 2975,
      "who": 2976,
      "Ġinde": 2977,
      "Ġprint": 2978,
      "Ġchick": 2979,
      "ED": 2980,
      "based": 2981,
      "Ġlarger": 2982,
      "Ġreach": 2983,
      "inner": 2984,
      "Ġfoods": 2985,
      "||": 2986,
      "Ad": 2987,
      "Ġerm": 2988,
      "Ļª": 2989,
      "Ġtrou": 2990,
      "Ġcorn": 2991,
      "amed": 2992,
      "Ġcard": 2993,
      "Ġlength": 2994,
      "cean": 2995,
      "Ġcompl": 2996,
      "Ġcreating": 2997,
      "Ġseems": 2998,
      "ĠAI": 2999,
      "Ġbirth": 3000,
      "Ġfuel": 3001,
      "Ġtotal": 3002,
      "Ġfloor": 3003,
      "11": 3004,
      "ties": 3005,
      "Ġfund": 3006,
      "undred": 3007,
      "ov": 3008,
      "Ġcross": 3009,
      "itted": 3010,
      "ĠHere": 3011,
      "Ġoptions": 3012,
      "ule": 3013,
      "Ġ17": 3014,
      "Ġble": 3015,
      "Ġfem": 3016,
      "rad": 3017,
      "raft": 3018,
      "Ġconsist": 3019,
      "Ġcaused": 3020,
      "Ġborn": 3021,
      "ĠWhy": 3022,
      "osis": 3023,
      "ipment": 3024,
      "Ġincreased": 3025,
      "ror": 3026,
      "ĠNow": 3027,
      "Ġang": 3028,
      "Ġdear": 3029,
      "Ġachieve": 3030,
      "Ġnormal": 3031,
      "Ġaud": 3032,
      "ĠMan": 3033,
      "Ġmembers": 3034,
      "ĠTr": 3035,
      "ules": 3036,
      "Ġsolution": 3037,
      "Ġpaint": 3038,
      "Ġfer": 3039,
      "Ġmetal": 3040,
      "Ġhimself": 3041,
      "Ġdom": 3042,
      "Ġuses": 3043,
      "back": 3044,
      "ĠJohn": 3045,
      "Ġdeal": 3046,
      "Ġadjust": 3047,
      "ĠMed": 3048,
      "board": 3049,
      "Ġcooking": 3050,
      "water": 3051,
      "Ġfix": 3052,
      "Ġgrass": 3053,
      "ners": 3054,
      "Ġresources": 3055,
      "aught": 3056,
      "ening": 3057,
      "Ġspread": 3058,
      "Ġgenerally": 3059,
      "imately": 3060,
      "Ġteeth": 3061,
      "Ġprimary": 3062,
      "Ġstat": 3063,
      "Ġkit": 3064,
      "Ġremove": 3065,
      "Ġaccept": 3066,
      "Ġsequ": 3067,
      "Ġshare": 3068,
      "Ġaltern": 3069,
      "Ġtrain": 3070,
      "icy": 3071,
      "illing": 3072,
      "ĠBrit": 3073,
      "rench": 3074,
      "Ġacid": 3075,
      "ocol": 3076,
      "Ġregion": 3077,
      "Ġconcept": 3078,
      "Ġbeautiful": 3079,
      "Ġple": 3080,
      "ana": 3081,
      "Ġeveryone": 3082,
      "Ġevidence": 3083,
      "ffe": 3084,
      "Ġfavor": 3085,
      "Ġrock": 3086,
      "Ġcauses": 3087,
      "Ġidentify": 3088,
      "Ġparents": 3089,
      "Ġdru": 3090,
      "Ġstudent": 3091,
      "Ġservices": 3092,
      "At": 3093,
      "Ġrelated": 3094,
      "Ġmedic": 3095,
      "Ġextreme": 3096,
      "Ġwait": 3097,
      "Ġcup": 3098,
      "Ġrelative": 3099,
      "AL": 3100,
      "Ġautom": 3101,
      "ĠChe": 3102,
      "Ġbuilt": 3103,
      "ĠTra": 3104,
      "Ġforce": 3105,
      "ively": 3106,
      "Ġdeveloped": 3107,
      "rapy": 3108,
      "Ġparticip": 3109,
      "posed": 3110,
      "Ġcamp": 3111,
      "Ġcompared": 3112,
      "Ġthick": 3113,
      "Ġnutri": 3114,
      "hold": 3115,
      "Ġaff": 3116,
      "Ġgold": 3117,
      "Ġdoll": 3118,
      "aid": 3119,
      "nding": 3120,
      "Ġgain": 3121,
      "abor": 3122,
      "Ġdescrib": 3123,
      "ably": 3124,
      "Ġjo": 3125,
      "iving": 3126,
      "Ġrain": 3127,
      "rm": 3128,
      "Ġaction": 3129,
      "ha": 3130,
      "Ġfa": 3131,
      "aries": 3132,
      "irm": 3133,
      "ĠCont": 3134,
      "Ġuser": 3135,
      "Ġpurpose": 3136,
      "15": 3137,
      "Ġfresh": 3138,
      "Ġdress": 3139,
      "onst": 3140,
      "Ġpup": 3141,
      "Ġstraight": 3142,
      "ID": 3143,
      "Ġemer": 3144,
      "ension": 3145,
      "Ġmanagement": 3146,
      "ropri": 3147,
      "Ġ13": 3148,
      "Ġbutter": 3149,
      "Ġregard": 3150,
      "sequ": 3151,
      "Ġ25": 3152,
      "Ġdetect": 3153,
      "Ġ197": 3154,
      "rition": 3155,
      "asc": 3156,
      "iation": 3157,
      "urs": 3158,
      "ĠNot": 3159,
      "Ġencoura": 3160,
      "Ġbrought": 3161,
      "umin": 3162,
      "acy": 3163,
      "ommy": 3164,
      "earch": 3165,
      "ĠKe": 3166,
      "Ġdoctor": 3167,
      "ccording": 3168,
      "arily": 3169,
      "Ġcamera": 3170,
      "othes": 3171,
      "aff": 3172,
      "Ġproviding": 3173,
      "inc": 3174,
      "Ġbul": 3175,
      "iles": 3176,
      "Ġalone": 3177,
      "Ġmentioned": 3178,
      "Ġmoving": 3179,
      "ĠAustral": 3180,
      "oph": 3181,
      "Ġec": 3182,
      "ĠDNA": 3183,
      "Ġsold": 3184,
      "Ġscientists": 3185,
      "Ġinput": 3186,
      "Ġbooks": 3187,
      "reg": 3188,
      "Ġmoist": 3189,
      "Ġingred": 3190,
      "rs": 3191,
      "Ġtail": 3192,
      "icks": 3193,
      "Ġprevious": 3194,
      "Ġdefin": 3195,
      "Ġcro": 3196,
      "ĠOf": 3197,
      "Ġglobal": 3198,
      "Ġtransm": 3199,
      "Ġcountries": 3200,
      "cies": 3201,
      "kes": 3202,
      "itor": 3203,
      "Ġaspect": 3204,
      "Ġmaybe": 3205,
      "ights": 3206,
      "ĠAmerica": 3207,
      "ĠMin": 3208,
      "Ġhorse": 3209,
      "Ġgar": 3210,
      "Ġsorry": 3211,
      "Ġrefer": 3212,
      "Ġstore": 3213,
      "Ġhabit": 3214,
      "vest": 3215,
      "Ġsurv": 3216,
      "Here": 3217,
      "Ġdaily": 3218,
      "Ġhundred": 3219,
      "Ġrout": 3220,
      "Ġelectr": 3221,
      "Ġdrive": 3222,
      "Ġinvolved": 3223,
      "istics": 3224,
      "ĠGen": 3225,
      "Ġtom": 3226,
      "Ġinse": 3227,
      "ula": 3228,
      "Ġsave": 3229,
      "Ġarm": 3230,
      "Ġsong": 3231,
      "Ġbreat": 3232,
      "Ġeight": 3233,
      "irt": 3234,
      "Ġdetermine": 3235,
      "nov": 3236,
      "Ġsmaller": 3237,
      "Ġequipment": 3238,
      "Â°": 3239,
      "Ġadapt": 3240,
      "Ġroad": 3241,
      "Ġprec": 3242,
      "Ġdevice": 3243,
      "bl": 3244,
      "Ġoffers": 3245,
      "Ġstudies": 3246,
      "ĠCons": 3247,
      "Ġefficient": 3248,
      "Ġturned": 3249,
      "life": 3250,
      "omas": 3251,
      "ĠEd": 3252,
      "Ġbasic": 3253,
      "rup": 3254,
      "Ġgroups": 3255,
      "hib": 3256,
      "iot": 3257,
      "Ġcompletely": 3258,
      "lection": 3259,
      "Ġdanger": 3260,
      "ades": 3261,
      "ests": 3262,
      "Ġdistrib": 3263,
      "ĠSchool": 3264,
      "ĠWill": 3265,
      "ĠAre": 3266,
      "aser": 3267,
      "Ġtend": 3268,
      "Ġparticularly": 3269,
      "Ġbottom": 3270,
      "hel": 3271,
      "iling": 3272,
      "Come": 3273,
      "Ġlines": 3274,
      "Ġincreasing": 3275,
      "Ġum": 3276,
      "inct": 3277,
      "vere": 3278,
      "why": 3279,
      "Ġitems": 3280,
      "Ġtiss": 3281,
      "Ġmax": 3282,
      "ĠAg": 3283,
      "Ġsweet": 3284,
      "bor": 3285,
      "Ġthird": 3286,
      "Ġdied": 3287,
      "Ġelements": 3288,
      "With": 3289,
      "mon": 3290,
      "othing": 3291,
      "Ġstrength": 3292,
      "Not": 3293,
      "chen": 3294,
      "Ġled": 3295,
      "Ġbattery": 3296,
      "Ġvehicle": 3297,
      "Pro": 3298,
      "itation": 3299,
      "ding": 3300,
      "Ġreci": 3301,
      "Ġclim": 3302,
      "Ġsignal": 3303,
      "ounter": 3304,
      "EL": 3305,
      "onse": 3306,
      "Ġexcept": 3307,
      "ĠDes": 3308,
      "Are": 3309,
      "ience": 3310,
      "Ġir": 3311,
      "Ġdoc": 3312,
      "overed": 3313,
      "Ġprovided": 3314,
      "Ġsolar": 3315,
      "ky": 3316,
      "Ġsite": 3317,
      "Ġhun": 3318,
      "tenance": 3319,
      "key": 3320,
      "Ġwebs": 3321,
      "orpor": 3322,
      "Ġshown": 3323,
      "Ġemot": 3324,
      "Ġsus": 3325,
      "ously": 3326,
      "Ġthous": 3327,
      "Ġdistance": 3328,
      "ls": 3329,
      "ma": 3330,
      "Ġdiseases": 3331,
      "Ġaware": 3332,
      "Ġgoal": 3333,
      "Ġclaim": 3334,
      "ĠHealth": 3335,
      "Ġbalance": 3336,
      "oming": 3337,
      "Ġclos": 3338,
      "Ġforward": 3339,
      "men": 3340,
      "MA": 3341,
      "itude": 3342,
      "Ġsell": 3343,
      "Ġworth": 3344,
      "enn": 3345,
      "ams": 3346,
      "ĠCount": 3347,
      "Ġhappens": 3348,
      "Ġsport": 3349,
      "14": 3350,
      "Ġmouth": 3351,
      "ciety": 3352,
      "ĠYork": 3353,
      "Ġstandard": 3354,
      "uth": 3355,
      "Ġmultiple": 3356,
      "iny": 3357,
      "Ġevents": 3358,
      "Ġsurpr": 3359,
      "ancy": 3360,
      "ĠFrom": 3361,
      "Ġmovement": 3362,
      "arr": 3363,
      "ĠHis": 3364,
      "Ġhighly": 3365,
      "17": 3366,
      "IT": 3367,
      "ĠSm": 3368,
      "Ġliqu": 3369,
      "Ġheavy": 3370,
      "apan": 3371,
      "Ġdirectly": 3372,
      "rees": 3373,
      "Ġtrack": 3374,
      "Ġmodels": 3375,
      "Ġcontinue": 3376,
      "Ġnumbers": 3377,
      "Ġvision": 3378,
      "Ġarg": 3379,
      "Ġgives": 3380,
      "orrow": 3381,
      "Ġleading": 3382,
      "ada": 3383,
      "ĠMiss": 3384,
      "ĠLet": 3385,
      "Ġimmedi": 3386,
      "RE": 3387,
      "Your": 3388,
      "Ġforest": 3389,
      "ĠGl": 3390,
      "ĠâĢ¦": 3391,
      "Ġapplications": 3392,
      "Ġbath": 3393,
      "uted": 3394,
      "ĠBra": 3395,
      "Ġoutput": 3396,
      "ĠMost": 3397,
      "cient": 3398,
      "Ġassess": 3399,
      "Ġwoman": 3400,
      "Ġson": 3401,
      "Ġlack": 3402,
      "Ġanyone": 3403,
      "Ġvoice": 3404,
      "Ġboard": 3405,
      "bing": 3406,
      "bed": 3407,
      "cles": 3408,
      "Ġstyle": 3409,
      "Ġproduced": 3410,
      "Ġfib": 3411,
      "Ġspring": 3412,
      "18": 3413,
      "Ġcomponents": 3414,
      "Ġsnow": 3415,
      "Ġscreen": 3416,
      "Ġeasier": 3417,
      "ronic": 3418,
      "Some": 3419,
      "Ġmiddle": 3420,
      "empt": 3421,
      "ection": 3422,
      "iff": 3423,
      "mosp": 3424,
      "set": 3425,
      "Ġprefer": 3426,
      "Ġthreat": 3427,
      "rogen": 3428,
      "Ġvit": 3429,
      "Ġphone": 3430,
      "Ġguess": 3431,
      "erved": 3432,
      "ĠWar": 3433,
      "ĠPar": 3434,
      "Ġprice": 3435,
      "Ġexplore": 3436,
      "cription": 3437,
      "yond": 3438,
      "Ġheld": 3439,
      "ille": 3440,
      "Ġplayed": 3441,
      "16": 3442,
      "Ste": 3443,
      "bol": 3444,
      "Ġpieces": 3445,
      "Ġwants": 3446,
      "ricult": 3447,
      "Ġflowers": 3448,
      "ulate": 3449,
      "ĠPre": 3450,
      "Ġpriv": 3451,
      "ask": 3452,
      "Ġoption": 3453,
      "TEA": 3454,
      "Just": 3455,
      "ĠJan": 3456,
      "Ġwrite": 3457,
      "Ġwritten": 3458,
      "Ġpredict": 3459,
      "Ġplaces": 3460,
      "Ġbrother": 3461,
      "Ġ24": 3462,
      "Ġminute": 3463,
      "wise": 3464,
      "iforn": 3465,
      "Ġconcent": 3466,
      "Ġorigin": 3467,
      "ses": 3468,
      "ĠCo": 3469,
      "Ġcentury": 3470,
      "ait": 3471,
      "don": 3472,
      "Ġbow": 3473,
      "ĠHer": 3474,
      "clusion": 3475,
      "RA": 3476,
      "Ġexactly": 3477,
      "Ġtown": 3478,
      "did": 3479,
      "rum": 3480,
      "Ġcats": 3481,
      "Ġ196": 3482,
      "Ġmeaning": 3483,
      "Ġpark": 3484,
      "Ġmag": 3485,
      "Ġhon": 3486,
      "ĠApp": 3487,
      "Ġ2020": 3488,
      "Ġwet": 3489,
      "Ġgiving": 3490,
      "Ġbrown": 3491,
      "Ġimages": 3492,
      "ken": 3493,
      "Ġwat": 3494,
      "Ġcontroll": 3495,
      "pan": 3496,
      "uary": 3497,
      "ops": 3498,
      "Ġappropri": 3499,
      "Ġresponse": 3500,
      "rated": 3501,
      "ĠMany": 3502,
      "ĠJapan": 3503,
      "ĠTHE": 3504,
      "omet": 3505,
      "Ġreasons": 3506,
      "Ġtransport": 3507,
      "Ġreplace": 3508,
      "Ġtips": 3509,
      "reet": 3510,
      "Ġoriginal": 3511,
      "Ġnational": 3512,
      "Ġadditional": 3513,
      "By": 3514,
      "Ġoh": 3515,
      "Ġvisual": 3516,
      "Ġproperly": 3517,
      "Ġgenetic": 3518,
      "Ġgames": 3519,
      "Ġreview": 3520,
      "fta": 3521,
      "Okay": 3522,
      "aly": 3523,
      "Then": 3524,
      "anging": 3525,
      "Ġpurch": 3526,
      "osure": 3527,
      "Ġrot": 3528,
      "Ġpolit": 3529,
      "Ġinteresting": 3530,
      "Ġfing": 3531,
      "Ġhit": 3532,
      "Ġsearch": 3533,
      "Ġuseful": 3534,
      "Ġmovie": 3535,
      "estern": 3536,
      "Ġsugar": 3537,
      "ooth": 3538,
      "rast": 3539,
      "uge": 3540,
      "Ġwindow": 3541,
      "ds": 3542,
      "house": 3543,
      "ĠSw": 3544,
      "ĠMore": 3545,
      "ĠWell": 3546,
      "Ġboys": 3547,
      "ifornia": 3548,
      "Ġanalysis": 3549,
      "craft": 3550,
      "Ġguide": 3551,
      "ugust": 3552,
      "Where": 3553,
      "Ġnegative": 3554,
      "vant": 3555,
      "ĠInt": 3556,
      "Ġefficiency": 3557,
      "ashing": 3558,
      "Ġaw": 3559,
      "Ġseeds": 3560,
      "Ġrequires": 3561,
      "lands": 3562,
      "Ġprinci": 3563,
      "atives": 3564,
      "Ġseed": 3565,
      "Ġconstant": 3566,
      "bles": 3567,
      "ĠReg": 3568,
      "isms": 3569,
      "Ġfelt": 3570,
      "cious": 3571,
      "order": 3572,
      "Ġslight": 3573,
      "Ġtried": 3574,
      "Ġmis": 3575,
      "ieved": 3576,
      "Ġactive": 3577,
      "icated": 3578,
      "Ġ40": 3579,
      "13": 3580,
      "Ġconc": 3582,
      "Ġsupply": 3583,
      "Cl": 3584,
      "nal": 3585,
      "Ġmyself": 3586,
      "ĠStud": 3587,
      "Ġcouple": 3588,
      "Ġscientific": 3589,
      "raw": 3590,
      "istry": 3591,
      "OS": 3592,
      "Ġbill": 3593,
      "ĠScience": 3594,
      "Ġbacteria": 3595,
      "vey": 3596,
      "Ġhafta": 3597,
      "Ġgun": 3598,
      "ĠKing": 3599,
      "Ġtemperatures": 3600,
      "Ġgreater": 3601,
      "dom": 3602,
      "fter": 3603,
      "Ġlaugh": 3604,
      "Ġconvers": 3605,
      "mp": 3606,
      "Ġ#": 3607,
      "enced": 3608,
      "imin": 3609,
      "Ġjump": 3610,
      "Ġbright": 3611,
      "ipe": 3612,
      "Ġrev": 3613,
      "Ġprior": 3614,
      "Ġ+": 3615,
      "Ġsounds": 3616,
      "Ġfruit": 3617,
      "Ġwish": 3618,
      "entially": 3619,
      "urity": 3620,
      "Ġju": 3621,
      "Ġgrand": 3622,
      "Ġpatterns": 3623,
      "Ġexcell": 3624,
      "ĠWho": 3625,
      ".)": 3626,
      "Ġshap": 3627,
      "ĠDon": 3628,
      "Ġparty": 3629,
      "Ġdigital": 3630,
      "sych": 3631,
      "hood": 3632,
      "Ġproperties": 3633,
      "Ġsituation": 3634,
      "itute": 3635,
      "llig": 3636,
      "used": 3637,
      "Ġtele": 3638,
      "Ġsurround": 3639,
      "rial": 3640,
      "Ġcontains": 3641,
      "Ġaim": 3642,
      "ĠBar": 3643,
      "Ġcatch": 3644,
      "Ġsex": 3645,
      "Ġchair": 3646,
      "ube": 3647,
      "Ġwriting": 3648,
      "Ġpatient": 3649,
      "udden": 3650,
      "Ġkn": 3651,
      "ibly": 3652,
      "Ġimportance": 3653,
      "Ġmotor": 3654,
      "Ġrecommended": 3655,
      "zy": 3656,
      "Ġdream": 3657,
      "Ġfeeling": 3658,
      "II": 3659,
      "abric": 3660,
      "Ġcouldn": 3661,
      "Ġmaintenance": 3662,
      "Ġkitchen": 3663,
      "ulf": 3664,
      "ĠFrench": 3665,
      "Ġunit": 3666,
      "Ġtransl": 3667,
      "off": 3668,
      "Ġpoly": 3669,
      "Ġforms": 3670,
      "Ġcompanies": 3671,
      "Ġrich": 3672,
      "ditionally": 3673,
      "Hey": 3674,
      "ĠAir": 3675,
      "Ġboat": 3676,
      "ĠCalifornia": 3677,
      "Ġdiv": 3678,
      "Ġatmosp": 3679,
      "atever": 3680,
      "Ġrecent": 3681,
      "ĠMrs": 3682,
      "got": 3683,
      "Ġult": 3684,
      "Ġimag": 3685,
      "Ġimplement": 3686,
      "Ġfinal": 3687,
      "ancing": 3688,
      "ara": 3689,
      "ĠAc": 3690,
      "unk": 3691,
      "Ġplate": 3692,
      "odes": 3693,
      "ĠJust": 3694,
      "Ġpublished": 3695,
      "een": 3696,
      "Ġresponsible": 3697,
      "Ġobjects": 3698,
      "Ġvent": 3699,
      "Ġmiles": 3700,
      "Ġlimited": 3701,
      "ixt": 3702,
      "Ġspot": 3703,
      "onds": 3704,
      "Ġstage": 3705,
      "erson": 3706,
      "Ġolder": 3707,
      "Ġexpress": 3708,
      "Ġpow": 3709,
      "Ġdecision": 3710,
      "Ġcenter": 3711,
      "ĠWest": 3712,
      "Ġnutrition": 3713,
      "ĠOur": 3714,
      "Ġtherefore": 3715,
      "ĠChar": 3716,
      "Ġprocesses": 3717,
      "Ġcleaning": 3718,
      "fficient": 3719,
      "ĠArt": 3720,
      "Ġmid": 3721,
      "Ġlens": 3722,
      "Ġkept": 3723,
      "Ġdirection": 3724,
      "Ġreflect": 3725,
      "Ġtaste": 3726,
      "bt": 3727,
      "Ġsigns": 3728,
      "ĠTheir": 3729,
      "ĠBr": 3730,
      "Ġarch": 3731,
      "Ġchanged": 3732,
      "Ġship": 3733,
      "Ġworked": 3734,
      "Ġsir": 3735,
      "Ġthrow": 3736,
      "Ġnamed": 3737,
      "ĠJune": 3738,
      "Ġcharge": 3739,
      "Ġbenefit": 3740,
      "Ġrat": 3741,
      "ĠOh": 3742,
      "Ġspir": 3743,
      "ĠJu": 3744,
      "Ġdiam": 3745,
      "Ġfly": 3746,
      "adem": 3747,
      "ucle": 3748,
      "ĠĠĠĠĠĠĠĠ": 3749,
      "ET": 3750,
      "isions": 3751,
      "ensity": 3752,
      "Ġrare": 3753,
      "ĠDep": 3754,
      "Ġbackground": 3755,
      "Ġcolour": 3756,
      "Ġcapac": 3757,
      "ek": 3758,
      "ibr": 3759,
      "Ġarr": 3760,
      "Ġlocated": 3761,
      "Ġdeli": 3762,
      "These": 3763,
      "Ġsources": 3764,
      "urch": 3765,
      "Ġbroad": 3766,
      "Ġbear": 3767,
      "Ġideas": 3768,
      "Who": 3769,
      "Ġstru": 3770,
      "Ġrub": 3771,
      "Ġcars": 3772,
      "Ġnav": 3773,
      "text": 3774,
      "ctors": 3775,
      "ĠSpe": 3776,
      "Ġnearly": 3777,
      "Ġintellig": 3778,
      "Ġreleased": 3779,
      "25": 3780,
      "MCH": 3781,
      "Ġstar": 3782,
      "ĠMarch": 3783,
      "Ġdelic": 3784,
      "Con": 3785,
      "Ġbran": 3786,
      "Ġfully": 3787,
      "ocolate": 3788,
      "book": 3789,
      "Ġring": 3790,
      "ĠRed": 3791,
      "Ġdiagn": 3792,
      "Ġcosts": 3793,
      "Ġfilm": 3794,
      "BRO": 3795,
      "arp": 3796,
      "Ġrepe": 3797,
      "Ġkill": 3798,
      "Ġallowing": 3799,
      "IG": 3800,
      "olar": 3801,
      "Ġappli": 3802,
      "ĠIndia": 3803,
      "Ġbeyond": 3804,
      "Ġload": 3805,
      "Ġingredients": 3806,
      "Un": 3807,
      "band": 3808,
      "fish": 3809,
      "Ġalg": 3810,
      "oly": 3811,
      "ffee": 3812,
      "Ġpool": 3813,
      "Ġmental": 3814,
      "Ġguy": 3815,
      "which": 3816,
      "Mm": 3817,
      "Ġstates": 3818,
      "Ġexcess": 3819,
      "Ġpowerful": 3820,
      "Ġappropriate": 3821,
      "âĮ": 3822,
      "Ġalthough": 3823,
      "Ġdevices": 3824,
      "Look": 3825,
      "friend": 3826,
      "Ġenhance": 3827,
      "Ġrelationship": 3828,
      "Ġthus": 3829,
      "Ġflat": 3830,
      "ĠCHI": 3831,
      "Ġstarting": 3832,
      "pril": 3833,
      "Ġexercise": 3834,
      "Ġcand": 3835,
      "Ġabsor": 3836,
      "Ġsuitable": 3837,
      "actions": 3838,
      "cil": 3839,
      "Ġnotice": 3840,
      "AM": 3841,
      "iers": 3842,
      "Ġband": 3843,
      "Ġlocation": 3844,
      "Ġcalcul": 3845,
      "ĠResearch": 3846,
      "Ġapplication": 3847,
      "Ġnetwork": 3848,
      "que": 3849,
      "âĢ¦âĢ¦": 3850,
      "ĠBritish": 3851,
      "Ġlots": 3852,
      "Ġshoot": 3853,
      "Ġdeveloping": 3854,
      "Ġlargest": 3855,
      "ĠÂ": 3856,
      "Ġpush": 3857,
      "ĠIntern": 3858,
      "Ġsmart": 3859,
      "Ġopportunity": 3860,
      "uries": 3861,
      "Ġanx": 3862,
      "acing": 3863,
      "apter": 3864,
      "ban": 3865,
      "Ġx": 3866,
      "ĠMon": 3867,
      "ĠHigh": 3868,
      "?âĢĿ": 3869,
      "Ġroof": 3870,
      "AC": 3871,
      "Ġtechnique": 3872,
      "After": 3873,
      "ipp": 3874,
      "Ġseven": 3875,
      "Ġdriving": 3876,
      "Ġfra": 3877,
      "Ġ194": 3878,
      "Ġocean": 3879,
      "ĠRep": 3880,
      "odies": 3881,
      "Ġorganic": 3882,
      "Ġtoward": 3883,
      "ĠJack": 3884,
      "ĠThomas": 3885,
      "Ġprogress": 3886,
      "Ġfrequency": 3887,
      "za": 3888,
      "omb": 3889,
      "Ġjourney": 3890,
      "Ġvacc": 3891,
      "Ġdy": 3892,
      "tered": 3893,
      "Ġcoast": 3894,
      "ĠHar": 3895,
      "Ġdecre": 3896,
      "ĠFirst": 3897,
      "ĠOct": 3898,
      "Ġobtain": 3899,
      "ĠBlack": 3900,
      "Ġaccur": 3901,
      "SIS": 3902,
      "pre": 3903,
      "Ġver": 3904,
      "Ġincluded": 3905,
      "Ġattempt": 3906,
      "Ġcritical": 3907,
      "Uh": 3908,
      "Ġiron": 3909,
      "ama": 3910,
      "Ġoffice": 3911,
      "Ġproperty": 3912,
      "Ġcoffee": 3913,
      "Ġattract": 3914,
      "Ġideal": 3915,
      "Ġlandsc": 3916,
      "Ġpattern": 3917,
      "Ġinfection": 3918,
      "lt": 3919,
      "Ġlegs": 3920,
      "Ġprograms": 3921,
      "Ġmember": 3922,
      "Ġriver": 3923,
      "place": 3924,
      "Ġdepending": 3925,
      "ĠSup": 3926,
      "abet": 3927,
      "DAD": 3928,
      "point": 3929,
      "Ġinnov": 3930,
      "Ġtheory": 3931,
      "Ġfabric": 3932,
      "ĠRem": 3933,
      "Ġguid": 3934,
      "Ġcommonly": 3935,
      "ato": 3936,
      "Ġwire": 3937,
      "Ġfigure": 3938,
      "Ġextend": 3939,
      "Ġdisplay": 3940,
      "Ġsett": 3941,
      "Ġcommunication": 3942,
      "Ġmut": 3943,
      "Ġthr": 3944,
      "Right": 3945,
      "ĠAN": 3946,
      "ĠAugust": 3947,
      "Ġshot": 3948,
      "âĢ¢": 3949,
      "ĠGr": 3950,
      "ĠCounty": 3951,
      "Ġnorth": 3952,
      "ĠEven": 3953,
      "Ġinches": 3954,
      "Ġflight": 3955,
      "Ġrapid": 3956,
      "because": 3957,
      "Ġbeginning": 3958,
      "aul": 3959,
      "alu": 3960,
      "Ġtit": 3961,
      "Ġlights": 3962,
      "Ġintegr": 3963,
      "Ġvirus": 3964,
      "Ġdrop": 3965,
      "Ġheight": 3966,
      "oop": 3967,
      "Ġneck": 3968,
      "Ġfavorite": 3969,
      "ptember": 3970,
      "Ġtrust": 3971,
      "Ġpromot": 3972,
      "care": 3973,
      "ĠQ": 3974,
      "Ġsuff": 3975,
      "Ġsoftware": 3976,
      "Ġ/": 3977,
      "Ġplat": 3978,
      "Ġevolution": 3979,
      "Ġmemory": 3980,
      "icip": 3981,
      "Ġsmooth": 3982,
      "Ġallowed": 3983,
      "ygen": 3984,
      "Ġton": 3985,
      "Ġfaster": 3986,
      "orage": 3987,
      "Ġcompos": 3988,
      "arks": 3989,
      "Ġshoes": 3990,
      "Ġapply": 3991,
      "Ġprotection": 3992,
      "Ġreducing": 3993,
      "Ġsudden": 3994,
      "Ġmist": 3995,
      "ica": 3996,
      "Ġcheese": 3997,
      "ĠAlso": 3998,
      "Ġsymbol": 3999,
      "ĠAct": 4000,
      "Ġliquid": 4001,
      "Ġnote": 4002,
      "Ġ--": 4003,
      "Ġkeeping": 4004,
      "uzz": 4005,
      "Ġsection": 4006,
      "arian": 4007,
      "Ġbeg": 4008,
      "Ġperhaps": 4009,
      "Ġdemonst": 4010,
      "Ġchallenges": 4011,
      "Ġexcellent": 4012,
      "ĠSim": 4013,
      "aks": 4014,
      "Ġowners": 4015,
      "Good": 4016,
      "Ġlat": 4017,
      "Ġprojects": 4018,
      "attle": 4019,
      "gl": 4020,
      "good": 4021,
      "amb": 4022,
      "Ġproced": 4023,
      "Ġsalt": 4024,
      "rain": 4025,
      "Ġincorpor": 4026,
      "Ġexpected": 4027,
      "inter": 4028,
      "Ġhost": 4029,
      "Ġaccom": 4030,
      "Ġanaly": 4031,
      "Ġcomfortable": 4032,
      "Ġchicken": 4033,
      "Ġmoisture": 4034,
      "Ġwife": 4035,
      "Ġimpl": 4036,
      "While": 4037,
      "AP": 4038,
      "ĠBecause": 4039,
      "Ġthank": 4040,
      "Ġensuring": 4041,
      "Ġfell": 4042,
      "Ġbecomes": 4043,
      "Ġsetting": 4044,
      "Ġvalues": 4045,
      "Ġesc": 4046,
      "Ġconnect": 4047,
      "hether": 4048,
      "vered": 4049,
      "Ġreceive": 4050,
      "Ġnutrients": 4051,
      "ager": 4052,
      "ologies": 4053,
      "Ġgirls": 4054,
      "Ġsuccessful": 4055,
      "Ġreceived": 4056,
      "hetic": 4057,
      "with": 4058,
      "Ġsevere": 4059,
      "Ġassist": 4060,
      "Ġwebsite": 4061,
      "Ġworry": 4062,
      "Ġearli": 4063,
      "ĠOnce": 4064,
      "Ġteacher": 4065,
      "ares": 4066,
      "know": 4067,
      "Ġfol": 4068,
      "Ġplayer": 4069,
      "Ġhandle": 4070,
      "Pl": 4071,
      "cular": 4072,
      "Ġadding": 4073,
      "Ġfinished": 4074,
      "uk": 4075,
      "Ġves": 4076,
      "ĠUse": 4077,
      "Ġcurrently": 4078,
      "overy": 4079,
      "ĠOver": 4080,
      "Ġclothes": 4081,
      "ovember": 4082,
      "Ġexperiment": 4083,
      "gn": 4084,
      "Ġtour": 4085,
      "ros": 4086,
      "olute": 4087,
      "azing": 4088,
      "Ġestim": 4089,
      "ira": 4090,
      "pite": 4091,
      "iders": 4092,
      "Ġmoved": 4093,
      "aker": 4094,
      "Ġcommer": 4095,
      "Ġgotta": 4096,
      "son": 4097,
      "nded": 4098,
      "Ġhosp": 4099,
      "Ġrelig": 4100,
      "Ġsteel": 4101,
      "ĠIndian": 4102,
      "Ġhistor": 4103,
      "eration": 4104,
      "Ġcred": 4105,
      "Ġmine": 4106,
      "Ġstone": 4107,
      "Ġflower": 4108,
      "mit": 4109,
      "pet": 4110,
      "lebr": 4111,
      "ander": 4112,
      "load": 4113,
      "Ġshut": 4114,
      "Ġlived": 4115,
      "issions": 4116,
      "Ġfollowed": 4117,
      "Ġadvantage": 4118,
      "iced": 4119,
      "Ġinvestig": 4120,
      "lor": 4121,
      "ulated": 4122,
      "ĠBet": 4123,
      "Ġtrouble": 4124,
      "omen": 4125,
      "Ġprot": 4126,
      "ashion": 4127,
      "ĠOther": 4128,
      "Ġmatch": 4129,
      "ceed": 4130,
      "Ġgradu": 4131,
      "Ġonto": 4132,
      "Ġapprox": 4133,
      "nes": 4134,
      "itary": 4135,
      "NAN": 4136,
      "born": 4137,
      "Ġtherapy": 4138,
      "rote": 4139,
      "Ġliter": 4140,
      "cember": 4141,
      "Ġroot": 4142,
      "Ġfactor": 4143,
      "Did": 4144,
      "Ġcast": 4145,
      "Ġthin": 4146,
      "rier": 4147,
      "ublic": 4148,
      "Ġschools": 4149,
      "Ġlisten": 4150,
      "iol": 4151,
      "Ġcode": 4152,
      "aybe": 4153,
      "Ġmanufacture": 4154,
      "Ġplays": 4155,
      "Ġspend": 4156,
      "Ġletter": 4157,
      "ĠJanuary": 4158,
      "active": 4159,
      "Ġmotion": 4160,
      "Ġculture": 4161,
      "oom": 4162,
      "Ġhuge": 4163,
      "Ġdocument": 4164,
      "ios": 4165,
      "anc": 4166,
      "Ġinvolves": 4167,
      "Ġpassed": 4168,
      "Ġteachers": 4169,
      "ĠGeor": 4170,
      "Ġrules": 4171,
      "ĠPart": 4172,
      "Ġkid": 4173,
      "Ġcryst": 4174,
      "oman": 4175,
      "wor": 4176,
      "Ġhat": 4177,
      "ĠRiver": 4178,
      "Ġdemand": 4179,
      "iam": 4180,
      "Ġsou": 4181,
      "Ġvary": 4182,
      "Ġlearned": 4183,
      "iant": 4184,
      "spe": 4185,
      "Ġcream": 4186,
      "Ġguys": 4187,
      "aughter": 4188,
      "Ġappearance": 4189,
      "Ġneigh": 4190,
      "Ġplaced": 4191,
      "standing": 4192,
      "Ġutil": 4193,
      "hips": 4194,
      "ket": 4195,
      "ications": 4196,
      "Ġagricult": 4197,
      "isf": 4198,
      "ĠApril": 4199,
      "Ġproteins": 4200,
      "Ġforget": 4201,
      "ĠWater": 4202,
      "Ġfinish": 4203,
      "Ġinterested": 4204,
      "Ġvessel": 4205,
      "ech": 4206,
      "Ġmeal": 4207,
      "Ġdiscovered": 4208,
      "Thank": 4209,
      "Ġtow": 4210,
      "ĠYOU": 4211,
      "Ġdat": 4212,
      "hest": 4213,
      "term": 4214,
      "Ġsend": 4215,
      "rim": 4216,
      "Ġindepend": 4217,
      "Ġcow": 4218,
      "Ġpal": 4219,
      "Ġconstruction": 4220,
      "Ġdetails": 4221,
      "Ġdegrees": 4222,
      "TH": 4223,
      "ndom": 4224,
      "Ġmob": 4225,
      "Ġleaving": 4226,
      "Ġteaching": 4227,
      "Ġclin": 4228,
      "US": 4229,
      "Ġimmune": 4230,
      "200": 4231,
      "uild": 4232,
      "Ġpsych": 4233,
      "ĠState": 4234,
      "Ġtissue": 4235,
      "Ġhus": 4236,
      "Ġnose": 4237,
      "Ġtransform": 4238,
      "Ġcombination": 4239,
      "ĠCenter": 4240,
      "Ġalternative": 4241,
      "Ġplatform": 4242,
      "Ġrecently": 4243,
      "Ġobvious": 4244,
      "Ġexpensive": 4245,
      "Ġphotos": 4246,
      "Ġpractices": 4247,
      "cast": 4248,
      "Ġbud": 4249,
      "ĠEl": 4250,
      "vention": 4251,
      "Ġtesting": 4252,
      "Ġsignificantly": 4253,
      "ero": 4254,
      "Ġbread": 4255,
      "Ġfurn": 4256,
      "inding": 4257,
      "ipped": 4258,
      "ux": 4259,
      "Ġsitting": 4260,
      "Ġtoys": 4261,
      "Ġlose": 4262,
      "Ġreve": 4263,
      "Ġoutdo": 4264,
      "iable": 4265,
      "pat": 4266,
      "Ġfle": 4267,
      "Ġgene": 4268,
      "Ġhors": 4269,
      "ĠMake": 4270,
      "ĠNOT": 4271,
      "Ġimmediately": 4272,
      "wood": 4273,
      "rot": 4274,
      "Ġrecy": 4275,
      "urd": 4276,
      "iled": 4277,
      "ĠMummy": 4278,
      "ĠIts": 4279,
      "ĠFrance": 4280,
      "Ġbound": 4281,
      "Ġhearing": 4282,
      "ris": 4283,
      "âĻª": 4284,
      "Ġteach": 4285,
      "Ġradio": 4286,
      "Ġextremely": 4287,
      "reci": 4288,
      "entle": 4289,
      "uration": 4290,
      "Ġpresence": 4291,
      "Ġelement": 4292,
      "ĠTy": 4293,
      "Ġtea": 4294,
      "ĠTechn": 4295,
      "Ġbelong": 4296,
      "Ġoccurs": 4297,
      "Ġwalls": 4298,
      "Ġframe": 4299,
      "Ġdescribed": 4300,
      "iday": 4301,
      "char": 4302,
      "Ġexposure": 4303,
      "Ġtoy": 4304,
      "Ġstation": 4305,
      "ĠHy": 4306,
      "Ġbroken": 4307,
      "ĠJuly": 4308,
      "ĠCor": 4309,
      "Ġwheel": 4310,
      "Ġdecided": 4311,
      "Ġnative": 4312,
      "Ġstories": 4313,
      "ĠPark": 4314,
      "Ġchocolate": 4315,
      "oyal": 4316,
      "Ġsustainable": 4317,
      "Ġtank": 4318,
      "Ġvia": 4319,
      "ructions": 4320,
      "Ġsolid": 4321,
      "Ġcontinu": 4322,
      "Ġelectrical": 4323,
      "gram": 4324,
      "ums": 4325,
      "ĠBen": 4326,
      "Ġswitch": 4327,
      "Ġ60": 4328,
      "Ġrelease": 4329,
      "ĠEach": 4330,
      "Ġmedia": 4331,
      "Ġflex": 4332,
      "urance": 4333,
      "aint": 4334,
      "agram": 4335,
      "Ġcovered": 4336,
      "bye": 4337,
      "gra": 4338,
      "Ġdie": 4339,
      "ĠMc": 4340,
      "Ġchoo": 4341,
      "Ġknows": 4342,
      "Ġsouth": 4343,
      "ĠNovember": 4344,
      "Ġresistance": 4345,
      "Ġseemed": 4346,
      "oration": 4347,
      "ald": 4348,
      "alt": 4349,
      "Ġ21": 4350,
      "Ġtill": 4351,
      "Ġspl": 4352,
      "Ġcards": 4353,
      "Ġversion": 4354,
      "Ġapplied": 4355,
      "ĠAnt": 4356,
      "ĠDav": 4357,
      "Ġvalu": 4358,
      "Step": 4359,
      "Ġlady": 4360,
      "Ġputting": 4361,
      "Ġseparate": 4362,
      "ĠFeb": 4363,
      "atoes": 4364,
      "lean": 4365,
      "ida": 4366,
      "then": 4367,
      "ĠSeptember": 4368,
      "Ġfemale": 4369,
      "ĠAccording": 4370,
      "Ġplayers": 4371,
      "Ġcausing": 4372,
      "Ġlimit": 4373,
      "Ġvirt": 4374,
      "DS": 4375,
      "py": 4376,
      "Ġchann": 4377,
      "ificial": 4378,
      "Ġremains": 4379,
      "Ġtask": 4380,
      "have": 4381,
      "Ġchanging": 4382,
      "ament": 4383,
      "Ġmeant": 4384,
      "iven": 4385,
      "Ġsmell": 4386,
      "Ġpictures": 4387,
      "Ġhurt": 4388,
      "pen": 4389,
      "itis": 4390,
      "Ġshowed": 4391,
      "tage": 4392,
      "Ġmaster": 4393,
      "Ġplans": 4394,
      "ĠOctober": 4395,
      "ilies": 4396,
      "Ġattend": 4397,
      "Ġfear": 4398,
      "ruary": 4399,
      "Ġnumer": 4400,
      "Ġrequirements": 4401,
      "Ġoxygen": 4402,
      "Ġnucle": 4403,
      "Ġstock": 4404,
      "cket": 4405,
      "ĠBro": 4406,
      "ĠHel": 4407,
      "Ġupd": 4408,
      "cribe": 4409,
      "Ġreaction": 4410,
      "Ġride": 4411,
      "ĠRec": 4412,
      "Ġjoint": 4413,
      "Ġscene": 4414,
      "phone": 4415,
      "Ġbehavi": 4416,
      "ĠAustralia": 4417,
      "iety": 4418,
      "Ġtall": 4419,
      "Ġusers": 4420,
      "ĠDay": 4421,
      "Ġscale": 4422,
      "Ġformed": 4423,
      "inos": 4424,
      "irty": 4425,
      "Ġedge": 4426,
      "Ġvegetables": 4427,
      "Ġburn": 4428,
      "Ġdepends": 4429,
      "Ġdouble": 4430,
      "urally": 4431,
      "Ġadop": 4432,
      "'.": 4433,
      "Ġwrote": 4434,
      "Ġdate": 4435,
      "Ġtransfer": 4436,
      "Ġfunny": 4437,
      "ĠAfrica": 4438,
      "free": 4439,
      "Ġtiny": 4440,
      "Ġast": 4441,
      "hey": 4442,
      "ĠEngland": 4443,
      "Ġcraft": 4444,
      "ĠDis": 4445,
      "Ġserve": 4446,
      "Ġsky": 4447,
      "Ġconduct": 4448,
      "aled": 4449,
      "ĠPres": 4450,
      "ĠGreen": 4451,
      "gy": 4452,
      "Ġillust": 4453,
      "asure": 4454,
      "Com": 4455,
      "vision": 4456,
      "Ġpig": 4457,
      "Ġstorage": 4458,
      "umber": 4459,
      "ĠDecember": 4460,
      "Ġcake": 4461,
      "Ġpump": 4462,
      "ession": 4463,
      "Ġbrush": 4464,
      "bur": 4465,
      "oices": 4466,
      "Ġrandom": 4467,
      "Ġ2018": 4468,
      "Ġcommunities": 4469,
      "uce": 4470,
      "Ġtight": 4471,
      "Ġwhatever": 4472,
      "Ġatmosphere": 4473,
      "ancial": 4474,
      "ĠLear": 4475,
      "rehe": 4476,
      "Ġod": 4477,
      "ĠTO": 4478,
      "ĠChina": 4479,
      "Ġfertil": 4480,
      "Ġreached": 4481,
      "ĠEm": 4482,
      "Ġgoals": 4483,
      "itions": 4484,
      "Ġinsp": 4485,
      "Have": 4486,
      "ius": 4487,
      "Ġexpand": 4488,
      "Ġahead": 4489,
      "olf": 4490,
      "Ġsick": 4491,
      "iments": 4492,
      "Ġdrawing": 4493,
      "tes": 4494,
      "Ġran": 4495,
      "oday": 4496,
      "Ġsolutions": 4497,
      "ford": 4498,
      "Ġcaught": 4499,
      "dule": 4500,
      "www": 4501,
      "Ġslightly": 4502,
      "equ": 4503,
      "rief": 4504,
      "Ġsquare": 4505,
      "Ġstream": 4506,
      "ogs": 4507,
      "Ġexperiences": 4508,
      "Ġplanning": 4509,
      "Ġboo": 4510,
      "Ġfif": 4511,
      "Ġexpert": 4512,
      "ship": 4513,
      "Ġadvice": 4514,
      "Ġequal": 4515,
      "Ġdecl": 4516,
      "Ġcelebr": 4517,
      "mas": 4518,
      "ometimes": 4519,
      "ĠFin": 4520,
      "vocal": 4521,
      "Ġsight": 4522,
      "ĠBob": 4523,
      "Ġcarried": 4524,
      "gery": 4525,
      "Ġinitial": 4526,
      "Ġevalu": 4527,
      "Go": 4528,
      "enge": 4529,
      "Ġtox": 4530,
      "Ġplanet": 4531,
      "uminum": 4532,
      "met": 4533,
      "Ġdish": 4534,
      "Ġresid": 4535,
      "velength": 4536,
      "Ġparticles": 4537,
      "Ġantib": 4538,
      "Ġdynam": 4539,
      "40": 4540,
      "Ġrise": 4541,
      "Ġcoat": 4542,
      "iction": 4543,
      "Ġdistinct": 4544,
      "Ġcertainly": 4545,
      "ĠTom": 4546,
      "Ġcutting": 4547,
      "Ġvill": 4548,
      "Ġadvanced": 4549,
      "Get": 4550,
      "Ġhop": 4551,
      "imize": 4552,
      "Ġsatisf": 4553,
      "asion": 4554,
      "ĠIN": 4555,
      "Ġactual": 4556,
      "ĠAdditionally": 4557,
      "Ġconnected": 4558,
      "Ġrelatively": 4559,
      "Ġcapacity": 4560,
      "Ġqual": 4561,
      "ohol": 4562,
      "Ġsmok": 4563,
      "Ġeffectively": 4564,
      "Ġreported": 4565,
      "Ġdinner": 4566,
      "raid": 4567,
      "illy": 4568,
      "Ġconservation": 4569,
      "Ġdifferences": 4570,
      "Ġfinding": 4571,
      "Ġreduced": 4572,
      "lin": 4573,
      "rem": 4574,
      "Ġarri": 4575,
      "Ġrespond": 4576,
      "year": 4577,
      "itely": 4578,
      "Ġrelax": 4579,
      "Ġwaiting": 4580,
      "Because": 4581,
      "agement": 4582,
      "Ġpregn": 4583,
      "Ġdepth": 4584,
      "Ġcollabor": 4585,
      "LE": 4586,
      "cohol": 4587,
      "Ġstaff": 4588,
      "Ġsharp": 4589,
      "Ġcloud": 4590,
      "Ġpair": 4591,
      "ĠSince": 4592,
      "Ġsynt": 4593,
      "Ġstarts": 4594,
      "orith": 4595,
      "Ġwhose": 4596,
      "Ġturns": 4597,
      "Ġcircuit": 4598,
      "ĠCity": 4599,
      "ĠBel": 4600,
      "Ġmuscle": 4601,
      "Ġmeeting": 4602,
      "Ġflavor": 4603,
      "Ġtruth": 4604,
      "Ġcommit": 4605,
      "Ġcareer": 4606,
      "Ġtests": 4607,
      "Ġefforts": 4608,
      "ĠGerman": 4609,
      "Ġprop": 4610,
      "Ġkilled": 4611,
      "ressive": 4612,
      "ondon": 4613,
      "Ġluck": 4614,
      "llo": 4615,
      "ĠWhere": 4616,
      "Ġenter": 4617,
      "Ġaffected": 4618,
      "Ġinfluence": 4619,
      "Ph": 4620,
      "Ġfashion": 4621,
      "Ġeth": 4622,
      "Ġancient": 4623,
      "Ġbecoming": 4624,
      "Ġprofession": 4625,
      "Ġadults": 4626,
      "Ġtax": 4627,
      "MAR": 4628,
      "roy": 4629,
      "outhern": 4630,
      "Ġseeing": 4631,
      "Ġ2013": 4632,
      "Se": 4633,
      "bits": 4634,
      "Ġaircraft": 4635,
      "ĠPhot": 4636,
      "Ġspirit": 4637,
      "Ġcontext": 4638,
      "ague": 4639,
      "Ġregions": 4640,
      "ollow": 4641,
      "duc": 4642,
      "Ġcycle": 4643,
      "Ġvehicles": 4644,
      "rete": 4645,
      "osing": 4646,
      "Ġhelping": 4647,
      "Ġafraid": 4648,
      "Ġconsult": 4649,
      "Ġsuppl": 4650,
      "Ġgrown": 4651,
      "Ġfed": 4652,
      "Ġquiet": 4653,
      "Ġ2010": 4654,
      "Ġphotograph": 4655,
      "cher": 4656,
      "ĠSec": 4657,
      "rie": 4658,
      "Ġsche": 4659,
      "cling": 4660,
      "Ġelectro": 4661,
      "iverse": 4662,
      "eper": 4663,
      "Ġsociety": 4664,
      "Ġjud": 4665,
      "ĠCanada": 4666,
      "Ġprepared": 4667,
      "Ġfill": 4668,
      "Ġpric": 4669,
      "Ġhuh": 4670,
      "outs": 4671,
      "ĠEvery": 4672,
      "ĠServ": 4673,
      "izations": 4674,
      "Ġspent": 4675,
      "Ġwalking": 4676,
      "Ġestablished": 4677,
      "Ġinsects": 4678,
      "Mummy": 4679,
      "ran": 4680,
      "Ġtrig": 4681,
      "Ġinstance": 4682,
      "Ġ2017": 4683,
      "Ġcontribute": 4684,
      "abetes": 4685,
      "LA": 4686,
      "Ġdim": 4687,
      "Ġexhib": 4688,
      "ivil": 4689,
      "ĠInc": 4690,
      "ĠComp": 4691,
      "!âĢĿ": 4692,
      "):": 4693,
      "ste": 4694,
      "Ġexamples": 4695,
      "Ġbasis": 4696,
      "roduction": 4697,
      "umm": 4698,
      "osystem": 4699,
      "Ġspr": 4700,
      "Ġapart": 4701,
      "Ġsequence": 4702,
      "Ġcommercial": 4703,
      "Ġgentle": 4704,
      "orthern": 4705,
      "ferences": 4706,
      "Ġcentral": 4707,
      "Ġconsumption": 4708,
      "Ġprivate": 4709,
      "Ġspect": 4710,
      "oxide": 4711,
      "Ġremoved": 4712,
      "Ġstrugg": 4713,
      "Ġvaluable": 4714,
      "Ġder": 4715,
      "Ġnames": 4716,
      "Ġheating": 4717,
      "ĠFlor": 4718,
      "itter": 4719,
      "Ġrates": 4720,
      "Ġappreci": 4721,
      "Ġmountain": 4722,
      "Ġdangerous": 4723,
      "ked": 4724,
      "Ġpin": 4725,
      "inder": 4726,
      "Ġfellow": 4727,
      "Ġbirthday": 4728,
      "night": 4729,
      "Ġnine": 4730,
      "omic": 4731,
      "Ġgenes": 4732,
      "Ġslowly": 4733,
      "De": 4734,
      "icon": 4735,
      "ĠMark": 4736,
      "Ġgraph": 4737,
      "Ġstanding": 4738,
      "Ġpractical": 4739,
      "Ġmaintaining": 4740,
      "kin": 4741,
      "Ġrace": 4742,
      "Ġalgorith": 4743,
      "wide": 4744,
      "ĠAlthough": 4745,
      "Ġfinancial": 4746,
      "Ġhyp": 4747,
      "Ġrobot": 4748,
      "Ġearlier": 4749,
      "GMA": 4750,
      "Ġmale": 4751,
      "Ġdaughter": 4752,
      "Ġlock": 4753,
      "Ġleaders": 4754,
      "Ġabsolute": 4755,
      "**": 4756,
      "Ġfilled": 4757,
      "Ġhoney": 4758,
      "Ġformer": 4759,
      "Ġweb": 4760,
      "antic": 4761,
      "ogen": 4762,
      "Ġclub": 4763,
      "Ġfunctions": 4764,
      "Ġgeneration": 4765,
      "Ġcareful": 4766,
      "Ġbike": 4767,
      "Ġwavelength": 4768,
      "Ġdepartment": 4769,
      "ĠInstitute": 4770,
      "ĠFebruary": 4771,
      "ĠMod": 4772,
      "Ġmaximum": 4773,
      "part": 4774,
      "Ġhous": 4775,
      "istory": 4776,
      "Ġmonit": 4777,
      "However": 4778,
      "Ġtrip": 4779,
      "alks": 4780,
      "Ġphoto": 4781,
      "24": 4782,
      "60": 4783,
      "fast": 4784,
      "Ġdura": 4785,
      "Ġchain": 4786,
      "Ġscen": 4787,
      "des": 4788,
      "Ġ:": 4789,
      "roke": 4790,
      "estic": 4791,
      "Ġcomprehe": 4792,
      "Ġarms": 4793,
      "ĠProf": 4794,
      "known": 4795,
      "CO": 4796,
      "Our": 4797,
      "roup": 4798,
      "ĠUK": 4799,
      "Ġsecret": 4800,
      "Ġ2019": 4801,
      "Ġeconomic": 4802,
      "Ġquar": 4803,
      "ossible": 4804,
      "Ġelectricity": 4805,
      "Ġinternational": 4806,
      "Please": 4807,
      "TER": 4808,
      "Ġbank": 4809,
      "unction": 4810,
      "Ġcontract": 4811,
      "Ġ80": 4812,
      "Ġlaws": 4813,
      "Ġquantum": 4814,
      "Bl": 4815,
      "zing": 4816,
      "ani": 4817,
      "Ġherself": 4818,
      "Ġmedium": 4819,
      "Every": 4820,
      "lets": 4821,
      "ico": 4822,
      "Ġnan": 4823,
      "ĠPat": 4824,
      "Ġtwenty": 4825,
      "Ġtopic": 4826,
      "Ġsites": 4827,
      "iliar": 4828,
      "ĠEuropean": 4829,
      "Ġswimming": 4830,
      "Ġaspects": 4831,
      "Ġsports": 4832,
      "bre": 4833,
      "down": 4834,
      "Ġstom": 4835,
      "Ġobserved": 4836,
      "Ġban": 4837,
      "aste": 4838,
      "ĠMary": 4839,
      "zen": 4840,
      "being": 4841,
      "Ġpolice": 4842,
      "cules": 4843,
      "LL": 4844,
      "arling": 4845,
      "ĠLondon": 4846,
      "Ġ195": 4847,
      "Ġexisting": 4848,
      "med": 4849,
      "ĠPol": 4850,
      "Ġbatteries": 4851,
      "ĠCur": 4852,
      "Ġ23": 4853,
      "Ġflav": 4854,
      "Ġcarefully": 4855,
      "Ġdefe": 4856,
      "Ġupper": 4857,
      "ails": 4858,
      "Ġstrategies": 4859,
      "Ġmedicine": 4860,
      "iance": 4861,
      "Ġdust": 4862,
      "Ġmostly": 4863,
      "Ġfamous": 4864,
      "Ġmuscles": 4865,
      "vity": 4866,
      "iture": 4867,
      "orough": 4868,
      "ĠAut": 4869,
      "ighter": 4870,
      "ĠGreat": 4871,
      "Ġcontrast": 4872,
      "inese": 4873,
      "Ġestablish": 4874,
      "Ġhole": 4875,
      "Ġkne": 4876,
      "Ġamb": 4877,
      "Ġacqu": 4878,
      "Ġsecurity": 4879,
      "Ġdiscover": 4880,
      "Ġbeauty": 4881,
      "wing": 4882,
      "Ġ|": 4883,
      "inated": 4884,
      "Ġcateg": 4885,
      "Ġbodies": 4886,
      "ĠDuring": 4887,
      "Ġagre": 4888,
      "Ġemissions": 4889,
      "Ġadvance": 4890,
      "Ġfilter": 4891,
      "Ar": 4892,
      "Ġord": 4893,
      "abilities": 4894,
      "ologist": 4895,
      "Ġprocessing": 4896,
      "Ġcharacteristics": 4897,
      "Ġsample": 4898,
      "Ġhol": 4899,
      "Ġreality": 4900,
      "Ġelimin": 4901,
      "Ġchemicals": 4902,
      "ĠGrand": 4903,
      "da": 4904,
      "ello": 4905,
      "Ġvoltage": 4906,
      "ĠInternational": 4907,
      "Ġhusband": 4908,
      "EM": 4909,
      "encies": 4910,
      "Ġrough": 4911,
      "Ġexcl": 4912,
      "ĠDaddy": 4913,
      "car": 4914,
      "hab": 4915,
      "Ġinstructions": 4916,
      "Ġ2014": 4917,
      "Ġdrugs": 4918,
      "22": 4919,
      "sp": 4920,
      "ĠGet": 4921,
      "orders": 4922,
      "Ġspecifically": 4923,
      "Ġbought": 4924,
      "Ġshowing": 4925,
      "Ġcollection": 4926,
      "eties": 4927,
      "ĠIS": 4928,
      "Ġstim": 4929,
      "Ġweak": 4930,
      "Ġvict": 4931,
      "osh": 4932,
      "ĠGo": 4933,
      "Ġpromote": 4934,
      "rates": 4935,
      "Ġham": 4936,
      "Ġassum": 4937,
      "Ġpopulations": 4938,
      "Ġlayers": 4939,
      "Ġhighest": 4940,
      "ION": 4941,
      "Ġhung": 4942,
      "Ġwearing": 4943,
      "ĠOF": 4944,
      "Ġopened": 4945,
      "Ġlabor": 4946,
      "Ġdegree": 4947,
      "Ġopportunities": 4948,
      "Or": 4949,
      "ctic": 4950,
      "ching": 4951,
      "Ġstret": 4952,
      "ĠSch": 4953,
      "Ġrid": 4954,
      "Ġamazing": 4955,
      "Ġapproximately": 4956,
      "olved": 4957,
      "ĠDoes": 4958,
      "Ġraised": 4959,
      "ĠWhite": 4960,
      "icate": 4961,
      "ĠUsing": 4962,
      "Ġcommand": 4963,
      "ternal": 4964,
      "Ġsuggests": 4965,
      "Ke": 4966,
      "Ġign": 4967,
      "Ġadvent": 4968,
      "anges": 4969,
      "Ġmeasures": 4970,
      "Ġregularly": 4971,
      "Ġhorses": 4972,
      "ham": 4973,
      "encing": 4974,
      "orial": 4975,
      "Ġwash": 4976,
      "Ġflo": 4977,
      "pective": 4978,
      "Ġ2016": 4979,
      "Ġbottle": 4980,
      "Ġfrequently": 4981,
      "ĠDepartment": 4982,
      "lling": 4983,
      "Ġking": 4984,
      "Ġsecure": 4985,
      "Ġoperation": 4986,
      "cont": 4987,
      "ushed": 4988,
      "cture": 4989,
      "Ġstreet": 4990,
      "Ġleaf": 4991,
      "Ġcomplet": 4992,
      "under": 4993,
      "Ġglad": 4994,
      "ĠTherefore": 4995,
      "ugg": 4996,
      "Ġcab": 4997,
      "aming": 4998,
      "illa": 4999,
      "ĠDi": 5000,
      "Ġ2011": 5001,
      "ĠPeople": 5002,
      "Ġanxiety": 5003,
      "Ġtherm": 5004,
      "Ġcounter": 5005,
      "Ġ28": 5006,
      "Ġbrand": 5007,
      "Ġecosystem": 5008,
      "Ġpets": 5009,
      "Ġpounds": 5010,
      "Ġtooth": 5011,
      "Ġorange": 5012,
      "Ġagree": 5013,
      "Ġelectron": 5014,
      "Ġdrain": 5015,
      "Ġfishing": 5016,
      "ĠSystem": 5017,
      "ĠAss": 5018,
      "Ġresource": 5019,
      "Ġevening": 5020,
      "Ġ2012": 5021,
      "Ġdetermined": 5022,
      "Ġinjury": 5023,
      "Ġsister": 5024,
      "Ġflying": 5025,
      "Ġincreases": 5026,
      "Ne": 5027,
      "gal": 5028,
      "Ġcos": 5029,
      "ĠII": 5030,
      "Ġroots": 5031,
      "Ġ2015": 5032,
      "Ġthousand": 5033,
      "Ġ]": 5034,
      "Ġtape": 5035,
      "celer": 5036,
      "box": 5037,
      "idden": 5038,
      "Ġtasks": 5039,
      "ĠUnder": 5040,
      "Ġresulting": 5041,
      "Ġstructures": 5042,
      "rupt": 5043,
      "Ġaccurate": 5044,
      "Im": 5045,
      "ĠSam": 5046,
      "ĠNav": 5047,
      "izer": 5048,
      "Ġcontinued": 5049,
      "ĠTur": 5050,
      "Ġintake": 5051,
      "noon": 5052,
      "och": 5053,
      "Ġhomes": 5054,
      "rooms": 5055,
      "Ġcompar": 5056,
      "obe": 5057,
      "Ġbigger": 5058,
      "overn": 5059,
      "ĠBlue": 5060,
      "Ġcollege": 5061,
      "Ab": 5062,
      "Ġcrow": 5063,
      "Ġmamm": 5064,
      "eters": 5065,
      "ĠMus": 5066,
      "Ġalb": 5067,
      "Ġfeeding": 5068,
      "Ġresist": 5069,
      "Ġsupposed": 5070,
      "Ġstrange": 5071,
      "Ġfamilies": 5072,
      "Ġtruck": 5073,
      "asp": 5074,
      "ading": 5075,
      "Ġselection": 5076,
      "Ġplenty": 5077,
      "Ġcustomers": 5078,
      "Te": 5079,
      "Ġbone": 5080,
      "Ġforces": 5081,
      "teen": 5082,
      "Ġtechnologies": 5083,
      "Ġrestaur": 5084,
      "ĠTrans": 5085,
      "Ġhospital": 5086,
      "Ġkno": 5087,
      "ĠRuss": 5088,
      "Ġinternal": 5089,
      "Ġnumerous": 5090,
      "Ġconsequ": 5091,
      "Ġsem": 5092,
      "Ġears": 5093,
      "Ġbreed": 5094,
      "does": 5095,
      "poses": 5096,
      "Ġfields": 5097,
      "Ġfootball": 5098,
      "Ġlegal": 5099,
      "Ġcorner": 5100,
      "sm": 5101,
      "Ġpil": 5102,
      "Ġdesired": 5103,
      "Ġopin": 5104,
      "Ġcreative": 5105,
      "Ġpul": 5106,
      "ora": 5107,
      "umps": 5108,
      "Ġ26": 5109,
      "Ġlandscape": 5110,
      "rans": 5111,
      "ĠRob": 5112,
      "Ġclosed": 5113,
      "wered": 5114,
      "Ġdecisions": 5115,
      "cript": 5116,
      "Ġfluid": 5117,
      "ded": 5118,
      "Ġoven": 5119,
      "Ġalcohol": 5120,
      "Ġunless": 5121,
      "Ġserved": 5122,
      "Ġphase": 5123,
      "Ġwatching": 5124,
      "hemat": 5125,
      "Ġencourage": 5126,
      "Ġpages": 5127,
      "Ġded": 5128,
      "semb": 5129,
      "ĠSy": 5130,
      "Ġpolicy": 5131,
      "Ġmachines": 5132,
      "minist": 5133,
      "CT": 5134,
      "Le": 5135,
      "alle": 5136,
      "oog": 5137,
      "Ġmel": 5138,
      "Ġconnection": 5139,
      "itution": 5140,
      "ĠWhether": 5141,
      "Ġrice": 5142,
      "pper": 5143,
      "Ġunits": 5144,
      "Ġmarried": 5145,
      "Ġcrack": 5146,
      "Me": 5147,
      "Ġviol": 5148,
      "ĠAssoci": 5149,
      "Ġclasses": 5150,
      "Ġholding": 5151,
      "Ġwildlife": 5152,
      "Ġiniti": 5153,
      "Ġpink": 5154,
      "Ġhumid": 5155,
      "Ġstomach": 5156,
      "atural": 5157,
      "ingu": 5158,
      "Ġperm": 5159,
      "Ġhelped": 5160,
      "Ġ90": 5161,
      "Ġdigest": 5162,
      "Ġpollution": 5163,
      "Ġdrug": 5164,
      "ĠSan": 5165,
      "ĠGood": 5166,
      "igned": 5167,
      "Ġtwice": 5168,
      "Ġgenerate": 5169,
      "Ġsnake": 5170,
      "Ġcomponent": 5171,
      "Ġdoubt": 5172,
      "Ġjuice": 5173,
      "]?": 5174,
      "field": 5175,
      "gu": 5176,
      "mar": 5177,
      "ĠSur": 5178,
      "Ġscr": 5179,
      "Ġclassroom": 5180,
      "Ġimproved": 5181,
      "Ġturning": 5182,
      "Ġ)": 5183,
      "Ġholds": 5184,
      "ĠChristmas": 5185,
      "OW": 5186,
      "two": 5187,
      "Ġden": 5188,
      "Ġrepair": 5189,
      "ĠAND": 5190,
      "RY": 5191,
      "pers": 5192,
      "ala": 5193,
      "ĠMex": 5194,
      "ĠEduc": 5195,
      "reek": 5196,
      "Ġmarine": 5197,
      "Ġoppos": 5198,
      "Ġillness": 5199,
      "Of": 5200,
      "ether": 5201,
      "ĠTex": 5202,
      "Ġseat": 5203,
      "ĠBoth": 5204,
      "Ġexec": 5205,
      "Ġdivers": 5206,
      "Ġ2009": 5207,
      "Ġintelligence": 5208,
      "when": 5209,
      "leep": 5210,
      "uts": 5211,
      "Ġafford": 5212,
      "Ġorganization": 5213,
      "ĠClass": 5214,
      "Ġ2021": 5215,
      "aked": 5216,
      "Ġ193": 5217,
      "Ġbite": 5218,
      "ĠEast": 5219,
      "Ġworse": 5220,
      "Ġsurgery": 5221,
      "Ġoperations": 5222,
      "Ġmer": 5223,
      "Ġaluminum": 5224,
      "Ġprem": 5225,
      "Ġloved": 5226,
      "Ġindustrial": 5227,
      "Ġwave": 5228,
      "Ġmap": 5229,
      "Ġoffe": 5230,
      "ĠJe": 5231,
      "Ġcolon": 5232,
      "Ġletters": 5233,
      "Ġnaturally": 5234,
      "Ġannoun": 5235,
      "Ġ?": 5236,
      "Ġpaid": 5237,
      "Ġgear": 5238,
      "Ġrule": 5239,
      "Ġ22": 5240,
      "Ġspin": 5241,
      "ildren": 5242,
      "Ġengineering": 5243,
      "Res": 5244,
      "Ġtired": 5245,
      "Ġnor": 5246,
      "Ġpartners": 5247,
      "phas": 5248,
      "Ġfinally": 5249,
      "Ġchallenge": 5250,
      "mark": 5251,
      "resp": 5252,
      "Ġtrade": 5253,
      "Ġsets": 5254,
      "Ġkinds": 5255,
      "fortun": 5256,
      "Ġprepare": 5257,
      "Ġvert": 5258,
      "Ġfoss": 5259,
      "Ġsty": 5260,
      "Ġexch": 5261,
      "asts": 5262,
      "ĠĠĠĠĠĠ": 5263,
      "Another": 5264,
      "Ġharvest": 5265,
      "ĠMich": 5266,
      "Ġwidely": 5267,
      "Ġreturned": 5268,
      "ĠAfrican": 5269,
      "lim": 5270,
      "vin": 5271,
      "Ġconver": 5272,
      "ĠFood": 5273,
      "ĠLou": 5274,
      "Ġartificial": 5275,
      "Ġtypical": 5276,
      "Ġstopped": 5277,
      "Ġwonderful": 5278,
      "alse": 5279,
      "Ġblocks": 5280,
      "Ġemerg": 5281,
      "Ġstorm": 5282,
      "ilit": 5283,
      "umn": 5284,
      "Ġallerg": 5285,
      "Ġagg": 5286,
      "Ġdecor": 5287,
      "Ġbelieved": 5288,
      "Ġexperienced": 5289,
      "Ġadvantages": 5290,
      "gon": 5291,
      "press": 5292,
      "elines": 5293,
      "ĠAny": 5294,
      "Ġtreated": 5295,
      "Ġvolume": 5296,
      "Ġeventually": 5297,
      "Ġmolecules": 5298,
      "Ġbreath": 5299,
      "Ġphen": 5300,
      "Ġvital": 5301,
      "ĠYeah": 5302,
      "Ġafternoon": 5303,
      "Ġhousehold": 5304,
      "Ġphotography": 5305,
      "Ġprobability": 5306,
      "iology": 5307,
      "zer": 5308,
      "Ġax": 5309,
      "icial": 5310,
      "Ġclick": 5311,
      "Ġperformed": 5312,
      "ifying": 5313,
      "Ġshapes": 5314,
      "Any": 5315,
      "Ġsen": 5316,
      "ĠUs": 5317,
      "Ġbes": 5318,
      "Ġpure": 5319,
      "anes": 5320,
      "arrow": 5321,
      "Ġisland": 5322,
      "Ġdesigns": 5323,
      "erate": 5324,
      "Ġwid": 5325,
      "Ġstood": 5326,
      "ĠSer": 5327,
      "Ġadm": 5328,
      "ĠVal": 5329,
      "ĠVir": 5330,
      "Ġowner": 5331,
      "vironments": 5332,
      "Ġprecise": 5333,
      "Ġnavig": 5334,
      "VE": 5335,
      "ician": 5336,
      "Ġgate": 5337,
      "Ġnit": 5338,
      "ĠChinese": 5339,
      "Ġremark": 5340,
      "ĠKeep": 5341,
      "Ġhabitat": 5342,
      "70": 5343,
      "win": 5344,
      "Ġholes": 5345,
      "ĠMart": 5346,
      "Ġmainly": 5347,
      "Ġanti": 5348,
      "Ġdestroy": 5349,
      "Ġdistribution": 5350,
      "DT": 5351,
      "Ġinfect": 5352,
      "ours": 5353,
      "ĠLike": 5354,
      "rying": 5355,
      "Ġsomebody": 5356,
      "Ġstandards": 5357,
      "Ġrisks": 5358,
      "ĠGermany": 5359,
      "Ġtomorrow": 5360,
      "Ġrecipe": 5361,
      "23": 5362,
      "CE": 5363,
      "Ġdivid": 5364,
      "Ġconven": 5365,
      "ĠWashing": 5366,
      "Ġdriver": 5367,
      "Ġcultural": 5368,
      "Ġcomprehens": 5369,
      "DA": 5370,
      "Ġfig": 5371,
      "Ġlic": 5372,
      "rian": 5373,
      "ĠLook": 5374,
      "Ġshell": 5375,
      "hyd": 5376,
      "Ġhighlight": 5377,
      "Ġregarding": 5378,
      "Ġdeliver": 5379,
      "Ġspray": 5380,
      "Ġsimpl": 5381,
      "Ġlighting": 5382,
      "Ġcreation": 5383,
      "Ġangle": 5384,
      "Ġjoin": 5385,
      "26": 5386,
      "En": 5387,
      "Mr": 5388,
      "oves": 5389,
      "Ġ\\": 5390,
      "ĠAv": 5391,
      "ĠGold": 5392,
      "Ġdiss": 5393,
      "Ġpeace": 5394,
      "Ġasking": 5395,
      "Once": 5396,
      "ees": 5397,
      "Ġsides": 5398,
      "ishes": 5399,
      "Ġsomewhere": 5400,
      "Ġthoughts": 5401,
      "Ġtelling": 5402,
      "ouncil": 5403,
      "dy": 5404,
      "inating": 5405,
      "ĠMor": 5406,
      "Ġneut": 5407,
      "ĠJoe": 5408,
      "Ġmode": 5409,
      "Ġmissing": 5410,
      "Ġofficial": 5411,
      "PS": 5412,
      "Ġduck": 5413,
      "Ġdarling": 5414,
      "omy": 5415,
      "ords": 5416,
      "Ġsurfaces": 5417,
      "force": 5418,
      "Ġsuggested": 5419,
      "Ġmessage": 5420,
      "Ġmajority": 5421,
      "Ġchoosing": 5422,
      "Des": 5423,
      "Ġactions": 5424,
      "Ġthorough": 5425,
      "Ġlad": 5426,
      "Ġincred": 5427,
      "Ġemotional": 5428,
      "Ġconversation": 5429,
      "asm": 5430,
      "abol": 5431,
      "lding": 5432,
      "Ġwel": 5433,
      "Ġenvironments": 5434,
      "Ġraw": 5435,
      "Ġcapital": 5436,
      "Ġmulti": 5437,
      "Ġmm": 5438,
      "Ġmic": 5439,
      "lly": 5440,
      "oops": 5441,
      "....": 5442,
      "Ġlibr": 5443,
      "izza": 5444,
      "Ġpotentially": 5445,
      "Ġwindows": 5446,
      "Ġcrops": 5447,
      "Ġpolitical": 5448,
      "ael": 5449,
      "Ġpap": 5450,
      "anish": 5451,
      "Ġstem": 5452,
      "ĠâĻª": 5453,
      "ixture": 5454,
      "oma": 5455,
      "ilos": 5456,
      "quality": 5457,
      "acters": 5458,
      "ĠâĢĺ": 5459,
      "shall": 5460,
      "hus": 5461,
      "Ġcities": 5462,
      "Ġanyway": 5463,
      "Ġappears": 5464,
      "Ġbuying": 5465,
      "Ġsilver": 5466,
      "Ġroutine": 5467,
      "Ah": 5468,
      "ĠMet": 5469,
      "Ġanywhere": 5470,
      "Ġfruits": 5471,
      "Ġbees": 5472,
      "Ġsav": 5473,
      "Ġuns": 5474,
      "Ġcontinues": 5475,
      "Ġtransmission": 5476,
      "Ġjack": 5477,
      "ropical": 5478,
      "Ġplane": 5479,
      "80": 5480,
      "IM": 5481,
      "fall": 5482,
      "ĠIns": 5483,
      "thank": 5484,
      "ĠBo": 5485,
      "Ġimpossible": 5486,
      "Ġfamiliar": 5487,
      "Ġbusy": 5488,
      "Ġcapable": 5489,
      "Ġinflamm": 5490,
      "Ġcapture": 5491,
      "Ġdefinitely": 5492,
      "Ġtelevision": 5493,
      "21": 5494,
      "SS": 5495,
      "rey": 5496,
      "Ġ27": 5497,
      "Ġoffering": 5498,
      "Ġtechnical": 5499,
      "Ġprofessor": 5500,
      "going": 5501,
      "Ġfinger": 5502,
      "ĠTexas": 5503,
      "Car": 5504,
      "UN": 5505,
      "net": 5506,
      "tra": 5507,
      "Ġcore": 5508,
      "ĠMot": 5509,
      "Ġdeb": 5510,
      "Ġbutton": 5511,
      "Ġdishes": 5512,
      "Ġhelpful": 5513,
      "Ġdiabetes": 5514,
      "Ġanswered": 5515,
      "Ġvitamin": 5516,
      "Pe": 5517,
      "Ġbeach": 5518,
      "Ġstuck": 5519,
      "antly": 5520,
      "Ġmonitor": 5521,
      "Ġelev": 5522,
      "ĠEnvironment": 5523,
      "Ġlatest": 5524,
      "Ġcart": 5525,
      "isher": 5526,
      "oty": 5527,
      "aws": 5528,
      "Ġintroduced": 5529,
      "Ġcloser": 5530,
      "Ġtast": 5531,
      "Ġbrief": 5532,
      "ĠTwo": 5533,
      "ferent": 5534,
      "Ġabund": 5535,
      "ĠJim": 5536,
      "col": 5537,
      "Ġcit": 5538,
      "aped": 5539,
      "Ġoptimal": 5540,
      "looks": 5541,
      "Ġclearly": 5542,
      "Ġbegins": 5543,
      "vis": 5544,
      "wers": 5545,
      "Ġcried": 5546,
      "ita": 5547,
      "Ġgall": 5548,
      "Ġstored": 5549,
      "opy": 5550,
      "Ġemphas": 5551,
      "Ġconstruct": 5552,
      "Ġmobile": 5553,
      "mers": 5554,
      "atically": 5555,
      "Ġmig": 5556,
      "Ġnest": 5557,
      "urt": 5558,
      "iform": 5559,
      "opes": 5560,
      "Ġshad": 5561,
      "Ġsignals": 5562,
      "ĠProgram": 5563,
      "Ġcombined": 5564,
      "__": 5565,
      "ĠHouse": 5566,
      "Ġveter": 5567,
      "ĠWashington": 5568,
      "estyle": 5569,
      "Ġunc": 5570,
      "Ġscore": 5571,
      "ĠChi": 5572,
      "See": 5573,
      "iest": 5574,
      "Ġpurposes": 5575,
      "Ġseconds": 5576,
      "Ġparam": 5577,
      "Ġthousands": 5578,
      "Ġarchite": 5579,
      "la": 5580,
      "Ġsink": 5581,
      "Ġdelight": 5582,
      "appe": 5583,
      "Ġdiverse": 5584,
      "Ġcharacters": 5585,
      "Ġdefined": 5586,
      "Ġconfirm": 5587,
      "From": 5588,
      "inn": 5589,
      "bal": 5590,
      "Ġfile": 5591,
      "Ġvibr": 5592,
      "Ġmilitary": 5593,
      "ĠFrank": 5594,
      "Ġcustomer": 5595,
      "Ġfailure": 5596,
      "ĠFlorida": 5597,
      "Ġgather": 5598,
      "essor": 5599,
      "formation": 5600,
      "Ġtruly": 5601,
      "Ġindeed": 5602,
      "First": 5603,
      "yn": 5604,
      "Ġtick": 5605,
      "Ġfur": 5606,
      "lege": 5607,
      "Ġshared": 5608,
      "Ġlie": 5609,
      "ĠLa": 5610,
      "plant": 5611,
      "Ġblog": 5612,
      "Ġsuppose": 5613,
      "ĠAmericans": 5614,
      "ADU": 5615,
      "Ġmac": 5616,
      "ado": 5617,
      "Ġconclusion": 5618,
      "pected": 5619,
      "Ġratio": 5620,
      "works": 5621,
      "ĠHum": 5622,
      "ologists": 5623,
      "Ġpainting": 5624,
      "ĠAtl": 5625,
      "Ġprimarily": 5626,
      ".'": 5627,
      "Per": 5628,
      "ST": 5629,
      "gment": 5630,
      "Ġdram": 5631,
      "ĠCare": 5632,
      "oys": 5633,
      "ĠAbout": 5634,
      "Ġsizes": 5635,
      "Ġtrained": 5636,
      "Ġopening": 5637,
      "Ġsunlight": 5638,
      "Ġaccident": 5639,
      "Ġexpression": 5640,
      "Ġtun": 5641,
      "Ġforgot": 5642,
      "akers": 5643,
      "Ġworksh": 5644,
      "Ġsmoke": 5645,
      "Ġoccup": 5646,
      "Ġinvolve": 5647,
      "Ġmotiv": 5648,
      "Ġclosely": 5649,
      "apping": 5650,
      "Ġsad": 5651,
      "',": 5652,
      "Ġdental": 5653,
      "ĠWork": 5654,
      "Ġclothing": 5655,
      "Ġrights": 5656,
      "Ġpurple": 5657,
      "Ġfixed": 5658,
      "ĠJapanese": 5659,
      "Ġtitle": 5660,
      "face": 5661,
      "iger": 5662,
      "Ġprices": 5663,
      "ĠCat": 5664,
      "ĠPen": 5665,
      "ĠHave": 5666,
      "porary": 5667,
      "Ġprocedure": 5668,
      "Ġbudget": 5669,
      "Ġprofessionals": 5670,
      "erals": 5671,
      "Ġisol": 5672,
      "Ġfort": 5673,
      "Ġmanner": 5674,
      "Ġdescribe": 5675,
      "Ġdecide": 5676,
      "Ġskill": 5677,
      "Ġlovely": 5678,
      "Ġamounts": 5679,
      "ĠChristian": 5680,
      "Ġcompetition": 5681,
      "Ġcredit": 5682,
      "Ġoutdoor": 5683,
      "RI": 5684,
      "Ġcomment": 5685,
      "ĠPhys": 5686,
      "Ġexperts": 5687,
      "irds": 5688,
      "ception": 5689,
      "Ġhappening": 5690,
      "Ġnormally": 5691,
      "Ġbillion": 5692,
      "Most": 5693,
      "ĠMOT": 5694,
      "Ġpipe": 5695,
      "Ġmur": 5696,
      "Ġdensity": 5697,
      "roid": 5698,
      "umble": 5699,
      "Ġflood": 5700,
      "Ġrefrig": 5701,
      "Ġbowl": 5702,
      "GRA": 5703,
      "Ġbond": 5704,
      "uhhuh": 5705,
      "Ġstatus": 5706,
      "Ġtoxic": 5707,
      "500": 5708,
      "inations": 5709,
      "ĠTake": 5710,
      "Ġpasseng": 5711,
      "Ġbusinesses": 5712,
      "gi": 5713,
      "asy": 5714,
      "ette": 5715,
      "uments": 5716,
      "Ġruns": 5717,
      "Ġ2008": 5718,
      "Ġensures": 5719,
      "Ġbiological": 5720,
      "ya": 5721,
      "hello": 5722,
      "Ġhasn": 5723,
      "Ġotherwise": 5724,
      "noise": 5725,
      "Ġeleph": 5726,
      "Ġmeasured": 5727,
      "Ġconcerns": 5728,
      "bra": 5729,
      "Ġwaves": 5730,
      "Ġcas": 5731,
      "Ġthy": 5732,
      "olve": 5733,
      "Ġyours": 5734,
      "ĠUp": 5735,
      "Ġages": 5736,
      "Ġacceler": 5737,
      "Ġpossibly": 5738,
      "Ġcooked": 5739,
      "Ġcomputers": 5740,
      "ĠDavid": 5741,
      "Answer": 5742,
      "Ġpuzz": 5743,
      "Ġthread": 5744,
      "igen": 5745,
      "Ġwhom": 5746,
      "ĠPort": 5747,
      "rible": 5748,
      "Ġbreast": 5749,
      "Ġtexture": 5750,
      "Ġfocused": 5751,
      "husi": 5752,
      "Ġloud": 5753,
      "Ġstable": 5754,
      "ĠWild": 5755,
      "Ġnoticed": 5756,
      "ĠElect": 5757,
      "Ġseek": 5758,
      "Ġreliable": 5759,
      "Ġappeared": 5760,
      "Ġwaters": 5761,
      "Ġreact": 5762,
      "ĠDen": 5763,
      "eline": 5764,
      "certain": 5765,
      "Ġpresented": 5766,
      "Ġstraw": 5767,
      "Ġsituations": 5768,
      "ĠPaul": 5769,
      "Ġconsists": 5770,
      "Ġgrade": 5771,
      "Ġenthusi": 5772,
      "Ġbeneficial": 5773,
      "Ġreplaced": 5774,
      "Ġharmful": 5775,
      "Ġmanufacturing": 5776,
      "cers": 5777,
      "Ġ<": 5778,
      "ĠWood": 5779,
      "Ġchoices": 5780,
      "weight": 5781,
      "Ġbuildings": 5782,
      "Ġlabel": 5783,
      ".[": 5784,
      "owing": 5785,
      "ĠTV": 5786,
      "Ġspaces": 5787,
      "Ġstudied": 5788,
      "Ġbelief": 5789,
      "Ġstands": 5790,
      "ĠIsland": 5791,
      "Ġindependent": 5792,
      "Int": 5793,
      "UR": 5794,
      "dis": 5795,
      "pret": 5796,
      "Ġaqu": 5797,
      "esh": 5798,
      "Ġmission": 5799,
      "pert": 5800,
      "ishing": 5801,
      "Ġformula": 5802,
      "Ġlesson": 5803,
      "aptain": 5804,
      "Ġbreakfast": 5805,
      "Ġreferred": 5806,
      "Ġdelicious": 5807,
      "ĠGeorge": 5808,
      "was": 5809,
      "Ġreference": 5810,
      "Ġvan": 5811,
      "Ġchurch": 5812,
      "oses": 5813,
      "Ġ29": 5814,
      "Ġdioxide": 5815,
      "Ġreplied": 5816,
      "Ġhydro": 5817,
      "hand": 5818,
      "rich": 5819,
      "Ġcivil": 5820,
      "ĠRoman": 5821,
      "Ġappl": 5822,
      "Ġfindings": 5823,
      "Ġexciting": 5824,
      "Ġentirely": 5825,
      "Ġhydrogen": 5826,
      "Ġopposite": 5827,
      "inger": 5828,
      "Ġmir": 5829,
      "Ġmush": 5830,
      "Ġhorm": 5831,
      "riage": 5832,
      "ĠFound": 5833,
      "Ġbroke": 5834,
      "Ġrelationships": 5835,
      "Ġfault": 5836,
      "ĠAssociation": 5837,
      "28": 5838,
      "Take": 5839,
      "hi": 5840,
      "Ġath": 5841,
      "ĠWestern": 5842,
      "ĠBook": 5843,
      "ĠHen": 5844,
      "cium": 5845,
      "Ġuniverse": 5846,
      "Ġspeaking": 5847,
      "Ġshouldn": 5848,
      "Ġtransition": 5849,
      "Ġidentified": 5850,
      "Ġurban": 5851,
      "Ġconsistent": 5852,
      "Over": 5853,
      "Ġfan": 5854,
      "Ġhaz": 5855,
      "ĠYear": 5856,
      "Ġhunting": 5857,
      "Ġcontrolled": 5858,
      "chers": 5859,
      "ipping": 5860,
      "ĠCam": 5861,
      "Ġproport": 5862,
      "ĠDist": 5863,
      "ĠOut": 5864,
      "Ġremote": 5865,
      "Ġputs": 5866,
      "Ġinsurance": 5867,
      "ĠAnother": 5868,
      "Ġcooling": 5869,
      "Ġvideos": 5870,
      "rect": 5871,
      "stairs": 5872,
      "ĠRich": 5873,
      "Ġsamples": 5874,
      "fortunately": 5875,
      "UT": 5876,
      "outer": 5877,
      "Ġstars": 5878,
      "Ġweap": 5879,
      "ulum": 5880,
      "ĠJames": 5881,
      "Ġconsidering": 5882,
      "Ġmagnetic": 5883,
      "Ġexplained": 5884,
      "Ġbat": 5885,
      "Ġpit": 5886,
      "orter": 5887,
      "Ġnone": 5888,
      "uses": 5889,
      "Ġmeals": 5890,
      "Ġleads": 5891,
      "Ġsensitive": 5892,
      "Ġspeaker": 5893,
      "related": 5894,
      "Ġtube": 5895,
      "rome": 5896,
      "Ġexposed": 5897,
      "print": 5898,
      "Ġimproving": 5899,
      "comes": 5900,
      "Ġoperating": 5901,
      "Ġconcern": 5902,
      "Ġoffered": 5903,
      "Ġrocks": 5904,
      "Ġapparent": 5905,
      "Ġcreates": 5906,
      "ĠZe": 5907,
      "Ġsensors": 5908,
      "Ġcircum": 5909,
      "Ġsettings": 5910,
      "Ġestimated": 5911,
      "iveness": 5912,
      "More": 5913,
      "some": 5914,
      "Ġfasc": 5915,
      "Ġshel": 5916,
      "ressed": 5917,
      "Ġthanks": 5918,
      "Ġhealthcare": 5919,
      "Ġpossess": 5920,
      "Ġtreatments": 5921,
      "Ġrecords": 5922,
      "Ġcomprehensive": 5923,
      "atin": 5924,
      "Ġcrop": 5925,
      "Ġgro": 5926,
      "unity": 5927,
      "Ġmold": 5928,
      "ĠBur": 5929,
      "ĠGovern": 5930,
      "ago": 5931,
      "Ġeverybody": 5932,
      "Ġdrinking": 5933,
      "Ġpercentage": 5934,
      "Ġsurrounding": 5935,
      "oogle": 5936,
      "Fr": 5937,
      "ĠSub": 5938,
      "ĠMain": 5939,
      "Ġkil": 5940,
      "Ġalt": 5941,
      "ĠLife": 5942,
      "Ġrose": 5943,
      "Ġprey": 5944,
      "Ġbiggest": 5945,
      "ĠSee": 5946,
      "Ġsuddenly": 5947,
      "100": 5948,
      "gas": 5949,
      "Ġcott": 5950,
      "Ġfirm": 5951,
      "Ġitem": 5952,
      "ĠLord": 5953,
      "ĠInter": 5954,
      "Ġgenerated": 5955,
      "Ġ70": 5956,
      "Ġfarmers": 5957,
      "Ġpowder": 5958,
      "ĠHaw": 5959,
      "Ġsufficient": 5960,
      "Ġsettle": 5961,
      "Ġrefers": 5962,
      "Ġalbum": 5963,
      "erves": 5964,
      "Ġacids": 5965,
      "Ġdistrict": 5966,
      "Ġstatement": 5967,
      "ĠPhil": 5968,
      "Ġmicrob": 5969,
      "Ġinjuries": 5970,
      "Ġboost": 5971,
      "Ġtaught": 5972,
      "atur": 5973,
      "Ġnerv": 5974,
      "Ġbee": 5975,
      "ĠMag": 5976,
      "osen": 5977,
      "Ġprison": 5978,
      "Ġphysics": 5979,
      "ĠCollege": 5980,
      "rating": 5981,
      "zil": 5982,
      "ĠIT": 5983,
      "ifferent": 5984,
      "pty": 5985,
      "Ġcompost": 5986,
      "Ġbridge": 5987,
      "Many": 5988,
      "Ġaid": 5989,
      "Ġmath": 5990,
      "Ġwilling": 5991,
      "rows": 5992,
      "itty": 5993,
      "Ġappoint": 5994,
      "Ġradiation": 5995,
      "Ġmixed": 5996,
      "Ġlinked": 5997,
      "Ġinfections": 5998,
      "ĠEducation": 5999,
      "Ġends": 6000,
      "ugs": 6001,
      "Ġfriendly": 6002,
      "Ġindicate": 6003,
      "iotics": 6004,
      "Ġvessels": 6005,
      "Ġcompleted": 6006,
      "cific": 6007,
      "Ġfav": 6008,
      "Ġdance": 6009,
      "Ġindu": 6010,
      "ĠPeter": 6011,
      "ĠHome": 6012,
      "ĠRoyal": 6013,
      "Ġorganisms": 6014,
      "Ġeducational": 6015,
      "Ġbranches": 6016,
      "Ġtonight": 6017,
      "Ġcomposition": 6018,
      "Ġhom": 6019,
      "ĠIll": 6020,
      "unte": 6021,
      "Ġenem": 6022,
      "elling": 6023,
      "Ġemail": 6024,
      "Ġcalls": 6025,
      "Ġauto": 6026,
      "Ġpolic": 6027,
      "Ġhoriz": 6028,
      "Ġrecorded": 6029,
      "Ġfairly": 6030,
      "Erm": 6031,
      "lines": 6032,
      "mond": 6033,
      "Ġpel": 6034,
      "Ġlaser": 6035,
      "ĠSl": 6036,
      "ĠMil": 6037,
      "ophy": 6038,
      "ĠLake": 6039,
      "Ġdivided": 6040,
      "OM": 6041,
      "ii": 6042,
      "onic": 6043,
      "ilation": 6044,
      "Ġusual": 6045,
      "Ġvs": 6046,
      "Ġadequ": 6047,
      "Ġdiagram": 6048,
      "Ġemp": 6049,
      "ĠProte": 6050,
      "Ġcultiv": 6051,
      "Ġselected": 6052,
      "Ġpurchase": 6053,
      "inosaur": 6054,
      "ĠpH": 6055,
      "iller": 6056,
      "ĠMal": 6057,
      "ibilities": 6058,
      "Ġinteract": 6059,
      "Ġelectronic": 6060,
      "dered": 6061,
      "Ġaudience": 6062,
      "Ġcampa": 6063,
      "Ġhungry": 6064,
      "99": 6065,
      "Ġstring": 6066,
      "Ġdepression": 6067,
      "ĠVirgin": 6068,
      "fly": 6069,
      "ĠDel": 6070,
      "Ġanymore": 6071,
      "Ġcray": 6072,
      "Ġbub": 6073,
      "Ġpun": 6074,
      "Ġdeeper": 6075,
      "fection": 6076,
      "Ġminimum": 6077,
      "makes": 6078,
      "Ġpros": 6079,
      "emic": 6080,
      "Ġblind": 6081,
      "Ġtrail": 6082,
      "Ġperspective": 6083,
      "Ġ2022": 6084,
      "Dr": 6085,
      "Ġinvent": 6086,
      "Ġalright": 6087,
      "Ġlikes": 6088,
      "Ġvarieties": 6089,
      "Ġawareness": 6090,
      "ĠService": 6091,
      "According": 6092,
      "CA": 6093,
      "hors": 6094,
      "Ġtoler": 6095,
      "Ġblank": 6096,
      "angle": 6097,
      "oster": 6098,
      "Ġextensive": 6099,
      "Ġbasically": 6100,
      "Ġcircle": 6101,
      "Ġconcentration": 6102,
      "Ġknock": 6103,
      "PA": 6104,
      "oons": 6105,
      "otic": 6106,
      "uting": 6107,
      "Ġstages": 6108,
      "Ġseal": 6109,
      "Ġcrew": 6110,
      "Ġguard": 6111,
      "position": 6112,
      "paration": 6113,
      "Ġrelevant": 6114,
      "Ġvirtual": 6115,
      "!!": 6116,
      "Does": 6117,
      "Rem": 6118,
      "lig": 6119,
      "hered": 6120,
      "Ġyield": 6121,
      "Ġnarrow": 6122,
      "Ġbeat": 6123,
      "ĠPower": 6124,
      "osph": 6125,
      "Ġspeech": 6126,
      "asses": 6127,
      "Ġgreenhouse": 6128,
      "Ġconcerned": 6129,
      "Ġcollected": 6130,
      "Ġmoon": 6131,
      "iped": 6132,
      "ĠPlan": 6133,
      "Ġgrew": 6134,
      "Ġperfectly": 6135,
      "orous": 6136,
      "ĠFurther": 6137,
      "Ġspider": 6138,
      "Ġexplan": 6139,
      "ylv": 6140,
      "Ġmechanism": 6141,
      "Maybe": 6142,
      "Ġow": 6143,
      "Ġmild": 6144,
      "Ġdu": 6145,
      "ayer": 6146,
      "ĠMount": 6147,
      "Ġkick": 6148,
      "Ġknowing": 6149,
      "Ġkeeps": 6150,
      "atching": 6151,
      "Ġvisible": 6152,
      "Ġ2007": 6153,
      "Ġbasket": 6154,
      "Ġcalm": 6155,
      "Ġjournal": 6156,
      "Ġpreviously": 6157,
      "Ġconcrete": 6158,
      "\")": 6159,
      "33": 6160,
      "SA": 6161,
      "lock": 6162,
      "Ġaer": 6163,
      "Ġmixture": 6164,
      "Ġdough": 6165,
      "istor": 6166,
      "berry": 6167,
      "ignment": 6168,
      "Ġregul": 6169,
      "Ġacadem": 6170,
      "Ġreduction": 6171,
      "Ġdamaged": 6172,
      "VID": 6173,
      "stic": 6174,
      "Ġvast": 6175,
      "Ġrow": 6176,
      "Ġraise": 6177,
      "Ġformation": 6178,
      "pring": 6179,
      "Ġlifestyle": 6180,
      "Ġversat": 6181,
      "Pre": 6182,
      "ota": 6183,
      "stood": 6184,
      "acific": 6185,
      "Ġcris": 6186,
      "Ġperiods": 6187,
      "ĠInstead": 6188,
      "Ġnervous": 6189,
      "nel": 6190,
      "asant": 6191,
      "Ġnation": 6192,
      "aren": 6193,
      "Ġtrick": 6194,
      "Ġbabies": 6195,
      "Ġcopy": 6196,
      "Ġfrog": 6197,
      "Ġimagine": 6198,
      "Ġescape": 6199,
      "Ġmonitoring": 6200,
      "usive": 6201,
      "Ġchronic": 6202,
      "Ġalle": 6203,
      "Ġproduces": 6204,
      "Ġphilos": 6205,
      "Ġinformed": 6206,
      "Ġpurs": 6207,
      "Ġfalling": 6208,
      "Ġsleeping": 6209,
      "Ġaudio": 6210,
      "Ġeast": 6211,
      "ĠBas": 6212,
      "cipl": 6213,
      "Ġjoy": 6214,
      "ĠGarden": 6215,
      "Ġclock": 6216,
      "Ġcoord": 6217,
      "Ġserver": 6218,
      "ventional": 6219,
      "ĠThrough": 6220,
      "Ġwarming": 6221,
      "Ġdetailed": 6222,
      "long": 6223,
      "ville": 6224,
      "alright": 6225,
      "Ġkiss": 6226,
      "ĠRober": 6227,
      "irect": 6228,
      "Ġrab": 6229,
      "airy": 6230,
      "Ġintended": 6231,
      "Ġbreeding": 6232,
      "Ġpanel": 6233,
      "Ġrapidly": 6234,
      "Ġchannel": 6235,
      "take": 6236,
      "Ġtut": 6237,
      "iber": 6238,
      "Ġrod": 6239,
      "Ġ2000": 6240,
      "ĠEngine": 6241,
      "Ġannual": 6242,
      "Ġsurvive": 6243,
      "Ġtag": 6244,
      "Ġseam": 6245,
      "ĠMo": 6246,
      "anted": 6247,
      "ĠForm": 6248,
      "ĠEv": 6249,
      "Ġtransp": 6250,
      "Ġgreatly": 6251,
      "Ġsolve": 6252,
      "Ġcourt": 6253,
      "Ġdelay": 6254,
      "Ġguidelines": 6255,
      "gers": 6256,
      "organ": 6257,
      "utch": 6258,
      "Ġprinciples": 6259,
      "Ġaccompl": 6260,
      "Ġvillage": 6261,
      "Ġemergency": 6262,
      "bility": 6263,
      "rations": 6264,
      "Ġtoile": 6265,
      "ĠSk": 6266,
      "Ġfeels": 6267,
      "Ġfurniture": 6268,
      "west": 6269,
      "Ġbattle": 6270,
      "Ġmoves": 6271,
      "Ġourselves": 6272,
      "Ġmetabol": 6273,
      "Ġportion": 6274,
      "Ġdiscussion": 6275,
      "ENT": 6276,
      "IR": 6277,
      "Ind": 6278,
      "Ġtap": 6279,
      "real": 6280,
      "Ġhook": 6281,
      "Ġlessons": 6282,
      "while": 6283,
      "Ġeconomy": 6284,
      "Hello": 6285,
      "Ġtou": 6286,
      "requ": 6287,
      "Ġmort": 6288,
      "sec": 6289,
      "olph": 6290,
      "Ġalive": 6291,
      "Ġdisappe": 6292,
      "Ġrequest": 6293,
      "Ġleader": 6294,
      "Ġoccasion": 6295,
      "Ġmembr": 6296,
      "Ġjoined": 6297,
      "ardon": 6298,
      "Ġdisorder": 6299,
      "Ġnovel": 6300,
      "Ġattached": 6301,
      "Ġcorresp": 6302,
      "Ġorganizations": 6303,
      "ĠEnergy": 6304,
      "Although": 6305,
      "Ġopinion": 6306,
      "Ġphenomen": 6307,
      "Even": 6308,
      "Ġplates": 6309,
      "anged": 6310,
      "Ġseeking": 6311,
      "Ġcontainer": 6312,
      "Ġrecognize": 6313,
      "Ġepis": 6314,
      "uilding": 6315,
      "top": 6316,
      "vol": 6317,
      "stone": 6318,
      "ieving": 6319,
      "Ġmanaged": 6320,
      "Ġnoises": 6321,
      "Ġdirector": 6322,
      "Ġplanting": 6323,
      "Ġzone": 6324,
      "Ġchallenging": 6325,
      "Ġhonest": 6326,
      "Ġtranslation": 6327,
      "friendly": 6328,
      "90": 6329,
      "name": 6330,
      "ĠFore": 6331,
      "Ġregulations": 6332,
      "Ġbrings": 6333,
      "ĠThus": 6334,
      "ĠAsia": 6335,
      "Ġrealize": 6336,
      "Ġaffects": 6337,
      "Ġfacilit": 6338,
      "Ġstrategy": 6339,
      "terday": 6340,
      "ĠBay": 6341,
      "Ġcompr": 6342,
      "Ġentertain": 6343,
      "Ġcontaining": 6344,
      "olly": 6345,
      "27": 6346,
      "New": 6347,
      "lla": 6348,
      "owers": 6349,
      "Ġoptim": 6350,
      "ivalent": 6351,
      "Ġsurprise": 6352,
      "ĠBrazil": 6353,
      "Ġrubber": 6354,
      "Ġtub": 6355,
      "inate": 6356,
      "icing": 6357,
      "ican": 6358,
      "Ġyouth": 6359,
      "Ġbeef": 6360,
      "Ġexternal": 6361,
      "Ġobst": 6362,
      "Ġcounty": 6363,
      "Ġdirected": 6364,
      "Ġprompt": 6365,
      "Ġdropped": 6366,
      "Ġshopping": 6367,
      "ĠAcadem": 6368,
      "45": 6369,
      "erving": 6370,
      "ĠSal": 6371,
      "ĠMat": 6372,
      "Ġrig": 6373,
      "Ġrib": 6374,
      "Ġsharing": 6375,
      "roud": 6376,
      "Ġdifficulty": 6377,
      "Ġrepresents": 6378,
      "cel": 6379,
      "unning": 6380,
      "ĠRo": 6381,
      "rue": 6382,
      "Ġproducing": 6383,
      "Ġrising": 6384,
      "Ġbalanced": 6385,
      "Ġrefriger": 6386,
      "Like": 6387,
      "Ġvel": 6388,
      "Ġsac": 6389,
      "Ġdad": 6390,
      "Ġhabits": 6391,
      "ĠSociety": 6392,
      "Ġmovements": 6393,
      "Ġconfig": 6394,
      "Ġconducted": 6395,
      "Ġbathroom": 6396,
      "gans": 6397,
      "rors": 6398,
      "Ġain": 6399,
      "Ġpizza": 6400,
      "Ġmas": 6401,
      "Ġlunch": 6402,
      "Ġretain": 6403,
      "Ġstroke": 6404,
      "unicip": 6405,
      "istan": 6406,
      "rub": 6407,
      "Ġminor": 6408,
      "Ġadds": 6409,
      "Ġtopics": 6410,
      "ĠCentral": 6411,
      "ĠGeneral": 6412,
      "Ġdiversity": 6413,
      "Ġfossil": 6414,
      "Ġmal": 6415,
      "astern": 6416,
      "ĠBig": 6417,
      "ĠPri": 6418,
      "ĠLu": 6419,
      "Ġcovers": 6420,
      "ĠAdd": 6421,
      "Ġdefic": 6422,
      "Ġconflic": 6423,
      "Ġconfidence": 6424,
      "Ġmicrosc": 6425,
      "Ġclinical": 6426,
      "OK": 6427,
      "Ġaest": 6428,
      "Ġbones": 6429,
      "Ġlake": 6430,
      "Ġforth": 6431,
      "iration": 6432,
      "Ġassemb": 6433,
      "Ġarmy": 6434,
      "Ġtraffic": 6435,
      "Ġcalling": 6436,
      "Ġdecades": 6437,
      "Ġsafely": 6438,
      "asive": 6439,
      "Ġrend": 6440,
      "oto": 6441,
      "ĠDet": 6442,
      "ĠOff": 6443,
      "apor": 6444,
      "Ġflour": 6445,
      "Ġdistingu": 6446,
      "Ġdollars": 6447,
      "PAT": 6448,
      "ga": 6449,
      "ona": 6450,
      "Ġdent": 6451,
      "uty": 6452,
      "ĠBest": 6453,
      "ĠBrown": 6454,
      "Ġrust": 6455,
      "Ġspots": 6456,
      "ĠUV": 6457,
      "ĠKnow": 6458,
      "Ġdespite": 6459,
      "Ġ35": 6460,
      "Ġfeelings": 6461,
      "Ġfunctional": 6462,
      "Ġjobs": 6463,
      "Ġinstallation": 6464,
      "ka": 6465,
      "Ġwest": 6466,
      "Ġwings": 6467,
      "Ġmouse": 6468,
      "Ġhide": 6469,
      "rab": 6470,
      "ĠPost": 6471,
      "Ġenable": 6472,
      "Ġunivers": 6473,
      "ĠTechnology": 6474,
      "Ġschedule": 6475,
      "Ġtip": 6476,
      "Ġaward": 6477,
      "ctive": 6478,
      "ooh": 6479,
      "agon": 6480,
      "elly": 6481,
      "riculum": 6482,
      "Ġminerals": 6483,
      "appy": 6484,
      "Ġabsolutely": 6485,
      "gie": 6486,
      "Ġsed": 6487,
      "esus": 6488,
      "Ġhang": 6489,
      "ifts": 6490,
      "ĠBer": 6491,
      "rip": 6492,
      "Ġworkers": 6493,
      "Ġpoison": 6494,
      "ario": 6495,
      "Ġinterview": 6496,
      "attles": 6497,
      "Ġvolunte": 6498,
      "Ġagricultural": 6499,
      "using": 6500,
      "ushes": 6501,
      "oos": 6502,
      "ĠST": 6503,
      "Ġspoke": 6504,
      "Ġpartner": 6505,
      "Ġheads": 6506,
      "ructure": 6507,
      "Ġbiology": 6508,
      "ĠSea": 6509,
      "Ġhistorical": 6510,
      "Ġmice": 6511,
      "ĠSometimes": 6512,
      "ĠFact": 6513,
      "Ġtells": 6514,
      "ĠCheck": 6515,
      "BS": 6516,
      "uing": 6517,
      "your": 6518,
      "Ġah": 6519,
      "Ġstain": 6520,
      "Ġate": 6521,
      "Ġshock": 6522,
      "Ġincome": 6523,
      "Ġexcited": 6524,
      "ented": 6525,
      "Ġsheep": 6526,
      "ĠAnge": 6527,
      "Ġlocations": 6528,
      "35": 6529,
      "sit": 6530,
      "Ġtire": 6531,
      "lymp": 6532,
      "ĠSol": 6533,
      "eping": 6534,
      "Ġincl": 6535,
      "Ġreprodu": 6536,
      "Ġspecialized": 6537,
      "Ġparticipants": 6538,
      "Ġfingers": 6539,
      "ĠPresident": 6540,
      "Ġhouses": 6541,
      "Ġvertical": 6542,
      "ena": 6543,
      "Ġgift": 6544,
      "ĠSun": 6545,
      "ache": 6546,
      "Ġsail": 6547,
      "Ġexperiments": 6548,
      "Ġphotograp": 6549,
      "Ġpreventing": 6550,
      "Which": 6551,
      "Ġmolecular": 6552,
      "Ġarrange": 6553,
      "Ġcircumst": 6554,
      ");": 6555,
      "IA": 6556,
      "cest": 6557,
      "ÂŃ": 6558,
      "Ġease": 6559,
      "ĠPacific": 6560,
      "luded": 6561,
      "Ġapproaches": 6562,
      "Ġsensor": 6563,
      "Ġrecipes": 6564,
      "Ġforests": 6565,
      "Fe": 6566,
      "lers": 6567,
      "making": 6568,
      "Ġbaking": 6569,
      "Ġfant": 6570,
      "stract": 6571,
      "lder": 6572,
      "Ġplus": 6573,
      "Ġprotected": 6574,
      "proof": 6575,
      "Ġcorrectly": 6576,
      "Ġdiameter": 6577,
      "Cons": 6578,
      "inet": 6579,
      "Ġsouthern": 6580,
      "Ġwine": 6581,
      "isation": 6582,
      "Ġinner": 6583,
      "ĠSum": 6584,
      "uls": 6585,
      "Ġships": 6586,
      "cip": 6587,
      "Ġsauce": 6588,
      "Ġdiscussed": 6589,
      "Ġterrit": 6590,
      "Ġremaining": 6591,
      "Ġmathemat": 6592,
      "Since": 6593,
      "Ġought": 6594,
      "aning": 6595,
      "Ġdating": 6596,
      "edom": 6597,
      "ria": 6598,
      "Ġcoal": 6599,
      "ĠExpl": 6600,
      "Ġfemales": 6601,
      "Ġthickness": 6602,
      "iate": 6603,
      "alian": 6604,
      "Ġloose": 6605,
      "ĠMuse": 6606,
      "Ġwashing": 6607,
      "Ġnotes": 6608,
      "Ġdisorders": 6609,
      "Ġweren": 6610,
      "Ġscar": 6611,
      "Ġlawn": 6612,
      "âĢ¦âĢ¦âĢ¦âĢ¦": 6613,
      "Ġwound": 6614,
      "Ġhidden": 6615,
      "ĠMad": 6616,
      "ĠBon": 6617,
      "Ġfeather": 6618,
      "Ġrecovery": 6619,
      "Ġartists": 6620,
      "AND": 6621,
      "ographic": 6622,
      "Ġfighting": 6623,
      "cm": 6624,
      "kins": 6625,
      "lam": 6626,
      "onge": 6627,
      "Ġsch": 6628,
      "Ġcul": 6629,
      "ĠAC": 6630,
      "ĠPet": 6631,
      "Ġleather": 6632,
      "ĠOkay": 6633,
      "Ġunf": 6634,
      "berg": 6635,
      "Ġperman": 6636,
      "ĠâĢ¢": 6637,
      "Ġartist": 6638,
      "Ġcalcium": 6639,
      "Thanks": 6640,
      "Ġsurvival": 6641,
      "cue": 6642,
      "gent": 6643,
      "ĠWind": 6644,
      "Ġchosen": 6645,
      "erman": 6646,
      "Ġmeters": 6647,
      "Ġexercises": 6648,
      "Ġrepeated": 6649,
      "ij": 6650,
      "rant": 6651,
      "Ġhate": 6652,
      "step": 6653,
      "ĠPlease": 6654,
      "Ġuncertain": 6655,
      "Ġvalid": 6656,
      "ĠArch": 6657,
      "ĠOnly": 6658,
      "Ġsustainability": 6659,
      "Ġassessment": 6660,
      "RYA": 6661,
      "org": 6662,
      "race": 6663,
      "ĠCaptain": 6664,
      "Ġchrom": 6665,
      "Ġmere": 6666,
      "acks": 6667,
      "ĠVe": 6668,
      "Ġfollows": 6669,
      "ĠBefore": 6670,
      "Ġlisted": 6671,
      "ĠOrgan": 6672,
      "Ġglasses": 6673,
      "Ġnutrient": 6674,
      "Ġdefinition": 6675,
      "ĠMexico": 6676,
      "Ġtough": 6677,
      "uster": 6678,
      "Ġrenew": 6679,
      "ĠAlex": 6680,
      "Ġwhis": 6681,
      "alled": 6682,
      "Ġoutcomes": 6683,
      "Ġadminist": 6684,
      "Ġcontem": 6685,
      "----": 6686,
      "Ġessay": 6687,
      "Ġoccurred": 6688,
      "Ġofficer": 6689,
      "Ġdiagnosis": 6690,
      "Ġneighbor": 6691,
      "Ġinflammation": 6692,
      "Ġtone": 6693,
      "ooper": 6694,
      "Ġchart": 6695,
      "ĠGar": 6696,
      "Ġcompounds": 6697,
      "Ġsyn": 6698,
      "Ġscrew": 6699,
      "Ġwatering": 6700,
      "ĠStand": 6701,
      "ĠRead": 6702,
      "Ġsteam": 6703,
      "Ġyounger": 6704,
      "Ġmeasurement": 6705,
      "ĠControl": 6706,
      "Ġconstantly": 6707,
      "36": 6708,
      "75": 6709,
      "LO": 6710,
      "ault": 6711,
      "Ġsli": 6712,
      "Ġgut": 6713,
      "amily": 6714,
      "ĠNet": 6715,
      "ĠLight": 6716,
      "Ġuniversity": 6717,
      "unday": 6718,
      "Ġreports": 6719,
      "Ġlift": 6720,
      "Ġdrops": 6721,
      "ĠWilliam": 6722,
      "Ġreligious": 6723,
      "AY": 6724,
      "Ġouter": 6725,
      "Ġtro": 6726,
      "Ġwed": 6727,
      "Ġmit": 6728,
      "eless": 6729,
      "ĠON": 6730,
      "ĠOb": 6731,
      "Ġdetection": 6732,
      "Ġfacts": 6733,
      "ĠConsider": 6734,
      "Che": 6735,
      "Ġcert": 6736,
      "Ġhall": 6737,
      "Ġnurs": 6738,
      "Ġliver": 6739,
      "ardens": 6740,
      "Ġbugs": 6741,
      "Ġserves": 6742,
      "Ġmechanical": 6743,
      "Ġbags": 6744,
      "Ġfiber": 6745,
      "Use": 6746,
      "lear": 6747,
      "state": 6748,
      "isten": 6749,
      "ĠHistory": 6750,
      "Ġjew": 6751,
      "Ġsuc": 6752,
      "ĠProject": 6753,
      "Ġtested": 6754,
      "Ġ2023": 6755,
      "Ġneighb": 6756,
      "uits": 6757,
      "lement": 6758,
      "raction": 6759,
      "amental": 6760,
      "Ġgod": 6761,
      "ansion": 6762,
      "ensions": 6763,
      "Ġcheap": 6764,
      "Ġworldwide": 6765,
      "Ġdistur": 6766,
      "ĠDevelop": 6767,
      "Ġinvestment": 6768,
      "Ġsubstant": 6769,
      "ĠCOVID": 6770,
      "Ġhumidity": 6771,
      "ĠLouis": 6772,
      "Ġbits": 6773,
      "Ġinch": 6774,
      "Ġreaches": 6775,
      "ĠToday": 6776,
      "Ġstores": 6777,
      "ĠBill": 6778,
      "ups": 6779,
      "Ġ300": 6780,
      "Ġ45": 6781,
      "Ġhardware": 6782,
      "Ġoperate": 6783,
      "Ġcopper": 6784,
      "Ġlibrary": 6785,
      "29": 6786,
      "Ġtropical": 6787,
      "Ġdinosaur": 6788,
      "idents": 6789,
      "Ġforced": 6790,
      "Ġdeck": 6791,
      "Ġsoap": 6792,
      "Before": 6793,
      "ĠAustralian": 6794,
      "Ġproud": 6795,
      "Ġlies": 6796,
      "ĠCouncil": 6797,
      "Ġusage": 6798,
      "ĠOlymp": 6799,
      "Ġextract": 6800,
      "Gen": 6801,
      "ias": 6802,
      "nce": 6803,
      "Ġsession": 6804,
      "Ġlit": 6805,
      "Ġrely": 6806,
      "ĠMommy": 6807,
      "Ġclar": 6808,
      "Ġsuccessfully": 6809,
      "Ġresponsibility": 6810,
      "Ġsubjects": 6811,
      "Ġobtained": 6812,
      "Sc": 6813,
      "green": 6814,
      "aria": 6815,
      "adian": 6816,
      "Ġerror": 6817,
      "ĠSpanish": 6818,
      "aimed": 6819,
      "uracy": 6820,
      "Ġconsequences": 6821,
      "Ġwelcome": 6822,
      "ĠAtlantic": 6823,
      "tion": 6824,
      "Ġya": 6825,
      "ĠIr": 6826,
      "Ġchips": 6827,
      "odel": 6828,
      "Ġmanual": 6829,
      "Ġuncle": 6830,
      "ĠChapter": 6831,
      "Ġsupplement": 6832,
      "Ġremind": 6833,
      "Ġlanguages": 6834,
      "Two": 6835,
      "ki": 6836,
      "lation": 6837,
      "lings": 6838,
      "Ġtum": 6839,
      "itches": 6840,
      "Ġhero": 6841,
      "Ġproposed": 6842,
      "Ġadvert": 6843,
      "Ġfoundation": 6844,
      "Ġpassion": 6845,
      "ĠCarol": 6846,
      "Conclusion": 6847,
      "Ġdynamic": 6848,
      "Ġye": 6849,
      "Ġtalked": 6850,
      "Ġimpacts": 6851,
      "Ġconcepts": 6852,
      "Er": 6853,
      "Ġtires": 6854,
      "imm": 6855,
      "ĠCr": 6856,
      "ĠPal": 6857,
      "ĠPress": 6858,
      "ĠDid": 6859,
      "Ġliked": 6860,
      "ĠLong": 6861,
      "oga": 6862,
      "Ġelectrons": 6863,
      "from": 6864,
      "Ġyard": 6865,
      "ĠTest": 6866,
      "Ġempty": 6867,
      "Ġ2006": 6868,
      "Ġequivalent": 6869,
      "Ġpaying": 6870,
      "ĠCommon": 6871,
      "Ġcarrying": 6872,
      "Ġargument": 6873,
      "vocalizes": 6874,
      "last": 6875,
      "eras": 6876,
      "Ġreactions": 6877,
      "ĠCre": 6878,
      "onday": 6879,
      "Ġinterior": 6880,
      "Ġinsights": 6881,
      "Ġbreaking": 6882,
      "Ġclassic": 6883,
      "Ġvolcan": 6884,
      "Ġremoving": 6885,
      "ĠMedic": 6886,
      "Ġhundreds": 6887,
      "ĠStudents": 6888,
      "Ġguidance": 6889,
      "Ġtrigger": 6890,
      "whis": 6891,
      "ĠÃ": 6892,
      "Ġdoors": 6893,
      "Ġmineral": 6894,
      "Ġretur": 6895,
      "Ġyesterday": 6896,
      "Ġagriculture": 6897,
      "inction": 6898,
      "Ġwax": 6899,
      "oured": 6900,
      "oted": 6901,
      "ĠMac": 6902,
      "Ġvul": 6903,
      "Ġintense": 6904,
      "Ġcoverage": 6905,
      "bert": 6906,
      "ports": 6907,
      "Ġsheet": 6908,
      "Ġ500": 6909,
      "Ġcreatures": 6910,
      "ĠFraser": 6911,
      "Ġanswers": 6912,
      "Ġpicked": 6913,
      "Ġstrike": 6914,
      "ĠMuseum": 6915,
      "aver": 6916,
      "hah": 6917,
      "tt": 6918,
      "Ġmood": 6919,
      "Ġmales": 6920,
      "Ġtower": 6921,
      "Ġrein": 6922,
      "Ġcalories": 6923,
      "Ġforeign": 6924,
      "Ġstronger": 6925,
      "Ġfacilities": 6926,
      "Ġrobots": 6927,
      "Ġaccepted": 6928,
      "uels": 6929,
      "will": 6930,
      "Ġnorthern": 6931,
      "ĠRock": 6932,
      "hesis": 6933,
      "Ġpharm": 6934,
      "Ġgrows": 6935,
      "Ġlistening": 6936,
      "Ġbreathing": 6937,
      "Ġsurprised": 6938,
      "Ġexcessive": 6939,
      "ĠFoundation": 6940,
      "Hi": 6941,
      "hh": 6942,
      "esity": 6943,
      "itan": 6944,
      "arge": 6945,
      "icians": 6946,
      "uten": 6947,
      "sey": 6948,
      "ĠCook": 6949,
      "Ġsector": 6950,
      "ĠWH": 6951,
      "Ġmanip": 6952,
      "Ġsomewhat": 6953,
      "Ġresolution": 6954,
      "Ġmassive": 6955,
      "points": 6956,
      "ĠRemember": 6957,
      "Ġexchange": 6958,
      "Cont": 6959,
      "cons": 6960,
      "mother": 6961,
      "Ġtor": 6962,
      "Ġweigh": 6963,
      "Ġpretend": 6964,
      "Ġpreferences": 6965,
      "Ġaccum": 6966,
      "clock": 6967,
      "Ġexploring": 6968,
      "Ġrestrict": 6969,
      "Ġmagaz": 6970,
      "charge": 6971,
      "ĠTime": 6972,
      "anta": 6973,
      "Ġshore": 6974,
      "Ġcham": 6975,
      "Ġchapter": 6976,
      "tee": 6977,
      "ĠJul": 6978,
      "enses": 6979,
      "ditional": 6980,
      "ĠVict": 6981,
      "Ġearn": 6982,
      "Ġstudying": 6983,
      "Ġmeasuring": 6984,
      "coming": 6985,
      "Ġradi": 6986,
      "Ġlaid": 6987,
      "Ġfence": 6988,
      "ĠTop": 6989,
      "isted": 6990,
      "ĠNature": 6991,
      "Ġcloth": 6992,
      "ender": 6993,
      "Ġeveryday": 6994,
      "Ġinteraction": 6995,
      "posal": 6996,
      "Ġinstalled": 6997,
      "haust": 6998,
      "Ġsuffer": 6999,
      "Ġarrived": 7000,
      "allel": 7001,
      "Ġathlet": 7002,
      "EE": 7003,
      "pie": 7004,
      "oof": 7005,
      "pered": 7006,
      "ĠBudd": 7007,
      "Ġriding": 7008,
      "Ġchlor": 7009,
      "ieves": 7010,
      "ĠLo": 7011,
      "Ġhandling": 7012,
      "Ġpresident": 7013,
      "ĠProv": 7014,
      "Ġwondering": 7015,
      "Ġinnovative": 7016,
      "Ġcircumstances": 7017,
      "Man": 7018,
      "VER": 7019,
      "[$": 7020,
      "pic": 7021,
      "hee": 7022,
      "inent": 7023,
      "Ġcm": 7024,
      "arant": 7025,
      "ifier": 7026,
      "umes": 7027,
      "Ġunderstood": 7028,
      "Ġcontrols": 7029,
      "Ġachieved": 7030,
      "ĠâĮ": 7031,
      "Ġsongs": 7032,
      "Ġemotions": 7033,
      "Ġreplacement": 7034,
      "Am": 7035,
      "Sp": 7036,
      "sters": 7037,
      "ĠAM": 7038,
      "urrent": 7039,
      "ĠCy": 7040,
      "elve": 7041,
      "Ġsurvey": 7042,
      "Ġattrib": 7043,
      "Ġassistance": 7044,
      "Ġextent": 7045,
      "brid": 7046,
      "Ġfeedback": 7047,
      "Ġoriginally": 7048,
      "Ġcommitment": 7049,
      "Will": 7050,
      "squ": 7051,
      "uis": 7052,
      "Ġwiring": 7053,
      "Ġcav": 7054,
      "Ġdaddy": 7055,
      "otes": 7056,
      "Ġ(\"": 7057,
      "Ġplain": 7058,
      "Ġabilities": 7059,
      "Ġuniform": 7060,
      "Ġpotatoes": 7061,
      "Ġassume": 7062,
      "Ġreduces": 7063,
      "Ġengage": 7064,
      "Ġemployees": 7065,
      "Ġfundamental": 7066,
      "ĠBetty": 7067,
      "Other": 7068,
      "_,": 7069,
      "paper": 7070,
      "say": 7071,
      "Ġfaces": 7072,
      "ĠMother": 7073,
      "Ġdeer": 7074,
      "Ġunus": 7075,
      "Ġrelief": 7076,
      "Ġinstruct": 7077,
      "Ġsupporting": 7078,
      "ĠFranc": 7079,
      "ĠRepublic": 7080,
      "Ġvictim": 7081,
      "Ġrestaurant": 7082,
      "Ġstyles": 7083,
      "During": 7084,
      "ker": 7085,
      "lie": 7086,
      "inally": 7087,
      "oral": 7088,
      "Ġlux": 7089,
      "ston": 7090,
      "ĠSil": 7091,
      "atell": 7092,
      "Ġunlike": 7093,
      "Ġdesire": 7094,
      "aug": 7095,
      "Ġzero": 7096,
      "ĠWorks": 7097,
      "Ġdecrease": 7098,
      "Ġcorrespond": 7099,
      "ev": 7100,
      "Ġtables": 7101,
      "Ġmunicip": 7102,
      "ĠID": 7103,
      "Ġancest": 7104,
      "Ġprove": 7105,
      "Ġrings": 7106,
      "ĠOcean": 7107,
      "ĠJour": 7108,
      "ĠKore": 7109,
      "Ġinteg": 7110,
      "Ġedges": 7111,
      "Ġnuts": 7112,
      "Ġfalls": 7113,
      "Ġindustries": 7114,
      "Ġsubstance": 7115,
      "Ġsentence": 7116,
      "Ġefficiently": 7117,
      "Ġtissues": 7118,
      "SC": 7119,
      "hav": 7120,
      "Ġ{": 7121,
      "Ġcous": 7122,
      "Ġment": 7123,
      "ĠBre": 7124,
      "Ġleak": 7125,
      "ĠDem": 7126,
      "ĠLab": 7127,
      "Ġharder": 7128,
      "Ġfarming": 7129,
      "Ġintroduction": 7130,
      "Ġincreasingly": 7131,
      "Ġlenses": 7132,
      "Ġflavors": 7133,
      "Ġannounced": 7134,
      "inant": 7135,
      "Ġreward": 7136,
      "Ġdefect": 7137,
      "ĠPC": 7138,
      "Ġsod": 7139,
      "ĠExt": 7140,
      "ĠGB": 7141,
      "ods": 7142,
      "Ġanybody": 7143,
      "ensus": 7144,
      "Ġ31": 7145,
      "Ġengines": 7146,
      "Ġmillions": 7147,
      "Ġindicates": 7148,
      "Ġobviously": 7149,
      "Ġsplit": 7150,
      "Ġcitiz": 7151,
      "ĠVirginia": 7152,
      "34": 7153,
      "maybe": 7154,
      "zed": 7155,
      "Ġcash": 7156,
      "Ġhealing": 7157,
      "ola": 7158,
      "ĠLED": 7159,
      "Ġauthors": 7160,
      "Ġcreativity": 7161,
      "ĠColor": 7162,
      "Ġroute": 7163,
      "ĠNavy": 7164,
      "CDS": 7165,
      "Under": 7166,
      "Ġbio": 7167,
      "ĠAT": 7168,
      "Ġshift": 7169,
      "ĠRel": 7170,
      "Ġflag": 7171,
      "ĠAnn": 7172,
      "Ġcommunicate": 7173,
      "Ġbringing": 7174,
      "ï¿½ï¿½ï¿½ï¿½": 7175,
      "Ġmagnet": 7176,
      "ĠProfessor": 7177,
      "Ġdedicated": 7178,
      "ĠAcademy": 7179,
      "mat": 7180,
      "Ġion": 7181,
      "Ġnur": 7182,
      "Ġproof": 7183,
      "Ġcond": 7184,
      "ĠMa": 7185,
      "Ġchances": 7186,
      "Ġwheels": 7187,
      "ĠRet": 7188,
      "ĠEffect": 7189,
      "ĠNor": 7190,
      "ĠItaly": 7191,
      "ormal": 7192,
      "Ġaccuracy": 7193,
      "Ġmatters": 7194,
      "Ġmedications": 7195,
      "ĠDesign": 7196,
      "Ġbranch": 7197,
      "ĠLearning": 7198,
      "tic": 7199,
      "would": 7200,
      "Ġstones": 7201,
      "ĠDou": 7202,
      "ĠJo": 7203,
      "Ġdiscovery": 7204,
      "ĠPlant": 7205,
      "Ġgardening": 7206,
      "ĠCarl": 7207,
      "Ġburning": 7208,
      "Ġrevolution": 7209,
      "Ġcrystals": 7210,
      "SI": 7211,
      "may": 7212,
      "ĠQuestion": 7213,
      "Ġdirt": 7214,
      "Ġreb": 7215,
      "ĠCour": 7216,
      "Ġdoctors": 7217,
      "Ġflash": 7218,
      "Ġdrawn": 7219,
      "ushing": 7220,
      "ĠExper": 7221,
      "Ġnutritional": 7222,
      "Ġcampaign": 7223,
      "%.": 7224,
      "BC": 7225,
      "FCH": 7226,
      "gia": 7227,
      "Ġthou": 7228,
      "ĠMass": 7229,
      "ĠStart": 7230,
      "Ġentered": 7231,
      "Ġpromise": 7232,
      "Ġknife": 7233,
      "cule": 7234,
      "Ġcord": 7235,
      "arn": 7236,
      "Ġstability": 7237,
      "irus": 7238,
      "Ġconventional": 7239,
      "ĠHall": 7240,
      "agues": 7241,
      "Ġtrap": 7242,
      "ĠStr": 7243,
      "Ġinstrum": 7244,
      "ĠNews": 7245,
      "Ġsuggestion": 7246,
      "singing": 7247,
      "Ġfaith": 7248,
      "Ġtoilet": 7249,
      "LD": 7250,
      "ĠBab": 7251,
      "ĠEss": 7252,
      "Ġprev": 7253,
      "ommod": 7254,
      "lessly": 7255,
      "Ġobserv": 7256,
      "Ġselecting": 7257,
      "Ġagreed": 7258,
      "ĠHenry": 7259,
      "Pr": 7260,
      "Ġbark": 7261,
      "Ġnic": 7262,
      "etime": 7263,
      "ifies": 7264,
      "ĠLaw": 7265,
      "Ġunable": 7266,
      "Ġpreparation": 7267,
      "Ġampl": 7268,
      "Ġgrain": 7269,
      "Ġparas": 7270,
      "afety": 7271,
      "ĠScient": 7272,
      "Ġpregnancy": 7273,
      "Spe": 7274,
      "mo": 7275,
      "Ġstre": 7276,
      "amps": 7277,
      "amins": 7278,
      "ĠMer": 7279,
      "Ġshark": 7280,
      "Ġchief": 7281,
      "ĠFind": 7282,
      "ĠEr": 7283,
      "aret": 7284,
      "Ġbull": 7285,
      "ĠProdu": 7286,
      "Ġvalve": 7287,
      "Ġearthqu": 7288,
      "ascular": 7289,
      "iotic": 7290,
      "Ġventilation": 7291,
      "FA": 7292,
      "rite": 7293,
      "Ġlosing": 7294,
      "igg": 7295,
      "stream": 7296,
      "ĠMicro": 7297,
      "Ġsole": 7298,
      "Ġenab": 7299,
      "ogether": 7300,
      "ocity": 7301,
      "Ġinterpret": 7302,
      "Ġsupported": 7303,
      "Ġmarked": 7304,
      "Ġnecessarily": 7305,
      "Ġcaptured": 7306,
      "Ġremained": 7307,
      "Ġprinting": 7308,
      "Ġappreciate": 7309,
      "Ġadequate": 7310,
      "bro": 7311,
      "Ã¶": 7312,
      "ÃŃ": 7313,
      "riers": 7314,
      "ĠDef": 7315,
      "ĠDraw": 7316,
      "Ġrail": 7317,
      "Ġshoulder": 7318,
      "Ġanalog": 7319,
      "Ġshooting": 7320,
      "aying": 7321,
      "ĠLand": 7322,
      "Ġboil": 7323,
      "Ġestimate": 7324,
      "Ġtotally": 7325,
      "Ġpreparing": 7326,
      "THE": 7327,
      "Ġwidth": 7328,
      "Ġcotton": 7329,
      "TS": 7330,
      "inity": 7331,
      "Ġwestern": 7332,
      "Ġexhaust": 7333,
      "Ġchamp": 7334,
      "Ġsoci": 7335,
      "ipes": 7336,
      "Ġblur": 7337,
      "Ġended": 7338,
      "Ġcharging": 7339,
      "Ġeaten": 7340,
      "Ġpulled": 7341,
      "Ġultimately": 7342,
      "Ġsupplies": 7343,
      "ĠMichael": 7344,
      "02": 7345,
      "],": 7346,
      "bage": 7347,
      "eer": 7348,
      "rical": 7349,
      "such": 7350,
      "utter": 7351,
      "ĠClean": 7352,
      "elf": 7353,
      "berries": 7354,
      "Ġvariable": 7355,
      "ĠShould": 7356,
      "Ġconnections": 7357,
      "Ġfrequent": 7358,
      "Ġgolden": 7359,
      "ĠParis": 7360,
      "Ġsuffering": 7361,
      "Ġquarter": 7362,
      "Ġadventure": 7363,
      "MP": 7364,
      "itness": 7365,
      "roat": 7366,
      "Ġgently": 7367,
      "Ġstated": 7368,
      "ulating": 7369,
      "Ġcomments": 7370,
      "Ġunw": 7371,
      "Ġgreatest": 7372,
      "Ġcyl": 7373,
      "Ġaccessible": 7374,
      "Ġrecognized": 7375,
      "Ġalgorithm": 7376,
      "[\"": 7377,
      "case": 7378,
      "Ġpests": 7379,
      "ĠCap": 7380,
      "oli": 7381,
      "Ġrooms": 7382,
      "ĠVol": 7383,
      "Ġinteractions": 7384,
      "Ġinstruction": 7385,
      "Ġinsulation": 7386,
      "Ġteams": 7387,
      "Ġexistence": 7388,
      "Ġknee": 7389,
      "People": 7390,
      "PC": 7391,
      "Ġtherap": 7392,
      "Ġinn": 7393,
      "ett": 7394,
      "ĠAunt": 7395,
      "ĠDec": 7396,
      "ĠNAS": 7397,
      "phones": 7398,
      "ĠThanks": 7399,
      "Ġexplains": 7400,
      "Ġ2005": 7401,
      "Ġtrend": 7402,
      "Ġ75": 7403,
      "Ġsales": 7404,
      "Ġlaunch": 7405,
      "ĠGuide": 7406,
      "ĠFrancis": 7407,
      "32": 7408,
      "war": 7409,
      "Ġped": 7410,
      "Ġmad": 7411,
      "ĠAud": 7412,
      "Ġshade": 7413,
      "Ġpocket": 7414,
      "Ġaged": 7415,
      "ucky": 7416,
      "Ġmovies": 7417,
      "ĠSmith": 7418,
      "Ġprinciple": 7419,
      "Ġdigestive": 7420,
      "His": 7421,
      "Ġwealth": 7422,
      "ĠDan": 7423,
      "Ġindoor": 7424,
      "Ġcentre": 7425,
      "Ġcrystal": 7426,
      "01": 7427,
      "ba": 7428,
      "uous": 7429,
      "ini": 7430,
      "Ġgases": 7431,
      "unny": 7432,
      "ĠBi": 7433,
      "Ġnoted": 7434,
      "ĠDO": 7435,
      "ĠDa": 7436,
      "ĠJer": 7437,
      "Ġserving": 7438,
      "Ġregist": 7439,
      "Ġsubm": 7440,
      "Ġbelt": 7441,
      "Ġgrad": 7442,
      "Ġgray": 7443,
      "Ġcenturies": 7444,
      "Ġmarks": 7445,
      "Ġstructural": 7446,
      "Ġstaying": 7447,
      "ĠâĨ": 7448,
      "Ġmixing": 7449,
      "Reg": 7450,
      "Ġepit": 7451,
      "Ġbehaviors": 7452,
      "ĠRobert": 7453,
      "Ġvulner": 7454,
      "AF": 7455,
      "Ġille": 7456,
      "Ġatoms": 7457,
      "ĠRight": 7458,
      "Ġapple": 7459,
      "Ġindex": 7460,
      "Ġslide": 7461,
      "Ġpossibility": 7462,
      "bris": 7463,
      "Ġinnovation": 7464,
      "Ġthrive": 7465,
      "eed": 7466,
      "owns": 7467,
      "ĠSunday": 7468,
      "Ġdealing": 7469,
      "Ġsaved": 7470,
      "ocr": 7471,
      "Ġdescription": 7472,
      "ĠChildren": 7473,
      "Ġfold": 7474,
      "Ġarticles": 7475,
      "azon": 7476,
      "Ġpolar": 7477,
      "Ġcameras": 7478,
      "Ġsexual": 7479,
      "SE": 7480,
      "Sup": 7481,
      "bow": 7482,
      "cod": 7483,
      "Ġid": 7484,
      "Ġwand": 7485,
      "isters": 7486,
      "Ġbare": 7487,
      "Ġpand": 7488,
      "Ġpresentation": 7489,
      "oken": 7490,
      "Ġlaun": 7491,
      "rimp": 7492,
      "Ġsmoking": 7493,
      "PM": 7494,
      "Tra": 7495,
      "isy": 7496,
      "rots": 7497,
      "ĠRad": 7498,
      "Ġsaving": 7499,
      "Ġthinks": 7500,
      "Ġunderlying": 7501,
      "Ġgoods": 7502,
      "Ġminimal": 7503,
      "otted": 7504,
      "Ġequation": 7505,
      "ourage": 7506,
      "Ġselling": 7507,
      "Ġpromoting": 7508,
      "has": 7509,
      "ingly": 7510,
      "Ġdried": 7511,
      "child": 7512,
      "Ġshower": 7513,
      "ĠFed": 7514,
      "ĠGroup": 7515,
      "Ġclay": 7516,
      "Ġeverywhere": 7517,
      "Ġwalked": 7518,
      "Ġmissed": 7519,
      "Ġlinks": 7520,
      "Ġcoastal": 7521,
      "Ġrecycling": 7522,
      "Ġdurability": 7523,
      "Ġpapers": 7524,
      "Ġpassengers": 7525,
      ",'": 7526,
      "App": 7527,
      "Ty": 7528,
      "bel": 7529,
      "sings": 7530,
      "ĠAp": 7531,
      "ĠPot": 7532,
      "Ġtender": 7533,
      "Ġcomposed": 7534,
      "Ġpresents": 7535,
      "Ġcurriculum": 7536,
      "Ġsnakes": 7537,
      "Ġvegetable": 7538,
      "Ġreligion": 7539,
      "aturday": 7540,
      "ĠIre": 7541,
      "ithium": 7542,
      "Ġkm": 7543,
      "Ġspoon": 7544,
      "Ġpreval": 7545,
      "rams": 7546,
      "Ġinspe": 7547,
      "Ġresponses": 7548,
      "Ġirrit": 7549,
      "About": 7550,
      "Ġpilot": 7551,
      "88": 7552,
      "GE": 7553,
      "May": 7554,
      "Sorry": 7555,
      "aters": 7556,
      "Ġmommy": 7557,
      "Ġrecept": 7558,
      "imental": 7559,
      "ĠCD": 7560,
      "Ġsmile": 7561,
      "Ġgrab": 7562,
      "Ġnearby": 7563,
      "Ġpanels": 7564,
      "Ġmountains": 7565,
      "Ġbulb": 7566,
      "Ġmanufacturer": 7567,
      "Ġfascinating": 7568,
      "Ġacademic": 7569,
      "mble": 7570,
      "imens": 7571,
      "ĠRose": 7572,
      "Ġworn": 7573,
      "Ġcompress": 7574,
      "Ġroles": 7575,
      "Ġwhereas": 7576,
      "Ġvariables": 7577,
      "ĠFriday": 7578,
      "Ġcomplicated": 7579,
      "Ġsoldiers": 7580,
      "Ġdistributed": 7581,
      "Ġbehaviour": 7582,
      "Ġnitrogen": 7583,
      "Ġconvenient": 7584,
      "Ġmembrane": 7585,
      "Sm": 7586,
      "athy": 7587,
      "Ġgerm": 7588,
      "ĠTim": 7589,
      "Ġshout": 7590,
      "ĠRh": 7591,
      "Ġcompound": 7592,
      "Ġcontamin": 7593,
      "ĠUncle": 7594,
      "Ġreput": 7595,
      "Make": 7596,
      "Wait": 7597,
      "čĊ": 7598,
      "heets": 7599,
      "Ġcher": 7600,
      "aland": 7601,
      "Ġbeans": 7602,
      "ĠTer": 7603,
      "Ġshake": 7604,
      "gged": 7605,
      "Ġmining": 7606,
      "Ġminim": 7607,
      "Ġminimize": 7608,
      "ĠUnion": 7609,
      "ontal": 7610,
      "Ġsinging": 7611,
      "Ġballs": 7612,
      "Ġinternet": 7613,
      "Ġfacing": 7614,
      "Ġextended": 7615,
      "Ġthoroughly": 7616,
      "ĠVictor": 7617,
      "ania": 7618,
      "ednes": 7619,
      "Ġstir": 7620,
      "ĠSuch": 7621,
      "thal": 7622,
      "essions": 7623,
      "Ġdepos": 7624,
      "Ġtear": 7625,
      "inking": 7626,
      "ĠStreet": 7627,
      "Ġacts": 7628,
      "Ġphosph": 7629,
      "iously": 7630,
      "Ġguarant": 7631,
      "Ġcharged": 7632,
      "Ġimprovement": 7633,
      "Ġdietary": 7634,
      "ĠScott": 7635,
      "Ġmagic": 7636,
      "Ġprocedures": 7637,
      "Mar": 7638,
      "Ġcater": 7639,
      "level": 7640,
      "Ġnerve": 7641,
      "oline": 7642,
      "Ġneither": 7643,
      "osion": 7644,
      "ĠDisc": 7645,
      "Ġpean": 7646,
      "Ġnobody": 7647,
      "ochem": 7648,
      "Ġpointed": 7649,
      "Ġhardly": 7650,
      "ĠConst": 7651,
      "Ġenjoyed": 7652,
      "Ġhabitats": 7653,
      "Ġtransportation": 7654,
      "Ear": 7655,
      "aft": 7656,
      "even": 7657,
      "Ġrear": 7658,
      "ĠWall": 7659,
      "agine": 7660,
      "hyl": 7661,
      "Ġdiscom": 7662,
      "Ġcapabilities": 7663,
      "Ġcombat": 7664,
      "Ġconsume": 7665,
      "Ġsilence": 7666,
      "Ġsubstances": 7667,
      "Ġrecycl": 7668,
      "Ġthermal": 7669,
      "ĠEnvironmental": 7670,
      "Fl": 7671,
      "uum": 7672,
      "worm": 7673,
      "Ã¡": 7674,
      "osc": 7675,
      "rous": 7676,
      "Ġinterm": 7677,
      "Ġcourses": 7678,
      "Ġcoloring": 7679,
      "Ġsupports": 7680,
      "Ġviews": 7681,
      "Ġsandw": 7682,
      "Ġclimb": 7683,
      "Ġclimbing": 7684,
      "Ġcandid": 7685,
      "ĠLearn": 7686,
      "Ġpregnant": 7687,
      "ĠSecond": 7688,
      "dent": 7689,
      "pass": 7690,
      "iner": 7691,
      "ĠSym": 7692,
      "advant": 7693,
      "ĠMaster": 7694,
      "cking": 7695,
      "Ġshoe": 7696,
      "ĠDog": 7697,
      "Ġgenet": 7698,
      "Ġpassing": 7699,
      "Ġinsect": 7700,
      "Ġdatab": 7701,
      "Ġnuclear": 7702,
      "Ġecosystems": 7703,
      "ĠFurthermore": 7704,
      "37": 7705,
      "39": 7706,
      "AB": 7707,
      "EC": 7708,
      "OH": 7709,
      "give": 7710,
      "Ġdial": 7711,
      "terol": 7712,
      "Ġdebris": 7713,
      "Ġcompare": 7714,
      "Ġspending": 7715,
      "ĠVis": 7716,
      "Ġdrag": 7717,
      "Ġengaging": 7718,
      "Ġoptical": 7719,
      "Ġappeal": 7720,
      "Ġgrey": 7721,
      "Ġcaptain": 7722,
      "Ġmarketing": 7723,
      "Ġembod": 7724,
      "Ġdurable": 7725,
      "Ġneutral": 7726,
      "Ġmicrow": 7727,
      "Ġelephant": 7728,
      "Ġenemy": 7729,
      "Ġcrayon": 7730,
      "SH": 7731,
      "Ġpairs": 7732,
      "Ġdairy": 7733,
      "Ġinhab": 7734,
      "ashed": 7735,
      "otal": 7736,
      "ckets": 7737,
      "Ġven": 7738,
      "Ġchip": 7739,
      "ĠJesus": 7740,
      "Ġblo": 7741,
      "Ġagency": 7742,
      "ĠWeb": 7743,
      "Ġsignificance": 7744,
      "Ġlimits": 7745,
      "Ġ1990": 7746,
      "Ġfailed": 7747,
      "Ġattacks": 7748,
      "Ġabsorb": 7749,
      "Ġalgorithms": 7750,
      "Keep": 7751,
      "gasps": 7752,
      "AI": 7753,
      "OP": 7754,
      "cuse": 7755,
      "Ġmask": 7756,
      "icago": 7757,
      "asma": 7758,
      "idae": 7759,
      "ĠWal": 7760,
      "Ġshirt": 7761,
      "udes": 7762,
      "ĠOpt": 7763,
      "Ġunex": 7764,
      "ultane": 7765,
      "Ġcrazy": 7766,
      "Ġremoval": 7767,
      "âĮĭ": 7768,
      "Ġinfected": 7769,
      "va": 7770,
      "Ġsin": 7771,
      "ndrome": 7772,
      "Ġhal": 7773,
      "omething": 7774,
      "Ġreaching": 7775,
      "ĠAng": 7776,
      "Ġworst": 7777,
      "ĠKen": 7778,
      "oston": 7779,
      "Ġaccommod": 7780,
      "Ġengagement": 7781,
      "Ġdetermining": 7782,
      "olesterol": 7783,
      "Ġgained": 7784,
      "Ġexpertise": 7785,
      "Ġsenior": 7786,
      "Ġsucceed": 7787,
      "Ġdiscomfort": 7788,
      ",--": 7789,
      "LY": 7790,
      "Ġwake": 7791,
      "espan": 7792,
      "stop": 7793,
      "gel": 7794,
      "Ġplural": 7795,
      "Ġproductivity": 7796,
      "Ġfocuses": 7797,
      "Ġboxes": 7798,
      "Ġmanufacturers": 7799,
      "Ġleadership": 7800,
      "ĠZealand": 7801,
      "jection": 7802,
      "Ġtack": 7803,
      "Ġsulf": 7804,
      "oul": 7805,
      "Ġlying": 7806,
      "ĠTem": 7807,
      "ĠCong": 7808,
      "ĠMel": 7809,
      "ĠPublic": 7810,
      "Ġfever": 7811,
      "Ġgenerations": 7812,
      "flow": 7813,
      "ĠStep": 7814,
      "Ġfrozen": 7815,
      "Ġmolecule": 7816,
      "Ġpleasure": 7817,
      "Ġintegrated": 7818,
      "Ġmistake": 7819,
      "Ġcollaboration": 7820,
      "Ġeliminate": 7821,
      "Ġmirror": 7822,
      "Ġexplanation": 7823,
      "Americ": 7824,
      "Tell": 7825,
      "rument": 7826,
      "Ġthee": 7827,
      "itors": 7828,
      "eterm": 7829,
      "ĠChem": 7830,
      "ften": 7831,
      "Ġfounded": 7832,
      "Ġairpl": 7833,
      "ĠThose": 7834,
      "Ġtrial": 7835,
      "Ġterrible": 7836,
      "Ġpuppy": 7837,
      "Ġvibrant": 7838,
      "afe": 7839,
      "aired": 7840,
      "alysis": 7841,
      "Ġhill": 7842,
      "road": 7843,
      "Ġbell": 7844,
      "ĠSar": 7845,
      "Ġorgans": 7846,
      "ĠDra": 7847,
      "ĠNatural": 7848,
      "ĠItalian": 7849,
      "Ġperce": 7850,
      "Ġconscious": 7851,
      "Ġrecover": 7852,
      "Ġrealized": 7853,
      "Ġtrends": 7854,
      "Ġfourth": 7855,
      "Ġlogic": 7856,
      "Ġbleeding": 7857,
      "Ġimmediate": 7858,
      "ĠMoreover": 7859,
      "igenous": 7860,
      "Ġpill": 7861,
      "icul": 7862,
      "omer": 7863,
      "ĠTw": 7864,
      "Ġalarm": 7865,
      "ĠLittle": 7866,
      "apes": 7867,
      "Ġblow": 7868,
      "iana": 7869,
      "Ġchest": 7870,
      "Ġsubsequ": 7871,
      "ĠQueen": 7872,
      "Ġmechanisms": 7873,
      "Ġgradually": 7874,
      "Ġcomparison": 7875,
      "Read": 7876,
      "ere": 7877,
      "made": 7878,
      "Ġsne": 7879,
      "Ġcub": 7880,
      "Ġinqu": 7881,
      "Ġhiding": 7882,
      "Ġgardens": 7883,
      "ceans": 7884,
      "ami": 7885,
      "ĠSn": 7886,
      "ĠSen": 7887,
      "olving": 7888,
      "ĠMonday": 7889,
      "Ġsharks": 7890,
      "ustration": 7891,
      "cience": 7892,
      "Ġintensity": 7893,
      "Ġfewer": 7894,
      "earchers": 7895,
      "ints": 7896,
      "Ġexpansion": 7897,
      "Ġorganized": 7898,
      "Ġfreedom": 7899,
      "Ġcrying": 7900,
      "Ġspiritual": 7901,
      "atus": 7902,
      "ester": 7903,
      "Ġhanging": 7904,
      "othe": 7905,
      "ĠPM": 7906,
      "ĠDise": 7907,
      "Ġrope": 7908,
      "Ġhealthier": 7909,
      "Ġmeasurements": 7910,
      "âĮī": 7911,
      "heast": 7912,
      "Ġduration": 7913,
      "Ġasleep": 7914,
      "heric": 7915,
      "ĠMont": 7916,
      "ĠMiddle": 7917,
      "Ġspark": 7918,
      "rowing": 7919,
      "ifications": 7920,
      "Ġbuff": 7921,
      "Ġcommune": 7922,
      "aze": 7923,
      "Stud": 7924,
      "Ġprotective": 7925,
      "Ġfunding": 7926,
      "ĠSmall": 7927,
      "Ġjumping": 7928,
      "Ġdeclared": 7929,
      "Ġfederal": 7930,
      "Ġholiday": 7931,
      "55": 7932,
      "Ben": 7933,
      "Col": 7934,
      "gments": 7935,
      "ju": 7936,
      "ras": 7937,
      "Ġtal": 7938,
      "Ġsatell": 7939,
      "Ġwires": 7940,
      "Ġpound": 7941,
      "anch": 7942,
      "usiness": 7943,
      "ested": 7944,
      "ĠMem": 7945,
      "Ġshorter": 7946,
      "ĠGreek": 7947,
      "Ġrecording": 7948,
      "ggy": 7949,
      "Ġgenerating": 7950,
      "Ġlargely": 7951,
      "ĠClub": 7952,
      "Ġbreaks": 7953,
      "Ġdriven": 7954,
      "Ġprotecting": 7955,
      "Ġregardless": 7956,
      "IGH": 7957,
      "Ġfertilizer": 7958,
      "Ġfifty": 7959,
      "Ġjudge": 7960,
      "Ġma": 7961,
      "edy": 7962,
      "icity": 7963,
      "ĠSand": 7964,
      "Ġrank": 7965,
      "ĠFil": 7966,
      "Ġforming": 7967,
      "Ġ2003": 7968,
      "Ġweeke": 7969,
      "Ġturtle": 7970,
      "Ġpredators": 7971,
      "Ġvitamins": 7972,
      "Ġsoup": 7973,
      "Ġov": 7974,
      "Ġboun": 7975,
      "ĠTreat": 7976,
      "Ġconv": 7977,
      "ustion": 7978,
      "Ġplug": 7979,
      "ĠEll": 7980,
      "Ġintric": 7981,
      "ulture": 7982,
      "Ġtrim": 7983,
      "atively": 7984,
      "Ġfinds": 7985,
      "Ġplanted": 7986,
      "ĠExam": 7987,
      "Ġwooden": 7988,
      "Ġgarlic": 7989,
      "Ġdelicate": 7990,
      "Rel": 7991,
      "den": 7992,
      "Ġcable": 7993,
      "Ġdirty": 7994,
      "utive": 7995,
      "rand": 7996,
      "ĠCome": 7997,
      "ĠMax": 7998,
      "Ġmedication": 7999,
      "ropract": 8000,
      "Also": 8001,
      "Ġblend": 8002,
      "Ġwatched": 8003,
      "Ġexpressed": 8004,
      "Ġchannels": 8005,
      "ĠHuman": 8006,
      "ĠGBDT": 8007,
      "38": 8008,
      "dri": 8009,
      "fit": 8010,
      "grad": 8011,
      "wanna": 8012,
      "zes": 8013,
      "Ġbeds": 8014,
      "lyn": 8015,
      "Ġhem": 8016,
      "ĠCra": 8017,
      "Ġordered": 8018,
      "Ġshrimp": 8019,
      "Ġenables": 8020,
      "ials": 8021,
      "Ġstudio": 8022,
      "auc": 8023,
      "Ġbene": 8024,
      "looking": 8025,
      "ĠLeague": 8026,
      "Ġfitness": 8027,
      "Ġintelligent": 8028,
      "Ġstruggle": 8029,
      "Ġparameters": 8030,
      "PU": 8031,
      "oors": 8032,
      "ĠCH": 8033,
      "Ġpy": 8034,
      "irrel": 8035,
      "Ġash": 8036,
      "ĠDiv": 8037,
      "Ġagent": 8038,
      "Ġformat": 8039,
      "uesday": 8040,
      "pending": 8041,
      "ĠMarine": 8042,
      "Ġcriter": 8043,
      "Ġferment": 8044,
      "Ġplatforms": 8045,
      "Ġrevealed": 8046,
      "Ġcontinuous": 8047,
      "Ġflexible": 8048,
      "Ġlucky": 8049,
      "65": 8050,
      "Comm": 8051,
      "rid": 8052,
      "wow": 8053,
      "pling": 8054,
      "acher": 8055,
      "ĠOpen": 8056,
      "Ġdisapp": 8057,
      "angers": 8058,
      "Ġscan": 8059,
      "Ġboats": 8060,
      "Ġvet": 8061,
      "ĠConne": 8062,
      "Ġobserve": 8063,
      "Ġrepresented": 8064,
      "Ġchickens": 8065,
      "ĠCoast": 8066,
      "Ġderived": 8067,
      "Ġtutorial": 8068,
      "ednesday": 8069,
      "47": 8070,
      "ien": 8071,
      "Ġcrown": 8072,
      "Ġcows": 8073,
      "Ġfalse": 8074,
      "Ġthirty": 8075,
      "Ġlid": 8076,
      "Ġgap": 8077,
      "ĠCost": 8078,
      "ĠCamp": 8079,
      "Ġsho": 8080,
      "Ġchop": 8081,
      "Ġtheme": 8082,
      "ĠChurch": 8083,
      "agnetic": 8084,
      "Ġparticipate": 8085,
      "Ġrarely": 8086,
      "Ġliterature": 8087,
      "Ġsoul": 8088,
      "Ġflexibility": 8089,
      "Ġworkshop": 8090,
      "hum": 8091,
      "iors": 8092,
      "Ġske": 8093,
      "ĠSing": 8094,
      "agen": 8095,
      "plements": 8096,
      "Ġcrust": 8097,
      "Ġconsumers": 8098,
      "ognitive": 8099,
      "Ġnetworks": 8100,
      "Ġcovering": 8101,
      "Ġexclaimed": 8102,
      "Ġfigures": 8103,
      "Ġpuzzle": 8104,
      "Ġpermanent": 8105,
      "AK": 8106,
      "ront": 8107,
      "Ġsessions": 8108,
      "Ġcoun": 8109,
      "Ġfright": 8110,
      "Ġlung": 8111,
      "ĠBE": 8112,
      "Ġshield": 8113,
      "istent": 8114,
      "acc": 8115,
      "izers": 8116,
      "earing": 8117,
      "Ġmetals": 8118,
      "Ġengaged": 8119,
      "Ġprogramming": 8120,
      "ĠPlay": 8121,
      "ĠCanadian": 8122,
      "Ġcultures": 8123,
      "Ġcompetitive": 8124,
      "Ġtomatoes": 8125,
      "ometric": 8126,
      "Ġphotographs": 8127,
      "ĠUnderstanding": 8128,
      "ĠâĨĴ": 8129,
      "OD": 8130,
      "Rec": 8131,
      "bled": 8132,
      "ugh": 8133,
      "Ġeager": 8134,
      "ĠAD": 8135,
      "Ġoral": 8136,
      "Ġsections": 8137,
      "ĠMom": 8138,
      "ĠGoogle": 8139,
      "Ġoverw": 8140,
      "Ġ400": 8141,
      "Ġ2004": 8142,
      "puts": 8143,
      "Ġera": 8144,
      "Ġfallen": 8145,
      "ĠSpace": 8146,
      "Ġintroduce": 8147,
      "Ġofficers": 8148,
      "Ġdomestic": 8149,
      "ĠBritain": 8150,
      "ĠĠĠĠĠĠĠĠĠĠĠĠĠĠĠĠ": 8151,
      "Ġvaccine": 8152,
      "Ġversatile": 8153,
      "rus": 8154,
      "esides": 8155,
      "itable": 8156,
      "Ġpear": 8157,
      "orrect": 8158,
      "Ġdamp": 8159,
      "Ġdolph": 8160,
      "ĠFree": 8161,
      "lude": 8162,
      "Ġattach": 8163,
      "Ġvariations": 8164,
      "Ġgravity": 8165,
      "puter": 8166,
      "Ġprofile": 8167,
      "Ġstrain": 8168,
      "Ġburst": 8169,
      "ĠMaybe": 8170,
      "Ġframew": 8171,
      "Ġlogical": 8172,
      "ĠMedical": 8173,
      "Ġvelocity": 8174,
      "WH": 8175,
      "Ã¼": 8176,
      "reens": 8177,
      "Ġsan": 8178,
      "Ġsale": 8179,
      "Ġborder": 8180,
      "Ġhunt": 8181,
      "Ġnarr": 8182,
      "omin": 8183,
      "enth": 8184,
      "olic": 8185,
      "Ġcann": 8186,
      "ĠBal": 8187,
      "ĠDI": 8188,
      "astics": 8189,
      "Ġimper": 8190,
      "Ġunknown": 8191,
      "Ġpeak": 8192,
      "Ġacting": 8193,
      "Ġanimation": 8194,
      "Ġconfident": 8195,
      "Ġslee": 8196,
      "Ġmenu": 8197,
      "Ġwarning": 8198,
      "Ġrecommendations": 8199,
      "Ġrespective": 8200,
      "Ġincorporating": 8201,
      "ua": 8202,
      "itage": 8203,
      "Ġpor": 8204,
      "Ġthroat": 8205,
      "Ġlun": 8206,
      "Ġstack": 8207,
      "ĠMic": 8208,
      "Ġkilling": 8209,
      "tell": 8210,
      "oret": 8211,
      "Ġtwelve": 8212,
      "Ġdecline": 8213,
      "Ġreaders": 8214,
      "ĠAsian": 8215,
      "Ġpossibilities": 8216,
      "ĠUSA": 8217,
      "ersonal": 8218,
      "Ġhypothes": 8219,
      "Ġunusual": 8220,
      "OL": 8221,
      "foot": 8222,
      "reated": 8223,
      "Ġpra": 8224,
      "Ġmail": 8225,
      "esty": 8226,
      "agers": 8227,
      "angered": 8228,
      "bered": 8229,
      "Inst": 8230,
      "Ġclever": 8231,
      "Ġoldest": 8232,
      "iolet": 8233,
      "Ġbarrier": 8234,
      "burg": 8235,
      "\"?": 8236,
      "08": 8237,
      "CAR": 8238,
      "FAD": 8239,
      "low": 8240,
      "produ": 8241,
      "ometer": 8242,
      "ĠLibr": 8243,
      "aping": 8244,
      "Ġdiscipl": 8245,
      "weet": 8246,
      "Ġapplying": 8247,
      "Ġdecay": 8248,
      "efits": 8249,
      "ĠProcess": 8250,
      "Ġ2001": 8251,
      "ĠDev": 8252,
      "Ġcolleagues": 8253,
      "ĠScot": 8254,
      "Ġseparated": 8255,
      "Ġclaims": 8256,
      "Ġdelivery": 8257,
      "Ġillegal": 8258,
      "gical": 8259,
      "eries": 8260,
      "atric": 8261,
      "ĠSaturday": 8262,
      "Ġatom": 8263,
      "ĠFollow": 8264,
      "ĠNever": 8265,
      "Ġworried": 8266,
      "Ġcoach": 8267,
      "ĠStar": 8268,
      "ĠChicago": 8269,
      "Ġdownload": 8270,
      "ĠThank": 8271,
      "Ġadvis": 8272,
      "Ġcoral": 8273,
      "Ġeleg": 8274,
      "Ġscientist": 8275,
      "Ġreceiving": 8276,
      "Ġremarkable": 8277,
      "Ġveterin": 8278,
      "Ġpolicies": 8279,
      "Ġbeneath": 8280,
      "athered": 8281,
      "etch": 8282,
      "throp": 8283,
      "ĠPo": 8284,
      "opic": 8285,
      "Ġcholesterol": 8286,
      "ĠDire": 8287,
      "ĠFOR": 8288,
      "ĠOld": 8289,
      "Ġmanaging": 8290,
      "Ġwhenever": 8291,
      "Ġtraits": 8292,
      "obby": 8293,
      "Ġsurge": 8294,
      "Ġequipped": 8295,
      "Ġtreating": 8296,
      "ĠPlace": 8297,
      "Ġprevention": 8298,
      "ĠNext": 8299,
      "Ġ1980": 8300,
      "Ġdescribes": 8301,
      "ursday": 8302,
      "Ġevolutionary": 8303,
      "05": 8304,
      "Ġicon": 8305,
      "Ġstab": 8306,
      "ĠMur": 8307,
      "ivered": 8308,
      "Ġspeeds": 8309,
      "Ġshed": 8310,
      "cycle": 8311,
      "Ġinstant": 8312,
      "Ġdepart": 8313,
      "Ġcraw": 8314,
      "Ġoils": 8315,
      "Ġ1960": 8316,
      "Ġaims": 8317,
      "Ġfolks": 8318,
      "Ġsynthetic": 8319,
      "Ġallergies": 8320,
      "ĠMedicine": 8321,
      "watch": 8322,
      "Ġore": 8323,
      "Ġfilling": 8324,
      "Ġdense": 8325,
      "Ġgiant": 8326,
      "Ġnom": 8327,
      "Ġstrict": 8328,
      "ĠSu": 8329,
      "ĠBC": 8330,
      "ĠDogs": 8331,
      "ĠFire": 8332,
      "ishment": 8333,
      "ĠChoose": 8334,
      "Ġinteractive": 8335,
      "Ġinstit": 8336,
      "Ġentering": 8337,
      "Ġdefine": 8338,
      "Ġloves": 8339,
      "Ġshutter": 8340,
      "ĠHelen": 8341,
      "ĠFinally": 8342,
      "stein": 8343,
      "Ġuncertainty": 8344,
      "ĠJournal": 8345,
      "Ill": 8346,
      "Ġwra": 8347,
      "itivity": 8348,
      "Ġpale": 8349,
      "imer": 8350,
      "igan": 8351,
      "ĠSet": 8352,
      "Ġdraft": 8353,
      "Ġcrime": 8354,
      "Ġrecognition": 8355,
      "Ġvisitors": 8356,
      "Ġsuperior": 8357,
      "Ġdiamond": 8358,
      "APTER": 8359,
      "//": 8360,
      "Hel": 8361,
      "erest": 8362,
      "zym": 8363,
      "Ġtension": 8364,
      "Ġpour": 8365,
      "Ġweird": 8366,
      "ript": 8367,
      "âĢĭ": 8368,
      "Ġalter": 8369,
      "Ġje": 8370,
      "Ġspiders": 8371,
      "ocy": 8372,
      "Ġovercome": 8373,
      "ools": 8374,
      "luding": 8375,
      "Ġparticle": 8376,
      "rolog": 8377,
      "Ġcuts": 8378,
      "Ġconsideration": 8379,
      "Ġingredient": 8380,
      "Ġattractive": 8381,
      "Ġresistant": 8382,
      "95": 8383,
      "tles": 8384,
      "heart": 8385,
      "Ġca": 8386,
      "Ġbol": 8387,
      "Ġdive": 8388,
      "Ġduty": 8389,
      "Ġinver": 8390,
      "Ġey": 8391,
      "ĠBoston": 8392,
      "anda": 8393,
      "Ġspinner": 8394,
      "necess": 8395,
      "Ġsimultane": 8396,
      "Ġbedroom": 8397,
      "Ġpicks": 8398,
      "Ġchemistry": 8399,
      "gypt": 8400,
      "Ġproportion": 8401,
      "Ġcontemporary": 8402,
      "pres": 8403,
      "yard": 8404,
      "onne": 8405,
      "lled": 8406,
      "Ġreef": 8407,
      "ĠHam": 8408,
      "ĠEs": 8409,
      "ĠNut": 8410,
      "Ġobesity": 8411,
      "Ġsteak": 8412,
      "Ġcomputing": 8413,
      "Ġtraveling": 8414,
      "Ġenhancing": 8415,
      "Ġautomatically": 8416,
      "ĠRegular": 8417,
      "Ġresidents": 8418,
      "ĠMartin": 8419,
      "Ġlaunched": 8420,
      "Peter": 8421,
      "erior": 8422,
      "Ġfuels": 8423,
      "Ġlaug": 8424,
      "rav": 8425,
      "Ġsees": 8426,
      "ĠPoint": 8427,
      "Ġcompat": 8428,
      "ĠJoh": 8429,
      "Ġcarrier": 8430,
      "Ġevolved": 8431,
      "Ġplanned": 8432,
      "scale": 8433,
      "Ġparallel": 8434,
      "orescent": 8435,
      "Ġbulbs": 8436,
      "ĠMinister": 8437,
      "Ġdocuments": 8438,
      "Ġorders": 8439,
      "Ġsemi": 8440,
      "31": 8441,
      "Gu": 8442,
      "Sure": 8443,
      "worth": 8444,
      "Ġgau": 8445,
      "ĠRef": 8446,
      "ĠEve": 8447,
      "ĠUN": 8448,
      "Ġsecondary": 8449,
      "Ġfiles": 8450,
      "Ġforever": 8451,
      "Ġfocusing": 8452,
      "Ġwriter": 8453,
      "Ġidentifying": 8454,
      "Ġsuspect": 8455,
      "Ġlaboratory": 8456,
      "Ġdrainage": 8457,
      "Ġcrowd": 8458,
      "ĠSummer": 8459,
      "Ġdies": 8460,
      "ashes": 8461,
      "una": 8462,
      "Ġmyth": 8463,
      "arium": 8464,
      "inson": 8465,
      "Ġmini": 8466,
      "Ġinstrument": 8467,
      "ritis": 8468,
      "effect": 8469,
      "Ġprocessed": 8470,
      "Ġvegan": 8471,
      "Ġspeakers": 8472,
      "Ġfrost": 8473,
      "ĠRussia": 8474,
      "Ġarchitecture": 8475,
      "ĠDevelopment": 8476,
      "ĠNASA": 8477,
      "Ġlaughed": 8478,
      "Last": 8479,
      "OC": 8480,
      "PP": 8481,
      "ti": 8482,
      "uke": 8483,
      "Ġtid": 8484,
      "Ġtong": 8485,
      "Ġpist": 8486,
      "Ġmile": 8487,
      "Ġmature": 8488,
      "rape": 8489,
      "ĠCreat": 8490,
      "ĠColl": 8491,
      "olves": 8492,
      "ĠMach": 8493,
      "open": 8494,
      "Ġchat": 8495,
      "ĠDar": 8496,
      "Ġherb": 8497,
      "Ġ32": 8498,
      "fulness": 8499,
      "after": 8500,
      "Ġpreferred": 8501,
      "Ġdivision": 8502,
      "Ġapparently": 8503,
      "Ġplurality": 8504,
      "bird": 8505,
      "pal": 8506,
      "yer": 8507,
      "Ġcement": 8508,
      "itz": 8509,
      "Ġbot": 8510,
      "owered": 8511,
      "ilst": 8512,
      "tery": 8513,
      "Ġalph": 8514,
      "neath": 8515,
      "Ġgenome": 8516,
      "Ġpride": 8517,
      "Ġinspect": 8518,
      "engu": 8519,
      "Ġinterests": 8520,
      "Ġessentially": 8521,
      "Ġfunctionality": 8522,
      "Ġpositions": 8523,
      "ĠRussian": 8524,
      "ĠRichard": 8525,
      "Daddy": 8526,
      "efficient": 8527,
      "Ġ>": 8528,
      "inch": 8529,
      "Ġpest": 8530,
      "kel": 8531,
      "Ġprob": 8532,
      "ĠBird": 8533,
      "Ġdebt": 8534,
      "ĠPD": 8535,
      "ĠPan": 8536,
      "oding": 8537,
      "Ġshelf": 8538,
      "Ġdesk": 8539,
      "ĠStan": 8540,
      "Ġdiets": 8541,
      "shaped": 8542,
      "Ġdirections": 8543,
      "Ġidentity": 8544,
      "Ġrespectively": 8545,
      "Ġrolling": 8546,
      "Ġpleasant": 8547,
      "Ġantibiotics": 8548,
      "Ġepisode": 8549,
      "MS": 8550,
      "Would": 8551,
      "bar": 8552,
      "cut": 8553,
      "iac": 8554,
      "eram": 8555,
      "Ġfits": 8556,
      "Ġmeth": 8557,
      "Ġinject": 8558,
      "stery": 8559,
      "Ġster": 8560,
      "CHAPTER": 8561,
      "Ġconvey": 8562,
      "through": 8563,
      "cknow": 8564,
      "Ġshots": 8565,
      "Ġcharm": 8566,
      "ĠFigure": 8567,
      "ĠRome": 8568,
      "ĠNorthern": 8569,
      "icking": 8570,
      "ĠInformation": 8571,
      "Ġindoors": 8572,
      "ĠYoung": 8573,
      "ĠThree": 8574,
      "ĠArmy": 8575,
      "Ġexcit": 8576,
      "Ġceiling": 8577,
      "rastructure": 8578,
      "Ġfavour": 8579,
      "host": 8580,
      "mic": 8581,
      "run": 8582,
      "inem": 8583,
      "Ġfulf": 8584,
      "Ġpile": 8585,
      "Ġdates": 8586,
      "Ġbears": 8587,
      "ĠTre": 8588,
      "Ġconvert": 8589,
      "Ġranges": 8590,
      "Ġneuro": 8591,
      "Ġvocal": 8592,
      "ĠGal": 8593,
      "soft": 8594,
      "Ġmanif": 8595,
      "Ġmanager": 8596,
      "venue": 8597,
      "Ġoblig": 8598,
      "Ġelection": 8599,
      "Ġcombine": 8600,
      "Ġstops": 8601,
      "Ġaffecting": 8602,
      "Ġdiagnosed": 8603,
      "Ġaccurately": 8604,
      "Ġjewel": 8605,
      "Source": 8606,
      "big": 8607,
      "Ġlatter": 8608,
      "ĠSqu": 8609,
      "ĠBack": 8610,
      "Ġrural": 8611,
      "ĠEqu": 8612,
      "Ġtraum": 8613,
      "Ġentry": 8614,
      "ĠAtt": 8615,
      "anguage": 8616,
      "ĠEarly": 8617,
      "ĠKingdom": 8618,
      "world": 8619,
      "Ġoutdoors": 8620,
      "Ġabundance": 8621,
      "Ġconfirmed": 8622,
      "Ġhazard": 8623,
      "John": 8624,
      "live": 8625,
      "mal": 8626,
      "sized": 8627,
      "ĠAS": 8628,
      "ĠWay": 8629,
      "Ġoutcome": 8630,
      "acts": 8631,
      "Ġunt": 8632,
      "Ġcoco": 8633,
      "plete": 8634,
      "Ġtricks": 8635,
      "Ġscared": 8636,
      "Ġinterface": 8637,
      "Ġmonkey": 8638,
      "baby": 8639,
      "Ġlanding": 8640,
      "ĠNeed": 8641,
      "Ġreviews": 8642,
      "cal": 8643,
      "rd": 8644,
      "Ġtrib": 8645,
      "Ġbon": 8646,
      "Ġproceed": 8647,
      "Ġru": 8648,
      "Ġrhy": 8649,
      "ĠLatin": 8650,
      "iances": 8651,
      "Ġperforming": 8652,
      "ĠClimate": 8653,
      "Ġfunctioning": 8654,
      "Ġsumm": 8655,
      "Share": 8656,
      "ĠCharles": 8657,
      "Ġdebate": 8658,
      "Ġvulnerable": 8659,
      "Ed": 8660,
      "Each": 8661,
      "IV": 8662,
      "dog": 8663,
      "Ġfest": 8664,
      "Ġhast": 8665,
      "Ġlap": 8666,
      "three": 8667,
      "Ġrivers": 8668,
      "Ġcocon": 8669,
      "Ġarrest": 8670,
      "Ġagents": 8671,
      "Ġbrill": 8672,
      "Ġpersonalized": 8673,
      "Ġprinted": 8674,
      "Ġguns": 8675,
      "Ġclouds": 8676,
      "Ġincredible": 8677,
      "Ġmagazine": 8678,
      "IF": 8679,
      "Today": 8680,
      "Using": 8681,
      "nut": 8682,
      "yal": 8683,
      "Â®": 8684,
      "Ġbills": 8685,
      "Ġpine": 8686,
      "Ġrect": 8687,
      "uled": 8688,
      "estone": 8689,
      "ĠMult": 8690,
      "abul": 8691,
      "ĠDiet": 8692,
      "Ġvector": 8693,
      "Ġcurious": 8694,
      "Ġpotato": 8695,
      "Ġ2002": 8696,
      "Ġcontainers": 8697,
      "Ġvacuum": 8698,
      "Ġcomplain": 8699,
      "Ġimplementation": 8700,
      "aniel": 8701,
      "Ġfantastic": 8702,
      "Ġdisappoint": 8703,
      "Water": 8704,
      "âĪ": 8705,
      "Ġpadd": 8706,
      "Ġgender": 8707,
      "ĠSus": 8708,
      "ĠSanta": 8709,
      "Ġ36": 8710,
      "Ġregional": 8711,
      "Ġoccas": 8712,
      "Ġdefense": 8713,
      "Ġ150": 8714,
      "Ġfootprint": 8715,
      "Ġabsence": 8716,
      "ĠGlobal": 8717,
      "Ġviruses": 8718,
      "Ġspectrum": 8719,
      "Ġhammer": 8720,
      "Ġweapons": 8721,
      "Ġunexpected": 8722,
      "aron": 8723,
      "Ġinher": 8724,
      "otive": 8725,
      "Ġaside": 8726,
      "ĠCup": 8727,
      "ĠEgypt": 8728,
      "achel": 8729,
      "Ġroads": 8730,
      "ĠJew": 8731,
      "ocation": 8732,
      "Ġcolored": 8733,
      "ocks": 8734,
      "Ġsigned": 8735,
      "Ġexamine": 8736,
      "Ġexamination": 8737,
      "Ġcombustion": 8738,
      "Ġchecking": 8739,
      "Ġchecked": 8740,
      "Ġwarmer": 8741,
      "Ġlifespan": 8742,
      "ĠAmazon": 8743,
      "Ġcompanion": 8744,
      "Ġseriously": 8745,
      "Ġexception": 8746,
      "Ġthreatened": 8747,
      "aska": 8748,
      "Ġshaped": 8749,
      "Ġcategory": 8750,
      "ongevity": 8751,
      "Ġneighborhood": 8752,
      "ĠCarolina": 8753,
      "Figure": 8754,
      "Ge": 8755,
      "cream": 8756,
      "pardon": 8757,
      "Ġfool": 8758,
      "omous": 8759,
      "igs": 8760,
      "Ġvote": 8761,
      "ĠFer": 8762,
      "ĠOK": 8763,
      "Ġarts": 8764,
      "Ġbelieves": 8765,
      "Ġeastern": 8766,
      "ĠProper": 8767,
      "Ġpencil": 8768,
      "Ġadapted": 8769,
      "Ġprecision": 8770,
      "Ġupdated": 8771,
      "Ġlicense": 8772,
      "Ġincredibly": 8773,
      "ĠDistrict": 8774,
      "ĠIreland": 8775,
      "\"]": 8776,
      "NIC": 8777,
      "Very": 8778,
      "xid": 8779,
      "Ġoceans": 8780,
      "esium": 8781,
      "Ġongoing": 8782,
      "ĠSir": 8783,
      "Ġwelding": 8784,
      "Ġvine": 8785,
      "Ġplacing": 8786,
      "Ġspoken": 8787,
      "Ġflies": 8788,
      "Ġoverl": 8789,
      "Ġamino": 8790,
      "Ġ34": 8791,
      "Ġcomplement": 8792,
      "Ġhotel": 8793,
      "Ġconsumer": 8794,
      "Ġodd": 8795,
      "Ġexhibit": 8796,
      "ĠForest": 8797,
      "turn": 8798,
      "wait": 8799,
      "Ġdil": 8800,
      "Ġlion": 8801,
      "uning": 8802,
      "ĠEnd": 8803,
      "Ġupset": 8804,
      "Ġspat": 8805,
      "Ġsched": 8806,
      "lihood": 8807,
      "Ġcurve": 8808,
      "Ġfactory": 8809,
      "ĠSocial": 8810,
      "ĠArts": 8811,
      "Ġmarkets": 8812,
      "Ġheavily": 8813,
      "Ġhonor": 8814,
      "Ġcontrolling": 8815,
      "Ġincorporate": 8816,
      "Ġinstruments": 8817,
      "aud": 8818,
      "five": 8819,
      "normal": 8820,
      "ĠÎ": 8821,
      "Ġions": 8822,
      "onia": 8823,
      "erally": 8824,
      "eness": 8825,
      "Ġconj": 8826,
      "ĠLos": 8827,
      "pled": 8828,
      "ava": 8829,
      "Ġsheets": 8830,
      "Ġunderneath": 8831,
      "ĠThough": 8832,
      "Ġequally": 8833,
      "Ġstrongly": 8834,
      "ĠSciences": 8835,
      "ĠManagement": 8836,
      "Ġlaughs": 8837,
      "Ġfoli": 8838,
      "Ġadopted": 8839,
      "Ġcabin": 8840,
      "Ġaggressive": 8841,
      "ĠEngineering": 8842,
      "Ġchamber": 8843,
      "Ġprevents": 8844,
      "Ġweekend": 8845,
      "'?": 8846,
      "bour": 8847,
      "Ġsoph": 8848,
      "Ġdrew": 8849,
      "Ġrent": 8850,
      "chain": 8851,
      "Ġstations": 8852,
      "ĠHill": 8853,
      "elcome": 8854,
      "Ġclients": 8855,
      "Ġbloom": 8856,
      "Ġactor": 8857,
      "Ġsuperv": 8858,
      "obile": 8859,
      "Ġhyper": 8860,
      "Ġhybrid": 8861,
      "Ġangry": 8862,
      "Ġdressed": 8863,
      "Ġdetected": 8864,
      "ĠConservation": 8865,
      "Ġordinary": 8866,
      "pm": 8867,
      "pread": 8868,
      "heat": 8869,
      "Ġwise": 8870,
      "Ġcodes": 8871,
      "Ġfisher": 8872,
      "Ġmul": 8873,
      "Ġdying": 8874,
      "Ġsevent": 8875,
      "ĠMethod": 8876,
      "Ġrays": 8877,
      "Ġsoda": 8878,
      "Ġintest": 8879,
      "Ġdisadvant": 8880,
      "ĠHead": 8881,
      "Ġpersonality": 8882,
      "Ġconditioning": 8883,
      "Ġbrands": 8884,
      "Ġinvolving": 8885,
      "Ġquantity": 8886,
      "Ġevaluate": 8887,
      "ĠGovernment": 8888,
      "ĠNetwork": 8889,
      "bi": 8890,
      "father": 8891,
      "alities": 8892,
      "Ġthrown": 8893,
      "ifting": 8894,
      "ryst": 8895,
      "acles": 8896,
      "Ġreson": 8897,
      "Ġpreserve": 8898,
      "Ġhappiness": 8899,
      "Ġbasics": 8900,
      "Ġmarriage": 8901,
      "Ġwinning": 8902,
      "Ġdrivers": 8903,
      "Ġreasonable": 8904,
      "Ġmoments": 8905,
      "Ġcharacterized": 8906,
      "Ġdeeply": 8907,
      "Ġdelivered": 8908,
      "Ġstatistics": 8909,
      "icycle": 8910,
      "Ġsurprising": 8911,
      "Ġjoints": 8912,
      "Remember": 8913,
      "Ġoverwhel": 8914,
      "Ġexcitement": 8915,
      "PI": 8916,
      "Ġtorn": 8917,
      "Ġbin": 8918,
      "roph": 8919,
      "Ġloop": 8920,
      "Ġstairs": 8921,
      "ĠSign": 8922,
      "ulin": 8923,
      "ĠBI": 8924,
      "Ġkg": 8925,
      "agle": 8926,
      "Ġcock": 8927,
      "renn": 8928,
      "Ġarray": 8929,
      "ĠYet": 8930,
      "everal": 8931,
      "Ġeffectiveness": 8932,
      "idespread": 8933,
      "Ġexperiencing": 8934,
      "Ġmuse": 8935,
      "Ġbiod": 8936,
      "Ġrequirement": 8937,
      "Ġpenet": 8938,
      "Ġbacterial": 8939,
      "Ġcalculate": 8940,
      "ĠHarry": 8941,
      "Ġboundaries": 8942,
      "Ġnavigate": 8943,
      "Ġframework": 8944,
      "vy": 8945,
      "want": 8946,
      "ynt": 8947,
      "Ġtalks": 8948,
      "only": 8949,
      "Ġfaced": 8950,
      "ĠAward": 8951,
      "unting": 8952,
      "ĠBu": 8953,
      "ĠFamily": 8954,
      "ĠEst": 8955,
      "ĠLow": 8956,
      "ptic": 8957,
      "Ġbless": 8958,
      "Ġnewly": 8959,
      "Ġprovince": 8960,
      "Ġdecade": 8961,
      "should": 8962,
      "Ġspecialist": 8963,
      "Ġauthorities": 8964,
      "Expl": 8965,
      "Ġupdate": 8966,
      "ĠCompany": 8967,
      "Ġmammals": 8968,
      "Ġscratch": 8969,
      "ĠValley": 8970,
      "ĠWildlife": 8971,
      "Ġconflict": 8972,
      "attlesn": 8973,
      "yep": 8974,
      "Ġtang": 8975,
      "Ġwitness": 8976,
      "Ġcure": 8977,
      "Ġbunch": 8978,
      "Ġstove": 8979,
      "ĠSouthern": 8980,
      "Ġproven": 8981,
      "ĠPract": 8982,
      "âĢĺ": 8983,
      "ĠDC": 8984,
      "ĠDig": 8985,
      "Ġprecious": 8986,
      "Ġcommitted": 8987,
      "Ġgenus": 8988,
      "Ġcycl": 8989,
      "Ġstruck": 8990,
      "Perhaps": 8991,
      "Ġdatabase": 8992,
      "bell": 8993,
      "Ġtied": 8994,
      "Ġsegment": 8995,
      "ĠHor": 8996,
      "ĠRE": 8997,
      "Ġenzym": 8998,
      "Ġparties": 8999,
      "Ġevident": 9000,
      "aterials": 9001,
      "Ġobjective": 9002,
      "Ġfacility": 9003,
      "Ġtomato": 9004,
      "Ġtowel": 9005,
      "Ġdestroyed": 9006,
      "Listen": 9007,
      "zo": 9008,
      "Ġacknow": 9009,
      "rets": 9010,
      "Ġcute": 9011,
      "isa": 9012,
      "ĠPoly": 9013,
      "alls": 9014,
      "Inc": 9015,
      "riting": 9016,
      "Ġvariation": 9017,
      "Ġinfrastructure": 9018,
      "Ġposts": 9019,
      "Ġtrials": 9020,
      "Ġpopularity": 9021,
      "Ġaddressing": 9022,
      "Ġpleased": 9023,
      "Ġimplemented": 9024,
      "Ġinspired": 9025,
      "Ġstretch": 9026,
      "Ġrenewable": 9027,
      "48": 9028,
      "Sim": 9029,
      "iams": 9030,
      "Ġbump": 9031,
      "Ġfans": 9032,
      "Ġfired": 9033,
      "Ġgal": 9034,
      "igue": 9035,
      "ĠSH": 9036,
      "ĠCa": 9037,
      "Ġchose": 9038,
      "Ġadj": 9039,
      "Ġtray": 9040,
      "Ġoccurring": 9041,
      "Ġcritic": 9042,
      "Ġoxid": 9043,
      "Ġdatas": 9044,
      "Ġwedding": 9045,
      "Ġsubstantial": 9046,
      "CC": 9047,
      "draw": 9048,
      "Ġtort": 9049,
      "herent": 9050,
      "ĠTry": 9051,
      "ĠBear": 9052,
      "ĠFred": 9053,
      "ĠRos": 9054,
      "Ġtrunk": 9055,
      "Ġphr": 9056,
      "Ġletting": 9057,
      "Ġphysically": 9058,
      "Ġturb": 9059,
      "Ġmaintained": 9060,
      "Ġsuscept": 9061,
      "Ġpushing": 9062,
      "ĠSuper": 9063,
      "Ġliterally": 9064,
      "Ġscheme": 9065,
      "Ġpandemic": 9066,
      "Ġbiodiversity": 9067,
      "._": 9068,
      "Ġwing": 9069,
      "ano": 9070,
      "Ġdrought": 9071,
      "ĠSafety": 9072,
      "Ġorient": 9073,
      "ĠWednesday": 9074,
      "ĠEmp": 9075,
      "ĠOx": 9076,
      "Ġcolumn": 9077,
      "atures": 9078,
      "Ġmoderate": 9079,
      "Ġpasta": 9080,
      "flies": 9081,
      "Ġsodium": 9082,
      "God": 9083,
      "PE": 9084,
      "pack": 9085,
      "Ġsits": 9086,
      "itudes": 9087,
      "Ġho": 9088,
      "Ġexists": 9089,
      "eling": 9090,
      "ĠNE": 9091,
      "Ġbutt": 9092,
      "Ġtends": 9093,
      "Ġtrace": 9094,
      "Ġpron": 9095,
      "Ġ48": 9096,
      "ĠIndust": 9097,
      "Ġdrying": 9098,
      "laughing": 9099,
      "Ġsorts": 9100,
      "untary": 9101,
      "Ġcategories": 9102,
      "Ġfeathers": 9103,
      "ĠDisease": 9104,
      "Ġintricate": 9105,
      "Finally": 9106,
      "bling": 9107,
      "nic": 9108,
      "Ġwidespread": 9109,
      "esome": 9110,
      "Ġpose": 9111,
      "stick": 9112,
      "Ġhence": 9113,
      "iratory": 9114,
      "opia": 9115,
      "Ġintent": 9116,
      "Ġformal": 9117,
      "Ġsubs": 9118,
      "class": 9119,
      "Ġediting": 9120,
      "Ġlands": 9121,
      "Ġmemories": 9122,
      "Ġengineers": 9123,
      "ediate": 9124,
      "ĠCentre": 9125,
      "Ġcups": 9126,
      "ĠKey": 9127,
      "ĠEdward": 9128,
      "Ġaesthetic": 9129,
      "Ġcorresponding": 9130,
      "Never": 9131,
      "Ġ!": 9132,
      "Ġcage": 9133,
      "Ġcave": 9134,
      "Ġcooper": 9135,
      "Ġbold": 9136,
      "style": 9137,
      "ĠAL": 9138,
      "ĠPers": 9139,
      "istant": 9140,
      "ĠFour": 9141,
      "these": 9142,
      "bohyd": 9143,
      "Ġpicking": 9144,
      "Ġsubstrate": 9145,
      "inois": 9146,
      "Ġbeside": 9147,
      "Ġculinary": 9148,
      "Ġcousin": 9149,
      "Ġcitizens": 9150,
      "Ġcoconut": 9151,
      "Give": 9152,
      "UL": 9153,
      "four": 9154,
      "occ": 9155,
      "vi": 9156,
      "Ġta": 9157,
      "esc": 9158,
      "Ġpant": 9159,
      "Ġpants": 9160,
      "Ġlithium": 9161,
      "eting": 9162,
      "Ġforty": 9163,
      "Ġheated": 9164,
      "ĠSolar": 9165,
      "terior": 9166,
      "Ġsending": 9167,
      "Ġvaries": 9168,
      "ĠHol": 9169,
      "Ġplasma": 9170,
      "indu": 9171,
      "arer": 9172,
      "ricane": 9173,
      "Ġfilms": 9174,
      "Ġidentification": 9175,
      "incol": 9176,
      "Ġastron": 9177,
      "necessary": 9178,
      "wear": 9179,
      "Ġsour": 9180,
      "Ġpestic": 9181,
      "orph": 9182,
      "Ġlongevity": 9183,
      "usions": 9184,
      "ĠCorn": 9185,
      "ĠCross": 9186,
      "ĠBern": 9187,
      "ĠDutch": 9188,
      "Ġcomprom": 9189,
      "Ġrescue": 9190,
      "owners": 9191,
      "ĠKent": 9192,
      "ĠĠĠ": 9193,
      "Ġaviation": 9194,
      "ĠAnim": 9195,
      "azed": 9196,
      "attress": 9197,
      "Ġcomplexity": 9198,
      "Ġrocket": 9199,
      "Ġ1970": 9200,
      "Ġfibers": 9201,
      "Next": 9202,
      "Ġinspection": 9203,
      "ĠCongress": 9204,
      "High": 9205,
      "IK": 9206,
      "]!": 9207,
      "pur": 9208,
      "power": 9209,
      "Ġants": 9210,
      "ĠCut": 9211,
      "umer": 9212,
      "Ġseats": 9213,
      "ĠPop": 9214,
      "Ġvoc": 9215,
      "ĠLast": 9216,
      "Ġherbs": 9217,
      "ĠUlt": 9218,
      "Ġrecre": 9219,
      "ĠVan": 9220,
      "Ġopens": 9221,
      "ioxid": 9222,
      "ĠAnimal": 9223,
      "Ġreflection": 9224,
      "Ġbreeds": 9225,
      "ĠAdams": 9226,
      "Ġzoo": 9227,
      "Ġdemands": 9228,
      "Ġcontained": 9229,
      "ROZ": 9230,
      "Ġcharacteristic": 9231,
      "Ġencounter": 9232,
      "ĠPrince": 9233,
      "Ġextraord": 9234,
      "Ġfatty": 9235,
      "Ġmechanics": 9236,
      "ĠSwed": 9237,
      "Ġroughly": 9238,
      "Ġmushrooms": 9239,
      "Ġshelter": 9240,
      "ĠQuestions": 9241,
      "ĠLibrary": 9242,
      "66": 9243,
      "77": 9244,
      "Up": 9245,
      "Â·": 9246,
      "Ġpitch": 9247,
      "Ġyoga": 9248,
      "Ġeco": 9249,
      "ctu": 9250,
      "ĠData": 9251,
      "arts": 9252,
      "Ġtears": 9253,
      "asty": 9254,
      "Ġgloves": 9255,
      "uhoh": 9256,
      "closure": 9257,
      "Ġswing": 9258,
      "Ġcleaner": 9259,
      "Ġportra": 9260,
      "ĠColumb": 9261,
      "Ġpackaging": 9262,
      "Really": 9263,
      "Ġdemonstrate": 9264,
      "Ġestimates": 9265,
      "Ġdimensions": 9266,
      "ummary": 9267,
      "Ġthyroid": 9268,
      "Ġrefrigerator": 9269,
      "Ġveterinarian": 9270,
      "Her": 9271,
      "Mommy": 9272,
      "RIC": 9273,
      "counter": 9274,
      "mes": 9275,
      "Ġtact": 9276,
      "oned": 9277,
      "Ġlighter": 9278,
      "Ġbeer": 9279,
      "estation": 9280,
      "thritis": 9281,
      "Ġchi": 9282,
      "ĠFar": 9283,
      "ppers": 9284,
      "ĠRNA": 9285,
      "ĠLabor": 9286,
      "Ġunderwater": 9287,
      "Ġfoam": 9288,
      "Ġmodified": 9289,
      "Ġreadily": 9290,
      "Ġcellular": 9291,
[...]
